#version: 0.2 - Trained by `huggingface/tokenizers`
Ġ Ø
Ø §
Û Į
Ù Ĩ
Ø ±
Ù ĩ
Ù Ī
Ù ħ
Ø ¯
Ø ª
Ġ t
Ú ©
ĠØ ¨
h e
ĠØ §
Ġ a
Ġ Ùħ
Ù Ħ
Ø ³
i n
â Ģ
Ø ´
âĢ Į
ĠØ ¯
Ġ Ú©
Ø ²
Ø§ ÙĨ
Ġt he
Ø ¨
r e
Ġ o
Ġ s
Ġ w
Ú ¯
Ø§ ÛĮ
Ù ģ
Ġ ÙĪ
e r
n d
ĠØ ±
a t
Ø§ Ø±
Ø³ Øª
Ù Ĥ
ÙĨ Ø¯
o n
i s
ĠØ Į
o u
i t
Ġ ÙĨ
Ġ c
e d
Ġ b
e n
ÛĮ ÙĨ
ĠØ ª
ĠÙħ ÛĮ
ÙĪ Ø¯
Ġ h
Ġ f
o r
ĠØ¯ Ø±
Ġ m
ĠØ¨ Ùĩ
a n
in g
Ġo f
Ù ¾
e s
ĠØ ´
ĠÚ© Ùĩ
Ġt o
ĠØ ¢
a r
Ġ p
Ġ Ùĩ
Ø ¹
ĠØ ³
Ø± Ø¯
Ġ in
Ġ d
a l
Ø ®
ĠØ ®
ĠØ± Ø§
Ġa nd
a s
Ġt h
Ú Ĩ
ĠØ§ Ø²
Ø§ Ø¯
Ġ l
Ø ¬
ÛĮ Ø¯
Ø§ ÙĦ
Ġ Ù¾
i c
o m
Ø§ Ùħ
ĠØ¨ Ø§
l e
Ø Ń
Ġ n
Ġ ÛĮ
ÙĪ Ø±
l l
Ġ Ú¯
i on
ĠØ¨ Ø±
Ġ he
ĠØ§ ÛĮÙĨ
ĠØ ¬
Ġ g
ĠØ§ Ø³Øª
Ġ e
Ùĩ Ø§ÛĮ
ĠØ¨ ÙĪØ¯
Ġb e
Ø ·
l y
Ùģ Øª
ÙĪ ÙĨ
o t
s t
a d
Ġ ÚĨ
v e
Ø§ Ùĩ
Ġ Ùģ
Ø´ Øª
en t
o w
Ùĩ Ø§
Ø± ÛĮ
u t
ĠØ¢ ÙĨ
ĠØ Ń
i m
ÙĦ ÛĮ
i d
Ġ re
s e
ĠØ ²
Ø µ
Ġth at
Ùħ ÛĮ
ÙĪ ÛĮ
Ġ y
l d
a c
Ġ I
ĠÙĩ Ùħ
e t
Ġw as
Ġo n
Ø¯ Ùĩ
ÛĮ Ø±
r o
ĠØ ¹
Ġ is
g h
v er
Ø§ Ø¨
Ġ ÙĤ
ĠÛĮ Ú©
a y
Ġ u
ÛĮ Ùħ
Ġ it
i r
Ø§ Øª
Ġy ou
a m
u r
ĠÚ© Ø±Ø¯
Ġf or
Ġw h
Ġ (
Ø§ Ø²
T he
it h
ĠØ§ ÙĪ
Ġs t
Ġw e
ÙĪ Ø§ÙĨ
Ø³ ÛĮ
ĠÙħ ÙĨ
c t
Ġ S
Ġ Û
c e
Ġw ith
Ġa s
Ġ A
r i
t er
Ú¯ Ø±
c h
Øª Ø±
Ġ M
' s
Øª ÛĮ
Ø¯ Ø±
Ġ C
Ġa n
a nd
o l
at ion
he r
i l
ĠØ¨Ø± Ø§ÛĮ
ÙĪ ÙĦ
ĠØ® ÙĪØ¯
Ùħ Ø§
ĠÚ© ÙĨ
Ø± ÙĪ
Ġh is
Ø ¶
Ú© ÙĨ
Ø§ Ø´Øª
i f
Ø± Ø§
Ùħ Ø§ÙĨ
Ġa t
Ø§Ø± ÛĮ
gh t
Ø ¢
k e
ÙĨ Ú¯
ÛĮ Ø²
Ġ ÙĦ
ĠØ± ÙĪ
Ġn ot
ĠØ´ Ø¯
ĠØ¨ ÛĮ
Ø ¸
Ø® Øª
Ġh a
o d
ĠØ µ
Ø °
Ø§Ø¯ Ùĩ
Ġs e
ĠØ® ÙĪ
u l
Ġh ad
ou ld
a in
Ġ "
Ġ 1
ĠÙħ ÙĪ
Ġ P
t h
ÙĦ Ø§
Ġd e
i ll
a g
u s
o p
Ġhe r
ĠØ¯ Ø§Ø±
Ø º
ĠØ ·
Ġ B
Û °
Ø§ÙĨ ÛĮ
o re
Ġm e
is t
ĠØ´ Ø¯Ùĩ
ĠØ¯ ÙĪ
Ø «
Ø´ Ø¯
Ú¯ ÛĮ
ĠØ§ ÙĨ
es s
r om
. .
Ġc on
u m
Ø§ Ø³
Ġc om
Ġ âĢ
Ú© Ùĩ
ĠØª Ø§
p e
Ø¨ Ùĩ
ĠØª ÙĪ
Ġ r
Ġ k
ĠØ¯ ÛĮ
Ø ¦
Ġa re
a b
Ġb y
Ø§ÙĨ Ùĩ
re d
Ø¨ ÛĮ
ĠØ³ Ø±
u n
an t
Ø§ Ø³Øª
Ġs h
Ġ *
Ġo r
ĠÚ© Ø§Ø±
e m
Ġha ve
Ø§ ÙĤ
o s
e l
er s
Ø§ÛĮ ÛĮ
Ġh im
Ġn e
Ġl i
Ġe x
ĠØ Ł
q u
Ġth is
Ġ G
es t
Ø§ÛĮ ÙĨ
Ġ R
Ġf rom
Ġs u
Ø¯ ÛĮ
Ġ D
± Û
p p
ĠÙ¾ ÛĮ
Ġd o
Ġa l
at e
Ġ v
ĠÚ¯ ÙģØª
i g
ĠØ¯ Ø§Ø´Øª
Ġs o
Ú© Ø±Ø¯
re s
ĠÙħ Ø§
ĠÛĮ Ø§
it y
Ø® ÙĪ
ĠÙĨ ÙħÛĮ
Ú¯ Ø§Ùĩ
n t
Ġ L
ÙĨ ÛĮ
Ġ T
ĠÙģ Ø±
ar t
Ġp ro
ar d
al l
Ú© ÛĮ
Ġa ll
Ø¨ Ø±
Ġ H
ou t
or t
ĠØ³ Ø§ÙĦ
Ġg o
u st
Ġ F
Ġ E
o k
Ġa b
Ġl o
Ú ĺ
ĠØ¯ Ø³Øª
Ø§ÛĮ Ø¯
a p
Ø¨ Ø§
Ġc h
ÛĮ Ø³Øª
ic h
Ø§ ÙĪ
Ġthe y
Ġ 2
Ġw or
a u
ÙĤ ÛĮ
Ùĩ Ø±
Ġs he
om e
Øª ÙĪØ§ÙĨ
ÙĦ Ùĩ
Ø¹ ÛĮ
Ø´ Ø§ÙĨ
Ġ =
Ġw he
Ø§Ø± Ùĩ
i ve
ÙĨØ¯ Ùĩ
Ġwe re
i e
al ly
ĠÙĩ Ø±
' t
Ø§ÙĨ Ø¯
Ġ Â
Ġ N
Ùģ Ø±
Ġs a
Ġm y
ĠÚ¯ Ø±
H e
ver y
Ġ W
ÛĮ Ø§
ou r
r ou
ĠÙħ Øª
ĠØ¨Ø§ Ø²
i es
a k
Ġc an
Ġon e
Ġin t
as t
ĠÙĩ Ø³Øª
ĠØ¢ Ùħ
Ø¹ Ø¯
ĠÛ ±Û
ÛĮØ¯ Ùĩ
ĠØ§ ÛĮ
Ġu p
Ġk n
i ght
am e
g e
Ø± Ùģ
ou s
ĠÙħ ØŃ
Ġl e
0 0
r y
Ø§ Ø®Øª
ĠØŃ Ø§ÙĦ
ĠØ º
on g
in d
Ú© Ø±
e ll
Ġ j
Ùħ ÙĨ
c i
Ġwh ich
i v
ac k
id e
Ø§ Ø´
Ġo ut
ÙĪ Ùħ
Ø¨ Øª
Ġ J
Ùĩ Ùħ
m ent
ÙĪ Ø´
ĠÙħ Ø¹
on e
Ø± Ú©
r a
Ù Ĭ
ĠØ§ Ø³
ĠÚĨ ÛĮØ²
Ġwh o
ĠÚĨ Ùĩ
Ġw ould
Ġthe m
Ġu s
ÙĪØ± ÛĮ
ĠØ¯ Ø§Ø¯
Ġb ut
A nd
Ù Ģ
u re
I t
ÙĪ Ø²
ĠØ¨ Ø¯
o st
ÙģØª Ùĩ
Ġm an
t her
ĠØ± ÙĪÛĮ
ÚĨ Ùĩ
in e
Ø´ ÙĪØ¯
ĠØ§ Ùħ
f e
Ġp l
Ġ1 9
u d
Ù ĭ
ĠØ´ ÙħØ§
ĠØ¯ÛĮ Ú¯Ø±
Ġthe re
Ġab out
p t
Ġthe ir
Ø¬ Ø§
Ø± Ø³
Ġ -
ow n
Ù Ķ
Ġ ÙĨØ¯
Ġwh at
Ø´ ÙĨ
Ø§Ø¯ ÛĮ
Ø§ Ùģ
Ø¬ Ùĩ
ĠÚ©Ø±Ø¯ Ùĩ
ac e
ĠÙĩÙħ Ùĩ
e ar
Ø§Ø± Ø¯
r an
ĠÙħ Ø±Ø¯
Ø§ÙĦ ÛĮ
Ġbe en
l o
T h
ĠÙĤ Ø±
ĠÛ ²
at ed
i a
b er
ĠÙĨ Ø¸
im e
Ġn o
¹ Û
ĠÚ© Ø´
se l
Ú© ÙĨØ¯
ĠÙĨ ÙĪ
ĠÚ© ÙĨØ¯
Ġsa id
c k
Ġ '
Ġli ke
ÛĮ ÙĦ
Ġm ore
a ke
ĠØ¯ Ùĩ
a re
ĠØ¯Ø§Ø± Ø¯
i an
ĠØ®ÙĪ Ø§Ùĩ
ic e
ÛĮ ÙĦÛĮ
Ø± Ú¯
ĠØ¨ Ø²
Ġ im
o nd
ĠÙ¾ÛĮ Ø´
ac t
Ġu n
Ø§Ùħ Ø§
ĠÙĩ ÛĮ
ag e
Ġa g
p l
Ø´ Ùħ
ÙĤ Øª
it t
o g
ĠÙħ Ø´
in k
Ø± Øª
as s
Ġ en
I n
.. .
Ġ K
Ġp e
p er
Ġ O
ĠâĢ ĵ
Ø§ Ú©
ĠÚ© ÙĪ
Ġc ould
v en
i z
ion s
ĠØ§ ÙĨØ¯
Ġwhe n
it e
h ing
ÛĮ Ú©
r u
Ġ U
Ġo ther
Ø§Ùħ Ùĩ
Ø¬ ÙĪØ¯
he d
ĠØ¨Ø§ Ø´Ø¯
Ġd is
Ġa r
i p
ĠÚ© Ùħ
Ø± Ùĩ
s o
ĠÙħ Ø³
ou nd
ĠØª ÙĨ
Ùħ Ø§ÛĮ
Ġh as
ar y
Ġ if
ĠØ§ ØŃ
ĠØ§ ÙĦ
Ġcom p
Ġint o
Ġs ome
en ce
ÙĩØ§ÛĮ ÛĮ
ĠØ±ÙĪ Ø²
Ø¹ Ùĩ
ĠØª Ø±
Ġ ro
Ùħ ÛĮÙĨ
ĠØ§ Øª
ĠØ¨ÙĪØ¯ ÙĨØ¯
Ø¹ Øª
Ø¯ Ùħ
Ġ qu
Ġs p
re at
Ġyou r
Ġt ime
b le
Ġt w
e p
Ġan y
Ø´ Ùĩ
ĠÙĨ ÛĮØ³Øª
ab le
ic al
c c
Ø³Øª Ùĩ
Ġkn ow
ÙĨ ÛĮÙĨ
Ġf e
Ġw ill
Ġbe c
Ø´ ÛĮ
ĠÙĪ Ø§ÙĤ
B ut
ĠÙ¾ Ø³
Ġd id
ÙĤ Ùĩ
Ġlo ok
ĠØ± Ø³
au se
Ø¯ Ø§
sel f
ĠØª Ùħ
Ġa f
op le
ou nt
ÙĪ Ø±Ø¯
res s
re e
ĠÙĨ Ùĩ
is h
ĠØ¹ Ùħ
ĠØ¨ Ø³ÛĮ
Ø§ Ø·
ĠÂ »
i re
ĠØ±Ø§ Ùĩ
Ġ V
ĠÙħ ÙĤ
Ġa d
an g
Ġo ver
ay s
a v
Ġp r
ĠØ² ÙĨØ¯
ĠØ Ľ
Ù¾ Ø³
o se
Ġth an
ÙĪ Ø³
ĠÚ© ÙĦ
ĠØ± ÙģØª
t e
ĠØ§ ÙħØ§
f or
ÙĪ ÙĨØ¯
Ú© ÙĦ
Ġc l
ĠÙħ Ø¯
ÙĤ ØªÛĮ
ĠØ¨ Ø§ÛĮØ¯
Ú© Ø§Ø±
Ùģ Ø§Ø¯Ùĩ
ir st
re n
Ø³Øª Ø§ÙĨ
i le
ig n
ĠÚ¯ Ø°
ÙĨ Ø¬
nd er
ÙĪÙĨ Ùĩ
Ġpe ople
ĠÙĨ Ø§Ùħ
Ø§Ø² Ùĩ
ing s
ĠÛ±Û ¹Û
Ġp er
Ġ very
ot her
ĠÙħ Ø«
t he
ĠÙ¾ Ø§ÛĮ
ac h
ÙĪ ÙĦÛĮ
Ø¯ Ø§ÙĨ
Ġse e
i ld
ĠØ¨ Ø§ÙĦ
Ø®ÙĪ Ø§Ùĩ
ĠØ§Ø³Øª ÙģØ§Ø¯Ùĩ
Ø¬ Ø§Ùħ
Ú¯ Ø°
ur n
ĠØ¨ Ø¹Ø¯
ĠØ¹ ÙĨ
ÙĨ Ø§ÙĨ
Û° Û
v ed
ĠÙĨØ¸ Ø±
ad e
ĠÙħ Ø¬
ÙĪØ± Øª
ĠÙĪ Ø¬ÙĪØ¯
ĠÙĩÛĮ ÚĨ
ÙĦ ÙĪ
Ġcon t
Ø§Ø¯ Ø±
Ø² ÛĮ
Ø§ Ø®
e ct
Ġ Ù
ul t
Ġth ou
or y
Ġp art
Ø¨ Ø§Ø±Ùĩ
ĠÙĤØ± Ø§Ø±
Ø§Ùħ ÛĮ
ĠÙĨ ÛĮØ²
Ġy ear
p ort
ĠÙĪ ÛĮ
b l
ĠØ¨ ÛĮÙĨ
ĠØª Øµ
Ġon ly
Ø¢ ÙĨ
an ce
Y ou
ÙĪ Ø§
ĠØ² ÛĮ
ation s
Ø¨ ÙĪØ¯
Ġt e
ÙĤ Ø·
ĠØ¯ ÙĪØ±
Ġf irst
Ġo ur
ĠØ¨ Ø§Ø±
Ø¯ ÛĮØ¯
ĠÙģ Ú©Ø±
ĠÙĩØ³Øª ÙĨØ¯
Ġa m
ĠÚĨÛĮØ² ÛĮ
f f
Ġre s
Ġc o
ĠÚĨ ÙĨØ¯
Ø¨ Ø§ÙĨ
Ġj ust
Ø² Ø§Ø±
Ø§ Øµ
ĠÂ «
ĠØ® ÛĮÙĦÛĮ
Ø§ ØŃ
Ġtw o
ĠØ¬ Ùĩ
ĠØª ØŃ
Ġwor k
ĠÙ¾ Ø±
ĠS t
u e
Ú¯ Ùĩ
ĠÙĨ ÛĮ
c l
Ø´Øª Ùĩ
ĠØ§ Ø¬
Ùħ Øª
ic k
w n
ĠC h
Ġ- -
Ġthe n
ĠÙħÙĪ Ø±Ø¯
ØªØ± ÛĮÙĨ
Ġs pe
ĠØ§ÙĨ Øª
ĠØ¨ÛĮ Ø´Øª
w e
Ġn ow
ĠØ² ÙħØ§ÙĨ
ĠØ³ ÛĮ
Ø® Øµ
ĠØ§ Ú¯Ø±
Ġth ink
Ġg r
ĠØ´ ÙĨ
ĠØ³ Ø§Ø®Øª
ĠØ¬ Ùħ
ĠØ¹ÙĨ ÙĪØ§ÙĨ
S he
at er
ĠØªÙĪ Ø³
Ġb o
Ġof f
Ġh ow
ĠØ²ÙĨØ¯ Ú¯ÛĮ
ĠØ¨ ÙĦ
Ø¨ ÛĮÙĨ
ĠâĢ ¬
ĠØ² ÛĮØ±
Ø± Ø²
ĠØ¨Ø² Ø±Ú¯
ar k
b ut
ĠØ´ ÙĪØ¯
W h
ĠÙĨ Ø´
ĠØ¯ ÙĦ
Ġf o
Ø· ÙĪØ±
if e
Ġal so
ri ght
en s
Ø¦ ÛĮ
ĠØ¯ Ø§Ø¯Ùĩ
ÙĪ Ùĩ
Ġe very
Ġag ain
ĠØ§ÙĨ Ø¬Ø§Ùħ
ĠÙĪØ§ÙĤ Ø¹
or d
ter n
ĠØ§ Ùģ
ĠØ§ Ø·
Ġd es
Ġbe t
ĠÛĮÚ© ÛĮ
ĠÚ¯Ø± ÙģØª
ÙĪ Øª
Ġg et
Ġb r
f t
ÛĮ Øª
Ġp o
e w
ct ion
ĠØ§ ÙĨÚ¯
ĠØ¨Ø³ÛĮ Ø§Ø±
m er
S o
ĠØ¯ Ø§ÙĨ
Ġu nder
Ø±Ú© Øª
Ġthe se
ĠØ¨ Ø®
ĠØ§ Øµ
i al
f ore
Ġb ack
Ġs m
al k
Ø¯ Ø§ÛĮ
ve l
Ġ /
ÙĨ Ùĩ
ÙĦ Ø¨
Ú©ÙĨ ÙĨØ¯
Ú¯ ÙĪ
The y
Ú© Ø§ÙĨ
ĠÙħ Ø§ÙĨ
ver s
ic t
as e
u ch
Ø± Ø¨
ĠØ§ÛĮÙĨ Ú©Ùĩ
ĠÙĨ ÙĤ
Ġw ant
Ġ Úĺ
Ġit s
ĠØ® Ø§ÙĨ
Ġh and
Ú¯ Ø±ÛĮ
on s
Ø±ÛĮ Ú©
o v
ĠØ´ ÙĩØ±
Ø³ Ùĩ
Ġ2 0
ĠØ¯ ÛĮØ¯
om et
ĠØ¨ Ø±Ø¯
ĠÙĨ Ú¯Ø§Ùĩ
ĠÙĩÙħ Ø§ÙĨ
i ed
ĠØ¨Ø§ Ø´
Ø± Ùħ
ĠÚ©ÙĨ ÙĨØ¯
Ø§Ø± Øª
ĠÚ©Ø±Ø¯ ÙĨ
Ġp re
ĠØªÙħ Ø§Ùħ
or n
w ard
ĠÙĨ Ø§
i ous
n g
Ø £
' re
ĠÙĩ Ø§
Ġt r
d u
Ġs c
Th is
Ġd own
ĠØ³ ÙĪ
Ø§Ùħ ÙĦ
Ùģ ÛĮ
itt le
Ø§Ø² ÛĮ
Ø¶ ÛĮ
Ġa ct
ÙĪÙĨ ÛĮ
he n
at her
ĠØ§ Ø´
Ġw ay
ĠÚ©ÙĨ Ùħ
Ġs ay
ĠØ® Ø§ÙĨÙĩ
or s
Ġ2 00
ĠÙĩ Ø§ÛĮ
it ion
in t
ĠØ§ÙĪ ÙĦ
ĠØ¨ÛĮØ´Øª Ø±
Ø¨ ÙĦ
Ġ The
Ú© Ø³
W e
c es
ĠØ¬ ÙĨ
Ġm ost
is s
Ġaf ter
Ġwhe re
Ġe ven
ĠÙĨ Ùħ
at h
Ú©ÙĨ Ùħ
Ùħ Ùĩ
Ø§Ø¨ Ø±
ÙĪ Ø¨
) .
Øª Ø´
Ù Ĳ
ĠØ¬ Ø§ÛĮ
Ú¯ ÙģØª
ĠØ¯Ø§Ø´Øª Ùĩ
ĠÙĩÙħ ÛĮÙĨ
Ġl ittle
ĠØ¢ÙĨ ÙĩØ§
m an
Ġne w
Ġf l
Ùħ Ø¯
ĠØ§ Ø¯
ÙĨ Ø§
u ll
rou gh
Ġs y
p le
i ly
Ġl ong
ĠØª Ø¹
o od
o ve
ĠÙĩ ÙĨ
Ġb l
ĠØªÙĨ ÙĩØ§
rou nd
ĠÙħ Ø·
Øª Ùħ
Ġcom m
ĠØµ ÙĪØ±Øª
ĠÙħØ« ÙĦ
Ġsu ch
b e
w ay
Ø® ÛĮ
Ġm uch
Øª Ø§Ø¨
Ġwor ld
ÙĤ Ø§ÛĮ
Ġgo ing
ĠØ§ Ø¹
ĠØ´ Ø¨
Ġre m
Ø¸ Ùĩ
Ġd on
Ø³ Ø§ÙĨ
ĠØŃ Ø±Ùģ
ĠÙĨ Ø¨ÙĪØ¯
ĠØ² ÙħÛĮÙĨ
Ġm ade
ĠÙĨ Ø²
ĠÙħ Ø±Ø§
Ġ right
c ed
ĠÙĪ ÙĤØªÛĮ
ĠØªÙĪØ³ Ø·
Ø¨ Ø§ÙĦ
Ø³ Ø±
at es
Ġbe fore
g an
Ġd if
Ġbec ause
n e
Ġfor m
ĠØ ¶
ĠÚ©ÙĨ ÛĮÙħ
ĠØ§ ÙĪÙĨ
Ú¯ Ø§ÙĨ
Ú¯ ÙĪÛĮ
os s
ent s
ØªÙĪØ§ÙĨ Ø¯
ĠU n
Ġth rough
Ġc all
Ø§Ø¨ ÙĦ
ĠÚ©ÙĪ ÚĨ
ÙĨ Ø§ÙħÙĩ
f ul
ou gh
Ġyear s
a il
in ce
ĠØ§ ÙģØª
Ġ _
Ġsh ould
y s
Ùħ ÙĪ
Ġin d
Ø§ Ú¯Ø±
Ø¯ Ø§Ø¯
Øº ÛĮ
ĠÚĨ ÙĪÙĨ
Ġthou ght
ĠA r
Ø¯Ùĩ Ø¯
ĠØ³ Ùĩ
Ġgo od
Ġw r
Ġm ay
Ú© Øª
Ùħ Ú©ÙĨ
Ġs omet
Ú¯ Ø±Ø¯
Ø¬ ÛĮ
Ġ 3
Ġs er
a ve
v ing
Ø§Øª ÛĮ
Ġhe re
Ġre c
Ø³ Ø§Ø³
for m
Ġd ay
" .
an s
ĠØª ÙĤ
er t
Ù¾ ÛĮ
Ġcon s
ĠÙĨ Ø³
ĠÙĦ ØŃ
it ed
ĠØŃ Ø¯
ĠØ¨Ø§Ø² ÛĮ
ar s
re nt
n ess
Ø±Ø¯ Ùĩ
ĠÙĨ Ø´Ø§ÙĨ
Ġe y
Ġm ake
ĠÛĮ Ø§Ø¯
ĠÚ©ÙĨ ÛĮØ¯
ĠØ¢ Ø²
Ġl ife
ĠÙħÛĮ Ø§ÙĨ
ĠØ¢ Ø¨
e nd
ĠØª ÙĪØ§ÙĨ
ĠÙģ ÙĤØ·
ation al
is e
t y
ĠØµ ØŃ
Øª Ø§
Ġa pp
Ø§Ùĩ ÛĮ
ÛĮØ¯ Ø§
le ct
ĠÙĩÙħ ÚĨ
Ġ20 1
Ùģ Ùĩ
ĠØ¨ ÛĮØ±
Ø±Ø³ ÛĮØ¯
a w
i gh
Ú¯ Ø²
Û° Û°
au gh
v es
Ø® ØªØ±
Ġo wn
ĠØ¯ÙĪ Ø³Øª
ÙĨØ¯ ÛĮ
Ùĩ ÛĮ
ĠÙĦ Ø¨
ĠØ¢ ÙĪØ±Ø¯
Ġne ver
u al
Ġo ld
u ally
Ġc ount
ĠÚ©Ø´ ÙĪØ±
ĠØ² ÙĨ
The re
ÙĪ Ø¹
ĠÚ¯Ø± ÙģØªÙĩ
Ùħ ÙĦ
ĠÙĨØ¯ Ø§Ø´Øª
Ġwe ll
Ġman y
ĠØ®ÙĪØ§Ùĩ Ø¯
ĠI n
ol og
Ġg en
a ir
Ġat t
ĠÙĨ ÙģØ±
Ġg reat
ĠÚ¯ Ø±Ø¯
' m
i ble
j ect
Ġp h
ĠÙħØ±Ø¯ Ùħ
Ġcom e
Ġre l
Ø¨ Ø§Ø±
ĠØ¢Ùħ Ø±ÛĮÚ©
ĠØ¯Ø§Ø± ÙĨØ¯
ĠØ¬ ÙĨÚ¯
ĠØ®ÙĪ Ø´
ĠØ¯Ø± Ø¨Ø§Ø±Ùĩ
ĠÚ© Ø³ÛĮ
ĠØ® Ø·
ĠØ®ÙĪ Ø¨
Ġse c
ĠÚ©Ø±Ø¯ Ùħ
Ġ Y
Ġs ame
Ġb u
ÙĦ Ùģ
ou se
Ø§Ø· Ø±
Ġth ose
i b
Ġus ed
ĠØ² Ø¯
ĠØ °
Ġa cc
Ġha pp
ĠØ´ Ùħ
ĠØ¬ ÙĪ
ĠØ¨ÛĮØ± ÙĪÙĨ
ĠÙħ ÙħÚ©ÙĨ
Ú¯ ÛĮØ±
ak ing
ri ed
ØŃ Ø§ÙĦ
ĠØ´ Ø±
Ġw om
ÙĪ ÙĤ
l es
Ġbe ing
ĠØº ÛĮØ±
ow er
Ø´ ÛĮØ¯
o b
Ġc r
a z
ĠØ´ ÛĮ
od y
i x
ĠÙĪ ÙĦÛĮ
ĠØª ØºÛĮ
Ø§ Ø¶
Ø² Ùĩ
ĠØ§ØŃ Ø³Ø§Ø³
Ġto o
ØŃ ÛĮ
ĠØ´ Ú©
Ø¹ÛĮ Øª
Ġas k
Ġa c
ĠØ· ÙĪØ±
Ġbe l
Ġe nd
ĠÚĨ ÙĨÛĮÙĨ
Ġt urn
Ø±ÙĪ Ø¹
ĠÚĨ Ø´Ùħ
Ø¨ Ø±Ø¯
Ø¯ Ø§Ø±
st em
ÙĪ Ø§Ø±
ĠÙĤ Ø¯Ø±
he s
ĠØ¯ÛĮ Ú¯Ø±ÛĮ
an k
th ing
' ve
ĠØ· Ø±Ùģ
o ld
Ġe m
Ġ ke
Ġm ust
ĠÚ© Ø§Ùħ
ĠØ¢Ùħ Ø¯
ĠØ³ Ø§
m s
ic s
ØªÙĪØ§ÙĨ Ø³Øª
Ø± ÛĮÙĨ
Ġne ed
a id
Ġs l
ĠÙ¾ Ø±ÙĪ
o c
ĠÚ¯ Ø±ÙĪ
Ġw ent
ot h
ÙĨ Ùħ
Ø®ÙĪ Ø§Ø³Øª
Ø³ Ùħ
ĠØŃ Ø³
u bl
ĠØª Ø¬
ĠÚ©Ø±Ø¯ ÙĨØ¯
ĠØ±Ø³ ÛĮØ¯
ĠØ¹ ÙĦ
ĠÙħ Ùĩ
ĠÙ¾ ÛĮØ¯Ø§
Ġc ar
ĠØ± ÛĮ
ĠØ¬ Ø§
ĠÙħØ§ÙĨ ÙĨØ¯
e c
ĠØªØºÛĮ ÛĮØ±
p h
Ġl et
we en
Ġc ame
Øª ÙĪÙĨ
Ġch ild
Ùĩ ÙĨÚ¯
at ing
ĠØ¨ÙĪØ¯ Ùħ
ÙĨ Ø´
ĠØª Ø´
ĠØ· ÙĪÙĦ
Ġo b
Ġth ree
Ø² Ø¯
Ġhe ad
pe ct
Ġh um
ĠØ´ Ø±ÙĪØ¹
ĠØ¢ ÙĦ
Ú© ÙĪ
ĠÙģ ÛĮÙĦ
t ing
Wh at
c ess
ĠØ¢ÙĨ Ø¬Ø§
l and
Ġ ent
im es
ĠØ¨ÙĪØ¯ Ùĩ
ÛĮÙĨ Ùĩ
l ed
ĠØ³ Ø§Ø²
ĠØ¯Ø§ÙĨ Ø´
ĠØŃ ØªÛĮ
ÙĪÛĮ ÛĮ
ĠØ ¸
Ú¯ÛĮ Ø±ÛĮ
a red
Ġdif fe
Ġst ill
on t
ĠÙĪ ÙĤØª
Ġhim self
en ed
ĠØ³ ÙĦ
Ġt ake
ÛĮÙĨ ÛĮ
ĠÛ² Û°
ĠÛĮ Ùĩ
ÛĮØ± Ùĩ
ĠM r
Ø´Øª ÛĮ
ĠÚ© Ø³
Ġsomet hing
g in
Ġf ound
ĠØª Ø§Ø±ÛĮ
ci al
v ent
ĠØ§ Ø±Øª
Ø± ÙģØª
Ġg ot
ĠØ®ÙĪØ¯ Ø´
fe ct
Ġo p
ad y
n ing
ĠÚ© ØªØ§Ø¨
Ġd ist
g et
ĠÚ¯ ÙĪØ´
) ,
Ġbet ween
i er
' ll
ĠØ´ Ùĩ
Ø« Ø±
ĠÚ©ÙĪÚĨ Ú©
ÙħØ§ÙĨ ÛĮ
ĠÙģ Ø±ÙĪ
ĠØ¨ ÛĮÙħ
ĠØ® Ø§Ø·Ø±
ÙĪØ¯ ÛĮ
Ġse em
Ø§ÛĮ Ø´
Ġre g
ĠÙ¾ ÙĨØ¬
ran s
Ġe ar
augh ter
Ġl ast
Ġth ings
Ġa way
ĠØ¨ÛĮ Ø´
ĠØ² Ø¨Ø§ÙĨ
Ġey es
Ġin c
ĠØ¢ Ø±
Ġp ers
x t
Øµ Ø¯
Ġim p
Ġin st
ĠØª Ø¨
ĠÙĨØ² Ø¯ÛĮ
Ġs ur
Ġt ell
ĠØ¨ ÙĨ
ul ar
ÙĦÛĮ Ø³ÛĮ
Øª ÙĪ
âĢĮ âĢĮ
ĠØ «
g g
ĠØ¯Ø± Ø³Øª
Ġst art
ro s
Ġs et
Ġm ight
ĠÙ¾ Ø§
as ed
ĠØ§Øª Ø§ÙĤ
Ġwor d
ĠØ§ÛĮÙĨ Ø¬Ø§
Ġu se
¸ Û
ĠØ¨Ø§ÙĦ Ø§
ur ing
Ø¹ Ø§Øª
r ic
Ġre ally
Ø§ Ø³ÛĮ
ĠØ¯ Ø®ØªØ±
ĠÙħ Ø§Ùĩ
if ic
u nd
Ġ {
Ġt alk
Ġsy stem
e re
ow s
ce pt
ÙĩØ§ÛĮ Ø´
ĠØª ÙĪÙĦ
w h
Ġt er
ĠØ¯ ÙĨ
ĠØ§ ÙģØ±
Ġ 4
Ġfe el
ĠØ¨Ø¯ ÙĪÙĨ
Ø¨Ø± Ø§ÛĮ
ĠÚ©ÙĨ Ø§Ø±
ĠØ³ Ø®
Ġf am
Ø¢ ÙħØ¯
. "
ĠØ¬ Ø²
ĠÙ ĥ
it ies
Ġc ol
ĠÙ¾ ÛĮØ±
Ġp ass
ĠÙħØ¹ Ùħ
g r
Ġm at
Ġp ol
ĠÛ² Û°Û
ĠØµ Ø¯Ø§ÛĮ
Ġsu pp
Ø§Ø¨ ÛĮ
Ø´ ÙĪÙĨØ¯
ĠÙĨ ÙħØ§ÛĮ
id ent
ĠØ® ÛĮ
a h
Ġro om
Ø§ Ø¹
Ġre t
ĠÚ© Ø§Ø±ÛĮ
ĠØ§Ø· ÙĦØ§
or k
ĠØ¯ ÙĨÛĮ
Ġde c
Ø® Ø§ÙĨÙĩ
Ġwith out
ĠÙħ Ø³Øª
al s
ÙĦÛĮ ÙĦ
ÙĪ Øµ
Ġp ut
Ġg l
e red
Úĺ ÛĮ
ĠÙħ Øµ
Ġa p
Th at
ĠØª Ø£
ĠØ´ Ø±Ú©Øª
ĠÙĤ Ø·
Ú©Ø±Ø¯ ÙĨØ¯
Ġp res
ĠØ¬ Ø§ÙĨ
e ver
Ġsu b
³ Û
ĠØ§ Ø®
ch o
is hed
ĠÙ¾ Ø¯Ø±
Øª Ø§ÙĨ
ĠÙħ Ø±
ĠØ¬ Ø¯ÛĮØ¯
Ġin ter
I f
Ø§ÛĮ ÙĦ
Ġf ace
Ġn um
ĠØ± ÙĨÚ¯
c y
Ø± Ø§Ùĩ
Ġe ach
l i
ar ch
ĠÙħ ÙĦ
Ġst ud
ĠØ´Ø¯ ÙĨ
w ays
al e
Ø§ÛĮ Øª
ĠA ir
ĠÛ ±
cl ud
ĠØ¯Ø± ÛĮØ§
Ġa round
Ġs im
ĠÙħ Ø§Ø¯Ø±
ĠØ¬Ùĩ Ø§ÙĨ
u p
ĠÚ¯Ø° Ø§Ø´Øª
ĠØ´ Ø®Øµ
ĠØ³ ÙĨ
Ø§ÙĨ Ú¯
it s
Ġm en
ĠØŃ ÙĤ
Ġex p
Ø§ÙĨ Ø³
at ive
ĠÙĩÙĨ ÙĪØ²
ĠÙĩ ÙĨÚ¯
Ø§ Ù¾
re t
Ġl ar
ĠÚĨ Ø±Ø§
Ġg u
Ø¨ ÙĪØ±
Ġcall ed
ow ing
ĠT h
ÙĤ Ø§
ĠØ¯Ø§Ø± Ùħ
ĠÚ¯Ø±ÙĪ Ùĩ
Ġhe l
Ġin s
Ġth ing
ĠØ¹ ÙĤ
u res
Ġdo es
ĠØ´Ø¯ ÙĨØ¯
Ġpro du
Ġ â
Ġgen er
W hen
ĠØ´ ÙĪ
ĠØ§ÛĮ Ø§ÙĦ
ĠØ§ Ùĩ
ĠÙħÛĮ Ø²
ter s
Ġre al
Ġle ft
Ġm et
ĠØ³ ÛĮØ³Øª
Ġan other
ĠÚ© ÙĦÛĮ
ĠÛ²Û° Û°Û
t en
ĠØ¨ ÚĨÙĩ
ÙĪ ÙĤØªÛĮ
ĠÙħ Ø®
p s
ar m
Ġdiffe rent
u b
ĠØ® Ø§Ø±
he re
Ġm on
Ù ī
ĠÚĨÙĩ Ø§Ø±
ĠÙĨØ²Ø¯ÛĮ Ú©
Ġc our
Ġt rans
Ġ1 8
ĠØ¬ ÙĪØ§ÙĨ
ÙħÛĮ Ø´Ùĩ
Úĺ Ùĩ
Ġ 5
is m
Ø®ÙĪ Ø±Ø¯
ĠÙ¾ Ø´Øª
ĠR e
Ġm od
ri end
Øª ÙħØ§
ĠØ¨ Ø¹
ĠÚ©Ùħ Ú©
i vers
Ġad d
ĠØ¨ÙĦ ÙĨØ¯
ĠØµØŃ Ø¨Øª
Ġin v
ĠÙħÙĪ Ø¶
Ø³Øª ÛĮ
Ġ ÙĦÛĮ
Ø¯ Ø§Ùħ
an ge
Ġf ind
Ġpl ay
A s
ĠØ¨Ø± ÙĨØ§ÙħÙĩ
1 9
ĠÙħØª ØŃ
Ġm om
Ġst r
ĠÙģÛĮÙĦ Ùħ
ĠØ²ÛĮ Ø§Ø¯ÛĮ
Ġlook ed
o y
ÛĮ Ùĩ
ĠÙħ Øº
n er
Ġh ouse
ut ion
ĠÙĨ ÛĮØ±
ĠØ¨ Ø¯Ùĩ
ĠÛ² Û
h ip
vel op
ĠØ³Ø§ Ø¹Øª
ÙĪ Ø·
Ú¯ ÙĪÙĨÙĩ
il ity
Ġf r
Ú©ÙĨ ÙĪÙĨ
ĠØ¢ÙħØ±ÛĮÚ© Ø§
ĠÚ© ÙħÛĮ
Ú¯ Ø´Øª
ĠØ¢ ÙĤØ§ÛĮ
ĠØ³ÛĮØ³Øª Ùħ
ĠÙĦØŃ Ø¸Ùĩ
Ø° ÛĮØ±
Ùģ Ø§ÙĤ
Ø¬ Ø§Ø¯
i o
Ġc he
ĠØªÙĪ Ø¬Ùĩ
Ġto ok
F or
Ġli ght
Ġwh ile
Ø±ÙĪ Ø²
ÙĪ ÙħÛĮ
Ġm in
ĠØ¯ ÙĤÛĮ
ow ed
Ġpl ace
ĠØŃØ§ÙĦ ÛĮ
Ùĩ ÙĨ
Øª ÙĨ
ĠØªÙĪÙĦ ÛĮØ¯
al f
Ġbel ie
ÙĤ Ø§Øª
ĠØ§ÙĪÙĦ ÛĮÙĨ
g er
Ġlo ve
Ġme m
Ġn ight
Ġf act
in ess
H ow
Ġk ind
mer ic
ĠÚ¯ ÛĮ
Ġal ways
iz ed
Ġc ent
d en
Ġre p
Ġe v
Ġnot hing
ist s
O n
ros s
ĠØ§ÙĨØª Ø®
Ġre f
d er
ĠØ®Ø§ÙĨ ÙĪ
Ġf in
ĠØ§ Ø¨
l ess
Ġa ir
Ġfo ll
ĠÙĪ Ø§Ø±Ø¯
ĠÙģ Ø¹
ĠØŃ Ø±Ú©Øª
ĠØ§ÙĨØ¯ Ø§Ø²Ùĩ
m in
ĠØ³ Ø¨
Ġpo int
ĠÙħ Ø®Øª
ĠÙħÙĪ ÙĤ
er n
Ġyou ng
Ġc ur
Ġup on
ĠÙĨÛĮ Ø§Ø²
el t
Øª Ø±ÛĮ
Ġf riend
ĠL e
ÙħÛĮ Ùħ
ĠØ¯ ÛĮØ¯Ùĩ
Ø§ Ø¦
ĠØ§ÛĮ Ø¬Ø§Ø¯
ĠØ§Øª ÙģØ§ÙĤ
ĠØ®Ø§ÙĨ Ùħ
Ġsa w
am p
Ù¾ Ø±
Ġin clud
Ø¢ ÙĪØ±Ø¯
Ġc ap
Ø®Øª Ùĩ
ĠØ§ÙģØ± Ø§Ø¯
ĠØ§ÙĨÚ¯ ÙĦÛĮØ³ÛĮ
Ġp oss
ÙĨØ¯ Ø§ÙĨ
g y
Ġunder st
Ġ ide
ÙĪØ¯ Ùĩ
Ġsm all
ain ed
e k
Ġdis c
t ed
ĠØ§ ÛĮØ³Øª
Ø¨Ø§ Ø´Ø¯
' d
ĠØ¯ÙĨ Ø¨Ø§ÙĦ
Ġpers on
ĠØ§ Ø±
ĠØ¢ Ø®
Ø§Ø®Øª Ùĩ
t o
ver n
Ġ19 9
ĠØŃ Ø¶
ment s
Ġbe h
an y
ot e
Ø¨ Ø¹Ø¯
ĠÛ²Û°Û ±Û
ĠÚ©Ø´ ÛĮØ¯
ĠÙĩ ÙħÛĮØ´Ùĩ
i et
ĠØ§ÙĨØªØ® Ø§Ø¨
Ġg iv
ĠØ´ Ú©ÙĦ
c hed
t s
ĠØ¯ ÙĪÙĦ
ĠØ§ÙĨ Ø³Ø§ÙĨ
ubl ic
ÙĪ Ø³Øª
ĠâĢ İ
ar ry
Ġc re
ag es
at a
n a
ĠØ¹Ùħ ÙĦ
ĠØ¨Ø® Ø´
ĠÙĨØ³ Ø¨Øª
ĠÚ© ÛĮ
ĠØ® Ø±
ĠØ¯Ùĩ Ø¯
Ø§ ÙĪØ±
N ow
Ġhel p
ĠØ¯ Ø§Ø®
Ø ¡
ĠA l
ĠØ²ÙħØ§ÙĨ ÛĮ
r ist
ĠI s
ĠA meric
ĠC om
ĠØ¯ÙĪ Ø¨Ø§Ø±Ùĩ
ĠÙĪ Ø±
ĠØª Ùģ
Ġagain st
Ġfe w
ĠØ³ ÙĨÚ¯
Ġkn own
Ġhum an
Ø¯ÛĮ Ú¯Ø±
Ġh igh
ÙĤ ÙĦ
ĠÙħÙĪØ¶ ÙĪØ¹
ĠØ³ ÙĪÛĮ
ĠÙĤ Ø¨ÙĦ
· Û
ĠÙĨØ¯ Ø§Ø±Ø¯
ĠØ¢Ùħ Ø¯Ùĩ
Ø¹Ø¯ Ø§Ø¯
ĠÙĪØ§ÙĤØ¹ Ø§
Ú¯Ø° Ø§Ø±
cho ol
ĠÚ© ÙĪØ¯
ĠØ§Ø¯ Ø§ÙħÙĩ
ĠÙĩÙħÚĨ ÙĨÛĮÙĨ
s he
ĠÙ¾ ÙĪÙĦ
Ø¨ Ø§ÙĨÛĮ
ou n
ĠÚ¯ ÙĦ
Ġex am
ÙĨ ÙĪ
a x
ĠØŃØ§ÙĦ Ø§
ØªÛĮ Ø¬Ùĩ
ĠÙħÙĨ Ø·
Ø®ÙĪØ§Ùĩ Ø¯
Ġon ce
Ø§ÛĮ Ùĩ
Ø¯ Ø§Ø´Øª
ĠÛĮØ§ ÙģØª
Ġcon f
Ġthou gh
Ġm ind
ĠØ¨Ø§Ø´ ÙĨØ¯
ap h
ĠÙĨØ¯ Ø§Ø±
Ġe ver
ĠØ³ Ùģ
ĠÙħ ÙĩÙħ
ĠÙħÛĮ ÙĦÛĮ
ÙĪÛĮ Ø³
Ø¨ Ø·
i k
ÙĤ Ø¯Ø±
u c
Ġbe gan
o ice
en se
Ġf our
Ġst and
r it
Ġmom ent
ĠØ¨ Ø¨ÛĮÙĨ
ut e
Ġbet ter
olog y
ĠØ¢ ÛĮ
ĠÙģ Ø±Ø¯
s aid
d ay
Ġs ign
Ø±Ø§ Ùģ
Ġ ed
ĠÙĤ Ø§Ø¨ÙĦ
i red
ĠÚ¯ ÙĪÙĨÙĩ
ĠD e
Ġde velop
Ø± Ø®
Ġar t
ir l
c on
as h
Ø¹ ÙĨÛĮ
ert ain
ic ally
Ú© ØªØ±
ou th
ÙĪÙĦ Ø§
ch n
Ø¯Ø§ÙĨ Ø³Øª
us s
ul a
Ú¯ÙĪ ÛĮØ¯
Ġb oth
ie ld
Ġn ame
in es
ÙĦ Ø³
Ø§ÙĪ Øª
ĠÙĩÙħ Ø±Ø§Ùĩ
ĠØ¢ Ø¯Ùħ
Ø¨Øª Ùĩ
ÙĪÛĮ Ø´
os ed
ĠØ¬ ÙĦÙĪ
ĠÙħÛĮ ÙĦ
Ġp ower
ĠØ¨Ùĩ ØªØ±
A t
Ġh ome
al ity
ĠØ³ Ø±ÛĮ
ĠAir port
ĠÙĨ Ùģ
Ø§Ø³Øª Ø§ÙĨ
ut h
Ġh ard
Ġw ater
Ġe l
ĠØŃ Ø§Ø¶
ic es
Ø§Ø¨Ø± Ø§ÛĮÙĨ
Ġd ire
ĠÙģ Ø±ÛĮ
ĠØ´ Ø§Ùĩ
re w
Ġsec ond
Ø´ Ø§Ø±
ĠØ± ÙģØªÙĩ
Ùħ Ø±Ø¯
Ø¬ Ø±
Ġg ive
Ġd r
Ġf il
ĠØ§Ùģ Ø²
00 0
ie w
ĠØ¨Ø± Ø§Ø¨Ø±
Ġas s
ĠØ®Ø§ÙĨÙĪ Ø§Ø¯Ùĩ
Ġhe art
L aughter
ĠØ®ÙĪØ¯ Ùħ
Ġc are
ĠØ® ÙĪØ§ÙĨ
ĠØ¢ Øº
ur al
´ Û
ĠÙĨ ÛĮÙħ
ĠÙĨ Ú©Ø±Ø¯
Ú© Ùħ
ĠØ¹ ÙĦØ§
Ġpro v
Ġcomp le
Ø¨ Ø±ÛĮ
ĠØ±ÙĪ Ø´
ar n
ĠØ§ÙģØª Ø§Ø¯
ÙĪ Ø¬Ùĩ
Ø§ÙĦ Ùĩ
Ġme an
ĠØ¯ ÙĦÛĮÙĦ
Ġre st
ĠÚ¯ÙģØª Ùĩ
Ø± Ø´
ĠØ¯Ø§Ø± ÛĮÙħ
Ġre ad
e x
ĠØ§ ÛĮØ±
m ost
ĠÙĪ ØŃ
Ġqu est
ĠØ¢ÙĨ Ú©Ùĩ
Ġap pe
Ġbo ok
¶ Û
Ú¯ÛĮ Ø±Ø¯
ĠÙĤ Ø¨
u g
ĠÙħ Ø¯Ø±
Ø§Ø² Ùħ
Ġm other
Ø¹ Ø«
Ġs w
ĠÙĨ ØªÛĮØ¬Ùĩ
ĠÛ µ
Ġf ather
Ú©ÙĨ ÛĮÙħ
ĠØ®ÙĪ Ø§Ø¨
Ġkn ew
in ed
Ġto ld
ÛĮØ¯ ÛĮ
Ġf elt
ĠØ³ Ø·
ĠÙĨ Ø®
al th
ĠÙ¾Ø§ÛĮ ÛĮÙĨ
Ġseem ed
Ġdid n
Ø± Ø³ÛĮ
Ø±ÛĮ Ùģ
ent ly
ĠØ´ Ø§ÛĮØ¯
Ġb lo
ĠØµ Ø¯
ĠØ§Øµ ÙĦÛĮ
ĠØŃ ÙĦ
ĠÚĨ ÙĨØ§ÙĨ
Ø§Ø¨ Øª
er ing
o h
in s
Ø¨ ÙĨ
o ck
o ok
Ø´ Ú©
ĠÙħØ¯ Øª
Ġask ed
ÛĮØ² ÛĮ
Ø¬ Ø¨
en e
ÙĩØ± Ùĩ
c om
ĠØª Ú©
Ġt ry
or m
ĠÙĤ Ø§ÙĨ
Ø±ÛĮ Ø³Øª
Ġs k
ap s
Ġb us
Ø§Ùģ ÛĮ
ĠØ³Ø§Ø®Øª Ùĩ
Ġ 6
Ø¨ Ø§Ø²
ĠN ew
Ġnum ber
in a
Ø ¤
Ġd et
ĠØ¢ÙĨ ÚĨÙĩ
ĠÙĪ Ø¶
ang u
is ed
Ġc le
ĠØ¨Ø§ Ø¹Ø«
ĠØ¬ÙĪ Ø§Ø¨
ĠÙħ Ú©
ĠÙħ Ø§Ø±
Ù¾ Ø§
ĠÙģ Ø¶
ĠÙģØ± ÙĪØ¯
ÛĮØ¯ ÙĨ
as on
Ġw alk
Ġpart ic
N o
Ġlo c
Ù ĥ
Ġwom en
Ġ Z
ward s
ak es
Ø® ÙĨØ¯Ùĩ
Ø² ÙĨ
Ġs ol
em ent
Ġv is
ÙĦØ§ ØŃ
at ure
Ġs ide
ĠÙĩ ÙĪØ§
ÚĨ ÙĪÙĨ
ÙĪ Ùģ
one y
W ell
ir d
er v
ĠÚ¯Ø° Ø´ØªÙĩ
ĠÙĨ Ú¯Ùĩ
Ġs ince
ĠØ¨ Ø´
Ġin f
Ġex t
ĠØ´ ÙĪÙĨØ¯
ĠØ´ Ø§ÙħÙĦ
ĠS h
b r
Ġch ar
un g
ĠØŃ ÛĮ
ĠØŃ ÙĤÛĮ
Ġact ually
ĠØ¨Ø³ÛĮ Ø§Ø±ÛĮ
ant s
Ġm ed
ivers ity
H is
Ġw ind
ĠÙ¾ Ø±Ø¯
Ġunderst and
ĠÙħÙĨ Øª
ĠÙħÙĨ Ø¸
Ø¨ Ø¯
ĠUn ited
Ġim port
it her
c ri
at ch
ate ly
iz e
ĠØª Ø§Ø¨
ĠÚ¯ ÙĪ
ĠÙħ Ø±Ú¯
Ġfam ily
Ġex per
Ø±ÛĮ ÙĤ
ĠÙģØ± Ø§ÙĨ
Ġhand s
ain s
Ġu nt
Ø§ÛĮ Ùħ
ĠÙĨÙĪ Ø¹
Ġlook ing
c ent
Ø±Ú© Ø²
ĠØ® Ø§Øµ
Ġd one
ĠØ§Ø·ÙĦØ§ Ø¹Ø§Øª
Ġo cc
Ø¨ Ø§ÛĮØ¯
Ġm o
Ġop en
m e
le y
ĠÙ¾ Ø§Ø³
Ġs ing
an n
Ġse en
Ġl ess
ĠS e
Ġs il
Ġh alf
Ġen ough
ĠØ¯Ø§Ø´Øª ÙĨØ¯
et s
ÙĩÙħ Ùĩ
Ġdo or
The n
ĠH e
ĠÙħ Ø´Øª
Ġchild ren
ĠS p
m ed
Ø±ÛĮ Ùĩ
ĠØº Ø°
ĠÙĪ Ø§
Ġg rou
it ing
Ġret urn
Ġbu ild
Ġb re
ĠØ± Ùĩ
ĠØ¬Ùĩ Ø§ÙĨÛĮ
ĠP ro
" ,
ĠØ³ Ù¾
ÙĪÙĦ ÙĪ
ĠA nd
Ø¨Ø§ Ø·
Ø¯ ÙĪ
Ġg irl
Ġl ater
ĠØª ÙĦ
ĠÙģ Ø±Ø§
ĠØ® Ø¯Ùħ
ĠÙħØ´ Ú©ÙĦ
Ġh our
r al
op e
l ing
Ġl ist
Ø¨ Ø®
ĠØ³ Ø®Øª
ĠØªØµ ÙħÛĮÙħ
ĠÙħØªØŃ Ø¯Ùĩ
Ø² ÛĮØ±
Ùģ Ø§
Ġt re
Ġhe ard
Ġr un
ere st
re am
ĠØ¯ÙĨÛĮ Ø§
Ġm ar
Øµ ÙĦ
ĠØ· Ø¨ÛĮ
ri es
ĠØ®ÙĪ Ø¨ÛĮ
ĠÙĨ ÙĪØ±
ur y
Ø±ÛĮ Ø¨Ø§
u ro
a j
ĠÙ¾ Ø§Ø±
Ġto get
ĠØ¯ Ø§Ø³ØªØ§ÙĨ
Ġpro ble
Ø§ ÙģØª
le t
ĠØ¬ Ø§Ùħ
ĠØ¢ Ø´
r on
Ġtoget her
em ber
ĠØ§ÛĮØ§ÙĦ Ø§Øª
ÙĦÛĮ Ùĩ
Ġ Q
ÙĬ ÙĨ
ĠØ¬ Ø§ÛĮÛĮ
ru ct
ĠØ³ ÙħØª
ĠÙĩØ± Ú¯Ø²
Ġf ar
Ġd ays
ĠØ§ Ø«Ø±
Ġne xt
ØªÙĪØ§ÙĨ ÙĨØ¯
Ġany thing
Ġgo vern
ĠØ¢Ø± Ø§Ùħ
Ġ1 0
Ø§Ùħ Øª
ĠØ¯Ø§Ø¯ ÙĨ
ĠØ¨ Ø³
ĠØ² ÙĨØ§ÙĨ
Ø¯ÛĮ ÙĦ
d e
Ġm us
Ġw a
ĠØ±ÙĪ Ø´ÙĨ
ĠE ng
Ġof ten
ĠØ§Ø³ Ù¾
ĠI t
Ġle ad
it al
Ġd uring
Ġwom an
Ġe lect
ĠØº Ø±
Ø§ÛĮ Ø±
Ġwh y
Ġne ar
Ġs at
Ø§ÙĨ Ùħ
Ġex pl
ĠØ¹ Øµ
id ed
un ic
Ø² Ø§Ø¯Ùĩ
pp ed
ĠØ¢ Ùĩ
Ġde f
A n
ĠØ¢ Ø³
ÙĦ Ùħ
f ter
ill ion
Ġint erest
pe nd
Ġan s
Ø§Ùħ Ø¨Ø±
Ġp at
Ġturn ed
Ġt y
Ġlar ge
Ġs chool
Ø±Ø§ ØŃÛĮ
th at
ĠØ§ Ø´Øª
ĠÙ¾Ø§ÛĮ Ø§ÙĨ
Ġcont in
ar ing
ĠØ§ Ø¹Øª
am es
Ġde m
Ġdes ign
ab ly
Ġte chn
Ø±Ø§ Ø¦
ÙĦØ§ Ùģ
Ø´ ÙĪÙĨ
Ġcount ry
ÙĨ Øª
ĠÙĨ Ø§Ø±
ĠA s
ĠÙħØ³ Ø¦
Ġp le
ĠØ§Ø¬ Ø§Ø²Ùĩ
ĠØŃØ¯ ÙĪØ¯
u es
ĠØ³Ø§Ø² ÙħØ§ÙĨ
Ø¨ ØŃ
ull y
ÙĤ Ø±
Ú©ÙĨ ÛĮØ¯
ØªÙħ Ø§ÙĦ
o ll
ĠÙ¾ Ø±Ø³ÛĮØ¯
ain t
ĠP r
Ø®ÙĪØ§Ùĩ Ùħ
form ation
Ġl ot
ĠØªØ§Ø±ÛĮ Ø®
ĠØ§ ÙĤØª
ĠØŃØ§ÙĦ Øª
Ġv ar
ĠI nd
id es
or th
ĠØ¢Ùħ ÙĪØ²
ĠØ¯Ø§ÙĨØ´ Ú¯Ø§Ùĩ
ĠP h
Ġv oice
Ġm ove
at t
Ġcour se
ĠØª ÙħØ§
Ġl angu
Ø§Ùħ ÙĪØ´
Ġspe c
Ø² ÙĨØ¯
ĠØ®ÙĪ Ø§Ø³Øª
Ø« ÛĮØ±
Ġp op
ÙħÛĮ Øª
ĠØ¬Ùħ Ø¹
ak en
ĠÙĦØ¨ Ø§Ø³
ĠØ® Øµ
ĠØ¨ Ú¯ÙĪÛĮ
ØŃ Ùĩ
ĠG od
ĠØ² Ø¯Ùĩ
n ot
ĠÙħØª ÙĪØ¬Ùĩ
Ġpro cess
Ġb ro
ĠØ³ÛĮ Ø§Ùĩ
Ġ19 8
Û ±Û
ÙĦ Ø§Ùħ
Ġb est
a ut
ĠÙĩ ÙĪ
er man
Ø® ÙĪØ§ÙĨ
ĠØ¯ÙĪÙĦ Øª
ĠØ±Ø§ Ø³Øª
Ú©Ø±Ø¯ Ùħ
Ġf ore
Ġword s
Ø±ÛĮ Ø§ÙĨ
gr am
ÙĪØ§ Ø¬
ĠÛ ³
ĠØ¢Øº Ø§Ø²
Ġc ond
ĠØªØ¨ Ø¯ÛĮÙĦ
Ġke ep
Ø¨ÛĮ Ùĩ
ÙħÛĮ Ø²
Ġv al
ĠØ³ Ø±Ø§
r ow
Ġwho le
ĠÙĦ Ø§
Ġc lo
ĠÙĩ Ø²Ø§Ø±
ĠØ¨ÙĪØ¯ ÙĨ
ĠÙĩØ³Øª Ùħ
Ùħ Ø²
Ø¯ Ø§Ø±ÛĮ
u red
Ú© Ø§Ø±ÛĮ
Ġt ri
ĠØŃØ§Ø¶ Ø±
ĠÙħ Ø±Øª
ĠA n
Ġdire ct
ĠØ¯ÙĪ Ùħ
Ġst op
ĠÙħØ¬ ÙħÙĪ
Ø¹ Ø§
ĠØªØŃ Øª
ĠÙħÙĨØ· ÙĤÙĩ
ra w
ĠØ§ Ø±Ø²
ĠØ§Ø¬ ØªÙħØ§
ĠØ§Ø±Øª Ø¨Ø§Ø·
Ġunt il
ĠØ· Ø¨
Ġf ive
Ġal most
ĠÙħÙĪ Ùģ
Ġe qu
Ø¯ Ùģ
Ø¨ Ø§Øª
b ody
b ed
y ing
Ø¸ Ø±
Ø§ÙĨ Øª
ĠÚ©ÙĪ Øª
Ġor gan
Ġf un
Ġm oney
ĠØ¯Ø§Ø® ÙĦ
ĠÙħ ÙĦÛĮ
ĠÙĨÙħ ÙĪØ¯
ĠÙħÙĪ Ø¬ÙĪØ¯
Ġc ertain
m y
Ġ 7
ĠØ¨ ÙĢ
ĠF ran
og r
ĠÙħ Ø±Ø¨
ĠÚ¯ Ø³Øª
ĠØª ÙĪÛĮ
Ø³ Ø§Ø²ÛĮ
ĠW h
Ú© Ø´
ĠÙĦ ÙĪ
ĠØ§ ÙĤ
et y
Ġform ula
ĠØªØµ ÙĪÛĮ
Ġst ate
Ġw ar
ĠÙĤØ¯Ø± Øª
Ġser v
Ġ 8
Ġ 9
Ùħ ÙĨØ¯
Ġs ci
el s
Ġbec ame
ĠØ³ Øª
ĠØ²ÛĮØ± Ø§
ĠØ¨ÙĦ Ú©Ùĩ
ØŃØ§ÙĦ Ø§
b ers
ĠØ³Ø® ÙĨ
Ø± Ø§Øª
Ø¯ ÙĨ
Ġch ange
ĠØ¹ Ø±
us ed
t on
g ed
ĠØ§ Ø±ÙĪ
ĠÙħØ®Øª ÙĦÙģ
ĠÙĪ Ø§ÙĦ
sel ves
Ø± ØŃ
Ġexam ple
ac es
Ø§ÙĨÛĮ Ø§
Ú© Ø§
ĠØ¢ ÛĮØ§
ĠØ¨ ÙĪ
Ġad v
ĠØ²ÛĮ Ø§Ø¯
Ġt ru
tern ational
Ġha ving
Ġde p
Ġapp ro
ÙĪÛĮ Ùħ
Ø§Ø´ ÛĮ
Ġqu ite
Ã ©
Ġt imes
ĠØ¯Ø±ÛĮØ§ ÙģØª
Ø¢ ÛĮØ¯
Ġt ra
un e
ĠØ±ÙģØª Ø§Ø±
u ck
ĠÙĨ Ø§ÙħÙĩ
Ø´ ÛĮÙĨ
Ġpr ot
ĠØ¯Ø§Ø± Ø§ÛĮ
ĠÚ©Ø§Ùħ ÙĦØ§
Ġy et
ĠÛĮ Ø¹ÙĨÛĮ
ĠØ§ÙĤØª Øµ
ĠÚ©Ø±Ø¯ ÛĮÙħ
Ġch ang
ĠØª ÙĦØ§
ĠØ®Ø§Ø± Ø¬
or ld
A l
Ġp ur
er y
ĠØ¨ Ø³ØªÙĩ
ÙĦ ÙĤ
an e
ĠCh rist
Ġwant ed
con om
ĠM ar
Ø¦ ÙĨ
ÙĨ ÙħÛĮ
ĠÙ¾ÛĮ ÚĨ
ĠSt ates
Ġhis t
Ġsh all
f fect
as k
Ù ı
ÙħØ§ÛĮ Ø´
Ġd ri
Ġab le
Ġb ig
ĠÚĨ ÙĩØ±Ùĩ
ent ion
ÙĪÛĮ ÙĤ
Ø§Øµ ÙĦÙĩ
Ø® ÙĨØ¯
ĠØ® Ø¨Ø±
ĠÙħØ· Ø§ÙĦ
ĠØµ Ø¯Ø§
ĠØ¹ Ø´
Ġwith in
y le
Ġde ath
ĠØ¨ ØŃ
Ø¬ ÙĪ
Ġl aw
ren ce
ĠØŃÙĤÛĮ ÙĤØª
Ġp ri
ĠØ´ ÙĪØ±
ĠØªÙĤ Ø±ÛĮØ¨Ø§
ĠØ³Ø± Ø¹Øª
Ġc or
is ion
Ġd ark
Ġimport ant
ĠÙħØª Ùģ
i um
as ter
ĠØ®Øµ ÙĪØµ
ĠØ¯Ø± ÛĮ
Ø§Ùĩ Ø´
Ø± Ø¨Ùĩ
iv ed
ØŃ ØªÛĮ
Ġcon st
Ú¯Ø± ÙģØª
Ø³Øª ÛĮÙĨ
ĠØ³Ø· ØŃ
w ork
o f
Ġmon th
Ġde l
ĠÙĪ Ø³
Ġs ound
Ġb ody
Ú¯Ùĩ Ø§ÙĨ
Ú©ÛĮ ÙĦ
ĠØ¬ ÙĦ
ĠÙ¾ ÙĪØ´
Ġ 0
pl ay
Ø§ Ø¬
ĠÚ© Ø§ÙĦ
ĠØ® ÙĪØ±
Ġdo ing
ĠÚ© Ø´ØªÛĮ
is ter
Ø§Øª Ø±
ĠÙ¾Ø³ Ø±
ĠØ¹ ÙĪ
Ġm il
ĠØª Ø§Ø²Ùĩ
Ġbl ack
ĠA f
Ġal ong
Ø³ÛĮ ÙĤÛĮ
ĠØ® Ø¯Ø§
Ġres ult
b s
ĠØ¨ Ø§ÙĨ
ĠØ®ÙĪ Ø±Ø¯
ĠÙ¾Ø§Ø³ Ø®
Ġl and
ĠØ® ÙĪÙĨ
ÚĨ ÙĨÛĮÙĨ
Ø´ ÙħØ§
ĠØ§ØŃ ØªÙħØ§ÙĦ
ĠØ¸ Ø§Ùĩ
re en
Ġk ill
ĠØ§Ø´ Ø§Ø±Ùĩ
Ġe as
o ke
ĠØ¢ÙĨ Ø§ÙĨ
ĠØŃ Ùħ
e e
ĠE uro
ĠØ¨Ø± Ø®ÛĮ
ĠØ¨ÛĮÙħ Ø§Ø±
ÛĮÙĨ Ú¯
ĠÙģØ±ÛĮ Ø§Ø¯
Ġ{ \
Ġ +
Ġpol it
at s
ĠØµ Ùģ
r act
Ø ©
ĠØ§Ø² Ø¯
Ġcont ro
ÙĪØ± Ùħ
ĠØ¯ Ùģ
Ġd ata
ÙĩÛĮ ÚĨ
Ġide a
m en
ĠØª Ø¹Ø¯Ø§Ø¯
Ġm ark
Ġo pp
Ø¬ Ø§ÙĨ
M y
Ø¨ Ø¹
p ed
Ġre qu
ĠÙĨÙĪ Ø´ØªÙĩ
ĠØª Ø±Ú©
Ġevery thing
ĠØ§ Ø¶
ĠØªØµ ÙĪØ±
is on
ĠØªÙĪØ³ Ø¹Ùĩ
ĠØ· Ø±ÛĮÙĤ
Ġc ity
Ġp ublic
ĠÙħÛĮÙĦÛĮ ÙĪÙĨ
ĠÙħØ« Ø§ÙĦ
Ġbelie ve
Ø§ÙĦ Øª
Ġbe gin
Ġe le
w here
Ġ est
Ġg ave
ÙĪ Ø¨ÛĮ
as es
p r
ĠØ± ÙĤ
ĠÙĩÙĨÚ¯ Ø§Ùħ
ul ation
iz ation
u se
ĠØ§ÙģØ² Ø§ÛĮØ´
ĠÚĨ Ø´
Ġother s
âĢĮ Ø
Ù ĳ
ĠÚĨ Ú¯ÙĪÙĨÙĩ
ĠÙ¾ Ø°ÛĮØ±
Ġcl ass
Ġp ar
Ġc ell
Ø± ÚĺÛĮ
Ġf ell
ff ic
Ø¸ Ø§Ø±
ĠØ´Ø¯ Ùħ
ĠØ¨ÛĮÙħ Ø§Ø±ÛĮ
Ġli ve
Ġp os
ĠUn iversity
ĠØ· Ø±Ø§ØŃÛĮ
Ġgiv en
A ll
Ġ es
ĠÚ© Ø§ÙħÙĦ
ĠS o
O ne
Ġen g
d den
on y
ĠØ¯Ø± Ø¯
Ú¯Ø± Ø§ÙĨ
Ø¯ ÙĪØ¯
it ch
ĠØ³ Ø§Ø¯Ùĩ
ĠâĢ Ļ
ĠG erman
Ġor der
ĠØ¯Ø± ØµØ¯
Ġso on
Ġo per
ĠØªØ± Ú©ÛĮ
Ø³ Ø§
ĠØ¯Ø± ÙĪÙĨ
Ġ19 7
ress ed
Ġs ent
ĠØ¯Ø± Ø®Øª
ĠÙ ¬
orn ing
Ø±ÛĮ Øª
Ġpres ent
Ġe ffect
Ø³Øª Ùħ
ĠØ§ÙĨØ¯ Ø§Ø®Øª
ĠÙħ Ø§ÙĨØ¯
Ú©ÙĨ ÛĮ
Ġbec ome
c le
ØªÙĪØ§ÙĨ Ùħ
Ġmy self
ĠÙĩ ÙģØªÙĩ
Ġsh ort
a pe
ĠØ³Ùģ ÛĮØ¯
Ġs ort
ĠØ¢ ØªØ´
ĠÙĪ ÙĨ
ĠØª Ùĩ
i ent
ÙĨØ¯ Ú¯Ø§ÙĨ
Ġs ix
ĠÙĨÙĤ Ø´
C h
Ġ ri
ĠØª Ø±Ø³
Ġstart ed
Ġher self
ĠÚĨ Ø·ÙĪØ±
ĠEuro pe
Ø· ÛĮ
Ġre ce
Ø§Ø¨ Ùĩ
Ġsu dden
- -
ĠØ± ÙĪØ¯
ĠÙģØ±ÙĪØ¯ Ú¯Ø§Ùĩ
Ġsu re
Ġquest ion
ĠÚ© Ø§ÙĨ
ÚĨ ÛĮ
ÙħØ§ÙĨ Ø¯
i ver
Ġto wn
ÙĦØ§ Ø³
Ø§ Øº
Øª ÙĦ
ÚĨ ÙĨØ¯
Ġcomm on
Ġres p
Ø§ ÙĪÙĨ
or ies
Ġoff ic
Ġb it
ØªØ± ÙĦ
Ùħ Ø¹
Ġwe ek
re ady
Ġpro f
Ø³ ÙħØª
Ú¯ Ø§Ø±
Ġbeh ind
ĠØ¢ÛĮ ÙĨØ¯Ùĩ
ÛĮØ¯ Ùħ
ot t
ĠÙĪØ§ÙĤ Ø¹ÛĮ
Ø± ÙĪØ¯
ĠØ¹ Ø²
ĠW orld
ĠÙħÙĤ Ø§Ø¨ÙĦ
Ġs it
ĠØ¬Ùħ ÙĦÙĩ
Ġsh ow
u ed
ĠÙħ Ø§ÙĦ
O h
ØŃ Øª
Ġle g
ĠÙħØ¬ÙħÙĪ Ø¹Ùĩ
ĠØ§Ø¬ØªÙħØ§ Ø¹ÛĮ
i ence
id d
ĠW e
Ø² Ø´
ĠØ± Ø§ÛĮ
ĠØ®ÙĪØ§Ùĩ Ùħ
Ġb ed
Ġm orning
Ġgovern ment
S t
Ġse ver
Ġde v
ĠØ¨Ø§ ÙĪØ±
Ġbus iness
Ġpro gram
A fter
ĠØ¨Ø±Ø¯ Ø§Ø´Øª
ĠAmeric an
ĠÙĪØŃ Ø´Øª
Øµ ÛĮ
ÛĮØ² Ùĩ
Ġp ain
Ø§Ø¨ Ø§ÙĨ
ĠØ´ Ø¨ÛĮÙĩ
Ġs le
Ġposs ible
en g
Ġam ong
ĠÙĨØ´ Ø¯Ùĩ
Ġpl an
ogr aph
ĠØª ÙĪÙĨ
e ad
Ġcomp ut
ĠØ§ Ú©ÙĨÙĪÙĨ
ĠØ§ÙĨ Ø±ÚĺÛĮ
Ġinc re
Ġwh ite
od e
i or
Ġst ory
qu e
ĠØµ Ø¨ØŃ
Ġf ull
ĠØªÙĦØ§ Ø´
ĠÙĪ Ø³ÛĮ
ÙĦÛĮ Ø³
ĠÚ©ÙĨ Ùĩ
ĠÙħØ±Ø¨ ÙĪØ·
Ø®ÙĪ Ø¨
Ø§Ø¨ Ø¯
Ġdis play
Ø§Ø² Ø¯
ĠØ¨ Ø³Øª
ac y
Ġa w
ĠØ´ÙĨ Ø§Ø®ØªÙĩ
Ø¦ÛĮ Ø³
Ø± Ø§ÙĨ
ĠØ§Ø²Ø¯ ÙĪØ§Ø¬
m a
cc ess
A pp
Ġin formation
ren ch
ĠÙĤØ§ÙĨ ÙĪÙĨ
Û ²
ĠØ³ Ù¾Ø³
Ġr ather
z e
Ġt aken
ĠØ² ÙĪØ¯
Ġw on
h a
Ġh old
Ġp rom
Ġ &
ĠØ³ Ø¹ÛĮ
ol ution
f ort
ĠØ¢Ø² Ø§Ø¯
ĠÙħÙĪ Ø³ÛĮÙĤÛĮ
Ġle ast
ĠØ¨Ø± Ú¯
ct or
ĠØ§ÙĨØª Ø¸Ø§Ø±
Ø¢ ÛĮØ§
Ġh or
ĠØ¬Ùĩ Øª
âĢĮ .
th ough
Ġc ase
ÙĪ Ø§Ø±Ùĩ
h aps
ĠØ§ Øº
Ġâ Ļ
ian s
ĠØ§ Ø¨Øª
Ġre se
l ish
re ad
ĠØ¨Ø§ ÙĤÛĮ
ĠØ§Ùħ Ø±ÙĪØ²
ĠÙ¾ ÙĦ
ĠÙħØ¯Ø± Ø³Ùĩ
am ed
k s
o le
ĠØ¨ Ù¾
ion al
ĠØ§ÙģØª Ø§Ø¯Ùĩ
b y
ĠÚ©ÙĨ ØªØ±ÙĦ
Ø¯Ùĩ ÙĨØ¯
ĠÙĦ Ø§Ø²Ùħ
T o
ĠÙħØ´ Ø®Øµ
ĠØ¨ Ú¯ÛĮØ±
ĠÙĨÙħØ§ÛĮ Ø´
ĠÙģØ± ÙħØ§ÙĨ
Ġsever al
s ide
Ġal ready
ĠØ§Ùħ ÛĮØ¯
ard s
Ġm aking
ir on
Ġus ing
ĠØ¨Ø¯ ÙĨ
it er
Ġe conom
ĠÚ¯ÙģØª Ùħ
r or
at ic
ĠØ³ Ø±Ø¯
ĠÙĤ Ø¯
Ġm ag
ĠØ¯ÙĪØ± Ùĩ
Ġel se
ĠÙ¾ ÙĨ
ĠØ¯ÙĤÛĮ ÙĤÙĩ
Wh y
ĠØ®Ø· Ø±
Ø¯Ø§ÙĨ Ùħ
Ġind e
ĠØ§Ø³ Ø§Ø³
ĠØ¯ Ùħ
ĠØ· ÛĮ
ĠØ¢Ø² ÙħØ§ÛĮØ´
Ġle arn
ĠÙĥ Ùĩ
ĠØ³Ø± Ø´
ĠØ² ÙĨØ¯Ùĩ
ĠØ¬Ùħ Ø¹ÛĮØª
ĠÙħÙĨ ØªØ´
ĠØ¬ ÙĪØ±
ĠâĢ Ķ
Ġs ays
n ect
ĠØ¨ÛĮØ´Øª Ø±ÛĮ
Ġa v
Ø§Ø³ Ø¨
ac ed
ĠØ¹Ø´ ÙĤ
Ġme ans
ÚĨ Ø§Ø±
ĠÙħÙĪÙĤ Ø¹
âĢĮØ Į
ĠÛĮØ§ ÙģØªÙĩ
Ø§ÙĦ Ø¨
ot s
ĠØµ ÙĨØ¯
Ġfil m
ĠØ¯ Ø´
The se
ĠØ§Ø³ Ø¨
f ic
er gy
Ġear ly
et h
c he
ĠÚ© Ø§ÙĩØ´
i en
Ġspe ak
ÙĪØ§ÙĨ ÛĮ
ĠØ¹Ùħ ÙĪÙħÛĮ
ĠÙĨØ§Ø± Ø§ØŃ
Ø§ÛĮ Ø³Øª
ĠÂ» .
ĠØµ Ø±Ùģ
ĠÙ «
ĠÚ©ÙĨ ÙĨØ¯Ùĩ
Ġac ross
ĠÙħØ¹Ùħ ÙĪÙĦØ§
ĠÙħÙĨØªØ´ Ø±
are nt
Ġsupp ort
Y es
Ġr ound
Ø§ÙĦÛĮ Øª
Ġhe ar
Ġgrou p
Ġmat ter
ĠÛ ´
ĠÙħ Ø³ÛĮ
ĠÙħØº Ø²
Ø§Ùĩ Ø§
Ø¨ÙĨ Ø§Ø¨Ø±Ø§ÛĮÙĨ
ÛĮØ¯ ÙĨØ¯
s h
ĠØ§ÙĨØª ÙĤ
w er
ĠØ® Ø§Ú©
ĠØ¹ Ø¬ÛĮ
f ully
Ġf all
ĠÙħØ§ Ø´ÛĮÙĨ
Ġf ree
Ġph ys
Ø´ Ø¯Ùĩ
Ġo ri
ĠP ar
ĠØŃÙħ ÙĦÙĩ
ÙĪÛĮ Ùĩ
ĠÙĤ Ø³ÙħØª
rou ght
Ø´ÙĨ Ø§Ø³
ĠÙĨØ´ Ø³ØªÙĩ
ĠØªÙħØ§ Ø´
ĠÚĺ ÙĨ
l ause
ÙĪ ÙĩØ§ÛĮ
und red
ri but
ĠØ¬ ÛĮ
ĠÛ±Û¹Û ¹Û
r ict
Ø²ÛĮØ± Ø§
o ber
ĠØ¯Ø§Ø´Øª Ùħ
Ġclo se
ĠØ´Ø¨ Ú©Ùĩ
ous and
ĠÙģ ÙĩÙħ
ĠØ¯ÛĮÚ¯Ø± Ø§ÙĨ
id er
ĠØ¬Ø§Ùħ Ø¹Ùĩ
Ø¢ Ùħ
ĠÚ© Ø§ÙģÛĮ
ĠØ³ ÛĮØ§
un ity
ĠØ§Ùħ Ú©Ø§ÙĨ
ĠØªØ´ Ú©ÛĮÙĦ
op h
ÛĮ Ú©ÛĮ
ĠÙ¾ Ø±Øª
ĠÙģ ÙĦ
ĠØ³ ÙģØ±
.. ..
c o
ĠØ¢ Ø³ÛĮ
Ġ1 5
ress ion
Ġre d
ĠC l
ĠØ¨Ø§Ø´ ÛĮØ¯
Øº ÙĪÙĦ
Ġre pl
Ġre ason
e an
ro p
ĠØ¨Ùĩ ØªØ±ÛĮÙĨ
ĠÙĩ Ø¯Ùģ
Ġ19 6
Ú©ÙĨ ÙĨØ¯Ùĩ
Ġ ÛĮÙĨ
m ber
er al
ĠØ¨Ø± ÙħÛĮ
Ġp ast
ĠØ¹ÙĤ Ø¨
te nd
g en
ĠØ¬ Ø¯Ø§
ĠØ§Ø³ Ùħ
Ġob s
Ø´ÙĨ Ùĩ
Ú¯Ø° Ø§Ø±ÛĮ
Ġw ond
Ø§ÙĨ ÙĪ
ĠØ¹ÙĦØ§ ÙĤÙĩ
Ġl ow
Ø³ Ù¾Ø³
iv es
Ġhe alth
Ø§ÛĮ ÙĨØ¯
Ø® ÙĪØ¯
Ġc ir
ĠØª Ø®
ĠB e
ØªÙĪØ§ÙĨ ÛĮÙħ
ĠØ¯Ùĩ Ùĩ
Ġ X
ĠØ¯Ø± ÙĪ
Ø±Ø³ Ø¯
Ø± Ø§ÙĦ
Ġf lo
Ġt able
Ġm illion
Ġpartic ular
ĠØ§ ÛĮÙħ
oh n
Ġre le
Ġt em
ĠØ¨ÛĮ Ø§ÙĨ
a i
ain ing
Ġs un
ĠØ¯Ø³Øª Ùĩ
a im
Ġh undred
Ú© Ø´ÛĮØ¯
ĠØªØ¹ Ø±ÛĮÙģ
App lause
Ø¶ Ø§ÛĮ
ou d
Ġme et
ĠÛĮÚ© Ø¯ÛĮÚ¯Ø±
Ġlangu age
Ġproble m
ĠØ¯Ø± Ú©
c ing
Ġal one
Ġc a
Ø´ Ø§ÛĮØ¯
ĠÚĨ ÛĮ
ÙĩØ§ÛĮ Øª
ĠC on
ĠØ¨Ø± Ø§Ø¯Ø±
ĠØªØŃ ÙĤÛĮ
ĠMr s
ÙĪÛĮ Øª
Ġf re
Ø² ÛĮÙĨÙĩ
ĠÚ©ÙĨ ÛĮ
Ú¯Ø§Ùĩ ÛĮ
Ġcom ing
en ing
2 0
Ġto p
Ø° ÛĮ
Ġso cial
ious ly
Ġstr ong
Ġsing le
e v
ac hed
u ff
ĠØ±ÙģØª ÙĨ
Ø®Øµ ÙĪØµ
Ġsu ccess
Ùģ Ø±ÛĮ
ĠØ¨Ø± Ø³
Ġfriend s
Ġth ousand
ĠØ§ Ø®Øª
ÙĨ Ø§Ú©
Ġa ge
µ Û
Ġex pect
ÙħÙĦ ÙĦÛĮ
ĠØªØ± ØªÛĮ
ĠÚ©Ø³ Ø§ÙĨÛĮ
le x
Ġqu ick
Ġ ve
Ùħ Ø«
ĠØ·Ø¨ÛĮ Ø¹ÛĮ
Ġmus ic
Ú© Ø³ÛĮ
ĠÙģØ¹ Ø§ÙĦÛĮØª
ĠÙ¾ Ø§Ú©
ĠF rench
ĠÙħØ´ ØºÙĪÙĦ
Ġl ay
as ure
ÙĪÙĨ Ø§
ĠØ§Ø· Ø±Ø§Ùģ
Ġf ire
Ġn at
ac ter
c er
l f
Ġen ergy
Ø¨ÛĮÙĨ ÛĮ
ĠØ¨ Ø§Ø¯
ĠC ol
ĠØ¯Ø§Ø± ÛĮØ¯
ĠÚĨØ´ ÙħØ§ÙĨ
Ġc reat
ĠÚ©ÙĦ ÙħÙĩ
Ø§ÙĨ Ø´
Ġob ject
re et
ĠØ¯Ø§Ø± Ùĩ
ap er
ĠØ¹ Ø¶
Ġg one
ÙĪÙĦ Ùĩ
ĠÙĨ Ø¬
Ø§Ø¯ Øª
Ġdes cri
Ġab s
ĠØ¬ Ø±ÛĮØ§ÙĨ
ĠØ¬Ùħ Ùĩ
ĠB r
ĠØ³ÛĮØ§ Ø³ÛĮ
ĠÙĨÙĪ Ø´Øª
itt ing
og n
ĠÙħØŃ ÛĮ
ĠØ³ ÙĪÙħ
Ø® Ùĩ
if ied
ĠØ§ Ø±Ø§Ø¦
Ġcount ries
Ġst ep
ĠØ¯Ø³Øª ÙĪØ±
l er
Ø¯Ùĩ Ùħ
ĠØ¨Ø² Ø±
ĠØ§Ø±Ø§Ø¦ Ùĩ
Ġbo y
Ġ You
Ġhe ld
Ġan im
ĠÙħØŃ ÙĦ
y d
Ġd i
Ø§Ùģ Ùĩ
Ø® Ø¨
Ġto day
Ø´ Ø§Ùĩ
ĠØª Ø³
ĠCom m
Ġl ine
ĠØ± Ø´Ø¯
Ø± ÙĪÛĮ
s on
Ġbe aut
Ġe ither
ĠE m
Ġ ill
Ġb ad
l u
ÙĪ ÛĮØ¯
Ġd ou
ĠÙĤ Ø¯Ùħ
Ġb rought
Ġf ield
b al
us h
ÙĤØ· Ùĩ
Ġthink ing
ĠØ§ÛĮØ± Ø§ÙĨ
Ġpro b
ĠØ´ Ø¹
ĠØŃØ¶ ÙĪØ±
Ġr is
ÙĨ Ø³
Ġfr ont
Ùģ Ú©Ø±
ĠÙ¾ÙĨØ¬ Ø±Ùĩ
Ø±ÛĮØ³Øª Ùģ
Ġs on
n ow
ou l
Ø¢ ÙĤØ§ÛĮ
Â «
Ġw all
ĠÚĺ Ø§ÙĨ
ĠÙħØ¹ ÙĨÛĮ
Ú© ÙĪÙħ
ĠÛ °
ĠÙĨÛĮØ± ÙĪÛĮ
Ø§ÙĦ Ø¨ØªÙĩ
ĠÙħØ¯ ÙĦ
Ùģ ÙĩÙħ
S ome
Ġso ft
Ġbr other
on es
Ùħ ÙĤ
ĠØŃÙĤ ÙĪÙĤ
it ions
Ø¨ Ø§Ùĩ
Ġthem selves
Ġde ad
Ġm aj
ĠØ§ ÛĮØ¯Ùĩ
ĠØ§Øº ÙĦØ¨
Ġst e
Ø³ ÙĪÙĨ
st yle
ord ing
ĠS c
ĠØ§Ø¹ ÙĦØ§Ùħ
ĠÙħÙĪ Ø§Ø¯
ĠØ¨Ø¹ Ø¶ÛĮ
Ġle ave
ci ety
ØªØ´ ÙĪÛĮÙĤ
ĠØ¹ Ø§ÙĦÛĮ
Ġwhe ther
Ġr a
ĠÚ© Ø¬Ø§
ĠØ§ Ø¨Ø±
ĠØ¢ÙĪØ±Ø¯ Ùĩ
Ġf ear
Ġori gin
ÙĦ ØŃ
H er
ĠØ³ÙĦ ÙĪÙĦ
he m
Ġag o
ĠÙĩØ³Øª ÛĮÙħ
Ġim ag
ĠÚ©Ùħ ØªØ±
ĠØ¨Ø§ Ø´Ùħ
Ġgener al
ĠØ¬ Ø³Øª
c hes
Ġan n
Ġbr ain
ĠE x
ĠØ¯ÙĦ Ø§Ø±
ĠØ¯ÛĮØ¯ ÙĨ
ĠØ´Ø± Ø§ÛĮ
Ġw ife
ĠÚ¯ ÛĮØ±
ĠÙĨ Ø±Ùħ
Ġsp ace
ĠR uss
ĠÙħØ´ Ø§Ùĩ
Øª ÙĤ
ĠÚ¯ Ùĩ
il t
ĠØ¢Ø® Ø±ÛĮÙĨ
Ġcomp any
un t
ĠG r
iss ion
ĠÙĤØ± ÙĨ
ĠÙģØ±Ø§ÙĨ Ø³Ùĩ
at or
ĠÙĨØ§ Ù¾
Ġwork ing
ĠÙģØ±ÙĪ Ø´
Ø¬ Ø¹
ĠW ar
N ot
ag ed
ĠØ¨Ø§ÙĦ Ø§ÛĮ
Ġst ran
Ġnew s
Ø´Ø¯ ÙĨØ¯
p ar
Ġfo ot
Ġb ar
ĠÙ¾Ø±Ø¯ Ø§Ø®Øª
Ġtru e
ĠÙĤ ÙĦØ¨
o on
Ø® ÛĮÙĦÛĮ
Ùħ Ø§ÙĦ
o int
p ut
Ġst ood
ĠÙħ Ø²
ĠÙħ Ø§ÙĦÛĮ
ĠØ± Ø¯
idd le
Ùĩ ÙħØ§ÙĨ
ĠØ³Ø§Ø®Øª ÙħØ§ÙĨ
Ġm ov
ĠØ´Ø®Øµ ÛĮ
ie f
ĠÙħØ¬ Ø¨ÙĪØ±
ĠØ´Ú© Ø³Øª
ĠØª Ú©Ø§ÙĨ
ĠÙģØ± ÙĩÙĨÚ¯
it ive
k y
a e
Ø§ÙĦ ÙħÙĦÙĦÛĮ
ĠØ¹ Ø¨
ĠÚ©ÙĪØª Ø§Ùĩ
Ø¨ Ø´
id s
Ġh ope
ĠØ® ÙĪÛĮØ´
ĠÚ© Ø±
ĠÙĩÙħÚĨ ÙĨØ§ÙĨ
ĠØ¨Ø± Ú¯Ø±Ø¯
Ø¸ ÛĮÙħ
Ġcomple te
ĠÙĨ ÙĤØ·Ùĩ
air s
ĠØª ÛĮÙħ
Ø±ÙĪ Ùģ
Ø¸ ÛĮ
ĠÙĨÚ©Ø±Ø¯ Ùĩ
ĠØ®ÛĮ Ø§ÙĦ
Ú¯ ÙĪÙĨ
Ġcon nect
ÙĤ ÛĮÙħ
ĠI ran
ĠØ³Ø± Ø®
Ø´ Ø¨
Ġc al
ĠÙħ Ø°
ĠØ¨Ø²Ø± Ú¯ÛĮ
Ġs um
Ġre v
i ol
ore d
D o
Ġtry ing
ĠØ±Ø§ Ø¨Ø·
Ġwh om
ro du
ÙĤÛĮ Ùĩ
Ġv ill
ĠØ¯Ø± Ø§Ø²
ÙĪØ² ÛĮ
ÚĨ Ø±Ø§
ĠØ®ÙĪØ§Ùĩ ÙĨØ¯
ĠÙ¾ÛĮ Ø´ÙĨÙĩ
ĠÙĩ ÙģØª
Øª ÙĪØ±
ĠAf ric
, "
Ġdisplay style
Ġm ain
Ø¨ÛĮ ÙĦ
ĠØ¢Ùħ Ø§Ø¯Ùĩ
ĠØªØ±ØªÛĮ Ø¨
iv id
Ġatt ack
Ġre port
Ġper cent
ĠÚ¯ Ø±ÛĮ
ĠÙĨØ´ Ø³Øª
ĠØª ÙĦÙģ
in ation
ĠÙĩ ÙĨØ¯
W ith
ĠÙĨØ® Ø³ØªÛĮÙĨ
Ġcle ar
ÙĦ ÙĪÙħ
ÙĨÚ¯ ÛĮ
Ġcontro l
Ø± Ø§ÛĮ
Ġf ut
ĠÚ© Ùģ
ĠØ¨Ø± Ø±Ø³ÛĮ
ĠØ§ÙĦ Ø¨ØªÙĩ
ĠØ¨Ø± Ø®ÙĪØ±Ø¯
et work
ĠØ¯Ùĩ ÙĨØ¯
ĠÙĩÙĨÚ¯ Ø§ÙħÛĮ
Ġle vel
ĠÚ©Ø´ ÛĮØ¯Ùĩ
Ġt est
Ġex ist
st er
ĠØ®Ø¯Ùħ Øª
b o
ĠØ¨ Ú©
ĠÚ©ÙĦ Ùħ
Ġsay ing
Ġf ur
ĠØ´ÙĩØ± Ø³ØªØ§ÙĨ
ĠØ§ÛĮØ³Øª Ø§Ø¯Ùĩ
ĠâĻ «
Ġg round
Ġlo st
Ø³ Ø§ÙĦ
ĠØªÙĪ Ø¶ÛĮ
ÙĪÙĦÙĪ ÚĺÛĮ
ĠM iss
ĠÚ¯Ø± Ùħ
ĠØ²ÙħÛĮÙĨ Ùĩ
Ø§Ø¯ ÙĦ
Ġinclud ing
ÙĪ Ø§ÙĦ
Ġper form
ĠØ®ÛĮ Ø§Ø¨Ø§ÙĨ
ĠØ±ÙĪ ØŃ
ĠØ´ ÛĮØ±
Ø¯ÛĮ ÙħÛĮ
Ø²Ø§Ø± Ø´
i us
Ġde ep
ĠØ¯ ÙĪÙĨ
Ġli ving
ÙĩÙħ ÚĨÙĨÛĮÙĨ
Ġpo or
ĠØ³Ø§ÙĦ Ùĩ
y ou
ĠØ¨Ø± Ø®
it ary
Ġv iew
ĠÙĦ Ø°
an ces
ĠØ¯ÛĮ ÙĪØ§Ø±
Ġpro ject
Ġc ult
Ø§ÙĤ ÙĦ
ut es
ĠØ´ Ø´
ĠØ§Øµ ÙĦØ§
ĠØ¹ Ú©Ø³
ĠØ¨Ø± ÙĪØ¯
ĠT r
Ø±Ùģ ÛĮ
Ġpro p
ĠÚ¯Ø°Ø§Ø´Øª Ùĩ
Ġst ay
How ever
r ing
Ġcan not
ent al
pt ion
Ġh on
w ith
ĠG e
N A
ĠÙĨØ§ Ú¯ÙĩØ§ÙĨ
ĠB l
Ø² ÙħÛĮÙĨ
fic ult
ĠØ¨ Ú¯Ø°Ø§Ø±
ĠÚĨ Ø±Ø®
ĠØ¢ÙħÙĪØ² Ø´
ĠÙģØ± Øµ
ĠS y
ĠØ¯ Ø§Ùħ
Ùģ ÙĤØ·
ĠØºØ° Ø§
ĠØ³ Ú©
Ġlong er
ĠØ§Ø±ÙĪ Ù¾Ø§
ĠØ§ÙĨØ¯ ÛĮ
ĠØ§Ø±Ø² Ø´
Ġsudden ly
Ú¯ ÙĨ
ĠØ´ÙĪ ÙĩØ±
ĠØ¯ Ø§Ø±ÛĮ
au ght
Ġdif ficult
ĠÙħØ· Ùħ
ĠÙħØªÙģ Ø§ÙĪØª
I S
ĠØ¨ Ø¯ÙĩØ¯
ĠØ¢Ø® Ø±
Ġit self
Ù İ
for d
Ġto wards
ĠC ount
Ġ1 7
Ġhist ory
c um
s y
en n
Ø§ ÙĪÛĮ
ĠÙĦ Ùĩ
ĠØ¹Ùħ ÙĦÛĮ
ĠØ® Ø´Ùħ
ĠÙĪ ÙĦ
ĠÙģ ÛĮ
i od
os p
Ġar m
Ġan g
ĠO r
so ci
ĠØ§Ø¬ Ø±Ø§
Ġl ab
Ø¯ Ø³Øª
Ġb as
m b
ĠØ¨Ø± Ú¯Ø´Øª
ĠÚĺ ÙĪ
Ġblo od
ur g
Ġw atch
Ġsomet imes
Ú¯ ÛĮÙĨ
ĠÙħØ§ÙĨ Ø¯Ùĩ
2 00
ĠÙĪ Ø¨
ĠE d
ĠÙħØ³Ø¦ ÙĦÙĩ
Ġl a
Ø§Ø¨ Ø¹
Ùħ ÙĪÙĨ
Ġ19 4
Ġfe et
ĠÛ ³Û
our n
Ġp ay
ĠØªØµÙĪÛĮ Ø±
Ġpass ed
ĠÙħ ØªØ±
Ġmaj or
ud e
Ġfeel ing
ĠEng lish
ĠØ±Ø³ ÛĮØ¯Ùĩ
ĠØ²Ø¯ ÙĨ
ĠÙ¾ Ø§Ø¯
ĠÙħØ´Ø§Ùĩ Ø¯Ùĩ
ÙĤ Ùģ
c ul
Ø¨ÛĮ ÙĨØ¯
ÙħØ§ÛĮ Ùĩ
Ø³ Ø§ÙĨÛĮ
Ġm ot
Ġp ie
ĠÙĨ ÙĪÛĮØ³
ĠØ¨Ø±Ø¯ Ùĩ
ĠØ§ÛĮ Ø´Ø§ÙĨ
ĠÙħ Ø±Ú©Ø²
Ġse lf
ĠØµ ÙĨ
ĠØ¨ ÙĨØ¯
Ġbr ing
M r
ĠØ² ÛĮØ³Øª
Ġex c
ĠØ± ÙĨØ¬
the y
Ġans wer
unic ip
Ġhapp ened
Ġrem ember
ĠØ¢ Ø´ÙĨ
ĠÙĤ Ø§Ø¯Ø±
Ġmonth s
ĠØ´Ø¯ Øª
Ġapp l
ĠÙħ ÙĩØ±
ĠÛ ¶
ĠM an
Ġpolit ical
ĠØªÙĪØ¶ÛĮ ØŃ
ÙĬ Ùħ
ĠØ± Ø®
tern al
Ø®ÛĮ Øµ
ĠØ¯ Ø¹
Ø´ÙĨ Ø§Ø³ÛĮ
Ù¾ ÛĮÙħ
ĠÙĩ ÙĪØ´
ĠÛ±Û ¸Û
ØªÙĪØ§ÙĨ ÛĮØ¯
ĠØ¹ Ø¯
Ġw in
ĠØ¨Ø±Ø§ÛĮ Ø´
Ġsystem s
ir t
ĠJ ohn
Ġha ir
ÙĦ ÙĨØ¯
Øµ ÙĪÙĦ
Ø¢ ÛĮ
ĠØ·ÙĪÙĦ Ø§ÙĨÛĮ
ĠØ¢ÙħØ±ÛĮÚ© Ø§ÛĮÛĮ
res ent
Ġfut ure
ĠÙħØ±Ø¯ ÛĮ
ĠÙ¾Ø±ÙĪ ÚĺÙĩ
ĠØ± Ø¦ÛĮØ³
Ġact iv
ĠØ¯Ø§Ø¯ ÙĨØ¯
Ġs ense
ur s
Ġh ur
ĠÚ¯ Ùħ
ĠY ork
Ø¬ ÙĪÛĮ
Ùħ Ø§Ø¯
Ġl im
ri e
ĠØ¹Ø² ÛĮØ²
ĠØ¨Ú¯ÙĪÛĮ Ùħ
l ine
ĠÚ¯ Ø§Ùĩ
ÙĩÙħ ÛĮÙĨ
ĠÙħØŃÛĮ Ø·
t t
Ø® Ø´
ĠÙģ Ø§ØµÙĦÙĩ
ĠØ§ ÙĬÙĨ
ĠÙ¾ÛĮØ´ÙĨÙĩ Ø§Ø¯
ĠC ar
ĠÙģØ± Ø³Øª
ĠØ¯ Ú©ØªØ±
ĠP ol
Ġso ld
Ġg lo
ĠØ³Ø±ÛĮ Ø¹
id ence
a f
ĠØ¨ØŃ Ø«
ĠÙħØª ÙĨ
Ġtalk ing
il ar
ĠÙĨÙģ Ø³
ĠÚĨ ÛĮÙĨ
Ġhour s
Ø³ ÛĮÙħ
Ġfo od
ĠÚĨ ÙĤØ¯Ø±
ĠØªØ£ Ø«ÛĮØ±
ĠT e
al y
ĠØ· ÙĪØ±ÛĮ
ĠPh il
Ġd iv
ĠÙħ Ú©Ø§ÙĨ
p or
ĠÙħ ÙĦØ§
Ġro ad
ĠÙĨÙħ ÙĪÙĨÙĩ
Ġa ut
b it
ĠÙħ Ø¯ÛĮ
itt en
Øµ Ùĩ
ĠA d
ap an
ĠÙĪØ¶ Ø¹
Ġpro per
Ø³ Ø¨
Ø³ ÙĪ
Ġc ut
ci ous
ĠÚ© Ø§Øª
Ġr ad
ĠØ³ÛĮ Ø§Ø³Øª
ĠÙģ Ø´Ø§Ø±
ĠÙħØŃ Ø¯ÙĪØ¯
Ġcon c
ĠØ§ Ú©
ĠG en
Ġf ig
ĠØ§ Ø«
ĠC an
b and
ab ility
ĠÚĨÙĨØ¯ ÛĮÙĨ
ĠØªØ¬ Ø±Ø¨Ùĩ
Ġfoll owing
ĠÙĪØ³ÛĮ ÙĦÙĩ
ÙĬ Ø¯
Ġgr ow
ĠØ³ Ø§Ø¨
Ø§ ÙĪÙĦ
ĠB rit
ĠØŃØ³ Ø§Ø¨
ou ght
ĠØŃØ¶ Ø§Ø±
Ġb i
Ġ1 2
Ø§ÙĦ Ø¹
ci ally
f er
ĠM in
ĠÙĩÙĨ Ø±
Ġ #
ĠØ® ÙĨØ¯Ùĩ
ĠÙħÛĮÙĦ Ø§Ø¯ÛĮ
Ġty p
Ø§Ø´ ÙĤ
Ġm ass
ĠØ¢ ÙĩÙĨÚ¯
Ø§Ø¯ Ø§
Ùħ Ø³
em pt
Ġte am
ĠN ational
ĠM e
ĠÙĤ ÙĦ
il le
. ,
il ed
Ġpr act
ØŃ Ø§ÙĦÛĮ
ĠØ§ÛĮÙĨ ØªØ±
Ø¢ ÙĪØ±
ĠØ´Ø±Ø§ÛĮ Ø·
ĠØ®ÙĪØ± Ø´ÛĮØ¯
ĠØ¬ÙħÙĩ ÙĪØ±ÛĮ
Ġc ost
Ġab ove
ĠØ¬ Ø±
bl ed
ĠØ¹ÙĪ Ø¶
ĠØ±Ø§Ø¨Ø· Ùĩ
ĠG o
Ġs qu
Ġd ream
Øµ Ø±
Ùģ Ø¸
ĠP l
Ġt ried
Ġget ting
Ġ1 6
ĠÙħØ·Ø§ÙĦ Ø¹Ùĩ
op he
ĠÙħØ³ ÛĮØ±
a pp
the n
y n
Úĺ ÙĨ
an a
ĠØ¯ÙĪØ± Ø§ÙĨ
Ġg ent
" )
Ø§Ùĩ Ùħ
ĠÙĪ ÛĮØ±
ÙĩØ± Ø³Øª
ĠÚ© Ø¯Ø§Ùħ
ĠÙħ Ø¤
ĠØ§Ø´Øª Ø¨Ø§Ùĩ
ĠØ¯ ÛĮØ±
ĠØ¨Ø± ÛĮØª
av ing
Ġ vers
Ġ ident
ĠÙĨØ¯Ø§Ø± Ùħ
o ver
Ġbuild ing
ĠØªØ´ Ø®ÛĮØµ
A r
Ġb ased
Ġco ld
Ġs our
Ġg ame
ĠØ²ÛĮ Ø¨
Ġp ict
Ġn on
ĠØµÙĨØ¯ ÙĦÛĮ
ĠÙĩ Ø²ÛĮÙĨÙĩ
Ġsle ep
ll ed
ĠÚ¯ Ø§ÙĩÛĮ
ĠØŃ ÙħØ§ÛĮ
Ġt aking
ĠC ent
ĠÙħØ±Ø¯ Ø§ÙĨ
Ø¬ Ùħ
ĠIn ternational
ĠØ§ ÙĪØ±
Ø¢ÙĨ ÙĩØ§
ÙĦ Ø§ÙĦ
ĠÙĩ Ø±ÛĮ
ĠS outh
ĠÙ¾Ø§ÛĮ Ùĩ
Ġent ire
Ġcent ury
Ġa uth
Ġrel ations
Ùĩ Ø±ÛĮ
Ġd est
Ġ19 5
ĠÚ¯ Ø²Ø§Ø±Ø´
ÙĪØ§ÙĨ Ùĩ
ĠØª Ú©ÙĨ
Ø¢ ÙĪØ±ÛĮ
g est
Ø· Ø§ÙĨ
ive ly
ĠÛ± Û°
ĠÙĨØ¸ Ø§ÙħÛĮ
ĠÙħÙĤ Ø¯Ø§Ø±
ĠØ¢Ø² Ø§Ø¯ÛĮ
ĠÙ¾ ÙĨÙĩ
ĠØ¨Ø¯ Ø§ÙĨ
ØªÛĮ Ø§Ø±
Ġ19 3
ĠÙħ Ùģ
Ø§ÙĨ Ø¬Ø§Ùħ
Ġp ost
ĠÙħ Ø§ÙĩÛĮ
ĠU S
Ġt en
ÙĪÙĦ Ø¯
ĠÙĤ Ø¯ÛĮÙħÛĮ
Ø§Ø± Ø§ÙĨ
Ġst at
ĠÙħÙĨØ¸ ÙĪØ±
Ġl ate
her n
ond on
Ġrec ogn
g or
ĠØ³Ø±Ø§ Ø³Ø±
ĠØ¢ÙĦ ÙħØ§ÙĨ
ÙĨ Ø§Ùħ
ÙĦÛĮ Ùħ
ĠØ¨Ø§Ø² Ú¯Ø´Øª
Ú¯Ø° Ø´Øª
ĠØ¨ Ú¯ÛĮØ±Ø¯
Øµ ÛĮÙĦ
Ġsu per
ĠØ¨Ø¹ Ø¯ÛĮ
ĠØ¢ Ø¨ÛĮ
Ġp ort
ater ial
Ġper haps
Ġen v
te red
Ø¨ Ø³ÛĮ
ĠØ¨Ø§Ø´ ÛĮÙħ
Ġst ru
ĠØ§Ø·ÙĦØ§ Ø¹
ĠØ§Ø³Øª Ø§ÙĨ
Ø±ÙĪ Ùħ
g es
ĠØ¯Ø³Øª Ø´
ĠÙĨØ³ Ø®Ùĩ
ĠØ¨ÙĨ Ø§Ø¨Ø±Ø§ÛĮÙĨ
Ø§Ø¦ ÙĦ
Ø§ ÙģØ±
ĠØ±Ø³ ÙħÛĮ
ĠÚ¯Ø° Ø´Øª
Ġm is
ĠÚ©Ø´ÙĪØ± ÙĩØ§ÛĮ
ÛĮÙĦÛĮ Ù¾
ÙĨÙħ ÙĪØ¯
ivid ual
Ġis s
ĠØ¨ ÙĤÛĮÙĩ
ĠØ¢Ùĩ Ø³ØªÙĩ
Ġdoes n
Ġeven ing
ĠÙħ Ø§ÛĮ
ĠØ¨Ø® Ø´ÛĮ
Ġd ro
Ø· Ø±
Ġp ubl
Ġor d
Ġbre ak
ĠÙĨÙĤ Ø´Ùĩ
ĠH arry
Ġf ail
Ġd raw
ĠØ§ÙĤØªØµ Ø§Ø¯ÛĮ
ĠØ® ÙĦØ§
Ġde al
ĠÚ© Ø¯
al es
ĠÚĨ Ù¾
ĠÙħÙĪÙģ ÙĤ
Ġth ird
Ġed uc
ÛĮØ§ ÙģØª
B N
B y
ent y
ĠÙģØ± Ø§ÙħÙĪØ´
Ġar ri
ĠØŃÛĮ ÙĪØ§ÙĨ
re l
Ġwr ong
ĠØµÙģ ØŃÙĩ
ĠÙĩØ³Øª ÛĮØ¯
Ġh us
Ġde ar
Ġh ig
wh ich
ĠÙħØ¹ ÙĨ
Ġstud y
ÙĪ Ú©
ĠÙħ Ø®ØµÙĪØµ
ĠØŃ ÙħÙĦ
Ġhow ever
ĠØ® ÛĮØ±Ùĩ
ĠÙģØ± Ø§ÙĨØ³
ĠØ³Ø± ÙħØ§ÛĮÙĩ
u ge
ne y
ÙĤÛĮ Øª
Ġem p
iv il
ĠØ¸Ø§Ùĩ Ø±
ĠØ¯Ø± ÙħØ§ÙĨ
ĠØ§ÛĮ Øª
Ø¶ Ø§
Ġsub ject
Ø±ÛĮ Ùħ
ĠÚ¯ ÙĨ
Ġcom es
ĠØ±ÙĪ Ø³ÛĮ
ĠØ´Ø§Ùĩ Ø²Ø§Ø¯Ùĩ
ĠØŃ ÙĪ
ĠM y
ĠÙĦØ¨ Ø®ÙĨØ¯
Ġper iod
he ad
ĠÙĨÚ¯Ø§Ùĩ ÛĮ
1 0
ĠÚ¯Ø±ÙģØª ÙĨ
Ġmin utes
² Û
ĠÙħ Ø§Ø±ÛĮ
Ġmo ved
ĠØŃ ÙģØ¸
ĠÙģ ÙĪÙĤ
ĠT ur
ĠØ¨ ÛĮØ¯
Ġb ur
ĠØ¨ ÙĨÛĮ
ĠÙħØŃ ÙĦÛĮ
B e
Ġn etwork
i ally
ĠØ§Ø´ Ú©
Ġhapp y
ĠÚ©ÙĪØ¯ Ú©Ø§ÙĨ
Ġ z
Ġmet h
ĠÚ©Ø´ Ùģ
Ġm ach
itt ed
ĠØª ÙĪØ±
Ø³ÛĮ Ø³
ĠÙĪÛĮ ÚĺÙĩ
Ġmod el
ĠØ® Ùħ
Ø± Ø§Ø±
ĠÙ¾ Ùĩ
Ġnat ural
ĠÙ¾ ÙĪØ³Øª
Ġsec ret
Ġc ry
i pp
ÙĪ ØªØ±
if ul
ĠØ¨Ø§Ø² Ø§Ø±
ĠJ apan
Ø® Ø±
Ġb reat
Ú©Øª Ùĩ
Ġpre t
Ø§ÙĨÛĮ Ø§ÛĮÛĮ
ĠÙĨ Ø®ÙĪØ§ÙĩØ¯
Ġare a
ĠØŃÙħØ§ÛĮ Øª
ĠØ¯Ø³Øª Ú¯Ø§Ùĩ
ĠØ®ÙĪØ´ ØŃØ§ÙĦ
Ġf ight
ĠØª ÛĮ
ĠØ´ÛĮ ÙħÛĮ
Ø§ Ø¸
ĠØ§ÙĪ ÙĦÛĮÙĩ
Ġrese arch
Ġt reat
ĠÙħ ÙĢ
ĠP et
Ġt rou
ĠA ust
Ġex act
ĠØ¹Ø¬ÛĮ Ø¨
Ø¯ Ø±ÛĮ
Ø®ÙĪ Ø§Ø¨
Ġinv ol
Ġchar acter
Ġins ide
v al
Ú©Øª Ø±ÛĮ
Ġpr in
ĠÙĨ Ø§Ø¨
ar th
ĠØ¬ Ø§Ø¯Ùĩ
ĠÛ±Û¹Û ¸Û
Ġcur rent
ĠØ¬ÙĨ ÙĪØ¨
p ly
Ġl ink
Ø§Ø¯ Ú¯ÛĮ
Ġind ividual
ĠØ¨Ø§ÙĨ Ú©
ĠÙĨØ² Ø¯
ĠÙ¾ ÙĪ
Ġan t
Ġke pt
Ġwind ow
ĠG u
Ġsl ow
ĠÛ ¸
L et
Ġgent le
Ġe ight
p ri
Ġout side
ĠØ¨ ÙĦÙĩ
ĠÙ¾ÛĮ Ø§Ø¯Ùĩ
Ġacc ount
ĠØ·Ø¨ ÙĤÙĩ
id ge
unicip ality
ĠØ¯Ø± Ø¢ÙħØ¯
Ùģ ÙĦ
Ø§Ø± Ø´
Ø® Ø§ÙĨÙħ
Ġs ens
ar r
Ø¨Ø± Ø§ÙĨ
ĠØ¬ÙĨ ÙĪØ¨ÛĮ
ĠØ§Ø¶ Ø§ÙģÙĩ
ĠÙ¾ Ø²Ø´
ec ause
Ġm ult
ĠÚ©Ø§Ùħ Ù¾ÛĮ
ĠØ±ÙĪØ² ÙĨØ§ÙħÙĩ
ĠÙ¾ Ø±Ø³
Ġt ou
act ion
ĠÙħØŃ ØµÙĪÙĦ
Ġad m
Øª Ø³
Ġd aughter
ur ity
ĠØ¨Ø± Ø¬
Ġrec ord
ĠØ± Ø´ØªÙĩ
Ġl ed
ĠØ¯ÙĪ Ø´
Ġres pect
ĠÙĪ Ø±Ø²
Ġd ied
ĠØ¯Ø§Ø´Øª ÙĨ
ĠØ¬Ø§ÛĮ Ø²Ùĩ
Ġv iol
ĠÙħØ± ØŃ
ĠØ° ÙĩÙĨ
ol s
Ø« ÛĮ
Ø§ Ú©ÙĨÙĪÙĨ
Ġen c
Ġm akes
is ing
Ġe vent
ÙĢ Ùĩ
w are
ĠÙĨ Ø¨Ø§ÛĮØ¯
Ġ3 0
ĠØ²ÛĮ Ø¨Ø§
Ġear th
Ġj ob
I s
Ġh ot
um p
ĠÙħ Ø±Ú©
Ġm aterial
led ge
in o
ĠÙħØµ Ø±Ùģ
Ġpri v
ĠÙĩ Ø´Øª
ĠÙĨ Ú¯Ø±
Ġprodu ct
ĠØ¨ÙĪØ¯ ÛĮÙħ
ĠÙĤ ÛĮÙħ
Ġvill age
Ġst ruct
ØªÙĨ ÙĩØ§
Øª Ùĩ
ĠØ¬ Ø°
ĠØ´ Ø§Ø®
ad es
ĠØ±Ø§ Ø¬Ø¹
ĠØ¯ÙĪ Ø³ØªØ§ÙĨ
Ø² ÙĦ
ce ed
Ġhus band
am m
av es
u le
ĠÙħØ³Øª ÙĤÛĮÙħ
ĠÙģ ÙĪØª
ĠØ¹ ÙħÛĮ
Ġ er
v an
ĠØ¬ÙĨ Ø³ÛĮ
k en
Ġne cess
Ġs we
Ġ1 3
ĠØ¹ Ø§Ø´ÙĤ
Ġsur pr
Ġwho se
ĠCh ar
ĠÙħÛĮ Ø¯Ø§ÙĨ
b t
Ú¯ Ø§ÙĨÙĩ
Ġtechn ology
ĠÙĨ ÙĩØ§ÛĮØª
ur ch
ĠR ep
ĠØ§Ø³ ÙĦ
Ú© Ø±ÛĮ
ĠA ll
ĠØ¨Ø¯ Ø³Øª
Ġar ms
ĠØ³ÙĪ Ø§ÙĦ
ĠÙĨÛĮÙħ Ùĩ
ĠØ§ÙĨ Ø³Ø§ÙĨÛĮ
Ġyour self
ĠA m
id ing
ĠÙħØª Ø¹
ĠÚĺ Ø§Ù¾
ĠÚ©ÙĪ Ùĩ
Ø³Øª Ø±
Ġ1 1
ĠF e
ĠÚĨÛĮØ² ÙĩØ§ÛĮÛĮ
fe rence
Ù¾ Ø±Ø¯
Ù¾ Ø°ÛĮØ±
st it
ĠØ§ÙĦ Ø§ÙĨ
Ġb orn
ĠÙħ ÙĬ
Ø³Øª Ø§ÙĨÛĮ
Ġv ol
ĠE l
at ter
pl es
Ġpop ulation
ĠÙħ Ø§Ø¯
ĠÙĦ Ø§Øª
li ke
Ã ³
ÚĨ ÙĨØ§ÙĨ
ĠÚ©Ø§Ø± ÙĩØ§ÛĮ
ĠA b
Ġex cept
ĠÙĨØ¬ Ø§Øª
ren ces
ĠS w
Ġph ot
Ø¸ Øª
ĠÙ ª
Ġrel ig
Ġ à
ĠÙĨ ÛĮÚ©
ĠØ¬ Ø¯ÛĮ
Ġappe ar
Øº ÙĦ
Ġlet ter
att le
ĠØ§Ùĩ ÙħÛĮØª
ĠÙħØ¯ ØªÛĮ
med i
Ġcon vers
ĠÙĩÙħ Ø³Ø±
Ø±ÙĪ Ø³
od es
Ġey e
Ġprot ect
Ø¬ ÙħÙĩ
ĠÙħØ³ Ø§Ø¨
ĠÙĨÛĮØ³Øª ÙĨØ¯
Ø² Ø¨
ĠØ´ Ú¯ÙģØª
Ø¦ ÛĮÙĨ
Ġus ually
ĠØ· Ø±ØŃ
Ġli ves
Ġpret ty
ĠÙĨ Ø´Ø¯
ĠA lex
Ġm er
Ġ( "
ĠØ§Ùħ ÙĨÛĮ
ĠØ¨ÛĮ Ø³Øª
Ġsim ple
Ø¨ ÙĦÙĩ
ell ig
ri age
Ú© Ø§Øª
Ø¨ Ø²
Ġm ess
ap t
ĠØ¹ÙĦ ÙħÛĮ
Ġwr itten
ĠØ¹Ø¨ Ø§Ø±Øª
ÙĪØ± Ø§
in ary
Ġs n
in ing
g s
ide red
Ġdet er
he l
Ø³Øª Ú¯ÛĮ
Ġf a
ĠØ¯Ø§Ø¯ Ùħ
ant ly
ĠØ§ØŃ ØªÛĮ
ĠÙĨ Øª
Ġc ross
Ġre du
ĠØ¹ ÛĮÙĨ
Ġ i
ĠØ´ÙĨ Ø§Ø³
Ġp ress
is hing
Ġcom b
re st
om s
ĠÚ¯Ø±Ø¯ ÛĮØ¯
ĠØª Ú©Ø±
ĠÙģØ± Ø§Ø±
ĠØ±ÙĪ Ø³Øª
ĠÛĮ ÙĪÙĨ
il i
ÙĪØ± Ú©
ĠM ay
Ġmeth od
Ġrep resent
Ġsci ent
es e
r ation
Ġb ene
ĠØ¹ÙĦ Øª
ĠÚ© Ø´Øª
Ġb ank
ĠØ´Ùħ Ø§ÙĦ
Ùħ Ø´
Ġte le
Ø¢ ÙĦ
ĠÙħØ±Ø§ ÙĤ
Ġm or
ent ial
ĠÙħ Ø¨Ø§Ø±
ĠÙģØ±Ø§ÙĨØ³ ÙĪÛĮ
Ġc orn
Ø§Ø® Ø±Ùĩ
ĠÙħÛĮØ² Ø§ÙĨ
ĠØ¯Ùĩ ÛĮÙħ
ĠÙģØ±Øµ Øª
ĠØ¨Ø± ÙĤ
} }
Ġc ou
ĠØ§Ø±Øª Ø´
E very
ĠØ§Ùģ Ø³
Ø² Ø¯Ùĩ
Ġg ra
op s
Ġpos ition
m p
Ġac cept
Ġdec ided
ĠÙħÙĨØª Ø¸Ø±
ĠJ u
Ġcomput er
v in
w hen
Ġl augh
ĠØ® Ø§ÙĦÛĮ
ĠÙĨÙĪ Ø¹ÛĮ
Ġrece ived
l ight
ĠØ´ Ø§Ùħ
Ø¶ÛĮ Ùĩ
ĠÙĤØ· Ø¹
Øµ Ø¯Ø§ÛĮ
ĠÙĤØ¨ ÙĦØ§
oc r
Ġprob ably
Ġ1 4
Ġeng ine
Ø§Ø± Ú©
ĠØ³ Ú¯
ĠØ´ÙĨ ÛĮØ¯Ùĩ
ist ic
ÙĪØ±ÛĮ Ùĩ
ĠÙħÙĦØ§ ÙĤØ§Øª
Ġinst ead
pe cially
ÙĨ ØªÛĮ
om an
Ø±Ø§ Ø³
im ate
g ot
ĠØ§ÙĦ Ú©ØªØ±
Ġauth or
ĠÙĤ ÛĮØ§
Ùģ Ø³
Ġwas n
olog ical
Ø¨ ÙĨØ¯ÛĮ
Ġar g
Ø§ÛĮ ÙĤ
Ġar ch
ĠØ¨ Ú¯ÙĪÛĮØ¯
ĠK ing
ĠØ§ÙĨÚ¯ ÙĦ
Ġsm ile
ÙħÛĮ ÙĦ
Ġsome one
Ø®ÙĪØ§Ùĩ ÛĮ
ĠÛ±Û¹Û ·Û
Ġtr uth
ĠL ondon
Ġwalk ed
ĠØ¹Ø± Ø¶
m ing
Ø¯ ÛĮÙĨ
ĠÙħÙĨ Ø§Ø¨Ø¹
Ġinv est
Ú© Ø´ÛĮ
Ġn or
Ø§Ø¯ ÙĪ
ĠØªÙħ Ø§ÙħÛĮ
Ġsim ilar
B ecause
ĠØª ÙĩÛĮ
Ġcould n
ĠP e
ÙĨÚ¯ Ø§Ùĩ
ĠÙ¾Ø¯Ø± Ø´
ØŃ ÙĦ
Ġs ong
Ġspe cial
Ġn ature
ĠÙĨØ§Ø±Ø§ØŃ Øª
Ġhe av
ĠÚ©ÙĪØ¯ Ú©
Ġquick ly
Ø¨ ÛĮØ±
ĠÙĨ ØŃ
Ġp aper
ÙĪÛĮ ÙĦ
ÙĤØ± Ø§Ø±
iv al
ÙĩÙĨÚ¯ Ø§ÙħÛĮ
ĠÙ¾ÙĨÙĩ Ø§ÙĨ
ĠÚ¯ÙĪØ´ Ùĩ
ĠØ¨ ØªÙĪØ§ÙĨØ¯
h ow
ĠÙĤ ØµØ¯
Ġso ciety
Ø§ÙĨÚ¯ ÛĮØ²
Ġ ÙĬ
Ġp arent
Ġmem bers
ĠØ®ÙĪØ¯ Ø´Ø§ÙĨ
ĠN orth
ous ly
ĠÙĦØ° Øª
ide o
ĠØ¢ ÙĪØ±ÛĮ
Ġsp ir
ĠØ¯Ø± Ø¬Ùĩ
ĠØ« Ø§Ø¨Øª
Ġmark et
Ø´ ÙĪ
ĠÚ© ÙĦØ§Ø³
ÚĨ ÛĮØ²
ĠØ¢ ÙĦØ¨
ĠØ®Ø± ÛĮØ¯
Ú¯ ÙĦ
Ġto t
Ġop ened
ad a
Ġdevelop ment
lo y
ĠØ¹Ø¶ ÙĪ
Ġser ies
am ent
ove red
Û°Û° Û°
ĠØ§ÙĨÚ¯ Ø´Øª
ĠÚĨ ÛĮØ³Øª
ĠW ill
g o
ĠØ³ Ø§ÛĮØ±
Ġn ational
Ø±ÛĮ Ø¨
Ú¯Ø±Ø¯ Ø¯
ĠÙĩÛĮ Ø¬Ø§ÙĨ
Ġp ick
Ú© ÙĦÛĮ
Ġinf lu
her s
il ing
Ġfun ction
ĠÛ ·
Ø§Ú© Øª
ĠØ¯ÛĮØ¯ Ùħ
ĠØ¯ ÙĤØª
ĠF or
Ġcons idered
Ġthe ory
ĠÙħØ¹ ÙĦÙĪÙħ
Ø³ Ø§Ø®Øª
ĠØ¨Ø§ Øº
Ġind ust
Ġbu ilt
ĠØ§Ùħ Ø±
ĠØ³ Ø§ØŃ
ÙĪØ± ØªÛĮ
i ke
Ø¢ ÙħÛĮØ²
ĠAr ab
Ġw ish
Ġf ill
Ġj o
Ġim m
ÙĪÛĮ Ø²ÛĮ
ĠØ§Ø¹ ØªØ±
ĠÙĤ ÙĪÛĮ
Ġreturn ed
Ġc amp
ĠÙĤÛĮØ§ ÙģÙĩ
Ġfor ward
ĠÙ¾Ø±ÙĪ Ø§Ø²
ĠÙģØ¹ Ø§ÙĦ
u z
ĠÙĩ Ø§ÛĮÛĮ
Ġfor ce
un ch
ĠH er
Ġke y
ÚĨ ÛĮØ²ÛĮ
iron ment
Ġm ist
ĠØ® Ø§ÙħÙĪØ´
ĠÙ¾ÛĮÚĨ ÛĮØ¯Ùĩ
Ġse x
if t
ĠØ³Ø± Ø¨Ø§Ø²
ĠØ³ Ø§ÙĨ
ĠÙħÙĨ Ø§Ø³Ø¨
ĠØ§ÛĮØ§ÙĦ Øª
ĠÚ¯Ø³Øª Ø±Ø¯Ùĩ
ĠN o
ĠI I
Ġsh ip
ĠØ¯Ø³Øª ÛĮ
ĠÚ© ÛĮÙĦ
ang er
i res
ĠØ´Ø¯ ÛĮØ¯
l am
Ø´ Ú©Ø±
Ġc e
Ġdis e
He re
o e
Ø§Ùģ Ø¸Ùĩ
Ġloc al
o ot
ĠØ¯Ø± Ø³
ĠØ§ÙĨØªÙĤ Ø§ÙĦ
Ø± Ø§ÙĨÛĮ
ĠØ³ÙĪ Ø§Ø±
Ġserv ice
ĠÚĨÛĮØ² ÙĩØ§
ĠØ° Ùĩ
Ø¨Ø§ Ø´
± Û°
ĠØ§Øª ØŃ
Ø§ÙĨÚ¯ ÙĦÛĮØ³ÛĮ
Ġcre ated
Ġadd ed
Ġ1 00
Ġper fect
f ace
ĠØ¨ Ú¯Ø°
Ġy es
Ġ201 0
ĠØªÙĪØ§ÙĨ Ø³Øª
Ġbegin ning
Ġsci ence
ĠÙħÙĪ Ø§Ø±Ø¯
u ct
Ġp ot
ĠØ¹ Ø¨ÙĪØ±
Ġcomp an
ĠÙħ ÙĪØ±
Ġs oul
Ġchang ed
Ġc ried
ĠØ®ÙĪØ§Ùĩ ÛĮÙħ
ĠAmeric a
ĠØ¶ Ø±
ĠQ u
Ġwond er
ĠÙĨØ¸ Ø±ÛĮÙĩ
ĠØ§Ø¹ Ø¶Ø§ÛĮ
Ġw ide
Ġspec ies
Ġth r
Ġ ut
ĠÙģØ± Ø§ÙĩÙħ
ĠÙħØ§Ø¯Ø± Ø´
Ġmem ory
ĠØ§ØŃØªÙħØ§ÙĦ Ø§
Ø² Ø§
Ù¾ Ùĩ
ĠÙħØ® Ø§ÙĦ
v iew
Ú©ÙĨ Ø§ÙĨ
Ġgr and
ĠÙħØ·Ùħ Ø¦ÙĨ
ĠØ¯ÙĨÛĮ Ø§ÛĮ
ĠØ§Ø¨Øª Ø¯Ø§
y ond
Ġs us
Ø§Ø± ÙĩØ§ÛĮ
en ces
Øº Ø§ÙĦ
Ú¯Ø° Ø§Ø´Øª
gg est
ÙĨØ¯ Ú¯ÛĮ
ÙĪ ÙĤØª
ĠØ± ÙĩØ§
Ġcol le
ĠÙħØ±ØŃ ÙĦÙĩ
Ġs itting
ĠÚ© Ø´ØªÙĩ
ĠØª Ø±Ø§
Ġg reen
Ġtr ad
ĠI S
Ù¾ÛĮ Ø´
Û Ģ
ĠØ§Ø³Øª Ø§ÙĨØ¯
ÙĪØ² Ùĩ
Ġimp ro
D on
Ø³ Ø§Ø²
Ø§Øµ ÙĦ
ĠÙĪ Ø§ØŃ
ĠCount y
ÙĨØ¯ ÙĨ
Ġr an
Øª ØŃ
Ġloc ated
ĠÚ©Ø³ Ø¨
ÙħØ« ÙĦ
h ood
ÙħÛĮÙĨ Ø§ÙĨ
ĠØ§ÙĨ Ø¬
ĠÙħÙĨ Ø¬Ø±
Ġcomm and
ag n
Ø§Ø±Øª ÛĮÙĨ
Ġmil itary
ĠØ± ÛĮØ§
Ġpr ison
Ġs ir
igh b
ur d
Ġcre ate
ĠÙĦ Ø±Ø²
Ø§ØŃ Ø¨
Ġbook s
Ġprof ess
ĠØ§ÙĨÚ¯ÙĦ Ø³ØªØ§ÙĨ
1 1
Ġatt ention
ĠØªØ±Ú©ÛĮ Ø¨
ĠØ¹ Ùĩ
ÙĪØ´ ÛĮØ¯
ĠØ§ Ú¯Ùĩ
c us
Ġm ount
ĠÚ©Ø´ ÛĮ
b on
ict ion
ĠØ¨Ø² ÙĨ
ĠØ¯ ÙģØª
ĠØ®ØµÙĪØµ ÛĮ
Ġm iss
Ġsu ggest
Ġacc ess
ĠØ³Ø¨ Ø²
ĠØ¢ Ø¯
ĠØ« Ø±ÙĪ
ĠØ¢Ø³ ÙħØ§ÙĨ
ĠØ³ ÛĮÙĨÙĩ
um e
Ġstran ge
Ġ ir
Ġd ue
ĠÚ©ÙĪÚĨ Ú©ÛĮ
Ø« Ø§Ø±
ad d
Ġfoll owed
ĠØªÚ©Ø± Ø§Ø±
Ġwork ed
Ù¾ Ø¯Ø±
o x
Ġre ady
Ġse nd
Ø¸Ùĩ Ø§Ø±
i am
ĠÛ±Û µ
ĠÙ¾ Ø´ØªÛĮ
r id
u k
Ä ±
Ġfur ther
Ġest ab
ĠPar is
ĠØ¯ ÛĮÙĨ
an ced
Ġdo ll
ĠÛ±Û ³Û
ĠÙħØ¹ Ø±ÙģÛĮ
ar a
ĠØ¨Ø¨ÛĮÙĨ Ùħ
im ent
ĠØ§Ø¨ Ø²Ø§Ø±
Ġco ll
Ġgo ld
Ú¯ÙĪÛĮ ÛĮ
ĠGe or
ra ft
Ú¯ÙĪÛĮ Ùħ
Ú¯ ÙĪØ±ÛĮ
ĠØªÙĪØ§ÙĨ Ø§ÛĮÛĮ
ĠØªÙĦ ÙĪÛĮØ²ÛĮ
Ġw ays
ĠÙĩÙĪØ§ Ù¾ÛĮÙħ
Ġst ri
Ġli ved
Ġb ott
Ġte ac
ĠØ§ÙĤØªØµ Ø§Ø¯
ĠÙħ Ø±ÛĮ
ĠØ¨ Ø¯ÛĮ
ĠØ§Ø® ØªÛĮØ§Ø±
Ġw ood
ĠØª ÛĮØ±
om en
ĠÙħÙĨ Ø§Ø·
Ġf ing
ĠH ar
ĠØ¢ ÙģØ±ÛĮ
ĠØŃ Ø²Ø¨
Ø¹ÛĮ ÛĮÙĨ
ĠF l
ĠØ³Øª Ø§Ø±Ùĩ
ck s
ĠØ§ ÙĦÛĮ
ÙħØ§ÙĨ ÙĨØ¯
Ġpart y
Ġcap t
Ġocc ur
g ing
ĠØ§ÙĨØ¯ Ú©ÛĮ
Ø¹ ØªÛĮ
Ġd om
ĠP art
ear s
Ġwr ote
ĠÙĨØ¯Ø§Ø± ÙĨØ¯
Ġdevelop ed
ĠÙħÙĪÙģ ÙĤÛĮØª
es tern
ĠØ±ÙĪØ² ÛĮ
ĠØ§ÛĮØ³Øª Ø§Ø¯
ĠØ§ÙĤ Ø¯Ø§Ùħ
Øµ Ùģ
ĠÙħØ±Ø¯ Ùĩ
ĠÚ©ÙĦ Ø§Ùĩ
en cy
us hed
ist an
ru ction
ĠØ§ØŃ ØªØ±
Ġ x
E D
Ġt ree
ĠØª Ø®Øª
ĠØ± Ø§ÙĨ
Ġe ff
ĠÙĤ ÙĪØ§ÙĨ
Ġqu iet
ĠØ¢ Ø±Ø²
ĠØ´Ùħ Ø§ÙĦÛĮ
Th ank
ĠÙĦ Øª
Ġse par
Ø¦ ÙĪ
ĠØª ÙĨØ¯
ĠØ§Ø® ÙĦØ§
ĠØª Ø±ÛĮ
et ic
Ġre pe
Û±Û ¹Û
ĠØ± ÙĪØ§ÙĨ
ĠÚ¯ Ø´Øª
ĠØ¯ ÚĨØ§Ø±
ĠFran ce
ĠØ² ÙĨÛĮ
Ġsit u
ĠÛ ¹
art ment
ĠÙĦØ§Øª ÛĮÙĨ
ĠØ±Ø§ ØŃØª
Ġcom pl
ĠØ³Ø¨ Ú©
ĠØ¨Ø±Ø® Ø§Ø³Øª
ÙĪ ÛĮÙĨ
ci ent
it ude
Ġse ven
ĠØ´ Ø§ÙĨÙĩ
Ġaf f
Ġexper ience
Ã ¼
ÛĮ ÛĮ
ĠØµØŃ ÙĨÙĩ
Ġf av
ĠØ¨ Ø§Ø±ÛĮ
ĠÚ© Ø§Øº
Ġsu ff
Ġcell s
Ġc ause
ĠÙ¾ Ø³Øª
ĠBrit ish
i que
Ġbeh av
ĠÚĨÛĮØ² ÙĩØ§ÛĮ
Ġbeaut iful
re me
ĠØ®Ø§Øµ ÛĮ
Ø§ÙĪ Ø±Ø¯
ra id
ĠØ¨Ø±ÛĮØª Ø§ÙĨÛĮØ§
Ġche m
ĠØ¬ÙĦ ÙĪÛĮ
Ġp ull
Ġval ue
b all
k ed
ĠÙħ Ø§Ø¯Ùĩ
ra z
Ġstop ped
om b
Ġobs er
Ġcons ider
Ġsim ply
Ġint rodu
ing ly
Ġcr it
Ø¨ ÙĨØ¯
y l
Ġty pe
Ø§Ø±ÛĮ Ø³
Ø¬ Ø§Ø³Øª
ĠÙĨØ¯Ø§Ø´Øª Ùĩ
F rom
Øª Øµ
Ġt ill
ĠÙħ Ø¨Øª
Ġf ast
Ø±Ø§ Ú©
ĠM arch
ĠØ§ Ø¸ÙĩØ§Ø±
ØªØ± Ø³
Ġatt empt
Ġmove ment
Ġre ached
Ġ2 5
se qu
Ġvar ious
Ġbec om
Ġappe ared
d o
ĠÛ ´Û
ØªÙħ ÙĨØ¯
Ġcontin ued
ĠØª Ø¹ÛĮÛĮÙĨ
ĠÙħÙĪ Ø¬Ø¨
Ġfor mer
ĠØ²ÙĨØ¯ Ø§ÙĨ
ĠØ§Ø· ÙħÛĮÙĨØ§ÙĨ
ĠÚĨ ÙĪØ¨
Ġin n
Ġgl ass
Ġ Î
Ġro b
ow ers
ĠØ¬ Ø¯
Ġkill ed
ĠE n
ĠÙĤÛĮÙħ Øª
Ġn amed
ĠÛ±Û¹Û ¶Û
ĠÙĨÙĤ ÙĦ
Ø¨ ÙĪ
ĠØªØŃ ÙħÙĦ
ag ue
Ġ Ã
Ø§ÛĮ ÛĮØ¯
ic le
Ú©ÙĨ Ø´
ĠÙħØ¯ÛĮ Ø±ÛĮØª
ÙĩØ§ÛĮ Ø´Ø§ÙĨ
ĠØ¯ ÙĩÙħ
ĠÙĤØ¨ ÙĪÙĦ
Ġes c
ĠÚĨÙĨØ¯ Ø§ÙĨ
Ġstand ing
u el
Ġim medi
ĠØº Ùħ
Ġs or
Ġb es
ĠV al
ĠØªØŃÙĤÛĮ ÙĤ
Ġbl ue
ĠM us
ag ement
Ø³ Ø§ÛĮ
Ø¨ Ø§Ø±ÛĮ
ll ing
Ġg e
Ġcomm unity
Ġgirl s
ĠM ad
Ġter ri
Ġâ Ī
ĠØ² ØŃ
Ø§ Ú©ÛĮ
s c
ill s
ĠØ® Ø¨
ÙĪØ± Ø§ÙĨ
am a
ĠÙ¾ÛĮØ´ Ø±ÙģØª
ourn al
S h
Ø§Ø¨ Ø·
ĠÙĩÙħ Ú©Ø§Ø±ÛĮ
ĠB ut
ĠØ´Ø®Øµ ÛĮØª
in ct
Ø³ Ú©
Ġf ine
ĠÙ¾ ÙĦÛĮØ³
ĠØ´ Ø§Ø¯
ĠH ist
ite ct
Ġdist rict
ib ility
Ú©ÙĨ Ùĩ
ic a
ĠÙĨØ´ Ø§ÙĨÙĩ
Ġm iddle
h is
Ġst reet
ĠØ¯Ø§Ø® ÙĦÛĮ
A S
Ø¯ Ø³
ĠÙħÙĤ Ø§Ùħ
us ion
ĠÙħÙĤ Ø§ÛĮ
t a
Ġse a
ĠØºØ± Ø¨ÛĮ
Ġm outh
Ù¾ ÙĦ
Ø¬ Ø§ÛĮ
the re
ĠÚ© Ø±ÛĮ
wh o
ĠÙĪØ§ØŃ Ø¯
Ùĩ ÙĪØ±
Ġf if
Ġpubl ished
Ġne ighb
Ġme ant
ĠM ed
Ġj ud
we red
ĠØ®Ø§Ø± Ø¬ÛĮ
Ġd ie
Ġter m
ĠØ¨ Ùħ
ĠØ³Ú© ÙĪØª
ĠÙħ Ø¨
ĠJ une
r ay
ĠØ¢ ÙģØª
is f
Ġ ver
Ø³ ÙĦ
Ġspec ific
ĠÙ¾Ø²Ø´ Ú©ÛĮ
ĠÙħÙĤØ§ÛĮ Ø³Ùĩ
ĠÙĨÙĤ Ø§Ø´ÛĮ
n y
Ġsee ing
ĠØ§Ø³ØªØ§ÙĨØ¯ Ø§Ø±Ø¯
ĠØ¨ Ø¨ÛĮÙĨØ¯
H arry
Ġp ath
ĠØ®ÙĪØ¯ Øª
ĠØªÙĪ ØµÛĮ
ĠÚ¯Ø³Øª Ø±Ø´
Ġde pend
ĠØ³ Ø§Ùħ
ĠØ§ØŃØ³Ø§Ø³ Ø§Øª
ĠØªØ¹ Ø¬Ø¨
ĠÚ¯ ÙĪÛĮÛĮ
ĠØŃÙĦ ÙĤÙĩ
ĠØ±ÙĤ Øµ
e y
ĠÙħØ¹Ùħ ÙĪÙĦ
a ven
Ø§Ø± ÙĪ
ĠØ¯Ø¹ ÙĪØª
ĠØ§Ø¹Øª ÙħØ§Ø¯
ĠÙĤ Ùĩ
Ġde cl
Ġwork s
ÙĨ ÙĪØ§ÙĨ
ĠØ¨Ø² ÙĨØ¯
ĠÙħ ÙĩØ§
Ø§Ø¯ Ø«
ĠÙħ ÙģÙĩ
Ġpur p
Ø§ÙĨ ÙĪØ³
Ø®ÙĪØ§Ùĩ ÛĮØ¯
ĠØ³ ÙĪØ¯
Ġb ab
ĠJ an
in al
ĠÙģØ± Ø§ÛĮÙĨØ¯
ÙĩØ§ÛĮ Ùħ
ĠØ¨ÛĮ Ø§ÛĮØ¯
ĠÙħØ³ ÙĦ
ĠØ³ Ø§Ø²ÛĮ
ĠÛ±Û¹Û ´Û
ĠÙĩØ³Øª ÛĮ
Ġmay be
Ø¨Ø² Ø±Ú¯
ĠØ± Ùģ
ĠÚĨ Ø§Ø±
ight s
ĠAfric a
Ġaf raid
ĠØ§Ø³Ù¾ Ø§ÙĨÛĮØ§
ĠØ® Ø´Ú©
ĠR es
ĠC al
ĠØ§ÙĪ ÙĤØ§Øª
ĠInd ia
Ġflo or
Ġav ail
ĠØ¹ ÙĦÛĮÙĩ
ĠØ§ÙĨ ÙĤÙĦ
u ary
Ġproble ms
ĠØªÙĤ Ø³ÛĮÙħ
Ġd in
ĠÚĨ Ø§Ù¾
1 8
C A
ĠÙĪ ÛĮÙĨ
ÙĪØ± Ø´
ĠÙģ ÙĦØ³
Ġenv ironment
ĠØŃØ±Ùģ Ùĩ
Ġknow ledge
ĠØª Ø¦
Ġ201 2
Ġ $
Ø´Øª Ø±
pt ember
ĠØ§Ø® ÛĮØ±
Ġf ix
ĠÚ©Ø§Ø± Ø¨Ø±Ø¯
em y
y a
Ø¬ Ø²
ĠE arth
ĠØ´ Ø§ÙĨ
Ġes pecially
ĠØ® Ø³ØªÙĩ
ĠÙģØ± Ùħ
Ø² ÙħØ§ÙĨ
ĠÙ¾ÛĮ Ø§Ùħ
Ġright s
ĠD on
ĠØ« Ø¨Øª
ĠÙĨÛĮØ± ÙĪÙĩØ§ÛĮ
ru pt
ĠØ¯Ø±ÛĮ Ø§ÛĮÛĮ
ĠÙĨ Ú©ØªÙĩ
ÚĨ Ø±Ø®
ÙĦÛĮ Øª
Ġoff ice
ĠÚ©ÙĦÙħ Ø§Øª
Ġwr ite
Ġinclud e
Ġa st
ĠÙĩÙħÚĨ ÙĪÙĨ
Ġcomple x
Ġresp ons
Ġlearn ed
Ġbe yond
Ø· ÙĪØ±ÛĮ
ĠS ec
ĠØ§ÙĨÚ¯ Ø§Ø±
oun ced
ĠØ¨ÛĮØ¯ Ø§Ø±
ĠØªÙĩÛĮ Ùĩ
ch ie
w o
Ġs ister
ch an
ĠÙĨÛĮ ÙĪÛĮ
ØªÙĪØ§ÙĨØ³Øª Ùħ
Ġset t
Ø³ ÛĮÙĨ
ĠÙģØ¶ Ø§ÛĮ
ĠS an
Ġh op
ĠÙĤÙĪØ§ÙĨ ÛĮÙĨ
o ices
ĠÙħØ´ Ø§Ø¨Ùĩ
ĠØ¨ Ø´ÙĪØ¯
ĠÙĪØ§ÙĤ Ø¹ÛĮØª
Ġcar ry
ĠP a
Ġc ivil
ĠØ¬ Ø§ÙĦØ¨
Ġ5 0
ĠÙħØ´Ú©ÙĦ Ø§Øª
Ġrepl ied
Ġf und
ag er
ĠÙĨÙĩ Ø§Ø¯
ĠØ§Ø· Ø§ÙĤ
Ġp red
it or
ĠÙģ Ø§Ø±
os ing
ition al
ĠÙĩÙĪ Ø§ÛĮÛĮ
Ġtw enty
if f
Ġeff ort
Ġpe ace
Ġmod ern
U n
u f
Ã ¡
ĠÙģ ÙĨØ§
Ġdes p
ĠØ¬ÙĨÚ¯ ÙĦ
Ġexact ly
ĠC ity
ĠØ§ÙĨØª Ø´Ø§Ø±
ĠÙĦ ÙĨØ¯ÙĨ
ĠØ¨Ø¯ ÛĮÙĨ
Ġcl aim
Ú¯ÙĪÛĮ ÙĨØ¯
ĠØ®ÙĪ Ø±Ø¯Ùĩ
ÙĪÛĮ ÚĨ
ĠÙħØ±Ú© Ø²ÛĮ
lo ck
Ġevery one
re ed
Ġpre v
Ø®ÙĪØ§Ø³Øª Ùħ
Ø³ Ú©Ùĩ
at ors
ÙĪØ§ Ø¹
ĠØªÙĦÙģ ÙĨ
it es
ĠØ¢Ø³ÛĮ Ø¨
ĠØ§Ø¯ Ø§Ø±Ùĩ
Ġas soci
Ġrele ased
ĠØ¬ Ø³
ĠâĢ Ŀ
be c
ĠØ§ØªÙģØ§ÙĤ ÛĮ
Ġany one
ĠÙħØ´Øª Ø±Ú©
Ġtre es
ĠØª Ú©Ùĩ
ĠÚ©ÙĦ Ø§ÛĮØ¯
ĠØ¢ÙĦ ÙħØ§ÙĨÛĮ
ĠØª Ø§Ùħ
ĠC o
ĠÛ±Û ¹
eng th
as c
ĠØ´ÛĮÙħÛĮ Ø§ÛĮÛĮ
Ġw at
Ġm aster
res h
Ġeas y
ĠØ¢ÙĦØ¨ ÙĪÙħ
tern et
Ġcol lect
Ġsp oke
ograph y
Ġ Ð
ĠÚ© Ø±Ùĩ
ĠØ¹Ùħ Ø±
d om
ĠØ· ÙĦ
ĠÙĨÛĮØ³Øª Ùħ
ØªÙħ Ø§Ùħ
Ġhapp en
ĠÙħØ¯ ÛĮØ±
Ġoffic ial
ar ily
Ġfor t
r am
ĠÙħ Ø§ÛĮÙĦ
ĠÚ© Ø±ÛĮØ³ØªÙģ
ĠØ¨Ø§ Ø´Ùĩ
Ġneed ed
ĠØ§Ø³Ù¾ Ø§ÙĨÛĮØ§ÛĮÛĮ
Ġto ward
ĠÙħÙĨØ§Ø· ÙĤ
Ġreg ard
ĠØ³ÙĨ Øª
ĠØº ÙĦ
ĠØ§ÙģØ± Ø§Ø¯ÛĮ
ĠØ¬Ø² ÛĮØ±Ùĩ
Ú© Ø²
ĠØªÙĪØµÛĮ Ùģ
Ġk ing
ĠÙĤØ± ÙħØ²
Ġ200 8
Ø§ÙĨÛĮ Ùĩ
i ant
ĠChrist ophe
ĠÙĤ ÙĩØ±
Ø± Ø§ÙĨØ¯
ĠÙĨ Ø§Øª
Ġmar ried
ĠÙ¾ Ø§ÙĨ
Ġ201 1
Ùħ Ø§Ø¯Ø±
Ġf ac
ĠB er
ow d
se t
Ġwh is
Ġdo ctor
O f
gor ith
Ġwould n
ĠÙħØ° Ùĩ
ĠØ¯ÙģØª Ø±
ĠÙ¾ Ø§Ø±ÛĮØ³
Ġdou bt
iver se
ĠØªØŃ ØµÛĮÙĦ
ĠØ¨Ø±Ú¯ Ø²Ø§Ø±
ĠÙģØ± Ø²ÙĨØ¯
Ġquest ions
Ø§ÙĦ ÛĮØ§
ĠÙĩØ± ÚĨÙĩ
Ġsh are
Ġ200 9
ug ust
Ġc ast
r is
ĠØŃ Ú©ÙĪÙħ
ĠØ±Ø³ÛĮØ¯ ÙĨ
Ġin ternational
ĠÙ¾ Ø®Ø´
ir th
ĠÙ¾ÙĨ Ø§Ùĩ
ĠØ§ Ú©Øª
ĠÙĤ ÙĪÙĦ
ĠØ¨Ùĩ Ø¨ÙĪØ¯
ĠØªÚ©ÙĨ ÙĪÙĦÙĪÚĺÛĮ
Ġst ra
o ly
Ġsp ent
ct ober
ĠÙħÙĪÙĤ Ø¹ÛĮØª
b an
Ø³ Ùģ
ĠM on
ĠØ¯Ø³Øª Ø±Ø³ÛĮ
Ġcomm unic
ĠÙĪØ¶ Ø¹ÛĮØª
ĠÚ©Ø§ÙħÙ¾ÛĮ ÙĪØªØ±
Ø¯Ø§Ø¯ ÙĨØ¯
ĠÙĪ ÛĮÙĦ
ÙĪ ØŃ
Ú¯Ø±Ø¯ Ø§ÙĨ
Ġide as
Ġappl ic
Ø¯ Ø§ÙĪ
ĠØ´Ùĩ Ø±ÛĮ
ĠÚ©ÛĮ Ùģ
ic ro
Ġwor th
A T
c il
ĠP ress
Ġpr im
ĠØ§Ø³ Ø§Ø³ÛĮ
Ġcont r
ĠØªÙģ Ø§ÙĪØª
ĠSe ptember
Ġinde pend
ĠRuss ian
1 2
Ġexp ression
Ġdr ink
ĠD av
ĠØ®Ø¯Ùħ Ø§Øª
Ø¯ Ø§ÙĨØ¯
ĠØ¨Ùĩ Ø±Ùĩ
Ġd ig
ĠØ§Ùģ Ú©Ø§Ø±
Ġp ack
ĠØ³ ÛĮÙħ
ĠØ³Ø§ÙĦ Ú¯ÛĮ
ĠØ¯Ø´ ÙħÙĨ
ĠÙĪØ± ÙĪØ¯
Ġs al
Úĺ Ú¯ÛĮ
Ø¹ Ùħ
? "
Ġpol ic
Ġe at
i ers
Ġpie ce
ren g
ĠØ¯ÙĤÛĮ ÙĤ
Ø´ÙĪÙĨ Øª
ĠEurope an
ĠØ¹ Ø§Ø¯ÛĮ
ĠØ¨ Ø¨Ø±
Ġd anger
fe rences
r um
ĠÙĨ Ø§Ø´
ĠW est
Ġwa iting
ĠGerman y
Ġf air
ĠØ²ÛĮØ¨ Ø§ÛĮÛĮ
ĠÙĪ ÙĤ
ĠØ³ ÙĪØ±
ĠJ ew
Ġd a
ĠØ¹ÙĤ ÛĮØ¯Ùĩ
wh at
ir m
ĠØ±ÙĪØ¯ Ø®Ø§ÙĨÙĩ
ĠJu ly
ĠØ¢ ÙĨØ¯
Ġmean ing
ĠØ¨Ø´ Ø±
ĠÙĨÛĮÙĪÛĮ ÙĪØ±Ú©
Ġc op
Ġrelations hip
Ġinde ed
ĠA t
Ġtem per
Ø® Ø±Ùĩ
fe red
ĠØ±Ø§Ùĩ ÛĮ
ĠØ§ÙĨØ¯ÛĮ Ø´Ùĩ
ÙĤ ÛĮØ±
ĠØ§ÛĮÙĨ Ùĩ
Ø¦ ÙĪÙĨ
us es
Ġu r
Ġh y
ĠØ¬Ø¯ÛĮØ¯ ÛĮ
Ġsil ence
Ġs ize
ĠØ¢ ÙĪØ±
ĠØ§Ùĩ ÙĦ
ÙĤ Ø§ÙĨ
ly ing
Ġlo ved
Ġch ance
Ġbo x
Ġhor se
Ġcomplete ly
ĠØ±ÙĪØ³ÛĮ Ùĩ
Ø¯ ÙĪØ±
ĠÙħØ¹ ØªÙĤ
Ø± ÙģØªÙĩ
Ġm id
ĠÙħØ¯ Ø§Ø±
ÙĪÙĦÛĮ Øª
ĠØ¢Ø´ Ú©Ø§Ø±
ĠÙĨ Ú¯Ø±Ø§ÙĨ
il os
ĠÛ° Û°Û°
ĠN e
ĠØ³Ø§Ø¨ ÙĤ
Ġeduc ation
ĠÙħØ¨Ø§Ø± Ø²Ùĩ
om p
ĠÙħ Ú¯Ø±
n ed
ĠØ§Øµ ÙĦ
Ø®ÙĪØ§Ùĩ ÙĨØ¯
ĠØ¹ÙĦ Ùħ
ĠEng land
he t
ĠÙħ ÙĪÙĨ
Ġb urn
Ġn orm
ÙħÛĮ Ø±
Ġ201 3
Ùħ ØŃ
ĠØ³Ù¾ Øª
Ø¢ Ùĩ
ĠP res
ĠÙħÙĤ Ø§ÙĪ
ĠÙ¾Ø±ÙĪ Øª
Ġcap ital
ĠÙĦ Ø·
ust om
Ġam ount
ĠÙħÙĩ ÙĨØ¯
Ù¾ Ø²
ĠÙĪØ³ Ø·
ĠØ¢Ø´ÙĨ Ø§
ĠÙħØŃ Ø¨
Ġlar gest
ĠÙģ ØµÙĦ
ib ly
ĠØ¢ Ø«Ø§Ø±
Ġreg ion
Ġrun ning
ĠØ³ ÛĮÙĨ
ĠØªØ§Ø±ÛĮ Ú©
b um
ĠØ³ Ø§ÛĮÙĩ
k a
Ø® Ø§Øµ
Ġaf fect
ĠØªØµ Ø§Ø¯
pri l
Ġcon cept
ĠP er
Ġch air
Ġconvers ation
Ġlook s
Ġ >
Ġh ost
ĠØ¯ÙĦ Ø´
oss ible
Ġse arch
bs ite
ĠÚ¯ ÙħØ§ÙĨ
Ġstud ents
ĠÙĨØ§Ùħ ÛĮØ¯Ùĩ
Ù¾ Ø§ÛĮ
Ġc oun
ĠØ´ÛĮ ÙĪÙĩ
ĠØªØ¬ Ø§Ø±ÛĮ
Ġprin ci
Ġw arm
ĠØ²ØŃ ÙħØª
ĠÚ© ÙĪØ±
Ġparent s
ĠØªØ§ Ø«ÛĮØ±
ĠØ¬ Ø¹
Ġm unicipality
ĠØªØºÛĮÛĮØ± Ø§Øª
iz ing
Ġgo es
Ø¯ ÙĪÙĨ
Ġs ight
w ell
in y
ĠS am
Ġb and
ĠØ§ ÙĦÙĩ
ĠØ³Ø± Ø²ÙħÛĮÙĨ
ĠØ´Ùħ Ø§Ø±Ùĩ
bl ing
ove mber
land s
ĠÙħØŃ Ø¶
ĠØ³Ø® ÙĨØ§ÙĨ
Ġprodu ced
ĠØ§ÙĪÙĨ ÙĩØ§
a ur
Ø¨ Ø±ÙĪ
ĠØ¯ÙĤÛĮ ÙĤØ§
ĠØª Ø±Ø¯
Ġst ates
ĠØ·Ø¨ÛĮ Ø¹Øª
Ġc am
Ø§Ú© Ø³
o id
ĠCh ina
Ġis n
ĠÙģÙĨØ§ ÙĪØ±ÛĮ
Ġavail able
Ġd ress
ĠÚ¯ ÙĪÛĮ
Ø¹Ø¯ Ø§Ø¯ÛĮ
ĠÙĨ Ø¨Ø±Ø¯
au d
Ġmem ber
ĠÙĨ Ø§Ø´ÛĮ
Ġin it
Ġ200 6
ÙĦ Ø²
ĠØ³ Ø¤
Ġst reng
ĠØªØ§Ø±ÛĮ Ú©ÛĮ
g ress
ĠØ® Ø´ÙĪÙĨØª
ĠØ³Ù¾Øª Ø§ÙħØ¨Ø±
Ġr ul
ĠØ¨ÛĮÙĨ ÛĮ
Ġ [
Ø® Ø§Ø±
ÚĨ Ø´Ùħ
if y
Ġsign ific
Ø¯ Ø§ÙĨÛĮ
min ist
Ġf em
ĠØ¯Ùĩ ÛĮØ¯
19 9
Ġfig ure
al d
Ø¦ Øª
Ø§Ùģ ÙĤ
ĠØ® Ø¯Ø§ÛĮ
ce mber
ĠØ¯Ùģ Ø§Ø¹
Ø±ÙĪ Ø²Ùĩ
ĠÚ¯ÛĮ Ø§Ùĩ
Ġe p
ĠP al
ĠT om
ific ation
ĠØ¨Ø¯Ùĩ Ùħ
al ed
ic ed
Ġac qu
Ġperson al
Ġweek s
Ġeconom ic
E R
Ø±ÙĪ ÙĨØ¯
ard en
m it
ĠØ§ØŃØªØ± Ø§Ùħ
ĠO ctober
Ġphys ical
ĠAust ral
Ã ¶
ro om
ĠØ¬ Ø´ÙĨ
Ġpart s
Ø±Ø§ ÙĤ
Ø¢ÛĮ ÙĨØ¯
ĠÙĤ Ø§ÛĮÙĤ
ĠØ®ÙĪØ§ÙĨ Ø¯ÙĨ
ĠØ±ÛĮØ§ Ø¶ÛĮ
ĠØ´ Ø§ÛĮ
ĠØ¶ Ø¹ÛĮ
Ġbro ad
Ġr ate
Ġl iter
D uring
Ġc ode
ĠØ®ÙĪØ§Ùĩ ÛĮØ¯
Ġnear ly
ĠÙħØŃ Ú©Ùħ
ĠÙħÛĮ Ú©
Ġcr owd
um b
O r
ĠM or
Ġem ot
Ġa ction
Ø§Ø± Ùħ
ĠS he
ellig ence
Ġcl ot
ĠØ³Ø® ØªÛĮ
g hed
ĠØ¶ Ø¯
Ġw ild
ĠÙĤ Ø¶ÛĮÙĩ
ĠØº Ø±Ø¨
ĠB ar
ĠÙĪÛĮ ÚĺÚ¯ÛĮ
k n
a ff
Ġtra vel
Ġt it
er o
ĠØ¯ÛĮ Ú¯Ùĩ
Ġent ered
Ġgrou ps
ĠÚ¯ Ø§Ø²
ĠØµ Ø§ØŃØ¨
ĠØ§ÙĨ ÙĪØ§Ø¹
Ġex ec
Ġv ideo
Ú© Ùģ
ĠÛ±Û ²
ĠØ§Øµ Ø·
Ø®ÙĪØ§ÙĨ Ø¯
Ú¯ÛĮØ± ÙĨØ¯
Ġa ud
ĠÙģ Ø´
Øµ ÙĪØ±Øª
ad ed
Ġsat isf
w as
Ġstra ight
ĠÙħØ³ Ø§ÙģØ±
ĠØ¨Ø²Ø±Ú¯ ØªØ±ÛĮÙĨ
Ġro le
ĠØª ÛĮØ±Ùĩ
ĠA ugust
ÙħØ§ÙĨ Ø¯Ùĩ
ĠØ§ÙħÛĮØ¯ ÙĪØ§Ø±
Ġvers ion
Ġde g
ĠD r
ĠØŃØ¯ Ø§ÙĤÙĦ
Ø§ Ø¬Ùĩ
ĠØ¨ ÙĪÛĮ
ÙĨØ´ ÛĮÙĨ
Ġlike ly
ĠÙħØ³ Ø§Ø¦ÙĦ
Ġpict ure
P h
Ġl ady
ĠØ¹ ÙĦÛĮ
ĠM ary
ĠØ±ÙĪ Ø§Ø¨Ø·
Ġsl ight
ĠÙĩÙĨ Ø±ÛĮ
ÙĪ Ø§ÛĮ
ĠÙħ ÙħÙĨ
ĠA pril
ĠÚ¯ÙģØª ÙĨ
Ġt akes
at ory
un k
Ġall ow
ĠØ¸ Ø±Ùģ
Ġadd ress
ĠÚ¯ Ø±ÛĮÙĩ
Ġal gorith
Ġv ict
Ġspe nd
wh ile
Ġl if
ĠØŃ Ø±Ú©
Ġmov ing
ĠÚ© ÙĦØ§
re y
ĠØ¯ Ø³
Ø£ Ùħ
ĠØ¯Ø± Ø¢ÙĪØ±Ø¯
ol ute
ate ver
Ġa chie
Ġseem s
Ġfre qu
ĠÙĨÙĪÛĮØ³ ÙĨØ¯Ùĩ
ĠØ§ÙĨØ¬ ÙħÙĨ
ÙĩØ§ Ø³Øª
Ġl ad
ĠØ³Ø§Ø®Øª Ø§Ø±
ĠÙĩØ³Øª Ùĩ
ÙĪ ØªÛĮ
ÙĪ Ø³ØªÙĩ
Ġd am
ĠØªÙĩ Ø¯ÛĮØ¯
ĠØ±ÙģØª ÙĨØ¯
h am
ĠÚ¯ÙģØª Ú¯ÙĪ
Ġrem ained
ut ions
Ġon es
Ø¨Ø® Ø´
ĠØŃ Ø§ØµÙĦ
ĠÙģØ¶ Ø§
ĠØ³Ø§ØŃ ÙĦ
ĠØ§Øª ÙĪÙħ
Ġopp ort
ĠØ±Ø§ Ø¯ÛĮ
ĠM c
ÙĨ Ø²
Ġris k
ll a
Ġpol ice
ĠØ¨ ÙĨØ§
ĠAlex and
ĠSp ain
Ġdem and
Ø¨ Ø®Øª
ĠM os
ĠØ¬Ø§ÛĮ Ú¯Ø²
Ġhig her
! ...
Ġc y
ÙĦØ§ ÙĪÙĩ
Ġ |
Ġh at
ĠÙħÙĪ ØªÙĪØ±
ĠØ¨ Ø·ÙĪØ±
ĠØ¬ ÙĦØ¨
Ġcom fort
ĠÙĪØ§ Ú©ÙĨØ´
Ú©ÛĮ Ùĩ
ĠØ¨Ø¨ÛĮÙĨ ÛĮØ¯
ĠØ±ÙģØª Ùħ
Ġvis it
Ġsh owed
ĠÙĪ Ø§Ø¨
Ùģ Ø±ÙĪ
ÙĪ Ø§ÙĤ
ĠØ§Ùħ ÙĪØ±
Ġst ar
ĠØªÙħØ§Ø´ Ø§
Ġconc ern
Ġ200 7
ĠØ¹Ùĩ Ø¯Ùĩ
5 0
Ø§ØŃ ÛĮÙĩ
Ġpl aces
ĠÙħØ¬ ÙĦØ³
Ø§ÙĪÙĦ ÛĮÙĨ
ar i
ĠØ® Ø±ÙĪ
ĠE ast
Ġfe at
Ġplay ed
Ġans wered
as ant
Ġro ck
ĠÙħØ¹ Ø±ÙĪÙģ
ĠÙĤÙĩ ÙĪÙĩ
Ġall owed
Ġl ower
ĠØ® ÛĮØ±
Ø§ÙĨØ¯ Ø§Ø²
ĠØ¹ÙħÙĦ Ú©Ø±Ø¯
Ø§ÙĦ Ùħ
ens ive
Ġdisc uss
ĠØ¯ÙĪØ´ ÛĮØ²Ùĩ
ĠØŃ ØªÙħØ§
ĠØµ ÙĪØ±ØªÛĮ
ĠØªÙĪ Ù¾
u ght
ĠØ¯ ÙĨØ¯Ø§ÙĨ
ist ed
Ġwe ak
ĠÚ¯Ø±ÙģØª Ùħ
Ġbelie ved
Ġstand ard
ĠDe cember
ĠØ² Ùħ
Ġra ised
J ust
ÙħØ§ÙĨ Ùĩ
ĠN ovember
ĠÚ©Ø§Øº Ø°
R e
Ø§Ùģ Ø²Ø§Ø±
Ġcomp et
Ġb ound
ra el
Ġb all
Ø´Ú©Ø± Ùħ
c ome
ĠØ´ Ø§Ø¯ÛĮ
ĠØŃÛĮÙĪØ§ÙĨ Ø§Øª
Ø¨ Ø§ÛĮØ³Øª
il ities
ĠÚ©Ùħ Ø§ÙĦ
Ġdeter min
Ġp en
Ġter ms
ĠØŃ Ø§ÙģØ¸Ùĩ
ĠL ord
ĠÙħØŃ Ø§Ø³
Ġ19 2
ĠØ§Ø¬ Ø±Ø§ÛĮ
ĠØ§ØŃ ÙħÙĤ
Ġknow s
ĠØ° Ø®
Ġdise ase
Ùħ ÙħÚ©ÙĨ
re ct
Ġg rew
ĠØ´Ø± ÙĤÛĮ
on st
Ġm ad
Ġgiv ing
ÙĨÙĪ Ø´Øª
Ġde fe
Ġmach ine
an i
ĠÙ¾ Úĺ
ĠØ¯ÛĮ ÙĪØ§ÙĨÙĩ
ĠØ¹Øµ Ø¨Ø§ÙĨÛĮ
Ú¯ÙĪØ±ÛĮ ØªÙħ
ĠÙĩ Ø¯Ø§ÛĮ
an ish
ber t
ĠÚ©ÙĦ ÛĮØ¯
ĠÙĦØŃ Ø§Ø¸
ĠA nt
ĠØ¨ÛĮ Ø§ÙĪØ±
ĠØŃÚ©ÙĪÙħ Øª
Ġm ut
Ġsour ce
ĠÙ¾ÛĮ ÙĪÙĨØ¯
Ġ200 5
âĢĮâĢĮ âĢĮâĢĮ
Ø±ÙĪ Ø¨
as ion
ĠØ¨ÙĢ Ùĩ
ab les
Ð °
ar let
Ġdisc overed
Ġchang es
ĠØ¯Ø±ÙĪ Øº
Ġslow ly
ĠRep ublic
Ġref er
ĠÛĮ Ø®
ĠG reat
ĠØ³Ø¨ Ø¨
Ø¸ÛĮ ÙģÙĩ
Ø§Ø² Ø¯Ùĩ
l im
Ú© ÙĪÙĦ
Ġd en
Ø§ Ø¦ÛĮ
Ġsh out
ĠJan uary
Ġ <
iet y
Øº Ø§ÙĨ
ĠÙ¾Ø§Ø± Ú©
Ġtot al
Ø§Ø² Ø´
Ġemp loy
ĠØŃ Ø±
Ġanim als
Ø¯ ÙĦ
ĠÙħØ´ Ø§Ø±
ĠÛ³ Û°
ĠÙĨ Ø§Ùĩ
ĠØ§Ø¹ ÙħØ§ÙĦ
ĠÙĨÙħ Ø§ÛĮØ¯
Ø¬ Ø§ÛĮÛĮ
Ġcol or
ĠÚĺÙĪ Ø¦ÙĨ
ĠØ¯Ø± Ø®
Ġu nd
ĠØ¨ Ú¯
Ú¯ Ø§Ø±ÛĮ
as ing
Ġare as
Ġro se
Ġsp read
ĠØ¹ÙĦ ÙĪÙħ
m on
ch ing
os ition
Ġst ories
Ġimp ossible
it ation
ĠØ¨Ùĩ Ø´
Ġth us
sy ch
Ġun c
Ġwa it
Ġcorn er
ÙĪ Ù¾
l ict
Ġd ru
Ø³ÛĮ ÙĦ
ĠÙĩÙĪ Ø§ÛĮ
ĠR ober
Ġqu ar
ĠØ³Ø§ÙĦ Ùħ
Ġcl osed
Ġal though
Ġter ror
ci ence
Wh ile
Ġfell ow
Ġman ner
A cc
ĠÙģ ÛĮØ²ÛĮ
ÙĨÙĪ Ø¹ÛĮ
ĠÚ©Ø§ÙĦ Ø³Ú©Ùĩ
ĠØ§ ÙĤÛĮ
er a
ke y
Ġspe ed
Ø³Øª ÙĨ
Ø±Ø¯ ÙĪ
Ú¯Ø± Ùħ
ir ty
Ú¯ÙģØª Ùħ
k ing
en ess
ic ated
Ġle ar
ci a
Ġpre p
Ġpre vent
Ġph ilos
Ø· Ùĩ
ĠØ¨ÛĮ Øª
Ġch all
ĠØ§Øµ ÙĦØ§ØŃ
ĠÙħØŃ Ø§Ùģ
ĠÙĨØ³ ÙĦ
ĠÚ©ÙĦÛĮ Ø³Ø§
ĠÙħÙĪ Ø³
ÙĦØ§Ùģ Ø§ØµÙĦÙĩ
ĠÙģ ÙĩØ±Ø³Øª
ĠWh at
Ġdin ner
Ġc ases
ĠÙħØ±Øª Ø¨Ø·
hem at
ĠØ´ÙĨ ÛĮØ¯
Ø§ÙĦØ¹ Ø§Ø¯Ùĩ
ĠPart y
Ġl au
Ġg as
ĠØªØ± ÛĮÙĨ
ĠØ§ÙħÙĨÛĮ Øª
i ents
ĠØ®ÙĪØ±Ø¯ ÙĨ
ÙĤ ÛĮÙĨ
Ù¾ ÛĮØ±
ĠØ§ÛĮÙĨØªØ± ÙĨØª
ĠØ®ÙĪØ¯ ÙħØ§ÙĨ
Øº ÛĮØ±
ÙħØ§ÛĮ ÙĦ
ĠSt ate
Ø¨ Ø§Ø²ÛĮ
ion e
ĠÙħØ® ÙģÛĮ
Ø¨ÛĮÙĨ ÛĮØ¯
b ing
ver age
ĠØ¬ÙĨ Ø¨Ø´
Ġdoll ars
o es
ĠÙ¾ ÙĦÙĩ
Ø¯Ø§ÙĨ ÛĮØ¯
Ġnum bers
ĠÙģ ÛĮÙĦÛĮÙ¾
Ġimmedi ately
ĠØ¹ÙħÙĦÛĮ Ø§Øª
ĠØ§Ú©Øª Ø¨Ø±
ĠØ´ ÙĪÙħ
Ø¯Ùĩ ÛĮ
ĠÛĮÙĩ ÙĪØ¯ÛĮ
ĠØ¹ÙħÛĮ ÙĤ
Ġarch itect
ĠÙħÙģÙĩ ÙĪÙħ
Ġm ention
Ġth reat
ok ing
Ø§Ø® Ø±
Ġprodu ction
Ġnecess ary
u x
Ġpop ular
ĠØ± Ø²
k i
Ġthought s
ĠÙħØ±Ø§ÙĤ Ø¨Øª
f ield
Ġhe at
ÙĩØ§ Ø¦ÛĮ
Ġsa fe
Ġdist ribut
ÙĪÛĮ Ø³ÛĮ
ĠØ¢Ø±Ø§Ùħ Ø´
ĠØ´ ØªØ§Ø¨
Ġlo g
ĠØ® ÙĦÙĤ
Ġgl ad
Ġam az
an cy
ĠØ¨Ø§ÙĦ Ø§ØªØ±
ĠÙħÛĮÙĦÛĮ Ø§Ø±Ø¯
ri a
Ø¨ÛĮÙĨ Ùħ
ĠS er
ĠØ³ÙĨÚ¯ ÛĮÙĨ
ĠÙĦØŃ ÙĨ
ĠÙħÚ© Ø§ÙĨÛĮ
ĠÙħØ§Ø± Ø³
ÙĢ Ùħ
ĠØ¢ÙģØª Ø§Ø¨
ĠÙħ Ùī
Ġc at
Ġfin ally
ĠÙħ ÙĪÙĦ
Ġc and
Ġr ap
ĠIs lam
ĠØ± ÙĪÙĨ
Ġte xt
ĠAr t
ĠÙħØ¹Ùħ ÙĪÙĦÛĮ
Ø¢ Ø¨
ĠÙħÙĤ Ø§ÙĦÙĩ
ĠÙĨØ¯ ÛĮØ¯Ùĩ
ĠÙħØ¬ Ø¯
Ġwr iting
ĠØ±Ø³ Ø§ÙĨÙĩ
ĠÛ²Û°Û ±Û°
ar c
Ġli ps
Ġlink s
ĠÙħÙĪ Ø¬
uc le
Ġh osp
Ġe mer
Ù¾Ø± Ø§Øª
ĠÙ¾ÙĪØ´ ÛĮØ¯Ùĩ
ĠØ¹ Ø¸ÛĮÙħ
ĠÚ©ÛĮÙĦ ÙĪÙħ
Ġcar ried
ĠØ¯Ø± Ø®ÙĪØ§Ø³Øª
ĠØ³ Ø¹
Ġme chan
Ġmin ute
ro v
ct ions
Ø¨Ø± Ø®ÛĮ
j oy
ĠØ¹ Ø§ÙħÙĦ
ĠØ³ÙĦ Ø§Ùħ
W here
ail s
Ùħ Ø§Ø±
Ġdist ance
Ġpriv ate
Ġd er
ĠÙħ ÛĮÙĨ
Ġimag ine
Ø±Ø§ Ø¬
ĠØ¢ ÙĪ
Ġtre m
Ġg un
is es
ÙĦ ÛĮÙĨ
ĠØ¯Ùĩ ÙĨØ¯Ùĩ
re g
ĠD NA
e es
i ation
n ers
ĠÙĨ Ø§Ø®
ĠÚĺØ§Ù¾ ÙĨ
ĠØ³Ø¤ Ø§ÙĦ
Ùħ Ø·
ĠPhil ip
ĠÙħØ´Ø§Ø± Ú©Øª
Ú© Ø¯Ùĩ
ĠØ® Ø´
Ø®ÙĪØ§Ùĩ ÛĮÙħ
ĠPres ident
ap pe
ĠÙĤØ§ÙĨ ÙĪÙĨÛĮ
Ø´Ø§Ùĩ Ø²Ø§Ø¯Ùĩ
Ø¯ Ø®ØªØ±
ĠØ¨ Ú¯ÙĪ
ĠØ´ÙĩØ± ÙĩØ§ÛĮ
ÙĪÙĤ Ùģ
ĠØ§ Ø±Ø¨
ĠÙħÙĨ Ø²ÙĦ
Ġdo cum
ÙĨ Ø¸
Ø¹ Ú©Ø³
Ú© Ø±ÛĮØ³ØªÙģ
Ġm ur
Ġext reme
ĠØ¢ ÙĤØ§
Ø´ÙĨ Ø¨Ùĩ
Ø¸ Ø§Ùĩ
I I
v ision
ĠØ¨Ø±Ø³ Ø¯
b ru
Ã Ń
Ġn orth
Ø¨Ø± Øª
Ġl ength
Ġglo bal
ĠØ³ Ø§Ú©Øª
ĠØ² ÙĨÚ¯
Ġdiffe rence
Ġar my
ĠØµØ¯ Ø§ÛĮÛĮ
Ġext ra
ĠØ¨Ø§ Ø´ÛĮ
ĠM art
ĠØ´Ø± ØŃ
Ø§Ø¯ÛĮ Ùĩ
Ġm ine
ĠØ¨Ø± ÙĪÙħ
Ø±ÛĮ ØŃ
ĠÚ¯Ø±ÙģØª ÙĨØ¯
Ùħ Ø¬
ĠÙħÙĪ Ø§Ø¬Ùĩ
ĠÙĨÚ¯Ø± Ø§ÙĨÛĮ
ĠI nt
ĠÙ¾Ùĩ ÙĦ
ĠÙĨ Ú¯Ø±ÛĮ
S ince
Ġcons cious
Ø§ÛĮ Ø¬
Ø± ÙĪÙĨ
ĠHist ory
ĠØŃ ÛĮØ±
ÛĮØ§ Ø·
Ġsec urity
Ġfin al
ĠM er
Ġal bum
Ø¯Ø± Ø³Øª
ĠA g
ĠØ¹Ø¯ Ø¯
ĠÙħÛĮ Ø´Ùĩ
ĠÙħØ§ Ø¬
Ø¨Ø® ØªÛĮ
ĠØ¨Ø± ÙĪ
Ġmed ia
Ġo pt
Ø¬ ÙĨ
ĠÚ© Øª
ĠÚ©Ø§ÙĨ Ø§Ø¯Ø§
Ġcou ple
ĠØ¹ Ø§Ø¯Øª
ĠÙģØ±Ø§ÙĨ Ú©
Ġk ids
ĠØ´ÙĨ ÛĮØ¯ÙĨ
ĠØ§Ø®Øª Øµ
ĠÙĤ Ø§Ø¨
Ġhist or
ĠÚ©Ø´ Ø§ÙĪØ±
Ù¾ Ø§Ø±
il es
rie f
ar ies
Ġbro ken
Ú¯ Ø§ÙĨÛĮ
Ġe t
Ġst uff
ĠÚ¯ÙĪ Ø´Øª
Ġrem ark
te en
Ġbel ong
Acc ording
Ġpurp ose
Ù¾ ÙĪØ´
ĠCom p
e ch
Ø§ Ø¹Øª
Ø³Øª Ø±ÛĮ
Ø§Ùħ ÛĮØ¯
Ġwe bsite
ĠÚ¯ÛĮ Ø±ÛĮ
ĠØ§ÛĮØª Ø§ÙĦÛĮØ§
Ø¯Ø§ÙĪ ÙĨØ¯
it iz
Ġo il
ly de
Ø³ÛĮ ÙĪÙĨ
ĠØ§ÙĨ Ø¨
ÙĨØ§ Ú¯ÙĩØ§ÙĨ
Ġy ell
ĠØ¬Ø² Ø¦ÛĮ
ĠBl ack
ĠS m
ĠØ®ÙĪØ¯ ØªØ§ÙĨ
ĠÙħØ· Ø±ØŃ
Ġsur face
Ġparticular ly
l in
ÙĪÙĨ Øª
Ġem b
Ġbreat h
ĠÙĨ Ø§ÙĨ
ĠÛ ¶Û
Ġdis p
1 5
Ġc aught
ol f
er ve
ĠÙħÙĩ ÙħØ§ÙĨ
Ġprov ince
Ġexpect ed
Ġheav y
ĠØ® ÙĨØ¯
ord er
ĠÚ¯Ø± Ø§ÙĨ
ĠÙĨÙĪ Ø§ÙħØ¨Ø±
Ġbel ow
ĠØ® Ø±Ø¯
ĠØ³ÙĦ Ø§ÙħØª
Ġp al
ĠØ¹ Ø¯Ùħ
ĠØ¨ Ú©Ø§Ø±
ĠÙĪØ± ÙĪØ¯ÛĮ
ĠØ² Ø®
ist ry
Ġstreng th
ÙĪ Ø§Ø±ÛĮ
Ø§ÙģØª Ø¯
ĠØ¨ ÙĦÙĪ
ĠØªÙĤ Ø§Ø¶
ĠIs rael
Ø§ÙĦ Ø´
Ġim age
Ġsur v
M any
ÙħÛĮ ÙĪÙĨ
ast ic
1 3
ar p
ĠØ¬ ÛĮÙħ
ĠÙħÙĨ ØŃ
ĠÙħØ³Øª ÙĤÙĦ
om m
ĠØ· Ø±Ø²
est s
ĠÙħÙĩ ÙħÛĮ
Ġple asure
Ġop in
ĠÙħÙĤ Ø¯Ø³
ĠØ¨ Ø·
Ø§Ø¯ Ø§Ø±
ĠÙ¾Ø´ØªÛĮ Ø¨Ø§ÙĨÛĮ
Ø¨ Ø§Ø¨
ĠÙĨ Ø§ØŃÛĮÙĩ
ĠÙĤ ÙĦÙħ
Ġstep s
Ġp p
ĠØ¨Ø± Ùĩ
Ġres our
Ġdef in
Ú© Ø§Ùħ
Øµ Ø¨
ĠØº Ø±ÛĮ
Ġsil ent
ĠØª ÙĨÚ¯
ĠØ¢ ÙħÛĮ
ĠÙħÙĨ Ø¨Ø¹
Ġ4 0
Ġneed s
ĠØ±ÛĮ Ø´Ùĩ
n o
Ùģ Ø±Ø¯
ĠØ¯ÙĪÙĦ ØªÛĮ
Ġspir it
Ø² Ø§ÙĨ
iv ity
ier re
Ġb illion
ĠØ³ ÙĪØ²
ĠØ¯Ùĩ Ø§ÙĨ
ĠØ± Ú©
ĠØ¢ ÙĪÛĮ
Ġread ing
d d
Ġb irth
Ġan x
Ġspe aking
ĠÙĩØ¯Ø§ÛĮ Øª
c hen
ÙĨ ÙĪÛĮØ³
ĠØµ ÙĦØŃ
ĠØ¹Ø²ÛĮØ² Ùħ
Ġsk y
ĠØ¹Øµ Ø¨ÛĮ
ĠØ®ÙĪØ§Ùĩ Ø±
ĠØ¯Ø³ Ø§ÙħØ¨Ø±
Ø± ÙĨÚ¯
al ys
ĠØ±Ø§ ØŃØªÛĮ
ĠÙħØª ÙĪÙĤÙģ
Ġdirect ly
Ġposs ess
Ġorigin al
l t
ĠØ¨ Ø´ÙĨ
Ġm ill
ĠÙĤ Ø´
ĠØ±Ø³ Ø§ÙĨØ¯
Ġ ÙĢ
ĠØ¨Ø±Ø§ÛĮ Ùħ
Ġtr ust
ĠÙħØ³Ø§Ø¨ ÙĤÙĩ
Ġsoft ware
ĠØ¯ ÙĪØ¯
ÙĤ Ø§Ø¯
: âĢĮ
Ġco ol
Ø§ÙĨØ³ Ú©ÛĮ
ĠÙħ Ø±Ø²
Ġfor get
ĠØ¬ÙĪØ§ÙĨ ÛĮ
Ø§ÙĨ Ø¯ÛĮ
ĠØ¯Ø§ÙĨ Ø´Ùħ
ĠØ¶ ÙħÙĨ
ĠØ¶Ø¹ÛĮ Ùģ
M ost
ĠØ¨ ÙĦØ§
Ú©ÙĨÙĨØ¯ Ú¯Ø§ÙĨ
ĠØ¢ÙģØ±ÛĮ ÙĤØ§
ĠØ°Ø® ÛĮØ±Ùĩ
M D
Ø¢ ÙĨÚ¯Ø§Ùĩ
ĠØ¯ Ø§Ø¦
ĠÙĩÙĨ Ø±Ùħ
Ġ ess
Ġt ears
Ø§Ùħ ÙĪÙĨ
ve red
fe ction
ĠÙĪ Ø¸ÛĮÙģÙĩ
et her
Ġj oy
be red
ĠØªÙĪØ§ÙĨ Ø¯
Ġo ught
Ø§ÛĮ Ø¯Ùĩ
ĠØ§Ø³ Ú©Ø§Ø±
Ġturn ing
Ġpo ck
ĠÛ± Û°Û°
Ġgu ess
Ġestab l
Ġen joy
Ġpr ince
ĠØ± Øª
Ġtrou ble
b es
Ø§Ùħ Ø¯
ĠÙħ Ø¶
ĠØ¨ÛĮÙħØ§Ø± Ø³ØªØ§ÙĨ
Ġme re
ĠÙ¾ÛĮ ÙĪØ³ØªÙĩ
Ġtalk ed
gy pt
Ġinterest ing
ĠØ²ÙĪØ¯ ØªØ±
ĠØ§ÙĨÙĤÙĦ Ø§Ø¨
ÙĨÚ¯ Ø±ÛĮØ³Øª
i os
am b
Ġmag n
E ven
ÛĮ Ø¹ÙĨÛĮ
ro y
ĠÚ©ÙĪ ÚĨÙĩ
bru ary
ĠØ· ÙĦØ§
ĠØ³Ø§Ø®Øª ÙĨ
ĠØ§Ø´ Ø®Ø§Øµ
ĠØªØŃ ÙĦÛĮÙĦ
Ġgr owing
ĠÙĤØ· Ø¹Ùĩ
ĠØ¢ Ø±ÛĮ
Ġfor ces
ĠS u
ĠØ¨Ø¯Ùĩ ÛĮØ¯
ĠÚĺØ§ÙĨ ÙĪÛĮÙĩ
b ook
ĠA ng
Ġk iss
ĠØ·Ø¨ ÙĤ
ĠÙĪ Ø§Ø±
Ġh ous
ore s
ØªÙĪØ§ÙĨ ÛĮ
ĠØ´ÛĮ Ø´Ùĩ
ĠØ¨Ø§ÙĦ Ø§Ø®Ø±Ùĩ
Ġfill ed
ound s
ĠÙħØ®Øª ÙĦ
Ġne g
ĠØ§Ø³Øª Ø§Ø¯
ĠØ¬ÙĦÙĪ Ú¯ÛĮØ±ÛĮ
ĠØ¨ Ø§Ø±Ùĩ
ÙĪØ± ÙĨ
ri g
ĠÛ²Û µ
Ġev idence
Ġstruct ure
ÙħÙĨ Ø¸
ck ed
tend ed
à ¤
ĠS te
ĠÙĨØ²Ø¯ÛĮ Ú©ÛĮ
er ation
ĠØ¯Ø§Ø± ÙĪ
Ġ2 4
et er
ĠØ¶ Ø±Ø¨Ùĩ
ĠIn ternet
Ø¨Ø³ÛĮ Ø§Ø±
ĠØ³ Ùħ
Ġch o
ĠØ§ÙĦ Ú¯ÙĪØ±ÛĮØªÙħ
ĠØ§ÙĨØªØ®Ø§Ø¨ Ø§Øª
bec ause
ab or
Ø¨ÙĦ Ú©Ùĩ
Ġcult ure
Ø³ Ú©ÛĮ
Ġf at
Ú©Ø± Ø§Øª
Wh o
ĠØ¯ ÙħÙĪ
Ġgreat er
Ú© ÛĮÙĨ
ĠÙĨ Ø¨Ø§Ø´Ø¯
Ø¨Ø¹ Ø¶ÛĮ
ĠØ¹ ÛĮ
ĠÚ©Ø§Ø± ÙĩØ§
ÙĢ ÙĨ
ĠÙ¾ Ø±ÛĮ
ver t
ĠÙģØ±Ø¯ Ø§
r s
ĠØ§ÛĮÙĨ ÙĩØ§
Ġair port
ĠÙģØ±Ø³Øª Ø§Ø¯
ĠØ§ÙģØª Ø®Ø§Ø±
Ġcertain ly
Ġstru gg
Ġgener ally
Ġlangu ages
Ø§Ø± Ø§
Ġcon v
ax im
Ġsk in
ÙĨÛĮ Ø§
Ġt ask
ĠØ¨ Øª
Ġcons um
ĠÚ¯Ø±Ø¯ Ø´
Ġ200 0
A R
Ġsh ut
Ġtrans l
ĠÙĨØ® Ø³Øª
Ø§Øµ Ø±
z er
Ġh om
ĠØ§ÙĪ Ø§Ø®Ø±
Ġr ain
ĠØ¢ÙħØ¯ ÙĨ
Ġ2 1
ĠÚ© Ø±Ø¨
ĠØ¯Ø± ØŃØ§ÙĦÛĮ
ĠØ§ÙĨØ¯ Ø§Ø®ØªÙĩ
A m
ĠØ³Ø± Ø§ÙĨØ¬Ø§Ùħ
Ġsh ad
ĠØ¢ÙĨ ÙĤØ¯Ø±
ĠØªÙħ Ø±Ú©Ø²
Ġem pt
ĠØ´ Ùģ
ast e
Ġdescri bed
Ú© Ø´Ø¯
as hing
ĠÙħÙĤØ§ÙĪ ÙħØª
ĠØ± Ùħ
ĠØ§Ø³Øª Ø®
ĠØ³Ø± Ø·Ø§ÙĨ
Ġab ility
ple ment
Ġb right
Ġex cl
Ġpr ay
ĠÙģÙĪØª Ø¨Ø§ÙĦ
ĠDav id
ĠØªØ¬ Ø§Ø±Øª
ÙĢ Ø±
Ġfre ed
ĠÙĨÙĪØ´Øª ÙĨ
ĠÙĪ Ø§Ø³
ĠÚ¯Ø±ÙĪ ÙĩÛĮ
Ø® ÛĮØ±
ÛĮÙĨ ÙĪ
ĠÙħØŃ Ø¨Øª
ĠØ§ÙĤÛĮ Ø§ÙĨÙĪØ³
b orn
P er
Ġh uge
ĠÙģØ±Ø¯ ÛĮ
Ø¨ÛĮ Øª
ĠØª Ù¾Ùĩ
ĠØ´ Ú©Ø§Ø±
ÙģØ± Ø³Øª
ĠÛ±Û ¸
ud d
Ġfor got
Ø§Ø· ÛĮ
Ú¯ÛĮØ±ÛĮ Ùħ
Ġev ents
Ġdire ction
Ġcompan ies
Ġgr ad
Ø§ Ú¯Ùĩ
ĠØ¢ Ø³Ø§ÙĨ
p ing
ĠS chool
Ġfo cus
ĠÚ©Ø´ÛĮ Ø´
Ġlear ning
ĠØ¨ ÙĪØ³
Ġs ick
E S
Ġb ird
ĠR oman
ph a
Ġocc up
) :
r ain
ĠS ch
ĠØ¢ Ú¯Ø§Ùĩ
ve re
Ġme asure
ĠÙģØ± Ø¶
ĠÛ±Û¹Û ³Û
bl es
Ġevery body
ĠAr men
Ġsa ve
Ġdesign ed
ĠÙĨØ¯ Ø§Ø¯
ĠØ¨Ø± ÙĨØ¯Ùĩ
Ú¯ÙģØª ÙĨØ¯
Ġst ation
Ġpl ant
ĠØ¹ÙĦØ§ ÙĪÙĩ
end ed
ĠØªØŃÙĤÛĮ ÙĤØ§Øª
Ġde li
Ú©Ø±Ø¯ Ùĩ
Ġpower ful
g ar
ĠÚĨ Ø±
Ġbo ys
w ise
Ġd im
ap ed
ÙĩÙĨ ÙĪØ²
Ġsum mer
ÚĨ Ø§Ø±Ùĩ
ĠÙĪØ±Ø² Ø´
ĠØµ Ø¨Ø±
Ġthere fore
ĠÙħ Ø§Ùħ
use um
ÙĦ Ø±Ø²
z a
Ġbab y
Ġre ach
ÙĪØ³ Ø·
Ġ201 4
Ġsitu ation
ĠØ² Ø§
Ø¯ÛĮ Ùĩ
ĠØ´Ø§Ø® Ùĩ
Ġsupp ose
ĠØ®ÙĪØ§ÙĨ Ø¯Ùĩ
Ġresult s
Ġcent er
Ġunderst ood
Ġfore ign
Ġdel ight
as ons
lect ed
Ġmeet ing
ri ll
Ø±Ø§ ÙģÛĮ
ĠØ± ÙħØ²
Ġcan cer
Ġn ice
Ġr ich
Ø§ÙĪ ØªÛĮ
um an
Ú¯ Ø³
Ġh all
ĠR on
iv ing
ĠØ³ÛĮ Ø§Ø±Ùĩ
Ġt ar
ØªÛĮ Ú©
Ġelect ric
ĠØ® ÙĦ
ĠØ§ÙĨÚ¯ ÛĮØ²
ĠØ¯Ø§Ø¯ Ú¯Ø§Ùĩ
Ùħ Ø±
Ø§ÙĨ Ø¯Ø±
Ġad minist
ĠFe bruary
ĠÚ¯ÛĮ Ø±Ø¯
ĠØ´ ÙĦÙĪ
ĠÙħÙĪÙĤ Ø¹ÛĮ
Ġarri ved
ap ers
Ġ200 4
M ay
Ø±Ø§ Ø³Øª
ĠØªØ§Ø±ÛĮ Ø®ÛĮ
Ġprov ide
ĠØª Ø¹Ø¯Ø§Ø¯ÛĮ
ĠØ´ Ø±Ùħ
ĠÙģØ± Ø²
ĠÙĪ ÛĮØ¯
ĠØªÙĪ Ø²ÛĮ
ĠØ¹Øµ Ø±
ĠÙĨØ§Ø±Ø§ØŃ ØªÛĮ
ĠÚ¯Ø±Ø¯ ÙĨ
ĠØ¢ÙĪØ±Ø¯ ÙĨ
Ġpartic ip
Ø§ÙĨ Ø¯Ùĩ
Ø¦ÛĮ Ùĩ
im ately
ĠØŃ Ø°
ĠÛ²Û°Û±Û ±
ĠÚ¯ÙĨ Ø§Ùĩ
ĠØª Ø¯Ø±ÛĮ
ĠØ¯Ø§Ø´Øª ÛĮÙħ
Ø§ÛĮ Ø³ØªÛĮ
ĠØ¨Ùĩ Ø¯Ø§Ø´Øª
ĠJ ames
ĠÚ©Ø§Øª Ø±ÛĮÙĨ
o o
Ġhard ly
r ons
ĠØ¨Ø± ÙĤØ±Ø§Ø±
ĠØ² Ø±Ø¯
ĠØ¨Ø® ÙĪØ§ÙĨ
ĠØ« Ø§ÙĨÛĮÙĩ
ĠØ®ÙĪØ§ÙĨ Ø¯
ĠØºØ± ÙĤ
ĠØŃØ¯ Ø³
he st
ĠØ¨Ø± Ø¢ÙĪØ±Ø¯
ĠC or
ĠØ¢ÙĪØ±ÛĮ ÙĦ
ÙĦÛĮ Ú©
ÙĪ Ø°
ce ll
ĠØ¨ Ú©ÙĨØ¯
ĠØ¹ Ø¬
Øº Ø±
Ø±Ø§ ØŃØª
Ġfoll ow
oph y
ĠWill iam
ĠÙģÛĮØ²ÛĮ Ú©ÛĮ
Ġ ign
ĠÙ¾Úĺ ÙĪÙĩ
ĠÚ©Ø±Ø¯ ÛĮ
ĠØ¯Ø³Øª Ø±Ø³
ĠÙ¾ Ø±Ø¯Ùĩ
ĠØŃØ§ÙĦ ØªÛĮ
ĠÙħØ±Ø§ Ø³Ùħ
or ing
ĠÙĪØŃ Ø´ÛĮ
ÙĪ Ø³ÛĮ
Ġwor se
Ġhapp ens
Ø°ÛĮ Ø±ÛĮ
Ġg az
Ġdri ve
al ian
ĠØ¨ ÙħØ§ÙĨØ¯
ĠÙħØ¹ÙĨ Ø§ÛĮ
ĠÙĩÙħ Ø³
1 4
e en
Ġf right
ot ed
Ġacc ording
min a
Ġs outh
Ġwh atever
ĠØ´Ø¯ ÛĮÙħ
I N
c raft
ĠÙ¾ Ø¯ÛĮØ¯
Ġcond uct
ÙħØ§ Ø³
Ø±Ø§ÙĦ ÛĮØ§
c ies
Ġform ed
ĠØ¨ ÙĪØ±
Ġbe ar
ĠÙ¾ Ø§Ø±Ùĩ
Ġmar riage
Ġar ran
Ġexper ien
ĠGen eral
Ġbehav ior
h ab
ate g
ĠØ§ØªØŃ Ø§Ø¯ÛĮÙĩ
ÙĤ Ø§Ø¨ÙĦ
Ø® ÙĪØ±
ÛĮØ² ÛĮÚ©
le ction
Ġb attle
ĠÙĩÙħ ÙĪØ§Ø±Ùĩ
h ad
Ġg arden
ÙĤ Ø¨
ĠÙĨ Ø§Ø²
Ġmil es
Ġdo g
ĠÙħØŃ Ø³
ĠØ§ÙĦ Ú©ØªØ±ÛĮ
ĠØ³Ø§ÙĦ ÙĨ
Ġplay ing
Ġdes ire
Ùģ Ø§Ø¹
ĠØŃ ÙģØ§
ĠÛ ·Û
ĠØ¬Ø§ÛĮÚ¯Ø² ÛĮÙĨ
ĠÙħØ°Ùĩ Ø¨ÛĮ
ĠÙħØ¹ØªÙĤ Ø¯
id den
ĠD o
ort hern
ak er
Ġcont ent
ĠØªÙĪØ¬Ùĩ ÛĮ
ĠCan ada
ĠÙĨÛĮØ± ÙĪ
i qu
Ø®ÙĪ Ø´
ĠØ§ÙĦ Ø¹
ĠØªØ£ Ø³ÛĮØ³
c ise
re m
Ġtr ack
Ġrem em
ĠØ§ÛĮØ³Øª Ú¯Ø§Ùĩ
Øº Ùħ
arlet t
Ġcond ition
Ø¨ÛĮ Ø§
ĠØ´Ø± ÙĤ
ĠRe ferences
Øº Ùĩ
Ġtell ing
Ġann ounced
Ġn ames
Ġre ve
alys is
E x
ĠÛ±Û¹Û µÛ
ĠÚ¯Ø±Ø¯ Ø¯
1 6
s u
ĠÙħ Ø¨ÙĦ
ak ed
ĠØŃØ§ÙĦÛĮ Ú©Ùĩ
ĠØ³Ø®ÙĨ Ø±Ø§ÙĨÛĮ
Ġin vent
is c
Ø¦ Ùĩ
ĠÙĨ ÙĪØ²
on se
ĠÙħØ¬ ÙĦÙĩ
ĠØªÙĪØ²ÛĮ Ø¹
Ġim plement
Ġaf tern
Ġmed ical
ĠÙħ Ø§Ø±ØªÛĮÙĨ
ĠÚ¯Ø± Ùĩ
Ġcle an
Ġp an
Ġpos itive
ĠÙģ ÙĪØ±ÛĮÙĩ
Ø²Ø¯ ÙĨØ¯
ar b
ĠÙĦ Øº
out hern
Ġun iverse
Ġthousand s
ĠØŃ Ú©Ùħ
ĠÙħ Ø¨Ùĩ
et t
Ġcour t
Ġrequ ire
Ġlau ghed
ĠÙĤ Ø³Ùħ
Ġatt ract
Ġhapp iness
Ø¨Ø§Ø´ ÙĨØ¯
ÙĪ Ø§Ø±Ø¯
ell a
ĠØ§ÙĨØ¯ ÙĪÙĩ
ĠØŃÛĮØ± Øª
ĠØ¨Ø± ÛĮ
Ġpoint s
ĠØ´Ø§Ùĩ Ø¯
ĠØŃ Ú©
Ġbu y
Ġs ad
ĠØ¯ÙĦ Ùħ
Ġaut om
ĠÚ©Ùħ Ù¾
ĠÙĨ Úĺ
Ġc ustom
ĠUn ion
Ġc ities
Ġabs olute
ĠÙħØ®Ø§ÙĦ Ùģ
Ø¬ÛĮ ØŃ
ĠØ¨ ÙģÙĩÙħ
ic o
ĠØ² ÙĪØ¯ÛĮ
r ated
Ġl oss
ĠØ±ÙĪ ØŃÛĮ
ØªÙĪØ§ÙĨØ³Øª ÙĨØ¯
Ø±ÙģØª ÙĨØ¯
ĠØ¯Ø± ÙĩÙħ
ĠE gypt
ĠØ¯Ø³Øª Ùħ
ag ing
ers on
ĠØ²ÙĨØ¯ Ø§ÙĨÛĮ
ĠÙħØ§ÙĨ Ø¹
Ġrequ ired
ĠGeor ge
j ust
ĠØ¯Ø±Ø®Øª Ø§ÙĨ
i pped
ĠÙĪØ§ ÚĺÙĩ
Ø´ÙĨ Ø§Ø®Øª
Ġrem ain
Ġdec ision
ĠØ§ØµØ· ÙĦØ§ØŃ
N e
Ġth ick
ĠÚ©ÙĨ Ø¬
Ġaw are
Ġsor ry
ĠÙħØ´ ÙĩÙĪØ±
Ġfa ith
ĠÙĤ Ø¶
Ġcl oud
Ġreal ity
ĠØª Ú©ÛĮÙĩ
h ib
Ġs ite
Ġno vel
ĠØ¨Ø§Ø± Ø§ÙĨ
Ġco ver
ĠÙĨÙģØ± Øª
Ġplan et
ĠØµÙĨ Ø¹Øª
ĠØ´ÙĨØ§Ø³ Ø§ÛĮÛĮ
Ġc itiz
Ġm ix
Ġle aving
ĠØªÙĨ Ø¸ÛĮÙħ
Ġexp ress
Ġlist en
A C
Ð ¾
Ġco vered
l s
ĠÚĨ ÙĨÚ¯
ĠÛ²Û°Û±Û ²
, '
ØŃ ÙĤ
ĠØ¯ÙĪ ÙħÛĮÙĨ
ĠÙħØ¯Ø± ÙĨ
ĠØªÙħØ§ Ø³
ĠØ´ÙĪÙĩØ± Ø´
ĠØªØ±Ø¯ ÛĮØ¯
c os
ĠÙ¾ÛĮØ± ÙĪØ²ÛĮ
ĠØªÙĨ ÙĩØ§ÛĮÛĮ
Ġbo ard
Ø§ÙĨ Ø§
ĠØ§Ø³ Ø±Ø§Ø¦
ĠÙĤØ± Ø§Ø±Ø¯
ĠIn stit
i ber
ĠB el
ĠD ep
Ġst age
Ġpl aced
ĠØ³ÙĪ Ø®Øª
Ġlead ers
Ġcir cum
Ġeas ily
ĠØ¯Ø´ ÙĪØ§Ø±
an cing
Ġwalk ing
ĠØ¢Ø¯ ÙħÛĮ
ce nd
Ġv an
ĠØ³ Ø§ÛĮØª
ĠØ§ÙĪ Ø§ÛĮÙĦ
Ġserv ices
ĠÙħ Ø£Ùħ
Ġsm iled
il ies
Ġser ved
ĠS ir
Ġ200 3
ĠØ´ ØºÙĦ
ĠB ab
ĠØ¢ ÛĮØ¯
om y
ĠØª Ú¯Ø²
ĠØ§Ùģ Ø³Ø±
ĠÚĺÙĪ Ø¦ÛĮÙĩ
l or
ĠØ¬ Ø§Ø¯ÙĪ
ĠÙĤ ØªÙĦ
ĠØ§ÙĪ ÙĦÛĮ
Ġqu ant
Ġincre ase
Ġt ro
ĠØ¢ ÙħÛĮØ²
al t
ĠÙħØ· ÙĦØ¨
Ø§ÙģØª Ø§Ø¯
ĠØ§Ø®ÙĦØ§ ÙĤÛĮ
ØŃ Ùħ
Ġus ual
ĠI van
ol a
Ġme as
ra q
ffic ient
Ġp age
ÙĢ Ø¯
Ùħ Ø±Ú©Ø²
ĠÚĨØ±Ø§ Øº
S omet
Ġl ack
ist ics
ĠH ouse
ĠØ¨Ø²Ø±Ú¯ ØªØ±
Ġlet ters
ĠÙģØ±ÙĩÙĨÚ¯ ÛĮ
ĠIS BN
ĠØ± ÛĮØ²
ĠØ§Ùħ Ù¾Ø±Ø§Øª
Ġdet ect
ĠØ§ØŃØªÛĮ Ø§Ø¬
a el
ĠÙģ ÙĨ
ĠD em
ĠÚĨ Ú©
Ø¨Ø± Ú¯
ĠÙ¾Ø± ÚĨ
Ġpres ence
ĠÛ ¹Û
ĠØ¯ ÙĦÛĮ
p ir
ÛĮ ÛĮØ¯
ĠØ¬ Ø±Ùħ
Ġst re
Ġr ange
kn own
Ġth in
ĠÚ¯ÙģØª ÙĨØ¯
ĠÙĨ ÙģØª
Ġgrow th
am s
Ġsh own
ĠØªØµ Ø§ÙĪÛĮ
ĠChar les
Ġh ung
Ġh arm
1 7
P e
ĠØ§Ø¹Øª ÙĤØ§Ø¯
g u
ĠÙĨØ¯Ø§Ø´Øª ÙĨØ¯
Ġcent ral
b ack
Ġtyp es
Ġestabl ished
E C
ĠTh at
ĠPa ul
Ø¨ÛĮ Ø´ØªØ±
Ġfor ced
ĠÙħÙĨØª ÙĤÙĦ
Ø±Ø§ ØŃ
o ch
Ġour selves
in c
ĠÙĪØ§Ø¨ Ø³ØªÙĩ
Ġunderstand ing
ĠÙĤØ¯ Ø±ÛĮ
ĠÙĨ Ø§Ø¯
ĠEx ternal
Ġwatch ing
Ø¢ Ø±
Ġinterest ed
ĠØªÚ¯Ø² Ø§Ø³
ĠÙ¾ ÛĮÙħ
ĠÚ¯Ø° Ø§Ø±ÛĮ
ÙĨØ¯ Ø§Ø´Øª
ĠØ³ ÙĪÙĨ
Ġst one
Ġv irt
ĠâĪ Ĵ
Ġrap id
Ġstru ck
Ġm arry
Ù¾ Ø±Ø§
Ø§Ø² ÙĨØ¯
os es
Ġf resh
ĠV ol
Ġadd ition
On ly
Ġchem ical
Ġwat ched
Ġp sych
Ġcont ribut
Ġindust ry
ac hing
ÙĪÙĦ Øª
ĠÛµ Û
Ġform s
in ated
ĠH ow
Ġn ucle
Ġfix ed
Al though
ĠØ® Ø¯Ø§ÙĪÙĨØ¯
ok ed
ĠØŃÛĮ Ø§Øª
ĠØ§ÛĮ ÙĪØ§ÙĨ
Ġus es
A b
c ad
ri al
ĠÙħØ¹Ùħ Ø§Ø±ÛĮ
ĠØ² ÙĨØ¬
ĠØ§Ø±Øª ÙģØ§Ø¹
ĠØ¯Ùģ Ø¹Ùĩ
O S
ĠØ¨ Ø§Ùħ
ĠØª Ø§ÙĦ
ĠÙĦ Ø§ÛĮ
ist ance
ĠÚ©ÙĪØ¯ Ú©ÛĮ
Ġ201 5
Ġfin ished
Ġbe g
Ġsh op
ĠØ¯Ø± ÙħÛĮ
ĠÚ©Ø§Ø± Øª
Ø§ÙĦÛĮ Ø§ÛĮÛĮ
Ġrel ated
ĠØ±Ùĩ Ø¨Ø±ÛĮ
Ø§ ÙĩØ§ÛĮ
Ø´ ÙĩØ±
Ġn one
ĠÚ©ØªØ§Ø¨ Ø®Ø§ÙĨÙĩ
ĠG ree
ĠØªØ£ ÛĮÛĮØ¯
Ġprodu ce
ĠØ¨ Ú©ÙĨÙħ
ing u
il s
all ed
ĠÚ¯Ø± Ø³
ant a
Y our
ĠC lyde
Ġhum ans
Ġinvol ved
Ġf ro
ĠØ§Ø³Øª Ø±Ø§ÙĦÛĮØ§
od d
Ġorgan ization
ĠÙħØ±Øª Ø¨
an cial
Ø¬ ÙĪØ§ÙĨ
Ġli e
ĠL a
ĠW in
Ġte nd
Ġser ious
ĠÙĨÙģ ÙĪØ°
ĠÙĨØ§Ù¾ Ø¯ÛĮØ¯
Ù¾ ÙĪ
ĠÙ¾Ø± Ø³Øª
ĠÙ¾ÙĪØ´ Ø´
I V
ĠØªØ± Ø§ÙĨÙĩ
Ø®Øµ Øµ
ĠÙĤØ¨ ÙĦÛĮ
Ġbes ide
Ġf aces
ĠØ±ÙĪ ÙĨØ¯
ĠÙĨØª Ø§ÛĮØ¬
in i
ĠØ¢ ÙĩÙĨ
ri an
Ġpat tern
Ġfav or
Ġ iron
ĠÙĨ Ø±
Ġple ase
Ġri ver
Ġnorm al
l ier
ĠÙĪ Ø¬Ùĩ
ĠØ±ÙĪ ÛĮØ¯
ĠØ¬Ø¹ Ø¨Ùĩ
ĠØ§Ø±Ø¨ Ø§Ø¨
A N
Ġbene f
Ġm aint
ĠÙĤ Ø§
ĠØ¨Ø¯ ØªØ±
ĠK h
µ Û°
Ġcond itions
ĠØ¨Ø¯ Ùħ
ĠInd ian
Ġget s
Ġreg ular
y ear
ĠØ³ Ø§ÛĮ
ĠÂ ·
ĠÙħØ¬ Ø§Ø²
ĠØ¨ ÙĨØ¯ÛĮ
Ø¯Ø§ÙĨØ³Øª Ùħ
ĠØ¸Ø§Ùĩ Ø±Ø§
Ġleg s
ĠRe g
ĠFran k
C an
ran k
i j
Ġse qu
Ġinflu ence
Ġterri ble
ĠØ¨ ÙĦØ§ÙģØ§ØµÙĦÙĩ
Ġclot hes
ed ia
Ġp aid
Ġsh ot
ĠÛ±Û ¶
ĠÛ±Û¹Û ±Û
Ġbro ke
Ġopport unity
ĠØ³ ÙĤ
Ġn ine
te xt
Ġaftern oon
ÙĪØ´ ÛĮ
ĠØµÙĪØ±Øª Ø´
A h
ĠØ®Ø± Ø¬
f ess
Ġd ut
ĠÛ±Û ±
ĠÙħØ« Ø¨Øª
ÙħØ±Ø¯ Ùħ
Ġswe et
ĠÚ©ÛĮÙĦÙĪÙħ ØªØ±
Ġj our
Ġreal ized
o ff
Ġh un
ĠØ¬ ÛĮÙĨ
Ġne ck
ĠÙĩÙħØ³Ø± Ø´
L e
ĠØ±ÙĪØ² ÙĩØ§ÛĮ
ors es
ĠØ±ÛĮ Ø®Øª
Ø± Ø¶
Ġl ines
ĠÛµ Û°
ĠØ³ Ø±ÙĪ
pp ing
ĠØ¨Ø² ÙĨÙħ
Ġw it
or g
ĠØ®ÙĪØ¯ Ø±ÙĪ
Ġnot ice
ĠÚ©Ø§Ø± Ø´
Ġconf lict
n ight
ĠP ri
ÙĪØ±ÛĮ Øª
r ate
Ġf irm
Ú©Ø§Ø± Ø§ÙĨ
Ġgentle man
Ø§Ø¯Ø« Ùĩ
ĠÙħØªØŃ Ø¯
Ġlead ing
Ġbott om
Ø± ÙĤ
ĠØ± Ø¯ÛĮ
ĠÚ¯ ÙĪÙĨØ§
w ood
IS BN
a it
ĠJapan ese
g round
a ign
ĠÙħ Ø§Ø³
ĠC ast
ĠP ort
Ġch ief
Ġte eth
ĠPr ince
Ø´ Ø§
Ġnot e
ĠÙĨØ¸Ø± Ùħ
ĠÙħ Ø§Øª
ĠØª Ø¶
Ġp ale
ol es
if orn
Ġspe ech
Ġsur round
ĠÙħØ³Ø¦ ÙĪÙĦ
ul f
ines e
Ġimpro ve
Ġo bl
ĠÚĨØ´ÙħØ§ÙĨ Ø´
ĠN or
ĠØ´Ú© Ø³ØªÙĩ
Ġa verage
Ġfo ol
Ġappro ach
ĠØ¨ÛĮ Ø§
is ions
Ø§ÙĪ Ùĩ
ĠÛĮØ§ÙģØª ÙĨ
Ġwall s
f l
ĠI m
gg ed
ĠÙħÙĦ ÙĦ
ĠØºØ° Ø§ÛĮÛĮ
Ġanim al
Ġthrough out
ĠØ§ØªÙĪÙħ Ø¨ÛĮÙĦ
ĠØ®Ø§Ú© Ø³ØªØ±ÛĮ
ĠØŃØ° Ùģ
ro ad
Ġne ither
Ġv ir
ĠÙħÙĦ Øª
ÙĨ ÙħØ§ÛĮ
Ú© Ø§ÙĦ
Ø±Ø¯ ÛĮ
ĠØ¢Ø´ Ù¾Ø²
ĠØ®ÙĪØ§Ø³Øª Ùĩ
uf act
ve y
pp er
ĠØ¯Ø§Ø¯ ÛĮÙħ
ĠÙĨØ¨ÙĪØ¯ Ùĩ
E T
ĠÚ¯ Ø§Ùħ
Ġsp ot
ĠÙħØµ ÙĨÙĪØ¹ÛĮ
Ú©Ø±Ø¯ ÛĮÙħ
Ġhold ing
Ġdraw ing
ĠØ¹ÙĦ Ø§ÙħØª
ĠØ¹ÙĤ ÙĦ
Ġfreed om
ĠÙĨØ¸Ø± Ø´
ĠRuss ia
ĠÚ¯ Ø´ÙĪØ¯
The ir
Øº ÙĨ
s hip
Ġtr ain
P r
gh an
Ùģ Ø´
Ġd rew
ĠØ§ÙĪ Øª
Ø®ÙĪ Ø§Ùħ
Ġch urch
Ġ2 2
Ġ2 3
Ġint e
ash ion
ĠÙħØ§Ø¬ Ø±Ø§
Ġempt y
Ùģ ÛĮÙĦ
ĠÙħØª ØµÙĦ
ĠØ´ÙĨ Ø§Ø®Øª
Ø¨ Ø³
Ch rist
Ø±ÛĮ Ø²ÛĮ
Ġinst it
ĠØ³ÙĦ Ø·
¹ Û°
Ġb od
ĠÙģ ÛĮØ²ÛĮÚ©
ĠAr ch
ÙĦ Ø§Øª
Ø´ ÛĮØ±
Ġdis appe
ĠÙģØ¶ Ø§ÛĮÛĮ
Ġrepe ated
Ġstud ies
Ġexpl ain
ĠÙģ ÙĪØ±Ø§
Ġp un
Ġmat hemat
Ġfing ers
C ome
ĠØ§ Ø®ØªØ±
un ities
ĠØ¨Ø¹Ø¯ Ø§
Ġent er
Ġadv ant
Ø¯ Ø§Ùģ
Ù¾ Ø§ÛĮÛĮ
ĠØ® Ø´ÙĨ
ĠChrist ian
Ø¨Ø³ÛĮ Ø§Ø±ÛĮ
ic les
ĠB o
ĠF il
at in
ce an
Ġlar ger
Ġmess age
Ġst ars
ĠÙ¾ÛĮ ÙĪØ³Øª
Ø§Ø´ Ø§
ĠO n
ĠØªØ± Ø¬ÛĮØŃ
Ġs ac
ag on
h old
Ġc ru
ĠP ark
ag o
ĠÚĺÙĨ Ø±Ø§ÙĦ
Ġtar get
Ø³ ÙĨ
ĠØ¯ÛĮØ¯ Ø§Ø±
ĠÙĨÚ¯Ùĩ Ø¯Ø§Ø±ÛĮ
ĠÚ© Ø§ÙĦÛĮ
ĠÙĨØ¸ Ø§Ùħ
ĠÙ¾ Ø§ÛĮØ¯
ĠI raq
ĠØ§Ùħ ØªØŃ
Ø§Ùģ Ø¹
ÙĨÙħ Ø§ÛĮÛĮ
Ġreport ed
ĠÙħÙĨ ÙĪ
us ing
Ġsh ape
ĠÛ±Û ´
ĠØ¢Ø± Ø§ÙħÛĮ
ĠÚ¯ Ø²
Ġcon ce
Ġmult ip
ĠØ³Ø±Ø§ Øº
Ġpract ice
ĠØ¨ Ø¨Ø±Ø¯
Ø² ÙħØ§ÙĨÛĮ
Ġf le
Ġbe ll
ĠÚ© ÙĢÙĩ
ĠJ ean
m ore
Ġbeaut y
ĠØ¨ ÙĪÙħÛĮ
ĠÙħ Ø¹Ø¯
ĠØ¯ Ø§
Ġbl ind
G o
O ther
ĠØ± Ø¶
ĠC oun
ail ed
ĠM ich
ĠØµØŃ ÛĮ
u ous
ĠØ¬ÙĨ Ø¨Ùĩ
Ġpress ure
Ġopin ion
Ġfore st
Ġresp onse
ĠB ill
ĠâĢ ľ
ĠØ´Ø¹ Ø±
ĠØ±Ø§ Ø²
Ġli ked
Ġfam ilies
h ouse
Ð ¸
se c
ĠØ³Ø± Ùħ
Ġrelig ious
Ġin qu
ĠØ±Ø§ Ø¶ÛĮ
ĠØ¹ Ø°
Ġend ed
ĠØ¢ÙħØ¯ ÙĨØ¯
ĠÙģ Ø¯Ø±
Ġbo at
ĠÛ²Û°Û°Û ¸
ĠÙĤÙĩØ± ÙħØ§ÙĨ
D e
c ast
ĠØ§ ÛĮØ¯
Ġh orses
ĠØ§ÙĦ Ùģ
ĠÛ²Û°Û°Û ¹
on el
ĠÙģØ±ÙħØ§ÙĨ Ø¯Ùĩ
Ġb al
ĠØŃ ÙĪØ²Ùĩ
ĠØ¨ÛĮ ÙģØª
os ite
19 8
Ġm ir
Ø® ÙĨØ¯ÛĮ
ÙĢ Ø§
Ġvar i
ĠÙĨ ÙĪØ±ÛĮ
ÛĮØ³Øª ÛĮ
Ġ19 0
Ġmo le
ĠØ§Ø¶ Ø·Ø±
iforn ia
ot es
ant ic
Ġdest roy
Ġpass ion
ĠL F
ĠSp anish
ĠØ® Ø§ÙĦ
ÙĦÙĪ Øª
Ġsm ell
Ġtr ade
ĠÙĩØ²Ø§Ø± Ø§ÙĨ
T wo
ÛĮ Ø§Ø¨Ø¯
ĠØ§Ø¯ Ø¨ÛĮ
ĠÙĨØ¯Ø§Ø´Øª Ùħ
Ġincre ased
Ġinclud ed
Ú©Ø± Ùĩ
ÙĢ ÛĮ
ĠÙĨÚ¯Ø±ÛĮ Ø³Øª
ĠØ³ ÛĮÙĦ
Ġrel ative
ĠØ³ ØªÙĪÙĨ
Ø§Ú¯Ø± Ø§ÙĨ
ĠØ´Ùħ Ø§Ø±
Ùħ Ù¾
Ú© ÙħÛĮ
Ġc red
Ġli ber
ĠÙĪÛĮ Ú©ÛĮ
ĠØªØ´ ÙĪÛĮÙĤ
Ġactiv ity
ac ing
Ġask ing
ĠÚ©Ø´ÛĮØ¯ ÙĨ
ĠÙ¾Ø§ÛĮ Ú¯Ø§Ùĩ
Ġca used
ĠØ§ÙĪ Ø³Øª
oll y
ĠÙĬ Ùĥ
Ġl uck
Ġgr aph
ĠØªÙĪØ§ÙĨ ÛĮÙħ
ĠØ´Ú© ÙĦÛĮ
Ġperform ance
Ġtele vision
Ġact ive
Ġlab or
ĠÙģØ±Ø³Øª Ø§Ø¯Ùĩ
ĠÙģ Ú©Ø±ÛĮ
ĠØ¬Ø³Øª Ø¬ÙĪ
k ay
m ione
ĠØ¨Ø± ÙĪÛĮÙħ
Ġ( )
ĠC r
ound ed
ĠØ¯ÛĮØ¯ Ú¯Ø§Ùĩ
Ġle an
Ġmed ic
Ġtreat ment
ĠØ¯ Ø§ÛĮ
ĠÛĮ ÙĪ
ĠØŃ Ø¯ÛĮ
Ġcom mer
z en
ĠØ® ÙĦØ§Ùģ
ĠØ§Ùģ ØºØ§ÙĨ
ĠØ§Ø³Øª Ø®ÙĪØ§ÙĨ
ĠØŃ Ø§Ø¯Ø«Ùĩ
Ġnot iced
p ro
ĠØ¬ ÙģØª
ĠØ±Ø§ Ø³ØªÛĮ
Ø´Ø§ÙĨ Ø¯
Ġpl ain
iz ations
ĠØŃÙģØ§ Ø¸Øª
Ġcon sequ
B C
is ters
I D
M S
Ġ" (
pe red
Ġgiv es
Ġsy mb
Ġob v
ĠÙ¾ÛĮØ± ÙħØ±Ø¯
ĠØ¨Ú¯ÛĮØ± ÛĮØ¯
A re
¸ Û°
Ġ ï
Ùģ ÙĩØ±Ø³Øª
at ives
Ġon line
Ġyou th
Ġsh ows
ĠJ ack
ĠØ¨Ø±Ø¬ Ø³ØªÙĩ
and a
ĠÙĦ Ø§ÛĮÙĩ
ĠL ist
ĠÙħÙĩØ± Ø¨Ø§ÙĨ
ĠÙħØŃØµÙĪÙĦ Ø§Øª
D id
ĠØ§ Ø±Ø³
ĠØ¯Ø± Ùĩ
Ġst ick
Ġr id
ĠT ED
ĠIt alian
ĠAfric an
ĠØ¯ÙĪÙĨ Ùħ
Ġtou ch
ĠØ¨Ú¯Ø° Ø§Ø±Ø¯
Ġr are
ian o
Ġcl im
y r
Ġ ^
ĠG lo
Ġfe ed
ĠÙħÙĩ Ø§Ø±Øª
ĠTh is
ĠIt aly
ĠØ§Ø·ÙĦØ§Ø¹ Ø§ØªÛĮ
ĠØ¯Ø± Ú¯ÛĮØ±
Ġwe ight
Ġch oice
ĠØ¹ Ø±Ø¨
ĠØ¯ÙĪØ³Øª ÛĮ
ĠÙħØµ Ø±
Ġre n
Ġ200 2
Ġthe r
ĠÙĨÙĤ Ø§Ø·
ĠÚĨÙĩØ§Ø± Ùħ
or row
Ġl aid
ĠÚ©ÙĨ Øª
7 8
y m
Ù¾ Ø±Ø³ÛĮØ¯
ĠÙĥ ÙĨ
ĠØ±ÙĤ Ø§Ø¨Øª
ĠØ±Ø§ÛĮ Ø§ÙĨÙĩ
ĠÙĪ Ø²ÛĮØ±
it able
Ġf it
Ġf arm
Ø¹ ÙĦ
ÙģØ± Ø§ÙĨ
Øº Ø°
st e
C l
ĠØ³ÙĪ Ø¦
i ot
Ġh ang
ĠÚĨ Ø§ÙĤ
ĠØ®ÙĪØ§Ùĩ Ø´
Ġb ran
ĠØ¯Ø³Øª Ú¯ÛĮØ±
Ġt one
ĠØ¹Ø¬ÛĮ Ø¨ÛĮ
Ġalgorith m
ĠØ§ÙĦÚ©ØªØ±ÛĮ Ú©ÛĮ
Ø· Ø¨
ĠØ² ÙĪØ±
ĠÛ±Û ³
Ø¯ ÛĮØ¯Ùĩ
el es
ĠØ®ÙĪØ§Ùĩ ÛĮ
ĠØ±ÛĮ Ø§Ø³Øª
Ġsuccess ful
Ġbe at
ĠK ore
Ġpr int
Ġremem bered
ĠÙĩ Ø§Ø±
ran ce
ĠÙħØ®ØªÙĦ ÙģÛĮ
ĠÙĨØ§Ø´ ÙĨ
ĠÙĨÙħ ÙĪØ¯Ùĩ
Ã³ n
ĠTh om
Ġt all
ĠÚ©ÙĨ ÙĨ
Ø¨Ø± ØªØ§
ĠØ§Ùħ ØªÛĮ
Ġold er
ĠØªÙĪÙĦ Ø¯
ĠB ook
ĠÙģÙĩÙħ ÛĮØ¯
ĠSy stem
Ġj ournal
Ġass um
Ġman ufact
u nder
ol ved
rou d
ĠÙħØª ÙĪØ³Ø·
ĠÙ¾Ø§Ø¯ Ø´Ø§Ùĩ
Ġscient ific
Ġobser ved
ĠAustral ia
Ġturn s
aim ed
ÙĨ Ø®
Ġman agement
ĠØ§ÙĪÙĨ Ø¬Ø§
· Û°
ÙĪ Ø¦
Ġan cient
ĠØŃØ±Ùģ ÛĮ
P ro
Ġsy nt
ĠØ§Ø®ØªØµ Ø§Øµ
ĠØ¨Ø¹Ø¯ ÙĩØ§
Ġsupp osed
Ùħ Ú¯Ø±
ĠÚ¯ ÙĪØ±
Ġal ive
ĠØ¯Ø±ÛĮØ§ ÚĨÙĩ
Ø¯ Ú©ØªØ±
he red
ĠØ± ÙħØ§ÙĨ
: :
ĠS pe
ĠØ¬ÛĮ Ø¨
on ia
ar ian
Ġpro gress
Ġt ax
ĠÙĪ Ø²
Ù¾ Ø¯ÛĮ
ĠØ¨ÛĮ ÙĨØ¯
Ġr ule
Ġk it
Ġcare er
y e
ĠØªÙĪ ÙĤÙģ
ĠD ist
ĠW estern
ĠQ ue
ĠâĢ ı
Ġlo se
ĠÙħØ« ÙĦØ§
ĠØªÙĪØ§ÙĨ ÛĮØ¯
ĠÙĦÙĩ Ø³ØªØ§ÙĨ
ĠCal ifornia
ĠØ¨ ÙĪÙĦ
ĠØ¢ÙĨ Ø§
Ġar rest
ĠØ¸ ÙĩØ±
Ġequ al
ĠÙĨ Ú¯
ĠÚĨ Ø§ÙĦØ´
ĠS ov
Ġte a
ĠÙĨÙĤ Ø±Ùĩ
ĠØ¨Ø±Ø¯ ÙĨ
Ġhous es
O ur
Ġl ying
Ø¬ ÛĮØª
Ø±ÙĪ Ø²ÛĮ
Ġinclud es
ĠÙħØŃ Ø¯
c ow
Ġha ven
Ġex ch
Ġknow ing
Ø¢Ùħ ÙĪØ²
l a
Ġ ÙĨØ¯Ùĩ
ber g
Ġoff er
ĠØ±Ø³ÛĮØ¯ ÙĨØ¯
ĠSov iet
b urg
ĠØ¯ Ø®
ĠØ¹ Ø¯Ùĩ
ĠÙĦØŃ ÙĨÛĮ
ĠÚ©Ø±Ø¨ ÙĨ
ĠÙħÙĨ ÙģÛĮ
Ġimp act
Ġjour ney
ĠØ¯ Ø§ÙĪ
ĠØ§Øª Ùħ
ĠØ¹ Ø±Ø§ÙĤ
ĠR ed
ĠÙĤØ± Ø¨Ø§ÙĨÛĮ
Ġpres ident
ĠØ³ÙĪØ± Ø§Ø®
Ġpock et
ĠÙĨ ÙĩØ§ÛĮÛĮ
Ø§ÛĮÙĨ Ø¬Ø§
ÙĤÛĮ Ø¨
Ġwant s
s p
ĠØ¬ ÙĪÙĨ
ĠM at
Ġblo ck
Ġevent ually
Ø§Ø¨ Ø±ÛĮ
Ġspe ct
ash a
ĠØ§ ÛĮØ²
ĠH en
ĠØª ÙħØ§ÛĮÙĦ
ĠØ¢ Ù¾
ĠÙĩ ÙĦ
Ġst ock
ul s
Ġint elligence
ĠØ´ÙĪØ± ÙĪÛĮ
Ġw and
Ġli br
ĠØªØ± Ø¬ÙħÙĩ
ĠØªÙħ Ø±ÛĮÙĨ
Ø³ ÙĪØ±
al ing
Ú©ÛĮ Øª
ra wn
ĠØ¨Ú¯ÛĮØ± ÙĨØ¯
Ġpot ential
ĠØ¨Ø§ Ø¨Ø§
Ġg all
Ġme l
ĠÚ©Ø´ÙĪØ± ÙĩØ§
ĠØ¹Ø±Ø¶ Ùĩ
Ġc ard
Ø¬ ÛĮÙĨ
ĠØ¨Ø¨ÛĮÙĨ ÛĮÙħ
e al
Ġc atch
Ġse at
ear ch
Ġdes ert
Ġre asons
c lock
Ġl oud
ip s
ĠÙĤØ§Ø¨ ÙĦÛĮØª
ĠÚĨ Ø§ÛĮ
as y
ĠC ong
ĠØªØ§Ø¨ Ø³ØªØ§ÙĨ
ĠØ¶ Ø±Ø¨
ĠØ¨Ú© Ø´Ø¯
Ġ200 1
cri pt
ĠØ§Ø³ÙĦ Ø§ÙħÛĮ
Ġo x
Ġb are
ĠN at
Ġang ry
ĠÙĨØ§Ø¨ ÙĪØ¯
Ġsurpr ise
ĠØ´ Ø§Ø±
ĠÙħÙĪ Ø²Ùĩ
Ġsome body
ĠØ³ÙĨ ØªÛĮ
Ġdocum ent
T r
ĠÙħ ÙĦØ§ØŃ
Ø² ÛĮÚ©
Ġintrodu ced
Ġfeat ures
um bled
Ġ2 7
ÙĨØ¬ ÛĮ
ĠÙ¾Ø± ÙĪØ±Ø´
p ic
Ġh it
Ġe ast
ÙĨØ§ Ú©ÛĮ
Ġocc asion
ri f
ĠØ§Ø¯ Ø¹Ø§
ĠØ¢ÙĨØ¯ Ø±Ùĩ
Ġdeg ree
ĠÙħØŃØ§Ø³ Ø¨Ùĩ
Ġfor th
ĠR os
ĠCh inese
Ø¢Ùħ Ø¯Ùĩ
en ge
Ġf ashion
ĠÙ¾ ÙĦØ§
Ġhosp ital
ĠØªÙĦÙĪÛĮØ²ÛĮ ÙĪÙĨ
ĠÙħØŃØ³ ÙĪØ¨
ĠØ¨ ØªÙĪØ§ÙĨÙĨØ¯
ĠÙĨ Ú©ÙĨØ¯
Ġf al
ĠØ¢ Ø²Ø§Ø±
o ved
Ġa im
Ġb ase
Ġcircum st
Ġp ark
ĠØ® Ø¨Ø±ÛĮ
pect ed
ĠÙģØ±Ø² ÙĨØ¯Ø§ÙĨ
Ġr ing
ĠÙĨØ¨ÙĪØ¯ ÙĨØ¯
Ġfeel ings
Ġproper ty
ĠØµØŃÛĮ ØŃ
Ú© ÛĮØ¯
ol ic
ĠÙ¾ÙĨØ¬ Ø§Ùĩ
Ġ8 0
v olution
ĠØ¨Ø§ ÙģØª
Ġ6 0
Ġhur t
el ess
Ø´ ÙĪÙħ
ĠÛ ¸Û
Ġv ac
ĠT rans
ÙĪÙħ Ùĩ
Ùģ ÛĮÙĦÛĮÙ¾
Ġgu ard
ĠÙ¾Ø±Øª Ø§Ø¨
ĠÙħØ¤ Ø³
I T
ĠØ´ ÙĪÛĮÙħ
Ġsp ite
Ø§Ø´Øª Ùĩ
Ø®ÙĪ Ø±Ø¯Ùĩ
ĠÙħØŃ Ú©ÙĪÙħ
Ġappear ance
ĠInstit ute
I C
Ú© Ø¯Ø§Ùħ
ac ity
Ø§ØŃ Ø³Ø§Ø³
Ġear lier
Ġsu c
ĠSw ed
ĠØªØµØ§ÙĪÛĮ Ø±
ĠÚ© ÙĪØ´
ĠÚ¯ ÛĮØª
Ġ199 0
ĠÙħÙĩØ§ Ø¬
u h
at ab
ĠØ® Ø§Ø·
ĠS aint
Mr s
Ġsold iers
ĠÙĨØ§Ùĩ Ø§Ø±
ou red
ĠÚĨ Ø³Ø¨
ĠØ¯Ø®ØªØ± Ø§ÙĨ
Ġw ished
Ġb ag
ĠØ§ÛĮÙĨ Ú©
Ġr ise
ĠØ´ÙĪ ÛĮØ¯
ĠPol and
ĠØ¨Ø¯Ùĩ ÙĨØ¯
ili ar
t ime
Ø¯ Ø§ÛĮÛĮ
Ġsh ock
ĠØªØ£ ÙħÛĮÙĨ
Ġhelp ed
Ġcl os
ens ion
Ġviol ence
L ook
ĠD or
ĠØªØ³ ÙĦÛĮÙħ
ĠØŃØ§Ø¶ Ø±ÛĮÙĨ
Ġentire ly
rou p
Ø±ÛĮ Ø´
Ø§Ùģ Ø²
ĠÛ²Û°Û±Û ³
Ġeconom y
yd ro
ĠÙħÙĩÙĨØ¯ Ø³ÛĮ
M ore
Ù¾ Ø±ÙĪ
ĠØ®Ø·Ø± ÙĨØ§Ú©
Øµ Ø§Ø¨
Ġpr ice
ĠÙ¾ Ø²
Ġassoci ated
ĠØ§ØŃ Ø³
Ġest im
Ġsignific ant
it he
ĠÚ¯ Ø§ÙĪ
ÙħØ¹ Ùħ
ÙĪØ§ÙĤ Ø¹Ø§
Ġgo al
Ġsol ution
Ø¨Ø¯ ÙĪÙĨ
Ġpolic y
ĠØ§Ø³Ø±Ø§Ø¦ ÛĮÙĦ
Ú¯Ø° Ø§Ø±Ø¯
ĠÙĪØ³ Ø§ÛĮÙĦ
ĠÙħØ§Ø±ÛĮ Ø§
Ġf ish
ĠÚ©Ø§Ø± Ø®Ø§ÙĨÙĩ
ok en
ĠWh ite
le br
Ġst ore
ĠÙħÙħÚ©ÙĨ Ùĩ
Ġele ments
ĠØ¹Ø¬ ÙĦÙĩ
I nd
ĠP ers
ĠÙ¾ ÙĪÙĦÛĮ
ĠÙĦ Ø¨Ùĩ
ĠØ¯ÛĮ Ø¬ÛĮØª
ĠØ¨Ø§Ø´ Ú¯Ø§Ùĩ
ĠØ¬Ø§ÙĨ Ø¨
ign ed
ĠAf ghan
Ġsuc ceed
E ach
Ġse ason
ĠÙħØŃ Øª
Ġresour ces
ĠØ§ÙħØªØŃ Ø§ÙĨ
t te
Ø§Ø³ Ùģ
Ø²Ø§Ø± Øª
Ġiss ue
c a
ĠÙĩ Ø¬
Ġd ry
ter ing
Ġfam ous
Ġinter p
f fe
Ø· Ø±Ùģ
ĠR o
ĠØ¨Ù¾ Ø±Ø¯
Ø¹ ÙĦØ§ÙĪÙĩ
Ġr u
ĠÙħØ®ØµÙĪØµ Ø§
Ġbecom es
3 0
ĠT V
ĠÙħØ±Ø¯ ÙħÛĮ
Ġiss ues
Ġyell ow
I P
Ø¯ Ø§Ø±Ø¯
ĠÙĪ Ø²ÙĨ
ĠÚ©Ùĩ ÙĨÙĩ
ÛĮ Ø§ÙĨ
ĠÙģØ±Ø§ ÙĪØ§ÙĨ
ĠØ§Ø´Øª Ø±Ø§Ú©
Ø±Ø¯ ÙĨ
ĠØ¯ Ø¹Ø§
Ġtit le
ĠÙ¾ÛĮØ± Ø§Ùĩ
Ú¯ÙĨ Ø§ÙĦ
ĠÚ©Ø´Ø§ÙĪØ± Ø²ÛĮ
Ġgreat est
ĠMus lim
ĠØ§Ø¹ØªØ± Ø§Ø¶
ĠÙħÛĮ Ø§Ø¯
Ġdef ined
Øª ÙĪÙĨÙĩ
itt ee
ĠØ§Ø¹ØªØ± Ø§Ùģ
c u
ĠØ± Ø£
Ġesc ape
ĠØ¢ÙĪ Ø§Ø²
ord s
Ġ* "
Ø§Ú© Ø«Ø±
Ġrele ase
Ġobject s
Ø¶ Ø§Ø¹
Ú©ÙĨ ÙĨ
ĠL ou
ĠØ§Ùħ Ø±ÙĪØ²Ùĩ
ĠØªÙĦÙĪÛĮØ²ÛĮ ÙĪÙĨÛĮ
Ġ ice
ĠØ¨ÛĮ ÙĦ
ĠP ierre
Ġfl at
ĠØ®Ø± Ø§Ø¨
ĠØ³ÙĤ ÙĪØ·
Ġin j
ĠÙħØŃ ÙĤ
ĠØ§Ø´ ÛĮØ§
Ø¨ÙĪØ± Ú¯
on ed
ĠR ich
Ġno ise
ĠØ¶ Ø¨Ø·
Ġ âĢĮ
Ú© ÙĪØ¨
ÙĬ Ø±
Ġqu ality
Ø§Ø² ÙĨØ¯Ùĩ
ĠÛ²Û°Û°Û ¶
ĠØ§Ú© Ø«Ø±
M A
Ú© ÙĪÙĨÛĮ
ĠL aw
Ġcontin ue
ĠØ±ÙĪÛĮØ¯ Ø§Ø¯
ĠÙĪ Ø§ÛĮ
ĠÚ¯ÙĦ ÙĪÙĦÙĩ
Ġrul es
Ġstre ets
ĠÙģ Ø§ÙĨÛĮ
Ġgr ass
An other
ĠØ¬Ø° Ø¨
ĠÙħØªØ¹ ÙĦÙĤ
ĠCh urch
Ġind ic
G ood
ÙĦÛĮ Øº
ĠØ¢ÙĦ ÙĪØ¯
ĠØ¯Ø§ÙĨØ´ Ø¬ÙĪÛĮ
Ġfin ancial
Ġhon or
Ġpred ict
ĠM al
ĠØ¬Ùħ Ø¹ÛĮ
S c
ÙĨ Ø¸Ø±
Ġe th
ĠØ¨ÛĮ ÚĨØ§Ø±Ùĩ
ĠÙħØ³ Ú©ÙĪ
ĠØ¯ Ø®Øª
ob ile
ĠØ§ÙģØ² ÙĪØ¯
ĠMart in
Ø¬ ÙĨÚ¯
ĠØ² ÙĪ
ĠD ay
Ġdark ness
ĠGo vern
ĠÙħØŃØ§Ùģ Ø¸Øª
Ú¯ Ø²Ø§Ø±
Ø¨Ø¯ ÛĮÙĨ
m ission
Ø§ÙĦ Ø§ÙĨ
ĠM el
res p
Ġsil ver
Ġbuild ings
ĠÙħØ³ÙĦ ÙħØ§ÙĨ
N ew
Ø¨ ÚĨÙĩ
Ùģ ÙĪØ±
Ġad op
b ased
ĠÙħÛĮ ØªÙĪÙĨ
Ø® Ø¯Ùħ
our s
Ġag ree
ĠØ¨Ø± Ø§ÙĨ
ĠÚĨ ÛĮÙĨÛĮ
Ġfem ale
Ùģ Ø¬
ĠÙĩ ØªÙĦ
ac hes
Ġwe alth
Ø§ÙĨØ¯ Ø§Ø®Øª
It s
Ġpr ote
ĠØ¨Ø§Ø± ÙĩØ§
ars h
ĠÙħØ§Ø¯Ø± Ùħ
¶ Û°
ret ched
Ġed ge
ĠØ¨Ø± Ú¯Ø²
ĠM iddle
ĠØ§ÛĮÙĨØªØ± ÙĨØªÛĮ
er ous
Ġre b
ĠC am
Ġr ace
Ġcal m
L ike
a ult
Ġto m
ĠØ³Ø§Ø² Ø¯
ĠØ¢Øº ÙĪØ´
ĠTur k
6 0
Ġw is
ĠÛĮ Ø§Ø¨Ø¯
ĠØ¢ÙħØ±ÛĮÚ© Ø§ÛĮ
Ġrev olution
ĠH igh
ĠÙħØŃ ÙħØ¯
Ġun ivers
ĠØ³ÙĪ Ø¡
Ġcamp aign
Ø§ÛĮ Ø§ÙĨ
ĠM o
ĠSt ud
Ġlist ening
Ġdro pped
Ġrelig ion
ĠØµ Ø§Ùģ
ĠØªØ§ Ú©ÙĨÙĪÙĨ
ĠØªÙħØ§Ø´ Ø§Ú¯Ø±Ø§ÙĨ
ĠMos cow
ĠØ±Ø¶ Ø§ÛĮØª
ĠÙĨ Ø±Ø®
ĠM ac
Ġph one
Ġfind ing
Ġlaw s
ĠCoun cil
a res
ĠØ¨Ø± Ùħ
ĠØµÙĨ Ø¹ØªÛĮ
ĠØ¹ Ùģ
Ġle aves
Ġinc red
ĠØ¬ÙĦÙĪ Ùĩ
ĠÚ©ÙĪØª Ø§ÙĩÛĮ
ĠÙ¾ÚĺÙĪÙĩ Ø´
Ø§ÙĦ ÙĪ
Ġinst ance
ÙģØ± Ø§ÙĨØ³
Ġoffic er
Ġconnect ed
k es
ĠÙĪ Ø§Ø¶
ĠØ¨Ùĩ ØªØ±ÛĮ
ĠÙħÙĪ Ø´
ÙħØ« ÙĦØ§
ĠS un
Ġim ages
Ġplay er
Ġcor rect
Ġleg al
Ġjo ined
ĠØ³ ÛĮØ±
Ġwe b
Ġr ank
Ġcl ub
ĠÙĩÙħ Ú¯ÛĮ
ĠG mina
ĠÙħØª Ø¹Ø¯
ĠÙĤÙĦ Ø¹Ùĩ
um n
Ġpat ients
Ġmot ion
MD b
ĠÚ©Ø§ÙĦÛĮ ÙģØ±
ĠÙĦ ÛĮÙĨ
Ġal t
Ġco at
ĠØ§Ùĩ Ø¯Ø§Ùģ
ÙħØ² ÙħÙĩ
ĠÙħØ³ÛĮ ØŃÛĮ
Ġfield s
Ġopp osite
Ð µ
ĠØ¨ Ø§ÙĨØ¯
Ġsm iling
Ġ18 9
ĠAs soci
ĠCent er
ĠM ont
Ġcar bon
Ġap art
Ġpull ed
Ø§Ø² ÛĮÙħ
ffic ial
Ġenc our
ĠØµ Ø§Ø¯Ø±
Ġsy m
ĠØ¨Ú¯ÛĮØ± Ùħ
Ø§Ø¨ ÙĤ
Ġst ream
ul ated
Ġdem ocr
Ø± Ø§ÛĮÛĮ
Ø³Ø± Ø§ÙĨØ¬Ø§Ùħ
Ġd ance
ĠT er
ĠÛ±Û ·Û
ÙĢ Øª
ĠÙĪ Ø²Ø§Ø±Øª
ĠØ¨ÙĪØ¯ ÛĮ
Øµ ÛĮÙĩ
Ġinter view
ĠM il
ĠØ¨Ø±Ø¯ Ø§Ø±
Ġsound s
Ġkit chen
r ont
Ġshould er
ĠØ¬Ø° Ø§Ø¨
Øµ Ø§ÙĦ
ĠØ´Ø¨ Ø§Ùĩ
up id
Ġart icle
Ġelect ron
cl es
ĠÙ¾ÛĮÚĨ ÛĮØ¯
ĠØ¢Ø±Ø² ÙĪ
n am
pl ic
Ġstart ing
ĠÙĤØ· Ø§Ø±
ĠØ±ÙĨÚ¯ ÛĮ
Ġhon est
ĠØµÙĨØ¯ ÙĪÙĤ
Pe ople
ĠØ§Ùħ Øª
Ġpo et
Ġs and
Ġd read
ĠF ed
ĠØ± Ø³Øª
ĠÙ¾ ØªØ±
Ġsp ort
ĠØŃØ³ Ø§Ø¨ÛĮ
ĠØ§ÛĮØ± Ø§ÙĨÛĮ
e ff
ĠØ± Ø¤
Ġis land
ĠÛ±Û ·
ĠÙ¾Ø³ Ø±Ø´
ĠSo ciety
ĠØ¢Ø²ÙħØ§ÛĮØ´ Ú¯Ø§Ùĩ
Ġexist ence
ĠØ³Ø±Ø¨Ø§Ø² Ø§ÙĨ
Ø±Ø³ ÙĨØ¯
Ġ198 0
ĠØ´ Ø¨Ùĩ
Ġob t
Ar t
av al
Ġp a
Ø· Ø¨ÛĮ
ĠØº ÛĮ
Ġval ues
Ġrad io
ĠÚ©ÛĮÙģ ÛĮØª
ar ia
Ø® Ø¯Ø§
as hed
Ø§Ú¯Ø± ÚĨÙĩ
ĠAr my
ĠØ¨Ø¹ ÙĨÙĪØ§ÙĨ
ĠØ§Ø± Ø²ÛĮ
Ġmag ic
Ġin form
Ġthan k
Ġgr own
Ġtyp ically
Ġg ames
Ġsc ar
Ġw est
ĠÙĩÙĪØ§Ù¾ÛĮÙħ Ø§
Ġput ting
Ġbecom ing
ĠØ¢ Ø°
Ġon to
ĠØ³ÛĮ Ú¯ÙĨØ§ÙĦ
Û ±
Ġof fered
ĠØ§Øµ ÙĪÙĦ
ĠPet er
ĠA ct
Ġinst ant
ĠÚ©ÙĦÛĮ Ø³Ø§ÛĮ
Ġlaugh ing
Ġachie ve
m et
ar row
ĠØ¹Ùħ Ø¯Ùĩ
Ġmat ch
ĠØ¬ÛĮÙħ Ø²
ĠÙ¾Ø± ÙĨØ¯Ùĩ
ĠØ¨Ø§Ø²ÛĮ Ú©ÙĨ
ĠAnd rew
ĠØ§ÙĦØ¹ Ø§Ø¯Ùĩ
ĠØ¨Ø§ Ø¨
ĠÙħØ§Ø¯ Ø§Ùħ
Ġindepend ent
ĠØ¯ ÙħØ§
ant ed
ĠIs land
ĠÙħÛĮ Ø§ÙĨÙĩ
ian a
ĠØ¬Ø³Øª Ø¬ÙĪÛĮ
ĠD es
Ø² Ø§ÛĮ
ĠØª ÙĪØ¯Ùĩ
e per
ĠÙħÙĨ Ø§Ø³
Ġde b
Ġav oid
ĠØ·ÙĦ Ø§ÛĮÛĮ
e ah
ĠÙĨ Ø§Ø³
ĠÙħÛĮ Ú©ÙĨÙħ
ĠØ® ÙĨ
ĠØ¨ÛĮ Ø§ÙĪØ±Ø¯
ĠØ§ÛĮÙħ Ø§ÙĨ
ĠØ§Ø³Øª Ø¯
ĠÙĨ Ø´ÙĨ
ĠÙħÛĮ Ø´ÙĪØ¯
ĠR oy
Ġsmall er
ĠØªÚ© Ø§ÙħÙĦ
ĠÙģ ÙĤÛĮØ±
Ġbod ies
ĠØ§ÙħØªÛĮ Ø§Ø²
Ú¯ Ø§
Ġcont act
Ġhapp ening
ann ed
Ø§ÙĨØª ÛĮÙĨ
Ġeffect s
ĠÙħÙĪ ÙĩØ§ÛĮ
Ġno se
Ġche ck
ĠØ¨ØŃ Ø±Ø§ÙĨ
ĠGlo bal
Ġt aught
Ø§Ùĩ ÛĮÙħ
ĠØµ ÙģØ±
ĠØ§Ùħ Ø¶Ø§
ĠØ§ÙĨØª ÙĩØ§ÛĮ
id ae
ĠL ib
Ġ2 8
ĠÙħ Ø§Ø³Øª
ĠO h
ĠÙĨØ´ ÙĪÙĨ
ĠØª Ø§Ø±
Ø¢ÙĨ ÚĨÙĩ
Ġmod els
ĠGr and
le ep
ĠØ¢ Ú©
ĠÙĩÛĮ Ø¦Øª
ĠÛ±Û¹Û ²Û
gen cy
Ġwe ap
ĠPro v
ĠÙħÙģ ÛĮØ¯
ĠÙħØŃØ¨ ÙĪØ¨
ĠØ§ÙĨØ¯ Ø§Ùħ
Ġa ward
g ent
ØŃ Ø§Ùģ
ĠÛ²Û°Û°Û ·
ĠØ±ÙĪØ´ÙĨ Ø§ÛĮÛĮ
ĠØ± Ø®Øª
Ġha bit
Úĺ ÛĮÚ©
Ġsp ring
Ġev il
Ġt iny
Ġp et
Ø¦ ÛĮØ¯
Ġun cle
Ġappro x
Ġcho ose
Ġ id
Ġd ust
ick ed
ĠÛĮØ§Ø¯ Ú¯ÛĮØ±ÛĮ
Ġsour ces
Ġf ol
Ġsome where
ĠØ±ÙĪØ² ÙĩØ§
Ġtw ice
Ġche ek
Ø³ Ø§Ùħ
Ġhe aven
ĠØ§Ø¨Ø± Ø§Ø²
Ġbur st
Ú¯Ø± ÙĪÙĩ
Ġperfect ly
ĠØ§ÙģØºØ§ÙĨ Ø³ØªØ§ÙĨ
ĠØ§ Ú©Ø³
Ùģ Ø¹
Ġsqu are
ĠÙĨ Ø§Ø¯Ø±
Ġtr aining
ĠÛ²Û°Û°Û µ
ĠÛ²Û°Û±Û ´
ĠÙħÙĨØ· ÙĤÛĮ
Ġm icro
ĠØŃ ÛĮØ§Ø·
vent ion
ĠÛĮ ÙĤÛĮÙĨ
ĠS al
um ent
Ġd ate
ĠÙħÙĤ Ø±
Ú¯Ø° Ø´ØªÙĩ
Ø²ÛĮ Ùĩ
ĠTh ank
ĠIran ian
bo ard
Ø¨Ø±Ø¯ Ø§Ø±ÛĮ
S A
Ġu lt
ĠØ¹Ùħ ÙĪ
Ġwind ows
i h
Ġ .
ĠØ¬ Øº
Ø±Ø§ Ø³ÛĮ
Ġproduct s
Ġth ro
ĠØ¨Ø± ÙĪÙĨØ¯
ĠÙĤ ÛĮ
Ø±Ø§ ÙģØª
Ġprev ious
Ð ½
ĠØ´ Ø¬Ø§
ĠÚ¯ÙģØª ÛĮ
Ġshould ers
us hing
ic ide
ĠÙĨØ¸ Ø±ÛĮ
ĠÙħØ· ÙĦ
Ġf ly
Ø¹ Ùģ
ĠØ§Ø³Øª ÛĮ
and ing
ĠØ¨ÛĮ Ùĩ
fess or
ĠØ§Ø³Øª Ø±Ø§Øª
ĠØ¢Ùħ ÙĪ
Ġpie ces
ĠØ§ÛĮØª Ø§ÙĦÛĮØ§ÛĮÛĮ
Øª Ø§Ùħ
ĠD en
ĠØªØ¨ ÙĦÛĮØº
ĠØªØ§Ø¨ Ø¹
ĠØªÙĪÙĨ Ùħ
Ġfight ing
ĠW ind
Ġen emy
ĠØ¯ÙĪØ± Ø¨ÛĮÙĨ
ĠÚ©Ùģ Ø´
b re
Ø³ Ø§Ø²Ø¯
Ġc ars
Ġto ols
ian ce
Ġchar ge
ĠÙħØ³ÛĮ ØŃ
Ġhead s
Ġlist ened
Ú© Ø¨
Ġrec ent
Ġstud ent
ĠÙĨØ³Ø¨Øª Ø§
Ġindividual s
ur b
Ú© ØªØ§Ø¨
Ø² ÙĨÛĮ
Ġcont ract
Ġpat ient
ĠEd ward
Ġhig hest
Ġre action
ĠJ ust
Ġfound ed
Ġcal cul
Ġbas ic
c her
Ġe ld
ĠØ¬ÙĨÚ¯ ÛĮ
ÙĤÙĦ Ø§ÙĦ
Ġdetermin ed
ĠØ´ Ø§Ø¹
ĠØŁ "
Ġ197 0
Ġd u
Ø±ÙĪ Ø³ÛĮ
Ġsc ale
Ú©ÙĪ Ù¾
Ġk id
ĠL u
ĠØ¨Ø± Ø§
Ø· ÛĮÙĦ
Ø§Ø® ØªÛĮ
oint ed
Ġmaterial s
Ġce lebr
Ġadvant age
Ġsc ene
Ġg ate
Ġas se
Ġobl ig
ÙĨ ÙĪÛĮØ³ÛĮ
ĠØ³ ÙĦØ§ØŃ
olog ies
ĠØªØ® Ùħ
ÙĨ ÙĤ
ĠØ¯ Ø¨ÛĮØ±
Ġf ile
ĠØ¨ÛĮÙħØ§Ø± Ø§ÙĨ
C on
j o
p ire
ĠØ¨ Ú¯ÛĮØ±ÛĮÙħ
Ø¬ ÙĨØ³
Ġinter act
Ġlevel s
Ġrecogn ized
ĠS erv
ĠØªÙĪ ØµÛĮÙĩ
Ġdep art
Ġslight ly
Ġs pl
ĠØ¢ÙĨ Ú¯Ø§Ùĩ
ĠÛĮÚ© Ø³Ø§ÙĨ
ĠM ag
Ġr ub
ĠÙĨØ¯Ø§Ø± ÛĮÙħ
O N
ĠÚ¯Ø° Ø±
se e
ir ing
Ġwe ar
ĠØ¯Ø§Ø± ÙĨ
ĠØ³ÛĮ Ú¯Ø§Ø±
Ø¨Ø§Ø² Ø¨ÛĮÙĨÛĮ
ĠCent ral
Ø± Ø¨ÛĮ
ĠØ¨Ø± Ø²
ĠÙĩÙħ Ø¯ÛĮÚ¯Ø±
el ve
Ġ2 6
Ġt ired
ĠE r
ĠÙħØª Ø£
ĠØ±ÛĮ Ø´
Ġamaz ing
i i
ĠØ´ Ø§ÙĨØ³
Ġp air
âĢĮâĢĮâĢĮâĢĮ âĢĮ
u be
ĠÙĪ Ø§Ùħ
ĠØ³ Ø§Ø¯Ú¯ÛĮ
Ġun f
ĠÙĤØ±Ø§Ø±Ø¯ Ø§Ø¯
Ø¹ Ø¯Ùĩ
Ø¢ ÙħÛĮ
Ġr out
Ġsh ook
ĠÙĦÛĮ Ø³Øª
ĠØ¨Ùħ Ø¨
Ġmultip le
ĠØ§ÙĪ Ø¶Ø§Ø¹
Ú¯Ø± Ø§ÛĮÛĮ
Ġprov ided
ĠÙĪ Ø¬
Ġc art
ĠÙ¾ Ø§ÙĦ
ĠAs ia
ĠÙ¾Ø±Ø³ Ø´
Ġinte gr
ĠÙħ ÙĤÛĮ
ĠØ¯ Ø§Øº
Ġan alysis
Ġfl ag
Ġmethod s
ĠÙħÛĮ Ø®
Ġp roud
Ú¯Ùĩ Ø§ÙĨÛĮ
ĠØ¨Ø® Ø§Ø·Ø±
ĠDep artment
Ġf ully
ĠØ¨Ø± Ùģ
ĠÚĨ ÛĮÙĩ
Ġhigh ly
ĠÙħØªÙģ Ø§ÙĪØªÛĮ
ĠÙĪØŃØ´Øª ÙĨØ§Ú©
Ø² Ø§Ø¨Øª
Ġst ro
ĠØ´Ùĩ Ø±ÙĪ
ĠÙħÙĪØ¬ÙĪØ¯ Ø§Øª
ĠC our
Ġcomp on
ĠØ§Ø± Ø§Ø¯Ùĩ
ĠK ar
Ø¢ÙħØ¯ ÙĨØ¯
Ġbre ast
Ġinvest ig
ĠØ´ Ø§
Ø£ Øª
ĠÛĮØ§Ø¯ Ø¯Ø§Ø´Øª
ĠØ¯ÙĪØ³Øª Ø´
ĠØ§ÙĦÙĩ Ø§Ùħ
Ø¯Ø± Ø³
Ġr ough
ĠÙħØ¹ Ø±Ø¶
ĠÛ²Û ´
ĠØ§Ø®Øª ÙĦØ§Ùģ
A P
ØŃ Ø³
ĠØ§ÙĪ Ùĩ
Ġsurpr ised
Ġsepar ate
p en
Ñ Ģ
Ġs now
ĠØ¢ ÙģØ±
ĠB ank
Ġgener ation
ĠRober t
ĠØ¯ Ø²
re es
ĠÙĨÙħ Ø§Ø¯
ĠÙ¾Ø±ÙĪ ÙĨØ¯Ùĩ
ĠÙħÙĤ Ø¯Ø§Ø±ÛĮ
Ġcar riage
Ġlad ies
ĠØ¢ Ø±Ø§
Ġn erv
Ġcon cent
ÙĦÙĪ Ø¨
ĠØ§Ø« Ø¨Ø§Øª
ĠÙħÛĮ Ú©ÙĨØ¯
Ġtemper ature
May be
i as
n es
ĠW ell
Ø± Ø§Ø¨
Ø´ ÙĪØ±
er ved
Ġp ure
ĠÚ©Ø§Ø± Ùħ
az ine
Ġlim ited
ĠÙħØ³Ø§Ø¨ ÙĤØ§Øª
ĠØ® ÙĪÛĮ
ĠÙħØª ÙĪÙĦØ¯
Ø¯Ø§ÙĨ ÙĨØ¯
ĠØŃØ± Ø§Ø±Øª
ĠÙĨ Ø´ÙĪØ¯
ÚĨ Ø·ÙĪØ±
Ġas pect
ol id
ĠÙħØª ÙħØ±Ú©Ø²
ĠÛ² Û°Û°Û°
Ø´Ùħ Ø§Ø±
ĠÙĪ ÛĮÙĦÛĮ
ad ing
Ġhundred s
ĠØ§ØŃØ³ Ø§Ø³ÛĮ
ed s
ĠØŃ Ø§Ú©
ĠØ®ÙĪØ¯ Ú©Ø´ÛĮ
Ġoccur red
raz il
Ġb le
le ge
ĠØ§Ø³Øª ÙĤÙĦØ§ÙĦ
ĠÙģØ± ÙĤ
ĠØ¨Ø® ÙĪØ±
ĠÙĨØ§ Ú¯ÙĩØ§ÙĨÛĮ
ĠÙ¾Ø¯Ø± Ùħ
ĠSc arlett
ĠMin ister
Ø´ ÛĮÙħ
ro do
ĠØ° Ú©Ø±
Ø³Øª ÙĪÙĨ
Ġst yle
ĠÙħØ³Ø¦ ÙĪÙĦÛĮØª
a fter
Ġ They
ĠÙĤ Ø§ÙĦØ¨
Ġn ation
ul ations
ĠW il
ĠØ®ÙĪØ±Ø´ÛĮØ¯ ÛĮ
ĠØ§ Ø¹Ø¯Ø§Ø¯
em ic
Ġag reed
ĠØ§ÙĨÚ¯ ÛĮØ²Ùĩ
ĠÙħØ¨Øª ÙĦØ§
o ol
w ide
Ġtrans form
Ġwonder ful
ĠØª ÙĪÙĨÛĮ
ens is
Ø¯Ø§Ø± Ø§ÙĨ
ĠØ¯Ø±ÙĪ Ø§Ø²Ùĩ
Ġextreme ly
Ġm al
ĠØ¯ ÙĪÛĮ
Ġal tern
ĠÙħØ³ Ú©ÙĪÙĨÛĮ
Ġexec ut
I m
2 5
ur a
ĠB en
Ø¨Ø§ÙĦ Ø§Ø®Ø±Ùĩ
Ġfam iliar
Ġtrans port
Ġkind s
ĠØ² Ø¯Ùħ
ĠM ex
Ø° Ø§
Ġcurrent ly
Ġsuff ering
g ate
Ø¹Ùĩ Ø¯
Ġuse ful
Ġt im
ĠØ±Ø§ Ø³
ul ate
Ġall ows
ĠM a
Ø§ÙĨØ¯ Ø§Ø²ÛĮ
ÙģÛĮ ÙĤ
ĠØªÙģ Ú©Ø±
Ġele ment
ill y
ĠÚ©ÙħÛĮ ØªÙĩ
Ġrece ive
ĠØ¨Ùĩ Øª
Ø§Ùħ Ø±ÙĪØ²
am ond
lo v
8 0
ĠA pp
ĠÙĦ ÙĪÙĦÙĩ
ĠÚ©Ø§Ø± Ú¯Ø±
Ġso le
ĠF red
og le
ĠÙħØµ Ø§ØŃ
ĠØ¢ÙħÙĪØ² Ø´ÛĮ
Ġnews p
Ġcoun ter
ĠÙĨÚĺ Ø§Ø¯
ÛĮØ² Ùħ
Ġr at
Ġun e
Ġsol ar
ĠØºØ° Ø§ÛĮ
Ġclear ly
ĠÙħÛĮ Ú©ÙĨÙĨØ¯
Ġg od
ÙĪÙĨ Ùħ
ur t
ĠM od
ĠØ§Ø±ÙĪ Ù¾Ø§ÛĮÛĮ
Ġresp ond
ĠÚ©Ø§Ø± Ú¯Ø±Ø§ÙĨ
ĠÙĨØ¸ ÛĮØ±
ac he
Ġroom s
Ġwin ter
ĠH all
ĠØ¨Ø® Ø§Ø±ÛĮ
ĠÙĦØ¨ Ø®ÙĨØ¯ÛĮ
Ġforgot ten
Ġcommer cial
ĠÙħØ¹ Ø§Ø¯ÙĦ
erv ish
ĠÙ¾Ø² Ø´Ú©
Ġhad n
ĠÙħØª ØºÛĮØ±
Ġpass ing
ĠÙħØ± Øº
Ġmere ly
ĠØ¯Ø± ÙĨÚ¯
Ø§ÙĤ Ø¹
Ġwor ry
Ġsub st
Ġmo on
Ġdanger ous
ĠØ¢Ø´Ù¾Ø² Ø®Ø§ÙĨÙĩ
Ġc up
st on
ĠA ward
Ø¢ Ø²
Ġno body
ens us
Ġbelie f
ĠØ®Ø§ÙĨÙĪ Ø§Ø¯Ú¯ÛĮ
i pe
v ille
Ġf ed
ĠÙħØª Ø´Ú©Ø±Ùħ
ĠØ§Ùħ Ø´Ø¨
ĠØ± Ø¨Ø±ØªØ§
Ù¾ Ø§ÙĨ
Ø¹ Ø´
ĠÚ¯ ÙĨØ¬
st ead
ĠØµ ÙħÛĮ
ĠÙħÙĪ Ø§Ùģ
em ents
Ġexc ited
Ùħ ÛĮØ¯
ĠØ® Ø¬
ĠÙģ ÙĤØ±
Ġst upid
Ø³ÛĮ Ú©
Ġcrit ic
t ies
on a
Ġh ar
ĠØ¯Ø±Ø³Øª ÛĮ
ÙĪØ· Ùĩ
Ġev olution
ĠØ§Ø±Ø²ÛĮ Ø§Ø¨ÛĮ
r ant
ĠM ark
ĠC ont
Ø¢ Ø±ÛĮ
ĠR iver
ĠÙĨØ¯ Ø§
g a
Ø¯Ùĩ ÛĮÙħ
Ġr ail
Ġsh ared
ĠD ar
per or
Ġcr is
ĠØ¨Ø§Ø²ÛĮ Ú¯Ø±
Ġvis ion
Ġcitiz ens
ĠØ§Ø¯ ÙĪØ§Ø±Ø¯
ĠÛ²Û°Û±Û µ
Ġconnect ion
ĠØ³Ø± Ú¯Ø±Ùħ
ĠR ome
ĠE up
ĠÙħØª Ø®ØµØµ
On ce
M ar
ĠØ³Ø± Ø²
Ġgra ve
ĠØ«Ø±ÙĪ Øª
ĠØ§Ø±Ø³ Ø§ÙĦ
Ø· ÙĦØ¨
Ø§Ø³ Ú©Ø§Ø±
ĠO ne
Ú©Ø³ Ø§ÙĨØ¯Ø±
ĠØ³Ø± Øª
ĠG l
ĠÙĨ ÙĢ
Ġh ate
ĠØ´ ÙĦÛĮÚ©
ĠThe re
Ġmost ly
Ġafter wards
Ġpict ures
en ced
th is
Ġdev ice
f ast
Ġre act
ĠØ´Ø± Ø·
ĠÙģÙĦØ³ ÙģÙĩ
Ġrespons ible
Ø§ÙĪ Ø²
ot he
Ġam b
Ø² ÙĨÙħ
Ġb ill
Ġth irty
Ġconst it
Ġa head
ĠÙĪ Ùģ
ĠØ³ ÙĤÙģ
Ġinst ruct
ĠØ¬ÙĪØ§ÙĨ Ø§ÙĨ
ĠØ¨ Ø®ÙĪØ§ÙĩØ¯
Ú¯Ø± ÙģØªÙĩ
Ø§ÙĤ Øª
Ġchang ing
ĠÙħØ·Ø§ÙĦ Ø¹Ø§Øª
ĠØ¬ÙĦ Ø³Ùĩ
ĠÚ©Ø§ÙĦÛĮÙģØ± ÙĨÛĮØ§
u ild
Ġg al
ĠÙģØ±ÛĮ Ø¨
Christ ophe
Ġs ides
Ø¯Ø§ Ø®
Ù¾ÛĮ ÚĨ
Ġord ered
ĠÚ© Ø§Ø¨
ĠØ¯Ø§ÙĨ Ø³Øª
r ative
ĠØ¬ Ø§Ø¯
ĠØ¯ÙĪ Ø§Ø²Ø¯Ùĩ
ult s
Ġsh owing
ĠØªØ± ÙĪØ±
ĠÙħÙĦ Ú©Ùĩ
Ġ ÙģØª
im ents
Ġro of
Ġco ast
m ark
Ø³ Ø±ÛĮ
ĠC at
od ay
Ġse ll
ĠÙĩØ± ÚĨÙĨØ¯
Ġtrans fer
Ġaccept ed
Per haps
ĠDist rict
Ġm ort
Ú¯Ø± Ùĩ
ĠØ±ÙĪ Ø¨Ø±ÙĪ
ĠÙħØ¹ ÙĦÙħ
ĠÙĦØ· Ùģ
and om
ĠØ´ÙĪØ± Ø§ÛĮ
ĠÙħØŃØ¯ÙĪØ¯ ÛĮØª
Ġs am
ÚĨ Ø´
ĠÚ©Ø§Ø± Ø¨Ø±
ĠF in
itt y
Ġfr ame
ĠKing dom
ÛĮÙĨ Ø§
Ġschool s
ĠØ¨ Ø°
Ø§Øª ÛĮÚ©
am ing
ĠØ³Ø§ÙĦ ÛĮ
ĠIn ter
Ġfail ed
ĠÚĺØ§Ù¾ ÙĨÛĮ
ĠØ¯ Ø²Ø¯
ÙħÛĮ ØªÛĮ
ink ing
ĠØ§Øµ Ø±Ø§Ø±
Ġdist inct
Ġgu y
ĠÙħØº Ø§Ø²Ùĩ
Ġm ale
ĠF ore
Ġpl ants
ĠÙĪØ§Ø¶ ØŃ
W ill
ĠØ¢ Ú¯Ø§ÙĩÛĮ
Ġsp oken
ĠØ¨Ø±Ø§Ø¯Ø± Ø´
v est
ĠØª Ø²
ĠØª Ø§ÛĮ
Ġhe ro
ĠØ² ÙħØ²ÙħÙĩ
Ġsc r
ĠÙĨÙħØ§ÛĮ Ø§ÙĨ
Ġart ist
ov na
ĠÙ¾Ø°ÛĮØ± ÙģØª
ĠØŃØ±Ú© Ø§Øª
Ø§Ùĩ Ø¯
ĠØ§ÙĨ Ø¹
ÙĬ Ø²
Ġref lect
Ġscient ists
ĠAssoci ation
Y et
à ®
ĠØ¹Ø± Ø¨ÛĮ
Ġprogram s
ĠÙĨ ØµØ¨
ĠØ§Ø³ÙĦ ØŃÙĩ
M e
Ġm ental
em s
Ġint ended
Ġper ce
ĠÙĨÚ¯Ø§Ùĩ Ø´
ĠØ¨Ø±Ú¯Ø±Ø¯ Ø§ÙĨØ¯
Ø§ÙĦØ¹ ÙħÙĦ
Ġ :âĢĮ
Ú©ÙĨ Øª
Ġfl ight
ĠØ§ÙĪÙĨ Ø§
ĠÙ¾Ø§ÛĮ Ø´
ĠÙ¾ÛĮØ± Ø§ÙħÙĪÙĨ
Ġdr ag
Ġexper iment
Ġb ul
Ø® Ø¨Ø±
ĠÙĩÙħ Ø§Ùĩ
ĠØ¹ Ø§ÙĦÙħ
ĠT w
ĠF ather
Ġsc reen
ĠÙħØ´Øª Ø±ÛĮ
ĠØ±ÙĪ Ø¨Ùĩ
Ġfl u
Ġche st
Ġev ident
2 2
Ã ¤
Ġm ath
ÚĨ ÛĮÙĨ
Ø¢ Ø®Ø±
ĠØ³Ø± ÙĨÙĪØ´Øª
Ø®ÙĪ Ø§Ø¯
ĠØ®Ø· ÙĪØ·
Ùĩ ÙħÛĮØ´Ùĩ
Ġany body
Ġrem ind
ĠØ§ÙĦÚ©ØªØ± ÙĪÙĨ
ĠØªØµØ§Ø¯ ÙģÛĮ
Ġus er
g l
Ġe ars
ur ies
ĠÚ©Ø±Ø¯ ÛĮØ¯
ĠO ff
oc ol
ithe cia
o very
Ø³ Ù¾
Ø§Ø¯ ÙĤ
Ġfor g
ÙĦØ§ Ú©
ÙĦØ§ ÙĤ
Øº Ø§Ùħ
ĠEup ithecia
in et
Ġmajor ity
Ġd ressed
ĠØ¨Ø§ Ùĩ
ver se
Ġpre fer
ĠØ´ÙĪ Ø®ÛĮ
Ġvict im
Ġdis m
ĠÙħÙĤ Ø¯Ùħ
Ġrec ently
Ġdem onst
z y
er able
Ġb rief
Ġdis s
Ø§Ø± ÙĩØ§
en a
ĠØ§Ø³ Ú©
Ġus ers
ĠU N
Ġt ight
ĠÚ© Ø§Ù¾
ĠÚ© Ø«ÛĮ
ĠÛ²Û ±
Ġfil ms
ĠÙħÛĮ Ú©ÙĨÙĩ
ĠÙĩ ÙĪÛĮØª
ĠÙģÙĦ ÙĪØ±
ÙĪ Ø§ÛĮÛĮ
Ø´ Ø§ÙĩÛĮ
as tern
ĠÚ©ÙĨ Ø³
Ġsex ual
ÚĨØ±Ø® Ùĩ
ĠØ± ÛĮØ¯
en es
ĠØµØ¯ ÙĩØ§
ĠÙħØ®Ø§ÙĦ ÙģØª
ĠØ«Ø±ÙĪ ØªÙħÙĨØ¯
ĠÙĨ Ø®ÙĪØ§ÙĩÙħ
ĠØªÙĪ Ø§ÙģÙĤ
ĠF irst
ĠØ¬ÙĪØ± Ø¬
ĠØ§ Ø±Ùħ
Ø§Ø± ÙĨ
Ġd rawn
Ġkn ock
ĠÙĨÙĩ Ø§Ø¯Ùĩ
Ø±Ø³ Ùħ
Ġdig ital
ĠÚ¯ÙĪÙĨØ§ Ú¯ÙĪÙĨ
Ã §
Ġsm art
li ament
ĠØ¨Ú¯Ø°Ø§Ø± ÛĮØ¯
ĠØ®ÙĨØ¯ ÛĮØ¯
Ġfal se
ĠØ±ÙĪ Ùħ
Ġopen ing
ĠØ§Ø³ØªØ¯ ÙĦØ§ÙĦ
Ø§Øª Ø§
ol ar
ĠØ®Ø· ÛĮ
o is
Ġt or
ÙĦ Ø§ÛĮ
ĠØ§Ø³Øª Ø±Ø§ØŃØª
O R
ĠJ er
ĠØ¨ÛĮØ´ØªØ± ÛĮÙĨ
ĠÚ¯ÛĮØ§Ùĩ Ø§ÙĨ
Ùħ ÙĪØ±Ø¯
ĠÙ¾ Ø¯ÛĮØ¯Ùĩ
ĠÙĩÙħ Ø²ÙħØ§ÙĨ
ere lla
Ġref uge
ĠØ±Øª Ø¨Ùĩ
a is
ĠÚ© Ø§Ø´
ĠÚ¯ ÙĨØ¯
Ġbene ath
Ġrefer red
ĠØ§ÙħÙ¾Ø±Ø§Øª ÙĪØ±ÛĮ
Ġc ab
ĠØ² Ø§ÙĨÙĪ
Ġwe ather
ĠÙĨÙĪ Ú©
cept ion
Ġneighb or
Ġa in
ĠØ¬ Ø§ÙĦ
ĠÚĨØ´Ùħ Ø´
Ġwa ited
atab ase
4 0
Ú¯ ÙĪØ´
ĠÛ´ Û°
Ġw ave
Ġh ast
Ġcl imate
Ø§Ø³ÛĮ ÙĪÙĨ
ĠØ¨Ø±Ø¯Ø§Ø´Øª Ùĩ
ĠØ¯Ø±Ø® Ø´Ø§ÙĨ
Ġwit ness
g ers
Ø´ Ú©ÙĦ
ÙħÛĮ Ø´
ĠØªØ¬ Ø²ÛĮÙĩ
ĠØ±ÛĮ Ø®ØªÙĩ
Ġobs erv
r as
ent ed
ĠØ¨Ø§Ø² Ø³Ø§Ø²ÛĮ
Ġprop osed
ĠTe chn
s s
Ġapp arent
ĠØ³ÙĨÚ¯ ÛĮ
Ġexpl ained
Ġple ased
ĠØ³Ø± ÙĪÛĮØ³
ĠØ¯ÙĦ Ø§ÛĮÙĦ
Ġsc ream
ĠØŃÙĪ Ø§Ø³
Be fore
ĠØ¨Ø± ÙĪØ²
Ġhe aring
Ø³ÛĮ ÙĦÙĩ
ĠB i
Ġco ffe
ĠØªØ±Ú©ÛĮ Ùĩ
Ø´ ÙĪØª
ĠÙ¾ ÙĩÙĨ
ter day
ĠB razil
ĠR ec
Ġwor st
Ġmat ters
ĠJ o
ĠØªØŃ Ø³ÛĮÙĨ
Ġjo in
F A
ĠÙĨ Ø§ÛĮ
ĠÙĨ Ú©ÙĨ
ÚĨ Ø³Ø¨
iz ab
Ġapplic ations
ĠH am
ĠØ³Ø§ Ú©ÙĨ
ĠÙ¾Ø§ Ø¦ÛĮÙĨ
ĠThom as
D P
Ġh ide
Ġpro s
Ġorgan izations
Ġh ole
ĠCol lege
Ġshad ow
g n
ÙĦ Ø§ÛĮÙĨ
ĠÚ© ÙĢ
Ġun known
ish ment
ĠØ§ØªØŃ Ø§Ø¯
ÛĮ Ø§Ø¯
Ġo dd
Ġpart ies
ĠØµØ¯Ø§ÛĮ Ø´
ĠÙĪÛĮØ± ÙĪØ³
ĠÙĨ ØµÙģ
Ø¦ ÙĪØ±
Ġman aged
k in
ĠÙĤ Ø¨ÛĮÙĦ
ÙģØ± ÙĪØ¯
Ġcont ains
ĠØ®Ø§Ø·Ø± Ø§Øª
An y
ĠÙħÙĤÛĮ Ø§Ø³
Ġ2 9
ĠØ²ÙħÛĮÙĨ ÛĮ
ĠØ§ÙĨØ¨ ÙĪÙĩ
ad s
ĠG reen
ĠÙĨ ØªÙĪØ§ÙĨØ³Øª
Ġe ager
r ical
s pe
Ø¯Ø§ÙĨ ÛĮÙħ
Ġfl ow
ĠÙĪØ§ÙĦ Ø¯ÛĮÙĨ
apt ain
H E
ct ors
ult ure
ĠÙĨÙħØ§ÛĮ ÙĨØ¯Ùĩ
Ú©Ø§ ÙĪÛĮ
Ġt ong
ĠØª ÙħÛĮØ²
amp ions
ĠØ¨Ú¯ÙĪÛĮ ÛĮØ¯
or ough
ĠØ³ ÙĪØ±ÛĮÙĩ
Ġen s
Ø²ÙĨØ¯ Ú¯ÛĮ
ĠÙ¾Ø±ÙĪØª Ø¦ÛĮÙĨ
ĠÚ¯Ø± Ø¨Ùĩ
ĠØ§Ø³ Ø±Ø§Ø±
ĠØ§Øª ØµØ§ÙĦ
Ġacc ident
ĠÙħÙĨØ¸ Ø±Ùĩ
ĠÙģØ±ÙĪØ´ Ú¯Ø§Ùĩ
Ġdut y
ĠØ§Ø®ØªØ± Ø§Ø¹
Ø¯ ÙĪØ³Øª
ul ous
ĠÚĨÙĩ ÙĦ
ĠÙħÙĪØ§Ùģ ÙĤØª
r im
ĠØ³ ÙĨØ¬
ĠÙģ Ø§ÛĮÙĦ
Ġnot es
Ġcons ist
c an
ĠØª ÛĮØ²
Ġlead er
ÙĤ Ø¨ÙĦ
Ġcall ing
ĠÙĨØŃ ÙĪÙĩ
Ġs en
ĠÙĨÛĮ ÙħÛĮ
ĠØ°Ùĩ ÙĨÛĮ
ĠAt l
ĠØªØ§ÙĦ Ø§Ø±
F irst
Ùħ Ø§Ø±ÛĮ
Ø¨ Ø§Ø¯
Ġas h
Ġv ast
ĠØ§Ø³ ÙĦØ§Ùħ
Ġbr own
ĠØªØ¹ ÙĦÙĤ
Ġconst ruct
Ġve h
ØªÙĤ Ø±ÛĮØ¨Ø§
m ar
Ġpl at
ĠÙ¾ÛĮØ´ Ø§ÙĨÛĮ
ĠÙħØ³ Ø®Ø±Ùĩ
Ġstud ied
ĠØªØµÙĪÛĮ Ø¨
ĠSo cial
Ġdou ble
Ġmention ed
b a
Ġw ine
it a
Ġcon vin
ĠJ ac
iz es
ÙħÙĪ ÙĤ
ĠØ¨Ø³Øª Ú¯ÛĮ
ĠØ¯Ø®Øª Ø±ÛĮ
ĠØªÙĤ ÙĪÛĮØª
Ġpri or
Ġord ers
Ġcoffe e
ĠØ±Ø§ Ùħ
fort un
Ġcult ural
yn am
m itted
Ġt our
ĠÙħ Ø§ÛĮÙĩ
ØªÛĮ Ú©ÛĮ
Ġat tend
ĠØ§ÙĨ ØŃ
ĠÚ¯Ø± Ú¯
ĠØºÛĮØ± ÙĤØ§Ø¨ÙĦ
Ġinst rum
ĠØ±Ø§ÛĮ Ø¬
ĠMy cos
ĠØ§ÙĦÛĮ Ø²Ø§Ø¨Øª
pha erella
ĠÙ¾Ø±ÚĨ Ùħ
ĠMycos phaerella
. '
Ġst ated
ĠØ±Ùĩ Ø¨Ø±
ĠÙħÙĢ ÛĮ
Ġsh oot
ĠÙħØ³ ÙĦØŃ
ath y
ĠÙħØ±Øª Ø¨Ùĩ
ĠÙĩÙĪØ´ ÙħÙĨØ¯
ĠØ¢ ÙĦÛĮ
ĠØ¨Ø§ Ú©ØªØ±ÛĮ
ĠØ§ÙĪ Ø¬
ĠDe f
Ġf ru
Ø¹ ÙĨÙĪØ§ÙĨ
Ø¬ ÙĪØ±
ĠS cience
ĠÙĨØ§ ÚĨØ§Ø±
Ġfif ty
Ġsett led
ĠÙĩÙĨØ±Ùħ ÙĨØ¯
ĠØ¨ Ø¯Ø±
ĠØ¬ÙĪ Ø§Ùħ
Ġsign al
ĠÙĩ ÛĮØ¯
az a
ĠHer mione
ĠComp any
Ø±ÙĪ ØŃ
ĠG old
ann y
e ed
Ġs ch
ent ially
Ġcare fully
ĠØ¬Ø²Ø¦ÛĮ Ø§Øª
Ġlibr ary
Ú© Ø§Ø³
ĠØ¬ ÙĪÛĮ
ĠØ´ÛĮ Ø·
Ġtrad itional
Ġarchitect ure
ly mp
ĠB est
ĠÚĨØ§Ø± ÙĦØ²
m n
ĠØ§Ú¯Ø± ÚĨÙĩ
Ġmom ents
ĠØ§ÙĤ Ø§ÙħØª
Ġmill ions
resp ond
ĠÙĪÛĮÙĦÛĮ Ø§Ùħ
N ever
ĠØ¯ Ú¯Ø±
Ġdo ors
ĠØ´Ø± Ø§Ø¨
ĠÛ²Û°Û°Û ³
Ø¯Ø§ÙĨØ³Øª ÙĨØ¯
n ik
es h
id a
ĠØ´Ø¨Ø§Ùĩ Øª
ĠS und
Ġli es
ĠÙ¾Ø±Ø¯ Ø§Ø²Ø´
Ġpresent ed
ĠLe vin
ĠØ§Ø®Øª ÙĦØ§ÙĦ
ØŃ Ø¯ÙĪØ¯
Ġb ought
Ġhe ll
ĠØ§ÙĪ Ùħ
Ġv oices
Th us
ĠU K
Ġgl ance
ĠÙħØ·Ùħ Ø¦
S ee
ã ĥ
ÙĩØ± ÚĨÙĨØ¯
Ġrem ains
ĠØ¶Ø± ÙĪØ±ÛĮ
Ġapplic ation
ĠØ¨ ÙĪØª
Ù¾ Ø´Øª
est ival
ÙĩØ± Ú¯Ø²
ĠØ¹Ùħ Ø¯
ĠØ±ÙĪØ³Øª Ø§ÛĮÛĮ
ĠFil m
E E
r ary
is co
Ġm ap
og ether
Ġdis app
Ġabsolute ly
ĠØ§Ø¶Ø·Ø± Ø§Ø¨
ĠÙĪ Ùħ
nd ing
Ø§Ø¯ ÙĦÙĩ
Ø¢ Ø®
ĠL atin
Ġdevelop ing
Ø¯ÙĪ Ø¨Ø§Ø±Ùĩ
ĠØ§Ø±ØªØ¨Ø§Ø· Ø§Øª
ĠÙ¾Ø°ÛĮØ± Ø§ÛĮÛĮ
Ġh idden
Ġen orm
ĠÙĩÙħØ§ÙĨ ÙĨØ¯
ĠAn na
Ġconst ruction
ĠÙ¾Ø°ÛĮØ± ÙģØªÙĩ
Û² Û°
w in
Ø¬Ùĩ ÛĮØ²
Ġdirect ed
Ġoper ation
ĠØ¨ÙĨÛĮ Ø§Ø¯
ĠÙ¾Ø§ÛĮØ¯ Ø§Ø±
an c
Ġso ci
ĠØ¨ÙĦ ÙĨØ¯ÛĮ
ĠØ´ÙĩØ± Øª
ĠØ§ØŃØªÛĮ Ø§Ø·
ĠØªØ¦ ÙĪØ±ÛĮ
É Ļ
Ġ ÛĮØ¯
ĠØ³ ÙĦÛĮ
Ġhy p
Ġwas te
Ġr ot
ĠØ³Ù¾ Ø§Ø³
ĠÙ¾ Ø§Ø´
Ġun it
Ġpro ceed
ĠJ ane
ĠØ¬Ø§ÛĮ Ú¯Ø§Ùĩ
ĠØ®ÙĪØ´ Ø´
Ø¯Ùĩ ÙĨØ¯Ùĩ
Ġsh arp
ĠÙĩÙħØ§ÙĨ Ø·ÙĪØ±
ĠPr ot
Somet imes
n et
ĠØ¯Ø§ÙĨØ´Ùħ ÙĨØ¯Ø§ÙĨ
ĠØ®ÙĪ Ø´ÛĮ
ĠSt reet
ĠØªÙģ ÙĨÚ¯
ann el
Ġfun ctions
Ġperform ed
Ġd ying
ĠÚ©ÙĨÙĨØ¯ Ú¯Ø§ÙĨ
Ġinter rupt
Ġfour th
Ġappe ars
Ġmor al
ĠØ´ ÙĢ
ĠS en
ĠØ§Ø³ Ú©Ø§Øª
Ġposs ibly
ĠÚ©Ø§ÙĨ Ø§ÙĦ
Ġp or
ĠA cad
est ic
Ġoper ating
Ġca uses
ĠIslam ic
Ø§Ùħ ÙĦÙĩ
os en
ĠJ ose
ÙĨØ´ Ø³Øª
Ġbre ad
re p
ĠØ´ Ú©ÙĨ
ĠÙĩ ÙĪÙĦ
av a
ĠÙĪÙĤ ÙĪØ¹
Ġprep ared
ĠRoy al
ÙĩØ± Ø§ÙĨ
ĠÙħØ¬ÙħÙĪ Ø¹
ĠØ¨Ø³Øª Ø±
ĠØ¹ ÙĦÙģ
ĠØ§ÙĨ ÙģØ¬
Ġare n
A M
Ġth rew
ĠØ² Ø§Ø¯Ùĩ
Ġst ared
Ġex cell
Ġwork ers
ĠÙħØ±Ø§ Ø¬
ĠØ²Ø® Ùħ
ste in
ĠØŃ ÛĮÙĨ
ĠC O
Ø¨Ø± ÙĨØ¯
ĠN ow
Ġreal ize
Ù¾Ø¯ÛĮ Ø§
Ġconf ess
ĠØ¢ Ùģ
ĠØ¨Ø± ÙĪÛĮØ¯
ĠÙĨØ¸ Ø§Ø±Øª
Ġad vent
Ġdisc over
Ġfoot ball
Ġpick ed
Ġf aster
Ø§ÙĨØ¯ ÙĨ
ĠØ° Ø±Ùĩ
19 7
ĠÙģØ¯Ø± Ø§ÙĦ
H ave
ĠV o
Ġ196 0
ĠØ²Ùħ Ø³ØªØ§ÙĨ
M us
ĠØ§ Ù¾
Ġs in
ĠÙħØ² Ø±
Ġear n
Ġsuggest ed
ÙħØ· Ùħ
Ġf lying
ĠÚ¯ Ø±Ø§Ùģ
ĠØ§Ø³Øª Ø«
ill a
Ġsh ame
ĠØ¨ÙĪ Ø³ÛĮÙĦÙĩ
Ø§ÙĪ ÙĦÛĮ
Ġcr im
g al
p et
Ġinc ome
br idge
Ġdev ices
ĠØ´ÛĮØ± ÛĮÙĨ
ĠÙħÙĩØ§Ø¬ Ø±Øª
in ite
Ġactiv ities
ĠØ§Ø² Ø´
ĠÙĤØ¯ ÛĮÙħ
ĠØ§ÛĮÙħ ÙĨÛĮ
ĠØ°Ùĩ ÙĨØ´
is l
ĠØª Ø§ÙĨ
ÚĨ ÙĪØ¨
Ġal arm
ĠÙħØ´ Ø§ÙĪØ±
ĠØŃÙĤÛĮ ÙĤÛĮ
Ø³ ÛĮØ±
at us
Th ose
ĠSt r
ĠRe volution
Ġgentle men
ĠM ount
Ġcomp ared
Ø¯Ø§ÙĨ Ø´
Ġ199 1
S e
om in
i ently
l iv
Ġw id
ĠØ§ÙĦ Ú¯ÙĪ
k er
ri er
Ġrec omm
ĠØªÙĪØ§ÙĨ ÙĨØ¯
Ġcr ack
Ġdirect or
Ġprom ise
Ġw arn
ĠÙĩ Ø¯ÛĮÙĩ
Ġch arm
ĠJ ul
ĠÙĤØ¯Ø± ØªÙħÙĨØ¯
ĠÙĨÛĮØ§Ø² ÙħÙĨØ¯
ĠPr in
ĠÙ¾Ø§Ø¯ Ø´Ø§ÙĩÛĮ
ĠÚ©Ø§Ø± Ø¨Ø±Ø§ÙĨ
ÙĪØ´ Ø§
ĠØ¨Ø§Ø±ÛĮ Ú©
Ġhe s
ĠO lymp
ĠÚ¯Ø° Ø§Ø±
ĠØ®ÙĪØ´ ØŃØ§ÙĦÛĮ
ĠØ®Ø´Ùħ Ú¯ÛĮÙĨ
Ġcris is
. ;
Ġsa f
ĠÙħØ® Ø§Ø·
Ġ199 9
ĠØ®ÙĪØ§ÙĨ ÙĨØ¯Ùĩ
ac le
ĠC he
ie ur
ÙħÙĨ Øª
ep ing
Ġcommon ly
Ġm ission
ur ally
ĠG roup
Ġser ve
ĠØ¯Ø±ÛĮ Ø§ÛĮ
Ġcreat ing
ĠØ¨Ø±Ø®ÙĪØ±Ø¯ Ø§Ø±
Ġquar ter
Ġl atter
ĠØ§Ø³Øª Ø¹Ø¯Ø§Ø¯
ĠØ§ÙĨØ¯ Ú©
Ġfo ld
Ø§Ø± Ø§Øª
Ø§Ø¨ ÙĨØ¯
ĠØµ Ø§Ø¯ÙĤ
Ġsu st
Ġcap able
Ġcap acity
m as
Å Ł
ĠÙĨ Ú©ÙĨÛĮØ¯
ĠØ§ÙĨ Ø¨Ø§Ø±
Ø¨ÛĮ Ø´
Ġjust ice
Ġmin im
Ġsus pic
and er
ĠØªØ¹ Ø·ÛĮÙĦ
ĠØ¯Ø§Ùħ ÙĨÙĩ
ĠGree k
Ã ¨
Ġr ang
Ġtr ick
ĠÛ¶ Û°
Ġprofess ional
ĠÙģØ±Ùħ ÙĪÙĦ
ĠÙħØ´ Ú©ÙĦÛĮ
ĠÙħØ· Ø¨
ĠÛ²Û°Û°Û ´
Ġoffic ers
Ġextra ord
ĠÙĩÙħØ³ Ø§ÛĮÙĩ
Ú© Ø´Ø§ÙĨ
is ms
Ġas leep
ĠÂ °
Ù¾Ø± Ø³Øª
Ġwhis pered
ĠÛ±Û¹Û ¹Û°
ĠØ§ÙģØ³ Ø§ÙĨÙĩ
Ġcommunic ation
ÙĩÙĨÚ¯ Ø§Ùħ
ĠM useum
um ber
Ġte ach
Ġquiet ly
ĠØ¨ ØªÙĪØ§ÙĨÛĮÙħ
own ed
ĠØ´ÛĮ Ø·Ø§ÙĨ
Û ³
ÙĨ Ø§ÛĮÛĮ
ĠØ¨ ØªÙĪÙĨ
Ø¸ ÙĩØ±
ÙĨÛĮ Ú©Ùģ
art s
ĠÙħØª ÙĩÙħ
al a
om ic
Ġgr ay
ĠØ´Ùħ Ø´ÛĮØ±
ĠÙĨØŃ ÙĪÛĮ
ĠØªØ¦ Ø§ØªØ±
ĠÚ© ÛĮØª
Ġp aint
ĠØ§Ø³Øª ÙĤ
Al so
ĠÙħØ¤Ø³ Ø³Ùĩ
ĠP at
os h
ap ole
ĠØ¹ÙĪ Ø§ÙħÙĦ
i ar
A d
P D
ĠH is
ĠØ¨Ø¯ Ø§ÙĨØ¯
ĠØ±ÙĪØ² Ø§ÙĨÙĩ
Ġcircumst ances
ĠS at
ĠØ· ÙĨ
Ø« Ø§
it ter
ĠØ¨Ø± ØªØ±
ĠÙģ Ø§ÛĮØ¯Ùĩ
ĠB ul
al og
ĠØ¯Ø®ØªØ± Ø´
Ġmount ain
ĠMad ame
w ing
est ed
ÙĦ Ø§ÙĨØ¯
ĠÛĮÚ© Ùĩ
ĠM et
Ġqu al
ÙĪØ³ Ùģ
ĠÙħØ° Ø§
Ġfing er
ĠØ¯Ø± ÙĪÙĨÛĮ
ĠØº Ø±ÛĮØ¨
ÙĩÙħ ÚĨÙĨØ§ÙĨ
ĠÚ¯ÛĮ Ø¬
Ġimport ance
Ġeffect ive
v a
Ø¯ ÙĪØ´
it ated
ĠØ¢ÙĨ Ø±Ø§
ons ieur
ĠØ¯Ø®ØªØ± Ú©
ĠØŃØ¶ Ø±Øª
ashing ton
ÙĪÙħ ÙĨØ¯
ĠØªØŃ Ø±ÛĮÚ©
Ġaud ience
Ġnucle ar
ÙĦ ÙħØ§ÙĨ
Ġcomp ar
Ùħ Ùħ
Ġkeep ing
Ġbeg un
ĠÙ¾ÛĮØ±Ø§Ùĩ ÙĨ
c ular
un ched
Ġwill ing
ĠFor ce
Ġair craft
ĠØ¯ÙĨØ¨Ø§ÙĦ Ùĩ
ĠØŃ Ø´
ang l
Ġchall enge
) )
ĠØ¨ Ø´Ùĩ
Ġd rop
Ġun able
ĠÙ¾Ø± ÛĮØ¯Ùĩ
Ġsecond s
Ġattack s
Ø§ Ú¯ÙĪ
Ø§Ø± Ùģ
es p
Ġte nder
Ġdist ingu
Ġdream s
ĠAfghan istan
ĠØ³Ø±Ø² ÙĨØ´
ĠØ§ Ø´ØªÛĮ
Ġevery where
Ġrem oved
ĠÙģÙĩÙħ ÛĮØ¯Ùħ
Ú¯ ÙĨØ¯
Ġfl owers
ĠÙĤØ¶ Ø§ÙĪØª
ĠMich ael
ĠØ§Ùģ Ú©ÙĨØ¯
ĠOr gan
Ġf urn
ĠØ¨Ø§ Ø³ØªØ§ÙĨ
Ø¯Ø± Ø®
ĠÙĦ Ø§Ø³
ĠØ®ÙĪ Ø´Ùħ
Ġvar iety
Ú¯ÙĪÙĨ Ú¯ÛĮ
Ġappl ied
apole on
w ers
Ø§ÛĮ Ø¹
ĠØª Ø¬ÙĩÛĮØ²
ĠØ¯Ùĩ Ú©Ø¯Ùĩ
Ġcreat ure
ĠØ§Ø´ØªÛĮ Ø§ÙĤ
ed d
Ġh o
ÙĪÙĦ ÛĮÙĨ
el le
ĠÛĮ ÙĦ
Ø· ÙĦ
Ġdel ic
ĠÙĨ ÙĪØ´
ĠØµ ÙĦÛĮ
Ġsu icide
Ø²ÙĨ ÙĨØ¯
ĠØ¨ÙĨÛĮ Ø§ÙĨ
ĠØ®Ø±ÙĪ Ø¬ÛĮ
Ġdru g
Ġt on
ĠØ³ ÙĨØ¯
ĠS im
C H
C O
ĠÙħÙĨ Ùģ
ĠA p
ĠØµ Ø®Ø±Ùĩ
Ġbr idge
ĠRes earch
ĠØ§Ø³ØªØ® Ø¯Ø§Ùħ
f a
y th
Ø± ÙĪÛĮÛĮ
Ø² Ø¨Ø§ÙĨ
Ø¨ ÙĦÛĮ
ol as
ĠØ¨ÙĪ Ø¬ÙĪØ¯
ĠØ®Ø¯Ø§ ØŃØ§Ùģ
ĠProv ince
ĠÙĩÙħ ÙĪÙĨ
Ġun iversity
ire ct
) ".
ĠØ¨ ØªÙĪØ§ÙĨÙħ
Ø³ Ø±Ø§
ĠØ± Ø¨Ø§Øª
Ġb ow
Ġp apers
Ġfall ing
ĠHen ry
ĠØ¬ÙĪØ§Ùħ Ø¹
E m
ĠØ´ Ú©Ø±
ĠB ro
ĠF er
ÙĦ Ø¦ÙĪÙĨ
Ġne are
ci p
Ph il
ĠCong ress
ĠLou is
ĠSm ith
ĠH el
ĠØ¢Ùħ Ø§Ø±
ĠØ§Ø³ ÙĨ
Ġother wise
Ġref used
Ġple asant
por ary
Ġn arrow
Ø§Øª ÙĦ
Ú¯ÛĮ Ø³
ĠÙĨÛĮ Ø§Ø²ÛĮ
hen s
ĠGo ogle
B S
ĠÙĨ Ø±ÙĪ
ĠÚ©ÙĦØ§ Ø³ÛĮÚ©
ÙĨ Ú¯Ø±
re ement
om er
Ġse vere
ĠÙģØ± Ø³
Ġsome how
Ġdistribut ion
Ġst airs
ol t
Ġcon text
Ġtell s
ent h
Ġpers u
Ø§ÙĦ Ø§Øª
am ily
Ġst ir
ĠAs h
ĠÛĮÙĪÙĨ Ø§ÙĨÛĮ
Ġprim ary
izab eth
S uch
Øª ÛĮÙħ
b its
i est
ĠØª Ø§Ø²
ĠØ¯Ø± Ú¯Ø°Ø´Øª
ĠØ§ÛĮÙĨ Ø·ÙĪØ±
Ġwond ered
B oth
u gg
Ù¾ ÙĨ
ĠG al
Ġsa ke
ĠØ¨ Ø§ÛĮØ³Øª
Ġapp re
Ġfall en
Ġris ing
Ġrev iew
Ø± Ø§ÙĩÛĮ
ÙĪØ± ÙĪ
Ġ201 6
ĠÙģØ¹ ÙĦÛĮ
ĠÙ¾Ø§Ø± ÚĨÙĩ
Ġclos er
Ùħ Ø±Ø§
ĠØ¢ Ø³Øª
id ents
ĠÙĨØ§Ùħ Ø²Ø¯
Ġcr ime
Ġengine ering
Ġneg ative
ĠØ¨ ÙħØ§ÙĨ
ÙĦ Ø·
ĠØ¯Ø± Ø¨Ø§Ø±
ĠÚ¯ ÙĪØ±ÛĮ
ĠN ations
ĠØ³ÛĮ Ø¨
Ġend s
ĠØ§ Ø¹Ø¯
all s
ÙĪØ² Øª
Ġcont ain
ather ine
Ġcolle ction
ĠØ¨ Ø§ÛĮ
ĠÙħØ¹ Øª
9 9
Ġb acter
Ġto ol
om ys
Ø§Ø³Øª ÙģØ§Ø¯Ùĩ
ĠØ¨Ø§ÙĦ Ø§Øª
Ġdes cend
Ġpo ly
ĠFran c
Ġopt im
Ġadminist rative
ĠØ¯ Ø§ÙĨÙĩ
Ġin put
ĠØ® ÙĦÛĮ
Ø³ÛĮ Ø³ØªÙħ
and s
ĠØ±ÙĪÛĮ Ø´
ĠÚ©Ùħ ØªØ±ÛĮ
ĠÙħØŃ ÙĪ
Ø¨Ø® Ø´ÛĮØ¯
Ġconst ant
E d
u a
Ø² ÛĮØ¯
Ġp ity
Ġim per
Ø®ÙĪØ§Ø³Øª ÙĨØ¯
ÙĨ Ø§Øª
Ġex er
Ġsa v
Ù¾Ø³ Ø±
ĠÙĤÙĦ Ø¨ÛĮ
Ġyes terday
Ġut ter
ĠÙģØ§Ø± Øº
Ú© ÙĪØ³
ĠÙ¾ ÛĮÙĨ
Ġdo gs
Ġtw elve
Ġpoint ed
ĠØ¨ ÙĬ
in ate
Ø¯ÛĮ Ú©
ĠN ot
Ġdro ve
Ġtou ched
Ġwide ly
j ean
Ø¯ ÙĪÙħ
ĠØ§ Ø¯Ø±
ĠØ± ÙĪØ§ÙĨÛĮ
ĠA h
ĠH IV
ĠÙħØŃ ÙĦÙĩ
ĠÙ¾Ø± ÛĮØ¯
Ø³ ÙħÙĩ
ĠØªØŃ ÙĤÛĮØ±
Ġ9 0
Ġast on
f ather
Ùģ ÙĪØ±Ø¯
Ġwe aring
ĠS il
ĠT imes
ĠØ®ÙĪØ´ Ø¨Ø®Øª
ĠÚ¯ÙĪ ÛĮØ¯
ĠØ¢Ø³ÛĮ Ø§
ĠØ¨ ÙģÙĩ
ĠÙĦ Ø²
Ġv ent
Ġrep ly
Ġbas is
ĠÙħØ¬Ø¯ Ø¯
ĠRich ard
Ø±ÛĮ Ø®Øª
os is
ĠØ§Ùħ Ù¾Ø±Ø§
Ġsign ed
ĠÙħØ²Ø± Ø¹Ùĩ
Ùĩ Ø§Ùħ
Ġas ide
um ped
Ø¯ÛĮØ¯ Ùħ
C om
ĠØ±ÙĪ Ø³
ak istan
Ġcor respond
ĠØ§ÙĦÚ©ØªØ± ÙĪÙĨÛĮ
ØºØ° ÛĮÙĩ
Ñ ģ
Ø¯ ÛĮØ±
ÙħÙĨ Ø³ØªØ§ÙĨ
ĠÙĨØ¯ Ø§Ø¯Ùĩ
ĠØ§Ø® Ø¨Ø§Ø±
ĠØ¨Ø¯Ùĩ ÛĮÙħ
ĠØ¨ÛĮÙģØª Ø¯
ĠWind ows
T P
ĠÚ©Ø§Ø± ÙĩØ§ÛĮÛĮ
ĠØ®ÙĪØ§Ùĩ Ø±Ø´
Ġpain ting
ØŃ Ø¯
ÙĪØ± ÙĩØ§ÛĮ
ce ly
ĠØªØ¹ ÙĤÛĮØ¨
Ġ7 0
Ġshout ed
Ġc ous
ĠØ¨ÛĮ Ø§ÛĮÛĮØ¯
ĠÙģØ± Ø§ØªØ±
ĠÙĨÛĮ Ø§Ùħ
Ú©Ø´ ÙĨØ¯
uz z
ĠÙħØ¯ Ø§ÙĪ
Ø¨ÛĮÙĨ ÛĮÙħ
Ġproject s
ĠÚĨ Ú¯ÙĪÙĨÚ¯ÛĮ
Ø§ØŃ Øª
Ġinn ov
Ġcarry ing
m ine
Ä ģ
ĠÚ© Ø§ÙħÛĮ
Ù¾ ÙĨØ¬
ĠØ¨Ø¯Ùĩ ÛĮ
ĠØ§Ø¬ØªÙħØ§ Ø¹
ĠÙħØ¬Ø¯ Ø¯Ø§
ĠÙħÛĮ Ø±
ĠØ¨Ø§ ÙĩØ§
ĠÙĩÙħ Ú©Ø§Ø±
Ġ" .
Ġch osen
ĠÙ¾ÛĮØ´ ÛĮÙĨ
Not hing
T om
Ùĩ Ø¯Ùģ
Ġh ydro
Ġany where
Ø§Øµ ÙĦØ§
het ic
ĠÙĨ ÛĮØ§
Ġf an
Ġf ran
ate ll
ĠÛ±Û¹Û ¸Û°
ÙĪØª Ø±ÛĮ
ĠØ¯ÙĪ ÚĨØ±Ø®Ùĩ
Ġexp ressed
rie ved
ĠØ±Ø£ ÛĮ
c s
Ġh ill
ĠF rodo
rou s
ĠØ¬Ø§ÛĮ Ø´
Ġorigin ally
ĠÙģØ´ Ø±Ø¯Ùĩ
Ġ Ï
ÙĪ Ø§Ø³
Øª Ø¹
ĠØ³ ÙĩÙħ
Ø±Ø¯ Ú¯ÛĮ
ĠÙĤ ÙģÙĦ
Ġsu it
ØªØ±Ø³ ÛĮØ¯
g ment
Ú© ÙĪØ´ÛĮØ¯
ĠÙ¾ Ø±Ùĩ
ĠL ife
ÙĬ ÙĦ
Ġun ique
ĠØ¨ÙĨ ÙĪÛĮØ³
Ġcour age
ĠÙħØ´Øª Ø§ÙĤ
Ġcolle ge
Ġeffort s
ĠØ§Ø¹Ø¯ Ø§Ùħ
8 6
Ġin cl
Ġpr ide
ĠØ³ÙĦØ§Ùħ ØªÛĮ
ÙĦØ±Ø² ÛĮØ¯
Ġthro at
ĠØª ÙĩØ±Ø§ÙĨ
ĠØ´ÙĨ ÛĮØ¯Ùħ
Ġfort une
ĠÙħÙĪ Ø§ÙģÙĤ
ĠØªØ¬ Ø¯ÛĮØ¯
Ġyoung er
Ġdiv ided
Ġsuff er
ĠÙħØ¨ Ø§Ø¯Ø§
ĠØ±Ø¯ÛĮ Ùģ
o or
ro l
ĠEm pire
iqu es
Ġplat form
3 2
ĠÙĪ Ø§Ø¯Ø§Ø±
Ġab and
ĠW omen
ĠØ§Ø³ Ú©ÙĨ
Ġpo ll
ĠØ³Ùĩ Ø§Ùħ
ĠØ§ØŃÙħÙĤ Ø§ÙĨÙĩ
y er
ĠÙģ ÙĤ
Ġpl ans
Ġsol id
Ġadv anced
Ġprogram ming
Ġcomput ers
Ġredu ce
at ically
Ġc odes
Ġn orthern
if ying
Ġkn ees
ĠØªØŃ ÙĪÛĮÙĦ
ĠØ¢ÙĪØ±Ø¯ ÙĨØ¯
Ġacc omp
P l
Ġb an
le ment
ĠÚĨ ÙĪØ¨ÛĮ
ĠØ¨Ø§Ø² Ø¯ÛĮØ¯
Ġaf fection
ĠØ²Ø¯ ÙĨØ¯
ĠSe e
Ġoper ations
Ġconcern ed
F C
Ú© Ø±Ø§Ø³ÛĮ
ĠØ§ Ø±Ø¯ÙĪ
Ø´ Ø®Øµ
Ø¨ ØªÛĮ
ĠØ§Ùħ ÙĪØ§Ø¬
Ġlight s
Ġphys ic
Ġsaf ety
I A
ĠØ¢ Øª
ill ed
Ø´Ø¯ Ùħ
ĠÙĨÙĪ Ø§Ø±
ĠÚ¯Ø±ÙģØª Ø§Ø±
ĠÛ²Û ²
Ġvis ual
Ġc ere
ĠØ¢ÙĨ ÙĦØ§ÛĮÙĨ
ĠØ¨Ø§ÙĦ Ø§ÛĮÛĮ
ÙĪÙģ Ø§ÙĨ
E N
ÙĪ Ø¹ÛĮ
ut ch
ay a
am ber
ĠØ³Ø±ÛĮ Ø§ÙĦ
Ġcrit ical
Ġphilos ophy
Ø§ÛĮ Ø²
Ġact ions
hes is
ĠØªÙħØ§Ø´ Ø§ÛĮ
Ġdifficult y
ĠOff ice
ad or
ĠÙģ ÙĪÙĦ
ĠÙħÙĩØ± Ø¨Ø§ÙĨÛĮ
Ġb ra
ver ty
ĠÙħÙĨ Øµ
ha pp
Ġprotect ion
Ġter rit
Ø§ÙĨÚ¯ Ø§Ø±
ĠÙħØ® ÙĦÙĪ
ĠØ§Ø« Ø±ÛĮ
ĠÙĩØ± ÙħÛĮÙĪÙĨ
Ú©ÙĦ ÙĨÛĮÚ©Ùģ
ĠØ¨ÛĮÙĨ ÛĮØ¯
Ġpo verty
Ø±ÛĮÙĤ Ø§ÛĮÛĮ
Ġdescri be
Ġmov ie
ĠÙħØ¤ Ø«Ø±
ĠÙħÙĦØ§ØŃ Ø¸Ùĩ
x ford
ĠÚ© Ø¬Ø§Ø³Øª
Ø§Ø³ Ø±
ĠØ±Ø§Ùĩ ÙĨÙħØ§ÛĮÛĮ
ph one
ĠØ¢ÙĦ ÙĪØ¯Ùĩ
raz y
Ø¨ Ú¯Ø°Ø§Ø±
un n
ÙĨ Ø§ÛĮ
Ġs outhern
ed y
ĠØ® ÙģÙĩ
ĠØ±ÙĪ Ø´ÛĮ
ĠØ±ÙĪ ØºÙĨ
ĠSt ep
ĠØ¹Ø± ÙĤ
ĠÛ±Û¹ Û°Û
Ñ Ĥ
ĠØ¨Ø± ÙĨ
ĠI P
Ø±ÙĪ Ø´
Ø´ÙĨ ÛĮØ¯
Ġexpl an
ĠÙ¾ Ø±Ø§Ú©
ĠH uman
ĠØªØ±Ú©ÛĮ Ø¨ÛĮ
ĠØ§ ÙħÙĨ
ĠT ri
ĠÚ©ÛĮ Ø³Ùĩ
Ġdri ving
Ġtom orrow
Øª Ùģ
Ġg ro
ĠâĢ ¦
Ġsupp ly
ĠØ®ÙĦØ§ ØµÙĩ
Ġfright ened
ĠØ¨Ø±Ø² ÛĮÙĦ
Ġm axim
Ġact ual
ĠØ¬ÙĨ Ø§ÛĮØª
ĠÙĦØŃ Ø¸
ÙħØ±Ø¯ ÛĮ
Ġloc ation
Ø³ Ø§ÛĮØª
Ú¯ ÙħØ§ÙĨ
Ġhe ight
ĠØ®ÙĪØ¯ Ø¯Ø§Ø±ÛĮ
un ist
Ġphys ics
ĠÙħ ÙĪÛĮ
le g
ĠØ¬ ÙĪØ±ÛĮ
ĠAlexand rov
ĠÙħÛĮ ÙĪÙĩ
ĠØ´ ØªØ±
ĠÛĮ Ø§Ø±
ĠC as
ĠØ§Ø³ ÛĮØ¯
ĠØªØµÙĪÛĮ Ø±ÛĮ
Ġenorm ous
G od
ĠØ± Ø¹
Ġv ia
Ġprom ised
ĠÚ© Ø§Ø³Øª
st airs
ÙħÛĮ ÙĦÛĮ
ĠÚ¯Ø° Ø±Ø§ÙĨØ¯
Ġmach ines
ĠÙħØŃØ¯ ÙĪØ¯Ùĩ
y al
ÛĮ Ø±ÛĮ
ĠØº ÙĪÙĦ
ĠØ§Ø¨ Ø¯Ø§
ÙģØ§ Ø¹ÛĮ
Ġbit ter
ĠØµØ±Ùģ Ø§
ĠÙĤØ³Ùħ ØªÛĮ
Ø§ÙĨ ÛĮØ¯
Ø§ÙĦ ÛĮØ²
Ġcount y
ĠØ¬Ø± Ø£Øª
ĠØ§ÙħÛĮØ¯ÙĪØ§Ø± Ùħ
M L
b el
f fered
ĠØ§ÙĨØªÙĤ Ø§Ø¯
ĠØ³ÙĪØ¦ Ø¯
T oday
m osp
Ú© ÙĪÙĩ
Ø· ÙĨ
ĠR at
ap es
ÙħØª Ø´Ú©Ø±Ùħ
ĠØ®Ø· Ø§Ø¨
Ġ199 8
Øª ÙĪÙĨÛĮ
Ġe gg
ĠÚ©ÙĨ Ú¯Ø±Ùĩ
ĠØºØ± ÙĪØ±
ĠØ§Ø´ÛĮØ§ Ø¡
Ø³ Ø§Ø¯
ĠÙ¾ ÛĮØ¯
Ġst aff
ig er
ĠL os
ÙģØ± Ùĩ
Ġele ction
Ġexcl aimed
Øµ ÛĮØ±
Ø´Ùħ Ø§Ø±ÛĮ
Ġdes per
ĠØªØ¹ Ø§Ø¯ÙĦ
ĠØºÛĮØ± Ùĩ
ĠJew ish
Ġdefin ition
Ġbird s
it z
ĠØ³ ÙĢ
ĠI f
Ú¯Ø± ÚĨÙĩ
Ġan ger
ĠÙĨØ¨ÙĪØ¯ Ùħ
Ġprocess es
Ġmur m
. )
s es
v ant
ĠÚ© ÙĦÙĩ
ĠØ¨Ø¯ Ø¨Ø®ØªÛĮ
Ġun less
Ġbreak fast
ĠØŃØ±Ú© ØªÛĮ
ĠÚ©ÙĨØ¬ Ú©Ø§ÙĪÛĮ
ĠØ³ÙĦØ· ÙĨØªÛĮ
ĠØª Ø¸Ø§Ùĩ
Ú©Ø±Ø¯ ÙĨ
ĠØ§Ø®ÙĦØ§ ÙĤ
ĠVal jean
6 4
O ver
Ø¨ ÙĪØ³
ĠØ¢ Ø±Øª
Ġp ages
om pl
ĠØ§Ø³Øª Ø±
Ġlot s
ĠØ¨Ø±Ø³ Ø§ÙĨØ¯
ĠÚĨØ±Ø® Ùĩ
ĠÙħØ¨Øª ÙĨÛĮ
Ġcop y
ĠPri ze
ĠØ®Ø§Ø· Ø±Ùĩ
V ery
ĠÚ¯ ÙĦÙĩ
ĠØ§Ùĩ ÙħÛĮØªÛĮ
Ġdep th
ĠØ¯ÙħÙĪ Ú©Ø±Ø§Øª
ĠØ´Ú©ÙĨ Ø¬Ùĩ
ĠÙħØ·Ø¨ ÙĪØ¹
am ental
op er
Ġr andom
ĠØº Ø±ÙĪØ¨
Ġ201 7
ĠØªØ¬ Ø§ÙĪØ²
Ġda ily
S S
Ġo cean
ĠØ§ÛĮÙĨ Ø³Øª
ĠØ§Ø³Øª ÙĨ
ĠL ong
ĠT o
Ġcir cle
Ø¢ÙĦ ÙĪØ¯
Ġse m
ÙģØ± ÙħØ§ÛĮ
ons cious
ÙħØ¯ Øª
Ġcall s
ĠÙĤØ´ ÙĨÚ¯
ĠÙĦ Ø¹
ov itch
ĠØ¯ÙĦÛĮ ÙĦÛĮ
ĠÙĩ ÙĢÙħ
ĠW ashington
Ġacc ompl
Ġident ity
Ġd are
ĠØ§Ø³Øª ÙĪØ¯ÛĮ
Ġsu ffered
ĠÙĩÙħÛĮÙĨ Ø·ÙĪØ±
Ø¯ ÛĮÙħ
Ø² ÙĨØ§ÙĨ
Ú¯ ÙĪÙĨÛĮ
ĠÙĨ Ø§Ú©
ĠØ¯Ø± ÙħØ§ÙĨÛĮ
ĠØ² Ø´Øª
ÙħÛĮ ØªØ±ÛĮ
ĠÙħØ³ØªÙĤÛĮÙħ Ø§
Ġphot ograph
ĠÙĪ Ø§Ø´
ĠÙĪ ÛĮÚ©
ĠØ¯Ø± Ø´Øª
ĠØ¬ÙĨ Ø§Ø¨
ĠØ¶ Ø¹Ùģ
ĠÙħØ¯Ø§Ø± Ø³
ĠÚ© Ø§Ø®
Ù¾ ÙĪØ³Øª
Ù¾ Ø°ÛĮØ±ÛĮ
ĠØ§Ø³ØªØ±Ø§Øª ÚĺÛĮ
ĠØª ØºØ°ÛĮÙĩ
ic ago
Ġreg ions
ĠDem ocr
Ġnerv ous
ĠR ad
ĠØ´ÙĨ Ø§Ø³ÛĮ
Ġsm oke
Ġgra v
b ly
w w
Ġp it
Ġn arr
ĠÙĤ Ùģ
Ġcomm unities
Ġac id
Ġburn ing
ĠØ´ÙĩØ±ÙĪ ÙĨØ¯Ø§ÙĨ
ĠØª Ø®ØªÙĩ
ĠØŃ Ø§ÙĪÛĮ
ĠØ¹ Ø±ÙĪØ³ÛĮ
ĠØ¯ÛĮ ÙĪÛĮØ¯
ĠØ¯Ùĩ Ø§ÙĨØ´
Ġmur der
Ø¯ Ø§Ø³ØªØ§ÙĨ
Ú© ÙĪØ±
ĠÚ© ÙĪØ§ÙĨ
ĠÙĪ ØµÙĦ
ĠÙĩ Ø´Ø¯
Ø§ÙĤ Ø¨Øª
ĠÙ¾ÛĮØ´ Ø±ÙģØªÙĩ
ĠÚ©ÙĦ Ø¨Ùĩ
Ġcre ation
ĠØ§ÙħÙĨÛĮ ØªÛĮ
Ġcapt ain
ĠØ´Ø§ÛĮ Ø³ØªÙĩ
Øµ Ø¯Ø§
ĠÙģØ± Ø§Ø²
Ġpro of
Ġdes k
ĠØ¹Ø¯ Ø§ÙĦØª
ĠÚ¯Ø±Ø³ ÙĨÚ¯ÛĮ
l ow
ĠØ¯ Ø§Ø³Øª
ĠÚ© Ø¬
ĠÙĨ Ø¨Ø§
ĠB ur
ÙĨÛĮ Ú©
ĠPro fessor
Ġz ero
ĠÙħÛĮ Ú©ÙĨÛĮÙħ
ĠC aptain
ran g
ĠØªÚ©ÙĨ ÛĮÚ©
Ġant i
Ø¨ Ø§ÛĮØ³ØªÛĮ
ØŃ Ø±
Ġn odd
ÙĩØ§ ÙĬ
Ġsol ve
ÙħØ¹Ùħ ÙĪÙĦØ§
Ġse vent
Th ough
Ġrequ ires
ĠØ§ÙĨØ¯ÛĮ Ø´ÛĮØ¯
i able
z ed
ĠØ§ Ø°
ØŃ ØªÙħØ§
ĠØ¯ÙĪ ÛĮØ¯
ass ion
ĠØ¨Ø±Ø¯ Ø§Ø±ÛĮ
ĠØ§Ø±ØªØ¨Ø§Ø· ÛĮ
Ġb omb
ĠØ® Ø³ØªÚ¯ÛĮ
ut s
Ġconf idence
Ġtro ops
ĠÙ¾Ø±Ø§Ú© ÙĨØ¯Ùĩ
Ġa id
Ġa unt
ĠÛ±Û¹Û ·Û°
Ġacc ur
ann on
ĠTurk ish
ĠÙĪ ÙĪØ¯
Ġb ent
ĠÙĩØ³Øª ÙĨ
ens ity
ĠY es
Ġadv ice
Ġpolit ics
Ġstay ed
Ġth row
Ø³Ø§ Ø¹Øª
Ġdecl ared
Ġin fect
ĠA ri
Ġsy mp
Ġ198 6
ĠØ§Ø¯Ø¨ÛĮ Ø§Øª
ĠØ¯Ø§ÛĮ Ø±Ùĩ
ĠÚ© Ø§Ø²
ic y
ĠÙħÙĩ ÙħØ§ÙĨÛĮ
ĠÚ©ØªØ§Ø¨ ÛĮ
Ø¸ÛĮ ÙħÛĮ
Ġhot el
Ġgrad u
Ġp ig
Ġord inary
Ġcontr ast
7 0
k ins
Ġw ore
ÙĤ Ø§Ø¨
ĠØ¯Ø± Ø´
an o
and ed
ÙĨØ§ Ù¾Ø°ÛĮØ±
ĠØªØ® ÙħÛĮÙĨ
Ġinit ial
Ø§Ø·ÛĮ Ø³ÛĮ
Ġass ist
Ġabs or
Ġteac her
ĠØ´Ø§Ø¹ Ø±
Ġtong ue
M iss
ĠØ¨ ÙħÛĮ
Ø§ØŃ ØªÙħØ§ÙĦ
Ġprov ides
Ġindust rial
y p
ĠÙħ Ø¹ÛĮ
Ġan aly
Ġbl ank
Ġinterp ret
ĠÙħØµØ§ØŃ Ø¨Ùĩ
Å į
ĠÙĨ Ø¹
ĠØ¹ÙĨ Ø§ØµØ±
Ġt aste
ĠØ¬ Ø§Ø±ÛĮ
ĠØ´Ø¯ ÛĮØ¯ÛĮ
Ø§ØŃ ÛĮ
G r
en ger
Ú¯Ø° Ø±Ø¯
Ġwr iter
Ġlim it
Ġp hen
Ø§Øª Ø´
Ġfor ty
Ġfact ors
arr ass
Ġrapid ly
Ù¾ ÙĪÙĦ
Ø§Ùħ ÙĦÛĮ
ĠØªØ¹ Ø§ÙħÙĦ
Ġst aring
ust ed
ĠÙħØ¬ Ø³ÙħÙĩ
Ġpre cise
Ġemot ion
ĠØªÙĤØ§Ø¶ Ø§
ĠØ¯ÛĮØ¬ÛĮØª Ø§ÙĦ
r ich
ĠØª Ø³Øª
ĠØ® Ø§ÙĦÙĩ
ĠØ¨Ø± Ø³Ø§ÙĨ
Ġcomple ted
Ġeas ier
urg is
Ġteac hing
ĠV er
ĠÙĪØ³ÛĮ Ø¹
Ġrecogn ize
Ġfa ult
Ġdesp ite
Ø³ ÙĪØ²
ĠÙĨ Ø§ÙĦÙĩ
le ase
ĠÚ©Ø§ÙĦ Ø¬
Ġin ternal
rom e
Ġ199 4
b ur
Ø§Ø³ Ø§Ø³
Ġli qu
gg ie
ÙĦØŃ Ø¸Ùĩ
E l
i ro
Ä Ł
ĠÙĩ ÙħÛĮØ´
Ġl aughter
Ġre ject
ĠØ¨Ø¨ÛĮÙĨ ÙĨØ¯
ĠÙħØ±Ø¨ Ø¹
Ġcoll abor
ĠØ¨Ú¯ Ùħ
Ġconscious ness
Ġconvin ced
ac ters
ĠC amp
ĠP akistan
ĠØ¯ÙĪ Ø®ØªÙĩ
Ø¦ Ùħ
ĠÙ¾ÛĮ Ú©Ø±
ĠØ± Ø¯Ùĩ
ĠD el
ĠÛ²Û ³
Ġrese arc
ĠÙĤ Ø§Ø±Ùĩ
ĠÚ©ÙĦ Ø§Ùħ
ĠØ° Ø±Ø§Øª
Ġcost s
Ġinn oc
or a
Ġout put
are n
ĠØ¬ÙĨ Ø³
u ing
Ø´Øª ÙĨ
Ú¯Ø± Ø§
Ġdet ails
at tered
Ġun ex
ĠØªØ´ Ú©Ø±
Ġfact or
Ġfail ure
Ġrob ot
A L
p ired
s k
w ar
ĠÚ© Ø§ÙĪ
ĠØĮ âĢĮ
ĠØ³ ÛĮØ¯
Ø§Ùħ Ù¾
ĠC ath
Ġat mosp
ĠØ´ÙħØ§ Ø³Øª
Ø§Ùģ ÙĦ
Ø¯Ø§Ø¯ Ùħ
Ġche er
Ġstat us
ĠÙħÙĤØ§Ùħ Ø§Øª
ĠÙĩÛĮØ¯ Ø±ÙĪ
ĠÚĨ ÙħÙĨ
Ø±ÛĮ Ø²
Ġform al
w orth
Ø±Ø§ Ø³ØªÛĮ
ĠE conom
ĠØ§Ø± Ø´Ø¯
Ġdeep ly
Ø§ÙĨØ¯ÛĮ Ø´ÛĮØ¯
Ġstrugg le
Q u
en cies
al le
Ġg rey
ĠØªØ§ Ø¬
est y
ĠÙħØª ÙĤØ§
Ġph r
Ġincre asing
Ġra ise
Ġcred it
Ġapprox imately
Ġp ra
Øµ Ø±ÛĮ
Ú¯Ø± ÙħÛĮ
Ġcont em
ĠÙĨÚ¯Ùĩ Ø¨Ø§ÙĨ
ĠÚ©Ø§Ø±Ø¨Ø±Ø¯ ÛĮ
S P
o z
ĠØ¨ Ú©ÙĨÛĮÙħ
ĠÛĮÚ© Ø´ÙĨØ¨Ùĩ
ig hed
ĠØ¹Ùħ Ùĩ
Ġvis ible
Ġtru ly
Ġir rit
ĠØ¨ÙĪØ¯ Ø¬Ùĩ
In stead
Ġ199 6
Ġla unched
ĠÙħÙĪÙĦ Ú©ÙĪÙĦ
ĠØ³Ø¹ Ø§Ø¯Øª
Ġaf ford
ĠÛ¸ Û°
Ġsymb ol
Ġthe ore
ĠØ§ÛĮÙĨ Ú©Ø§Ø±
ĠÙģ ÙĪØ±ÛĮ
Ø¯Ø± Ø¨Ø§Ø±Ùĩ
ĠF ree
Ġmove ments
ĠØ´Ø¹ ÙĦÙĩ
ĠÙħØ² Ø§ØŃ
ĠØ¬Ø¯ ÙĪÙĦ
Øª Ø®Øª
Ø§Øª ÙĪØ±
Ġv ul
ĠØ§Ø´ ØºØ§ÙĦ
Ø¬ÛĮ Ø¨
Ġaffect ed
Ġdestroy ed
Ø§Ø¨ ÙĦÙĩ
Ø¢ Ø´
Ġpro ve
ĠØ¹ÙĨ ØµØ±
ØªØµ ÙĪØ±
Phil ip
Ù ł
ĠØ¨Ø§ Ø¨Øª
Úĺ ÛĮÙħ
ĠK e
Ġsee k
ĠØ±ÙĪØ³Øª Ø§
Ġestab lish
ĠÙĪØ§Ø³ Ø·Ùĩ
Ġextraord inary
S p
Ġ ing
Ġc od
ĠÚ©ÙĨ Ø§ÙĨ
ĠØ· Ø±Ø§ØŃ
ĠÙ¾ÛĮ ØªØ±
ĠØ¨ Ø®ÙĪ
ive red
pl ace
ip ment
Ġset ting
ĠJew s
Û²Û° Û°Û
ĠØª ÙĢ
ĠÚ©Ø§Ø± ÙĦ
ÙĪÙĦÛĮ Ú©
Ġbus y
Ġtechn ologies
Ġexch ange
Ġb en
Ø§ÙĦ Ø¨Ø§
ÙĪØ± Ú¯ÛĮØ³
ap ter
ĠØ§Ø³Ø§Ø³ Ø§
ĠØ³Ø§Ùħ Ø§ÙĨÙĩ
if orm
ĠÙģÚ©Ø± Ø´
ĠØªÙĤ ÙĦ
ĠSe a
ĠØ³Ø§ÙĦ Ø§ÙĨÙĩ
ĠØªØ¬ Ø±Ø¨ÛĮ
Ġpass age
ĠØ³Ù¾ Ø±ÛĮ
S I
ĠØŃ Ø³Ø§Ø³
ÙĦÛĮ Ú©ÙĨ
Ø´Ø§ÙĨ Ø¯Ùĩ
ak s
ĠØ§ÙĨØ¯ Ø§Ø²
ĠÚ©Ùħ ÙĪÙĨ
Ġeng aged
Ø´ Ø±
ĠÙĪ Ø¹Ø¯Ùĩ
Ġse ized
ĠN ob
ÙĤØ§ÛĮ ÙĤ
ĠÙħÛĮØ² Ø¨Ø§ÙĨ
ĠÙģØ±Øµ ØªÛĮ
ĠÙĨØ§Ø¯ ÛĮØ¯Ùĩ
Ù¾ ÙĨØ¯Ø§Ø´Øª
ĠÙĨÙĪ Ø¬ÙĪØ§ÙĨ
Ġexam ples
ĠGeor g
Ø¢ÙħÛĮ Ø²ÛĮ
ĠT ex
ĠØ¨ÙĨ Ø§Ùħ
Ġanx ious
Ġt ail
ĠØªÙĨ Ùĩ
ĠØ¢Ø² ÙħÙĪÙĨ
Ġdi agn
d a
Ø¬ Ø¯
Ø§ÙĦ ÙĦÙĩ
ÙĨÚ¯ Ø§Ø±ÛĮ
ÙĨØ´ ÛĮÙĨÛĮ
yd gate
ĠØ¨ ØµÙĪØ±Øª
ĠÙģ ÙĨÛĮ
im a
Ġwith d
ĠF ound
li ver
Ġcy cle
Ġdefe nd
ĠØ¢Ùģ Ø±ÛĮÙĤØ§ÛĮÛĮ
Ġ Å
Ġre ck
ri ff
Ġch ain
ĠV oices
ĠØ¯Ø³ØªÙĪØ± Ø§ÙĦØ¹ÙħÙĦ
Ġhur ried
ĠØ§Ø´Ú© Ø§ÙĦ
Ġsong s
Ġdru gs
e ven
Ġf ancy
Ø®Øª ÙĨ
ĠØ³Ø± ÙĪØ±
ÙģØ± Ùħ
Ġstart s
Ġdec ide
Ġnetwork s
ĠÙĩÙħÛĮØ´ Ú¯ÛĮ
i at
Úĺ Ø§ÙĨØ³
av y
Ġhuman ity
ĠÙĪØ¶ Ø¹ÛĮ
Ġchar acters
Ġsing ing
ĠØ§Ø±Ø² Ø§ÙĨ
Ġhealth y
Ġbrother s
ĠØ§ÙĦÚ©ØªØ±ÙĪÙĨÛĮ Ú©ÛĮ
ĠØ¨ ÙĨÚ¯
ĠØ´Ú© Ø§Ùģ
ĠØŃØ³ ÙĨ
Ø¢ÙĪØ± ÙĨØ¯
E n
Ø§ÛĮ Ùģ
ÙħØ§ÛĮ Ø²
ĠØ¯Ø§ÙĨØ´ Ú©Ø¯Ùĩ
ĠØ¬ÙħÙĩ ÙĪØ±
ĠØ¸Ø±Ùģ ÛĮØª
ĠAcad emy
Ġa x
Ġw et
Ġc ro
ĠÚ¯ ÙĪØ¯
ĠÛ±Û ¶Û
Ġmet al
ĠØ±Ùĩ Ø¨Ø±Ø§ÙĨ
ĠØŃÙĪ Ø§Ø¯Ø«
ĠQu ix
ĠÛĮÙĩÙĪØ¯ÛĮ Ø§ÙĨ
Ù Ĵ
ĠØ§Ùħ Ø±ÛĮÚ©
Ġbl ow
ĠÙ¾Ø§ ÙĩØ§ÛĮ
ĠÙĥ Ø±Ø¯
Ġadv ance
Ġstruct ures
Ġemb arrass
Ġestim ated
ar l
Ġe ffic
ĠÙĩÙħ Ø¯
Ġne ur
ĠÚ©ÙĪ Ø¨
ÚĨØ´ ÙħØ§ÙĨ
e qu
ã ģ
Ġt um
Ġt ort
Ú© ÙĢ
ĠØ§Ø¹Øª Ø¨Ø§Ø±
ĠÚ¯ÛĮØ± ÙĨØ¯Ùĩ
ĠÙģÙĦØ³ Ø·
Ø§Ø³ Ùħ
Ġbl ess
Ġworld wide
ÙħÙĨØ¸ ÙĪØ±Ùħ
Ġw aves
ĠØ¯Ø± Ú¯ÛĮØ±ÛĮ
ĠØ¬ Ø±Ø§ØŃÛĮ
Ġcon clud
Ġmy ster
Ġfig ures
Ġrecord ed
Ġsym pt
A g
om a
ĠÚĨ Ø§Ø¯Ø±
Úĺ Ø§ÙĨ
ult ural
ĠAr k
ĠÙħÙĨØ· ÙĤ
ĠTur key
Ù¾Ø±Ø¯ Ø§Ø®Øª
se y
ĠØ¨Ø§Ø² ÙĪÛĮ
ĠØ¹Ùħ ÙĤ
Ġset s
tt p
ĠÙ¾ÛĮÙħ Ø§ÙĨ
on ic
Ġc razy
ĠØ¬ Ø³Ùħ
ĠØº Ø§ÙĦØ¨Ø§
ĠQuix ote
A D
W ould
in ent
is p
Ġf ond
ar ge
ĠA re
ĠM en
Ġsw im
Ġfore ver
ĠØ¹ÙħØ¯ ØªØ§
ĠÙ¾ ÙĪÙĨØ¯
Ø§Ø· Ø¹
ĠÙĨÛĮ Ø´
ien cy
ĠØ¢Ø´ÙĨ Ø§ÛĮÛĮ
n ic
Ú¯ ÛĮÙħ
Ġf et
Ġp ushed
il a
ĠL ake
ĠÚ©Ø§ÙħÙ¾ÛĮ ÙĪØªØ±ÛĮ
ĠØ¯ÙħÙĪ Ú©Ø±Ø§Ø³ÛĮ
Ø¯Ø±Ø® Ø´ÛĮØ¯
Ùħ Ø±ÛĮ
ĠØ§ ÙħØ§ÙĨ
ĠÚ¯ Ø´
ad ian
Ġstr ate
Ġrepl aced
Ø¬ÙħÙĩ ÙĪØ±
ĠØªØ§Ø² Ú¯ÛĮ
U s
ĠB or
ĠÙģØ±Ø§ ÙĪØ§ÙĨÛĮ
Ġpur ch
Ġbas ically
ĠØªØ¬ÙĩÛĮØ² Ø§Øª
Ġstrate gy
ic an
ĠØ¨Ø± ÛĮÙħ
ĠØ¬ Ú©
ack s
ĠØ¨Ø® Ø´ÛĮØ¯
Ġtre ated
ĠØ§Ø¶ Ø§ÙģÛĮ
ĠKore a
er ves
el lect
av ed
ĠÙħØ± Ø§Øª
s ome
Ġt al
ĠØ¯ ÙħØ§ÛĮ
Ġg ather
ĠC ap
ĠØ±ÙĪ Øª
iv odes
ĠÙħØ¯ ÙĨÛĮ
ĠØŃÙħÙĦ Ø§Øª
ivodes hip
ĠÙĨ ÙħØ§ÙĨØ¯Ùĩ
ĠØ´ ÙĦ
ĠØ¨Ø±Ø§ÛĮ Ø´Ø§ÙĨ
ÙħØ§ ÙĤ
ĠB ay
ĠB ig
ĠØ²ÙĨ Ø´
ĠÙĤØ· Ø¹Ø§
ĠÙģÙĦ Ø²
ĠÙħØ¬Ø§Ø² Ø§Øª
ĠØ¨ ÙģØ±Ø³Øª
ĠØ± ÙģÛĮÙĤ
Ø¯Ùĩ ÛĮØ¯
ĠA v
ÙĨÙħ Ø§ÛĮØ¯
Ġfr ag
Ġhor ri
Ġsupport ed
ĠÙħ Ø¬Ø§
ĠÚ© Ø±ÛĮØ³Øª
ĠÚ©ÙĨ ÙĪÙĨÛĮ
ĠØ³Ø± ÙħØ§
Ġun com
Ġnum erous
Ġadd itional
Ø¨Ø±ÛĮ Ùħ
Ġequ ival
Ġf aint
ĠServ ice
ĠØ¹ Ø±ÙĪØ³
ĠØ§Ø³Ø¨ Ø§Ø¨
ÙĤ ÙĦØ¨
ĠØ¨Ùĩ Ùħ
ĠØªÙģ Ø³ÛĮØ±
ÙĨ ÛĮÙħ
on ly
Ġwhe el
Ġsa ved
pect ive
ĠØ³ÙĨÚ¯ ÛĮÙĨÛĮ
ĠÙħÚ© Ø²ÛĮÚ©
Ġ195 0
ĠØ§ÙĤØ¯Ø§Ùħ Ø§Øª
Ġl at
ot ion
Ġex hib
ÙĪØ±ÛĮ Ø³Ùħ
Ġclose ly
ĠÙĤÙĦØ¨ Ø´
Ġcand id
C C
ÛĮÙĨ Ø²
Ø¬ ÙĪÛĮÛĮ
ch ief
ĠÛ²Û°Û°Û ²
Ġ199 5
Ġdev il
ĠÚ©Ø«ÛĮ Ùģ
Øª Ø§Ø²Ùĩ
ĠC up
Ø¨Ùĩ Ùĩ
ĠÙħØª Ø±ÛĮ
Ġserv ant
ĠBr own
Ġauthor ity
is her
ĠF ace
ĠÙħØ¹ Ø§ÙħÙĦÙĩ
ĠÚ©ÙĪÚĨ ÙĪÙĦÙĪ
mb ly
ĠÙħÙħÙĨ ÙĪØ¹
ĠØ¯Ø§ÙĨØ´Ø¬ÙĪÛĮ Ø§ÙĨ
ĠÙĪ Ø¸
im p
ĠPro ject
ĠSec urity
ĠØ¨ ØºÙĦ
ÙĪÙĦ ÛĮØ¯
Ġun its
ĠÛ²Û°Û°Û ±
Ġmag azine
ĠØ¬ÛĮ Øº
ĠØªÙĤØ§Ø¶ Ø§ÛĮ
Ġdisappe ared
c ase
ĠÚ©ÙĨ ÙģØ±Ø§ÙĨØ³
ĠØ±Ø³Øª ÙĪØ±Ø§ÙĨ
Ġe ating
ĠJ ournal
Ø´ÛĮ ÙĨØ¯
Ġmot or
z ing
ĠØ¯ ÙĪÙĨÛĮ
ing ing
ĠØ¨Ø± Ø§Øª
ĠØ¬ ÙĪØ´
ot a
et te
ĠS ur
ĠC P
so ft
Ġ18 6
Ġtra ffic
Ġjud ge
ĠSund ay
Ø§ÛĮ ÙĦÛĮ
ĠØ®ÙĪØ¯ Ú©Ø§Ø±
ĠO fficial
Ġfe ver
ĠÙĨØ§Ù¾ Ø°ÛĮØ±
Ġhur ry
Ġcross ed
ĠVo ivodeship
B es
ĠØ¨ Ø®ÙĪØ±Ø¯
ĠØ¯ Ú©
Ø¨ Ø³Øª
Ġw ww
Ġr um
Ø§Ø´ ÛĮÙĩ
Ġcur ious
ĠÙĪØ± ÙĤ
ĠWe b
ampions hip
Ġc ig
ĠØ³ Ú©Ùĩ
ĠÚ©Ø´ ÙĪØ±ÛĮ
ĠØ´ÙĨ Ø§
ĠPers ian
O L
at re
ĠØ¨Ùĩ Ø§ÙĨÙĩ
ĠÙħÙĤ Ø§Ø¨ÙĦÙĩ
ĠØªÙĦ ÙĤÛĮ
Ġaff airs
Ġchall eng
ĠÚ©ÙĪØ´ Ø´
ÙĪ ÚĨ
ÙĪ ÙĤÛĮ
ĠM ic
ak h
ĠØ¨Ø¯ ÙĦ
ose tte
ĠÙħÙĨØ¸ Ùħ
Ġill ness
ĠÙħÙĩØ§ Ø¬Ø±
Ġmedic ine
Ġp owers
ĠØ¨Ø± ÙĪÛĮ
ĠØ±ÙģØª Ø§Ø±ÛĮ
Ġac ad
ĠØ¸ Ø±ÛĮÙģ
ĠØ±ÙĪØŃ Ø§ÙĨÛĮ
Ġhon our
Ġc ow
Ġso il
ĠØ®Ø§ÙĨ Ú¯ÛĮ
Ġ199 7
Ġsign s
ĠEm peror
Ð¾ Ð
Ġmind s
ĠÙħØ±Ø§ÙĤ Ø¨
Ġarrest ed
Ø®Ø¯Ùħ Øª
ĠØ§ Ø±Ú¯
ĠÚ© ÙĪÙĦ
Ú©Ø§ÙĨ Ø³
Ġreg ret
ĠCar l
Ġmiss ing
Ø§ÙħÛĮØ¯ ÙĪØ§Ø±
y et
ĠØ¨ ÛĮØ²
ĠØ§ÛĮ ÙĢÙĨ
ĠÙĨØ§Ù¾ ÙĦØ¦ÙĪÙĨ
ÚĨ Ø§Ø±Ø¯
ur ance
ĠS um
Ġdesp air
ÙĦ Ø§ÙĨ
Ġf asc
ig r
Ġdec re
Ġinv ited
ĠMex ico
othe a
v is
ÙĨ ÙħØ§
ØŃ Ø§Øª
ĠO ld
ĠØ¨Ø® Ø§Ø±
ĠØŃØ¯ Ø§Ú©Ø«Ø±
ĠÙ¾ÙĨØ¬ Ùħ
ĠCl ub
Ġhistor ical
ĠØ¨Ø· Ø±ÛĮ
t ical
ÙĦ Øª
ĠÙĨ Ú¯ÙģØª
Ġwe l
ĠR ights
ĠØ¢ÙģØ±ÛĮ ÙĤØ§ÛĮ
Ġeld er
p art
ĠÙĨ ØµÛĮ
ÚĨ ÙĩØ±Ùĩ
th ur
Ġk m
os a
Ġdo zen
ĠØ¢Ø³ Ø§ÙĨÛĮ
Ġprof ound
Ġbur ied
Ġinstit utions
ĠØŃ Ø¬Ùħ
am ma
ĠG ood
lo g
ĠØ§ÙĦ ÙħÙ¾
ĠØ´Ú© Ùħ
ĠØ±Ø³ÛĮØ¯ ÛĮÙħ
Ġcur t
ĠØ§Ø± ÙħÙĨØ³ØªØ§ÙĨ
ÙģÙĩÙħ ÛĮØ¯
Ġredu ced
Ġmist ake
B M
Ġu pper
Ġcon ver
Ġman age
Ø§Ø±Øª ÙħØ§ÙĨ
ĠGovern ment
2 4
s ky
Ġm urd
Ġin hab
Ø¶ Ùĩ
Ġint ention
ud ge
ĠÙĨÙħÙĪØ¯ Ø§Ø±
ĠÙħØ§ÙĦÛĮ Ø§Øª
Ġmount ains
ĠPal est
ĠÙħØ¨Ùĩ Ùħ
ĠTex as
³ Û°
Ø§Ø¯ ÙħÛĮ
ĠØ§ÛĮÙĨ Ø¬Ø§Ø³Øª
ĠC D
Ø¢ Ø¯Ùħ
Ġdec ades
cul iar
ĠØ¨ Ø¬Ø§ÛĮ
Ġsc ri
ĠØªÙĪØ§ÙĨ Ø³ØªÙĩ
Ġem br
Ġinst inct
ask ed
ĠØ¬Ø³ Ø¯
3 3
f rom
Ġl it
ĠE lect
ÙĬ Øª
ĠØ¨Ø¯ ÛĮÙħ
Ú¯Ø±Ø¯ Ø§ÙĨÛĮ
ĠÚĨÙĨØ§ÙĨ Ú©Ùĩ
ograph ic
Ġhor ror
Ġsequ ence
ĠÙĨ Ø§ÙĤ
Ġg ar
Øµ Ø¨ØŃ
ĠØ±ÙģØª ÛĮÙħ
ĠÙĤÙĦÙħ Ø±ÙĪ
ÙĪÛĮ Ø²
ĠC ivil
ĠØ· ÙĦØ¨
ĠØ¨Ø¯ ÙĨØ´
ĠØ´Ùĩ Ø±Ø¯
Ġfund amental
C P
ĠØ¯ Ø´Øª
ĠÙĦ ÙħØ³
ÚĨÙĩ Ø§Ø±
Ø°ÛĮ Ø±Ø¯
ĠØ§Ú© Ø«
Ġm ic
Ġg ay
Øµ Øª
ĠØ§Ø¬ Ø±Ø§ÛĮÛĮ
Ġcry ing
Ġviol ent
Ġrepresent ed
ĠÙĨÙĪØ² Ø§Ø¯
or ation
ĠS ar
Ġpro ved
ĠÛ² Û°Û°
be y
Ġ5 00
u pp
ĠØ¢ Ø¯Ø±Ø³
Ġst orm
ge nd
ĠÛĮØ§Ø¯ Ùħ
Ġprinci ple
ĠArmen ia
ĠØ³Ø±Øª Ø§Ø³Ø±
Ġy e
ĠP ublic
ĠL et
Ġcomp osed
Ġco ach
ĠÙħØ±Ø§ ØŃÙĦ
ĠÙĨØ¯Ø§Ø± ÛĮØ¯
Ġreve aled
Ùħ ÙĪØ±
Ġf aced
Ġd ign
ĠÙ¾ ÙĪØ±Øª
Ġun happ
Ġstand ards
Ú¯Ø±ÙģØª ÙĨØ¯
ĠÚĺÙĨ ØªÛĮÚ©ÛĮ
ĠÙ¾Ø§Ú© Ø³ØªØ§ÙĨ
Ġre ference
ost ov
Ġpe culiar
for ce
Ġthr own
Ø¯ÙĪØ´ ÛĮØ²Ùĩ
Ùħ Ø§Øª
ÙĦ Ú©ÙĨ
ĠÙĤ Ø¨Ø±
ud den
ĠØ¨Ú¯Ø°Ø§Ø± Ùħ
Ġdam age
ĠÚ¯ Ø´ØªÙĩ
ĠØ¨ÙĪØ¯ ÛĮØ¯
ÙĪÛĮ Ø§
ĠØ¨Ø§Ø² Ø¯Ø§Ø´Øª
Ø´ÙĨ Ø§ÙħÙĩ
ĠV ict
Ġequ ipment
Ġstran ger
Ġphen omen
Ġd ed
Ġse ction
ĠØ¯ÛĮ ÙĪØ§ÙĨ
Ġrem aining
ĠØ¬Ø² Ø§ÛĮØ±
ĠÙħØº Ø²ÛĮ
Ø¬Ø± Ø§ÛĮ
ĠØ´Ùģ Ø§Ùģ
ĠØ§Ø³ØªÙĤ Ø¨Ø§ÙĦ
ĠÙĩØ´Ø¯ Ø§Ø±
ĠØ§ ÙĬ
Ġsh oes
ĠN apoleon
Ġim pl
Ø¢ÙĨ Ø¬Ø§
Ġ3 5
Ġdec isions
ĠLe ague
Ġet c
ĠØ§Ø±Ùħ ÙĨÛĮ
Ġp ill
um ph
ord ers
ĠÙ¾Ø°ÛĮØ± Ø´
ĠØªØµØ§Ø¯ Ùģ
ĠØŃÚ© Ø§ÛĮØª
Ġn ations
Ġstr ing
n ie
ÙĨ ÙĪÙĨ
Ø³ Ø¹ÛĮ
ĠT or
less ly
Ġcontr ary
Ġfrequ ently
rons ky
² Û°
ĠÙħ Ø±Ùħ
ĠØ± ÚĺÛĮÙħ
Ġp ressed
ÛĮØ¯ Ø§ÙĨ
ag rid
ĠÚ©ÙĪÚĨÚ© ØªØ±
ĠÙĨÛĮÙħ Ú©Øª
Ġbig gest
ĠEm ma
c op
Ø§Ø± Ø³ØªØ§ÙĨ
Ø§Ùħ Ø§ÙĨ
ĠO K
Ġres istance
ĠØ¯ÙĪØ³Øª Ø§ÙĨÙĩ
ĠIn formation
Ġclass es
ĠComm ittee
B r
Ø« Ùĩ
ĠL ove
ĠÙĪØ§ÙĤ Ø¹Ùĩ
ĠØ³Ùģ Ø§Ø±Ø´
ĠPe ople
Ġcam era
Ġweap ons
v ard
at hered
ØŃ Ø±Ùģ
Ġwh ale
ĠÚ¯ÙĪ Ú¯ÙĦ
Ġtri al
Ġadop ted
Ġt iss
ĠØ¨ Ø¨ÙĨØ¯
Ġs ought
Ġqu e
Ġwr it
Ġdel ay
ĠÙ¾ÙĩÙĦ ÙĪØ§ÙĨ
ÙĪ ÙĩØ§
es sel
ĠØ¯Ø§Ø± Ø§ÛĮÛĮ
Ø¨Ùĩ ØªØ±
ĠO pen
ĠØ±Ø³ Ø¯
Ġocc urs
ĠØ¨ÙĢ Ø§
ĠØ±ÛĮØ§Ø¶ÛĮ Ø§Øª
ĠÙĨ Ø±Ø³
ĠØ¬ Ø§Ø³
Ġbe ings
Ø±ÛĮ Ø³
id ers
ĠØ¨Ø§Ø² Ú¯
Ø´ÙĨØ§Ø³ Ùħ
ĠØ¢ÙħÛĮ Ø®ØªÙĩ
Ġp il
Ġd ynam
le ts
Ġst ress
ĠÛ²Û ·
Ġposs ibility
ĠÛ²Û°Û±Û ¶
ĠØ¯ÛĮØ± ÙĪØ²
ĠØªØ®Øª Ø®ÙĪØ§Ø¨
ĠØ®ÙĦÛĮ Ø¬
ĠÙħÙĪ Ø§Ø¸
ĠØ¯Ø§ÙĨ Ùħ
ĠØ¬Øº Ø±Ø§ÙģÛĮ
T S
m al
Øª ÛĮÙĨ
an ia
ÙĨÚ¯ Ø§Ø±
ĠÙ¾Ø§ Ù¾
Ġmor row
ĠØ¯Ø§Ø³Øª Ø§ÙĨÛĮ
c ried
s m
ĠØ¬ Ø§Ø¨
Ġar med
Ġpers ons
ÙģÙĩÙħ Ùħ
Ġaff air
Ġb order
ot ing
Ġcon vent
ĠØ±Ø§Ùĩ Ø±ÙĪ
Ġ3 1
Ġproper ties
ĠØ® Ø§ÙĪØ±
ad o
ĠD ervish
ĠE st
ĠW ood
ĠØ¨Ø¹Ø¯ Ø§Ø²
Ġdist ant
Ġexperien ced
) ;
B A
Ø² Ø±
Ġm ood
Ø¹ Ø§Ø±
Ġg est
ĠØ¹ Ø¨Ø¯
ĠÚ¯Ø± ÙħØ§
Ø®ÙĪØ§Ø³Øª Ùĩ
Ġplay ers
Ġgovern ments
ĠØ³ÙĪÙħ ÛĮÙĨ
Ú©Ø§Øª Ø±ÛĮÙĨ
Ġfavor ite
Ġbenef it
re te
ĠØ³ Ø¯Ùĩ
Ø§Ø¯ ÛĮØ±
am ie
Ġany way
ĠÚ©ÙĦ ÛĮØ¯ÛĮ
ĠSy ria
I M
ÙĪ Ú¯Ø±
Ø³ ÙħÛĮ
at o
ĠÚ¯Ø°Ø§Ø´Øª ÙĨ
Ġdom estic
U p
ĠÙĩÙħ Ø±Ø§ÙĩÛĮ
ĠCh icago
Ġbegin s
Ġprev iously
Ġinstruct ions
m other
ĠØ¯Ø± Ø¢ÙħØ¯Ùĩ
Ġl unch
ĠÚ¯ Ø§ÙĦ
ØªÙĪ Ø¬Ùĩ
Ġ199 2
ĠØ±Ø§Ø³Øª Ø´
stit ution
ĠCast ile
Ġw estern
ĠØ® Ø±Ø¯Ùĩ
Ø§Ùħ Ø±ÙĪØ²Ùĩ
ØŃ Ø±Ú©Øª
sel ess
ĠÙħØ¯ Ø§Ùħ
Ġexp ensive
uild ing
W as
i ated
Ġc ateg
st one
ĠI r
ĠR el
ĠW ork
ĠÙħØ³ Ø§ÙĦÙĩ
ĠÙĤØ· Ø¹Ø§Øª
Ġà ¤
ĠØ§ÙĦÙħÙ¾ ÛĮÚ©
2 3
ÚĨ Ú¯ÙĪÙĨÙĩ
Ġent rance
Ø¨ÙĨ Ø§ÛĮ
Ġep is
Ġp ounds
al u
ĠÚ¯ ÙĦÛĮ
ĠÙħÙĪ Ø´Ú©
Ġro ll
ild ren
ĠØ®ÙĦØ§ Øµ
ĠØ¯Ø¨ÛĮØ± Ø³ØªØ§ÙĨ
F in
c ont
ÙĤ Ø¯
Ġb rill
ĠØ¢ ÛĮÙĨÙĩ
ĠP an
Ġcompet ition
ios ity
4 5
ri et
Ø§ÙĤ ÛĮ
cy cl
Ġplan ning
ĠØ§Ø¨Øª Ø¯Ø§ÛĮÛĮ
ĠØ¨Ø±Ø® ÙĦØ§Ùģ
Ġrelative ly
ĠÚ© Ø§Ø³
ĠØ³ ÙĪÙĦ
Ġimp at
ĠÙħØ§Ùĩ ÙĪØ§Ø±Ùĩ
Ġsub s
Ø®ÙĨØ¯ ÛĮØ¯
Ġcir cu
Ġliter ature
T ell
Ùģ ØµÙĦ
ĠØ´ ÛĮÚ©
Ġd ial
Ġg ain
Ø¢ ÙĨØ§ÙĨ
th rop
ĠâĻ ª
Û ´
Ø§Ø± Ø¯ÛĮ
ĠÙ¾Ø§ÛĮ ØªØ®Øª
ĠØ§ÙĨÚ¯ ÙĦÛĮØ³
Ġgen etic
ĠÙħØº ÙĨ
ĠÙħÙĨØ¸ ÙĪØ±Ùħ
ÙĨØ® Ø³ØªÛĮÙĨ
ol it
ĠB a
ĠJ es
ĠÙħØ¹ ÙĨØ§
Ġstat ement
Ġfav our
ĠÙħØªÙĤØ§ Ø¹Ø¯
M ad
ÛĮÙĨ Øª
ĠÙĩ ÙĦÙĨØ¯
Ø®Øª ÙĨØ¯
ĠÚ©Ø§Ø± Ú©ÙĨØ§ÙĨ
ĠL ady
ĠØŃØ§ÙĦ Ø´
Ùħ Ø³ÛĮ
Ġy ield
ĠØ¨ÛĮ Ú¯Ø§ÙĨÙĩ
Ø¯ÛĮ ÙĤ
Ġro de
Ġ4 5
Ġrecord s
Ġfif teen
Ġmathemat ics
udden ly
ĠØ¨ Ú©ÙĨÛĮØ¯
ĠØ¨Ø±Ø¯ ÙĨØ¯
ĠØ´Ùħ Ø¹
ĠØªÚ© ÙħÛĮÙĦ
ĠP ot
ĠÙħØŃ ØªØ±
ĠV ir
Ġbring ing
ĠBrit ain
ĠChar l
Ġda wn
Ø³ Ø±Ùĩ
ĠØ¨Ùĩ Ø§Ø±
ĠØ¨Ùĩ ÛĮÙĨÙĩ
Ġcon cl
ĠÙħØ§ÛĮ Ø¹
Ġwhis per
nik ov
ĠÚ© ÙĪÛĮ
iv eness
ĠÙĨØ¸ Ùħ
Ġcomp os
Ġmult i
ĠSwed en
ĠÙĨÛĮØ§Ùħ Ø¯Ùĩ
T e
Ġh al
Ø¨Ø§ ØŃ
o oth
ĠØŃ Ø§Ø´ÛĮÙĩ
ĠS ing
ĠM icro
ĠC ons
ĠÚ©ÙĨ ÙĪÙĨ
Ġser iously
ĠÙħÙĦ Ø§ÛĮÙħ
ĠÛ²Û ¸
Ġcent uries
ĠØ¨Ø²ÙĨ ÙĨØ¯
h i
Ġ rom
ÙĨ ÙĦ
ÙĤ ÙĪÙĦ
Ġf uel
Ġl ic
Ġsome what
ĠÙħØ§Ø¯Ø± Ø¨Ø²Ø±Ú¯
Ġtechn iques
ĠWh o
Ġjob s
ĠØ¯ ÙĪØ±ÛĮ
Ġf ought
Ġbr and
Ø®ÛĮ Ø§ÙĦ
ĠØ±ÛĮ Ø³Ú©
Ġgu ys
ĠNew s
ĠTr acy
ĠØ¬ Ø±ÛĮ
Ġserv ants
amm ad
ĠEl izabeth
ĠØ´ÙĦÙĪ Ø§Ø±
Ġm obile
Ø§Ùħ ÛĮÙĨ
Ġchild hood
Ø±ÙģØª Ùħ
ipp ing
2 1
se ct
ĠØ¹ Ø·
Ø¨Ø± Ø§Ø¯Ø±
Ġag ric
Ġsoft ly
ĠArmen ian
Ġquant um
Ab out
Ġme at
Ġr ide
ra ham
Th ree
Ġunc ertain
Ġb ond
as p
ĠØ¯ÛĮ ÙħÛĮØªØ±ÛĮ
ĠÙħØ¹ Ø¬
Ġfo c
ĠÙĨÙģ Ø¹
Ġelect ed
Ġdri ven
ĠSu per
ĠØ¨ ÙĨØ´ÛĮÙĨ
ÙĪÙĨ Ú¯
ĠÙĦ Ú©Ùĩ
Øº ÙĦÛĮ
Ġrelationship s
Ġur ban
L ater
w ater
ÙĨ ØªÛĮØ¬Ùĩ
Ø¨ Ú©
el ing
Ġj ump
ĠØ¹Ùħ Ø§Ø±Øª
Ġpr on
ĠÙ¾Ø§ÙĨ Ø²Ø¯Ùĩ
Ġfru it
D r
Ġs atell
ĠÙĩ Ø±Ø§Ø³
le nd
ens ions
Ġcons erv
ĠØ®ÙĪØ§Ø³Øª Ùħ
Ġarg ument
Ġs isters
Ġw ounded
ĠØ§Ø³Øª Ø¹
ĠJ im
Ġgr at
ĠÙħØ§ÙĨØ¯ ÙĨ
ĠØ¬Ø¯Ø§ Ú¯Ø§ÙĨÙĩ
Ú¯ ÙģØªÙĩ
ĠØ´Ø¨ Ø§ÙĨÙĩ
ĠØ¢Ø´ ÙģØªÙĩ
Ġflo od
ĠØ¨Ø§Ùĩ ÙĪØ´
T ake
ĠØ§ Ú©Ø³ÛĮ
ÙĩØ§ Øª
ĠÙħÙĨ Ø§ÙģØ¹
Ġfe ature
Ġenvironment al
Ġcomfort able
A F
ĠÚ©Ùĩ Ú©Ø´Ø§ÙĨ
Ġv ote
ĠØ¨Ø§Ø² ÙħÛĮ
Ġcl in
ĠÙĨÙħØ§ÛĮ ÙĨØ¯
ĠÙħØ± ÙĪØ±
ĠØ¯ÙĨØ¨Ø§ÙĦ Ø´
Ġcle ver
Ġhands ome
ĠÚ¯ÛĮØ± ÙĨØ¯
ĠØ²ÛĮØ³Øª ÛĮ
C R
Ġshe l
Ġsa il
ĠØ§Ùħ Ø±ÙĪØ²ÛĮ
Ġsort s
cul es
Ġsold ier
ĠÙħØ§ÛĮ Ú©
ĠØ®ÙĨ Ú©
ĠØ¨ÛĮÙĩ ÙĪØ¯Ùĩ
ĠØ§ÙĨÙģØ¬ Ø§Ø±
Ġo w
ĠÛ±Û¹Û ¶Û°
Ġcons ists
Ġart ists
Ġsol utions
Ġcom ment
Ø¦ ÙĦ
Ú©Ø±Ø¯ ÛĮ
ĠN ik
ĠØ§ÙĨØªÙĤ Ø§Ùħ
Ġsatisf ied
ĠÙħ Ú¯ÛĮ
ĠÙĩÙħ Ø¬ÙĨØ³
Ġ" *
Ġcol on
Ġref ers
ĠHe alth
Ġtri p
Ġindepend ence
ÚĨ ÙĤØ¯Ø±
ĠÙģ Ø§Ø¬
ØªØ± ÙĪ
Ġsy n
ĠÙħÙĪØ¶ ÙĪØ¹ÛĮ
Ġbig ger
ĠØ´ÙĪØ± Ø´
ĠÙ¾ÙĩÙĦ ÙĪÛĮ
j an
s uch
ĠØ¯ ÙĬ
ĠÚ¯ÙĪ Ø¦ÛĮ
ĠØŃØ§Ú© Ùħ
ĠJose ph
A meric
in em
in ating
it ement
Ġf ant
ar ly
Ġp in
Ø¹ ÙĦÛĮ
ĠÙĤ ØµÙĩ
ĠÚ©Ø§Ø± Ùĩ
Ġex ha
Ú¯Ø² ÛĮØ±
Ġsub sequ
Ġmin or
Ġbehav i
ĠØ¬Ø§ÙĦ Ø¨ÛĮ
Ġl od
Ø¸ Ùħ
op her
ĠØ¢ÙĤØ§ÛĮ Ø§ÙĨ
Ġbott le
ĠØ¢Ø³Øª Ø§ÙĨÙĩ
Ú© ÙĪÙĨ
ĠØ¨ ØªÙĪØ§ÙĨ
Ø® Ø¯Ø§ÛĮ
ri x
ĠE v
Ġgl anced
Ġed ition
Ġmark ed
Ġprob ability
is hes
ĠØ¢ÙĨ Ø¬
Ġr ates
Ġ18 8
ØªÙĨ Ø§Ø¨
Ġrest rict
Ġstrong er
Ġy ard
Ø¢ÙĨ Ø§
ĠMar ius
Ġdeter mine
G e
Û µ
Ùħ ÙĨØ¯ÛĮ
ce l
ĠØ¨Ø±Ø§ÛĮ ØªØ§ÙĨ
ĠÙħØ¬ Ø§Ø²ÛĮ
Ġem ph
ĠSec ret
B l
ĠØ´ Ø±ÛĮÚ©
Ġv essel
Ġint ellect
ĠØ®ÙĪØ´ Ø¨Ø®ØªÛĮ
Ġpur s
ĠØºÙĦ Ø·
ĠØ¢ÙĪÛĮ Ø²Ø§ÙĨ
Bes ides
ĠØ¨ Ø§ÛĮØ³ØªÛĮ
al ph
ĠA wards
Ġmy st
ĠÚ¯Ø± ÚĨÙĩ
Ġyour s
Ġimp ression
ĠØ¹ÙĤ Ø§ÛĮØ¯
oun ce
ĠÙĨÙģ Ø±ÛĮ
Ġtra ve
ĠØ¬Ø´ÙĨ ÙĪØ§Ø±Ùĩ
ĠÙħØ³Ø§ÙģØ± Øª
Ġsucceed ed
ĠCour t
Ġn ative
ĠØ¸ ÙĩÙĪØ±
ask et
ĠØ¨Ø±Ú¯ Ø´ØªÙĩ
ĠAng eles
Ġunex pected
ĠÚ© ÙĨØ¯Ùĩ
Ø² ÛĮØ³Øª
ĠÛĮ Ø§Ø±ÛĮ
ĠG and
ĠR ob
ish op
az z
Ġins pired
ĠØªÙĦ Ø®
ĠMus ic
Ġclaim ed
ĠÙĪÛĮØ¯ Ø¦ÙĪ
ĠØªØ¶ ÙħÛĮÙĨ
ĠØ®Ø¬ Ø§ÙĦØª
Ġash amed
Ø§Ø± Ú¯Ø§ÙĨ
Ġb ath
ĠÙħØ¬ Ø³Ùħ
ĠØ¯ÙĪØ± ØªØ±
Ø¨ÙĦ Ø¯ÙĪØ±
ĠØ®ÛĮ Ø³
ĠØªÙģ Ø±ÛĮØŃ
ĠPhil os
Ġobv ious
ĠØª ÙĨØ¯ÛĮ
Ġre form
ĠØ· Ø±
ÙĩØ± ÙħÛĮÙĪÙĨ
ren e
ĠIs lands
ĠØµØ¨ØŃ Ø§ÙĨÙĩ
Ġregard ed
Ġprinci ples
Ø·Ø¨ ÙĤ
ĠÚ© Ù¾ÛĮ
ĠØ±ÙĪ ÙħÛĮ
ĠØ¯ÛĮØ¯ ÙĨØ¯
ĠY our
Ú¯ÛĮØ± Ùħ
ĠÙĪØ± Ø§ÙĨØ³Ú©ÛĮ
ĠØ§Ø³Ùħ Ø´
ĠÙħØ±ÛĮ Ø¶
Ġkiss ed
Ú¯Ø²Ø§Ø± Ùħ
ĠØ·ÙĨ Ø§Ø¨
ĠØ± Ú¯
ĠØ® Ø§Øª
ĠM unicipality
ort ed
ĠÙĨÙĪ Ø¨Øª
Ġfore head
ĠØ¹ÙħÛĮ ÙĤÛĮ
ĠØªØ¯Ø±ÛĮ Ø¬
Ġprote in
ĠØ¨ ÚĨ
Ġis ol
Ġacqu aint
ĠC y
ĠÙĦ Ø±Ø¯
ra v
ĠÙĨØ¯ Ø§Ø±ÛĮ
ĠØªØ§Ø¨ ÙĦÙĪ
t r
ÙĦ ÙĨØ¯ÛĮ
Ø´ ÙĪÛĮÙħ
if fe
Ġde ce
ĠF amily
Ġun w
ick ing
Ġfoll ows
the less
Ġback ground
ĠØ®Ø±ÙĪ Ø¬
Mus ic
ĠØ¬ Ø¨ÙĩÙĩ
ĠØŃ Ø§Ú©ÛĮ
ĠS ub
Ġr ou
ĠWh y
Ġreport s
ĠÙħØ¨ÙĦ Øº
liv ier
Ġm arch
ĠØ®ÙĪ Ú©
ĠÙ¾ÛĮ Ø§ÙĨÙĪ
velop ment
ĠÙĨØŃ ÙĪ
Ġlog ic
ĠØ¯Ø§ÙĨØ´Ùħ ÙĨØ¯
Ø¢Ø® Ø±ÛĮÙĨ
P S
Øª ÙĪÛĮ
ĠÙĩ Ø±Ø¯ÙĪ
ĠÙħÙĪ ÙĤØª
Ġappro ached
Ġrequ est
Ġteac hers
Ġrespons ibility
ĠÙĪÛĮØ¯ Ø¦
f all
Ùħ ÙĪØ¯
ĠØ§ Ø¯Ùħ
Ø´ Ø±Ú©Øª
ĠÙĦ Ú¯
ĠØ¨Ø§Ø² ÙĨØ´
ci pl
ĠÙ¾Ø± ÙĨØ¯Ú¯Ø§ÙĨ
ĠÚ¯Ø±ÙģØª ÛĮÙħ
Ġbr ains
Ġact or
Ġgood s
ĠØªØ£ Ú©ÛĮØ¯
ĠØ¢Ø³ ÙĪØ¯Ùĩ
ĠÙħØ§Ø±ÛĮ ÙĪØ³
Ġliter ally
Ø³ Ø®
ĠÚ© Ø±Ùħ
Ġf ate
ĠÙĩØ± Ú¯ÙĪÙĨÙĩ
ĠÙħØ· ÙĦÙĤ
Ġstud io
ĠÚ©ÙĦÙħ Ø¨ÛĮØ§
ĠØ²Ø® ÙħÛĮ
c est
ĠØ® ÙĢ
ĠØ² Ø§ÙĨ
ĠØ¹Ø¨Ø§Ø±Øª ÙĨØ¯
Ġnodd ed
p al
Ġt ear
âĢĮ :âĢĮ
ĠØ® Ø±Ø§
ÙģØª Ú¯ÛĮ
Ø±Ø³ Ø§ÙĨØ¯
ĠÙ¾ÛĮØ± ÙĪØ²
ĠØ±Ø§ÙĨ ÙĨØ¯Ú¯ÛĮ
Ġdeli ver
ĠLib rary
Øª Ø¹Ø¯Ø§Ø¯
Ġg athered
ur se
ĠØ¨ÛĮ Ø³ØªÙħ
ĠØ±Ø³ Ùħ
Ġconf used
ĠÙ¾Ø±Ø³ÛĮØ¯ Ùħ
ĠÙĪØ±Ø² Ø´ÛĮ
ĠØ¹ØµØ¨Ø§ÙĨÛĮ Øª
ĠØ²Ø§ ÙĪÛĮÙĩ
ot ic
ĠØ¹ Ø¸ÛĮÙħÛĮ
Ġsh aking
ĠÙħØŃ ÙĪØ·Ùĩ
ov a
Ġapp ointed
Ġcol umn
ĠÙħØŃÛĮ Ø·ÛĮ
Ġhop ed
Ġoccup ied
Ġsympt oms
ad ium
ĠL in
ĠN ich
Ġdisc overy
Ġï »
G en
Ø§ ÚĨ
ter m
un ction
Ġgo als
ĠØ¯Ø§Ùħ ÙĨ
ĠÛ¹ Û°
ĠØ±Ø§Ø¯ÛĮ ÙĪ
a ul
a wn
Ø§Ø® ØªÛĮØ§Ø±
Ġhand ed
ĠØ¬ÙĪ Ø§Ø¨ÛĮ
ĠCom put
ĠÙĨÚ©Ø±Ø¯ Ùħ
Ġdri ver
ĠMin istry
ĠÙħØ£Ùħ ÙĪØ±ÛĮØª
S im
or ial
ĠØ´ ÙĪÙĤ
Ġnot ed
Ø§ÙĪ Ø§
Ġdeg rees
ĠØ¢ÙĪÛĮ Ø®ØªÙĩ
ĠÚ© Ø±Ø§
ĠA k
Ġper man
ĠSt u
Ø±Ø§Ùģ Ø±Ø¯
ĠÙĪØ¶ ÙĪØŃ
Ġinf inite
ĠCan adian
ĠØ±Ø§ÙĨ ÙĨØ¯Ùĩ
Ġast ron
ĠÙ¾ÛĮÚĨÛĮØ¯ Ú¯ÛĮ
Ġw edd
Ġc as
Ġp ush
ĠB as
Ġwor n
Ġfl ower
Ġ9 78
Ġnat urally
D A
ÛĮ ÙĪ
Ø¨ Ø§ÙĨÙĩ
Ø® Ø·
ir med
am in
em en
ÙĬ Ùĩ
ĠØ¨Ø¯ Ø¨Ø®Øª
Ġcomm itted
ĠÚ©ÙĨØ§Ø± Ø´
Ú¯Ø°Ø§Ø± ÙĨØ¯
Ġbre aking
Ġclo ck
Ġste el
U S
h and
m ond
Ġs an
ĠÙĩ ÙĪØ³
ic ing
ĠL ittle
Ġhouse hold
Ġkill ing
Ġlay er
ĠÙĨÙĪÛĮØ³ ÙĨØ¯Ú¯Ø§ÙĨ
Ġstri ke
p oint
Ø¯ ÙĩØ§ÛĮ
he tt
st ro
Ġun p
Ġun like
Ġapp ly
ĠÛ²Û ¶
Ġcre w
ĠÙĦØ±Ø² Ø§ÙĨ
Ġaltern ative
cycl op
Ø¨ ÙĪÙĨ
ĠÙħØ¹ ÙĦ
Ġag reement
ÙĨÙĪ Ø§Ø®Øª
Ġdr unk
Ġill ust
Ġexc itement
ĠGen us
ĠØªØŃØµÛĮÙĦ Ø§Øª
ĠØªØ¯Ø±ÛĮ Ø³
Ùħ ØªØ±
Ġpro ced
ĠF r
ĠØªÙĨ Ø´
ĠÙĨÛĮ ÙĪ
Ġadm it
Ġexcell ent
ã Ĥ
Ġl osing
Ġrel ief
Û±Û ³Û
Ġvol ume
ĠÛ· Û°
Ġtrad ition
ĠØ¨ÙĪØª Ùĩ
e f
ĠØ¨ Ø®Øª
ĠÙ¾ ÙĦÛĮ
ick s
Ġdiffe rences
Ġinc or
ĠØ¹Ø° Ø§Ø¨
Ġox y
Ġneighbor hood
Ø² Ø§Ùħ
ĠØ± ØŃÙħ
Ġg ri
ĠM other
ĠR ue
ĠØ³ÙĪ Ø§Ø±ÛĮ
Û±Û ¸Û
Ġmass ive
Ġheav ily
Ġw ire
ĠØ±ÙĪ Ø¨ÙĦ
ag ues
Ġex ists
ĠâĢİ .
Ġsk ills
ĠØ§ÙĦÙĩ ÛĮ
Ġcru el
ĠØª Ø®Øµ
Ġg iant
ÙĩØ§ÛĮ ÙħØ§ÙĨ
ĠØªÙĪ Ùĩ
Ġv ague
ĠØ¨Ø¯ Ø§ÙĨÙħ
Ġpl ane
ĠØ³ÙĪ Ø³ÛĮ
ĠØ¬ÙĨ Ø¨
ĠÙĥ Ø§Ø±
Ġgrand father
ĠÚ©ÙħÙ¾ Ø§ÙĨÛĮ
Å Ĥ
ĠÙĨ ÙĪÙħ
Ġd ull
ac les
Ø®ÙĪ Ø§Ø±
ĠÙħÙĤ Ø§Ø¯ÛĮØ±
ĠØ´ÙĩØ± ÙĩØ§
Ġnewsp aper
an ie
ĠØ¹ Ø§ÙĤÙĦ
Ġpl ate
ĠÙĨÙħØ§ÛĮ ÙĨØ¯Ú¯Ø§ÙĨ
Ġfact s
ĠØ·ÛĮ Ùģ
Ġdise ases
Ġalgorith ms
E L
w rit
ÙĨ ÛĮØ±
ĠØŃ Ø±ÙĪÙģ
ĠÙħØ·Ø§ÙĦ Ø¨
Ġship s
ĠÙħÙĨØŃ ØµØ±
Ġign or
O K
Ø® Ø§ÙĨ
ĠÚ¯ ÛĮÙĦ
Ġst ones
ĠÙĦ Ø§Ø±ÛĮ
ĠÙħÙĪ Ø«Ø±
ĠÙĪØ¬ÙĪØ¯ Ø´
ĠØ¨Ø±Ø¯ Ø§Ø±Ø¯
Ġown ed
Ġatt ribut
Ġph ase
ĠÙ¾Ø¯Ø± Ø¨Ø²Ø±Ú¯
ĠÚ©Ø§Øª ÙĪÙĦÛĮÚ©
Ġport ra
ĠInt elligence
ĠÙħÙĨØ§Ø³ Ø¨ÛĮ
ÙĪ Ø§Øª
Øª Ø§Ø±ÛĮ
Ġin ner
ĠÙĪÛĮ ÙĨØ¯
Ġfl esh
Ġob st
ĠØªØŃÙĤÛĮÙĤ Ø§ØªÛĮ
Ġbran ch
i y
ĠÙħÛĮ Ú©Ø±Ø¯
ĠØ§ÙĨ Ú©Ø§Ø±
ĠØ´Ú© Ø§ÛĮØª
Ġsust ain
ĠÙĪ Ú©ÛĮÙĦ
ĠØŃ Ø¨Ø³
ĠO b
Ġelect rical
ĠØµØ±Ùģ Ùĩ
Ġabs ence
Every thing
Ġfrequ ency
Øª Ú©
ÛĮÙħ ÙĨ
Ġint ellig
Ġsp in
ĠØ´Ø®Øµ Ø§
Ġcur iosity
Ã³ w
ĠÚ©Ø´Øª ÙĨ
ĠNat asha
ÙĤ ÙĪÙĩ
ĠØ§ÙģØª Ø¯
ÙħØ¹ ÙĦÙĪÙħ
Ġprison ers
Ġdrink ing
Ġanx iety
Ġpa used
Ġscar cely
Ġcous in
n or
ĠÙ¾ Ø´ÛĮÙħ
Ġst iff
Ø¢ ÙģØ±
ĠØ¢Ùħ Ø¯Ùħ
ĠÙħØ±Ø¯ ÙĩØ§
ĠÙĨÛĮØ³Øª ÛĮ
ĠØ§Ø´ ÙĦÛĮ
Ġcreat ures
ĠØ´Ú¯ÙģØª ÛĮ
ĠÙĨØ§Ø² Ú©
ĠÙĨ Ø¨
ĠØ¨Ø§Ø² Ø±Ú¯
Ġact ing
olog ist
Ġsim pl
Ġfriend ly
Ġlif ted
Ġelectric ity
ĠÙħØ±Ø§Øª Ø¨
ĠØ®ÙĪ Ø§Ùħ
ck now
ĠØªØ± ÙĪØ±ÛĮØ³Ùħ
ĠThe n
ĠØ®Ø· Ø§
Ġdem on
Ġste pped
ĠSc ot
Ġprim arily
ĠÙĨØ§Ø´ÙĨ Ø§Ø®ØªÙĩ
Ġexplan ation
h us
o cc
ĠD u
ĠU r
Ġbed room
ĠØªØ® Ø±ÛĮØ¨
Ú©ÙĦÛĮ Ùģ
Ġsatisf action
Ġvict ory
ĠØ¨ Ø®ÙĪØ§Ø¨
ÙĦ Ø°Ø§
ĠÙħÛĮ Ø¯ÙĪÙĨ
Ġp uzz
ĠØ§ÙĦ ÙħØ§Ø³
Ú©ÙĦ Ø§ÛĮØ¯
Ú¯Ø±Ø¯ ÛĮØ¯
ĠØ³Ø§Ø¨ ÙĤÙĩ
ĠØ¢Ø±Ø² ÙĪÛĮ
ĠFound ation
b itt
ĠÚ© ÛĮØ³Øª
Øµ ÙĪØ¯
ĠP o
ĠÙħØ¹ Ø°
ĠØ§Ø¬ ØªÙĨØ§Ø¨
ĠØ¨Ø³ Ø§Ø²ÛĮÙħ
Ġinterest s
ĠÙĦØ§ ØºØ±
Ġhor iz
Ġs ons
Ġk il
ĠÙģØ± Ú©Ø§ÙĨØ³
Ġfeel s
ĠÙ¾Ø±Øª ÙĪ
ĠØ¨Ú¯Ø°Ø§Ø± ÙĨØ¯
ÙģØ±ÙĪ Ø´
2 8
h ost
y pe
ĠØ¨ Ø§Ø±Ø¯
ĠØ´ Ø´Ùħ
Ø¢ Ú¯Ø§Ùĩ
Ġwor ried
ĠJ eff
ĠÙĨÙĪ Ø§Ø²Ø´
ĠÙĨÙĪ Ø§ØŃÛĮ
ific ial
Ġsw ord
Ġsent ence
ĠØ¨Ø¯Ø§ÙĨ ÛĮØ¯
Ġbal ance
Ġequival ent
ĠÙħÛĮ Ø±Ø§
Ġf art
Ġst or
os ha
Ġres olution
Ø§Ø¹ Ø¯Ùĩ
Ġfin ish
angu age
ĠÙħØ±Øª Ú©Ø¨
Û² Û°Û
Ġident ified
Ġdemocr acy
Ġatmosp here
I R
ĠÙħ Ú¯
Ġb its
ĠÙħÛĮ Ø¯Ùĩ
Ø§Ùĩ ÙĪ
ĠØªØ± Ø¨ÛĮØª
ĠÙ¾Ø±ÙĪ ÙģØ³
ĠØ³Ø· ÙĪØŃ
Ġpri est
Ġtrem bling
ĠØ¯Ø± ÙħÙĪØ±Ø¯
ar io
Ġch ose
Ġpre m
ĠÙģØ§Ø± Ø³ÛĮ
ĠØºØ±ÛĮ Ø¨Ùĩ
2 7
or ter
ĠH T
ĠØ¬Ø² Ø¡
ĠÚ¯Ø°Ø§Ø´Øª ÙĨØ¯
ĠØµÙĨ Ø§ÛĮØ¹
Ġcompon ents
ĠÚ¯ Ø²ÛĮÙĨÙĩ
Ġlo ose
Ġcomp assion
Ġstud ying
Ġide al
ĠØ¨Ø´ ÙĪÙħ
Ġcor por
ĠÙ¾ÙĦ Ú©Ø§ÙĨ
Ġsuper ior
Ġgal ax
ĠØ¬Ø§Ø¯ ÙĪÛĮÛĮ
J ean
Ø³ ÙĪØ²ÛĮ
Ø³ÛĮ Ø§
ĠØ¯Ùĩ ÛĮ
Ġres ist
Ġco ord
Ġgr in
ĠÛĮØ§Ø¯ Ø¢ÙĪØ±ÛĮ
ØªØ±ÛĮ Ø³ÛĮ
ĠLe Ã³n
ĠØ¬ÙĦ Ø¯
ĠØ®ÙĪÙĨ Ø³
Ġsurround ed
er k
ĠØµ Ø¯Ùħ
ell y
Ġgen e
oth y
app ing
ĠÙħØªØ¹ Ø¬Ø¨
ĠCath olic
Ġfoc used
Ġc ore
ĠØ¯ÙĪ Ø®Øª
ĠØŁ ...
Ġmy th
ĠØ§Ø¹ ØµØ§Ø¨
ĠII I
ĠÙħØ¹Ø¯ ÙĨ
Ø¯ ÙĦÛĮÙĦ
Ġin du
ol m
Ġr ow
ĠØ³Ø± ÙĪØ¯
ĠÙĨØ¯ Ø±Øª
Ġgreat ly
ĠAmeric ans
Ġexperien ces
V al
ĠÙĪ ÙĤØ§ÛĮ
Ġre ven
ol ve
ain e
ĠF ar
Ġrem ote
ĠÙħ Ùħ
ĠÙĪ Ø§ÙĨÙħ
el a
ak ers
ÛĮØª Ø§ÙĨ
Ġpract ical
Ùħ Ø§Ùĩ
Ġa cknow
Ġm useum
ĠÙħØ¯ Ø§ÙĦ
Ġdep artment
Ġaw ful
Ġteam s
Ġbank s
Ġauthor ities
Ġprofess or
ĠØ®ÙĪÛĮ Ø´ØªÙĨ
ĠØ´ÛĮØ· Ø§ÙĨÛĮ
ĠØ¨Ø¹Ø¯Ø§Ø² Ø¸ÙĩØ±
ed ing
Ø® Ø§ÙĨÙĪ
ĠÙħÙĨ Ùĩ
Ø¨ÛĮ ÙĦÙĩ
Ġne got
Ø§ÛĮÙĨ Ú©
ity a
ĠØº Ø§Ø±
ĠÙĨÙĪ Ø§Ø®Øª
Ġro lled
Ø¨Ø§ÙĦ Ùĩ
Ġpolit ic
Ġspir its
ĠSec ond
2 9
ĠÙĨ Ú¯Ø§Ø±
ĠØ³ Ø±Ø¯Ùĩ
ĠÙĤØ± Ø¢ÙĨ
Ġgr ate
Ġ193 0
ĠØ¨Ø²ÙĨ ÛĮØ¯
Ġn ode
st anding
ĠØ· ÙĪÙģØ§ÙĨ
ĠPh ys
Ġarri val
Ġhang ing
ĠØª Ø¯
Ġse lected
op ing
ĠB on
Ġcon qu
ĠO xford
ĠØ³Ø§ Ø¹ØªÛĮ
eal ous
is ation
Ġwere n
Ġsec ure
Ø§Ø¬ Ø§Ø²Ùĩ
Ø§Øº ÙĦØ¨
ĠÙĨÙħØ§ÛĮØ´ Ú¯Ø§Ùĩ
ĠØªØ±ÛĮ Ø³ÛĮ
Ġobv iously
umbled ore
Ø² Ùħ
ĠØ±Ø§ Ú©
ĠÙ¾ Ø§Øª
Ġbe ast
ut ation
ÙģØ± ÙħØ§
Ġthink s
du c
Ú¯Ø±Ø¯ ÙĨØ¯
ĠØ±ÙĤ Ùħ
Ġgold en
Ú©Ø² ÛĮÙħ
ĠÙ¾Ø¯ÛĮØ¯ Ø§Ø±
ĠØ²ÙĪ Ø¬
Ġton ight
4 8
ĠÙĨ ÙĪØ´ÛĮØ¯
ĠØ¨Ø§ ÙĩÙħ
Ø§Ø¨ ÙĩÛĮ
ill ing
Ġsh ru
ĠE astern
Ġlo ck
ÙĢ Ø§ÙĨ
ran ge
Ġbo ld
Ġbl ame
Ġ18 7
ĠÙĦÛĮ Ú¯
ĠChrist mas
Ġview s
e very
Ø´ ÙĪÛĮØ¯
ĠØ¯Ø± Ø¯ÙĨ
ĠÚĨ Ùħ
Ú©ÙĨ Ø§Ø±
Ġpro port
Ġco ok
ĠØ¯Ø®ØªØ± ÙĩØ§
Ġheart s
Ú©Ø´ÛĮØ¯ ÙĨØ¯
ĠØ¨ÙĨØ¯ Ø±
ĠØ¨ÙĨÛĮ Ø§Ø¯ÛĮ
ĠØ¢ÙħÛĮ Ø²ÛĮ
ĠØ¨ÙĩØ¯Ø§Ø´Øª ÛĮ
5 5
C ol
Ġw ake
ĠÙĪ Ø§Øª
ul se
ĠR ock
ĠN orthern
ĠØ´ÙĨ Ø§ÙĪØ±
Ø³Ø± Ø´
ÙħÙĪ Ø³ÛĮÙĤÛĮ
ĠØ´ÙĪ Ø§ÙĩØ¯
ĠÚ©ÛĮ ØªÛĮ
Ġsle pt
bo x
agn an
ĠØ¨Ø®ÙĪØ§ÙĨ Ø¯
ĠPrin cess
ĠÙĪØ§ÙĨÙħ ÙĪØ¯
ĠÙĩ Ø§ÙĨ
ĠM em
ĠB ol
Ġwor ship
ĠV iet
Ġfun ny
ĠÙĨØ§Øª Ø§Ø´Ø§
ĠQue en
ĠÚ©ÙĨØ³ Ø±Øª
c ope
Ġ q
Ø§Ø± ÛĮØ¯
ag ger
ĠÚ©Ø§Ùħ Ù¾
Ġdi amond
ĠComm ission
ĠØ¢Ú© Ø§Ø¯ÙħÛĮ
L ist
P C
t le
Ú© Ø§ÙĪ
Ġsh irt
Ġall owing
Ø¨Ø± ÙĨØ§ÙħÙĩ
Ø§ÙĨØ¯ Ø§Ø²Ø¯
ĠW al
Ġun us
ĠÙ¾Ø±ÙĪØª Ú©ÙĦ
Ġresearc hers
ĠØª Ø§ÛĮÛĮØ¯
ic it
Ø§ÛĮÙĨ Ú©Ùĩ
ĠPl an
Art agnan
ĠØ§Ø±Ø¯ÙĪ Ú¯Ø§Ùĩ
l ife
it ure
ut ed
ĠØ² Ø¨Ø§ÙĨÛĮ
ĠA zer
ĠT own
ØªÙĪØ§ÙĨ Ø³ØªÙĩ
ÙĬ Ùĥ
Ġstr ateg
Ø´ÙĨØ§Ø³ Ø§ÙĨ
Ġimag ination
Ġincred ible
p ass
Ð º
ĠÙĩ Ø§ÙĪ
al so
st r
ĠÚĨ ÙĬØ²
ĠC atherine
ĠJ oe
ĠÙĨØ§ Ø®ÙĪØ´
ĠÚ¯Ø°Ø§Ø´Øª Ùħ
Ġelect ions
Ġmanufact ure
ĠØ§ÙħØª Ø¯Ø§Ø¯
Ġscri pt
r ors
ĠØª Ø§ÛĮÙħ
Ġg ained
ĠÛĮÚ© Ù¾Ø§Ø±
ĠM ill
ĠL iber
Ġun s
ĠØªÙĨ ÙĪØ¹
ĠÙĨØ´ Ø§Ø·
Ġtechn ical
ogr ap
Ġprofess ion
Ġarran ged
E M
Ġc ert
or ia
ĠÙĦ Ø³
ĠÙĨØ§ Ú¯Ø²ÛĮØ±
ĠÙħØ³Øª ÙĨØ¯
ĠØ®Ø§Ø± ÙĤ
ĠÙĤÙĩØ± ÙħØ§ÙĨÛĮ
k o
Ã ¸
Ø¹ ÛĮØ¯
ly osha
ĠØ®ÙĪØ¯ Ø±ÙĪÛĮÛĮ
Ġno ble
ĠØªÙħ Ø³
Ġsport s
ĠØ¯Ø± Ø®Ø´
Ġm ac
ĠØ³ ØŃØ±
um ed
ap y
ĠØ¨Ø¯ ØªØ±ÛĮÙĨ
ÙĪØ¨ ÙĪØ³
ĠØªØºÛĮ ÛĮØ±ÛĮ
ĠØ¹ÙĦØ§ Ø¦Ùħ
Ġcompl icated
´ Û°
ĠØ± Ø¨Ø·
ĠS outhern
ĠP op
Ġdo ctors
ĠØº Ø§ÙģÙĦ
ĠÚ¯Ø° Ø±Ø§ÙĨ
ĠØ²ÛĮØ± Ø²ÙħÛĮÙĨ
Ġsm ooth
ĠØ§Ø³ØªØ® Ø±Ø§Ø¬
Ġvis ited
Ġevident ly
ĠÙĪ ØµÙģ
ĠØª ÛĮÙĦ
ĠØ§ÛĮÙĨ ÙĪ
Ġpart ner
ĠIn c
ĠØ§ÙģØ³ Ø±Ø¯Ú¯ÛĮ
ĠÙħØªØ¹Ø¯ Ø¯ÛĮ
ĠÙħØ¯Ø§ÙĪ Ùħ
w est
Ġg le
ĠD is
ĠÙĨØ´ Ø§ÙĨÛĮ
man n
Ġmaint ain
Ġexer cise
ĠØ± Ø§ÙĨØ¯
op ed
ĠØ³Ø± Ú¯Ø±ÙħÛĮ
Ġ' '
Ġcont empt
ĠÚĨØ´Ùħ Ùĩ
ĠÛ± Û°Û
ĠØªÙĪÙĨ ÛĮÙħ
Ġtest ing
ĠØ°Ùĩ ÙĨÙħ
ĠÙħØªØ£ Ø³Ùģ
Ġd ancing
om ach
ĠØ¨Ø± ÙĨØ¯
ĠÚĨ Ø§Ø±Ùĩ
Ġst uck
ĠB y
ĠR ose
ĠL y
Ġlo cked
ĠÚ©Ùħ ØªØ±ÛĮÙĨ
ĠØ³ÙĦ ÙĪÙĦÛĮ
Ġsw ift
ĠÛµ Û°Û°
Ġliqu id
as ters
ĠØŃ Ø¬
il ty
ĠR og
ĠE ve
Ġpl ays
ØªÙĦ Ø±
Ġcomb ined
Ġalt ogether
ĠØ±Ø®Øª Ø®ÙĪØ§Ø¨
ĠÙ¾Ø±ÙĪÙģØ³ ÙĪØ±
I L
Ġf ier
et ime
ĠP re
ĠP ost
Ġex tended
ĠØ§ÙĦ Ú¯ÙĪÛĮ
Ø¯ÛĮØ¯ ÙĨØ¯
ĠØ¨Ú¯ÙĪÛĮ ÙĨØ¯
ĠØ³Øª Ø§Ø±Ú¯Ø§ÙĨ
Ġwond ering
ĠFace book
U nder
ÙĪ Ø¶
ig en
ĠØ§Ø¬ Ø§Ø±Ùĩ
ĠØ³Øª Ø§ÛĮØ´
ĠØ²ÙĨØ¬ ÛĮØ±Ùĩ
Ġbacter ia
S ec
ĠÙħÛĮ Ø¯ÙĩØ¯
ĠØ¨Ø±Ø§ÛĮ Øª
ĠV an
ĠØ³Ù¾ Ø±Ø¯Ùĩ
Ġconst antly
Ġrese m
Ġfriends hip
Ġmain ly
ĠØ®Ø´ Ú©ÛĮ
B et
ÙĨ ÙĩØ§ÛĮØª
ÙĪ ÙħØ§
or al
Ġfor b
Ġse es
ĠB ella
ĠØ³Ø± Ø´Ø§Ø±
ap ing
Ø®ÙĪØ§ÙĨ ÛĮ
ĠØ¨ÙĢ ÙĪØ¯
Ġsleep ing
Ġcomb ination
ĠAustral ian
Ø¸Ø§Ùĩ Ø±Ø§
ĠØ²ÙĨØ¬ ÛĮØ±
in ter
ad er
ĠÙģ ÛĮØ±
ĠÚ¯ÙĪØ´ ÛĮ
ĠÚ¯ÙĪÛĮ ÙĨØ¯
! "
T V
Ù¾ Ø±Ø³
Ġp ause
ĠL ydgate
Ġro ot
ĠØ´Ú© ÙĪÙĩ
ĠÛĮÙĪÙĨ Ø§ÙĨ
ÙĨØ² Ø¯ÛĮÚ©
Ġfran cs
ĠØ¯Ø±Ø¯ÙĨ Ø§Ú©
Ø§ÛĮ Ø§
Ø§ÙĦ Ø¯
ĠÙĤ Ø´ÙĪÙĨ
Ġv ary
ĠSt and
ĠÙģÙĩÙħ ÛĮØ¯Ùĩ
Ġemot ions
6 5
C M
ĠÚ¯ ÙĪØ³Ùģ
ÙģØª ÛĮ
ant e
ĠØŃØ³ Ø¨
Ġ198 9
ÙħØ§Ø¯ Ø§Ùħ
1 00
Ø³ Ø§Øª
it ar
ĠØ¨Ø± Ø¹Ú©Ø³
Ġse ated
ĠT ime
ĠØ¢ÙĪØ±Ø¯ Ùħ
Ġconc ert
Ġcloud s
Ġmathemat ical
ĠØ®Ø¯Ø§ØŃØ§Ùģ Ø¸ÛĮ
Ø®Ø§ÙĨÙĪ Ø§Ø¯Ùĩ
4 7
Ġf er
ĠØ¬ Ø¨Ø±Ø§ÙĨ
Ġr h
lo c
pl ess
ĠSt an
Ġrel ation
oc al
ĠÙħÙĪØ¶ÙĪØ¹ Ø§Øª
ĠØ±Ø§Ø¯ÛĮ ÙĪÛĮÛĮ
Ġpattern s
ĠØ¯Ø® Ø§ÙĦØª
Ġh int
ĠØ® ÙĦÙĪØª
ro g
ĠJ urgis
ĠØ¹Ùħ ÙĪÙħ
ĠÙħØ¯Ø± Ú©
Ġhung ry
) }
ĠÚ© ÙĪØ²Øª
Ġre ward
ÙĪÛĮ Ø±
Th rough
ĠÙħØ´ Ø§Ø¨ÙĩÛĮ
aw s
Ġent ertain
ĠPet ers
Ġess ential
ĠÙĤØ§ Ø¶ÛĮ
ĠØ´Ø§ Ú¯Ø±Ø¯
Ġg ently
Ġst ret
el f
Ø®ÙĪ Ùģ
ĠÙħØ¹ ÛĮÙĨ
Ġun iform
Ġexist ing
ĠØ®ÙĪØ´ØŃØ§ÙĦ Ùħ
ĠØ¹Ø§Ø´ÙĤ Ø§ÙĨÙĩ
ÙģÛĮÙĦ Ùħ
S ever
Ġthe e
ing er
Ġan cest
ess ion
ĠÙħÙĨØª ÙĩÛĮ
ĠØ²ÛĮØ¨ Ø§ÛĮ
Ġwood s
ÙģØ±ÙħØ§ÛĮ ÛĮØ¯
Ø± ÛĮØ¯
Ġex ternal
ĠO liver
ĠØªØµ Ø¯ÛĮÙĤ
Ø¦ÙĪØ± ÙĦÛĮ
Ġappre ci
ĠÙħØºÙĨ Ø§Ø·ÛĮØ³ÛĮ
Ġt orn
Ġc ards
ĠI MDb
ĠÙħÙĪ Ø§ÙĤØ¹
ĠÙħØŃ ÙĪØ±
Ġold est
Ġdr am
ĠEng ine
Ġlarge ly
ev in
Ġprison er
ĠAlexand er
O T
ĠØ§ ÙĦØ§
al i
Ø§Ø² ÛĮØ¯
em ies
ĠÙ¾ÛĮØ± ÙĪÛĮ
Ġdepend s
ĠØ¨Ø±Ùĩ ÙĨÙĩ
it ors
ĠÙĨ ÙĬ
ĠØ® ÙĦØ§ÙĦ
ĠM onsieur
ul es
ĠØ³Ø± ÙĩÙĨÚ¯
ĠR a
Ġcomp re
Ġind ex
ĠØ³ÛĮÙĨ ÙħØ§
ĠÙħ Ø§Ø¯ÛĮ
Ġs ales
ĠØ¢ÙĨ ØªÛĮ
ac ific
um ents
os m
ĠØ§Ø³ ÛĮØ±
ĠØ±ÙĪØ² Ùĩ
Ġ3 00
ĠØ§Ø®ÛĮØ± Ø§
ĠÙħØ°Ùĩ Ø¨
ĠÙĪØ¸ Ø§ÛĮÙģ
Ø® ÙĦØ§
ĠM ars
il er
ĠH aw
ĠØ§Ø® Ø±Ø§Ø¬
Ġburn ed
ĠØ®Ø§Øª ÙħÙĩ
ĠØ¨Ø± ÛĮØ¯Ùĩ
ĠÙĤ Ø¨ÛĮÙĦÙĩ
ĠM oon
ĠÚ©Ùħ Ø¨ÙĪØ¯
ĠPro gram
Ġtechn ique
Ġgun s
Ġperce ived
b ra
ĠØ¨ Ú©ÙĨÛĮ
ic ation
Ø· Ø§Ùģ
id el
ith s
ĠA li
Ġad vert
ĠÙĪÛĮ ØªÙĨ
ĠSt ar
ĠÙĨÙħ Ú©
ĠØ§Ø¯ Ø¨
ĠØŃØ±Ùģ Ø´
ĠØªÙĦ Ú¯Ø±
ĠSc ott
Ġdaughter s
ĠBer lin
Ġapparent ly
ÙĨ Ø´Ø§ÙĨ
he ast
ĠØ§ Ø¯Ø§
ĠÙĪ ØªÛĮ
ar se
ĠØ® Ø²
ĠD an
ĠÛ±Û µÛ
Ø§Øµ Ø±Ùĩ
ons ense
Ġshould n
Ġunhapp y
O C
Ġt ick
ĠÙĪ Ø§Ø¯
it zer
ØŃ ÙĤÛĮ
Ġe ase
ir y
ur ation
ĠØ¯ÛĮ Ú¯
ĠL ab
ĠÙĤØ± Ø¶
Ġpart ners
ĠØ´ÙĨ Ø¨Ùĩ
ĠØ±Ø³ÛĮØ¯ Ùħ
ĠØ§Ø¨ Ø±ÛĮ
ĠPr ime
Ġhom es
0 5
Ùħ Ø±Ùĩ
ĠÙĩ ÙĨØ¯ÛĮ
Ø¹ Ø¨
ĠØ¯Ø³Øª ÙħØ§ÙĦ
Ġshe ep
Ġclaim s
, ;
b ai
Ġst im
qu is
ĠD utch
ĠØ§ÙĨØ¯ Ø§Ø²ÛĮ
ĠØ§Ùģ Ø±Ø§
Ġart icles
Ġpar am
Ġadm ir
ĠØ¬Ø¯ Ø§ÛĮÛĮ
Ġsor row
ÙĨ ÙĪØ±
ÙĨ Ú©Ø§
Ø³ ÙĦÙĩ
Ù¾ Øª
us al
Ġsh if
ĠE nd
ĠÙħØª Ø§Ø³Ùģ
ĠÙĨÙĤ Ø¯
Ġatt ached
ĠSp ace
ĠØ¯Ø§Ø¦ ÙħÛĮ
ĠOrgan ization
b ar
ĠÛĮ Ø§Ø²Ø¯Ùĩ
ĠA ut
Ø¢ ÙĩÙĨÚ¯
ĠÙĦ Ú©
ĠE ll
ÙĪØ· ÛĮ
Ù¾Ø± Ø³ØªÛĮ
Ù¾Ø±Ø¯ Ø§Ø²Ø¯
ĠÙħØ£Ùħ ÙĪØ±
R um
Ġb atter
Ġm aid
ĠØ¬ Ø§Ø³Øª
ĠO ri
Ġcons ult
ĠÙĤØ· Ø¨
ik ip
Ġpartic les
Ġprocess ing
ĠÙ¾Ø§Ø¯ Ø§Ø´
Ġtot ally
ĠØ¨Ø¨Ø± ÙĨØ¯
ĠÙħÙĪØ³ Ø³Ùĩ
Ġmix ed
J ohn
ÙĩØ± ÚĨÙĩ
Ġkn ife
ĠÙĤØ· Ø¹ÛĮ
ĠØŃÙĤ ÙĪÙĤÛĮ
Ġoblig ed
l ong
Ġw ise
ĠØ¯Ø± Ø³ØªÙĩ
Ø® ÛĮÙħ
ĠM axim
ÙĪØ² Ùģ
Ġprot est
ĠØ¨Ø±Ø§ÙĨ Ú¯ÛĮ
Ø¹ Ø§Ø¯
ĠØ® Ø±Ø³
ĠÛĮ ÙĪÙĨÛĮ
Ġy ards
Ġint ense
Ġj ealous
ĠÚ©Ùħ Ú©ÛĮ
Ġlead s
Ġwedd ing
ĠÙĨ Ø§ÙĪ
ĠØ§Ø² Ø§ÛĮ
ĠÙĦ Ø§Ú©
ĠL oss
ĠÙħØ³Øª ÙĤØ±
ÙĪØµ ÙĦÙĩ
Ġmem ories
Ġfact ory
Ġtru ck
Ġbes ides
Ġelectron ic
d own
r ast
ĠØ± ØºÙħ
ĠS ol
ĠÙĨÛĮØ± ÙĪÙħÙĨØ¯
ĠØ¸Ø§Ùĩ Ø±ÛĮ
Ġbi ological
ĠÙħØ§ÛĮ Ú©ÙĦ
Ġconsequ ence
ĠÙħØ³ÙĦÙħØ§ÙĨ Ø§ÙĨ
b i
y an
Ùħ Ø§Ø±ØªÛĮÙĨ
Ġg rief
ĠB ob
ĠD iv
ĠNob el
Ġhorri ble
Ġp ipe
Ġst able
ĠC oll
Ġch annel
ĠÙħØŃ Ø§Ú©
ep h
Ġthan ks
Ġsupp l
Ġexpl os
Ġpain ful
ĠØ¯Ø§ÙĪ Ø·ÙĦØ¨
Ġaward ed
G et
Ġe c
ĠØ®ÙĪØ§Ø¨ ÛĮØ¯Ùĩ
Ġpoet ry
ĠØ¯Ø±Ø´ Ú©Ùĩ
P A
Ø¨ ÙĪÙĦ
on na
us se
Ú¯ÛĮ Øª
ĠT em
Ġab st
Ġbo ots
Ġappro pri
Ġeas tern
Ø¬Ùħ Ø¹ÛĮØª
Ġsac rif
Ġinterrupt ed
esp ite
ĠØµÙĦÛĮ Ø¨
Ġch amber
Ġrest aur
ĠØ®Ø¯ÙħØª Ú©Ø§Ø±
in ations
ĠØ¨Ø§ Ø³ØªØ§ÙĨÛĮ
im ental
ore nt
Ġle ct
ony m
ille fort
ĠØ®ÙĦØ§ ÙĤ
Ġassum ed
ĠØ§ÙħÙ¾Ø±Ø§ Ø·ÙĪØ±
Ø§ØŃØªÙħØ§ÙĦ Ø§
ikip edia
S pe
ÙĨ Ø§Ø³
Ġt ank
Ġgen es
ØªÙĪ ÙħÛĮ
ĠØ§ÙĨÙĤÙĦ Ø§Ø¨ÛĮ
Ġfle w
ĠØ¨ ÙĦÛĮ
er g
Ġl as
ĠM ass
ĠÙĦ Ø·ÛĮ
ĠH ot
ĠÙħØŃ Ø±ÙĪÙħ
ost er
Ġans wers
Ġcontro lled
Ġvers ions
Ú¯ Ø§Ø±Øª
ĠØ¬ Ø§ÙħÙĩ
are t
Ġwhen ever
Ġover all
ĠÙħÙĦ Ú©
ger y
Ġsign als
ĠÙħØ§ÙĦ Ú©ÛĮØª
ĠØ±Ú© ÙĪØ±Ø¯
ĠÚ¯Ø±Ø³ ÙĨÙĩ
Ġvir us
n at
p he
Ġto ler
Ø¹ ÙĪØ¯
Ø±Ø¯ Ø³Øª
Ġre ar
ĠP ubl
ĠF re
Ø±Øª Ø§ÙĨ
Ġdes ired
ĠØ´Ø±Ø§ÛĮ Ø·ÛĮ
ĠØ¨Ø§ÙĦØ§Øª Ø±ÛĮÙĨ
Ø§ÙħÛĮØ¯ÙĪØ§Ø± Ùħ
0 1
N at
Ùħ ÙĩÙħ
ĠØ³ ÛĮÙĦÛĮ
ĠÚĨ Ú©Ø§Ø±
ĠI ll
Ġcent re
Ġext ract
Ġmus ical
Ġmil k
Ġachie ved
M an
ĠØ¯ÛĮ ÙĪ
urn ed
ĠØ³ÙĦ Ø³ÙĦÙĩ
Ġgu ide
Ġ199 3
Ġclass ical
ĠÙģØ´ Ø±Ø¯
ĠÙĩÙĨØ±Ùħ ÙĨØ¯Ø§ÙĨ
ĠØ±ÙĪØŃÛĮ Ùĩ
' '
it ants
ĠC hem
os al
Ġv ain
pl om
ÙħØ§ÛĮ Ø´ÛĮ
Ġhand le
ĠØ¨Ø´ Ø±ÛĮ
ĠÙ¾ÙĨ Ø¬Ùĩ
Ġprin cess
Ġfac ing
Ġdiscuss ion
R I
l ines
Ø§ Ù¾ÛĮ
Ùĩ ÙĪØ§
ĠÚ¯ Ø§Ø±Ø¯
ĠK ate
ĠØ§Ø«Ø± Ø§Øª
Ġer ror
Ġmeas ured
Ġcheek s
ĠVir gin
ĠL and
ĠÙħÙĤ ØµØ¯
ĠY ear
ruct ure
ĠØŃÙħ Ø§Ùħ
Ġconduct ed
ĠØ¨Ø§ÙĦ ÙĤÙĪÙĩ
Ġspe ll
Ġtri umph
ĠØ¯Ø±Ø¯ Ø³Ø±
Ġbroad cast
Ġs ke
ĠØ´ ØºÙĦÛĮ
ĠÚ¯ ÙĪÙĦØ¯
ur rent
um es
em ed
ĠH ell
ĠN etwork
ÙĪØª Ø§
Ġhold s
with out
ĠØ¨ÙĦÙĪ Ú©
Ġforg ive
Ġcrim inal
I MDb
Ø´ ÙĪÛĮ
ÛĮÙĨ Ø´
Ø¬ Ø§Øª
Ġne ut
ĠH im
Ġshe ll
Ġatt itude
ĠÙģØ±ÙĪ Ø´ÛĮ
Ġter min
ĠØ®ÛĮ Ø§ÙĦÛĮ
Ø®ÙĪØ±Ø¯ ÙĨØ¯
Ġpar ad
Ġpain ted
Ġcomb at
Ġdefin ite
3 5
Ġw ra
ĠØ± ÛĮØ²ÛĮ
is ible
ĠØ³ Ø¯
Ø® ÙĪØ±ÛĮ
Ø§Ùħ ÙĪÙĨØ¯
ĠS l
Ġat tended
qu ar
ĠF estival
Ġun fortun
Ú¯ÙĪ Ø³Øª
ÙģÛĮ Ø«
ĠÚ©ÛĮÙĦ ÙĪ
ĠPort ug
ĠÙĪÛĮÙĨØ¯ ÙĪØ²
or ge
ot o
ĠØ² Ø§Ø±
Ø¯Ø± ÙĨÚ¯
Ġr ushed
ĠN az
ick en
Ġgr ace
Ġ201 8
ĠØ³Ø§Ø² Ú¯Ø§Ø±
ĠØ³Ø· ØŃÛĮ
ĠÙĦØŃØ¸ Ø§Øª
iffe rent
ĠÙħ Ø¨Ø¯
ĠS qu
ĠÙħØ±Ø§ Ú©Ø²
ĠØ¬ÙĪ Ø§Ùĩ
Ġpur su
Ġfif th
Ġrid ic
ĠÚ©ÙħÙĪÙĨ ÛĮØ³Øª
ĠÙħØ¬Ø§ ÙĪØ±
ĠMicro soft
Ø¯ Ø³ØªÛĮ
ĠØ´ Ø±Ø§ÙģØª
Ġn om
Ġex tend
ĠÙħÛĮØ§ÙĨ Ú¯ÛĮÙĨ
Ġcare ful
ĠØ¹ÙĦØ§ ÙĤ
Ġdem ons
Ġunivers al
ĠØ±Ø¹ Ø§ÛĮØª
ĠØ¯ ÛĮÙĨÛĮ
ĠÚ© ÛĮÙĩ
ĠØ±Ø§ Ø¨Ø±Øª
ĠØ¨Ø± Ù¾Ø§
ce ler
ĠÙĩØ± Ú¯Ø§Ùĩ
ĠÙħØŃ Ø§ÙģØ¸Ùĩ
ark s
ĠØ±ÛĮ ÚĨØ§Ø±Ø¯
Ġsit es
ĠØ®Ø§ÙĦ Øµ
ĠØ± ØŃ
Ġm a
ĠÙ¾ Ø±Ø§
ĠØŃ ÙħØ§
Ú©ÛĮ Ø´ÙĪØª
Ø§ÙĨÚ¯ ÛĮØ²ÛĮ
Ġgu ests
ĠÙħØ´Øª Ø±ÛĮØ§ÙĨ
Ġï» ¿
Sever al
3 9
Ú© ÙĪØ¯
Ú¯ Ùħ
Ġst omach
ĠÙħØ§ Ø¬Ø±Ø§ÛĮ
Ġpl anned
ru ption
ĠØ§ØŃ ÙĪØ§ÙĦ
Ġ3 2
ĠÛ²Û°Û±Û ·
Ġdet ail
Ġexec ution
ĠÙħØŃØ§Ø³ Ø¨Ø§Øª
i ate
ĠØ¨ Ø®ÙĪØ§ÙĩÛĮØ¯
ĠP av
Ġpl ot
Ġcont ained
port s
ĠØ§Ø¬ Ø¨Ø§Ø±ÛĮ
Ġact s
Ġent hus
ĠÚ©Ø´ÛĮØ¯ Ùħ
Ġext ent
ĠØŃÛĮ Ø§ØªÛĮ
ĠÙĩÙĪØ´ ÛĮ
ÚĨ Ø³ØªØ±
ĠØ¨Ø± Ø´
ĠÙħØ¹ Ø§ÙĪÙĨ
ĠÙĨÛĮ ÙģØª
Ø± ÙĩØ§ÛĮ
ĠØ§ Ø±Ø¯
ĠÙ¾ ÙĬ
Ġst retched
ĠH a
Ú©ÙĦ Ø§Ø±
Ú¯Ø² Ø§Ø±ÛĮ
Ġmod e
ĠComm unist
0 9
ĠØ± ÙĦ
ĠØ® Ø§Ùħ
ab ilities
Ġsp r
ang ed
olog ists
ĠÙĤØ· Ø±Ùĩ
Ġrun s
Ġdelight ed
ĠDor othea
3 7
Ø§ÙĦ ØªÛĮ
om ed
Ġe fficient
Ġman ager
ĠÙħØ¬ Ø±ÙĪØŃ
ĠRe view
add y
ĠÙĩØ¬ ÙĪÙħ
Ġbrill iant
Ùģ Ø§ÙĨ
ĠC op
Ġ" ,
ĠR alph
Ġsee king
ĠØ¯ÛĮØ¯ ÛĮÙħ
ĠÙ¾Ø±Ø¯ Ø§Ø²ÙĨØ¯Ùĩ
Ġreturn ing
Ġsepar ated
ĠMc G
Ġinvent ed
Ġhyp ot
P ar
R on
ÙĨ ÙĪØ¹
ĠÙħ Ø¨ÙĨØ§ÛĮ
Ø³Øª ÙĨØ¯
ĠØŃ Ø³ÛĮ
Ġher s
ĠF anny
Ġint ent
ure l
Ġpre gn
Ġhelp ing
ÚĨÛĮ Ø§ÙĨ
Ġdeli ber
ĠØ¢ÙĦÙĪØ¯ Ú¯ÛĮ
b our
ĠØ¨ Ú©ÙĨÙĨØ¯
ĠØ´ Ø·Ø±
ĠØ¢ ÚĺØ§ÙĨØ³
ĠÙĦ Ú©ÙĨ
ĠÙħØ· Ø§Ø¨ÙĤ
Ġlove ly
ĠØ´Ø§Ø® Øµ
Ġemot ional
Ġdemand ed
ĠDo ctor
Ġobt ained
ĠØ§Ú©Ø³ÛĮ ÚĺÙĨ
Ġoxy gen
Ø± ØºÙħ
Ø³Øª ÛĮÚ©
Ġnot ion
ĠF ort
ĠØ§ÛĮ ÙĦ
Ú¯Ùĩ ÛĮ
Ġsubject s
Ġinvest ment
ĠSan cho
n ce
ĠÙĪ ÛĮØ¯ÛĮ
ÙĩØ§ÛĮ ØªØ§
Ø§Ø¨ ÙĪØ³
ĠM aj
Ø¢ ÙĪØ±Ùħ
ĠØ±ÙĪÛĮ Ú©Ø±Ø¯
Ø¢ÙĪØ±Ø¯ ÙĨØ¯
ik h
ĠCon f
Ġmass es
ĠMe ggie
ĠØ¬Ø± Ø¬
ĠArab ic
Ġmyster ious
Ð »
Ġb ones
an ab
um s
ĠD ire
ĠH u
ru e
Ġsp lend
Ú¯ÙĪÛĮ ÛĮØ¯
ĠØ¢Ø³ Ø§ÛĮØ´
Ø¨ Ø§ÛĮ
ĠÙĪ Ø§Ú©Ø³
Ġd atabase
ĠR ostov
ĠÚ¯Ø± ÛĮÙĨ
Ġdis ag
Ġsc ore
Ø¬ÙĪ Ø§Ø¨
ĠCol onel
ĠØ¨Ø±ÛĮØª Ø§ÙĨÛĮØ§ÛĮÛĮ
Ġpossess ion
ĠAsh ley
Ø§ Ø¬ÛĮ
ĠÙĨ Ú©ÙĨÙħ
ĠØ¢ Ø±Ú©
Ġp iano
Ġth y
Ø±ÙĪ ÛĮØ¯
ĠV en
ÙĨØ¬ Ø§ÙĨ
Ú¯Ø±Ø¯ Ø§ÙĨØ¯
ĠØ·Ø±Ùģ Ø¯Ø§Ø±
ĠØ§Ø¨Øª Ø¯Ø§ÛĮ
Ġcreat ive
Ø±Ø§Ø± ØªÛĮ
ĠÙħØ®ÙĦÙĪ Ø·
R S
à ¸
Ø´ Ø§Ø±ÛĮ
ĠÙħÙĪ Ø³ÛĮ
ag ers
ant ing
ĠÙģØ± Ø¢ÛĮÙĨØ¯
Ġown er
Ø¨Ø±Ø¯ ÙĨØ¯
Ġpers pective
ĠØ®ÛĮ Ø§ÙĨØª
Ġstr ict
Ġequ ally
Ø®ÙĪØ¯ Ø´
ĠÙĪØ¨ Ø³Ø§ÛĮØª
Ġident ify
go ing
Ġthr ust
ĠÙħØ¨ ÙĨÛĮ
Ġcast le
AT A
ÙħØ¬ ÙħÙĪ
Ġfed eral
ĠÙĩ Ø¯
ĠØ³ ÙĪØ§
Ø§Ø² ÙĦ
ĠC a
ĠÙĨÛĮØ³Øª ÛĮÙħ
ĠÙĨÙĩ ÙģØªÙĩ
Ġsl ipped
Ġstrong ly
Ġmut tered
S uddenly
ĠÙĪ Ø§ÙĨ
ÛĮØ² Ø¯
Ġal le
Ġover w
Ind eed
o j
Ø¨ Ø±Ø§
ĠC raw
ol nikov
ĠB us
Ġcomm it
ĠØ§Ø¹ Ø·
ĠØ²ÙĨ Ø§ÙĨÙĩ
ĠØ§Ø± Ø§Ø¨Ùĩ
ask olnikov
Ġemph as
w an
Ø¨ ÛĮÙħ
Ġs igh
Ġd irty
Ġr ag
ab et
Ø§ÙĨØ¯ Ø§Ø²Ùĩ
ĠÛĮØ§ÙģØª ÙĨØ¯
Ø¨Ø® Ø´ÛĮ
Ġorgan ized
ĠÙĦØ±Ø² Ùĩ
Ġconsum ption
Ġmole cules
Ġlean ed
Ġaspect s
ĠÚ© ÛĮÙĨ
Ú¯ ÙĦÛĮ
nd ed
ĠÙĩÙħ Ú¯Ø§ÙĨÛĮ
ĠØ³Ø± Ø´Ø§ÙĨ
ĠÙħØŃ Ø§ØµØ±Ùĩ
Ġbreat hing
Americ an
ĠÙĪÙĤØ§ÛĮ Ø¹
b ow
ĠØ³ Ø§ÙĤ
Ġn urse
ĠØ¨Ø± Ø§Ø¯
ĠO per
ĠÙ¾Ø³ Ø±Ú©
Ù¾ÛĮ ÙĪÙĨØ¯
ĠÙħÙĦ ØŃÙĤ
v ol
Ù¾ Ø§Ø³
Ġth read
ĠØ¹ Ø¨Ø§Ø±
Ġal oud
ĠH ill
our se
ĠØ§Ùĩ Ø¯Ø§
Ġimag ined
Ġphot os
Ø¯ ÙĪÙĦØª
Ø¬ ÛĮØ¯
ĠB ert
ĠG all
Ġj ack
ĠÙĤØ± Ø¨Ø§ÙĨ
ĠÙĨÙĤ Øµ
ÙĪØ¨ ÙĨ
ĠAr gent
Ġgu ilty
ØªÙĦ Ø§ÙĨ
Ġfair ly
ĠØ§Ø³ÙĨ Ø§Ø¯
Ġfart her
S m
ÙĪ ÙĪØ¯
he im
ĠÙħ Ø¬Ùĩ
ĠÚ© ÛĮÙĨÙĩ
ĠÙħÛĮ ÙĩÙħØ§ÙĨ
Ġh ills
ĠÙĩ ÛĮÙĦ
Ø® ÙĦ
ud a
Ú©ÙĪ ÚĨ
oint ment
Ġexist ed
Ġleaders hip
ĠÙħØªØ¹Ø¯ Ø¯
Ġt ied
ĠÚ© Ø±ÙĪ
re land
Ġh olid
ĠÙĩ Ø§ÙĦ
ĠP ower
Ġqu een
ĠØ¬ÙĨ ÙĪÙĨ
ĠØ§Ø¯ Ø¹
St ill
Ġplan ets
Ġcry st
Ġmess ages
ĠØ¢Ø° Ø±Ø¨
Ġsole mn
ĠÚ©ÙĪØ§ÙĨ ØªÙĪÙħÛĮ
it age
ĠØ³ Ù¾Ø±
ĠÙĦ ÙĨÚ¯
Ġse lect
ĠÚ©Ø§Ø± Ú¯Ø±Ø¯Ø§ÙĨ
ĠD ata
ind ing
ĠØ§ÛĮØ§ÙĦ ØªÛĮ
Ġrep ro
Ġocc as
ĠCl ass
ĠMon te
ĠÙĨØ±Ø³ ÛĮØ¯Ùĩ
E G
m at
ĠØ³Ø± Ú¯Ø±Ø¯Ø§ÙĨ
Ġv on
ĠØ§Ø³ ÙħÛĮØª
ĠØ§Øª ÙĪØ¨ÙĪØ³
Ġsp o
ĠÛ±Û¹Û µÛ°
Ġâ ī
Ġmir ror
ĠÙĨ Ø®ÙĪØ§ÙĩÙĨØ¯
or ous
ĠÙĩ ÙĢ
ĠØ® ÙĪÙĨÙĩ
Ġth orough
Ġl ake
Ø±ÛĮ Ø±
ĠN ic
ell ing
ÙĪØ±ÛĮ Ø³
ure au
lo yd
ĠØ¯ÙĦ Øª
Ġpre c
ĠØ¬Ø§ ÙĩØ§ÛĮ
Ú©ÙĪ Ú©
Ġcol ors
ĠÙħØªÙĨ ÙģØ±
Ġroad s
ĠÙ¾Ø²Ø´ Ú©Ø§ÙĨ
Ù¾ÛĮØ± ÙħØ±Ø¯
ĠÙĨØ´ÙĨ ÛĮØ¯Ùĩ
ĠÙħÙĤØ± Ø±Ø§Øª
S M
ĠØ¨ Ø§Ø¯ÛĮ
ÙĦ Ø±
at ures
ĠÙħÛĮ ÙĦÙĩ
Ġn et
Ġst air
ĠC ir
ĠØ³Ø§ÙĦ ÙĩØ§ÛĮ
ĠØªÙħ Ø¯ÙĨ
Ġexper iments
ĠÛ±Û³Û ¸Û
Ġrepe at
ĠÙħØ§Ùħ Ø§ÙĨ
Ġaccomp an
ĠØ¨ Ø¬Ø²
Ġb ore
Ø® Ø§Ø³Øª
ĠÙĤ Ø§Ø¦ÙĦ
pe l
our ing
ĠØ±ÙĪØ² Ú¯Ø§Ø±
ĠØ§Øª ÙħÛĮ
ect ion
ĠØ« Ø¨Ø§Øª
Ú¯Ø°Ø§Ø± Ùħ
ĠDe velopment
ĠØ§ÛĮØ± ÙĦÙĨØ¯
ĠØªØ±Ø³ ÙĨØ§Ú©
Ġdescri ption
ĠØ¨Ø¨Ø± Ùħ
ĠRober ta
uh ammad
ĠÚ© Ø§Ùĩ
Ġb at
as per
ØŃ Ø¶
Ġr iding
ĠØ§ØŃ ØªÙħ
ĠÛ²Û ¹
ĠÚ©Ø±ÛĮ Ø³
Ag ain
ĠØ¯ ÙģØ§Ø¹ÛĮ
Ġp ink
ĠØŃ Ø±Ø§Ø±ØªÛĮ
qu es
ĠØ° ÙĪÙĤ
Ġprov iding
Ø´ÙĨØ§Ø³ Ø¯
Ġce ased
ĠÙħÛĮ Ø´Ø¯
ĠØ¬ ÙĪÙĦÛĮ
ant es
ĠN AS
ĠO f
Ġdis order
Ġsc hed
Ġinc ident
Ġ4 00
Ġadd ressed
ĠÙĩÙħØ§Ùĩ ÙĨÚ¯
I nt
ic on
Ġg ig
ĠÙģ Ø§Ø´
ro se
ir a
us ive
ĠV ronsky
ĠÙģØ±ÙĪ Ø®ØªÙĩ
ĠØ§ÙģØ² ÙĪØ¯Ùĩ
ĠÙħØ§ÙĦ Ú©
ĠØªÙĤÙĦ ÛĮØ¯
6 7
ĠØ® Ø³
ĠØ¨Ø± ÙĨÙħÛĮ
Ġwh ist
Ġj oint
ĠÙĩÛĮ Ø¬
ĠØ§ÙģØª Øª
Ø¯Ø§Ø± Ùħ
Ġstand s
ĠÙħÙĨØª Ø¸
ĠØ¯Ø§ÙĨØ´Ú¯Ø§Ùĩ ÛĮ
ĠCol omb
ĠOr der
Ø± ÙĪØ±
um ble
Ġadv oc
Ġterri f
ĠJac ob
Ġsoci et
Ġ ille
ĠØ´Ø¯ ÛĮ
un ning
res ents
ĠÙģØ±ÙĪØ¯ ÙĪ
Ġbran ches
D espite
f in
} \
Ù¾ Ø§ÛĮÙĩ
ÙĪØ³ Ùĩ
ĠY an
ĠØªØ´ Ø±ÛĮÙģ
ĠÚ©ÙĦÛĮ Ùĩ
ĠÙ¾Ø±Ø¯ Ø§Ø®ØªÙĩ
ĠØ¨Ø²ÙĨ ÛĮÙħ
Ġge nder
Ġtransl ation
Fin ally
O M
l ar
Ġs ighed
ĠÚ¯ Ø±Ø§
Ġsh aring
ĠØ³ÛĮ Ø§ÙĩÛĮ
Ġtele phone
Ġwood en
ĠÙ¾Ø±ÛĮ Ø´Ø§ÙĨ
ĠØ§ÙģØ³Ø± Ø§ÙĨ
Ġmeas ures
ĠØªÙħØ³ Ø®Ø±
urel iano
ĠØ´ Ú©ÛĮ
ĠÚ©Ùĩ ÙĨ
ĠT im
ĠN ether
ĠØ²ÙĨ Ø¨ÙĪØ±
ĠÙħØ§Ø± Ú©
Ġresult ing
reed om
ĠÙĨØ§Ø´ÙĨ Ø§Ø³
ll er
ĠØ² ÙĦÛĮ
our ce
ĠÙħØª ÙĪ
Ø³Ùħ Ø³
Ġann ual
Ġdiv ision
Ġer a
Ġcollect ed
ĠCam bridge
Ġdign ity
Ø§ÙĨ ÙĪØ±Ø¯
Ġc ot
an cho
Ġn ut
Øµ ØŃ
Ġex cess
ĠK en
ĠÙĨÙħ Ø§Ø²
ĠÚ¯ÙĪØ´ Ø´
ner gy
ĠÛ±Û¹Û¹Û ´
ĠØ§Ø¨Ø± Ø§ÙĩÛĮÙħ
Ø±Ø§Ø³ Ú©ÙĦÙĨÛĮÚ©Ùģ
Ġunc onscious
Ġarran g
I G
p ress
ĠÙħ Ø¯Ø§Ø®
ĠØ±Ø§ ÙĦÙģ
ĠL uc
ĠW ater
Ġdis g
ĠØ±Ø³ÛĮØ¯ Ú¯ÛĮ
Ġnight s
Ġel im
Ġsw itch
ĠØ®Ø±ÛĮØ¯ Ø§Ø±ÛĮ
ÚĨØ´Ùħ Ùĩ
Ġvac c
Ġspl it
P lease
S E
s omet
ÛĮ Ø³
or gan
Ġg ift
Øµ Ø¯ÛĮ
ac her
Ġcon ference
ĠH ome
ĠÙħØ´ Ø±ÙĪØ¨
Ø§Ø· Ùĩ
ord an
ÙħØ³ Ø¦
Ġren ew
ĠØ¹Ùģ ÙĪÙĨØª
Ġfol ks
Ġmaxim um
ĠØ§ØŃØªÙħ Ø§ÙĦÛĮ
5 00
ĠØ¨Ùĩ Ø´Øª
Ø¢ ÙĩÙĨ
ĠW ith
Ġag ent
Ġbet ray
Ø¨Ø§Ø± Ø§ÙĨ
ĠØ¬Ø§ Ø°
Ġent ry
Ġsupp er
ĠÙħØµ ÙħÙħ
Ġ198 5
ane ously
Ġav o
Ġmot iv
Ġtask s
Ġrough ly
Øª ÙĪÙĦÛĮØ¯
Ø³ Ú©ÙĪ
ĠØª Ø¨Ø±
ÚĨ Ø§ÙĤ
ĠØ¨Ø± Ø§Ø¨Ø±ÛĮ
ĠÙĨÙĪ Ø¢ÙĪØ±ÛĮ
ĠØ§Ø· Ø§Ø¹Øª
Ġunder t
iss ions
hes s
Ġart ificial
ĠØ¢ÙħÙĪØ² Ø§ÙĨ
Ġremark able
Ġluck y
Rum ex
Ø´ ÛĮÙĨÛĮ
ĠÚ©Ø§Ø± Ú¯Ø±Ø¯Ø§ÙĨÛĮ
Ġad apt
ĠÙĦÛĮ ÙĪØ§ÙĨ
ĠØ³Ø±Ø¯ ÛĮ
Ġdistribut ed
Ġspirit ual
alle l
Ġh ated
Ø§Ø¯ Ùħ
Ġl an
ØªØ± Ø³Ùħ
ast y
Ø¨ÛĮÙĨ ÙĨØ¯
gg er
ĠØ§Ú©Ø« Ø±ÛĮØª
m und
Ø³ ÙĨÚ¯
Ø³ Ø®Øª
ĠØª ÙĦÛĮ
ÙĪÙĨ Ø²ÛĮ
Ø¯Ø± ØŃØ§ÙĦÛĮ
ĠÙĦ Ø¦ÙĪÙĨ
ie ce
Ġj umped
ĠAn n
Ġele v
ĠÙĤØ¯ ÙħÛĮ
ĠØ¨Ø±Ú¯Ø±Ø¯ Ø¯
Ġveh icle
C L
ÙĪØ¯ ÙĪØ±
ĠI reland
ĠØ§ÙĪ Ø§Ø³
ĠS a
ĠØ· ÙĨÛĮÙĨ
ĠD ie
Ġimp r
Ġconf ident
Ġmark ets
Ġobs c
Ġla unch
Ġcapt ured
ĠÙħØŃØ§Ú© ÙħÙĩ
Ø² ÛĮÙĨ
Ġl ung
ĠØ¹ Ø§Ùħ
un te
ĠØ¨Ø§Ø² ÛĮØ§ÙģØª
ĠØ§Ø³ ÙĤÙģ
Ġpl astic
ĠÙĨÛĮ Ø§ÙħØ¯
ens es
ĠÙĪ Øµ
ĠØ´ ØµØª
ĠÙģ Ø³Ø§Ø¯
Ġres c
Ġgr ab
Ġfl ash
ĠØ§Ø¹ ÙħØ§ÙĤ
Ġrem ov
ĠÙħÙĩ Ø§Ø±
Ġval u
ĠÙĦÙĩ ÙĪÛĮÙĨ
ĠØ¹Ùĩ Ø¯
Ġgaz e
ÙĪ ÙĪ
ĠØ¨Ø± ÚĨØ³Ø¨
ĠØ² ÛĮÙĨ
ĠÚ©ÙĨ Ø§Ø±Ùĩ
ĠE s
Ġco al
Ġmed ium
Ġann oy
ĠØ¨Ø´ÙĨ ÙĪØ¯
Ġshad ows
Ġvictim s
Õ ¡
Ø´ Ø±ÙĪØ¹
Ġb one
as ia
ĠÚ¯ Ø§Ø±ÛĮ
ĠØ¨Ø± Ø§Ø³Ø§Ø³
Ø· Ø±Ø¨
am ps
ok es
ap se
Ø§ÙĨØ¯ Ø§
Ġcl ust
ĠÙģÛĮÙĦ Ø³
ĠÙ¾ÛĮØ± Ø²ÙĨ
Ġmov es
Ġattack ed
ĠØ§Ø¨Ø²Ø§Ø± ÙĩØ§ÛĮ
ani el
Ġgrad ually
r d
ĠÙĨ Ø§Ø²ÛĮ
or ry
ĠÙ¾ ØªØ§ÙĨ
od or
ĠÚ©Ø§Ø± Ø§ÛĮÛĮ
ĠÚ©Ø§Ø± ÙħÙĨØ¯
Ú©Øª ÙĪØ±
ron ic
Ġele ven
ĠCol umb
Ġmis erable
Ġcompan ion
Ġspend ing
Ġsurv ive
ÙħØ·Ùħ Ø¦
Ġinnoc ent
g ly
ĠÙ¾ Ø³ØªÛĮ
ĠØªÙĪ Ø§ÙĦÛĮ
Ġsu fficient
ÙĦØ¨ Ø§Ø³
ĠDe ath
oll ow
Ġdep ression
ÛĮÙĨÚ¯ ØªÙĨ
ĠØ¨ÛĮØ§ÙĪØ± Ùħ
L a
b ird
le vel
ĠÙĤ ÙĪÙħ
ĠW ay
ÙħÙĪ Ø¶
li est
Ø§Ø¦ ÙĪ
Ġ198 4
Ġcut ting
Ġhop es
ĠÚ©ÙĪØ± Ùĩ
ĠØ§ÙĨØ¹ Ø·Ø§Ùģ
ĠÙĤÙģ Ø³Ùĩ
O U
ĠØ± Ù¾
or se
ĠØ¢ Ø³ØªÛĮÙĨ
Ġin her
ĠØ¹ Ø§Ø·
ĠÙĨØ¯ Ø§Ø±Ùĩ
Ġpre tend
ĠØ¬Ø§Ùħ Ø¹
ĠÙħÛĮÚ© Ø±ÙĪ
ĠØ´Ø¬Ø§ Ø¹
Ġh oles
ur i
Ø§Ø² ÛĮØ±
ĠØ³ÙĨ Ú¯Ø±
Ġconf irmed
ĠÙ¾Ø§Ø± ÙĦÙħØ§ÙĨ
ĠØ¨Ú© Ø´Ùħ
Ġproper ly
ĠØ¬ØºØ±Ø§ÙģÛĮ Ø§ÛĮÛĮ
Ùħ Ø§ÛĮÛĮ
ĠÙĨ Ø¬ÛĮØ¨
Ġb ud
Ġm ile
ĠØ³ ÛĮÙĨÛĮ
ch a
ĠØ¯ÙĪ Ø§Ùħ
Ġsp aces
ĠØ¨ÛĮØ± ÙĪÙĨÛĮ
ĠÙĤØ§ÙĨ Ø¹
Ġless on
ĠTe le
Ġadm itted
ĠØ¯Ø³ØªÛĮ Ø§Ø¨ÛĮ
ĠØ¨ÛĮØ§ÙĪØ± ÙĨØ¯
ĠÚ©Ø§ÙħÛĮ ÙĪÙĨ
ĠØªÙĪÙĩ ÛĮÙĨ
ĠØ§ Ø¯ÛĮ
ĠÙħÛĮ Ø³
Ġm os
Ġn urs
ĠØŃ Ø§ÙħÛĮ
ag ram
Ġsh ift
ĠÙħØ± Ø¨ÛĮ
ĠÙħØ® Ø¯Ø±
ĠLe e
ĠØµØ¯Ø§ ÙĩØ§ÛĮ
ĠØ¨Ø± ÙĩÙħ
ÙĦÛĮ Ùģ
pe lled
ĠG riff
ĠW hen
ep s
ĠÙħØ¬ ÙĪØ²
Ġkind ness
ĠØ¢ÛĮ ÙĨØ¯
Ġsw all
ĠPol it
ĠØ³ÛĮØ§Ø³Øª ÙħØ¯
he ther
ĠØ¬ ÙĨÛĮÙĨ
ĠB al
ĠÙĨÙĪ Ø¨ÙĦ
ĠØ§Øª ÙĩØ§Ùħ
ĠØ¹Ùħ Ø±Ø´
Ġpo ison
ĠÚ¯Ø±Ø¯ ÛĮØ¯Ùĩ
ib ilities
ĠØ³Ø§Ø² ÙĨØ¯Ùĩ
ĠØ¨ÛĮÙħ Ùĩ
ĠAl bert
Ġhard er
ĠØ¨Ú¯ÙĪÛĮ ÛĮÙħ
rodu ction
ĠAzer bai
Øª ÙĪÙħ
Ġthe ories
Ġe cho
ad i
ĠC osette
Ġlo ad
Ġrec ol
ĠÙħØ§Ùĩ ÛĮØª
ĠØ§Ùĩ Ø§ÙĦÛĮ
Ġev alu
ĠØ§ÙģØªØ§Ø¯ ÙĨØ¯
ĠÙħÙĪØ¬ÙĪØ¯ ÛĮ
ĠØ´Ø§ÛĮ Ø¹
anab us
S T
ĠØª Ø±ÙĪ
ĠØµ ÙĦØ§ØŃ
ĠØªÙĪ Ø¬ÛĮ
art ed
ĠE p
ĠÚ©ÙĦ Ø§ÙĨ
ĠØµØŃ Ø±Ø§
Ġhead ed
Ġincre ases
ĠÛ±Û¹Û¹Û ±
Ġgaz ed
3 8
Ú© Ø¯
ĠÙĨ ÛĮØ§ÙģØª
ĠP C
Ġab road
Ġlo ves
Ġen emies
Ù¾Ø³ ÙĨØ¯
Ġcomm ission
ĠØºÛĮØ± ÙħÙħÚ©ÙĨ
Ġdist ur
Ġsur vey
Ġve get
ĠØªØ³ ÙĦÛĮ
ĠPe ace
Ġder ived
Ġvari able
ĠNich olas
w ould
Ø¯ ÙĨÛĮ
in ction
Ġat e
Ġpe asant
Ġsing er
ĠÙ¾Ø§Ø± Ø§Ùħ
ĠPar liament
Ø«ÛĮ Ø±ÛĮ
sc ape
Ġmid st
ĠÙĦØ· ÙģØ§
ĠØ¢Ù¾ Ø§Ø±ØªÙħØ§ÙĨ
ĠÙħÙĨÙģ Ø¬Ø±
Ġaband oned
ĠDemocr atic
Ġintellig ent
n s
ÙĨ ÙģØ³
in ian
ic ip
Øµ Ø§Ø±
ĠÙħØª Ø´Ú©ÙĦ
Ġdif f
ÙĤØ± Ø§Ø±ÛĮ
Ġbad ly
Ġwat ers
Ù¾Ø§ÛĮ Ø§ÙĨ
ĠØ±Ø¤ ÛĮØ§
ĠØ¨Ø§ÙĩØ§ Ø´
Û²Û°Û ±Û
j a
ĠÙħ Ú©Ø±
ĠØ¢ÙĨ ÛĮ
Ø§ÙĦÛĮ Ùĩ
Ø§ÙĦÛĮ Ø³Ùħ
Ġret ired
Ġap artment
ĠÙħÚ© Ø«
Ġoffic ially
Ġleg isl
ĠØ§Ú© ØªØ´
ØªØµ ÙħÛĮÙħ
Ġoverw hel
Ø± Ø§ÙĨÙĩ
Ġt ent
it o
Ġm ouse
ĠØ¨Ø± Ø§ÙĪÙĨ
pt ed
ĠØ§ØŃ Ø§Ø·Ùĩ
ĠØ¨Ø§ÙĦ Øº
ĠØ¢Ø± Ø§ÛĮØ´
Ġsynt ax
ĠFed eral
ĠFranc isco
ĠØ± Ø¬
et ers
ĠÙĤ ÙĦÙĩ
ĠØ¯ÙĪ Ú©
pl ied
ĠØ§ÙĨØ¬Ø§Ùħ Ø´
Ġinv isible
ĠÙĨÙħÙĪØ¯ ÙĨØ¯
Ġiss ued
Ġmer ch
Ġmiss ed
Ġsend ing
ĠEgypt ian
Ġphr ase
t es
Ø¹ Ø§ÙħÙĦ
ĠR oc
ĠÙħØŃ Ø±Ú©
Ġask s
Ġmin ister
Ġnecess arily
ĠØ´Ø·Ø± ÙĨØ¬
) "
A lex
Ùħ Øµ
Ú© Ø§Ø´
Ġw olf
ĠØª Ø¹ÙĩØ¯
ĠØ§ÛĮÙĨ Ú¯ÙĪÙĨÙĩ
ĠØ¨ÛĮ Ø§ÛĮÙĨØ¯
ĠØ· Ø¹
Ġtr ained
ĠÙħÙĩÙħ ØªØ±ÛĮÙĨ
Ġarg ue
ĠÙĪØ§Ø³ Ùĩ
ĠØ¨ÙģÙĩÙħ Ø¯
ÙĪØ¦ ÙĦ
2 6
ÙĪØ¯ Ø±
Ø§ÙĦ ÙħÙĩ
ĠØ¹ Ø§ÙĤØ¨Øª
ĠP acific
Ġex ceed
Ø¨Ø§ Ø³ÛĮ
ĠÛ±Û ²Û
Ġpr ices
Ġâ Ĩ
Ġconf usion
Ġed itor
ĠØ¬ÙĦÙĪ ØªØ±
ĠÚ¯Ø±ÛĮ ÙģÛĮØ«
iction ary
Ġdocum ents
Ġrecomm end
S am
Ġs ne
Ġb att
ac hel
ĠC rist
Ø¶ ÙħÙĨ
Ġr ab
ĠD ick
ĠÚ¯Ø± Ø§ÛĮØ´
ĠV e
ĠØ®Ø§Ø± Ø¬Ùĩ
Ġrep resents
ĠØ±Ø§ÛĮ Ú¯Ø§ÙĨ
ĠÙĪØ³ÛĮ Ø¹ÛĮ
ĠØºÙħ Ú¯ÛĮÙĨ
ĠRo ad
R et
Ġbe ard
ĠØ¢ÙĨ Ø¬Ø§ÛĮÛĮ
ĠM ot
Ġr ational
ĠØ¨Ø¯ ÙĪ
Ġinst ruction
Ġdifferent ly
ĠQ ur
ĠAs s
ĠÙĪØŃØ´Øª ÙĨØ§Ú©ÛĮ
ĠØ±Ùħ Ø²ÛĮ
ĠIvan ovna
ĠÚ©Ø§ÙĪ Ø´
Ġacquaint ance
ĠØ³ÙĪØ³ÛĮ Ø§ÙĦ
b ell
w a
Ø¨ Ø³ØªÚ¯ÛĮ
Ġin ev
Ø¢ ÙĦÛĮ
un s
ĠH oly
Ġlo ving
ĠØ¨Ø§Ø² Ø§Ø±ÛĮ
ak i
ĠÙħØŃ ØªÙĪ
Ġad ults
Ø§ÙħÛĮ Ùĩ
Ø£ ÙĦÙĩ
gg ing
ĠÙħØ± Ø®Øµ
ĠØ®ÙĪØ§Ø³Øª Ø§Ø±
ĠØ¯Ùģ ÙĨ
Ġopp osed
Ġnorm ally
ĠBook s
Ġdread ful
ĠØ§ Ú©ÙĪ
ĠØ¯ Ø§ÙĦ
ĠØ³ ÙĪØ³
ut en
ĠA th
ÙĦØ§ Ú¯
Øº Ø§ÙĦÛĮ
ĠØ¬Ø² ÙĪ
Ġmon itor
ĠÚ©Ø´ÛĮØ¯ ÙĨØ¯
Ġexc use
ĠFl or
Ġcharm ing
Ġintellect ual
Ã ±
Ġd ared
Ø§Ø¯ Ø§Ø±ÛĮ
ĠM ax
ol ars
Ø§ÙĤ Ø¯
ÙĨÛĮ Ù¾
ĠÙħØ¹ Ø§Ø´
ĠÙħØ±Ø¯ ÙħØ§ÙĨ
ĠØ§ÙĦ Ø¢ÙĨ
Ø²ÛĮ Øª
ĠØ±ÙĪØ´ ÙĨÛĮ
Ġdel ivered
ĠÙħØ§ÙĨØ¯ ÙĨØ¯
Ġtest s
Ġrecogn ition
Ġattempt ed
ĠØºÙĦ Ø¨Ùĩ
ĠTechn ology
Ø§ Úĺ
ĠÙħ ÚĨ
ÙĦ Ø±ÛĮ
Ġl one
Ġl ord
ĠÙħÙĨ Ø²
ØªÛĮ ÙĪ
ol ves
all ing
Ġfl ed
Ø¨Ø® Ø´Ø¯
Ġcomplex ity
II I
ĠØ¨ÙĪØ³ Ùĩ
Ġinform ed
4 4
R es
S ir
V D
Ġs add
ĠØ¢ ÙĩÛĮ
ur ther
ĠÙħÙĨ Ùħ
ard ens
Ġown ers
Ġdec ade
19 5
ĠØ¨Ø§ÙĨ ÙĪÛĮ
Ġcommand er
Ġimmedi ate
Ø§ Ø«
ĠÚ© Ø§ÙĨØ¯
ĠØ¯Ø± ÙĪÛĮØ´
ĠÛĮ Ø³
Ġre aching
ĠØµ Ø±ÛĮØŃ
ĠG ould
Wh ich
Ġfl ung
ÙģØ±ÛĮ Ø§Ø¯
Ġinvol ve
Ġmechan ical
ĠÚ¯Ø´ÙĪØ¯ Ùĩ
Ġtiss ue
ĠÙĪÛĮØªÙĨ Ø§Ùħ
z z
Ø± Ø¦ÛĮ
Ø§ÛĮÙĨ ÙĩØ§
ĠT al
ĠØ¨ÙĦ Ø¯
ĠØ¯Ø´ ÙĪØ§Ø±ÛĮ
ĠTur ks
Ġliber ty
Ġvul ner
Ġgrate ful
r ations
Ø§ Ø°
ĠÙĨ Ø±ÙģØªÙĩ
ac ious
ĠÙĤ Ø§Ø±
um ps
ĠG ames
Ġpre par
ĠØ§ÙĪÙĦ ÙĪÛĮØª
ĠAr ts
ĠÛ±Û¹Û¹Û ¸
Ġtyp ical
ĠÚĨØ§Ø± ÚĨÙĪØ¨
pir ation
ĠØ¹Ø° Ø±
ĠAlexandrov itch
ĠÛĮÚ©Ù¾Ø§Ø± ÚĨÙĩ
B arb
as ingly
ĠD ec
ĠÙĨÙĤ Ø§Ø´
ĠØ§Ø± Ø«
oll owing
Ġbi ology
Ú©Ø´ÛĮ Ø´
Ġcapt ure
ĠÙģØ§Ø¬ Ø¹Ùĩ
k ward
Ø± ÙĪÛĮÙħ
ir s
Ø§Ø² ÙĨ
Ġv en
ard on
ĠJ ones
ĠO ut
Ġany more
ĠØ¨Ø±Ø¯ Ùħ
ĠØ¨ÙĦÙĨØ¯ ØªØ±
ĠÙĨÙĪØ² Ø¯ÙĩÙħ
ĠÙħØ±Ø§Ø¬ Ø¹Ùĩ
Ġcig are
ĠØ³Ø± Ø§Ø²ÛĮØ±
ĠØ§Ø¯ Ø§Ø±ÛĮ
ĠÙĦÛĮ Ø¨Ø±
ĠAs ian
Ġval ley
ĠÃ Ĺ
ĠCraw ford
B I
Ùħ Ú¯ÛĮ
ĠÙģØ± Ø´ØªÙĩ
ĠE duc
ĠØº ØµÙĩ
ĠÙħÙĤ ØµÙĪØ¯
ĠAr thur
Ġexpl ore
Ġfall s
Ġinit ially
ÙħÛĮ Ø§ÙĨÙĩ
ĠI BM
ĠÙĤ Ø§ØªÙĦ
ØªØ± Ùĩ
Ġsh ore
Ġdis cipl
ev itch
ĠØ³Ø§ÙĨ ØªÛĮ
Ġimplement ation
ĠÙħØ·ÙħØ¦ ÙĨÙħ
Ø§Ø± ÛĮÙĨ
Ġh ob
ĠØ¢ ØªÙĦØ§ÙĨ
ĠØ§ÙĨ Ø²
ĠR am
Ġcomp ound
ØªÙĪØ§ÙĨØ³Øª ÛĮÙħ
Ġfil es
Ġinf l
Ġexc iting
ĠØ±Ùģ Ø¹
Ġweak ness
0 7
P R
S ure
c r
ĠÙħ Ú©Øª
ĠÙħÛĮ ØªÙĪÙĨÙĩ
ĠÛĮ Ø§ÙĨ
Ġv ig
Ø´Ùħ ÙĨØ¯
ĠÙħØ³ Ø§ØŃØª
Ġinst antly
ĠÛ³ Û°Û°
enn y
ĠÚ©Ø±ÛĮ Ø³ÙħØ³
Ġpolic ies
Ġcustom ers
Ġconsequ ences
Ġult imately
O ut
Ã ¢
Ùģ ÙĪÙĨ
ar ling
Ġl amp
ĠÙģØ± Ø·
ĠØªØ± ÙĨ
Ġbu b
ĠØ§Ø±Øª ÙĤØ§
ĠØµÙģ ØŃØ§Øª
ĠØ¶Ø± ÙĪØ±Øª
ĠÚ©Ø§Ø² ÙĪØ¨ÙĨ
ĠØ´ÛĮÚ© Ø§Ú¯ÙĪ
ĠØµØ¯Ùħ Ùĩ
ĠØª Ø±Ø§Ùģ
ĠØ´ ØªØ§
ØªÙħØ§ Ø³
Ġbenef its
ÙģØ±ÙĪØ¯ ÙĪ
ĠJes us
Ùħ Ú©
Ú© ÙĢÙĩ
ĠÙģ Ø§ÙĤØ¯
ÙĪÛĮ Ø³Ùħ
ĠÙħÙĨ Ø¹
ĠØ±ÙĪ Ø§ÛĮØª
ĠD am
ict ed
ĠØ§Ø¯ ØºØ§Ùħ
ĠÙĨÙģ ÙĩÙħ
ĠSh annon
cri ption
Ġwa ist
ĠÛ±Û¹Û¹Û ¹
ĠBel g
Ġdeb ate
ĠØ§Ú©Ø³ ÛĮØ¯
ĠØªØ¹Ø·ÛĮÙĦ Ø§Øª
p ers
ĠØ¨Ø± ÛĮØ¯
ĠØ¨Ø± ÙĪÙĨ
ĠR en
ĠÙģØ± ÙĪØ±
ĠØªÙħ Ø¬ÛĮØ¯
ĠØªÙĤ ØµÛĮØ±
ĠØ±ÛĮ Ùĩ
ĠÙ¾Ø§ ÙĩØ§ÛĮØ´
Ø¨Ø¹ ÙĦØ§ÙĪÙĩ
Ġdi plom
Ġofficial s
Ġprinci pal
aud i
Ne xt
ĠØ¬Ø§Ø¯ÙĪ Ú¯Ø±
ĠViet nam
ĠØ§ ÚĨ
Ġo h
ĠØª ÙĨÛĮ
Ø¯Ø± ÙĪÛĮØ´
Ġsu gar
ĠF air
Ġdis h
ĠÙħØ¯ Ø§ÙģØ¹
Ġimp ress
ĠØ§ÙģØ³ Ø±Ø¯Ùĩ
ÙĦØ§ÙĨØ¯ ÙĪ
ĠØ§ Ø±Ú©
Ġw ars
Ùģ Ø§ÙĨÛĮ
ĠØ´ Ø±Ú©
ÙĪÛĮ Ø¬
ĠC ro
ĠT ra
Ø¨Ø± Ùħ
ĠH agrid
Ġup set
az ar
ĠCon st
ĠÚ©Ø´Øª Ø§Ø±
ĠÙħØ¶ Ø·Ø±Ø¨
ĠÙĨØ§Ø¯Ø± Ø³Øª
Em ma
4 9
Ġd ining
ØŃ Ø´
ĠÚ¯ ÙĦÙĪ
ĠÙĦ Ø¨Ø§ÙĨ
ĠØ§ÛĮ Ø§Ùħ
av ig
ĠÚ¯Ø° Ø§Ø±Ø¯
Ġac celer
Ġhel ps
Ġfind s
ĠÙĨÛĮØ§Ø² ÙĩØ§ÛĮ
ĠØ¨Ú¯Ø°Ø§Ø± ÛĮÙħ
Ø§ÙģØ± Ø§Ø¯
ĠØŃÙĪ Ø§ÙĦÛĮ
ĠØ§Ø° ÛĮØª
ĠÙħÙĪØ§Ø¸ Ø¨
Ú© Ø§Ø³ÛĮ
ĠØ¨ ÙħØ§ÙĨÙĨØ¯
Ø§ÛĮ Ø§ÛĮ
Ùģ ÙĪÛĮ
er ate
ĠØŃ ÙĪØµÙĦÙĩ
ĠA ge
ĠÚ¯ÙģØª Ø§Ø±
ĠØªØ¹ ÙħÛĮØ±
ĠØ§Ø¹ Ø±Ø§Ø¨
ik i
Ġprov in
ĠÛ±Û¹Û¹Û µ
Ġarg ued
ĠÚ©Ø§Øº Ø°ÛĮ
Ġspecific ally
m aking
Ġp ist
ĠØ® ÙĪÙĨÛĮ
ĠØŃ Ø§ÙħÙĦ
ac o
ĠØ¹ Ø¬Ø¨
ÙĪÙĦ Ø§ÙĨ
ĠB ah
em an
ĠÚ¯ÙģØª Ú¯ÙĪÛĮ
ĠL arry
Ġbr ings
Ġexp ans
ĠMar ia
ĠÙĪÛĮØ± Ø§ÙĨ
Ø§Ø¯ÙĪ Ø§Ø±Ø¯
Ġemploy ed
ĠØ¯Ø§Ø¦ ÙħØ§
Ġneare r
ĠGeorg ia
d es
ä ¸
Ø³ ÙħØ§ÙĨ
ig ration
ÙģØ± Ø¶
ÙĬ Ø§
Ú¯Ø° Ø±Ø§ÙĨØ¯
ĠÙĤØ· Ø±
Ġcond em
n i
ag g
ĠÙĤØ± ÙĪÙĨ
ĠØ´ÙĨ Ø§Ø®ØªÛĮ
ĠÙĨÙĤ Ø¶
Ġsc he
ĠØ¯ÙĨÛĮ Ø§ÛĮÛĮ
Ġcor rid
cer ning
Ġmagn etic
ĠØ§ØªÙħ Ø§Ùħ
ĠØªØ§ Ú©
ĠÙĨÛĮ Ø§ÙĪØ±Ø¯
Ġgener ate
Ġaw kward
Ġsett le
ĠØ´Ø¬Ø§ Ø¹Øª
Ġasse m
ĠArk ady
itzer land
D L
U N
ĠØ¹ Ø«
Ø´Ø¯ ÙĨ
em p
Ġshe et
ĠÙħØŃ Ø±
ĠK itty
ĠÙĩØ§ Ú¯
Ġent ering
Ġ198 8
Ġabs urd
ĠØ´ÛĮØ± ÛĮÙĨÛĮ
Somet hing
Ġconstit ution
ĠØ¨ÙģÙĩ ÙħÛĮÙħ
ĠPeters burg
ĠÙ¾ØªØ§ÙĨ Ø³ÛĮÙĦ
l an
ĠB ern
os ure
ĠG re
Ġte en
Ġ194 5
Ġpay ing
Ġesc aped
ĠIsrael i
Ġess entially
ĠØ¨ÛĮÙĨØ¯ Ø§Ø²Ø¯
Ø¢ÙħÙĪØ² Ø§ÙĨ
Ġf ulf
or r
ĠA gency
ĠØ§ÙĨ ÛĮ
Ġser ving
ĠØŃØ³ ÛĮÙĨ
Ġprodu cing
ĠMe g
ÙħØ´ Ú©ÙĦ
ĠØ§ØµÙĦØ§ØŃ Ø§Øª
Ġt ables
ĠÙħÛĮ Ú©ÙĨÙĨ
or us
ĠØ±ÙĪ Ø¨Ø§Øª
ag a
ĠÚ©Ø§Ø± Ú¯Ø§Ùĩ
Ġout er
Ùĥ ÙĨ
Ġsil k
ĠÙĩÙĨØ¯ ÙĪ
ÙĤØ§ÙĨ ÙĪÙĨÛĮ
ĠÙħØ°Ø§ Ú©Ø±Ùĩ
ĠA R
ĠØªØ¹ ÙĦÛĮÙħ
Ġcons cience
ĠØ¢Ø± Úĺ
Ġsle e
Ġexcept ion
t ure
y stem
ĠÙ¾ Ø°ÛĮØ±ÛĮ
Øµ ÛĮÙĦÛĮ
ÙĪÙĦ Ø§ÛĮ
ĠØµ Ø§ØŃ
ĠØ§ÛĮ Ú©Ø³
Ġgr anted
Ġà ®
3 6
D E
c oh
on om
ĠØ² Ø§Ø¯
ĠM ur
ĠÙ¾ÛĮØ´ Ú¯ÛĮØ±ÛĮ
ĠZ eal
Ġsound ed
Ġconnect ions
Ġlink ed
Ġpriv ile
angl ars
Ø¦ÙĪØ±ÙĦÛĮ Ø§ÙĨÙĪ
re al
ĠÙĨ ÙħØ§
ĠÙģ ÛĮÙĨ
ĠI ATA
am med
ĠÙħÙĨ Ø¹Ú©Ø³
ĠM aster
ab out
Ø§ÙĤ Ø¨
Ġj ail
Ġad j
Ġcont aining
ĠCh ampionship
ĠÙģÛĮÙĦ ØªØ±
Ġprom inent
ĠØ¯ÛĮÙĪØ§Ø± ÙĩØ§ÛĮ
Ġcand le
Ġgrav ity
Ġacad emic
H ad
Ġc ogn
ÚĨ Ø±
ro ll
ĠØ¨ÛĮ ÙĦÛĮ
ĠD ark
ĠF ire
ĠJ on
ĠJ ava
lo oking
ĠCar ol
ĠÙħØ§Ø¯ Ø±ÛĮ
ÙĨÙĪÛĮØ³ Ø¯
Ġbra ve
R em
Ú© ÙĪØª
Ġb asket
ĠØ³ Ø§Ø²Ùĩ
st an
ĠS anta
Ø° ÙĦ
ast ed
pl ed
ĠØ³ÙĪ Ø¦ÛĮØ³
ØªØ§ Úĺ
Ġelect ro
ĠÙħØ´Ø®Øµ ÛĮ
Ġ194 0
Ġstat istics
Ġport ion
Ġaccount s
Ġinflu enced
ĠØªÛĮØ± Ø§ÙĨØ¯Ø§Ø²ÛĮ
Ġbelong ed
ĠØ§Ø³Ú©Ø§Øª ÙĦÙĨØ¯
e pend
g reg
im ens
ĠA z
ĠM ah
Ġde eper
ĠÙģØ± Ø¶ÛĮÙĩ
ĠØ±ÙĪØ² ÙħØ±Ùĩ
Ġpre cious
Ġrem ove
Ġblo cks
Ġcontin ues
Ġjud gment
ĠØ¨ÙĪØ³ ÛĮØ¯
ĠÙħØ¨Ùĩ ÙĪØª
Ġfol k
Ġconclud ed
ĠØ§ÙĪØ§Ø³ Ø·
Ġb owed
Ġg reet
Ø· ÙĪ
ĠÙħÙĪ Ø²
ĠÙĩØ± Ú©Ø³
Ġup stairs
ind er
ĠØ¬Ùĩ Ø´
ĠØ§Ùģ Ø²Ø§Ø±
There fore
Ġins ult
Ġeconom ics
Ġengine er
Ġcommunic ate
Ġprefer red
Ġunus ual
k rain
Ġc ave
Ġpl enty
Ġper mission
ĠØ¨Ø²Ø±Ú¯ Ø³Ø§ÙĦ
ĠØ§Ø¨ ÙĦÙĩ
ĠØªØ§Ùħ ÛĮÙĨ
ĠØ³ÙĦØ· ÙĨØª
ĠGand alf
Ġsacrif ice
ĠZeal and
ĠÙħÛĮ ÙħÙĪÙĨ
ĠW all
ĠØ³Ø§ Ú©ÙĨØ§ÙĨ
ĠAl ice
Ġdest ruction
ĠØ§ÙĨÚ¯Ø´Øª Ø§ÙĨ
Ġï ¼
Ġneur ons
stro de
P L
Ġb om
ĠÚĨ Ø§Ùĩ
ĠÙħÙĪ Ø§Ø±Ø¯ÛĮ
ĠB u
ĠD a
ĠÚ¯ÙĪÛĮ Ø§
Ġhydro gen
T A
Ø Į
Ġup d
ĠV illefort
Ġover come
aw a
Ġcol our
ĠÙħØµ ÛĮ
na pe
Ġless ons
ĠØ¨ÙĪ Ø¦
Ġ196 8
ĠØªØ® ÛĮÙĦ
ĠØ¬ÙĨØ³ÛĮ Øª
Ġrare ly
R ight
Ø² Ø¨ÙĪØ±Ú¯
Ġs ou
Ùģ Ø§Ø±
ĠÚ¯ ÙĪÙĦ
ĠB ell
ĠT ay
ĠF ield
ĠÚ©Ùħ Ø±
ĠØ®ÛĮ Ø§Ø¨
Ġdef ine
Ġ198 7
Ġfort un
Ġresour ce
Ġconcl usion
ĠGriff iths
s ince
Ùħ Ø³Øª
in ity
Ø§Ø± Ø¯ÛĮÙĩ
Ġc ensus
Ġm ent
Ġin sect
ĠØº ÙĨÛĮ
Ġpoint ing
Ġtre asure
Ġcontro vers
Ġattempt s
Ġpun ishment
Ġchalleng es
Ġt u
ĠM ir
Ġse lling
ĠJ un
Ġres olved
ĠSt at
ĠØ§Ø¨ Ø¹Ø§Ø¯
ĠÙģÙĦ Ø²ÛĮ
ĠÙħÙģ Ø§ÙĩÛĮÙħ
Û±Û¹Û ¹Û
ĠÙħØ¯ÛĮØ± Ø§ÙĨ
ĠØ¯Ø§Ø¦ Ùħ
ĠTw itter
Ġterrit ory
Ġeffic iency
Ġinhab itants
Ġt a
Ġw ound
or ic
ri ly
ri ve
ĠP y
Ġr ural
el ine
Ġsim ult
Ġ18 5
ĠÙħØªÙģ Ú©Ø±
ĠPl ay
Ġpurp oses
ĠØªØ§ÛĮÙħ Ø²
Ø± ÙĩØ§
ĠØ± ÙĨ
Ġh iding
ĠØ¯Ø± Ø§Ùħ
Ġm ud
ar ant
ĠØ³ Ø§Ø±
Ġn aked
um in
Ġr age
Ġv ic
ide os
Ø§Ú© ÙĪ
ang le
ĠØªØŃ ÙĪÙĦ
ĠØ¯Ø§ÙĨØ´ Ø¬ÙĪ
Ġreg ist
ĠÙģØ±ÙħØ§ÙĨ Ø±ÙĪ
Ø§ÛĮØ³Øª Ø§Ø¯
ĠBl ue
Ġconsider able
Ġeth nic
ĠØ¹ÙħÙĪ ÙħØ§
ĠØ¢ÙħÙĪ Ø®ØªÙĩ
g aret
ĠÙħ Ø²Ø§Ø±
Ġp ow
Ø§ÙĦ Ø§
ĠØ§Ø³Øª Ø±ÛĮ
ĠM oh
ul ating
ÙĢ ÙĢ
ÛĮÚ© Ø³
ÙĪÙĨØ¯ Ø±Ø§
ØªØ§ Ø¬
ĠÙħÙĦ Ø§ÙĨÛĮ
Ø¯Ø§Ø´Øª ÙĨØ¯
Ġexper t
Ġpos itions
ĠØ¹Ø¶ ÙĪÛĮØª
ĠØ¢ÙĪØ± ÙĨØ¯
Ġvisit ors
Ġhosp it
Ġadvent ure
ĠØ¯Ú© ÙħÙĩ
ĠÙħ ÙĨØ¯
Ø§ÙĨ Ø³Ø§ÙĨ
Ġc ord
Ġb on
ĠÙ¾ ÙĨØ¯
il ib
ĠÙħØ¹ Ú©ÙĪØ³
ĠÙħØ±Ø¯ Ø§ÙĨÙĩ
ĠLe ban
ĠØªØ§Ø¨ Ø´
Ġvirt ual
ĠKore an
ĠÚĨØ³Ø¨ ÛĮØ¯Ùĩ
Ġgod s
B ab
a ver
ĠØ¨Ø± ÙĪÚ©
ĠØ² Ø¨Ø§ÙĦÙĩ
ĠØ¯ÙĪ Ø²
ĠØ¯ÛĮ ÙĪØ§Ø±ÛĮ
ru b
ĠØ¹Ùħ ÙĦØ§
ĠV in
ĠÙĨÛĮ ÙĪØ²
Ġexp lo
Ġtrans p
ĠÙħÚ©Ø§ÙĨÛĮ Ú©ÛĮ
ÙħÙĪÙĤ Ø¹
" :
h igh
Ġw retched
Ø® ÙĪÙĨÙĩ
Ġst raw
ĠM ess
ĠB attle
Ø¨Ø± Ùĩ
ĠÛ±Û ´Û
Ġkn ee
ĠÙħØ³ Ú©ÙĨ
ĠÙħØ³ ÙĦÙħ
ĠØ³Ø§ Ø¹Ø§Øª
ĠØŃØ³ Ø§Ø³ÛĮ
ĠØŃÛĮ Ø«
Ġwar ning
ĠØ§ÙħÚ©Ø§ÙĨ Ø§Øª
Ø®ÙĪØ¯ Ùħ
Ġmis ery
Ġneighb ors
Ġacqu ired
Ġopport unities
ĠØ¹Ø±Ø¨ Ø³ØªØ§ÙĨ
Ġearn est
ĠÙĨ Ú¯Ø°Ø§Ø´Øª
Ġre nt
ĠB re
ÙħÙĨ Ø§Ú©
ĠÙĤØ± Øµ
Ġun ion
Ġfe ared
ĠØ¨ÙĨ Ø´ÛĮÙĨØ¯
Ġche ap
ĠØ§Ø¨ Ø¯
ÙħØ¬ÙħÙĪ Ø¹Ùĩ
d on
ĠÙ¾ ÙĪØ²
ĠØ¨Ø± ØªØ±ÛĮ
Ġst ored
ĠT ok
ÛĮÙĦ Ø¯
og en
ĠO s
ĠØ§Ùģ ÙĤ
ĠÙĩÙĪØ§Ù¾ÛĮÙħ Ø§ÛĮ
Ġglass es
Ġconcern s
ĠÙĨØ§Ø® Ø¯Ø§
r ad
âĢ ľ
Ùģ ÙĪ
ĠØ´ Ø³Øª
ĠD i
ig an
ĠE N
ĠÙģÛĮÙĦ ÙħÛĮ
com m
ĠØ³Ø§Ø²ÙħØ§ÙĨ Ø¯ÙĩÛĮ
ĠÛ±Û¹Û¹Û ¶
Ġdescri bes
Ġdiv or
Ġintrodu ction
Ġworth y
ĠÙħÙĩÙħØ§ÙĨ Ø®Ø§ÙĨÙĩ
ĠØ¨ÙĪÙĦ Ø³Øª
ĠÙĩÙħØ§Ùĩ ÙĨÚ¯ÛĮ
ØŃÙĤÛĮ ÙĤØª
A A
r ot
Ø¨ Ø³ØªÙĩ
Ġin ex
ĠÚĨ Ø§ÙĨÙĩ
Ġr ac
Ġsm oking
ĠÚ¯Ø±Ø¯ Ø§ÙĨØ¯
ob ody
ĠØ¬Ø§ Ø¦ÛĮ
ĠØªØ§Ø¨ Ø³ØªØ§ÙĨÛĮ
ĠØ¨Ø§ÙĨ ÙĪ
Ġca using
ĠØ³Ø§ØŃ ÙĦÛĮ
Ġfirm ly
ĠSwed ish
Ġsam ple
ĠØ¹ÙĦØ§ÙĤ ÙħÙĨØ¯
F l
Ġd iet
ĠÙĤ ÙĪØª
ĠD ou
Ġins isted
Ġopp osition
Ġsoon er
ĠØ¨Ø±Ø³ ÛĮÙħ
rel ated
Ġmount ed
Ġpray er
Ġwis hes
ĠÙħØŃØªØ± Ùħ
ĠÙħØ¯Ø§Ø® ÙĦÙĩ
Ø§ Ø¶ÛĮ
ĠØ¢ ÙĦÙģ
Ø¬ ÛĮÙħ
ĠâĢ ł
ĠR h
ĠÙħØ³ Ø£ÙĦÙĩ
we re
Ġser ver
Ġrec over
Ġra ising
ĠAll ah
Ġbirth day
ĠÙĨÚ¯ ÙģØªÙĩ
ĠÙħØŃÙĤ ÙĤ
H ist
c ol
p at
ĠÚ© Ø±ÙĪÙħ
ĠÙĪ Ø·ÙĨ
st ra
ĠÚĨ ÙĦ
id ering
ĠA N
Ġle af
Ġform ation
Ø³ÙĪ Ø®Øª
Ġwis dom
ÙĨØ§Øª Ø§Ø´Ø§
ĠÙ¾ÛĮØ¯ Ø§ÛĮØ´
Ġabst ract
Ġc ash
ur day
ĠB et
Ġj oke
ÙĨØ§ Ø¹
ans as
ĠÛĮØ§Ø¯ Ø´
Ø±Ø³ÛĮØ¯ ÙĨØ¯
Ġsk ill
ĠØ®ÙĪØ± Ø§Ú©
ĠÛ±Û¹Û¹Û ²
Ġobser ve
Ġsal t
Ġcoun cil
Ġpossess ed
Am ong
Ġhun ger
ĠAri za
Ġcircu it
ĠNAS A
ĠØªØ±Ø§Ùģ ÛĮÚ©
Ġc ure
ĠØ² Ùĩ
ĠA lyosha
and al
Ġli p
ĠR om
ĠT ony
Ġch airs
int on
ĠÚ¯Ø±Ø¯ Ø§ÙĨ
Ġref use
Ġdri ft
ĠÚĨØ±Ø® Ø´
Ġrad iation
ĠÙĨÚ¯Ø± ÙģØªÙĩ
ĠØ¯ÙĪØ³ØªØ§ÙĨ Ø´
Ġdom ain
ÙģÛĮÙĦ Ø¯
ĠÙħØŃØª ÙĪÛĮ
Ġsatell ite
ĠPhilos ophy
Ġperman ent
ĠØ¬Ø§Ø° Ø¨Ùĩ
m ony
nd s
Ø® Ùħ
ĠÛĮ ÛĮ
ĠØ¨Ø± ÙĤÛĮ
ĠB ase
ĠâĢ į
os om
Th ink
ĠU nder
ĠØ¯ÙĦ Ø§Ø±ÛĮ
ĠØ¯Ø§ÙĨ ÛĮØ¯
Ġlast ed
ĠDe v
ĠØ§ÙħØ±ÛĮÚ© Ø§
Ġuncom fort
ou ri
ĠØ® Ø±Ùħ
Ø· ØŃ
ĠÛĮÚ© Ø¨Ø§Ø±Ùĩ
ĠM uhammad
ĠØ®ÙĪ Ø§Ø±
op eration
ĠØ¯ÙĪ Ø±Ø¯Ø³Øª
ĠL es
ĠØ§ÛĮ ÙģØ§
ĠØªÙĨ ÙģØ³
ĠÙĨØ§Ùħ ÛĮ
ĠÙ¾Ø§ÛĮ Ø§ÙĨÛĮ
Ġind ign
ĠØªÙĪØ§ÙĨ Ùħ
ĠØ§Ø¨ Ø¯ÛĮ
ĠGu ard
Ø¨Ú¯Ø°Ø§Ø± ÛĮØ¯
cyclop edia
i pt
Ġc raw
Ġof fe
ĠØ³ ÙĪØª
ĠM as
Ø¨Ø§ ÙĪØ±
ak a
ĠØº Ø¨Ø§Ø±
ĠØ³ÙĪ Ø®ØªÙĩ
ĠØªÙĪØ§ÙĨ Ø³ØªÙħ
ĠØªØ£ Ø®ÛĮØ±
ĠÚ¯ÙĪ Ø§ÙĩÛĮ
Ġvol unte
ĠØ®Ø§ÙĪØ± ÙħÛĮØ§ÙĨÙĩ
ĠÙħØ¹Ø¬ Ø²Ùĩ
m ers
Ġw ing
Ġto wer
as ley
ĠØŃ ÙģØ±Ùĩ
Ø§Øª Ø§ÙĤ
ĠØ³Ø± Ø´ÙħØ§Ø±ÛĮ
Ġpo ol
Ġdist ract
Ġ7 5
Ġtown s
Ġenjoy ed
ĠØªØ¨ÙĦÛĮØº Ø§Øª
ĠØ¨Ø±Ø§ ÙĬ
Ġrail way
Ġens ure
Ø² ÛĮÙħ
is a
it ate
Ø§Ø¯ Ø´
am i
ĠG h
ĠÙħØª ÙħØ§ÛĮØ²
Ø¨ÙĪØ¯ ÙĨØ¯
Ú©Ø³ ÙĪÙĨ
Ġequ ation
ze ch
ÙĪÙĦÙĪÚĺÛĮ Ú©ÛĮ
ĠÛ³Û ±
ĠÙĨØ§Øª ÙĪØ§ÙĨ
Ġinnov ation
T ube
ĠI d
ĠA I
ĠB ag
au bon
Ġrep utation
Ġemer ged
ĠØ³ÙĪØ² Ø§ÙĨ
ĠKh an
ĠØ§Ø¯Ùħ ÙĪÙĨØ¯
f riend
k ind
m ade
Ú© Ø´Ùħ
he rent
Ġre in
ĠÙĦ Ùħ
Ġpe as
ater n
ft en
Ġwant ing
ÙģÛĮ Ùģ
Ġass ert
Ġ198 2
unicip al
Ġgrand mother
ĠØ¨Ù¾Ø±Ø¯ Ø§Ø²Ø¯
ĠØ¯ÙħÙĪÚ©Ø±Ø§Øª ÛĮÚ©
ĠØ¨ Øº
ĠØ± Ø¨
ĠÛĮ ÙĤÙĩ
ĠS and
ĠA er
ch in
ĠØ¨ÛĮ Ø§Ø¨
ĠØ¯ÛĮ Ù¾
ab led
ĠH y
ĠÙħØ¹ Ø§Ø¯ÙĦÙĩ
Ø±Ø³ ÛĮÙħ
ĠÙĩÛĮ Øª
Ġrec on
ĠÙħÙĦ Ø§ÛĮ
Ġgener ations
unt il
ĠÙ¾Ùĩ ÙĦÙĪ
Ġsus pect
Ġliber al
ĠØ§Ø¯Ø± Ø§Ú©
Ġaccompan ied
r ating
Ġp ace
ĠB ox
ĠØªÙĪ Ø§Ø¨Ø¹
ĠØº Ø§ÙĦØ¨
ĠØ±Ø³ Ø§ÙĨØ¯Ùĩ
Ġper pet
ĠØ¬Ø§ÙĨ Ø¨ÛĮ
ĠØ§ÙĨØ¯Ø§Ø®Øª ÙĨ
Ġprof ile
ĠÙħØ¹ÙĨ ÙĪÛĮ
ĠØ¨ÙģÙĩÙħ Ùħ
Pr ince
T ER
Ø± Ø¦ÛĮØ³
le ys
ve t
Ġu seless
Ġde bt
ĠH ung
ĠE th
Ġj ew
Ġro ots
ĠØ²ÙĨØ¯ Ú¯ÛĮÙħ
Ġref lected
Ġline ar
ĠÙ¾ÙĪ Ø´Ø§ÙĨØ¯Ùĩ
Ġprecise ly
Ø®ÙĦØ§ ØµÙĩ
F e
Ñ ĥ
at ar
ri um
Ġcom r
au x
Ġshe d
ĠØº Ø¶
ful ness
ĠØ§ÛĮØ± Ø§Ø¯
Ġest ate
ĠSw itzerland
Ġimm ense
Ġimpro ved
Ġfem in
Ġwel come
. :
ĠØ§ Úĺ
Ġw ings
Ġh am
ĠØ§Ø³Øª ÙĪØ§Ø±
ĠJ ordan
ĠØ§ÙĦ ÙĨ
bl er
Ġinter face
Ø¨Ø¹Ø¯ ÙĩØ§
ĠHe aven
Ġrece iving
Do es
t op
ĠØ¨ Ø¨Ø±ÛĮÙħ
ĠÙĨ Ø¨Ø§Ø´
ĠÙĤ ÙĪØ§
ĠM itya
Ġab rupt
Ġ19 20
ĠK u
Ġ197 9
ĠØ¨Ø±Ø³ ÙĨØ¯
With out
ĠÛ±Û¸Û ¹Û
ĠGu ide
Ġcolle agues
ĠÙħØŃÙĤ ÙĤØ§ÙĨ
Ġinstrum ent
Ġmurm ured
I ran
he ld
Ġa er
Ġn onsense
ĠÚĨ ÛĮØ±Ùĩ
ĠC Y
ĠÙħÙĪ Ø²ÛĮÚ©
ĠE ug
lo ad
ĠÙĨØ§ ÚĨÛĮØ²
Ùĥ Ùĩ
Ġkeep s
âĢĮØ Ł
Ġdou b
ĠØ³Ú© ÙĪÙĨØª
Ġinvol ves
atter ing
Ġfool ish
ĠMel anie
Ġrefuge es
ĠØªÙĪØ¬ÛĮ Ùĩ
Y eah
Ġt ur
ĠØŃØ¯ ÙĪØ¯ÛĮ
ĠÙģØ¹ ÙĦØ§
Ġcreat es
ĠÙħØ³ÙĦ ÙħØ§
6 6
ĠØ¨ Ø´ÙĪÙĨØ¯
Ø´ Ø´
Ø§ÛĮ ØªÛĮ
ĠÙĨ ÙĩØ§ÛĮØªØ§
ĠØ² Ø§ÛĮ
ÙħÛĮ Ø§ÙĨ
Ġst ations
ag ine
og ue
Ø§Ø· ÙĦØ§
Ġpre ced
Ú¯Ø±Ø¯ Ùħ
az e
ĠØ¬Ø§ÙĨ ÙĪØ±
ĠÙħØ®Øª ØµØ±
ĠØ§ÙģØªØ§Ø¯ Ùħ
ĠInd ust
ĠÙĦØ§ Ø§ÙĤÙĦ
Ġpar allel
ĠÙĩÙģØª Ùħ
ĠAlex ey
Ġformer ly
ĠØ¬Ø³ ÙħÛĮ
ĠÙħÙħÙĨ ÙĪÙĨ
Ø±ÙĤ Øµ
ĠÙħØ·ÙĦ Ø¹
ĠÙ¾Ø±Ùĩ ÛĮØ²
ĠÙħÛĮØ±Ø§ Ø«
p a
Ø³ Ø§Ø¨
in er
Ù¾ ÙĪØ±
Ġso b
ĠSt ation
Ġact ress
ÙħØ¯ ØªÛĮ
Ġsy nd
ĠÙģØ±ÙħØ§ÙĨ Ø¯ÙĩÛĮ
ĠÛ³Û µ
ĠØ±ÙĪØ³Øª Ø§ÛĮ
ĠWin ter
ĠÙĪÛĮØ¯Ø¦ ÙĪÛĮÛĮ
ĠNether lands
Ø± Ø§Ø²
Ø² Ø¯Ùħ
Ġb unch
ĠM ach
ins on
Ġassoci ation
Ġemploy ees
Ġincor por
Ġsociet ies
Ġg host
ĠÙģ ÙĨØ¬Ø§ÙĨ
im al
ĠC are
ol en
Ø§Ø´ ÙĪÙĨ
ĠÙĨÛĮ Øª
Ġcons ent
ĠØ³Ø¨ Ø²ÛĮ
Ġappro aching
Ø³Ø§Ø² ÙħØ§ÙĨ
ĠÙħØ±ÛĮ Ø®
ĠÙħØ¹ØªÙĤ Ø¯Ùħ
quar ters
M ean
f ly
m o
Ùħ ÙĦÛĮ
at i
ĠÙĨ ØªÙĪØ§ÙĨØ³ØªÙĩ
ĠØª ÙĦØ³
an z
ĠØ¢ Ú¯ÙĪØ³Øª
Ø® ÙĪÙĨ
ĠØ® ÛĮØ²
Ø±Ø§ Ø¶
ĠØªÙĪ ÙħØ§Ø³
un a
Ġch in
Ġar ts
ĠØ¯Ø§ÙĨ Ø³ØªÙĩ
gr ad
ĠÙĪÛĮØ± Ø§ÛĮØ´
ĠØ§ÙĪØ± Ø§ÙĤ
ÙħÙĪØ¶ ÙĪØ¹
P ierre
Ġs ed
ĠÙħÛĮ Ø¯Ø§ÙĨØ³Øª
ic us
Ġbe ach
Ø§Ø±ÛĮ Ø§
Ġsh ining
ĠD umbledore
ĠUn cle
ĠÙ¾Ø³Ø± Ø§ÙĨ
ĠÙħÚ©Ø§ÙĨÛĮ Ú©
Sc arlett
ĠØ¯ÙĪÛĮ Ø³Øª
Ġfurn iture
ĠÙħØ¹Øª Ø¨Ø±
Õ¡ Õ
Ø¯ ÙĦÙħ
Ġp ed
Ġis lands
ĠH ind
00 00
ry ing
Ġfe e
Ġpr ime
Ġsc ared
Ġatt ent
ĠÛ²Û°Û±Û ¸
ĠØŃÛĮ ÙĪØ§ÙĨÛĮ
Ġfell ows
Ġ197 5
Ġsure ly
Ġwin ning
ÙĪ Ø¬ÙĪØ¯
Ġt act
Ġs illy
ĠØ¨Ùĩ Ø´ÙĪÙĨ
Ġcon ven
ĠÙ¾ÛĮ ØºØ§Ùħ
ĠT our
Ø®ÙĪØ§Ùĩ Ø´
ĠØ§Ø´ Ø¹Ùĩ
ĠØ¢Ø² ÙħØ§ÛĮØ´ÛĮ
Ġland s
pr int
Ġut tered
ĠIS O
Ġlean ing
ĠØ¨Ø±Ú¯Ø² Ø§Ø±ÛĮ
ĠCrist o
Barb us
Ã £
ĠØ§ Ø¯Ø§ÛĮ
Ø³ ÙĪÛĮ
Ġs ank
ĠØ¨Ùĩ ØªÙĪÙĨ
Øµ ÙĪØ±
ag in
ĠØ¯Ø§Ø± ÙĪÙĩØ§ÛĮ
Ġso fa
ĠF ern
ĠØ§ÛĮ ÙħÛĮÙĦ
ĠØªØ± Ø´
ĠÙĨØ³ Ø¨ÛĮ
Ġgen ius
Ġdef ense
Ġdeath s
ĠØ¨Ø±Ú¯Ø´Øª Ùħ
ĠØ¨Ø¯Ø§ÙĨ ÙĨØ¯
Ġphot o
Every one
Ø§ÙģØ² Ø§Ø±ÛĮ
ĠOlymp ic
Ġben ch
ĠØ¢ÙĨØ¬ ÙĦØ³
Ġappropri ate
b us
Ø§ÛĮ Ø¬Ø§ÙĨ
ir ts
Úĺ ÛĮÙĨ
Ú¯Ø° Ø±
ĠØ²ÙĨØ¯Ú¯ÛĮ Ø´
ĠÙĨØ§ Ø§ÙħÛĮØ¯
ĠÙĨÙħ ÛĮØ¯
ĠØ§ÙĪÙĨ ÙĪ
Ġmist ress
Ġdom in
Ġcompon ent
Ġminim um
8 5
C ould
u ously
ĠÚ© Ø§Ú©
ĠÙĨ Ù¾
ĠØ´ Ø±ÛĮÙģ
ĠØ³Ø± Ú©ÙĪØ¨
Ġsh ake
Ġal ign
ĠØ¨Ø§Ø² ØªØ§Ø¨
ĠÙħØ¹ Ø§ØµØ±
ĠØ¨Ø² ÙĨÛĮ
ĠØªØµ Ø±Ùģ
ĠØ³ÙĪ Ú¯ÙĨØ¯
ĠÙħÙģÙĩ ÙĪÙħÛĮ
Ġincred ibly
Ġcere mony
b ro
is k
Ġre ign
ĠG il
ÙģÛĮ Ùĩ
ĠØºÛĮØ± ÙĤØ§ÙĨÙĪÙĨÛĮ
ĠØªØ¨ Ø¹ÛĮ
arch y
eng ers
ĠÙ¾ÙĦ Ú©
ĠØ¬ÛĮ ÙħÛĮ
oph ical
Ġant ib
Ġsurpr ising
ĠSat urday
ĠÙħØŃØªÙĪ Ø§ÛĮ
Ùħ ØªÛĮ
Ø² Ø§Ø±ÛĮ
ÙĤ Ø§Ùħ
ch ar
ĠM ove
Ġsh r
ĠÙ¾ÛĮ Ú©
ap a
ĠØ¨Ø² ÙĪØ¯ÛĮ
Ġpar liament
Ù¾Ø¯Ø± Ø´
ÙĤØ§ÙĨ ÙĪÙĨ
Ø¨Ø§Ø¨ Ø§
Ġmyst ery
Ø§ Ø«Ø±
ĠÙĨ ÛĮÙĦ
Ġf ired
Ġin ternet
ĠØ¬ Ùģ
Ġbe w
ÙħÙĨ Ø·
ĠØ§Ùħ Ø±ÛĮ
ĠØ§Ùħ ÛĮØ¯ÛĮ
Ġpart ly
ĠInd ones
Ġang le
Ġclim bed
ĠØ¨Ø±Ø§ Ùī
ĠØµØ§Ø¯ÙĤ Ø§ÙĨÙĩ
ØªØ§Ø±ÛĮ Ø®
orent ino
Ġvalu able
Ùĩ Ø²Ø§Ø±
Ú© ÙĨØ¯Ùĩ
Ġm ail
ll o
ĠÙĩÙħ Ø³Ø§ÛĮ
Ġgener ated
Ġfear s
ĠØ§ÙĨØ¨ Ø§Ø´ØªÙĩ
Ġknock ed
Ġpros pect
r in
Ø¹ Ø§Ø¯ÛĮ
al ia
Ġab use
Ġhas n
ĠÙĨØ´ ÛĮÙħÙĨ
ov ie
Ġcomm ittee
Ġsil ently
ĠØ¨Ø¨Ø± ÛĮØ¯
ĠÙĦØº ÙĪ
Ġshoot ing
3 1
b in
k h
ĠÙħ Ø§ÙĨÛĮ
ĠÙĩ Ùģ
Ø§Ø¯ ÙĨ
ĠØ¨Ø± Øª
ain ted
Ġsh ar
ĠÚ©Ø§Ø± Ø´Ø§ÙĨ
ĠÙħØ´ Ø±ÙĪ
ĠO livier
ĠÙĨØ§ Ø§Ùħ
ĠÚ©ÙħÛĮ Ø³ÛĮÙĪÙĨ
ern el
ĠØ³Ùģ ÛĮØ¯ÛĮ
ÙĤØ¯Ø± Øª
ÙģØ±Ø¯ Ø§
ĠØ§Ø¨Ø¯Ø§ Ø¹
Ú© ÙĪÙĦÛĮ
ĠØ¨ Ø®ÙĪØ§ÙĩÙħ
Ú¯ Ø§Ùħ
is le
it is
ĠÙħÛĮ Ø´
ĠÚ¯ ÙĪÙĨ
ĠS ci
ĠØ¨ÛĮ Ø§ÛĮÙħ
ĠD ig
ĠØ³ÙĪ Ùģ
Ġke en
Ġtrans ition
Ġ197 6
Ġrob ots
ĠÃ ĩ
Ġdepend ing
Ġded icated
ĠFlor ida
8 9
F ollowing
N or
Ø¯ Ø§Ø¯Ùĩ
ĠØª Ø¯Ø§Ø±
ĠØª Ø·Ø¨ÛĮ
Ġh aste
om ing
ĠØ¬ ÙĦØ³
st ream
ÙĩØ§ Ú¯
Ġat oms
Ġr ust
ĠR hett
ĠF oot
Ġch a
ĠN ick
ĠÙĨØ§Ùħ Ø±Ø¦ÛĮ
ĠÙĨØ§ Ø¸Ø±
Ø¯Ø§Ø± ÙĨØ¯
Ġgot ten
Ġchar ged
ĠÛ±Û¹Û¹Û ·
Ġenc oun
Ġtransl ated
ÙģØ±ÙĪØ¯ Ú¯Ø§Ùĩ
s en
y es
ÙĪ Ø¬
ĠØ¯Ø± ØŃØ§ÙĦ
ĠØ´ Ø±Ùģ
ĠÙģ Ø§Ø²
se ud
ĠÚ¯Ø± ÙħØ§ÛĮ
ĠÙĨØ¯ ÛĮØ¯
ĠØ§ÙĦ Ú©Ø³Ø§ÙĨØ¯Ø±
ĠØ±Ø³ ÙħÛĮØª
ĠÙħØ¯ Ø¹ÛĮ
Ġev olved
Ġhard ware
Ġinf ant
ĠUS A
Ø±ÙĪØ³ Ø§ÙģØª
Ø³Ø§Ø² ÙĨØ¯
ĠÙĪØ¬ Ø¯Ø§ÙĨ
ĠØªØ¸Ø§Ùĩ Ø±
Ġ Ä
ay ing
ĠB lo
ud es
ĠÙĩÛĮ Ù¾
ĠØ³ÙĪ Ù¾
Ġlet ting
Ġlaw yer
Ġincre asingly
ĠSy rian
Ġwin ner
Ġterror ism
Ġimplement ed
ĠIr ish
H aving
ĠØ¢ ÙĦÛĮØ³
ĠÙ¾ Ø´Ùħ
ĠB oy
the ir
Ġwhere as
Ġrel ie
ĠØ§ÙģØªØª Ø§ØŃ
Ġsche me
A nt
v als
ĠØ³ Ø¦
as m
ĠÙĤ ÙĪÙħÛĮ
od ed
Ġbut ton
Ġro yal
ĠØ¨Ø§Ø²ÛĮ Ú©ÙĨØ§ÙĨ
Ġear ned
Ġret reat
Ù¾Ø± Ø³ÛĮ
ĠØ¢Ùĩ ÙĨÛĮ
Ġ198 3
Ġ197 3
enn is
ÚĨÙĨØ§ÙĨ Ú©Ùĩ
Ġmaint ained
ĠÙħØ¨Ø¯ ÙĦ
ĠÚ© ÙĪÙĨ
re r
ar ation
ĠØ¬ ÛĮÚ©
ÛĮØ± Ø§
ĠØ®ÙĪØ¯ ØªÙĪÙĨ
ĠØµ ÙĪØªÛĮ
ĠØªÙĪ ÙĤ
Ġr ush
ĠT HE
Ġhum ili
ĠØªØ³ ÙĦØ·
Ġrev ol
ĠÙĦØ° Ø§
ĠÙĨØ§Ø¨ ÙĪØ¯ÛĮ
ĠRep ort
ĠØ§Ø³ØªØ§ÙĨØ¯Ø§Ø±Ø¯ ÙĩØ§ÛĮ
ÛĮØ§Ø· ÛĮÙĨ
Ø±Ø§Ø³Øª Ø´
ÙģØ±Ø§ÙĨ Ú©
ĠØ¯Ø² Ø¯ÛĮ
ĠÙĪØ§Ø´ ÛĮÙĨÚ¯ØªÙĨ
c alled
ĠØ§ Ú©Ø±
ĠÙĩ Ø§Ø¨
ĠÙ¾ ÙĪØ±
ag u
Ø¹Ùĩ Ø¯Ùĩ
Ġsp are
ÙħØª ÙĪØ¬Ùĩ
ĠØ³Ø§Ø² ÙħØ§ÙĨÛĮ
ĠØ¹Ø± Ø´Ùĩ
Ġeng age
Ġvill ages
ĠØªÙĪØ§ÙĨØ³Øª ÙĨØ¯
ĠÚĨÚ© ÙħÙĩ
Ġprote ins
Ġdepart ure
ĠYan ke
ĠÙħ Ø±Ø³
ĠÙħ Ø²Ùĩ
ĠØ¨Ø± ÙĦÛĮÙĨ
ĠØ§Ø³Øª ÙĪ
Ġu gly
ĠJ os
ĠØ§ÙģØªØ§Ø¯ ÙĨ
ĠÙħØ§Ø± ÚĨ
ĠÙĨÛĮÚ© ÙĦØ§ÛĮ
Ġbab ies
Ġhat red
ĠÚ©Øª Ú©
ĠStud ies
ĠØªØ±ÙĪØ± ÛĮØ³ØªÛĮ
Ġsch olars
ker chief
d ed
Ø² Ø§Ø³
ĠØ´ ÙĪÛĮ
Ġbe ating
ĠI CA
ĠE nergy
Ø§ÙĨØ¯ Ø§ÙĨ
Ġle gend
Ø±Ú¯ ÙĪØ´
Ġke ys
ĠØ¨Ø´ ÙĤØ§Ø¨
ĠÙħØ±Ø² ÙĩØ§ÛĮ
Ġframe work
Ġsymp athy
f it
Ú¯ ÙĪØ±
ĠÙĨ Ø®ÙĪØ±Ø¯Ùĩ
ĠÙĩ Ø§Ùħ
Ġst ern
ag en
ĠF our
ÙĦÙĪ Ú©
ĠÙħØ· ÙĦÙĪØ¨
Ġsw ear
Ġnear by
ÙħÙĨØ¯ Ø§ÙĨÙĩ
Ġscient ist
Ġmist aken
ĠØ®Ø¯Ø§ÛĮ Ø§ÙĨ
ĠArkady evitch
f oot
ĠÙĨ Ø±Ø¯Ùĩ
Ø¹ Ø²
Ø¹ Ø§ÙĦÛĮ
Ġ( -
Ġst ead
ĠA st
ĠC ross
ĠF ord
ĠÚ©ÙĦ ÙģØª
ĠÙĨØ§Ùħ Ú¯Ø°Ø§Ø±ÛĮ
ĠØ³ÙĦÙĪÙĦ ÙĩØ§ÛĮ
ĠÙħÙĩÙĨØ¯ Ø³
sec ut
Ġegg s
Ġportra it
Ġkil omet
Ġstor age
9 0
Ġw ip
ĠÙĩ Ø±ÛĮØª
ĠS em
Ġbut ter
ĠÚ©Ùħ Ø¯ÛĮ
ĠØ§ÙĦ ÙĦÙĩ
Ġass istance
ĠØ¨Ø´ Ø±ÛĮØª
ĠHe ad
ĠÚ¯Ø³Øª Ø§Ø®
Ch ar
Ġsignific antly
ĠØ¢ÙħÙĪ Ø®Øª
Ġdesper ate
ĠÚ¯ ÛĮØ±Ùĩ
ĠL au
Ġch rom
ĠN iger
ĠO cean
ĠAs se
ĠÙħØ³ÛĮ Ø±ÛĮ
ÙĩÙħØ§ÙĨ Ø·ÙĪØ±
Ġprotect ed
Ġsitu ations
Ġeat en
Ġcitiz en
ĠMuslim s
Ġveh icles
Ġcompar ison
Ð ²
Ġd ict
ac c
ĠÙĦ ÙģÙĪØ±
ĠØ¨ÛĮ Ø´Ùĩ
ĠÚ©Ø§Ø± ÙĪØ§ÙĨ
Ġen velop
ĠÙĨØ§Ùħ Ø¹
Ġhel pless
ĠØŃØ§Ø¶Ø± Ø§ÙĨ
Ġsens itive
Ø¢Ø¨ Ø§Ø¯
ĠØ¢Ø±ÛĮ Ø«Ø§
ĠØ¹ÛĮ Ø³ÛĮ
Ġbare ly
L ondon
as se
Ø¬ ÙĪØ±ÛĮ
ĠM ond
ĠC zech
ĠØ®ÙĪ Ø´Ùĩ
Ġag ency
ĠU krain
ĠÙħØ³ ÙĨ
Ġoff ers
ĠØ§ØªØ§ÙĤ ÛĮ
Ġsmall est
Ġste ady
ĠÙĨØ± ÙħÛĮ
ĠDes ign
ĠØ¯Ú¯Ø± Ú¯ÙĪÙĨ
ĠScot land
ĠØ¢Ø°Ø±Ø¨ Ø§ÛĮØ¬Ø§ÙĨ
W omen
i el
r ick
z h
ĠØ¨ ÙĤØ§ÛĮ
Ø² Ø§Ø¨
Ø® ÙĪØ±Ùħ
Ø§Ø² Ø§ÙĨ
ĠØ¨ÛĮ Ø§Ùħ
Ø¨Ùĩ ØªØ±ÛĮÙĨ
ĠØ²ÛĮ Ø¨Ø§Øª
Ġhand kerchief
Ġfound ation
Ġexpect ing
Ġsearch ing
Ġshout ing
ĠGold en
Ġt unn
Ġb ull
ĠB BC
Ġch amp
ÚĨÙĨØ¯ ÛĮÙĨ
Ġsens es
ĠHar vard
Ġcop ies
ĠÙĨÚĺ Ø§Ø¯ÛĮ
Ġsurround ing
ĠØ¨Ø§Ø²Ø±Ú¯ Ø§ÙĨÛĮ
ÙĪ Øº
Ġh ack
ÙĪØ§ÙĨ Ø´
ĠM ason
ant ine
ak ov
ĠØ¢Ùħ Ø§Ø±ÛĮ
ĠØ±Ø§Ùĩ Ø´
ĠØªØ¨ Ø¹ÛĮØ¯
ĠØ§Ø´Øª Ø¨
Ø¯Ø®ØªØ± Ú©
Ġpal ace
ĠCor por
ï »
ĠÙħ Ø¨Ø§ØŃ
Ø³ Ø±Ø¨
ĠÙħÛĮ Ø´ÙĪÙĨØ¯
ĠÙħÛĮ Ø®Ø§ÙĨÙĩ
Ø¬ Ú©
ĠL i
ĠIn f
ĠTh ree
ĠØ±Ø§Ø³Øª ÙĪÙģ
Ġ197 4
ĠØ¨Ù¾ Ø±Ø³Ùħ
Ù¾Ø°ÛĮØ± ÙģØª
Ġredu ction
ĠØ±Ø¤ ÛĮ
Ø§ÙĦÛĮØ² Ø§Ø¨Øª
ĠPot ter
T R
Ø¨ ÙĨØ§
nd ered
ĠØ± ÛĮÙĨ
ÙĪØ¯ Ú¯ÛĮ
Ġf ib
ĠØ¢ Ú©Ø³
ac co
ĠB C
ond er
Ġag es
Ġsp at
Ġoff ices
Ġacc ord
ĠØ±ÙĨÚ¯ Ø´
ik es
Ø§ÙĦØª ØŃ
Ġshort ly
ĠÙĨØ´Ø³Øª ÙĨØ¯
ĠÚ©ÙħÙ¾ ÛĮÙĨ
Ġinstit ution
Ùħ Øº
ĠØ¯ ÙĪØ§ÙĨ
ĠÙħÛĮ ØªÙĪØ§ÙĨØ¯
ĠØ´ ÙĦØ§ÙĤ
ĠM u
Ġat h
ĠØªØ§ Ø³ÛĮØ³
Ġsp ark
Ġrel ax
Ġref lection
Ġass ured
ĠØ¨Ø³ Ø§Ø²Ø¯
ĠÙĨØ´Ø³Øª ÙĨ
ĠVal ley
Ġjournal ist
ĠAtl anta
ĠÙĦØ¹ ÙĨØªÛĮ
ĠÙĩÛĮØ¯Ø±ÙĪ ÚĺÙĨ
ĠÙĪ Ø±Ø§
ĠÙħÛĮ Ú©ÙĨÛĮØ¯
ĠC le
op ter
ĠÙ¾ÛĮ Ø§ÙħØ¨Ø±
Ġman if
Ġsur re
Ġsur gery
ĠÚ¯ÛĮ Ø§ÙĩÛĮ
Ġpri ze
ĠYou Tube
ĠBul strode
6 9
c ar
Ø¨ ÙĦØ§
Ġb ored
Ø® Ø§Ø·Ø±
Ø§ÙĦ ØŃ
Ø§Øª ØŃ
ĠA unt
Ġat omic
Ġcon cerning
Ġadd ing
Ġz one
Ġdism iss
Ġsen ior
E O
Ø§ ÙĬÙĨ
at ched
Ġth under
Ġse lection
Ġsh ade
ge on
iv ina
ĠÙħØ³ Ø§ÙģØª
Ġro cks
ĠØ¨Ø¹Ø¯ Ø´
ĠØ§ØªÙģØ§ÙĤ Ø§Øª
Ġclo ak
ĠØªÙĪÙĨ Ø³ØªÙħ
ĠØ¨Ù¾ ÙĪ
Ġtou ching
ĠÙħÙħÙĨ ÙĪÙĨÙħ
Ġtim id
7 5
b or
v y
ĠÚ© ÛĮÚ©
Ġs ink
ĠØ® Ø§Ú©ÛĮ
Ġor bit
ĠL abor
ĠØ§ÙĦ ØªÙĨ
Ġgr im
be ing
ĠØ¯Ø±ÙĪ Ø§ÙĤØ¹
ĠÙ¾Ø§Ú© Øª
ĠPol ish
ĠÙħØŃØ§Ùģ Ø¸
Ġbud get
A dd
Ġc ared
ĠÙĤ Ø²
ĠÙĤ Ø±Ø§
ĠØ¯ÛĮ Ú©
ĠÙģØ± ÙĨ
Ġkn ight
ÙĪØ² ÛĮØ±
ĠÙĨÙĪ Ø¨Ùĩ
ÙħÛĮÙĨ Ø§
Ġcl ient
ĠØ§Ø¹ ÙĦ
Ġbu ck
Ġmus cle
Û² Û
ĠÙħØ±Ø§Ø¬ Ø¹Øª
Ġlone ly
Ùħ Ø§ÙĩÛĮ
Ø§ÙĨ ÙĨØ¯
en ance
Ġm ild
Øµ ÙĦÛĮ
ĠÙĩÙħ Ú©Ø§Ø±Ø§ÙĨ
ĠÙĤ Ø§Ø¹Ø¯Ùĩ
Ø§ÛĮØ¯ Ú¯ÛĮØª
Ø¯Ø§ ÙĪÙĦ
ĠØ§Ø¹ Ø¶Ø§
Ġsl ave
Ġgu arant
ĠØ®Ø± ÛĮØ¯Ùĩ
Ġdep os
Ġarri ve
Ġtrou bled
Ġcharacter istics
PD F
ĠØŃØ´ Ø±Ùĩ
igr ants
K e
O D
Å ¡
Ø§ ÙģØªÙĩ
Ġo kay
ĠØª ÙĩØ§
ĠØ¯Ø± Ø¨
Ø® ÛĮÙĨ
ĠP en
ĠT re
ard ier
ÙĬ ÙĬ
ĠK er
ÙĦÙĪ Ø¹
ØºÛĮ ÛĮØ±
Ġdist ress
Ġass ess
Ġste am
ĠAd am
Ġlif etime
ĠÙĤØ§ ÚĨØ§ÙĤ
' .
Ã ł
Ú© Ø§Ø±Ùĩ
ĠØ§ ÙħÛĮ
ĠÙħ ÙħØª
ÙĦ Ø§Ø²Ùħ
Ø· Ø¦Ùĩ
ĠØ¢ÙĨ ÙĩØ§ÛĮÛĮ
ĠØŃ ÙĤØ§ÛĮÙĤ
ĠØ· Ø§ÙĤØª
ĠO tt
ĠU p
Ġad ult
ĠÙĨÙħØ§ÛĮ Ø´ÙĨØ§ÙħÙĩ
uth or
ĠÙĩÙĨØ± ÙĩØ§ÛĮ
ĠÙħØ±Ú© Ø¨
Ġdisappe ar
d is
n on
y odor
Ø² Ø¯ÛĮ
Ġb ree
ĠØ´ Ø¨ÛĮ
ĠÛĮ ÙĪØ±Ú¯ÛĮØ³
us ions
ĠB uilding
ĠR ight
ĠT wo
ĠÙ¾Ø§ ÙĪÙĦ
ĠLe g
Ġarg uments
Ġsus pected
ĠÙħØ¶ ØŃ
ĠÙ¾Ø§Ø±Ø§Ùħ ØªØ±
ĠEduc ation
i ac
re c
Ø§Ø± ÛĮÙħ
Ġm ob
ĠØ¨Ø§ Ú©
ĠÙĩÛĮ ÙĪÙĦØ§
alf oy
ĠCl ivina
ĠPhil ipp
ĠAll en
Ġremind ed
ĠÙģÙĦØ³Ø· ÛĮÙĨ
Ġphenomen on
ĠØ® ØªÙħ
ĠÙ¾ Ø´ØªÙĩ
Ġst ack
Ġde but
ĠØ· ÙģÙĦ
Ġsh y
ĠR od
ĠE G
ĠÙĨÛĮØ³Øª ÛĮØ¯
ÙĨØ§ Ø³ÛĮ
ØŃØ§ÙĦ Øª
ĠØªØ´ Ø±ÛĮØŃ
Ġkind ly
Ġass ure
ĠØªÙĦ Ø®ÛĮ
ĠBr other
ĠAb raham
ĠØ´ÙĦÙĪ Øº
ĠØ²ÙĨØ¯Ø§ÙĨÛĮ Ø§ÙĨ
ĠØ¢Ø±Øª ÙĪØ±
ĠLin ux
Ġt eles
Ø´ Ø¹
ĠØ¯ ÙĨØ§
Ġn a
Ġg ang
ĠØ¯Ø§Ø´Øª ÛĮ
ĠH it
ĠÙĨÙĪ Ø³Ø§ÙĨ
ĠÙĩÛĮ Ú©ÙĦ
ĠØ¬Ø§ÙĨ Ø´ÛĮÙĨ
Ġ198 1
Ġlab el
Ø¬ÙĪÛĮ Ø§ÙĨ
ĠÙħØ¤ Ø¯
Ġchem istry
ĠØ¨ Ø§ÙĨÚ¯
Ġthe ater
ÙĪØ¯ Ø§
ĠØ¯Ø± Ø³ÛĮ
ĠÙĤ ÙħØ§Ø±
ĠC ard
ĠÙĦ ÙĤØ¨
Ġbr ows
Ġeng agement
Ġ197 8
Ġeffect ively
ĠØ§ÙħÙ¾Ø±Ø§Øª ÙĪØ±
ÙħØ§Ø±ÛĮ ÙĪØ³
Ġreck on
A ct
H ar
M en
d y
Ġh arsh
ĠH ay
Ġsa ving
ĠÛ±Û ±Û
Ġcr own
Ġear liest
Ġsur ve
ĠØºØ±ÛĮ Ø¨ÛĮ
ĠØ¹ÛĮ Ø¨
ĠBab bitt
ÙģØ´ Ø±Ø¯
Ġconvent ional
Ġdisg ust
ĠØªØ¨Ø¹ÛĮ Ø¶
O kay
S R
y o
er iana
st and
ĠÛĮÚ© Ùħ
ĠÙĦ Ø±ÛĮ
ĠÙĦ ÙĨÚ¯Ø±
ĠH ong
Ġint im
ĠK at
ĠK ong
Ú¯Ø°Ø§Ø± Ø§ÙĨ
ĠØ¢Ø¯Ùħ ÙĩØ§
Ġdirect ions
Ġorgan ic
ĠÙģÙĦ Ø¬
hem atic
ĠÙħØ²Ø§Ø± Ø¹
h ind
Ø³ Ø§Ø±
ÙĪØ¯ ÙĨ
an ed
Ġl ux
Ø§Ø¨ ØªÛĮ
ĠØ¯Ùĩ Ø§ÙĨÙĩ
iz ard
ĠØ¬Ø§ÙĨ ÙĪØ±Ø§ÙĨ
Ġexp ed
ĠØªÙĪÙĨ ÙĦ
Ġrout e
ĠFore ign
ĠÚ©Ø§Ù¾ ÛĮØªØ§ÙĨ
Ġpaint ings
Ġepis ode
Ġsplend id
Ġstair case
ĠâĨ Ĵ
Mean while
S F
Ġo bey
ĠØ¢ Ú¯
Ġin fection
ĠÙģ Ú©
ĠS ab
ĠA cc
Ġr aw
Ġ15 0
Ġpract ices
Ġant icip
Ġmer cy
Ġregard ing
Ġwrit ers
inem a
rast ructure
S N
Ø§ÛĮ Ø´Ø§ÙĨ
at ers
ĠÙĨ Ø§Ø¨Ø±
Ġb other
ĠØ¯Ø± Ø§Ø²ÛĮ
ÙĩØ§ Ø¨
ĠØ¹ Ø§Ø¯
Ø¶ Ø§Ø±
Ġse ats
Ġme al
ĠH og
Ġun ple
ĠØ§ÙĨØ¯ ÙĪÙĨØ²ÛĮ
ĠØ²ÙĨ ÙĨØ¯Ùĩ
ØªÙĪÙĨ ÛĮÙħ
ĠÙħØ± Ø¬Ø¹
com ing
ĠÙĪØ§ Úĺ
Ġdesign s
ÙĨØª ÛĮÙĨÙĪ
olly wood
Ġconstruct ed
Ú© ÙĪØ´
Ġf ishing
Ù¾ Ø²ÛĮ
Ġp ump
Ġd ies
ĠØ¬ ÙĪØ¯
Ġg ap
ĠØ¹ Ø¸
Ġal coh
ÙĤÛĮ Ø§ÙģÙĩ
Ġad just
ĠÚ©ÙĦ ÛĮÙĨ
to ok
ĠØ³Ù¾ Ø§Ùĩ
ĠÙĦÙĪ Ø§Ø²Ùħ
ÚĺÙĨ Ø±Ø§ÙĦ
ĠÚ©ÙĪÙĩ Ø³ØªØ§ÙĨ
Ġce iling
ĠÙ¾ØªØ± Ø²Ø¨ÙĪØ±Ú¯
ĠØµÙħÛĮ ÙħÛĮ
Ġobserv ation
ĠPav lov
ĠØ¹Ø« ÙħØ§ÙĨÛĮ
D av
f ile
Ùħ Ø¹ÙĨÛĮ
Ø¯ ÙĩØ§
ĠØ¨ Ú¯ÛĮØ±ÛĮ
ĠØ¨ Ú©Ø´
ĠÚ© Ø§Ø¨ÙĦ
Ø¨ ÙĤÛĮÙĩ
re plied
Ġhe m
ĠØ¬ ÙħØ§
ÙĪÛĮ Ú©
Ø¨ÛĮ Ø§ÛĮÛĮØ¯
Ġwr ites
ĠØ®Ø§Ø·Ø± Ø´
Ġexp osed
ĠÚ©Ø§ÙĦ Ø§
ĠØ´Ú©Ø³Øª ÙĨ
Ġdoll ar
Ú©Ø§Ùħ ÙĦØ§
ĠÙĩÙĦ ÙĨØ¯ÛĮ
ĠØª Ù¾
Ù¾ Ø±ÙĪÙģ
ĠØ® ÙĨØ¯Ø§ÙĨ
ĠÙ¾ Ø§ØªØ±
Øµ Ø¨Ø±
ĠØ¹ Ø§Ø¬
ĠG er
ĠF I
ĠØ§ÙĦ ØªÙħØ§Ø³
Ġrec overed
ĠØ¢ÙĦ ÙĨ
ĠØ³Ø® ÙĨÛĮ
ative ly
Ġfr own
Ġoper ate
Ø§ÙĪÙĨ ÙĩØ§
ĠWe asley
Ø§Ø¯ÙĦ Ø§ÙĨÙĩ
Ġtrem end
Ġexecut ed
Ġrat io
Ġutter ly
Ġexpans ion
ĠÚ© Ø¨
Ùģ ÛĮÙĨ
Ġf lex
ÙĦÛĮ ÙĦÛĮ
ro ph
ĠS ul
ang ing
ple te
ĠÙĨÙħØ§ÛĮ ÙĨØ¯Ú¯ÛĮ
Ġaw ake
Ġlim its
Ġcompan ions
Ã¼ r
ÙħÙĨØ¸ ÙĪØ±
ĠØ¢Ø±Ø§ Ø³ØªÙĩ
Ġuncomfort able
3 4
F our
G u
an ing
ĠØ³ ÛĮØ²
ĠØ§Ø³Øª Ø±Ø³
ĠÙģ Ø¯
ĠÚ©ÙĨØ¯ ÛĮ
ĠÙħØ´ Ùĩ
ĠÙĨÙĤ Ø´ÛĮ
ĠØ´ÙĩØ± Ú©
ple x
Ú©ÙĪ Ø¦
ĠØ®ÙĪØ¯Ø´ ÙĪÙĨ
Ġprodu cer
Ġmet ers
ĠLe on
ĠØ¹ÙħÙĦÛĮ Ø§ØªÛĮ
ĠØ³ÙĪÙĨ ÛĮØ§
Sec ond
ĠÙĪØ§Ú©Ø³ ÙĨ
c are
ĠØ¢ Ø¨Ø±
Ø® ØªÛĮ
ĠÙĤ ÛĮØ¯
ĠÙħÙĨ Ø´ÛĮ
ĠD et
Ġch oices
ĠØ§Øª Ø±ÛĮØ´
ĠÙħØ¬ ÙħØ¹
Ġam use
Ġbo ats
Ġmight y
Ġappro ved
Ġ197 1
Ġprom ote
Ġelse where
Ġsuggest s
Ġcustom er
ĠApp le
' ,
b b
v i
Ø¨ Ø§ÛĮÛĮ
Ø§Ø± ØªÛĮ
ĠÙĨ ÙĪÛĮ
Ġh ttp
ĠS k
Ú©Ø±Ø¯ ÙĨÛĮ
ĠØ±Ø§Ùĩ ÙĨÙħØ§ÛĮ
ĠÙ¾Ø± Ø´
Ġtalk s
ĠÙ¾Ø§Ø³ Ø®ÛĮ
Ġflo ating
ĠÛ±Û¸Û ¸Û
ĠÙħØ§Ùħ ÙĪØ±ÛĮØª
Ġvirt ue
ĠØ¢Ø±Úĺ Ø§ÙĨØªÛĮÙĨ
Ġpeas ants
ĠØ¬ÙĦØ³ Ø§Øª
c ers
m ary
ÙĪ Ø§Ùħ
in stein
Ùģ Ø§ÙĦ
Ġse ctor
Ġlo ver
ĠÙĨØ¸Ø± Ø§Øª
ĠCh ris
Ġgu itar
Ġtrans mission
ene z
ĠØŃÙĤÛĮÙĤØª Ø§
ĠÙĪØ³ ÙĪØ³Ùĩ
Ġ196 7
ĠØ¹ÛĮÙĨ Ú©
ĠÙĪØ±Ø²Ø´ Ú¯Ø§Ùĩ
ĠØ¨Ø±Ø¢ÙĪØ±Ø¯ Ùĩ
Ġune asy
ĠØ§Ø³Ú©ÙĨ Ø§Ø³
ĠÙĨÙĪØ´ÛĮØ¯ ÙĨÛĮ
ancho ly
it arian
Ġc osm
ĠÙ¾ ÙħÙ¾
ĠØ¬ Ø¨Ø±
ĠØ² ØºØ§ÙĦ
Ġwe ary
ĠS ant
Ø±ÙĪ Øª
ist ical
ĠG or
ĠÙ¾ÛĮ Ø±ÛĮ
Ġv ideos
ÙĩØ± Ú¯Ø§Ùĩ
ÙĪØ² ÙĪÙģ
ĠU s
urn ing
Ú©Ø³ Ø§ÙĨÛĮ
ĠØ¨ÙĨ Øª
ĠØ¨Ú¯ÙĪÛĮ ÛĮ
ĠØ¯Ø±ÛĮ ÚĨÙĩ
Ġauth ors
ĠØ®ÙĦØ§ ÙĤÛĮØª
Ġimm une
Ø¯Ø§Ø® ÙĦ
ÙħØ·Ùħ Ø¦ÙĨ
Val eriana
R ec
t ion
ĠÙĨ Ú©ÙĨÛĮÙħ
ĠØ¨Ø± ÙĤØ±Ø§Ø±ÛĮ
Ġwas h
ke l
Ġne at
ĠD anglars
ĠH and
ĠF reedom
Ġamong st
ĠØ¯Ø¹ ÙĪØ§
ĠØ´Ø§Ø¯ ÙħØ§ÙĨÛĮ
ĠÚĨØ§Ø± ÙĦÛĮ
ĠÙĥÙĨ ÙĬÙħ
Ġoccasion ally
Ġflu id
ĠØ§ÙĪÙħ Ø¯Ùĩ
ĠÙģÛĮÙĦØ³ ÙĪÙģ
à ¥
ĠØ¨ ØªÙĪØ§ÙĨÛĮØ¯
Ø¨ ÙĪÛĮ
Ġn erve
ĠÙĦ Ø´Ú©Ø±
Ġag ed
ip her
ĠÙħØ¯ Ø§Ø±Ú©
Ġform at
Ġinst all
ĠØ¨Ø±Ø§Ø¯Ø± Ø§ÙĨ
ĠÙħØ§ÙĩÛĮ Ú¯ÛĮØ±ÛĮ
ĠØ±Ùģ Ø§Ùĩ
Ġcontr ad
ĠØ¨Ø±Ú¯Ø² ÛĮØ¯Ùĩ
Ġrecomm ended
ĠStep an
ĠÚ©Ø§ÙħÙ¾ Ø§ÛĮÙĦ
Ġrestaur ant
Ġcot ton
n el
Ġf rank
an th
ĠØ¬ Ø²ÛĮ
ĠA c
ĠM IT
ĠG ar
ĠH on
ĠÙĨÙĪ Ùĩ
wh y
ĠØ§ÙĨØªØ® Ø§Ø¨ÛĮ
let on
ĠMed ia
Ġhop ing
mit ri
ĠØ¯Ø±Ø® ØªÛĮ
Ġmechan ism
ĠØ¯Ø³ØªÙħ Ø²Ø¯
ĠJack son
Ġweap on
Ġproport ion
h ire
l ist
Ġt ap
ĠØ¨ Ú©Ø´ÙĨØ¯
Ġf ab
ĠØ¹ Ø§Ø±ÛĮ
ĠC orn
Ø±Ùģ Ùĩ
ĠJ a
ĠØ¯Ø§Ø¯ ÛĮ
So on
ĠØ¨ÙĨ Ø§ÛĮ
Ġexam ined
Ġmother s
Ġris ks
Ġobt ain
Ġnewsp apers
ĠØŃØ´ Ø±Ø§Øª
T C
ĠÙħ ÙĪØ§ÙĨ
as ped
Ġit ems
ĠØ¨ÛĮ Ø§Ø¨Ø§ÙĨ
ĠÚ¯ÙģØª ÛĮÙħ
Ġman ners
ĠØ¯Ùĩ ÙĨØ¯Ú¯Ø§ÙĨ
ĠØ³ÛĮ ØªÛĮ
ĠØªØ§Ø¨ ÙĪØª
Ġdifficult ies
Ġpen et
Ø¢Ø± Ø§Ùħ
ĠReg ion
ĠØ´Ø§Ø± ÙĦ
ĠØ¯ÛĮØ¬ÛĮØª Ø§ÙĦÛĮ
ĠØ¨ÙħØ§ÙĨ Ùħ
Ġwra pped
" ),
C ont
at oes
ĠÙħÛĮ Ø´ÛĮ
ĠÙĩ Ø§Ø³Øª
Ø· ÙĪØ¨
ĠC R
lo oked
ĠÚ©Ø´ Ùħ
ĠK r
ĠØ§ÙĦ Ø¬Ø²
ĠÙ¾Ø³ Ø±Ùħ
ĠØ¬Ùħ Ø¹Ùĩ
Ġsc an
Ù¾ÛĮ Ø´Ùĩ
amp ed
uck y
ĠØ¨Ø±Ú¯Ø±Ø¯ Ùħ
ĠØ§Ø´Ú© Ø§ÙĦÛĮ
ĠÚ©ÙĨØ¬ Ú©Ø§ÙĪ
L A
Ø§ Ø¸Ø±
ĠØ§ Ø±Ùĩ
ĠÚ© Ø§ÙģÙĩ
Ø¨ ÙĦØ§ÙģØ§ØµÙĦÙĩ
ĠI V
ĠS audi
ĠØ¯Ø§Ø± ÙĪÛĮÛĮ
Ø§Ø³ Ù¾
ĠØ¯ÛĮ Ø´Ø¨
ĠØ¬Ùĩ ÙĨÙħ
ik a
ĠØ¢ÛĮ ÛĮÙĨ
Ġstay ing
Ø´ÙĩØ± Ø³ØªØ§ÙĨ
ĠÙĪÛĮÚ© ØªÙĪØ±
Ø³ ÙĦØ§Ùħ
Ø¹ Ø¬Ø¨
Ġin equ
ĠC ub
ĠØ· Ø±ÛĮ
ment ed
act or
act ive
ĠÚĨÙĨØ¯ Ø§ÙĨÛĮ
Ø³Ø§ÙĨ Ø³
Ġgl ory
ĠØ§Ø® Ùħ
ĠØ®ØµÙĪØµÛĮ Ø§Øª
ĠHar old
ĠÛ´Û µ
ĠØ¢ÙĦÛĮ ÙĪØ´Ø§
8 8
M art
T w
ÛĮ Ø¹
ĠÙĨ Ú©Ø±Ø¯ÙĨØ¯
Ø¹ ÙħÙĪ
ĠØ¨ÙĪØ¯ Ú©Ùĩ
ĠÙħÙĪ Ø¨
ĠF rid
ÛĮØ§ ÙģØªÙĩ
ĠØ®ÙĪØ§Ùĩ Ø§ÙĨ
Ġgr amm
ĠØªÙĤ Ø¯ÛĮØ±
ĠØ¢Ø³ ÙħØ§ÙĨÛĮ
ĠÚĨØ´ ÙħØ§ÙĨÛĮ
Ġconsider ation
ĠÙĪØ§Ø¨ Ø³ØªÚ¯ÛĮ
ĠØ·ÙĦØ§ ÙĤ
Ġairport s
h in
ĠÙĪ Ø³ØªÙĨ
Ġh oney
ĠØ¨Ø± Ø§ÙĨÚ¯ÛĮØ²
if ies
Ø¢ ÛĮÙħ
Ø§Ú© ØªÙĪØ±
Ġevery day
ĠØ¯Ø§ÙĨ ÛĮÙħ
Ġsc enes
ĠØ§Ø¹ Ø¸Ùħ
ĠØ§Ø±Ø² Ø´ÛĮ
ĠØ§Ø±ÙĪ Ù¾Ø§ÛĮ
ĠØ¯Ø±Ø¢ÙĪØ±Ø¯ Ùĩ
ÙĨØ¸ Ø§ÙħÛĮ
ĠMod ern
L evin
ĠÙħ ÙĩØ±Ùĩ
ĠÚĨ ÙĪ
ĠÚĨ Ø§ÙĦ
Ġst are
Ø§ÙĤ Ø¶
ĠØ¢Ùħ Ø§Ø¯Ú¯ÛĮ
ĠÙħØŃ Ø§Ø³Ø¨
ine a
ĠÙħÙĤ Ø§ÙĦØ§Øª
ren cy
ĠCh ile
Ġdev oted
Ġclot hing
Ġadminist ration
Ġattract ed
Ġsac red
Tr acy
ĠØ§Ú©ØªØ´ Ø§Ùģ
G erman
w alk
ĠÙĪ ÙĨØ¯
Ġbe aring
ĠÙĤ ØµØ±
Ġst ages
od ing
ĠD aza
ĠÙģØ± ÙĤÛĮ
ĠN avy
cc a
ĠÛ±Û¹Û ³Û°
Ġtr ace
ĠØªØ¹ Ø§Ø±Ùģ
oc ation
Ġpol ite
Ġfr ac
ĠÙħØ®Øª Øµ
ĠØ¨Ø³ Ø§Ø²ÙĨØ¯
Ġcontin ually
ograph ical
ĠÛ±Û¹Û¹Û ³
ĠØ¯Ø§Ùħ Ø¨ÙĦØ¯ÙĪØ±
Ġcross ing
Ġrequire ments
Ġmel ancholy
ĠØ³Ù¾Ø§Ø³ Ú¯Ø²Ø§Ø±Ùħ
Ġdynam ic
Ġgest ure
ĠICA O
Ø§Ø± Ø²Ø´
ĠL aur
ast ing
Ġno is
ĠØ§ÙĨÚ¯ ÛĮØ²ÛĮ
ĠÙħÙĨØª ÙĤ
ĠÙħÙĨØ¸ ÙĪÙħÙĩ
Ġval id
Ġ197 2
Ġ196 9
ĠÙħØ¹ÙĨ Ø§Ø³Øª
ĠÛ±Û³Û ¹Û
ĠÙĪÙĤ ÙģÙĩ
ustom ed
Ġconcept s
Ġdepth s
Ġaccur ate
ĠØ§Ø¹Ø· Ø§
ĠTay lor
r at
Ġ 00
Ġto ss
ĠØ³ Ú©ÙĪ
ĠØ¨Ø§ Ø®Øª
ot ty
ĠÛĮÚ© Ø¨Ø§Ø±
ke eper
ĠT a
ĠØ¨Ø§Ø² Ùĩ
ĠÙħØ¬ ÙĦ
atch ing
Ġsuccess fully
ÙĨØ³ Ø®Ùĩ
Ġbur den
Ø³ÛĮØ³ Ú©ÙĪ
ĠØ¨Ú¯Ø° Ø±Ø¯
Un like
ĠÚĨØ± ÚĨ
ĠÙģÙĪÙĦ Ø§Ø¯
ĠØªØ®Øµ ØµÛĮ
ĠØ¯ÛĮÙ¾ ÙĦÙħ
C D
S O
Ġo ption
ĠØ³ ÙĪÙĨØ¯Ø±Ø§
Ġn avig
ĠB enn
ĠÙħØ§ Ú©Ø²ÛĮÙħ
ĠÙħØ¹ Øµ
ĠK im
ĠØªØŃ ÙħÛĮÙĦ
Ġoff ering
Ġlight ed
Ġabsor bed
Ø¢ÙģØ± ÛĮÙĨ
e z
Ùħ Ø§Ø¯ÛĮ
Ġp y
ĠÚĨ Ø§Ø¨
ent ine
ĠØ· Ø§ÙĤ
ĠØ§ÙĨ ÙĤ
ĠD atabase
ĠL ad
ĠThe ory
ĠØ·Ø±Ùģ ÛĮ
ĠØ§ØªØ§ÙĤ Ø´
ĠÙħØªØŃ Ø±Ú©
cri bed
ĠØ¬ÙĪØ± Ø§Ø¨
Ġstrugg ling
f ree
ĠØ§ Ø¨Ùĩ
ĠÚ© ÙĪÙħ
Ø² ÙĪØ¯
ĠÙĩ Ø§Ø±ÙĪ
Ġd ensity
Ġn odes
ĠØ¹ Ú©Ø§Ø³ÛĮ
Ġan alog
ĠØ· ÙĦÙĪØ¹
ĠB ru
ĠØ³Ø± ÚĨØ´ÙħÙĩ
ĠÙħØ´ ÙĪØ±Øª
ĠÙĨÛĮØ² Ùĩ
ĠØ¯Ø§ÙĨ Ø³ØªÙĨ
ĠØ§Ø´ Ø±Ø§Ùģ
igh ter
clud ing
Ġbreat he
ĠÙħÙĪØ± ÚĨÙĩ
Ø®ÙĪØ± ÙĨØ¯
Ġhun ting
Ġinj ury
Ġdistingu ished
ĠColumb ia
4 6
M on
t ailed
he nt
ĠÙħ ÙģØª
Ø§ÛĮ ÙĨØ¯ÛĮ
Ġd ad
se en
ĠS on
un ted
ĠD ol
ĠØ¯Ø§Ø´Øª ÛĮØ¯
ĠL anguage
ĠN ight
Ġle ather
Ø±Ø³ Ø§ÙĨÛĮ
ĠK enn
Ú©ÙĦ Ø§ÛĮ
Ġinter action
ĠØ¨ÙĩØªØ± Ùĩ
ĠÙĪØ§ Ú¯Ø°Ø§Ø±
ĠCon stitution
Ġang el
ĠJohn son
asc al
Ġhy per
ĠÙħØ¹ØªÙĤØ¯ ÙĨØ¯
Ø¯Ø§ÙĨØ´ Ú¯Ø§Ùĩ
M er
l Ä±
Û ³Û
ÙĪØ± ÙĩØ§
ut y
Ø¶ Ùħ
ĠH ol
ell ow
ĠV ill
Ġcons idering
ĠØŃØ³ Ø§Ø¯Øª
Ġcomput ing
Ġfree ly
co at
ĠØªØ³ Ø®ÛĮØ±
ĠArab s
ĠMed ic
Ġneare st
Ø¯ Ø§Ø±ØªÛĮÙĨ
ÙĨØ¯ ÛĮØ§
it ating
an ian
Ġr ic
ĠØªÙĨ ÙģØ±
Ú¯ÙĪÛĮ ÛĮÙħ
Ø¬ÛĮ ÙħÛĮ
ĠØªØ¨ Ø³Ùħ
ĠØªØ¨ Ø§Ø¯ÙĦ
ĠÙħÛĮÙĦ Ø§Ø¯
ĠØ¯ÛĮÙĪØ§Ø± ÙĩØ§
Ġnecess ity
ĠAm az
Ġmid night
ĠÙĦØº Øª
ĠTrans port
Ġdrag ged
ĠVirgin ia
Ġsimult aneously
w ent
w ord
Øª Ø²
Øª ÙħÛĮ
ĠØ¨ Ø®ØµÙĪØµ
ĠÙħ Ú¯Ø³
et on
ĠØªÙĪ Ø·Ø¦Ùĩ
ÙĦÙĩ ÙĪÛĮÙĨ
ell i
ĠØ§Ùģ Ø³ÙĪÙĨ
ĠÚ©ÛĮ Ø´ÙĪØª
Ġloc ations
Ø´ÙĨØ§Ø³ ÛĮØ¯
ÙģØ±ÙĪ Ø´ÛĮ
Ġsubst ant
Ġreject ed
uten ant
I X
v as
ĠÙĨ Ø§ÙĨÙĪ
Ġp itch
Ø¢ ÙĨØ¯
ĠØ§Ø¬ Ø²Ø§ÛĮ
ĠÙĨÙħØ§ÛĮ Ùħ
Ġret ire
Ġread er
ĠØ³Ù¾ Ø±Ø¯
ĠÛ´ Û°Û°
ĠÙģÛĮ ÙģØ§
Ġpull ing
ĠDire ctor
G ive
i ography
ĠÙħÛĮ Ø®ÙĪØ§Ùħ
Ø§Ùħ ÛĮÚ©
Ġbe er
st ate
Ø±ÛĮ Ø§
ĠC ad
Ø´Ø§ÙĨ ÙĪÙĨ
Ġro pe
Ġro les
ÙĪØ±Øª ÙħÙĩ
ĠÙ ¡
cl ass
Ġfun eral
Ġsix ty
ĠÛ±Û¹Û¸Û ¹
ĠÙĪØŃØ´ÛĮ Ø§ÙĨÙĩ
Ġdelic ate
Mad ame
Ġridic ulous
Ġille gal
P oor
o ons
Ùħ Ø®
Ø´ Ø§ÙĨÛĮ
Ùģ ÙĨ
Ġf oss
or ph
Ġto ile
Ġl ou
ĠÙ¾ ÙĢ
ll y
Ġbe gged
ĠØŃ ÙĪÙħÙĩ
ter y
ĠØ®ÙĪ Ø²Ùĩ
um a
Ġsh aped
ĠÚĺ Ø§Ú©
ĠØµØ¯ Ø§ÙĩØ§
Ġele g
ĠØ®ÙĪÛĮØ´ Ø§ÙĪ
ĠÙģØ±Ø§ÙĨØ³ÙĪÛĮ Ø§ÙĨ
ĠArch itect
Ġtal ent
ĠComput er
P art
e av
h ran
Ø³ ÙĪÙĦØ§
Ġf iction
ĠØ³ ÙĨÛĮ
ĠA D
ĠÙħÙĪ Ø§Ø²ÛĮ
ĠÚ©ÙĪ Ú©
ĠÙ¾Ø³ ÙĨØ¯
ĠÙĨØ² ÙĨ
ĠÙĨÙħØ§ÛĮ ÛĮØ¯
Ġprof it
ĠBr idge
Ġident ical
ĠÙĦØ·ÛĮ Ùģ
ĠØªÙĦØ³ Ú©ÙĪÙ¾
h an
Ã º
or f
Ø§ÛĮÙĨ Ùĩ
ig ious
Ġim plic
Ġag ents
ĠÚ©Ùħ Ø±Ø¨
ĠØ³Ø§Ø®Øª Ú¯ÛĮ
Ġreg ional
ĠÚ¯ÛĮ ÙĦØ§Ø³
Ġpain ter
Ú©Ø±ÛĮ Ø³
Ġinstrum ents
ĠMove ment
ĠSci ences
ĠÛĮ Ø§ÙĦ
ĠØ¹ Ø·Ø±
ĠS ong
ÙĪÙĦ ÙĨØ¯
ĠØ¯ÛĮ ÙĪØ§Ø±Ùĩ
ĠÙĩØ± Ú©Ø¯Ø§Ùħ
Ġdis pl
ÙģÙĩ ÙĪÙħ
Ġ6 4
ĠÙĦÙĪ Ø³ÛĮ
ĠØ¹Ø´ ÙĤÛĮ
Ġmanufact uring
ĠÙģØª ØŃ
ĠØ®ÙĪÙĨØ³ Ø±Ø¯ÛĮ
ĠØ±Ø¨Ø· ÛĮ
Øª ÙĪØ²
Ġd iver
ĠÙĤ ÙģØ³
ĠØ¨ÛĮ ÙĪÙĩ
ig ma
ĠT op
ĠÙħØª ÙĤØ§Ø¨ÙĦ
Ø±Ø³ ÙĪÙĨ
cl ing
ĠØ¯ÛĮØ¯ ÛĮ
Ġpers ist
Ġsupport ing
Ġmeet ings
ĠYou ng
ĠCent re
ĠØ±Ø³Ø§ÙĨØ¯ ÙĨ
Ġther mal
ĠÙĤØ±Ø¨Ø§ÙĨÛĮ Ø§ÙĨ
C o
Ùħ ÙĨÛĮ
Ġb inary
ĠØ® Ø§ÙĨØ¯Ø§ÙĨ
Ø§Ø¯ ÙĪØ±
ĠØŃ ÙĤÙĩ
ol ay
ĠÚ¯Ø± ÙħÛĮ
ĠÙħØ¹ Ø¨Ø¯
Ø´ÙĨ ÙĪØ¯
Ġ3 6
ĠØ¹Øµ Ø¨
Ġmov ies
ĠÙĪØ¨ ÙĦØ§Ú¯
ĠØ§ÙĨØªØ´Ø§Ø± Ø§Øª
Ġremark ed
ĠIraq i
2 000
A V
c al
w r
ĠÙħ ÙĩÛĮ
Ø³ Ø§ÙĦÙĩ
ot r
ĠØ¹ Ø³ÙĦ
ĠØ§ÙĦ Ú©ÙĦ
Ġcomp osition
ĠÙħØ¬ Ø²Ø§
Ġsl ip
Ġprodu ces
Ġed ges
Ġpartic le
ĠØ³Ù¾ ÛĮØ¯
Ø¬Ùħ ÙĦÙĩ
Ġtransfer red
ÙħÙĪÙĤ Ø¹ÛĮ
Ġwithd raw
ĠAzerbai jan
ĠCorpor ation
O ld
W est
ĠØ¯Ø± Ø¨Ø±
ÙħÛĮ ÙħÛĮ
ĠM ans
ĠØ§ÙĨ Ø³
ĠR em
ĠH al
ĠF rom
ĠÙĨÙĤ ÙĦÛĮÙĩ
ĠÙĩØ§ÛĮ Ø´Ø§ÙĨ
ĠÙĨÙħ Ø±Ùĩ
ĠØªÙĤ Ø¯ÛĮÙħ
ĠÙħØ³ÙĦ Ø·
ĠØ¢Ø´Ú©Ø§Ø± Ø§
Ġthreat ened
rig ory
Ġru in
ĠÙħÙĨØµ ÙĪØ¨
ĠÙħØ¹Ø° Ø±Øª
f are
ĠÙģ Ø§Ø³
ĠØ² ÙĪØ²Ùĩ
ol k
ĠØ¯ÛĮ Ø³Ú©
He y
ĠØ³Ø§Ø®Øª Ø§Ø±ÛĮ
ĠÙĦØ¨ ÙĨØ§ÙĨ
Ġreg ime
Ġgu ards
Ġbusiness es
eral d
ĠØ¨Ø±Ú¯Ø±Ø¯ ÛĮÙħ
ĠÙ¾Ø±Ø³ Ùĩ
Ġaddress ing
ois elle
Ġsuspic ion
0 2
S D
T M
m ist
Ø¯ Ø±Ø¯
ĠØ³ ØªÙħ
ĠR ing
ĠR et
ĠØªØŃ ÙĤ
ĠØ¯Ø§ÙĨ ØªØ³
Ġ3 3
ĠØ´Ùĩ Ø±ÙĪÙĨØ¯
ĠÙĩÙħØ¯ Ø±Ø¯ÛĮ
ĠStand ard
ĠØ¢ØªÙĦØ§ÙĨ ØªØ§
D ana
S C
u ros
ĠØ¨ Ø®ÙĪØ§ÙĩÛĮÙħ
Ġd arling
ĠØ¬ Ø§Ø±ÙĪ
ot ted
ĠØ´Ø¯ ÛĮØ¯Ø§
ĠØ· ÙĨØ²
ĠT ower
Ġch im
iv en
Ú©ÙĦ Ø§Ùĩ
ĠØ®ÙĪØ´ Ú¯ÙĦ
ĠÙħØ± Ø·ÙĪØ¨
Ġass ume
Ġappe al
ĠComm on
Ġground s
Ġintrodu ce
Ġdefe at
ĠÙħÙĪÙĦ Ú©ÙĪÙĦÛĮ
ĠBab a
ĠÚ¯ÙĪÙĨØ§ Ú¯ÙĪÙĨÛĮ
ĠSpe cial
f ound
Ġt ourn
in te
Ø¨ Ø§Ø³
Ġm ask
Ġp ier
Ø§Ø¯ Ùģ
Ø³ÛĮ ÙĦÛĮ
ĠÙħÙĨ Ø´
ĠÙĦ Ø®Øª
Ġde ck
Ġv it
ĠØ²ÛĮ Ø±Ø¯
Ø§ØŃ ØªÛĮ
ĠÙ¾Ø± ÙĪØ§ÙĨÙĩ
ĠAust ria
ĠØ®Ø§ÙħÙĪØ´ ÛĮ
Ġge omet
ĠØ§ÙĪÙĦÛĮ ÙĪØ±
ĠØ¯Ø§ Ø«Ø§
Ġfarm ers
Ġestablish ment
ĠÚ¯ÙĪØ³Ùģ ÙĨØ¯
Ġd rank
ĠW ales
ĠÙħØª Ø¯Ø§ÙĪÙĦ
Ø§Ùģ Ø±ÙĪ
ĠØªØ± ÙĪÛĮØ¬
ĠÙĨØ¯Ø§Ø´Øª ÛĮÙħ
ĠY eah
Ġcol ored
ĠØ³Ùģ ÛĮØ±
Ġstop ping
Ġprot ocol
Ġrepl ace
ĠEd ition
Ġconvers ations
ĠØ¨Ø±Ø®Ø§Ø³Øª Ùĩ
ĠEn ter
ĠÙ¾ÙĨØ§Ùĩ ÙĨØ¯Ú¯Ø§ÙĨ
ĠØ´ØªØ§Ø¨ Ø§ÙĨ
Ġdistingu ish
ĠEconom ic
ĠØ¯Ø§ÙĨÙħ Ø§Ø±Ú©
ĠØ³ÙĪØ§ ØŃÙĦ
ĠÙħØŃØ§Ø³Ø¨ Ø§ØªÛĮ
Ġc ort
as hes
Ġst ores
ĠS ony
ĠâĢ ĺ
Ġli kes
ĠG irl
ran e
ÛĮÙĦ ÙĨØ¯
Ġcl oth
Ġper mitted
Ġmat rix
Ġmon ster
Ġfew er
Ġ6 5
Ġlist ed
ĠØ¯Ùģ Ø¹
ĠÙĩÙģØª Ø§Ø¯
ĠArab ia
uz ov
Ġcompl ain
ĠCas aubon
Ġrom antic
ĠØ± ÙĪØ¯Ùĩ
or ters
Ġl ift
ist a
ĠØ³Ø± Ø¹ØªÛĮ
Ġint end
ĠJ amie
ĠØ®ÙĪØ´ Ø§ÛĮÙĨØ¯
ĠØ° Ø§ØªÛĮ
Ġexp anded
ĠSp ring
ĠBer anabus
Ġinj ured
ĠDef ense
ØªÙģ Ø§ÙĪØª
ĠØ§Ø¯Ø¹ Ø§ÛĮ
Ġimpr ison
ĠØ¯ Ø§ÙĨÛĮ
re ction
Ġh orn
Ġp ushing
Ġp ardon
Ġg ardens
ĠÙħÙĪ ÙĩØ§ÛĮØ´
th ought
ĠF yodor
ĠE very
ĠØ¨ÙĦ Øº
ĠPh ot
Ġresult ed
Ġcult ures
200 5
Ø¢Ùĩ Ø³ØªÙĩ
Ġacknow led
Ġcorrid or
N obody
ĠÙĨ ÙħØ§ÙĨØ¯
ĠØ¢ Ø¦ÙĪØ±ÙĦÛĮØ§ÙĨÙĪ
Ø¹ ÙĨ
Ú¯Ø± ÙĩØ§ÛĮ
ĠØ¨ÛĮ ØªÛĮ
em oiselle
ost on
ĠØ¢Ø¨ Ø¬ÙĪ
ĠØªÙĪÙĨ Ø³Øª
ĠÙ¾ÙĨÙĩ Ø§ÙĨÛĮ
ades h
Ġswe at
ĠÙħØ¨Ø§Ø± Ø²
Ú¯Ø°Ø§Ø´Øª ÙĨØ¯
Ġcrowd ed
ĠØ¨ÛĮØ§ÙĪØ± ÛĮØ¯
Ġprint ed
Ġunivers ities
ĠCat al
ĠØ§ÙĦÚ©ØªØ±ÙĪÙĨ ÛĮÚ©
h t
Ġo d
gh ter
ÛĮÙħ Ùĩ
ct ic
ĠA ff
ØªØ± Ø§ÙĨÙĩ
ĠÙĦ Ø§Ø¨Ø¯
ĠP enn
Ø¨Ø± Ø®
ĠÙħØ±Ø¯ Ø§ÙĨÛĮ
Ġen gin
ĠV as
ÙĨÙĩ Ø§Ø¯
Ġsl a
Ġgu est
Ø¯ÙĪ ÛĮØ¯
Ġmus cles
Ġmark s
ĠÙ¾ÙĨ Ø¨Ùĩ
Ġbar rier
Ġprop ag
ĠÙ¾ÙĪ Ø³ØªÙĩ
Ġcivil ization
Ġdut ies
Ġassist ant
ĠBus iness
9 5
Ø¯ Ø§Øª
ĠØ® Ø±Ú¯ÙĪØ´
Ø§Ùħ ØªÛĮ
ĠA tt
ch i
ĠM ouse
ĠØ±ÙĪ Ø¨Ø±
ĠØ¯ÙĪ ÙħÛĮ
ĠL o
Ġins ist
Ġ197 7
ĠÙ¾Ø±Ø¯Ø§Ø®Øª ÙĨØ¯
ĠPet rov
}} }
Ġengine ers
Ġcollect ive
Ø¯ÙĦ Ø´
Ġpal m
ĠØ§ÙĪÙĦÛĮ ÙĪÛĮÙĩ
Ġpros per
ĠRad io
Ġfant astic
f le
Øª ØºÛĮÛĮØ±
Ġh ook
ĠÙ¾ ÙĨØ¯Ø§Ø´Øª
st ers
ÙĩØ§ Ùī
ĠØŃ Ø¨Ø§Ø¨
ri ers
Ġcon j
ĠÚ©Ø§Ø± Ø¢ÙħØ¯
ĠØ§Ùħ Ø³Ø§ÙĦ
pt ions
ĠØ±Ø³ Ø§ÙĨ
ĠØ³Ø§Ø®Øª ÙħØ§ÙĨÛĮ
Ġbr ut
ÙģÙĩ ÙħÛĮ
na pped
Ø§Ø¨Øª Ø¯Ø§
Ġreturn s
Ġland scape
ĠComm unity
Ġdepend ent
ĠØ·ÙĦ Ø³Ùħ
ĠØ§Ø³ØªØ« ÙĨØ§
ĠÙĨØ±ÙĪ Úĺ
Ù¾Ø±ÙĪÙģ Ø³ÙĪØ±
Ùħ Ø¯ÛĮ
Ġc raft
ad ow
od s
ĠH an
ie v
ĠN ev
Ú©Ø± Ø§ÛĮÙĨ
ĠØ§Ø³ ÙħÛĮ
ĠK al
ĠÙ¾Ø³ Ø±ÛĮ
ĠSt one
Ġact ed
Ġform ing
Ġreg ister
Ġinf rastructure
Ġalong side
Ġphys ically
ĠÙĨØ¬ ÙĪØ§
Ġdress ing
Ġconsum er
ĠGovern or
ĠÚ©Ø§Ø±Ùħ ÙĨØ¯Ø§ÙĨ
ĠØ¨ÙĨÙĪÛĮØ³ Ø¯
ĠÙħØ§ÛĮÚ© Ø±ÙĪØ³Ø§ÙģØª
ĠØªÙĦÚ¯Ø± Ø§Ùģ
ĠØ¬Ø§Ø³Øª ÛĮÙĨ
ĠØ§Ø¹ÙĦ Ø§ÙħÛĮÙĩ
8 7
C ar
d s
w ill
ÙĨ Ø±
Ùħ ÙħÙĨ
Ġa rose
Ø¨ Ø¨ÛĮÙĨ
Ġm art
Ø¹ ÙĤ
ĠI l
ØªØ± Ú©ÛĮ
il ation
Ġint r
ĠØºÛĮØ± Ø¹Ø§Ø¯ÛĮ
ØŃÛĮ ØŃ
Ø³ØªÛĮ Ú©ÛĮ
ĠØ¹Ø± ØµÙĩ
Ġir re
ĠØ¯Ø´ÙħÙĨ Ø§ÙĨ
Ġvan ished
ĠÙħØ®Ø§Ø· Ø¨
Ġphotograph s
Ġswim ming
ĠØ§Ø´ØªØ¨ Ø§ÙĩÛĮ
ï º
Ġl ists
ro oms
Ø¦ ÙĪØ³
ab ul
ĠG ene
ĠF alls
ĠØ¹Ùħ Ø±Ùħ
Ġass ass
ĠØ®ÙĪØ§Ø¨ Ú¯Ø§Ùĩ
Ġperiod s
ĠØ¬Ø§ÛĮÚ¯Ø² ÛĮÙĨÛĮ
Ġgaz ing
Ġinqu ired
Ġmole cular
Never theless
Ġcateg ory
C omp
c ule
Ú© Ø±Ø§ÙģØ±Ø¯
ĠØ¨ Ú©ÙĨ
ĠØ± Ø¨ÙĪØ¯
Ġh id
ÚĨ Ø§ÙĦ
ĠÛĮ ÙĪØªÛĮ
ĠÚĨ Ø·ÙĪØ±ÛĮ
Ġst o
Ø¯Ø± Ø®Øª
ÙĨÚ¯ Ùĩ
ĠT reat
ÙĬ ÙĤ
ÙĪØ±Ø¯ ÛĮ
ĠV is
Ġcl ut
ĠÙĨØ§Ùħ ÛĮØ¯
ĠØ¨ÛĮÙĨ Ø§ÛĮÛĮ
Ġrec alled
ere r
ĠØ³ÛĮØ³Øª ÙħÛĮ
ĠØªØ§Ø±ÛĮØ® ÚĨÙĩ
ĠØ±ÙģØªØ§Ø± ÙĩØ§ÛĮ
Ġconc rete
Ġearth qu
Ġcommunic ations
Ġguess ed
ĠØªØ¸Ø§Ùĩ Ø±Ø§Øª
Ġbatter y
ĠColomb ia
enez uel
E ng
Ġt ale
it led
Ø¬ Ø³Øª
ĠØ¨ÛĮ Ø§ÙĨÛĮÙĩ
ag ic
ĠV ic
ĠØ§Ø´ Ø¹Ø§Ø±
Ġglo omy
Ġsoul s
Ġprep are
ĠÚ©ÛĮÙĦÙĪÙħ ØªØ±ÛĮ
Ġconv iction
rep rene
Ġengin es
p an
x ual
is al
Ġd iversity
Ġcl erk
Ġbr ow
Ġsc ent
ĠØ®Ø· Ø±ÛĮ
Ø§Ù¾ ÙĪØ±
200 4
Ġsqu ee
ipp in
ĠÙĩØ´Øª Ø§Ø¯
ID S
ĠØ¹Ùģ ÙĪ
h ov
u ine
Ġf estival
ĠØ³ ÙģØª
ĠØ³ Ú©Ø³
Ġd well
ĠÚ¯ Ø±Ø¯Ùĩ
Ġg a
ÙĩØ§ Ø´Ø§ÙĨ
Ġro lling
Ġres umed
Ġnew ly
ĠØ¢Ø± ÙĨØ¬
Ġstran gers
Ġbox es
ÙħØ· Ø§ÙĦ
Ġconce al
Ġloud ly
Ø¹Ø´ ÙĤ
ilib rium
Ġs ale
Ġsh apes
ĠL ight
ven ue
ĠØ±Ø§Ùĩ ÙĨÙħØ§
ĠØ³Ø§Ø®Øª ÙĨØ¯
old s
gg otty
Ġperson ally
ĠØ§ÙĨØ³Ø§ÙĨ ÙĩØ§
Ġfunction al
Ġinit i
Ġdiscuss ed
ĠÙħÙĪØ³ Ø³Ø§Øª
ĠÙħØ°Ø§ Ú©Ø±Ø§Øª
Ġexha usted
ĠÙħØµÛĮ Ø¨Øª
P res
Øª ÙĪØ³
Ġf ires
Ù¾ ÛĮÙĨ
Ġhe d
ÙĩØ§ÛĮ ØªØ§ÙĨ
ut uzov
ĠB urg
Ġus age
ÙĪØ² Ø¯
ĠØ¯ÙĦ Ø®ÙĪØ§Ùĩ
ÙĪØª ÛĮÙĨ
Ġ3 7
ĠÚ¯Ø±Ø¯ ÙĨØ´
Ġmat ches
Ø´ÙĨØ§Ø³ ÙĨØ¯
Ġsecret s
Ġpock ets
Ġencour age
Ġbehavi our
ĠÙĨÙĪØ§Ø®Øª ÙĨ
ĠÚ¯Ø°Ø±Ø§ÙĨ Ø¯Ùĩ
ĠØ¬Ø²ÛĮ ÛĮ
C ertain
H R
W orld
h ave
u ation
ÙĦ Ú©
Ú¯ Ø§ØªÛĮ
ĠÙĨ Ú©ÙĨÙĨØ¯
ĠØª Ø§ÛĮÙĦ
Ġh oly
ac ement
ch ange
nt il
au c
ĠÚ¯Ø± Ø§ÛĮÛĮ
ĠÙĨØ§Ùħ Ø´
Ġbr id
ĠØ¬ÙĨ Ø§Ø²Ùĩ
Ġconf ront
Ġequ ality
Ġvari ables
ĠSen ate
ĠÙģØ±Ø³ ÙĪØ¯Ùĩ
Ġlat est
ĠØŃØ³Ø§Ø³ÛĮ Øª
F ather
l ers
Ú© Ø§Ø³Øª
Ø² Ø§Ø¯
Ġl ap
Ġn ig
Ġre cept
am my
ĠA ureliano
ĠM it
ĠM ore
il ton
ul us
ĠØ¯Ø§Ø± ÙĪÛĮ
ĠâĢ ²
ĠG ran
ĠD ana
ĠØ¨Ø¯ ÛĮØ¯
Ġen h
ÙĦØ¨ Ø®ÙĨØ¯
Ġatt ach
Ġend ing
ĠØ§Ø¨ Ø±ÙĪ
Ġperson ality
ĠÙħØ±Ú¯ Ø´
Ġland ing
ĠÙħØ´Ø®Øµ Ø§Øª
Ø®ØµÙĪØµ Ø§
ĠÙĤØ¶ Ø§ÛĮÛĮ
ĠDor othy
ĠFed eration
Im agine
Ø± Ø¹
Ġbe am
ĠÙģ ÙĪØ±
ĠÙĩÙħ Ø©
ĠC ensus
ĠØ±ÙĪØ² Ø§ÙħÙĪÙĨØ¯
Ġqu it
Ġcount enance
Ġmet aph
ĠÛ³Û ²
Ġrepresent ation
ĠÚ©Ø§Ø±Ø¨Ø±Ø¯ ÙĩØ§ÛĮ
Ġcover ing
ĠIm per
ĠMat hemat
ĠØ§Ø±Ú© Ø³ØªØ±
Ġunple asant
F rank
Ø§ Ú¯
Øª ÙĪØ±ÛĮ
er ies
ĠÙħÛĮ Ø®ÙĪØ§Ø¯
Ġh ollow
Ġto b
Ġp ond
ĠÙĩ Ø¯Ø±
ĠÙĤ ÙĪÙĩ
ĠH osp
ĠÙħØ³ Ø¬Ø¯
ĠÙĨØ´ ÛĮÙĨ
ĠØ¨Ø§Ø´ Ú©ÙĪÙĩ
Ġfl our
ror ism
Ġthr owing
ĠØ±Ø§ÙĨ Ø¯Ùĩ
Ġparticip ants
More over
Ġcheer ful
" ).
S L
ã Ģ
ĠØ¯ ÙĦØ§
ĠÙĨ ÙĪÛĮØ³ÛĮ
ĠÙħÛĮ Ú¯Ùĩ
ĠØ´ ÛĮÙĦÛĮ
ĠØ¨Ø± Ø§ÙĤ
ol is
Ġse ed
ĠØªÙĪ ÙĩÙħ
ĠT ar
ĠØ³Ø§ÙĦ ÙĩØ§
ie val
oc a
ĠØ´Ùĩ Ø§Ø¯Øª
Ġgovern or
ĠÚ¯Ø±ÛĮ Ø²
ĠØ§Ø« ÙĨØ§
ĠÙĤØ´ ÙĨÚ¯ÛĮ
ĠÛĮØ§ÙĨ Ú©ÛĮ
imens ional
U R
b f
h r
t ic
v ation
ÙĦ ÙĨ
Ġw oke
ĠI T
ol i
Ġab und
ĠJ e
Ġman ip
ĠÙħÚ© Ø§ÙĦÙħÙĩ
ĠÙĨÙĪØ± ÙĪÙĨ
iver ing
ĠØªØ³ Ú©ÛĮÙĨ
ĠÙģÙĦØ³ ÙģÛĮ
ĠØ¬ÙĪÙĨ Ø²
Ġdesert ed
Ġcontem porary
Ġtort ure
ĠÙħÙĩØ§Ø¬Ø± Ø§ÙĨ
Ø§ÛĮ Ø§Øª
ĠØ¬ ÙĨØ¬
ĠØ§ÙĪ ÙħØ¯
ĠÙĦ ÛĮÙĨÙĪ
Úĺ ÙĪÙĦ
Ġco ck
ĠØ³Ø§Ø®Øª Ø§Ø±ÙĩØ§ÛĮ
ĠØ¨Ø´ÙĨ ÙĪÙħ
Ġconcent ration
Ġsynd rome
A B
à ¦
Øª ÙĨÛĮ
Ġc ust
ĠØ¨Ø± Ø·Ø±Ùģ
ĠS ound
ĠD aniel
Ú©Ø±Ø¯ ÛĮØ¯
land o
Ġcur ve
ĠIs ab
ĠØ´ÙĪØ± Ø´ÛĮ
Ø¯ÛĮÙħÛĮ ØªØ±ÛĮ
Ġking dom
ĠØªØ² Ø±ÛĮÙĤ
4 2
g ence
Ġ ×
Ø³ ÙĪÙħ
Ġm amm
ĠØ¢ Ø±Ùħ
ĠØ§Ø³Øª ØŃ
ĠÙģ ÙĪØ±Ø¯
ĠÙĦ ÙĤ
ĠÙĦ Ø§ÙĨÙĩ
ĠØ¨ÛĮ Ø§Ø¨Ø¯
ĠØ¨Ø§Ø² ÙĪ
ĠK n
Ú¯ÙģØª ÛĮ
ĠØ²ÙĨ Ø§Ø´
Ġabs ent
Ġperform ing
ĠÙĦÙĩ Ø³ØªØ§ÙĨÛĮ
Ù¾ÛĮÙħ Ø§ÛĮÛĮ
ĠØ¹Ø¯ Ø¯ÛĮ
Ġfeat ured
Ġmechan ics
ĠÙħÙĨØŃ ÙĨÛĮ
ĠÙħØ¹Ø¯ ÙĨÛĮ
ĠØºÛĮ Ø¨Øª
Ġwid ow
Ġproced ure
S u
c ulation
s ur
ÙĪ Ø®
Ġt urb
Ġd io
ĠØ® Ø¯
Ġhe nce
ĠØ¬ Ø±Ø§ØŃ
ur us
Ġst em
Ø¨Ø§ Ú©
ell ed
ĠÙħØ±Ø¯ ÙĨ
per haps
ĠO ver
ĠØ¨Ø§Ø²ÛĮ Ú¯Ø±Ø§ÙĨ
ĠÚ©Ø§Ùħ ÙĦÛĮ
ÙĨÙħ ÙĪÙĨÙĩ
ĠØ§Ø·ÙĦØ§ Ø¹ÛĮ
ĠÙħÙĪØ¶ Ø¹
ÙĪØ³Øª ÙĪÙĨ
Ø¢Ùħ Ø¯ÛĮ
Ġsun light
Ġlab our
ĠÙĬ Ø§
ĠØ±ÙĪØ§ÙĨ Ø´ÙĨØ§Ø³ÛĮ
ĠØªØ¶ Ø§Ø¯
ĠÙ¾Ø§ÛĮØ¯ Ø§Ø±ÛĮ
Ġcogn itive
p read
Øª Ø§ÛĮÛĮ
Ø´ Ø§ÛĮ
re ated
ĠÙĩ Ø§Ø±Øª
Ġl un
Ġg own
ĠÛĮÚ© ÙĨÙĪØ§Ø®Øª
am an
ĠÙĦ Ø§Ø±
ĠØ³Ø± ÙģÙĩ
ĠD mitri
Ġj e
ĠØ§Ùħ ÙĪØ§ÙĦ
ass an
Ġcr ash
ÙĪØ¨ÛĮ Øª
ĠÛ±Û¸Û ·Û
Ġstri king
ĠPalest inian
Ġshar ply
Char les
l av
z i
Ø± Ú©ÛĮ
ĠØ¨ ÙģØ±ÙħØ§ÛĮÛĮØ¯
ĠÙħ Ø²Ø¯
ĠØĮ "
it ched
ĠÙħÛĮ Ø¯Ø§ÙĨÙħ
Ø¬ ÙĦ
ĠÙĤ ÙĨØ¯
ÙĦØ§ Ø·
ĠØ¯Ø§Ø± Ø§
lo ok
ĠØªÙĨ Ø¨ÛĮÙĩ
Ø§Ø±Øª Ø²
Ġend eav
gr aph
Ġsince re
Ġexper ts
de f
pend ed
With in
ĠÛ±Û¹Û¸Û ´
ĠØ¢Ø¯ Ø§Ø¨
Ġgrat itude
ĠØ´ØªØ§ ÙģØª
A f
Ġt ip
it ual
Ġm ock
Ù¾ Ø²Ø´
Ġl in
ul pt
ĠT it
ard o
ĠF ront
Ġint imate
Ġag ony
ĠØ§ØŃ Ø²Ø§Ø¨
cl aimed
Ġ3 8
ĠÚ©Ø´ÙĪØ± ÙĩØ§ÛĮÛĮ
ĠØ´ÛĮ Ø¨
ĠØ±ÙĨÚ¯ ÛĮÙĨ
ĠØ¯Ø±ÛĮØ§ ÙģØªÙĩ
ĠÙģÙĩÙħ ÛĮØ¯ÙĨ
ĠÙĦØ±Ø² ÛĮØ¯
ĠÛ±Û¹Û´Û µ
Ġcoun sel
ĠØ³ÙĪØ¦ Ø¯ÛĮ
Ġagree able
ĠÙħØ·ÙĦ Ø¨ÛĮ
ĠÙħØ³ÛĮØŃ ÛĮØª
Ġhar vest
Ġcab in
Ġoccas ions
g on
Øª Ø¨
ĠØ³ Ø³Øª
ĠØ¬ Ø§Ø¨Ùĩ
ĠA my
ĠB ible
ĠÚ¯Ø± Ø§Ùħ
ge red
ĠØªØ± ØŃÙħ
ĠÛĮØ§Ø¯ Ø¨ÙĪØ¯
Ġem ail
ĠØ¨Ø¨ÛĮÙĨ ÛĮ
Ġass igned
ĠØ³Øª Ø§Ø¯
ĠÙ¾ÙĪØ´ ÛĮØ¯ÙĨ
Ġsix th
Ġrad ical
ĠÙ¾ÙĪ Ø³ØªÛĮ
ĠÙĨØ§Ø® Ø§ÙĦ
Ġpan ic
Ġther apy
Ġbeat en
ĠØ§ÙħØª ÙĨØ§Ø¹
Ġexecut ive
ĠÙĨÙĪØ´ ÛĮØ¯ÙĨ
ĠØ§Ø³ØªÙĪØ¯ÛĮ ÙĪ
Ġque er
Ġdisag ree
onom ous
6 8
h im
ÙĪ ÙģØ±
ÙĪ Ú¯ÙĪ
ĠØ´ ÛĮØ§Ø·ÛĮÙĨ
Ø¬ ÙĪØ§ÙĨÛĮ
ĠÙ¾ Ø´Ùĩ
ĠÙģ ÙĪÙĨ
ĠA P
Ø´Ø¯ ÛĮØ¯
Ġj u
ĠØ¨Ø¯ ÙĨÙĩ
Ø¯Ø§ÙĨ Ø§ÙĨ
ĠÙħØ¬ Ø§ÙĦ
ĠThe atre
ĠØ¯ÙĪØ³Øª Ùħ
Ø®ÙĪØ§ÙĨØ¯ ÙĨØ¯
Ġprep aring
Ġlabor atory
Ġcelebr ated
Ed ward
Ġgather ing
ĠØ´ÙĩØ±Ø¯ Ø§Ø±ÛĮ
B el
ĠÙħ ÙĪØ¯
or ious
ĠÙģ Ø§ÙĦ
ĠÚ©ÙĨ ØªØ³
Ġag encies
ĠÛ±Û¹Û ²Û°
ild a
ÙħØ¯ ÙĦ
ĠUn ivers
ĠÚ©ÙĪÚĨ ÙĪÙĦ
ĠAr m
ĠÙ¾Ø§ ÙĪÙĦÙĪ
ĠØªØ£ Ø³Ùģ
ĠÙĦÛĮ Ø²
Ø¯Ø§Ø´Øª Ùħ
ides pread
ĠØ³Ø§ÙĨ Ú©ÙĪ
Ġfat al
Ġattract ive
ĠSystem s
Ġstro ke
ĠØ¨Ø§Ø²Ú¯ Ø´ØªÙĩ
Up on
Bet ween
Ø¢ÙĦÛĮ ÙĪØ´Ø§
¯ į
Ð ´
ĠÙħÛĮ ØªÙĪØ§ÙĨÛĮÙħ
Ġp up
ent er
Øµ Ø§Ø±ÛĮ
Ø³ÛĮ Ø±ÛĮ
ĠB os
ab il
Ġor ange
Ġal ter
Ġout come
ĠÙĨÛĮ Ø³
Ġsc andal
ØªÙĪÙĨ ÛĮØ¯
Ġblo ody
ĠPro du
pr ise
Ġoper ated
Ġ196 4
ĠÙħØ² Ø®
Ġtest ed
200 6
ĠTe hran
Ġenc ry
Ġreact ions
ĠAsse mbly
F urther
z o
à ´
ĠÙħ Ø¸
ĠØ±Ø§ Ø´
ĠÚ¯ Ø³
ÙĪÙĨ ÙĪ
ld om
ĠØ³Ø± ÙĨÚ¯
Ġso vere
ÙĪÙħ Ø¹Ùĩ
ĠØ§Ùħ ÙĦØ§Ú©
ass ador
ĠÙħØ³ Ø¯ÙĪØ¯
ĠØ´ÙĨ ÙĦ
Ġdec or
ĠØ¯Ùħ Ø´
ĠÚ©Ø± Ø§ÛĮÙĩ
ĠÙĪØ¨ Ú¯Ø§Ùĩ
ĠÙħØ§ÙĩÛĮ ÚĨÙĩ
ĠSecret ary
ĠÙĦÚ¯ Ø¯
ĠÙħÙĪØ¨ Ø§ÛĮÙĦ
e ur
Ø§ÛĮ ÙĪØ§ÙĨ
ĠÙĪ Ø³Øª
ĠÙ¾ Ø±Ùģ
ot ype
ĠÚĨ Ø§Ú©
ĠÙħØ¹ Ø·
ĠK urd
ÙĪØª ÙĨ
Ø¨Ø±Ø¯ Ø§Ø±
ĠØ±ÛĮ ÙĪ
Ġdec ent
ĠØ§Ø´Øª ØºØ§ÙĦ
Ġopin ions
Ġexpress ions
Ġencour aged
bre ak
ĠJust ice
Ġcandid ate
ĠCharl ie
Ġhoriz on
nat ural
ĠÙĤØ§Ø± ÚĨ
ĠØ³Ø¦ ÙĪØ§ÙĦ
Øª Ø¬
Ø§ÙĨ Ú¯ÛĮ
Ġb orders
Ù¾ Ø±Ø³Ùħ
Ú¯Ø± Ø§ÛĮØ§ÙĨ
Ġse ar
op les
ĠØ§Ø³ Ùģ
ĠØ§Ø³ Ú©ÙĦ
ĠÙ¾ÛĮØ´ Ø®Ø¯ÙħØª
Ġam id
ĠSt ory
ath an
Ġrec ording
ĠØ´Ùħ Ø±Ø¯Ùĩ
ob s
ĠØ¸ ÙĦ
ÙĨÙĪ Ø´ØªÙĩ
ĠInd epend
Ġorgan isms
ĠÙģÛĮ Ø³
ĠÙħØªÙĨ ÙĪØ¹
Ġdiv ine
Ġtrou bles
ĠÙĤÛĮÙħ ØªÛĮ
Ġquar ters
ĠØ´Ùģ ÙĤØª
Ġindic ate
Ġpor ch
ĠØ§ÙĦÚ¯ÙĪ ÙĩØ§ÛĮ
ĠÙħØ¹ÛĮ Ø§Ø±
ĠÙĦÛĮÙĨÙĪ Ú©Ø³
% .
at on
Ġc hess
ĠØ¨Ùĩ Ø±
ĠØ³ ÙħÛĮ
ÚĨ Ø§ÙĦÙĩ
Ġsu p
ĠH ere
ific ations
Ġple as
ĠÙħØªÙĨ Ø§Ø³Ø¨
Ġamount s
Ġden ied
ĠSer b
Ġthorough ly
Ġbew ild
B o
L ife
ÛĮ ÙĪØ±Ú¯ÛĮØ³
ĠÙħ Ú¯Ùĩ
Ġm ast
ĠÙ¾ ØªÛĮ
st ill
ĠÚ©Ø§Ø± ÙĪÙĦÛĮÙĨ
ĠØº ÙĦÛĮ
Ġbu ying
Ġhead quarters
ĠØ¨ÙĨ Ø¸Ø±
Ġcontin uous
ĠØ§Ø¹Øª Ø¨Ø§Ø±ÛĮ
ĠSo ft
ĠSw iss
Ġagric ulture
ĠÚĨØ±ÚĨ ÛĮÙĦ
u v
Ġs ang
ĠØ¯Ø± ÙĩØ§ÛĮ
ĠØ¢ ØªÛĮ
ĠØ¢ Ú¯ÙĩÛĮ
Ø±ÛĮ ÙģÛĮ
ÙĦØ§ Ø´
ĠD elt
Ø§Ú© Ø§Ø±ÛĮ
ĠØ¯ÛĮØ¯ Ú¯Ø§ÙĨ
Ġrep air
Ġdisc rim
erv ation
Ġadv is
Ø¢Ùħ Ø±ÛĮÚ©
Ġlow est
ĠÙĪÛĮØ± Ø¬ÛĮÙĨ
ĠÙĨØ§Øª ÙĪØ§ÙĨÛĮ
ĠÚĨÙĨÚ¯ Ø§ÙĦ
ĠÙħØ¬Ùĩ Ø²
Ġto w
Ø¹ ÙħÙĦ
Ġin k
Ġhe ating
ĠØ¬ Ø§Ùĩ
ĠÚĨ Ø³
ir k
ĠL ow
Ø§ÙĨØ¯ Ø§Ø±Ø§ÙĨ
Ġfe ather
Ġour s
ĠÚĨÙĨØ¯ ÛĮ
ov o
Ø¨ÙĦ ÙĨØ¯
ph al
Ġgener ous
ĠÙħØ´Ú©ÙĦ Ø§ØªÛĮ
ĠÚĺÙĨ ÙĪÙħ
ĠØ¢Ø³ÛĮ Ø§ÛĮ
Ġ196 5
Ġtop ic
ĠEd mund
Ġsecret ary
ĠØ³Ø¹ ÙĪØ¯ÛĮ
ĠØ¯ÙħØ§ Øº
ĠÙĨØ§Ø³ Ø§
Ġpron ounced
Ø§ÙĦØªØŃ ØµÛĮÙĦ
b ury
ĠØ¯ ÙĨØ¯Ùĩ
Ù¾ Ø±ÛĮ
et ing
ro ve
ĠS olar
ĠÙĦ Ùģ
ĠB an
ĠR ou
ĠN et
ĠÙĨÙĪ ÛĮÙĨ
Ġar ray
ree k
cl osed
ĠØ¨ÙĦ ÚĺÛĮÚ©
Ġpo em
Ġdon t
Ú¯Ø±Ø¯ ÛĮ
Ġser ves
ĠØ²ÙĨ Ø§ÙĨÛĮ
ĠÙħØº Ø²Ø´
ĠÙĪØ§ Ú¯ÙĨ
Ġest imate
ĠAd minist
Ġ193 9
Ġport al
ĠØ´Ø§Ø¯ ÙħØ§ÙĨ
ÙħØ§Ø¯Ø± Ø´
Ġterror ist
Ø²Ø§ÛĮ ÙĨØ¯Ùĩ
ĠÙħØ²Ø§ØŃ Ùħ
Ġtremend ous
, ,
L ord
ÙĨ Ú©ØªÙĩ
Ùħ Ø±Ú¯
in th
Ġin tern
ĠÙģ ÙĪ
ĠØ¢ÙĨ Ø§Øª
ÙĬ Ø§Ø±
ĠØ§ØŃ Ø¶Ø§Ø±
Ġsp rang
Ġind ifferent
ĠAr ag
ank s
ĠØ³Ø§Ø² ÙĨØ¯
Ġinter ior
ĠØ¨Ø¹ ÛĮØ¯
Ġcle ared
Ġext rem
ĠÙĩØ´Øª Ùħ
Ġneighb our
ĠØ§Ø®ØªØµ Ø§Ø±
Ġparticip ate
ĠØªØ¬Ø±Ø¨ÛĮ Ø§Øª
Ġconver ted
w ig
ĠÚ© ÙĪØ´ÛĮØ¯
ĠØ± ÙĤØª
on i
Ù¾ ÙĪØ±Øª
Ġp oured
ĠØ³ Ø§ÙĨØª
Ġn an
ot te
ĠØ®ÙĪØ¯ ÛĮ
Ġv ib
ĠJ ud
Ġgen uine
Ġmod ified
ĠÙħØº Ø±ÙĪØ±
Ġext ensive
ĠØ¢Ø´ ÙĪØ¨
ĠØ§Ø±Ø² Ø´ÙħÙĨØ¯
Ġequ ations
ĠÙĪØ³ Ø·ÛĮ
ĠØ®ÙĪØ± Ø§Ú©ÛĮ
Ġele ph
Ø¯Ø³Øª Ø´
Ġhop eless
Ġfund ing
rs ula
Ġfro zen
ĠDar cy
Ġsustain able
ĠØ¨Ø§Ø±Ø¯ Ø§Ø±ÛĮ
ĠÙħÚ©Ø± Ø±
Ret rieved
C ons
D or
F ive
b ul
} ,
Ġc her
Ġb ars
Ù¾ Ø§Ø¯
Ġ' .
for mer
Ġpart ial
com es
Ġsk ull
ĠØ¨Ø§ÙĨ Ú©ÛĮ
Ġri g
Ġview ed
Ġliter ary
Ġemer gency
ĠØ³Ø¹ Ø§Ø¯
ĠSum mer
Ġmurd ered
A c
ĠÙħ Ø§Ø²
Ġc ub
ĠØ¢ Ø±Ùĩ
ic ate
ĠÙģ Ø²Ø§ÛĮÙĨØ¯Ùĩ
ĠÙĦ Ø§Ø²
ill es
ĠB udd
ĠØªÙĪ Ø§ÙĦØª
Ø´Ùħ Ø±Ø¯
ĠÙĨØ´ Ø±ÛĮÙĩ
ans wered
Ġreg iment
ĠØ§Ø¨ Ø²Ø§Ø±ÛĮ
Ġexpl icit
ĠØ¨Ø§ÙĪØ± ÙĨ
ĠØ¨Ø±Ø¯Ø§Ø´Øª ÙĨ
ĠCon ference
Her mione
Ġcoll apse
Ã¡ n
Ġsav age
Ġincl ined
Ġcod ice
ĠÙħÙħ ÙĦÙĪ
ĠØºØ§ÙģÙĦ Ú¯ÛĮØ±
h ist
Ø¯ Ø³ØªÙĩ
ĠÙħ Ø§Ø¨
ÙĦ Ø§Ø¨Ø¯
Ø§Ùĩ ÛĮØ±
ĠØ¢ÙĨ Ø³Øª
ĠS up
Ú¯Ø± Ø§ÛĮ
Ø° Ú©Ø±
us cript
ĠE le
Ġch art
ĠIs ot
Ġdr ama
alth ough
ĠÙĪÙĦ Ø²
Ġ194 1
Ġsens ation
Ġà ¯į
Ġsymb ols
ĠÙĤÛĮ Ø§Ùħ
Ġpra ise
Ġmic ros
Ġnegot i
Ġcompre hens
Ġholid ay
v o
z es
Ø§ Ù¾ÛĮØ´
Ú¯ Ø§ÙĦÛĮ
ĠR ay
iv a
ĠÙħØ¬ Ø°
ĠØ¬ÙĨ Ø§ØŃ
Ø¨Ø¹Ø¯ Ø§
Ġass ault
Ġland l
Ġsupport s
ĠÚ©ÙĦÙħ Ø§ØªÛĮ
ĠMan agement
Ġrespect ively
Ġmarket ing
Ġut il
ĠØ®Ø¯Ø§ÛĮ Ø§
Ġmix ture
ĠÙ¾ÙĦØ§ Ø³ØªÛĮÚ©ÛĮ
Ù¾ÛĮÚĨ ÛĮØ¯
ĠBro oke
Ġterrif ied
Ġtob acco
Ġt ens
Ġd amp
ad el
ĠI N
ag an
ĠØ· Ø¹Ùħ
ĠØ¨ÛĮÙĨ ÛĮÙħ
ĠÙĨÙģØ± Ùĩ
ĠÚ©ÙĪÚĨÚ© Ø´
Ø§ÙģØª Ø§Ø¯Ùĩ
Ġsitu ated
Ġdecl ine
ĠÙĩØ§Ø±ÙĪ Ø§Ø±Ø¯
ĠÚ©ÙħØ±Ø¨ ÙĨØ¯
0 3
U ntil
m u
Ġt ons
in us
ĠØ¯ Ø§Ø´
ĠØ± ÙĪØ§ÙĨÙĩ
Ġn ic
ĠG i
Ú©ÛĮ ÙĪ
ĠØ±ÙĪÛĮ Ùĩ
Ú©Ø³ ÙĦ
Ġdist inction
Ġcent ers
ann els
ĠØ§ÙĨØ¯Ø§Ø®Øª Ùħ
Ġrele vant
Ġang rily
ĠHar riet
ĠÙģØ±Ø§ÛĮÙĨØ¯ ÙĩØ§ÛĮ
Ġsett lement
Ġdefe ated
Ġpsych ology
Ġproceed ed
Ġtheore m
Ġadmir ation
ĠØ¨Ø²Ø±Ú¯Ø³Ø§ÙĦ Ø§ÙĨ
ĠÙĨØ§Ø¨Ø± Ø§Ø¨Ø±ÛĮ
Ġalcoh ol
v ironment
Ùħ Ø§Ùħ
Ú© ÙĦØ§
re a
Ġw idespread
ĠÙĨ Ú©
ed ge
ĠÙħÛĮ Ø¯
Ġe rect
ĠØŃ Ø±ÛĮÙģ
ĠA C
ĠA le
ill o
op es
ĠB ad
Ø§ÙĨÛĮ Ø§ÙĨ
Ġby e
Ġsu itable
ĠH om
ÙĪØ² ÙĨ
ĠØ¨Ø¯ ÙĨÛĮ
ile y
ĠÚĨÛĮØ²ÛĮ Ùĩ
orn ey
ĠØ¨Ø³Øª ÙĨ
Ġ196 2
Ġdeal ing
Ġeduc ated
Ġautom atically
ocol ate
Ġisol ated
ĠØ²ÛĮØ±Ø²ÙħÛĮÙĨ ÛĮ
Ã£ o
ĠØ¯ ÙĨØ¯
Ø² Ø¯ÙĩÙħ
Ġin ch
Ġre jo
ol ph
ĠB ureau
Ú¯ÛĮ ÙĦ
Ġsh ri
Ġli ver
ĠÙħØ¹ ÙĦÙĤ
ĠÙĨØ´ Ø±
ĠØ§ØŃØ³Ø§Ø³ Ø§ØªÛĮ
ĠÙħØªØŃ ÛĮØ±
ĠØ²ÙħØ§ÙĨÛĮ Ú©Ùĩ
ĠØ³Ùģ Ø±ÛĮ
Ø¯ÙĪ ÛĮÙĨ
ĠÛ±Û¸Û ¶Û
ĠÙĪØ§ØŃØ¯ ÙĩØ§ÛĮ
Ġfac ilities
ĠÙ¾Ø±Ø³Øª Ø§Ø±
ĠÙ¾Ø±Ø³Øª Ø§Ø±ÛĮ
Ġhast ily
ĠRec ords
ĠØ¹Ø¸ ÙħØª
ĠFrid ay
ĠÛĮÙĪØªÛĮ ÙĪØ¨
0 4
S upp
he ster
ĠÙĪ Ø±Ø¯
Ø¬ Ø±ÛĮÙĩ
ri ages
ĠØ®ÙĪ Ø§Øµ
Ġsu ffic
Ġch ap
ell er
Ġcomp ounds
ĠIn s
Ġacc used
Ġacc ustomed
ĠØ¬ÙĪ Ø§ÛĮØ²
orm al
ĠÙģÛĮ ØµÙĦ
Ġ194 8
Ġoccup ation
ÙĨØ® Ø³Øª
ĠÚ¯ÛĮØª Ø§Ø±
Ġshock ed
ĠÙħØ³ÛĮØŃÛĮ Ø§ÙĨ
Ġhes itated
Ġaccompl ished
Ġresc ue
h ttp
Ã ¥
Ø³ ÙĪØ§Ø±
ou ch
Ġc ries
Ġc attle
Ø® Ø±Ùħ
ÙĪØ± Ø³
Ġg ates
ĠÙĤ Ø§Ø·Ø¹
Ø±ÙĪ Ú©
Ø¢ Ø¯
ĠP u
ĠÙģØ± Ø´
ĠØ¯Ø³Øª Ø§ÙĪØ±Ø¯
Ø´ÙĨ Ø¬
ĠØ·Ø±Ùģ Ø¯Ø§Ø±Ø§ÙĨ
ĠÙģÛĮÙĦ Ø¯
Ġâ ģ
Ġappro aches
Ġdim ensions
ÙĤØ¨ ÙĦØ§
Ø·Ø¨ÛĮ Ø¹ÛĮ
ĠÙĪÙģ Ø§Ø¯Ø§Ø±
ĠÙĨØµÛĮ Ø¨
ĠHosp ital
Øª Ø§ÛĮ
Ġt ough
Ø² ÙĪÙĨ
ÙĪØ± Ø§ÙĨØ³Ú©ÛĮ
ĠÛĮÚ© Ø³Ø±Ùĩ
Ø®ÙĪ Ø´Ø¨
ĠÙħØ³ Ø§ÙĪÛĮ
ĠØ¨Ø§ÙĦ Ø´
Ġco vers
Ġind ul
Ġrel uct
ÙĪØ§Ø± Ø¶
ĠÙħØ¹Ùħ Ø§Ø±
Ġconf ig
ĠGr ace
Ġfur ious
200 3
ĠØ¶Ø± Ø±
ĠØ¢ÙģØª Ø§Ø¨ÛĮ
ĠÙħØ§Øª Ø±ÛĮØ³
ĠBo ard
Ġclin ical
ÙħØ³Ø¦ ÙĦÙĩ
L L
M M
f aces
Ø§ ÙĪØ±ÛĮ
ĠØ´ Ø§ÙĦ
Ġp ound
Ø® Ø§Ø¨
ĠÛĮ Ú¯Ø§ÙĨÙĩ
ÙĩØ§ Ø³
ĠÙĦ ÛĮØ¯ÛĮ
ĠÚ©ÙĦ Ø§ÙĩØ´
iss ance
Ġap olog
Ġreason able
ĠØªÙĦÙģ ÙĨÛĮ
Ġcorn ers
ĠØºØ±ÛĮ Ø²Ùĩ
Ġpassion ate
ĠÙĨØ¯Ùĩ Ø¯
ĠWil son
ĠAtl antic
ĠHot el
ĠArgent ina
j ud
ÙĤ Ø§ÙĦ
it i
Ġh arb
ĠØ¯Ø± Ø¯ÛĮ
ar ity
ĠÙĩ Ø§ÙĦÛĮ
ÙĪØ± Ø§ÙĨÙĩ
ĠÙĤ Ø§Ùĩ
Ġ( ;
Ø§Ø² Ø¯ÙĩÙħ
Ø§Ø³Øª Ø§Ø²ÛĮ
Ġlo yal
ÙħÛĮÙĨ ÛĮ
ĠÛ±Û¹Û ´Û°
ĠCh ief
ĠØ§Ø· ÙĦØ³
ĠÚĺ Ø±Ùģ
Ġsc attered
ĠØªØ¹ Ø¸ÛĮÙħ
ne ver
ĠAl f
ĠÙ¾ÛĮØ´ÙĨÙĩ Ø§Ø¯ÛĮ
ĠØ³Ø±ÛĮØ¹ ØªØ±
Ġredu cing
Ġphilos opher
ĠÚ©Ø§ØªØ±ÛĮÙĨ Ø§
Ġgall ery
ĠDar win
Ġembr ace
high light
G O
N U
i op
ĠØ¨ ØµØ±ÛĮ
Ø§Ø± Ø¬
ĠØ³ Ø¨ÛĮÙĦ
le te
ul ed
ĠP ict
th rough
Ġsh ares
ĠØ¯Ø³Øª Ø§ÙĨ
ĠØº Ø±Ø´
ĠÙħØ´ Ú©ÛĮ
per m
Ġcl osing
ÙĨØ¬ Ø§Ø±
ĠØ¢ÙĦ Ú©Ø³Ø§ÙĨØ¯Ø±
Ġaw a
Ġglo om
ĠÙħÙĪÙĤØ¹ÛĮ ØªÛĮ
ĠMount ain
Ø¯ÙĪÙħ ÛĮÙĨ
Ġpil ot
Ġlan tern
ĠHit ler
r ained
w estern
ĠÙĨ ØªÙĪØ§ÙĨØ¯
Ġf ert
Ġm ing
ÙĪÙĨ ÛĮØ§
ut her
if ference
ĠØµ ÙĪÙħØ¹Ùĩ
ÙĦØ§ Ø¦Ùĩ
ĠD un
ĠW here
Ġpass es
Ġins urance
ĠRe al
ÙħØ±Ø¯ Ø§ÙĨ
Ġpat ience
iron ments
ĠØ§Ø´Ø®Ø§Øµ ÛĮ
Ġpoll ution
Ġsubsequ ently
Ġhospit als
ĠÙĨØ§Ø§Ùħ ÛĮØ¯ÛĮ
d id
e enth
in ates
Ø´ ÛĮØ¯Ùĩ
ĠØ± ÙĤÛĮØ¨
it udes
Ġb ay
ĠI ce
ĠÙĦ Ø§Ùħ
um bling
ĠD antes
ĠH ig
Ġj er
Ġ3 4
Ġent reprene
Ġpass engers
Ġbelie ves
ĠMar x
Ġann ounce
Ġmer c
Ġcoll ar
Ġfund s
Ġsignific ance
Ġclim b
Ú©Ø¨ ÙĪØª
Ġcalcul ated
Ġembarrass ed
Ġsyntax highlight
B er
P M
d i
r and
µ Û²
Ùħ Ø±Ø¨
ĠØ¨ ØªÙĨ
Ø² Ø¨ÛĮ
ĠÙĨ Ú¯Ø±ÙģØª
Ġd raft
ĠØ¨Ø± ÙĨØ¬
ĠØ¨Ø± Ø§ÙģØ±ÙĪ
ĠÙĤ Ø¨Ø§ÙĦ
ĠØ§ÙĪ Ú©Ø±Ø§ÛĮÙĨ
Ġse ldom
Øº Ø¯
ĠH art
Ú©Ø§Ø± ÙĩØ§ÛĮ
Ġper ception
Ġgood ness
Ġlight ly
Ġass ign
ex cept
Ġchar ges
ĠØªØ±Ø³ ÛĮÙħ
ĠØªØ® ÙĦÛĮÙĩ
Ø´ÙĪ ÙĩØ±
ĠMed ical
ĠØ§ÛĮØ¯ Ø²
ĠRos amond
Ġtransform ed
Ġfold ed
Ġtender ness
ograp her
ĠÙĦÛĮØ¨Ø± Ø§ÙĦ
ĠIndones ia
Ø¨Ø±Ø® ÙĦØ§Ùģ
D ervish
Ø¯ ÙĤÛĮ
ĠÙĨ Ú©Ø´ÛĮØ¯
ĠÙ¾ Øª
ĠS cient
ag s
ĠH ollywood
ack ing
ĠØ®Ø· Ø§ÛĮ
ØªÙĪÙĨ Ùħ
ĠÚ¯ÛĮ Ø³
Ġfoot st
Ġeye br
Ġrepresent ing
ĠÙħÛĮÚ© Ø±ÙĪØ³
Ġtravel ing
Ġtrem bled
ĠØ±Ø¯ÛĮ Ø§Ø¨ÛĮ
Ġimprove ment
Ġcontem pl
ĠÚ¯ÙĪØ¯ Ø§ÙĦ
ĠØ¨Ø§Ø²ÙĨØ´ Ø³ØªÙĩ
Ġlect ure
Ø®ÙĪØ´Ø¨ Ø®Øª
x ic
er as
ĠÙ¾ ÚĨ
Ġre verse
Ġwe ird
ĠC e
Ġv ice
Ġtw isted
ĠV enezuel
ĠØ³ÙĪ Ø¦ÛĮ
ĠØ¨Ø§Ø²ÛĮ Ø§Ø¨ÛĮ
Ġ4 8
ĠÛĮØ§ÙģØª Ùħ
ĠØ®ÙĪØ§Ø³Øª ÙĨØ¯
ĠCon vention
Ġsum mon
ĠPol ice
ĠØ¹ÙħÛĮ ÙĤØ§
Ġwealth y
Ġble w
Ġsubst ance
ĠØ´ÙĩØ±Ø¯ Ø§Ø±
b ably
ĠÙħ ÙĤØª
Ø§ÛĮ Ø´ÛĮ
Ġc iv
ĠÙħÛĮ Ø´ÙĨ
ac ent
Ġne uro
ĠÙģØ± Ø§Ø±ÛĮ
ĠN a
ĠO S
ÙħÙĦ ÙĦ
ĠÙĤØ¯Ø± ØªÛĮ
Ġsol ved
ĠØªØ±Ú©ÛĮ Ø¨Ø§Øª
Ø§Øº ÙĦ
Ġ196 6
200 7
Ġsurv ival
ĠØ®ÙĦ Ø¨Ø§ÙĨ
Ġru ined
Ġintegr ated
ĠØ³ÙĦÛĮ ÙĤÙĩ
ĠÙĨÛĮØ§ ÙģØªÙĩ
Ġswift ly
ĠØ§Ø³ØªØŃ Ú©Ø§Ùħ
H A
d imensional
j i
n ut
Øª Ø£
ĠØ± Ø¨Ø¹
Ġr ows
ĠØ§Ø³ ÙĨÛĮÙ¾
ĠØ¯Ø§Ø¯ Ø³ØªØ§ÙĨ
ĠO l
Ġcomp are
ress ing
ÙħÙĪ Ø§Ø²ÙĦ
ĠÙģÙĦ Ø§ÙĨ
ĠÚ¯Ø±Ùħ Ø§ÛĮÛĮ
Ġcry pt
Ġdemocr atic
Ġbelief s
Ġcritic ism
p her
s is
w all
Ú© Ø¬Ø§
ĠØª ÙĦÙĩ
ĠØ¢ Ø´ØªÛĮ
Ø±ÛĮ Ø§ÛĮÛĮ
ĠA ud
Ø¢ Ø±Øª
ÙĨÚ¯ Ø±Ø¯
ĠÙħØ§ Ø´ÛĮÙĨÛĮ
ĠT y
ĠÙħØŃ Ø§ÙĦ
Ġsc en
ĠØ³ÙĪ Ù¾Ø±
ne ath
Ġimp ressed
Ġ5 5
Ø¨Ø±ÛĮ Ø¬
ĠÙĨÙĪØ´Øª Ùħ
ĠÙħØ¹ÙĨ Ø§ÛĮÛĮ
ĠHer itage
ĠÚĨØ± Ø¨ÛĮ
Ġbrief ly
Ġobserv ations
ĠÙĨØ¹ Ø±Ùĩ
ĠØ¢Ø±Ú© Ø§Ø¯ÛĮ
ĠFoot ball
C am
b et
Ùĩ Ø§ÙĨ
ĠÙĩ ÙĦÛĮ
ĠØ® Ø·ÙĪØ±
Ġcon vey
ĠL ie
Ġtr ap
Ġday light
ĠØ§Ø¨ ÙĨ
Ġwalk s
Ġdesign er
Ġcor ruption
sh ire
ĠØªÙĦÙģ Ø¸
ĠÙĦÙĩ Ø¬Ùĩ
ĠØ¨Ø§Øº ÚĨÙĩ
ĠØ§ÙĨØ¬ ÛĮÙĦ
ĠÙħÙĤØ§ÙĪ Ùħ
Ġregular ly
ĠÙĦØ² ÙĪÙħØ§
Ġcas ual
H T
m i
ĠÚ© Ø§Ø¯
Ġw icked
ĠØ± ÙĩØ§ÛĮÛĮ
Ù¾ Ø±Ø³Ø¯
ĠG ame
out heast
ĠÙĨÙħ Ø§ÛĮÛĮ
ĠØ®ÛĮ Ø±ÛĮÙĩ
uss ian
Ġsecond ary
ane ous
ĠÛ±Û¹Û¸Û µ
ĠØ¨Ø§Ùħ Ø¯Ø§Ø¯
Ġsynt hesis
C he
m od
r ates
Ġa wards
Ġm asters
ĠÙĩ ÛĮØ±
ÙĪØ§ÙĨ Ø³ÛĮÙĪÙĨ
ĠÙĦ ÙĪØ³
Ġnot able
ĠÚ©Ø§Ø± Ø¨Ø±ÛĮ
Ø§ÙĨØ¯ Ú©ÛĮ
ĠÙħØ´ Ú©ÙĪÚ©
ĠØ±Ø³ Ø§ÙĨÛĮ
ĠÙĩÛĮÚĨ ÙĪÙĤØª
ĠØ¨Ø§Ø± Ø§ÙĨÛĮ
Ġco oking
ĠØ¬Ùħ Ø§ÙĩÛĮØ±
ĠÙĨØ§ Ú¯ÙĪ
Ġsc ulpt
ĠØªØ¹ Ø¨ÛĮØ±
ØºÛĮ Ø¨
Ġcur rency
ĠÚ©Ø§ÙĨ Ø§Ø¯
Ġsepar ation
Ø³ÛĮÙĦ ÙĪØ§ÙĨ
ĠÙĨÛĮØ±ÙĪ Ú¯Ø§Ùĩ
Ġpersu ade
Ġgalax y
Ġabrupt ly
ĠÙħ Ø±ÛĮÙħ
Ø³ Ø§ÙĦÛĮ
Ġl es
ac on
ĠÙħÙĨ Ø¬
ĠC A
ĠÙĦ Ø±
ĠB aker
ĠØªØ± Ø§ÙĨ
Ġfl av
ĠØ§Ø¹ ÙĦÛĮ
ĠÛĮØ§Ø¯ Øª
ĠÙħØ§Ø¯Ø± Ø§ÙĨ
ĠAn ne
ĠØ¨Ù¾ Ø±Ø³ÛĮØ¯
ĠÙĨÛĮÚ© ÙĪ
ĠÙģÛĮÙĦÛĮÙ¾ ÛĮÙĨ
ĠGree ce
ĠÙ¾ÙĦØ§ Ø³ØªÛĮÚ©
ĠÙģÙĦØ³Ø· ÛĮÙĨÛĮ
phe w
ĠØ¨Ø§Ø²Ø§Ø±ÛĮ Ø§Ø¨ÛĮ
ĠÙħÙĪØ§ÙĨ Ø¹
ĠÙ¾Ø§ÙĪÙĦÙĪ ÙĪÛĮÚĨ
G l
M P
O W
âĢĮ ...
Ġw ishing
ĠÙĪ Ú¯Ø±
ĠØ¨Ø± Ú¯Ø±ÙģØªÙĩ
Ġne phew
ĠØ§ÙĦ ÙħÙĦÙĦÛĮ
ĠØ¨Ø§ÙĦ ÛĮÙĨÛĮ
Ġgr ows
form ula
ĠÙĨØ³ Ø¨
Ġcr imes
ĠØ¸ ÙĦÙħ
ĠØ¨ÙĢ Ø±
ĠTr ade
ĠØ§Ø« Ø§Ø«
ĠØ¨Ø¯Ø§ÙĨ ÛĮÙħ
Ġmagn ific
Ġinteract ions
Ġrespond ed
ĠÚ¯ÙĨØ¯ Ùħ
ĠØŃÙħØ§ ÙĤØª
Ġsadd le
u it
ÙĨ Ø¨Ø§ÛĮØ¯
Ø¨ ÙĨÛĮ
ĠÙĩ ÙĪØ±Ùħ
Ġin ward
ĠØ² Ø±Ùĩ
ri or
are r
Ġen able
Ġcount ess
Ġacc um
ĠØ¬Ø§Ùħ Ø¯
Ġve x
Ġobject ive
Ġcult iv
ĠPe ggotty
ĠNat ural
Ġphysic ian
Ġshel ter
o ir
Ú© ØªÛĮ
ĠØ¨ Ø¨Ø®Ø´ÛĮØ¯
ÛĮÙĨ ÛĮØ§
ĠØª Ø¨Ø§Ø±
Ġg am
ĠÙĤ ÙĪØ·ÛĮ
ĠS nape
ĠB road
Ġsh ops
Ø¹ÛĮ Ø§ÙĨ
ber ry
ĠÙ¾ÛĮØ´ Ø±ÙĪÛĮ
ĠO t
Ġdis gr
ĠÚ©ÙĦ ÙĨØ¯
ĠØ²ÛĮ Ø§Ø¯Ùĩ
Ġfl ies
Ġbu nd
ĠÚĨÙĩØ§Ø± Ø¯Ùĩ
Ġtem pt
Ġtrou s
ØªØŃ ÙĤÛĮ
Ġden y
ĠEngine ering
ĠØªØŃÙĤ ÙĤ
l ic
Ġt ie
ĠÙħ Ø£
Ø³ Ø§ÛĮÛĮ
ĠÙħÛĮ Ø±Ùħ
Ġp ile
ĠØ¬ ÛĮÙĨÛĮ
ĠØ² Ø±
ra h
ĠØ§Ùħ Ø§Ùħ
fe re
ĠØ±Ø³ ÙħØ§
for th
ĠØ¨Ø§Ø± ÙĪÙĨ
ĠØªØŃ ØµÛĮÙĦÛĮ
ØªÙħ ÙĨØ¯ÛĮ
Ġmat hematic
ĠÙħØ³Øª Ø¹Ùħ
Ġput s
Ġins piration
Ġfr ust
ĠÙħØ§Ø± Ø´
Ùĥ Ø±
ĠØªØµÙħÛĮÙħ Ø§Øª
ĠÙ¾ÙĪØ´ ÛĮØ¯
ĠÙħØ² Ø§ÛĮØ§ÛĮ
Ġcontrol s
Ġtravel ed
ĠDen mark
Ġaston ishment
Ġignor ance
ĠØ¯ Ø§ÙĦÛĮ
ĠØª Ø§Ø±Ø§
Ġm aps
es pecially
ĠØ¨Ø§ Øª
Ġe h
ĠØŃ ÙĪÙĦ
am is
ĠB ing
ĠØªÙĪ Ø³Øª
ĠT s
ĠF le
ĠE qu
ÙĪØ² ÛĮØ¯
ĠK ent
ip h
ĠÙĨÛĮ Ø¬Ø±ÛĮÙĩ
ĠØ§ÙĨØ¬Ø§Ùħ ÛĮØ¯
Ġtrans formation
ĠØ§ÙĨØªØ®Ø§Ø¨ Ø§ØªÛĮ
Ġvis its
ĠÙģØ±ÙħØ§ÙĨ Ø¯Ø§Ø±
Ġswe pt
ĠÛ±Û¹Û·Û ³
ĠSte ven
ĠCP U
ĠØªØ·Ø¨ÛĮ ÙĤ
ĠØ¨Ø§ÙĪØ±ÙĨ Ú©Ø±Ø¯ÙĨÛĮ
u ity
ĠØª Ø³Ùĩ
al is
ÙĪÛĮ Ø§ÙĨ
et ary
Ø§Ø¨ ÙĦØ§
ĠÚ©ÙĨ ÛĮØ§
Ġpro hib
Ġunder ground
ĠØ¯ÛĮØ¯ ÙĨØ´
ors hip
Ú¯ÛĮØ± ÛĮØ¯
Ġsub t
Ø§ÙĨÚ¯ Ø´Øª
ĠÚĨÙĩØ§Ø± ÙħÛĮÙĨ
Ġsk et
orth os
ask a
Ġtrack s
Ġmotion less
Ġinfect ed
Sim ilar
ĠAth os
Ġ å
ĠÚ© ÙħØ§ÙĨ
ĠØª ÙĪÛĮÛĮ
or ical
ĠÙģ Ø§Ú©ØªÙĪØ±
Ø´Øª ÛĮÙĨ
ĠØ² ÙĦ
ĠØ² ÙĬ
ĠÙĤ ÙĪØ§ÛĮ
ay ed
Ġ" "
ĠØ³Ø± ÙĤØª
ĠW ikipedia
Ġthem e
Ú©ÙĦ ÛĮÙĨ
ĠY e
Ġinv asion
Ġblo g
ĠØ¢Ø´ ÙģØªÚ¯ÛĮ
ĠØ¬Ø± Ø¦Øª
ĠØ±ÛĮØ§ Ø¶
Ġsurv ived
ĠÙ¾ÚĺÙĪÙĩ Ø´ÛĮ
ĠOn line
ĠÙĨÙĪØ¬ÙĪØ§ÙĨ Ø§ÙĨ
ĠDiv ision
Ġdefinite ly
V ideo
r ace
u um
v id
Î ±
is hers
ĠÙĨ Ø®ÙĪØ§ÙĩÛĮØ¯
ĠÙĦ Ø§ÙħÙ¾
ĠB at
ĠB uck
ab a
ĠR NA
ĠL im
Ú©ÛĮ Ú©
ĠØŃØ§ÙĦ Ø§Øª
Ġ19 00
Ġdet ailed
Ġtem porary
Ġdream ed
Ġpeace ful
ĠÙħÙĨØŃ Ø±Ùģ
Ġmath bf
Ġeager ly
Ġaston ished
Ġdistur bed
Ġinequ ality
ĠAmaz on
a us
a ire
r ust
ĠØ¨ Ú¯ÛĮ
Ġw ives
ĠÙĪ ÙĦÙĪ
Ġth ri
ĠM ade
ĠT uring
ĠØ±ÙĪÛĮ Ø§
ĠØ§Ùħ Ø¶Ø§ÛĮ
ÙĪØª ÙĪ
ĠØ¢Ø² Ø±Ø¯Ùĩ
ĠÙħØ³Ø§ÙģØ± Ø§ÙĨ
Ġfrequ ent
Ġdam n
ĠÙħØŃØ¯ ÙĪØ¯ÛĮ
Mar ius
ĠAlexandrov na
usse ll
ĠÙħØŃØ± ÙħØ§ÙĨÙĩ
P G
c ould
Ø³ Ø±Ø¯
if er
ĠR io
ĠØº ÙĪØ·Ùĩ
ĠK och
Ġpe ak
Ġsm iles
Ġfound er
ĠÙĤØ· Ø¨ÛĮ
Ú¯Ø´Øª ÙĨØ¯
ĠØ§ÛĮØ± ÙĦÙĨØ¯ÛĮ
ĠÙĪØŃ Ø´
ĠSh ow
Ġsing ular
Ã© s
Ġprot ests
ĠØ§ÛĮÙħ ÙĨ
Ġla wn
loy ment
ÙħÛĮØ± ÙĨØ¯
Ġdocument ary
Ù¾Ø§ÙĨ ÚĨÙĩ
ĠÚ©Ø§Ø¨ ÙĪØ³
ĠSocial ist
Ġdescend ed
ĠSil ver
Ù¾Ø§Ø³ Ø®
L D
S il
ĠØ§ Ø¨ÛĮ
Ú¯ ÙĬ
ĠS T
ĠØ¯ÙĦ Ø§ÛĮÙĦÛĮ
ĠØ¯ÙĦ Ø³ÙĪØ²ÛĮ
Ġtr aged
Ġwhere ver
Ú¯Ø±Ø¯ ÛĮÙħ
ĠÙħØ± Ø¬
Ġbeh alf
Ġ9 5
Ġland ed
ĠØ§Ø·Ø±Ø§Ùģ Ø´
Ġdescri bing
200 2
Ġpot entially
ĠBut ler
ĠØ§Ø®ØªØµØ§Øµ ÛĮ
ĠÙħØªØ£ Ø«Ø±
Ġcateg ories
Ġow l
ĠTem ple
r ows
ÙĪ Ø§Ø²
Ùħ ÙĪÙĦ
ĠØ§ Ø¦Øª
Ġc aut
Ġh ired
ar on
al ty
Ġhe ap
ĠÙĩÙħ ÙĪØ§Ø±
ÙĪÙĦ Ùģ
ĠÚ©Ø§Ø± Ø§Ú©
ĠÙħØ¹ Ø§ÙħÙĦ
Ġcomp rom
Ġcont ents
ĠØ´ÛĮ ÙĪØ¹
ĠÙĥ Ø±Ø¯ÙĨ
Ġenv ironments
ĠÛ±Û¹Û¸Û ¶
Ġemploy ment
ĠØ¬Ø§Ø¨ Ø¬Ø§
Ġsubsequ ent
Ġrh yth
ĠÙħØªÙĪ Ø§ÙĦÛĮ
E A
r age
w ed
x ide
Ø³ Ø±ÙĪ
ing ton
ĠÛĮ Ø§ØªØ§
ĠÚĨ ÛĮØ¯Ùĩ
Ġst olen
ĠS ud
Ġex port
ues e
ĠChrist ians
ĠØ¹Ø¨ ÙĪØ³
ĠÛ±Û¹Û·Û ´
Ġinflu ential
ĠØ´Ø§ÙĨ ÙĪÙĨ
ĠÙĪÙĤ Ø§Ø±
ĠÛ·Û µ
Ġnarr ative
Ġvessel s
G S
i ary
Ġt ries
ĠØª ÙĪÙĨÙĩ
ar o
Ġp ave
ĠØ¨Ø§ ØªØ±ÛĮ
Ġwas hed
ĠØ§ÙĪ Ø¨
ĠØ®ÙĪ Ø´Øª
ĠØ³Ø± ÙĪØ§ÙĨ
ous es
ĠØ¯Ø§ÙĨ Ú©ÙĦØ§Ø±
Ġrec ru
cent ury
Ġpop ulations
ĠMar garet
ĠØ®ÙĪØ± Ùĩ
St ep
Ġpress ing
ĠÛ±Û¹Û·Û µ
ĠEn cyclopedia
ĠÙĩÙĪÙĦ ÙĨØ§Ú©
Ġfet ch
ĠÙĪØµ ÛĮØª
Ġcigare tte
Ø¹Ø² ÛĮØ²Ùħ
M ed
c ond
p o
ĠØ± ÛĮØª
ĠØ® Ø±Ø³ÙĨØ¯
Ġn erves
ĠÚ¯ ÙĨØ¯Ùĩ
ĠØ¨Ø± Ø¢ÙħØ¯
Øµ Ø§Ùģ
ĠS i
us k
ĠB ishop
ĠB oston
ab s
ĠD ro
ĠH op
ĠØ¹Ùħ ÙĪØ¯ÛĮ
ĠÙĨØ² Ø¯Ùĩ
Ġcons isted
Ġsl aves
Ġhum or
ĠØ¢Ø²Ø§Ø¯ Ø§ÙĨÙĩ
ĠSer ies
Ġreve al
ĠØ§ÛĮÙĪØ§ÙĨ ÙĪÙĨØ§
ĠØ®ÙĨ Ø«ÛĮ
ĠDen is
Ġasse mbly
ĠÙħØ´Ø§ÙĪØ± Ùĩ
ĠOlymp ics
ĠÙģÙĤ Ø¯Ø§ÙĨ
D F
h ard
Ġt ape
Ġb oss
ĠÙħÛĮ Ø§ÙĨÛĮ
ĠØ´ ÛĮÙĨ
Ġg onna
ĠM um
ĠØ¨ÛĮ Ø§Ø¯
Ġr ape
Ġj ur
gin s
ĠÙĨÙħØ§ÛĮ Ø´ÛĮ
ĠÙħØ® Ø²ÙĨ
Ġdr um
ĠØ®ÙĪØ¯Ùħ ÙĪÙĨ
Ġsol itary
unic ations
Ġtri bes
Ø§ÛĮØ³Øª Ú¯ÛĮ
Ġdro ps
Ġcam els
Ġprevent ed
à¤ ¾
cad io
ĠØµÙħÛĮ ÙħØ§ÙĨÙĩ
Ġinterpret ation
B ill
g as
m ates
ĠÙħ ÙĪØ±Øª
Ø³ Ú¯
ĠÙĪ Ø§Ø³ÛĮ
ĠØ¢ Ø¯Ø§Ùħ
Ġd iverse
ĠØ³Ø± Ø³Ø±Ø§
el ia
ĠD ad
ĠL ine
Ø¨Ø± ÛĮØ¯
ĠØ¨Ø¯ Ø´
Ġquar rel
Ġthreat s
ĠVol ume
ĠÙĤÙĩØ±ÙħØ§ÙĨ Ø§ÙĨ
ĠÙħØ·ÙħØ¦ ÙĨØ§
ĠÚ©Ø§Ø³ Ùĩ
Gen eral
ĠÚ©Ø´Ùħ Ú©Ø´
Ġb in
ÚĨ ÙĨ
ĠÙ¾ ØªÙĪ
Ġn it
ĠØ¬ ÙĪÛĮÛĮ
ĠÙĩÙħ Ú¯Ø§ÙĨ
ĠØ§ÙĪ ÚĺÙĨ
Ġst adium
ÙĪØ§ÙĨ Ø§
Ġv oy
ĠÙħØ§ Ú©Ø³
ĠE xt
He llo
Ġfl ut
Ġey ed
ĠÙĨÛĮØ± ÙĪÛĮÛĮ
ĠDe ad
ĠØ¢Ø´ Ù¾Ø²ÛĮ
fort une
ĠØ¨Ø±Ø§Ø¯Ø± Ùħ
ĠØ¨Ø§Ø²Ø§Ø± ÙĩØ§ÛĮ
Ġmist akes
ĠÙĥÙĨ ÙĨØ¯
Ġqual ities
L ast
Ġt ran
Ø¹ ÙĦØ§
ĠØ¨Ø§ Ø®Ø¨Ø±
ĠØ¬ Ø§ÙĨÛĮ
ĠÙģ Ø§ÙĨÙĪØ³
et e
ĠØªÙĪ Ùħ
ĠØŃØ§ÙĦ Ùħ
ÙĪØ² ÙĪÙħ
ition ally
Ġind icated
Ġgl ow
ĠØªÙĦØ§ Ø´ÛĮ
Ġri vers
ĠØ§ÙĨØ³Ø§ÙĨÛĮ Øª
ĠØ¯Ø³ØªÛĮ Ø§Ø±
Ġconv ict
Ġstir red
Ġdivor ce
Û ¶
Ùģ Ø§ÛĮ
ĠÙĨ ÙĩÙħ
Ġd ates
Ú¯Ø± Ø§Ùĩ
ĠG ill
Ú©ÛĮ ØªÛĮ
Ġch annels
ÙģØ± Ø´
Ġint u
ĠØ¯ÛĮÚ¯Ø± Ø´
ond ra
hed ral
ĠØªÙĨ Ø§Ø±Ø¯ÛĮÙĩ
Ġqu ad
ĠÙĩÛĮÚĨ ÛĮ
Ġco ff
Ø³Ø§ÙĨ Ú©ÙĪ
Ġrec all
ĠØµØŃ Øª
Ġapp le
Ġgen ome
ĠØ´ÛĮ Ø¡
Ġche cked
Ġstop s
ĠÙ¾ÙĨ ÛĮØ±
Ġmaj esty
Ġself ish
ĠÙħØ¨ Ø§Ø¯ÙĦÙĩ
ĠÙĤØ´ Ø±
ĠØ±ÛĮØ² Ø´
Ġpsych ological
Ġaband on
ĠØ¨ÙħÛĮ Ø±Ø¯
Ġdecre ase
usal em
Ġmerch ant
T rans
t wo
Ùħ ÙĪØ³
Ú© Ø´ØªÛĮ
is ons
ĠÙĨ Ø±Ø³ÛĮØ¯
ro lled
Ġat om
ĠØ¨Ø§Ø² Ø±Ø³ÛĮ
ÙĬ Ùī
ran ean
Ġno on
ĠØ§ØŃ ÙħØ¯
ĠØªØµ ÙħÛĮÙħÛĮ
ĠSt ock
ÙħØª Ø£
ĠØ³ÛĮ Ø±ÛĮ
Ġact ors
Ġcol onel
Ġpublic ation
ĠâĢĿ .
Ġep id
ĠNor way
Ġconce aled
ĠÙĨØ§ÙĤ Øµ
Ġjack et
Ġtourn ament
L ove
Ġ á
Ø± ÙĨØ¯
ĠÛĮÚ© Ø³Ø§ÙĨÛĮ
ĠS av
Ġor che
ĠØ¯Ø³Øª Ú¯ÛĮØ±ÛĮ
ap ore
Ġman uscript
Ùĭ âĢĮ
ĠÚ©ÙĦ Ø±
Ġdown stairs
Ġent itled
Ġexp ense
less ness
Ġcre am
ĠØªÚ© ÙĦÛĮÙģ
Ġvis iting
Ġequ ilibrium
ĠØ¨ÙĦÙĪ Ø·
ÙģØ±Ø³Øª Ø§Ø¯
Ġquant ity
G B
l ink
Å «
ĠÙĨ ÙĪØ¯
Ġf ury
Ġm ales
ĠA mb
ĠM P
ĠB angl
lo ved
ĠØ¬Ùħ ÙĦØ§Øª
ĠØ´Ùħ Ø³ÛĮ
Ġchar ity
ĠØ¨ØŃ Ø±Ø§ÙĨÛĮ
ĠÙ¾Ø³Ø± ÙĩØ§
ats on
Ø´ÙĨØ§Ø³ ÛĮÙħ
ĠÙĩÙĨØ± Ù¾ÛĮØ´Ùĩ
ĠÚ¯Ø°Ø´Øª ÙĨØ¯
Ġeduc ational
agn etic
ÙħØ§Ø¯Ø± Ùħ
ĠÙĪÙģ Ø§Ø¯Ø§Ø±ÛĮ
ĠFore st
Ġtight ly
ĠÙĪØ§Ø´ ÙĨÚ¯
Ġrou bles
onym ous
Rem ember
ĠÙĨØ§Ø®Ø§ÙĦ Øµ
H el
M ary
R NA
u an
Ñ ı
ĠA hab
ol ia
Ġde af
ĠG ulf
ĠH or
ĠN otes
ĠØ° ÙĪØ¨
ĠØ¬Ø§ ÙĩØ§ÛĮÛĮ
20 10
Ġdi agram
Ġstri p
Ġdelight ful
ĠÙĩØ§Ø± ÙĪÙĦØ¯
Ġune as
Ġhypot hesis
ĠØ®ÛĮØ§Ø¨ Ø§ÙĨÛĮ
d am
d ri
e ke
m ain
ĠÙħ Ø±ÙĪ
ÙĤ Ø³ÙħØª
ĠØª ÙĪØ±Ùħ
Ġf are
Ù¾ ÛĮØ¯
Ø® Ø§Ø±ÛĮ
Ø® Ø§Ø°
ĠØ§ÛĮÙĨ ÙĤØ¯Ø±
ÙĦÛĮ ÙĪÙĨ
ÙĪÛĮ Ø¶
Ġha z
ĠØ¯ÙĪ ÛĮØ¯ÙĨ
Ġr ats
Ġwhe els
ĠN aval
ĠO ur
ÙħØª Ø§Ø³Ùģ
ĠCh ildren
Ġrec overy
Ġbeh ave
Ġpur ple
Ø³ÙĪ Ø§Ø±ÛĮ
ĠÛ±Û¹Û¸Û ²
van ia
ĠÙĦØ±Ø² Ø´
resh old
ĠØ¯Ø§Ø±ÙĪ ÙĩØ§
Ġinvent ion
ĠÙħÙĨØ§Ø³ Ø¨Øª
olit an
ĠÙĨÙĪÙħ ÛĮØ¯ÛĮ
Ġpolitic ians
ĠPhys ics
ĠÙħØ¬Ø° ÙĪØ¨
F ran
M od
S te
u is
Ùħ Ø¯Ø±
om on
ĠÛĮ Ø§Ø¨
Ġg if
ĠØ² ÙĩØ±
Ġha bits
Ø§Ø³Øª ÛĮ
ĠÚ©Ø§Ø± Ú©Ø±Ø¯
ĠL as
ÙĩÙħ Ø±Ø§Ùĩ
Ġpart ed
Ø³Ø± Ø§ÛĮ
Ġrel atives
Ġdist urb
ĠÙ¾Ø´Øª Ø´
br id
Ġmag ical
Ġ196 3
ĠÙ¾ÙĨØ§Ùĩ Ú¯Ø§Ùĩ
ĠÙĨÙģØª ÛĮ
ĠMil itary
Ġinvestig ation
ÙĦØ· ÙģØ§
ĠWal ter
c ert
f ax
s ed
ĠÙħ Ø²ÛĮØª
ĠØ¯ Úĺ
Ùģ Ø¯Ø±
ĠØ§Ø³Øª Ø§Ø¯ÛĮ
Ġe ternal
ĠØ¹ Ø§Ø²Ùħ
ĠS now
ĠM alfoy
Ø¢ ØªØ´
Ġr ings
ant in
Ġsh o
ĠD VD
Ġal ph
ĠF und
ĠE instein
ĠÙħØ³ Ø§ÛĮÙĦ
ue nd
ĠÙĨØ´ Ø³ØªÙħ
Ġdes ires
Ø³Ø± Ø¹Øª
Ġins ert
ps on
Ġexper imental
ĠØ³Ø±Ø¯ Ø±Ú¯
ĠØºØ°Ø§ ÙĩØ§ÛĮ
ÙħØ³ ÙĦ
ĠÃ ī
Ġ192 9
Ġopt ions
ĠÙħÙĩÙħØ§ÙĨ Ø§ÙĨ
IN G
Ġspect rum
E P
G reat
r un
v ia
ĠØ§ Ø¨ÙĦ
Ø¨ Ø¯ÛĮ
ĠÙĪ Ø§ÛĮØª
ĠÙĩ Ø´ÛĮ
ĠØ³ Ø§Ø³
ĠA IDS
ĠØªØ§ Ø®Øª
ĠD C
ĠÙħØ¹ ÛĮÙĨÛĮ
ĠÙ¾ÛĮØ´ Ø§Ù¾ÛĮØ´
ĠØ²ÛĮ Ø§ÙĨ
ĠØºÛĮØ± ÙĨØ¸Ø§ÙħÛĮ
Ġem bed
aps ed
Ġinf er
Ø§ÙĨØª Ø®Ø§Ø¨
Ġbed s
ĠØ¨Ø±Ø¯Ø§Ø´Øª Ùħ
ĠÙ¾Ø±Øª ØºØ§ÙĦÛĮ
Every body
ÙĨØ¸ Ø±ÛĮÙĩ
Ø§Ø¹Øª ÙĨØ§
Ġmole cule
ĠØ¨Ø®ÙĪØ± ÙĨØ¯
Ġagric ultural
Ġcondem ned
ĠCarol ina
ĠÙĪÚ¯Ø± ÙĨÙĩ
4 1
O P
y our
Ġf aded
Ø±Ø¯ Ø§Ø±ÛĮ
Ø· Ø±Ø§ØŃÛĮ
ĠØ¹ Ø§Ø¯ÙĦØ§ÙĨÙĩ
ĠÙĦ Ø§ÙĨÚ¯
Ø§Ø±Ø¯ ÙĪ
Ġdis aster
ĠØ§ÙĦ Øª
ĠØªØ± ØºÛĮØ¨
Ġbu ff
ĠØ³Ø§Ø² Ú¯Ø§Ø±ÛĮ
ĠÙħØ® Ø§Ø±Ø¬
Ġrep rodu
Ġdri vers
Ġ193 6
ĠÛ±Ûµ Û°
ĠÙģØ¯Ø± Ø§Ø³ÛĮÙĪÙĨ
Ġfeed back
ĠÙ¾Ø´ÛĮÙħ Ø§ÙĨ
Ġpregn ant
Ġpow der
c hers
o a
p re
u ish
Ùģ ÙĪÙĤ
Ġb ri
Ġin ject
Ø§Ùħ Ú©Ø§ÙĨ
ĠC ape
ĠP oint
os ph
ĠG ad
Ø¯ÛĮ Ú¯Ø±ÛĮ
ĠL ew
ÙĨÛĮ Ùĩ
ard ed
ĠK now
ĠO k
Ġdis put
ĠTh ird
Ø§Ø¦ ÛĮÙĦ
ĠØ¨Ø¯ÙĨ Ø¨Ø§ÙĦ
Ø®ÙĪØ¯ Øª
200 8
ĠÛ±Û¹Û¶Û ¸
ÙĪØ§ÙĤ Ø¹
ĠÙħÙĤØ¯Ùħ Ùĩ
ĠØºØ¶ Ø¨
p ower
ĠØ±Ø§ ÚĨØ³ØªØ±
ĠÙ¾ ÙĪØ³
Ġn est
Ø§Øª ÙģØ§ÙĤ
ĠC ome
ÙĨÚ¯ Ø§ÙĩÛĮ
ĠØ®ÙĪ Ø¨Ùĩ
Ġv ital
Ġch apter
ĠN ature
ÙĪÙħ Ø±
ĠØ§Ø³ Ú©ÙĨØ¯
act ions
ÛĮÚ© Ø§
ount ered
ĠÙħØ¬ Ø±Ø¯
Ġres idents
ater ina
be fore
Ġcount ing
ten ance
che ster
yd ney
ĠÙĤÙĦØ¨ Ùħ
Ġaut hent
Ġdemand s
Ġconv ince
ĠØ¨ÙĨÚ¯ ÙĦ
ĠÙĤØ² Ø§ÙĤ
Dav id
F I
l le
Ġs way
ĠÙħÛĮ Ø¯Ø§ÙĨÛĮ
Ġd il
ĠØ¹ ÙĪØ§Ø±Ø¶
Ø° Ùĩ
ĠG DP
ĠL loyd
ĠF ried
ĠÙĩÛĮ ØªÙĦØ±
ĠV ar
Ġcont est
cl iff
ĠÙĩØ§ Ú¯ÙĪ
Ġfl ame
ĠØ¬ÙĪ Ø¬Ùĩ
ĠØ´Ú©ÙĦ Ø§Øª
ĠÙħØ´Øª ÙĤ
Ġ9 9
Ġadm ire
ĠØ³ÙĪØ§ÙĦ Ø§Øª
Un iversity
EE E
Ġelder ly
Ùħ Ø±Ø¯Ùĩ
Ġb ot
Ù¾ Ø§Ø±Ùĩ
Ġd ense
ĠÙ¾ Ø¯Ø±ÛĮ
ic ism
ĠØ¬ ÙĩØ§Øª
ĠØ¬ ÙĪØ²Ùģ
Ø· Ø§ÙĨÛĮ
Ġsh ield
ap or
Ġind ifference
Ġstart led
ĠBe ck
Ġrepresent ative
Thank s
Ø¨ÙĨØ¯ Ùħ
ĠÙĤØ§ Ø¹Ø¯
Ġwarn ed
Ġentertain ment
ĠØ§Ø¨Ø±ÛĮ Ø´Ùħ
ĠØ¹Ø§Ø· ÙģÛĮ
ĠØµØ§ØŃ Ø¨Ø§ÙĨ
ĠEug ene
Ġtunn el
M R
f lu
Ùħ Ø®ØµÙĪØµØ§
Ġt ub
Ú¯ Ø²Ø§Ø±Ø´
ĠØ¯Ø± Ø¨ÛĮ
Ù¾ ÙĨØ¯
ĠØ¹ ÛĮØ¯
ÛĮÙħ Øª
ĠM arsh
un ting
ĠÙħØ¹ ÙħØ§
ĠÙĨÙĪ Ø§Ø²
ĠÙħØ¯ ÛĮØ±Ùĩ
ĠØ³Ø§Ø®Øª ÛĮÙħ
Ġcr ushed
wh ose
Ġbus h
Ġelect rons
ĠØ±ÙģØªØ§Ø± Ø´
Ġprom pt
Ġdead ly
ĠÛ±Û¹Û·Û ¶
Ġbelong s
Ġpresident ial
Ø³Ù¾ Ø§Ø³
ĠLeban on
M at
m ir
p age
Ø§ÛĮ Ø¨
Ġc ant
ĠØ³ ØªÛĮ
ĠS af
ĠP ope
ĠB il
ĠD own
ĠÚ¯ÙģØª ÛĮØ¯
ian g
Ġdes erve
ĠØ¬ÙĨÚ¯ ÙĦÛĮ
Ġend ure
Ġ4 2
ĠÙħØµ Ø±ÛĮ
Ġlight ning
ĠØªÙģ Ø§ÙĪØªÛĮ
ĠÙģØ±ÛĮ Ø§Ø¯ÛĮ
ĠHe ath
ĠComm and
ĠÛ±Û¹Û¸Û ³
Ġsens ible
ĠØ´Ø§ÙĨ Ø²Ø¯Ùĩ
ĠAnt on
ĠWilliam s
ĠÛĮÙĪ Ø§Ø´
ĠØ¬ÙħØ¹ÛĮ ØªÛĮ
ĠPubl ishing
ĠPhilipp ines
ĠÙģØ§Ø³ Ø¯
W ait
ĠØ¨ Ø´ÙħØ§Ø±
Ø§ÙĨ Ø¬
ou st
ĠÙ¾ Ø§ÙĩØ§
ĠÚ©ÙĨ ÛĮÙĨ
ĠÚ©ÙĨ Ø§Ø±ÛĮ
ag le
Ġsh one
Ġlo op
ĠØ§Øª Ø®Ø§Ø°
Ġunder neath
ĠØªØ¬ Ø³Ùħ
Ġcar p
ĠØ³ÙĦ Ø·Ø§ÙĨ
ĠÚ¯ÙĪ Ø§Ùĩ
Ø¨ØŃ Ø«
ĠØ®ÙĪØ±Ø¯ ÙĨØ¯
Ġpublic ly
ĠØªÙĪÙĨ ÛĮØ¯
ĠMiss ouri
Ġvol t
sc ale
ĠØ±Ø§Ø³ Ú©ÙĦÙĨÛĮÚ©Ùģ
Ġcollabor ation
Ġpurch ase
List en
R ober
m ay
ĠØ¨ Ø®ÙĪØ§ÙĩÛĮ
Ø³ ÙģØ±
Ġf ence
Ġl ately
ĠÙħÙĨ Ø§Ø¸Ø±
ĠH arr
Ġmar ble
Ġri val
ĠSer ge
ĠÙħÛĮØªÙĪÙĨ ÛĮÙħ
plic ity
Ø®ÙĪØ´Ø¨Ø®Øª Ø§ÙĨÙĩ
Ø³ÛĮÙĦÙĪØ§ÙĨ ÛĮØ§
E uro
Ú¯ Ø´
Ġm arsh
ĠØ¢ Ø«
ĠÚ¯ Ø²Ø§Ø±
ĠØ§Ø³Øª Ø¹Ùħ
ot al
ĠÙģ Ùĩ
ĠÙĤ Ø¶Ø§
ur red
ÙĨÚ¯ Ø§Ø±Ø§ÙĨ
qu er
Ġv ivid
ĠL ive
ĠH ans
Ġpl ung
ĠØ¹Ùħ ÙĪÛĮ
Ġam used
ĠÙħØ«ÙĦ Ø«
Ġrec y
Ġem issions
Ġpar ish
Ġdiv ide
Ġmis fortune
ĠÙħØ§ÛĮ ÙĦÛĮ
ĠÛ±Û¹Û¸Û ¸
Ġtemper atures
Ġrout ine
ĠCont rol
ĠÙģÙĦÙĪØ± ÛĮØ¯Ø§
ĠÙĨØ§Ø®ÙĪØ´ Ø§ÛĮÙĨØ¯
" ;
N one
w arts
Ø§ Ø¹Ø¯
Ġm and
ĠÙ¾ Ø³ØªØ§ÙĨ
ĠÚ©Ø§Ø± Ø´ÙĨØ§Ø³ÛĮ
ĠG ab
Ġal ien
Ø§Ùģ Ú©ÙĨØ¯
ĠÚ©ÙĪ ÙĦÛĮ
ang el
Ġquestion ed
Ġprop osal
ĠFor ces
Ġfac ult
Ġsafe ly
ĠÙħØŃØª Ø§Ø·
Ġreb ell
ias m
Ġaccomp any
ĠÚ¯Ø´ Ø§Ø¯
Ġconserv ative
Ġlas er
Ġvulner able
Ġinsect s
ĠOtt oman
ÙĨ Ø§Ø®
ĠÙĪ Ø¨Ø§
at ivity
Ġc ens
ĠØª Ø«
ĠØ¯Ø± Ùħ
Ø¬ ÙħÛĮ
ĠØ¨Ø§ ÙĬØ¯
ĠØ¬ Ø§Ø´
ĠC rit
Ġ1 20
ag ged
ĠÚ©Ø§Ø± Ø¯
ĠT est
ĠW ars
ĠW olf
ĠJ r
ĠÙħØ¹ Ø´ÙĪ
Ġnow here
ĠØ²ÛĮØ± Ú©
Ġtr unk
Ġstr ings
ĠØµØ¯ Ø§ÙĤØª
Ġext ension
Ġcontin ent
ĠÙĦÙĪ Ú©
Ġclass room
ĠØ§ÙĨØªØ¸Ø§Ø± Ø´
ai ro
ĠØ³Ø§Ø¨ ÙĤØ§
Ġcharacter istic
Ġslight est
Ġlog ical
Ġdeli very
Ø®ÙĪØ± Ø´ÛĮØ¯
ĠÙ¾ÛĮÙĪØ³Øª ÙĨ
Ġlic ense
ĠNaz i
C al
b at
Ø¬ Øª
ĠÚ¯ Ø±ÛĮÙģ
Ø§Øª ÙĪÙĨ
ĠM ike
ĠØµ Ø¹ÙĪØ¯
Ġk ick
out s
Ġgo ver
ĠÙ Ĳ
Ġpres erved
ĠAirport s
Ġ6 00
Ġpat ri
Ġcreat ivity
ĠÛ±Û¹Û¸Û ·
Ġpath s
Ġball s
ĠÙħØ®ÙģÛĮ Ø§ÙĨÙĩ
Ġjournal ists
war f
Ġregist ered
ĠÚ©Ø§ÙĨØ§Ø¯ Ø§ÛĮÛĮ
h al
y ers
Ø³ Ø§Ø±ÛĮ
ĠÚ© Ø§Ùģ
ĠÙħÛĮ Ø®ÙĪØ§ÙĩÙħ
Ø§Ø² ÙĪÙĨ
ĠM ult
ĠÙĦ Ø§ÛĮØ¯Ú¯ÛĮØª
ĠØ±ÙĪ Ø¨
ill ance
ĠD ictionary
Ġch ances
ĠØ¨Ø¯ ÙĨÙħ
ĠÙĨÙĪ Ø§Ø²ÙĨØ¯Ùĩ
Ġunder lying
Ġcount ed
ĠTh or
Ġmod est
Ġlight ing
ĠØ§Ø± ÙĦØ§ÙĨØ¯ÙĪ
Ø´Ú© Ø³Øª
Ġsci ences
Ġactiv ists
Ġpriv acy
Ġfat ig
ÙĪØ¦ ÙĦØ§
ĠÙĦÛĮÙĨ ØªÙĪÙĨ
force ment
Ġstrateg ies
0 6
C ount
u ction
ÛĮ Ø§Ø¨ÙĨØ¯
Ġt ack
ĠÚĨ ÙĨ
ĠÙĤ Ø¯ÛĮ
Ø¶ Ø±
ie ve
Ú©ÙĦ ÙħÙĩ
ĠÙĨØ§Ùħ Ø·
ach i
ÙħØª ÙĪÙĦØ¯
ØªÙħ Ø§ÙħÛĮ
Ġcomm un
Ġinc hes
ĠÙħÙĦ Ø§ÙħØª
Ġposs ibilities
ug s
ĠÚĨÙĨØ§ÙĨ ÚĨÙĩ
ĠØ¹ÙĪ Ø§Ø·
ĠØ¨Ø³Øª Ø±ÛĮ
ĠØ§Ø¨Øª ÙĦØ§
ĠÙ¾Ø±Øª ØºØ§ÙĦ
ĠØªØ±ØªÛĮ Ø¨ÛĮ
Ġste ep
ino is
ĠAlexand ra
ĠÚ©Ø´Ø§ÙĪØ± Ø²Ø§ÙĨ
Ġaware ness
Ġexha ust
ĠDu ke
ĠØ¢Ú©Ø³ ÙģÙĪØ±Ø¯
ĠØ²ÙĨØ§Ø´ ÙĪÛĮÛĮ
ĠSup reme
D ue
in n
Ġw aved
or able
ĠÚ¯ ÙĪÛĮÙħ
ĠØ² Ø±ÛĮÙĨ
ur able
ol n
ĠØ¯Ø§Ø± ØªÛĮÙĨ
ĠÙħØ§ Ú©
ĠH o
ĠF ang
ĠØ¯Ø³Øª Ù¾Ø§
ĠÙħØ¹ Ø§ÙĦ
ĠØªØ± ÙĤÛĮ
Ġdid nt
ĠØ¨Ø²Ø±Ú¯ Ø´
old ing
ĠØªØ£ Ø«ÛĮØ±ÛĮ
ĠØµØ¯ ÙĪØ±
Ġclass ified
ÙĨØ§Ùħ ÙĨØ¯
Ġenc ountered
ĠÙ¾Ø§ÙĨ ØµØ¯
Ġbelong ing
Ġfle e
ĠÙĥÙĨ ÙĬØ¯
ĠBul gar
Ġfan ci
ĠØ¬Ø§Ø³ ÙĪØ³ÛĮ
Ġparam eters
ĠImper ial
ÙħØªØ£ Ø³Ùģ
C or
M a
Ú¯ Ø§ÙĦ
Ġc ough
ĠØ³ Ø§ÙĨØ¯
ĠØ§Ø² Øª
ĠC ur
ĠC ost
and y
ÙĦØ§ ÙĤÛĮ
Ġk ings
ĠØ³Ø± Ù¾Ø±Ø³Øª
Ġex agger
ĠØ¯Ø³Øª Ú©Ø´
ĠÙħØª Ø¹ÙĩØ¯
Ø§Ú© Ùħ
ĠØ¹Ùħ ÙĪÛĮØ´
ĠØ¹ÙĨ Ú©Ø¨ÙĪØª
iss y
ced es
Ġ4 4
ĠÙĦÛĮ Ø±Ùĩ
ĠÙħÙĨØ¸ ÙĪØ±Øª
uck ed
ØŃØ³ Ø§Ø¨
ĠØ§Ø³Ø±Ø§Ø± Ø¢ÙħÛĮØ²
ĠSqu are
Ġpursu it
D es
J amie
T ur
T ime
Ġh orm
Ù¾ Ø°ÛĮØ±Ø¯
Ġd ow
Ø±ÛĮ Ø²Ø¯
Ġre vel
ĠS ign
ĠN ad
ĠØº Ø§Ø±Øª
Ġsc rew
ĠØ¨ÙĨ ÙĪ
ĠØ´ÙĪ Ú©
ĠWh it
Ã© e
ĠØ§Ø¨Øª Ú©Ø§Ø±
ĠØ¨Ù¾ Ø°ÛĮØ±
ien na
ĠÙħØªØ± ÙĪ
Ġinvol ving
Ġpray ers
ĠÙĦØ§ÛĮ ØŃÙĩ
ĠÙĨÙĬ Ø³Øª
Ġunfortun ate
somet imes
c ons
f ish
m es
Û ´Û
ĠØ¨ Ú¯Ø±ÛĮ
Ġg ut
ĠÙĤ Øµ
ĠR ot
Ø¯ÛĮ Ú¯Ùĩ
Ġch icken
ĠN ord
ĠØ§ÛĮ ÙĦÛĮ
ĠÙħØ¹ Ø§ÛĮÙĨÙĩ
ĠV ern
ĠØ¨Ø® ÙĪØ±Ùħ
Ġback ward
ail ing
Ġ3 9
Ġbel t
ĠÙĥ ÙĨÙħ
ĠÚ¯ÙĦ ÙĪÛĮØ´
Ġfil ter
Ġ196 1
Ġfear ful
Ġpick ing
Ø§Ú©Ø³ ÛĮØ¯
ĠØ³ÙĪØ² ÙĨ
ĠØ¬ÙĪØ±Ø¬ ÛĮØ§
ĠØµÙĦÛĮ Ø¨ÛĮ
writ er
igen ous
ĠØ§ÙģØ±Ø§ Ø·ÛĮ
Ġinev itable
ĠMond ay
S ay
u ctor
ĠØ¯ Ø§ÙĪØ±
ĠÚ© Ø´Ø§ÙĨ
Ġp airs
Ø¹ Ø§ÙĤØ¨Øª
ØŃ Ø§Ùħ
et he
ĠS el
Úĺ ÙĪ
Ġch at
Ġover t
Ġres erve
Ø·ÙĪØ± Ùĩ
ĠIn st
ĠØ¨Ø®Ø´ ÛĮØ¯Ùĩ
ĠØ¬ÛĮ Ø¨Ø´
ĠØ¢Ø³ÛĮ Ø§ÛĮÛĮ
Ġbar ric
ĠØ¬ÙĨØ³ÛĮ ØªÛĮ
Ù¾Ø¯Ø± Ùħ
ĠÙħØŃØ¨ ÙĪØ³
ĠÙħÙĪØªÙĪØ± ÙĩØ§ÛĮ
ĠRepublic an
ĠØ±Ú© Ø§Ø¨
ĠØ±ÙĪÛĮØ¯Ø§Ø¯ ÙĩØ§ÛĮ
ĠJer usalem
ĠNik olay
ØµØŃ Ø¨Øª
ĠÙģØ¯ Ø§Ú©Ø§Ø±ÛĮ
! !
E r
R A
Ġ @
Ø³ ÙĨØª
Ġthe atre
Ġs ession
Ú¯ ÙĪØ±ÙĨ
Ġh ier
ĠØ¬ Ú©Ø³ÙĪÙĨ
ÛĮÙħ Ø§
ÙĨÚ¯ Ø±ÛĮ
ĠØ±ÙĪ ÙħØ§ÙĨ
ĠP sych
ĠØ¯ÙĪ Ú¯Ø§ÙĨÙĩ
Ġor ph
Ġal ert
ie u
Ġfl ights
Ġworld s
Ġyoung est
ĠWe bsite
che ll
Ġcir cles
Ġ194 4
Ġ195 9
ĠÚ¯ÙĨ Ø¬Ùĩ
ĠØ¯ÙĪØ³ØªØ§ÙĨ Ùħ
ĠØ®Ø´ÙĨ ÙĪØ¯
AP TER
Ø§ÙĪÙĦÛĮ ÙĪÛĮÙĩ
Ġpersu aded
ĠØ¹Ø±ÙĪØ³ Ú©
ĠÙĩØ¯ ÙģÛĮ
Ġsla very
T H
m aster
ĠØ¨ ÙĪÙĦÛĮ
it ory
Ġb ind
ĠØ¨Ùĩ Ø§ÛĮ
ĠØ³ Ø²
ĠÙ¾ ÙĨÛĮ
Ġg oss
ÙħÛĮ Ø´ÙĨ
Ġit em
ĠØªÙĪ ÙħÙĪØ±
ĠØ´Ø¨ ØŃ
ĠY ah
Ø±ÙģØª ÛĮÙħ
ĠSh ah
Ġdoor way
Ġbar rel
sy l
Ġpay ment
ĠØ§Ø¸ÙĩØ§Ø± Ø§Øª
Ø¬ÙĨ Ø¨
ĠLu ke
Ġsem i
Ġtheore tical
Ġignor ant
Ġshru gged
ĠÙĪØ§Ø´ÙĨÚ¯ ØªÙĨ
B O
Ä «
Ø± ÙĨ
Ùģ Ùģ
ĠÚ¯ Ø±Ø§ÙģÛĮ
Ġg ross
ĠS om
ĠÚ©ÙĨ Ø§ÛĮÙĩ
Ġcom edy
ĠR ams
ĠÙħØ³ Ø±Øª
Ġam pl
Ø£ Ø³
ĠAr cadio
ĠÛĮØ§Ø¯ Ø¢ÙĪØ±
ĠÚ¯Ø±Ø¯ ÙĨØ¯
Ø§Ø¶ ÙĦ
ĠØªØ£ Ø«Ø±
ĠØªÙģ ØµÛĮÙĦ
ĠÙģØ¶ Ø§ÙĨÙĪØ±Ø¯
Ġmar ched
ĠØ§Ø¹Øª ØµØ§Ø¨
Ġspeak s
ĠÙģØ±ÙĪØ´ ÙĨØ¯Ùĩ
ĠÙĪÙĦ ØªØ§Úĺ
Ġactiv ist
Ġdest iny
Ø±Ø§Ø³Øª ÙĪÙģ
Ġprint ing
Ġscream ing
ĠVict or
ĠØ¬Ø§Ø¨ Ø¬Ø§ÛĮÛĮ
ĠØ®ÙĢ ÙĪØ¯
ĠÙĪÛĮØ¯ÛĮ ÙĪ
Ġrelie ved
Q L
u ate
w orld
ĠØ§ Ù¾ÙĦ
ĠÙĨ Ø¨Ø§Ø´ÙĨØ¯
ĠØª Ø§Ø¨ÙĦ
Ġd irt
Ø§ÙĦ ÛĮÙĨ
ĠÙ¾ Ø§Ø¨
ĠÙĦ ÙĪÛĮ
ĠØ³Ø± Ø¨Ø§Ø²ÛĮ
ĠD er
Ġch ip
ĠN umber
Ġpl us
Ø´ÙĨ ÙĪÙħ
ĠO ther
Ġgr ade
ĠÙĨØ§ Ø®ÙĪØ§Ø³ØªÙĩ
ØªÙħ ÙĦ
aw are
Ġpres erve
Ġinv itation
ĠÚĨØ±Ø® ÛĮØ¯
Ġmer ry
Ġtarget s
ĠØ¨ØªÙĪÙĨ ÛĮÙħ
m ill
ä º
ĠØ¨ ÙĪÙħ
Ùģ Ø§ÛĮØ¯Ùĩ
ÙĨØ¯ ÙĪØ±
ĠÙħÛĮ Ú©Ø±Ø¯Ùħ
ĠÙĩ ÙĤ
Øµ ÙĨØ¯
em al
ĠÙ¾ÛĮ Ú©Ø§Ø±
ĠØ§ÛĮ Ø³
ens ed
ĠØ·Ø±Ùģ ÛĮÙĨ
ĠÙĪÙĤØª Ø´
ĠØ³ÙĦ Ø·Ùĩ
ĠØ¢Ø± Ø§ÛĮÙĩ
Ġexpl aining
ĠØŃØ¯ÙĪØ¯ Ø§
ĠØ¹Ø² ÛĮÙħØª
Ġ194 7
ĠØ¢ÙĩÙĨÚ¯ ÛĮ
ĠMy r
Ġregard less
Ġrock et
erson al
Ġplain ly
Ġrevolution ary
Ġrank s
ĠMex ican
ĠConf ed
Ġrepro ach
ĠÙĩÙĨØ¯ÙĪ Ø³ØªØ§ÙĨ
m m
ĠÚ© ÛĮÙĨÚ¯
Ġs au
Ġb ark
Ġb orr
Ġh unt
ĠØ® Ùģ
Ø§ÙĦ ÙħÙĦÙĦ
ĠA ld
ri ved
ke ys
ĠP ippin
ĠG a
ĠG ib
ĠL og
ĠN i
ĠÙħØª ÙĪØ³
ind a
ĠØ§Ø³ Ø§ÙħÛĮ
ĠØ° Ø§Øª
ĠØ´Ùħ Ø§Ø±ÛĮ
ob y
Ġinter vals
Ø±ÙĪØ² ÙĨØ§ÙħÙĩ
Ġclass ic
ĠØ¨Ù¾ Ø°ÛĮØ±Ø¯
Ġmusic ian
200 9
Ġaut umn
ØªØµ Ø§Ø¯
gress ive
ĠÙĦØ² ÙĪÙħ
Ġgradu ate
ĠØ®Ø±Ø§ Ø´
Ġgalax ies
ÙħØ·ÙħØ¦ ÙĨÙħ
ĠÙĪÛĮØ±Ø¬ÛĮÙĨ ÛĮØ§
F ort
J ac
P a
i Ä
Ø¯ ÙĨØ§
Ġw ard
Ù¾ Ø§Ø´ÛĮ
Ø¹ ÛĮÙĨ
ĠS n
Ø¢ ÙĤØ§
ĠØ¨ÛĮ Ú©
ĠØµ Ø±Ø§ØŃØª
Ġco operation
ĠØ®Ø· Ø±Ø§Øª
Ġpol ar
Ġgl imp
ĠØ§Ùĩ Ø¨
Ġcour ts
ÙĦØ³ ÙĦ
ĠØ³Ø· ÙĦ
Ø§ÙģØª ÙĨØ¯
Al most
ĠØµØ¯Ø§ Ø¦ÛĮ
Ġcor p
Ġste al
ĠÛ±Û¹Û·Û ¹
Ġstrange ly
Ġobser ving
ĠØ¯Ø§ ÙĪØ±ÛĮ
ĠØ§Ø®ØªÙĦØ§ÙĦ Ø§Øª
ĠØ¨ØªÙĪÙĨ Ùħ
ÙĪÚ¯Ø± Ø§ÙģÛĮ
Ġexplos ion
Ġdiscipl ine
Ø·ÙĪ Ø¨Øª
Ġglimp se
0 8
Ġt rop
ÙĦ Ø±Ø¯
ĠÙĨ Ø®ÙĪØ§ÙĩÛĮÙħ
Ġd umb
Ġn inet
ÙĩØ§ Ø´
ill ery
ore r
ĠR ussell
Ġab ilities
Ø§ÙĪ Ø¨
Ġbut t
Ø§Ú© Ø§
ĠÙħÙĩ ØªØ§Ø¨
Ġinst alled
Ġ4 7
Ġche ese
Ġfin ite
cent ral
Ú¯Ø±ÙģØª Ùħ
Ġve ctor
ĠØ§ÙĦÚ©ØªØ± ÙĪÙħ
Ġspread ing
Ġtrust ed
Ġconsist ing
Ġdisapp ointed
ĠØ¨Ø®ÙĪ Ø§Ø¨Ø¯
Ge orge
Bl ack
Ġpurs ued
ĠØ¬ÙĪÙĦÛĮ Ø§
ĠBelg ium
S ch
i ology
ĠØ¨ Ù¾ÛĮÙĪÙĨØ¯
ĠÙĨ Ú¯ÙĪ
Ġf ist
Ø¬ Ø§Ø¨
Ø· Ø§Ø±
Ġre ass
ĠS ex
ĠL ast
Ú©ÙĪ Ùģ
Ġret rieved
Ġpres ents
ĠÚ¯ÙĦ Ø®Ø§ÙĨÙĩ
Ġexam ination
Ø¨ÙĨ Ø§Ø¨Ø±
ĠØ®Ø¯Ùħ Ùĩ
ĠÙĪÙĨ Ø²
Ġspeak er
Ø³ÙĪÙĨ ÛĮØ§
Ġmut ual
ĠØªØ±ÙĪØ± ÛĮØ³Øª
ĠHog warts
ĠÙħØ²Ø® Ø±Ùģ
m ad
t i
Ġt in
at isf
an es
ĠØ´ Ø§ÛĮØ³ØªÚ¯ÛĮ
ĠØ³ Ø§ÙĨØ³
Ġst ake
Ġwe igh
ĠÙħÙĨ ÙĤ
ĠM ost
ÙĨÚ¯ ÙĪ
ĠÙĦ Ø¨Ø§Ø³ÛĮ
ĠØ¯Ø§Ø± ÙĪÛĮÙĨ
ĠH oney
ĠE D
ĠØ§ÙĦ ØªØŃ
Ġbo ot
ĠØ¶ Ø®ÛĮÙħ
Ġart istic
Ġopp on
ĠØ§ÙĨØ¯Ø§Ø®Øª ÙĨØ¯
Ġleg it
Ġ194 9
ĠTok yo
ĠYanke es
syl vania
l aw
ĠÚ© Ø¨ÙĪØ¯
er ving
Ù¾ ÙĪÙĦÛĮ
ĠÚĨ Ø±Ø¨
ro c
ĠS P
Ú©ÙĨ ÛĮÙĨ
ĠP ut
ĠÙ¾ÛĮ Ø§Ù¾ÛĮ
ĠØº Ø´
Ġun re
ĠÚ©Ø±Ø¯ÙĨ Ø´
Ġacc ent
ĠØ¯Ø®ØªØ± ÙĩØ§ÛĮ
ĠÙħØ± Ø²ÛĮ
hip s
Ġrest ed
Ġtechn ological
Ø®ÙĪØ§ÙĨ ÙĨØ¯
Ġri b
ĠÙħØ§ÙĦ ÙģÙĪÛĮ
ĠØ³ÙģØ± Ùĩ
Ġtem ple
ĠÙħÙĢ ÙĨ
ĠÚ©ÙĪØ¯Ú© Ø§ÙĨÙĩ
ĠØªØ±Ø§ Ø´Ùĩ
Ġrul ed
Ú©ÛĮÙĨ Ø²
Ġign ored
Ġwand ering
Ġcorrespond ing
Ġbath room
Ġattribut ed
quis ite
Nat asha
Ġenthus iasm
Ġarrang ement
Ġmanif est
L ittle
Ø¯ Ø§ÙħÛĮ
Ġt ang
ĠØ¨ ÙĤ
Ġb ust
ĠØ¯Ø± Ø§ÛĮÙĨ
Ø® Ø¯Ø§ÙĪÙĨØ¯
ĠÚĨ ØªØ±
im b
id ance
ĠP oly
ĠG ra
Ø¯ÛĮ ÙĪÛĮØ¯
Ġshe ets
Ø¬Ø§ Ø¹
ĠÙħØ±Ø¯ Ú¯Ø§ÙĨ
ÙĪØ§ ÚĺÙĩ
ĠØ¯ÙĪØ± ÙĪ
we ight
ood y
Ġcar pet
Ġimp ulse
ĠAl ger
ĠPro p
Ġtri ll
Ġtri als
ĠØ®Ø§Ú© Ø³ØªØ±
ĠÙĪÙĦ Ø§ÛĮØª
200 1
Ġ193 8
Ġeight een
Ġindust ries
ĠMed al
ĠØ¬Ø³ ÙħØ§ÙĨÛĮ
ÃŃ a
Ġaccompl ish
Ġpurs ue
Ġancest ors
ĠIll inois
ĠMaj or
ĠQur an
Ġï¼ Į
u in
ĠÚ© Ø±Ø³ÛĮ
Ø§ÛĮ Ø³
Ġm ourn
Ġy eah
iz a
ĠÚ©Ùħ ÛĮÙĨ
ĠÚ¯Ø±ÙģØª Ø§Ø±ÛĮ
Ġfl ows
ĠØ§Ø¹ Ø²Ø§Ùħ
end ar
ĠÚ©Ø³ ÙĦ
ĠÙħÙĦ Ø§ÙĦ
Ġexp and
ĠZ e
ĠØ¢Ùĩ ÙĨÛĮÙĨ
ĠØ¨ÙĢ Ø±Ø§ÛĮ
ĠÙĦÙĪ Ø¦
ĠÙ¾ÙĨ Ø³ÛĮÙĦÙĪØ§ÙĨÛĮØ§
Ġlay ers
Ġ194 6
ĠØ§ÙĪØ± Ø³ÙĪÙĦØ§
ĠÙħØŃØ¨ ÙĪØ¨ÛĮØª
ÙħØ¬ Ø¨ÙĪØ±
Ġhous ing
Ġstrugg led
ĠØ±ÙħØ² ÙĨÚ¯Ø§Ø±ÛĮ
ĠØ§ÛĮØ¯ Ø¦
ĠØ±Ø£ Ø³
ĠÙ¾ÙĩÙĨ Ø§ÛĮ
ÙħØ§Ø±ÛĮ Ø§
ĠØ®Ø¯Ø§ØŃØ§Ùģ Ø¸
ĠColl ins
Ġcryst al
ĠAff airs
Ġtran qu
R askolnikov
Ġ vel
Ġm ig
Ù¾ ØªÛĮ
Ġd ried
Ġth reshold
ĠÙĤ Ø§ÙħØª
ĠØ¯ÙĪ Ø´ÙĨØ¨Ùĩ
os ity
ĠT ai
Ġlo ft
ĠN ort
ĠW alk
ĠO F
ĠØ¬Ùħ Ø¬ÙħÙĩ
Ø®ÙĪØ§Ø³Øª ÛĮÙħ
ont o
Ġbelie ving
ĠØ§ÙĤ ÙĦÛĮØª
ÛĮÙĨÚ¯ ØªÙĪÙĨ
ape l
Ġremember ing
ĠÛ±Û¸Û ´Û
ĠÙħÙģ ØµÙĦ
ĠAb d
Ġcrit ics
ĠÙħÙħÙĨ ÙĪ
Ø¢Ø± Ø§ÙħÛĮ
Ġcontribut ed
ĠØ³ÙĨØ¬ Ø´
ĠÙĪÙĪØ¯ ÙĩØ§Ø³
Ġuncertain ty
Ġsou p
Ġdio xide
D ear
l ad
w ick
Ø¯ Ø§ÙĦ
ĠØ¨ Ø®ÙĪØ§ÙĩÙĨØ¯
Ø³ Ø±Ùħ
Ġc able
Ġb icy
ĠØ´ ÙĪÙĨ
Ġbe loved
ĠM ell
ĠØ³Ø± Ú©Ø§Ø±
Ġpe oples
Ġsp ider
ĠV all
ĠØ¨ÛĮÙĨ ÙĪØ§
ĠØ¨Ø® ÙĨØ¯
Ġfl ushed
Ġinter vention
Ø§Ø¦ ÙĦÛĮ
Ġcap s
ĠØŃØ§Ø¶ Ø±Ùħ
ĠÙħØ§Ø± Ú¯Ø§Ø±Øª
Ġoper ator
ĠÙħØ±Ø¨ÙĪØ· Ùĩ
Ġlow ered
unt ary
ĠÙ¾Ø±Ø³ ÛĮØ¯Ùĩ
ØµØ¯Ø§ÛĮ Ø´
ĠÙĨÙĩØ§Ø¯ ÙĩØ§ÛĮ
ĠMc C
Ġdetect ion
Ġconsist ent
Ġcow ard
ĠGall ery
ĠÙĩØ§Ø¨ ÛĮØª
K ate
c ut
f ront
Øª Ø±Ø¯
or i
ĠØ¯Ø± Ú¯Ø§Ùĩ
Ġto re
ĠØ³ ÙĨÛĮÙĨ
ĠÛĮ ÙĪØ±ÙĪ
ĠÚ¯ Ø±ÛĮØ³Øª
Ġre vers
ro id
ĠB ou
ĠÙģØ± Ø¶ÛĮ
Ġwho lly
Ġpl ates
ĠK night
ip es
ĠÚĺ ÙĨÛĮ
Ġcons ol
ars on
Ġph ones
An na
ĠÙħØ±Øª Ø¨Ø§
ĠØ·Ø¨ Ø¹
ĠØªÙĪØ§ÙĨØ³Øª ÛĮÙħ
Ġpack ed
Ġforest s
Ġevolution ary
ĠÙ¾Ø§Ø´ ÙĨÙĩ
ĠFranc is
ÙĨÛĮØ± ÙĪÛĮ
ĠMill er
Ġdeliber ately
ĠÙħÚ©Øª Ø¨
ĠØ¨ÙĪØ¦ ÙĨØ¯ÛĮØ§
atern al
B en
h uman
s aw
u i
ÙĨ Ùģ
Ø´ Ø§Ø®
Ġc aval
ĠØª ÙħØ§ÛĮØ²
Ġl az
ÙĪÛĮ ÙĦÛĮ
ÛĮØ± ÙĪ
ĠM id
ĠK ansas
Ġar bit
Ù¾ÛĮ ØªØ±
ĠØªØ¨ Ø³ÙħÛĮ
Ġel bow
ĠØ¨Ø´ Ú©Ùĩ
me e
ĠÙĦØ¨Ø§Ø³ Ø´
Ġprocess or
Ġimportant ly
20 11
ĠØ´Ø®ØµÛĮ ØªÛĮ
Ġ194 2
Ġimm igrants
Ġsus pended
ĠÙĩÙĪØ§Ù¾ÛĮÙħ Ø§ÛĮÛĮ
Ġnovel s
Ġdetect ed
Ġpark ing
ĠØ§ÙħØ¶Ø§ Ø¡
Ġheaven s
ĠMag azine
ĠØ¯Ú¯Ø± Ú¯ÙĪÙĨÛĮ
Ġcandid ates
Ġcert ific
Ġfier ce
Mart in
Ġtrous ers
Ġfanci ed
r ine
Ñ Į
ĠÙĨ Ø®ÙĪØ§ÙĩÛĮ
Ġc ott
Ġf ir
Ġto oth
Ġth irst
am ation
ĠA L
ĠC ab
ĠP ap
ĠB uend
ĠÚ©Ø§Ø± Ú¯Ø±ÛĮ
Ġal tered
Ġlo aded
ÛĮØ§ Ú©Ùģ
ĠØ¯Ùĩ ÙĦÛĮ
ĠO p
ĠÙħÙĤ Ø¯
Ġad ap
Ġres olve
Ġco oper
Ġlong ed
ĠØ¨Ø§Ø²ÛĮ Ú¯Ø±ÛĮ
ĠØ¨ÙĨ ÙģØ´
Ù¾Ø§ ÙĪÙĦ
Ġmar vel
Ġadm ired
ĠCo ast
ĠØ§ÙģÚ©Ø§Ø± Ø´
Ø§ÙģØ²Ø§Ø± ÙĩØ§ÛĮ
udd y
ĠÙĨØ§Ø² ÙĨÛĮÙĨ
ĠÙħØ¹Ø§Ø¯ÙĦ Ø§Øª
CH APTER
Ġgradu ated
ĠØ§Ø±Ú¯ Ø§ÙĨÛĮ
ĠVict oria
ĠØ¯ÛĮÙĪØ§ÙĨ Ú¯ÛĮ
ĠÙħÙĦØ§ÛĮ ÙħØª
ĠØ¬ÛĮÚ© ÙĪØ¨
G C
Ù Į
ĠØ¨ ÙĪØ´
ĠØª ÙĪØ±ÛĮ
an na
Ù¾ Ø§Øª
Ø® Ø§ÙħØª
ĠÙģ ÙĪØ§
ĠØŃ Ø±ÛĮÙħ
ĠØ¹ ÙĢ
ĠØ®ÙĪ Ø§Ø¨ÛĮ
ĠB eth
ry pt
ĠÚ©Ø´ ÙĨØ¯Ùĩ
ĠØ²ÛĮØ± Ø³Ø§Ø®Øª
ne cess
ĠÚĨØ´Ùħ Ùħ
ĠØªØºÛĮÛĮØ± Ø§ØªÛĮ
ĠØ³Ø¨ Ø¯
ĠØ·Ø¨ ÙĤØ§Øª
nect ed
ĠØ´ÙĨØ§Ø³ Ùĩ
ĠVal entine
ĠÙħÙĨØŃ Øµ
Ġmir acle
Pro fessor
Ġsym met
ĠSim on
ĠÙħØ¹Ø§ÙħÙĦ Ø§Øª
Ġalph abet
ĠÙħØ¹Ø´ÙĪ ÙĤÙĩ
, \
A ud
C omm
J ack
O fficial
} .
ÙĨ ÙģØ±
Ġt ube
Ú© Ø´Øª
ĠØ¨ Ø§ÛĮØ±
ĠØ¨ ÙģØ±ÙĪ
ĠØ¯ Ú©Ø§ÙĨ
Ġb anned
ĠØ¢ÙĨ Ø²ÛĮÙħ
Ġwe bs
ĠA T
ĠC ulture
Ġr ice
ig e
ĠÙģØ± Ø¨Ùĩ
Ġpro c
Ġch ocolate
ĠÂ £
ĠJ oh
ÙĪØ¨ Ú¯Ø§Ùĩ
Ġinc on
ĠØ¨Ø´ ÙĪÛĮ
ÙĪÙĦÙĪ ÚĺÛĮÚ©
ĠÙĨØ§Ø± ÙĨØ¬ÛĮ
Ġwarm th
ĠMos es
ĠSer ver
ĠØ´Ø±Ùħ ÙĨØ¯Ùĩ
fortun ately
ĠCir cle
Ġs oph
Ġw re
ĠØ® ÙħÛĮ
ĠÙ¾ Ø®ØªÙĩ
ĠØ¨ÛĮ Ú©Ø§Ø±ÛĮ
ÙĦØ§ Ú©Øª
Ø« Ø±ÛĮ
ĠL at
ĠÚ©ÙĪ Ø¨Ø§
ĠØ§ÙĦ ÙĦ
Ø§Ø¨ÙĦ Ø§ÙĨØ³Ú©ÛĮ
az ed
ĠØ¯Ø®ØªØ± Ùħ
ĠØ§Ø·ÙĦØ§ ÙĤ
up on
ÙħØ±Ø¯ ÛĮØ§Ú©Ùģ
ĠAnd erson
ĠØ²ÛĮØ¨Ø§ Ø¦ÛĮ
ĠÛ±Û¹Û·Û ¸
Ġfac ility
ĠÙģØ¶Ø§ ÙĩØ§ÛĮ
ĠIvan ovitch
Ġsequ ences
Ø´Ø§ Ø¡
Ġhal ted
ĠØ¯ÙĬ Ú¯Ø±
Ġstead ily
Ġsuffic iently
ĠÙĩØ§Ú¯ÙĪ Ø§Ø±ØªØ²
c ific
s ing
x y
er ick
Ġd at
ĠØ¬ Ø§Ø±
Ġbe es
ĠÚĨ ÛĮÚ©
ĠÙĤ ÙĪØ±
ĠS ydney
ĠA y
ĠÙĦ ÛĮØ¯
ĠØµ ÙĢ
ĠB ird
ĠR oss
ie ge
Ġres ent
Ġhapp ily
Ġinc omp
ĠGerman s
Ġdisplay ed
ĠÙģÛĮ Ø¨Ø±
Ø¬ÙħÙĩ ÙĪØ±ÛĮ
Ġaccess ible
ĠÛ±Û³Û ·Û
Ġtit led
Ġexch anged
ÛĮØ§Ø¯ Ùħ
ĠJul ia
ĠØ¨Ø±Ø§ÙĨÚ¯ÛĮ Ø®ØªÙĩ
Ġprepar ation
ĠSoft ware
H as
I F
W ork
Ġt id
Ú¯ Ø§ÛĮ
ĠØ´ Ø§ÙĩÛĮ
ĠØ¨Ø± Ø³Ùħ
em et
ĠT en
ĠÙģØ± Ø¹ÛĮ
ĠÙħØ¬ Ø§Ø±Ø³ØªØ§ÙĨ
ĠÙĪØ¬ÙĪØ¯ ÛĮ
ĠØ§ÙģØª Ø®Ø§Ø±ÛĮ
ĠØ¸ Ø±Ø§ÙģØª
ĠØªØ¨ Ø±ÛĮÚ©
Ġsub tle
Ġinv ite
ĠÙħÙĩÙħ ØªØ±
Ġvis itor
ĠBe ach
ĠØ¹Ø¶ ÙĪÛĮ
ĠÚ¯Ø±ÛĮ Ø³
yn ch
Ġsatisf y
ĠØ¶Ø±Ø¨ Ø§Øª
Ġbag s
Ġvent ure
ĠPortug uese
ĠØ²Ø§ÛĮ ÙħØ§ÙĨ
ĠPenn sylvania
M uch
r ac
ar ter
ĠÙĩ Ø²
ĠØ³ Ø§Ú©
ĠÙ¾ ÙĦØ§Ø³
im mer
ith m
ĠS ky
Øº Øª
Ġex ert
ous ed
act s
ru p
ĠÙħÙĤ ØµØ±
ĠÚ©ÙĦ Ú©
Wh atever
Ġpre y
ÙģÛĮ Ø³
ĠÙ¾Ø¯Ø± Øª
ĠÙħØ± Ø¶
Ġfour teen
ĠÛ±Û¹Û¶Û ¹
Ġtransport ation
Ġspat ial
f ire
Ø² ÙħÙĩ
ĠØ¬ ÙĢ
ĠØŃ ÙĢ
ĠC ode
ĠÙĦ ÙĪØ±
ĠØ¨ÛĮ ÙĪÙĦÙĪÚĺÛĮÚ©ÛĮ
Ġcon vention
ĠR ub
ĠR uth
Ġv oc
ĠØ¨Ø§Ø² Ú¯Ø±Ø¯Ø¯
ud der
ĠØ¹Ùħ Ø¯Ø§
ĠØ³Ø§Ø®Øª Ùħ
ĠØ§Øµ ÙĪÙĦØ§
ĠØªÙĤ ÙĦØ§
Ġsl ide
Ġgu ilt
oun cing
ĠØ§ÙĤ ÙĦÛĮÙħ
Ø¨Ø¹ Ø¯ÛĮ
Ġsix teen
ĠÙħØ´Ø®Øµ Ùĩ
ÙĤÛĮÙħ Øª
Ġsecret ly
ĠÙĬ Ú©
Ġemer ging
ĠØ¨Ø®ÙĪØ§ÙĨ Ùħ
ĠÙĤØ±Ø§Ø±Ø¯ Ø§Ø¯ÛĮ
ĠÙ¾Ø±ÚĨ ÛĮÙĨ
ĠMich igan
Ġinqu iry
Ġdemonst rated
ĠØŃÙĪØ§Ø³ Ø´
Ġpill ow
Ø®Ø¯Ø§ÛĮ Ø§
bour g
Ġprovin ces
ĠØªØ¯Ø§Ø± Ú©
S ix
w ering
Ã «
Ùħ ØŃÛĮ
ĠØ¨ Ø¨Ø®Ø´
Ø´ Ø§ÙĨÙĩ
ĠÚ© Ø¨ÛĮØ±
ĠÙĨ Ø±Ø¯
Ġh ind
Ø¬ Ø§Ø±
ĠØ¨Ø§ Ø®ØªÙĩ
ĠØ¨Ø± Ø¹ÙĩØ¯Ùĩ
ĠØ² ÙĦØ²
Ġwh ales
ke ley
ĠB ack
ĠB ang
ĠØ³Ø§ÙĦ Ø®ÙĪØ±Ø¯Ùĩ
ĠW ild
ÙĬ Ø´
ĠØ§Ø³ ÙĦÙĪ
ĠØ§Ùģ Ú©ÙĨØ¯Ùĩ
ĠÙĨØ´Ø§ÙĨ Ú¯Ø±
ĠØ¬Ø§ ÙĪØ¯
ĠØ¨ÙĨ Ø²ÛĮÙĨ
ĠÙĦÛĮ Ú©Ø±
ĠØ®ÙĪØ§Ø¨ Ø´
ĠØªÚ© Ø«ÛĮØ±
ĠÚ©ÙĪØª ÙĪØ²ÙĪÙģ
ĠØ®ÙĪØ±Ø¯ Ùħ
Ġ194 3
Ġrespect ed
Ġcircumst ance
enes mee
Ġbehavi ors
Ġcomr ades
Ġencoun ter
7 7
S er
ĠØ± Ø¶Ø§
Ø§Ø± ÙĨØ¯
ĠÙĨ ØªÙĪØ§ÙĨØ³ØªÙħ
Ø±Ø¯ Ú¯Ø§Ø±
ØŃ Ø§Ø¶
ØªØ± Ø§
ist ing
ĠÙ¾Ø± Ø³ÛĮ
ĠÙħÙĪØ±Ø¯ ÛĮ
Ġwr ink
ĠØ¨ÙĨ Ø§Ø¨Ø±
Ġexp osure
ĠØ´ÙĪ Ø§ÙĦÛĮÙĩ
ĠØ§Ø± ÙĤØ§Ùħ
Ø²ÙĨ ÛĮÙħ
oll o
ĠØ¹Ø² Ùħ
ĠØ¨Ø±Ú¯Ø´Øª ÙĨØ¯
Ġparticip ation
Ġpositive ly
ĠØ¢ÙģØ± ÛĮÙĨ
Ġsam ples
ĠStr ick
ĠØ¨Ø±Ø³Ø§ÙĨ ÙĨØ¯
Ġpist ol
ĠÙħÙĨØªÙĤ Ø¯Ø§ÙĨ
ĠØ²ÙĦØ² ÙĦÙĩ
F rench
P re
ĠÙħ ÙģØ±
ĠÙĩ Ø§ÙĨÛĮ
ĠØ³ ÛĮÚ©
Ġon going
ĠM ind
ĠØ±ÙĪ ÙħØ§ÙĨÛĮ
ĠP orthos
ĠB and
ĠØ³Ø± ØŃØ§ÙĦ
qu et
ĠT alk
ĠÙĩØ± Ú©Ø³ÛĮ
lo se
ĠØ¯Ùĩ ÙĤØ§ÙĨ
ĠO nt
ĠV ideo
Ø§Ø® ÙĪØ±ÛĮ
Ġbr ush
ivers ary
ĠØªØµÙĪØ± Ø§Øª
St ud
Ġfig ured
ĠÛ±Û¹Û·Û ±
Ġthr one
Û±Û¹Û ¸Û
Ġcop per
ĠÙħÙĤØ± Ø±
ĠØ¯Ø² Ø¯Ø§ÙĨ
Ġdisapp ointment
ĠMic hel
Ġforb idden
ĠØ´Ø±Ú© ØªÛĮ
Ġath let
ĠÙħØ¶ØŃ Ú©
Ġfoss il
Ġrig id
ĠØªØ³Ùĩ ÛĮÙĦ
C S
R ep
ÙĤ Ø¯Ùħ
ÙĨØ¯ Ø±
ĠØ§Ø² Ùħ
ĠS ondra
ĠÚ©ÙĨ ÙĪØ§ÙĨØ³ÛĮÙĪÙĨ
ĠØ®ÙĪ Ø§Ø¯
ĠB umble
Ġj et
ass er
ĠK utuzov
ĠÙ ¢
ĠØªØŃ Ø±ÛĮÙħ
ĠY ears
Ġpres ently
Ġtrans mit
Ġanim ation
ĠÙ¾Ùĩ ÙĨØ§
ĠÛ±Û¹Û¶Û µ
Ġhistor ic
ĠÙħØ§Ø³ Ùĩ
ĠØ§ÙĨØ¹ Ú©Ø§Ø³
ÚĨØ´ÙħØ§ÙĨ Ø´
ĠÙĨÙĪÙħ ÛĮØ¯
ĠÙħØ¹Ø§Ø´ Ø±Øª
ĠMedic ine
ĠÚ©Ø§Ø±ÙĪÙĦÛĮÙĨ Ø§ÛĮ
Ġfootst eps
L ong
ÙĦ ÙĪØ§ÙĨ
âĢ ¬
Ø¨ Ø¨ÛĮÙĨÛĮØ¯
Ġw ages
ĠØª Ø®ØµØµ
Ġp atch
Ġin e
ĠØ® Ø§Ø³Øª
ĠØ¢ÙĨ ØªÙĪÙĨÛĮ
Ġre nder
ĠÙĤ Ø§ÛĮÙħ
ur ches
ĠD irect
ig a
ĠÙģØ± ÙĤÙĩ
Ġout comes
Ø±Ø³ Ùĩ
act ory
ass y
ang es
ĠSt adium
ĠØ³ÙĪ Ø§Ø±Ùĩ
ĠØµÙĪØ±Øª Ùħ
ĠØ³Ùĩ ÙħÛĮ
Ġend less
ĠØ´Ùĩ Ø§ÙħØª
Ġmin ing
Ġsqu ad
Ar ab
ÙĪØªÛĮ Ú©
ĠÛĮØ® ÚĨØ§ÙĦ
ĠÙħÙĪØ³ ÙĪÙħ
Ġcool ing
ĠÙģØ±Ø³ØªØ§Ø¯ ÙĨ
inc oln
Ġsuspic ious
ĠÛĮÙĦ Ø¯Ø§
ĠØ¢Øª Ø´ÛĮ
ĠHT ML
B L
a way
f irst
h as
ĠÚ© ÛĮÙħ
Ú¯ ÙĪÙĦ
Ġb ite
Ù¾ Ø±Øª
ĠØ§Ø² Ø§ÛĮÙĨ
ic ular
ll en
Ġre ly
ĠC ru
ol ving
Ġint ensity
ĠV el
ĠÙĨØ§Ùħ ÙĨ
Ø§Øµ Ø¯
ĠØ§Ø¬ Ø²Ø§
iss a
Ġind irect
ĠØ±ÛĮ ÛĮØ³
Ġpass enger
up in
ĠÙħØ±Ú¯ Ø¨Ø§Ø±
ĠÙĪØ³ Ø¹Øª
Ġmil it
ĠWe ek
ĠÙĨÚ¯Ø± Ø´
ĠØ¬Ø³ Ø§Ø±Øª
Ġindepend ently
Ġpack age
Ġdetermin ation
ĠSu pp
Ġconcent rated
Ġperce ive
Ġwitness es
ĠÙħØ·Ø¨ÙĪØ¹ Ø§Øª
Ġdiagn osis
ĠÙĤÙĪØ§ Ø¹Ø¯
ĠStrick land
M T
P aul
Ð ¼
ĠÙĪ Ø§ÙħÛĮ
ÙĤ ÙĦÙĪ
ĠØª Ø¯ÙĪÛĮÙĨ
ĠÙħÛĮ Ø¯ÙĩÙĨØ¯
Ġh arp
Ġf iring
Ġp ul
Ġl ing
Ġl ingu
Ġwas ted
ĠM R
ab e
ĠØ¨Ø§Ø² Ú¯ÙĪ
Ø±Ø³ Ø§ÙĨ
Ø¬Ùĩ Øª
Ġun con
ĠØ¯ÛĮØ¯ ÛĮØ¯
Ġrec onst
ĠØ´Ùħ Ø§Ø±Ø´
Ġsub stit
Ġz o
ĠAnt ar
ĠInt el
ĠØ´Ú©Ø§Ø± ÚĨÛĮ
Ø§ÙģØ² ÙĪØ¯
ĠØ¨Ø§Ø²ÙĨØ´ Ø³ØªÚ¯ÛĮ
ĠArag orn
ÙĦ Ø¹
Ø¨ ÙĤ
Ġc ake
Ġc ents
Ġst out
ĠS her
ri p
ĠC re
ÙħØ§ÙĨ Ø³Øª
ĠÙĦ Ø§Ø´
ĠL ang
ĠF a
Ġle ap
ĠÙ¾Ø§ÛĮ ÛĮØ²
ĠØ§ÙĨØª Ø¸
vel ength
ĠÙĥ ÙĨØ¯
Ø®ÙĪØ±Ø¯ Ú¯ÛĮ
Ġstr ain
Ġfin ance
ĠØ¨ÙĢ ÛĮ
Ġris en
Ġ193 7
ĠØ®Ùħ ÛĮØ¯Ùĩ
Ġbank ing
Ġdam aged
Ġamaz ement
Ġsurv iv
Ne ither
Ġcalm ly
ĠÙĨØ¹ ÙħØª
ĠBor is
ĠÙ¾Ø´ÛĮÙħ Ø§ÙĨÛĮ
ĠThen ardier
ĠØ³Ø§ÙĤ Ùĩ
ĠMot or
y ard
Ã ¦
å ħ
Ġb id
Ġh ut
ĠØ³ ÙĪØ±ØªÙħÙĩ
Ø±ÛĮ Ø¨ÛĮ
ro gen
od a
Ġcon vert
Ġman kind
Ġdis orders
ĠØ§ØŃ ÛĮØ§
we g
Ġgr ant
ĠØ§Ùģ ÙĤÛĮ
Ġpo ems
Ù¾ÛĮ ÚĨÛĮ
ĠØ±ÛĮ Ø³ÙħØ§ÙĨ
ĠÛĮÙĩ ÙĪØ¯
ĠSp ir
Ġexpl ains
ĠØ§Ø¨Ø± ÙĩØ§
ĠÙĤÙĦ Ø§Ø¨
Ġ193 5
ĠÎ ±
Ġbound aries
Ġthreat ening
cos ystem
Ġcontribut e
Ø§ÙĪÙĦÛĮ ÙĪØ±
Ġcurt ain
Ġavo ided
Ġwip ed
Ø§ Ø¡
ĠØ¨ Ú©Ø´ÛĮØ¯
Ùģ Ø§Ú©Ø³
ĠÙĨ Ø±ÙģØª
Ġm ate
ĠØ´ ÙĨÛĮ
Ġto mb
as cus
ĠØ¨Ø§ ØªÙĦØ±
Ġhe els
ĠØ§Ø³Øª Ø§Ø±
Ø§Ùĩ ÙħÛĮØª
ir rel
ir teen
ĠÙħÙĨ ØµÙģ
ĠM D
Ġcom ments
ĠR y
ĠØ¯Ø§Ø´Øª ÙĨÛĮ
ĠÙĨÛĮ ÙĪÙħ
ĠØ¨Ø³ Ø§
ĠØ¹ÙĪ Ø§ÙĤØ¨
ĠÚĺÙĨ ØªÛĮÚ©
Ġill um
ĠRuss ians
ĠÙĤÙĩ ÙĤÙĩ
ĠMer ry
rif ied
ĠSing apore
ĠÙ¡ Ù
ĠÙħØ¹Ø· ÙĪÙģ
Ġeyebr ows
Ġmagnific ent
E F
F red
e h
Ùħ Ú¯Ùĩ
âĢĮ !
ĠØ¨Ø± ÛĮØ²
ÙģØª Ø±
Ġst y
ĠÙĦ ÙĪÛĮÛĮ
ain ment
ÙĪÙħ Øª
Ġgr ain
ĠØ¨ÙĦ Ø§ÛĮÛĮ
ØµØ¯ Ø§ÛĮÛĮ
Ġrep ublic
ĠÙ¾ÙĪÙĦ Ø´
ĠØ¹Ø¶ ÙĦØ§Øª
Ġpost er
Ġrespect able
ĠÛ±Û¹Û´Û ¸
Ġcam ps
Ġdisp osed
uls ion
ĠØ¨ÙģØ±Ø³Øª Ø¯
Ġcurt ains
ĠÙħØ±Ùħ ÙĪØ²
Ġgramm ar
m ont
t ill
Ã ª
ĠØ¨ Ø¬Ø§
in cluding
ĠØ± ÙĦÛĮ
ĠØ± Ø§ÛĮØª
ĠØ¯Ø± ÙĩØ§
Ġm m
Ø¬ ÙĦÙĪ
ÛĮØ¯ Ú¯ÛĮ
Ø§Ùħ Ø´Ø¨
Ġre ception
ĠS ome
op hers
ĠÚ©Ø§Ø± Ø¯ÛĮÙĨ
ĠH as
Ø§ÛĮØ¯ Ø§Ø±
ci ation
ack ed
Ġen ch
ĠV ienna
Ġper m
Ġper cept
Ġbr on
Ġcons pir
Ġrel ate
pect or
ĠØ²Ø¨Ø§ÙĨ Ø´
ĠØ¨ÙĨ ÙĪÛĮØ³Ùħ
ĠSe g
ĠØ§Ø¹Øª ÙĨØ§
Ġcommand ed
ĠÚ©Ø´ÛĮ Ø´ÛĮ
ĠMor rel
Re ally
ĠØ±ÙħØ² Ú¯Ø°Ø§Ø±ÛĮ
Ø¢Ø² ÙħØ§ÛĮØ´
ĠØ§ÙħÙ¾Ø±Ø§ Ø·ÙĪØ±ÛĮ
bur gh
Ø³Ø±Ùĩ ÙĨÚ¯
Ġpolitic ian
Ġenvelop e
Ġtraged y
J apan
M el
o en
r ade
Ø¯ ÙĦÛĮ
ÙĦ ÙĪØ¯
ÙĤ Ø§ÛĮÛĮ
is ure
ĠØ´ ÛĮÙħ
ĠØ® ÙĬÙĦ
Ġth umb
ĠÙģ Ø§Ú©Ø³
Ġwe eping
ĠC ook
ĠØµ Ø¯Ø±
Ø§ÙĤ Ø¹ÛĮ
ĠT am
ĠF orm
ĠÚ¯Ø± Ø§ÙĨØ´
Ġro ses
ĠÙ¾Ø§ÛĮ ÛĮÙĨÛĮ
Ġdes ir
ne g
ĠØ²ÙĨ Ùħ
ĠØ¬Ø§ÙĨ Ø³ÙĪÙĨ
Ġrest ore
Û±Û ¹
Ġdep ressed
Ġtem por
Ø§Ø¯ÙĦ ÙĨ
Ġemp ire
ĠÛ±Û¹Û¸Û ±
ĠØ¶Ø± Ø¨Ø§ÙĨ
ĠØ³ÛĮÙĨ ÙħØ§ÛĮÛĮ
Ġmad ness
ÙħØ± Øº
ĠMal ays
Ø§ÙĦÙĪ Ú¯
ĠØ¹Ø§ÙĤÙĦ Ø§ÙĨÙĩ
ĠOb ama
Ġshri ek
ÙģØ¯Ø± Ø§Ø³ÛĮÙĪÙĨ
j amin
ÙĪ ÙĨØ¯Ùĩ
ĠÚ© Ø±Ø§ÙģØ±Ø¯
Ø§Ø± Ø¨Ø§Ø¨
ĠÙĨ Ø·
ĠÙħÛĮ Ú¯ÙĪÛĮÙħ
Ġf ake
Ġp add
Ġp ione
Ġn ost
ay er
ĠS lo
ĠL ook
ĠL iter
ĠE ric
ĠØ§ÙĦ ØŃ
ĠØ¨ÙĦ ÙĪØ±
ĠØ¨Ø® Ø±Ø¯
ĠØ¨Ø§Ø´ ÛĮÙĨ
[...]
