{"<s>":0,"<pad>":1,"</s>":2,"<unk>":3,"!":4,"\"":5,"#":6,"$":7,"%":8,"&":9,"'":10,"(":11,")":12,"*":13,"+":14,",":15,"-":16,".":17,"/":18,"0":19,"1":20,"2":21,"3":22,"4":23,"5":24,"6":25,"7":26,"8":27,"9":28,":":29,";":30,"<":31,"=":32,">":33,"?":34,"@":35,"A":36,"B":37,"C":38,"D":39,"E":40,"F":41,"G":42,"H":43,"I":44,"J":45,"K":46,"L":47,"M":48,"N":49,"O":50,"P":51,"Q":52,"R":53,"S":54,"T":55,"U":56,"V":57,"W":58,"X":59,"Y":60,"Z":61,"[":62,"\\":63,"]":64,"^":65,"_":66,"`":67,"a":68,"b":69,"c":70,"d":71,"e":72,"f":73,"g":74,"h":75,"i":76,"j":77,"k":78,"l":79,"m":80,"n":81,"o":82,"p":83,"q":84,"r":85,"s":86,"t":87,"u":88,"v":89,"w":90,"x":91,"y":92,"z":93,"{":94,"|":95,"}":96,"~":97,"¡":98,"¢":99,"£":100,"¤":101,"¥":102,"¦":103,"§":104,"¨":105,"©":106,"ª":107,"«":108,"¬":109,"®":110,"¯":111,"°":112,"±":113,"²":114,"³":115,"´":116,"µ":117,"¶":118,"·":119,"¸":120,"¹":121,"º":122,"»":123,"¼":124,"½":125,"¾":126,"¿":127,"À":128,"Á":129,"Â":130,"Ã":131,"Ä":132,"Å":133,"Æ":134,"Ç":135,"È":136,"É":137,"Ê":138,"Ë":139,"Ì":140,"Í":141,"Î":142,"Ï":143,"Ð":144,"Ñ":145,"Ò":146,"Ó":147,"Ô":148,"Õ":149,"Ö":150,"×":151,"Ø":152,"Ù":153,"Ú":154,"Û":155,"Ü":156,"Ý":157,"Þ":158,"ß":159,"à":160,"á":161,"â":162,"ã":163,"ä":164,"å":165,"æ":166,"ç":167,"è":168,"é":169,"ê":170,"ë":171,"ì":172,"í":173,"î":174,"ï":175,"ð":176,"ñ":177,"ò":178,"ó":179,"ô":180,"õ":181,"ö":182,"÷":183,"ø":184,"ù":185,"ú":186,"û":187,"ü":188,"ý":189,"þ":190,"ÿ":191,"Ā":192,"ā":193,"Ă":194,"ă":195,"Ą":196,"ą":197,"Ć":198,"ć":199,"Ĉ":200,"ĉ":201,"Ċ":202,"ċ":203,"Č":204,"č":205,"Ď":206,"ď":207,"Đ":208,"đ":209,"Ē":210,"ē":211,"Ĕ":212,"ĕ":213,"Ė":214,"ė":215,"Ę":216,"ę":217,"Ě":218,"ě":219,"Ĝ":220,"ĝ":221,"Ğ":222,"ğ":223,"Ġ":224,"ġ":225,"Ģ":226,"ģ":227,"Ĥ":228,"ĥ":229,"Ħ":230,"ħ":231,"Ĩ":232,"ĩ":233,"Ī":234,"ī":235,"Ĭ":236,"ĭ":237,"Į":238,"į":239,"İ":240,"ı":241,"Ĳ":242,"ĳ":243,"Ĵ":244,"ĵ":245,"Ķ":246,"ķ":247,"ĸ":248,"Ĺ":249,"ĺ":250,"Ļ":251,"ļ":252,"Ľ":253,"ľ":254,"Ŀ":255,"ŀ":256,"Ł":257,"ł":258,"Ń":259,"ĠØ":260,"Ø§":261,"ÛĮ":262,"ÙĨ":263,"Ø±":264,"Ùĩ":265,"ÙĪ":266,"Ùħ":267,"Ø¯":268,"Øª":269,"Ġt":270,"Ú©":271,"ĠØ¨":272,"he":273,"ĠØ§":274,"Ġa":275,"ĠÙħ":276,"ÙĦ":277,"Ø³":278,"in":279,"âĢ":280,"Ø´":281,"âĢĮ":282,"ĠØ¯":283,"ĠÚ©":284,"Ø²":285,"Ø§ÙĨ":286,"Ġthe":287,"Ø¨":288,"re":289,"Ġo":290,"Ġs":291,"Ġw":292,"Ú¯":293,"Ø§ÛĮ":294,"Ùģ":295,"ĠÙĪ":296,"er":297,"nd":298,"ĠØ±":299,"at":300,"Ø§Ø±":301,"Ø³Øª":302,"ÙĤ":303,"ÙĨØ¯":304,"on":305,"is":306,"ĠØĮ":307,"ou":308,"it":309,"ĠÙĨ":310,"Ġc":311,"ed":312,"Ġb":313,"en":314,"ÛĮÙĨ":315,"ĠØª":316,"ĠÙħÛĮ":317,"ÙĪØ¯":318,"Ġh":319,"Ġf":320,"or":321,"ĠØ¯Ø±":322,"Ġm":323,"ĠØ¨Ùĩ":324,"an":325,"ing":326,"Ġof":327,"Ù¾":328,"es":329,"ĠØ´":330,"ĠÚ©Ùĩ":331,"Ġto":332,"ĠØ¢":333,"ar":334,"Ġp":335,"ĠÙĩ":336,"Ø¹":337,"ĠØ³":338,"Ø±Ø¯":339,"Ġin":340,"Ġd":341,"al":342,"Ø®":343,"ĠØ®":344,"ĠØ±Ø§":345,"Ġand":346,"as":347,"Ġth":348,"ÚĨ":349,"ĠØ§Ø²":350,"Ø§Ø¯":351,"Ġl":352,"Ø¬":353,"ÛĮØ¯":354,"Ø§ÙĦ":355,"ĠÙ¾":356,"ic":357,"om":358,"Ø§Ùħ":359,"ĠØ¨Ø§":360,"le":361,"ØŃ":362,"Ġn":363,"ĠÛĮ":364,"ÙĪØ±":365,"ll":366,"ĠÚ¯":367,"ion":368,"ĠØ¨Ø±":369,"Ġhe":370,"ĠØ§ÛĮÙĨ":371,"ĠØ¬":372,"Ġg":373,"ĠØ§Ø³Øª":374,"Ġe":375,"ÙĩØ§ÛĮ":376,"ĠØ¨ÙĪØ¯":377,"Ġbe":378,"Ø·":379,"ly":380,"ÙģØª":381,"ÙĪÙĨ":382,"ot":383,"st":384,"ad":385,"ĠÚĨ":386,"ve":387,"Ø§Ùĩ":388,"ĠÙģ":389,"Ø´Øª":390,"ent":391,"ow":392,"ÙĩØ§":393,"Ø±ÛĮ":394,"ut":395,"ĠØ¢ÙĨ":396,"ĠØŃ":397,"im":398,"ÙĦÛĮ":399,"id":400,"Ġre":401,"se":402,"ĠØ²":403,"Øµ":404,"Ġthat":405,"ÙħÛĮ":406,"ÙĪÛĮ":407,"Ġy":408,"ld":409,"ac":410,"ĠI":411,"ĠÙĩÙħ":412,"et":413,"Ġwas":414,"Ġon":415,"Ø¯Ùĩ":416,"ÛĮØ±":417,"ro":418,"ĠØ¹":419,"Ġis":420,"gh":421,"ver":422,"Ø§Ø¨":423,"ĠÙĤ":424,"ĠÛĮÚ©":425,"ay":426,"Ġu":427,"ÛĮÙħ":428,"Ġit":429,"ir":430,"Ø§Øª":431,"Ġyou":432,"am":433,"ur":434,"ĠÚ©Ø±Ø¯":435,"Ġfor":436,"Ġwh":437,"Ġ(":438,"Ø§Ø²":439,"The":440,"ith":441,"ĠØ§ÙĪ":442,"Ġst":443,"Ġwe":444,"ÙĪØ§ÙĨ":445,"Ø³ÛĮ":446,"ĠÙħÙĨ":447,"ct":448,"ĠS":449,"ĠÛ":450,"ce":451,"Ġwith":452,"Ġas":453,"ĠA":454,"ri":455,"ter":456,"Ú¯Ø±":457,"ch":458,"ØªØ±":459,"ĠM":460,"'s":461,"ØªÛĮ":462,"Ø¯Ø±":463,"ĠC":464,"Ġan":465,"and":466,"ol":467,"ation":468,"her":469,"il":470,"ĠØ¨Ø±Ø§ÛĮ":471,"ÙĪÙĦ":472,"ĠØ®ÙĪØ¯":473,"ÙħØ§":474,"ĠÚ©ÙĨ":475,"Ø±ÙĪ":476,"Ġhis":477,"Ø¶":478,"Ú©ÙĨ":479,"Ø§Ø´Øª":480,"if":481,"Ø±Ø§":482,"ÙħØ§ÙĨ":483,"Ġat":484,"Ø§Ø±ÛĮ":485,"ght":486,"Ø¢":487,"ke":488,"ÙĨÚ¯":489,"ÛĮØ²":490,"ĠÙĦ":491,"ĠØ±ÙĪ":492,"Ġnot":493,"ĠØ´Ø¯":494,"ĠØ¨ÛĮ":495,"Ø¸":496,"Ø®Øª":497,"Ġha":498,"od":499,"ĠØµ":500,"Ø°":501,"Ø§Ø¯Ùĩ":502,"Ġse":503,"ĠØ®ÙĪ":504,"ul":505,"Ġhad":506,"ould":507,"ain":508,"Ġ\"":509,"Ġ1":510,"ĠÙħÙĪ":511,"ĠP":512,"th":513,"ÙĦØ§":514,"Ġde":515,"ill":516,"ag":517,"us":518,"op":519,"Ġher":520,"ĠØ¯Ø§Ø±":521,"Øº":522,"ĠØ·":523,"ĠB":524,"Û°":525,"Ø§ÙĨÛĮ":526,"ore":527,"Ġme":528,"ist":529,"ĠØ´Ø¯Ùĩ":530,"ĠØ¯ÙĪ":531,"Ø«":532,"Ø´Ø¯":533,"Ú¯ÛĮ":534,"ĠØ§ÙĨ":535,"ess":536,"rom":537,"..":538,"Ġcon":539,"um":540,"Ø§Ø³":541,"Ġcom":542,"ĠâĢ":543,"Ú©Ùĩ":544,"ĠØªØ§":545,"pe":546,"Ø¨Ùĩ":547,"ĠØªÙĪ":548,"Ġr":549,"Ġk":550,"ĠØ¯ÛĮ":551,"Ø¦":552,"Ġare":553,"ab":554,"Ġby":555,"Ø§ÙĨÙĩ":556,"red":557,"Ø¨ÛĮ":558,"ĠØ³Ø±":559,"un":560,"ant":561,"Ø§Ø³Øª":562,"Ġsh":563,"Ġ*":564,"Ġor":565,"ĠÚ©Ø§Ø±":566,"em":567,"Ġhave":568,"Ø§ÙĤ":569,"os":570,"el":571,"ers":572,"Ø§ÛĮÛĮ":573,"Ġhim":574,"Ġne":575,"Ġli":576,"Ġex":577,"ĠØŁ":578,"qu":579,"Ġthis":580,"ĠG":581,"est":582,"Ø§ÛĮÙĨ":583,"ĠR":584,"Ġfrom":585,"Ġsu":586,"Ø¯ÛĮ":587,"ĠD":588,"±Û":589,"pp":590,"ĠÙ¾ÛĮ":591,"Ġdo":592,"Ġal":593,"ate":594,"Ġv":595,"ĠÚ¯ÙģØª":596,"ig":597,"ĠØ¯Ø§Ø´Øª":598,"Ġso":599,"Ú©Ø±Ø¯":600,"res":601,"ĠÙħØ§":602,"ĠÛĮØ§":603,"ity":604,"Ø®ÙĪ":605,"ĠÙĨÙħÛĮ":606,"Ú¯Ø§Ùĩ":607,"nt":608,"ĠL":609,"ÙĨÛĮ":610,"ĠT":611,"ĠÙģØ±":612,"art":613,"Ġpro":614,"ard":615,"all":616,"Ú©ÛĮ":617,"Ġall":618,"Ø¨Ø±":619,"ĠH":620,"out":621,"ort":622,"ĠØ³Ø§ÙĦ":623,"Ġgo":624,"ust":625,"ĠF":626,"ĠE":627,"ok":628,"Ġab":629,"Ġlo":630,"Úĺ":631,"ĠØ¯Ø³Øª":632,"Ø§ÛĮØ¯":633,"ap":634,"Ø¨Ø§":635,"Ġch":636,"ÛĮØ³Øª":637,"ich":638,"Ø§ÙĪ":639,"Ġthey":640,"Ġ2":641,"Ġwor":642,"au":643,"ÙĤÛĮ":644,"ÙĩØ±":645,"Ġshe":646,"ome":647,"ØªÙĪØ§ÙĨ":648,"ÙĦÙĩ":649,"Ø¹ÛĮ":650,"Ø´Ø§ÙĨ":651,"Ġ=":652,"Ġwhe":653,"Ø§Ø±Ùĩ":654,"ive":655,"ÙĨØ¯Ùĩ":656,"Ġwere":657,"ie":658,"ally":659,"ĠÙĩØ±":660,"'t":661,"Ø§ÙĨØ¯":662,"ĠÂ":663,"ĠN":664,"ÙģØ±":665,"Ġsa":666,"Ġmy":667,"ĠÚ¯Ø±":668,"He":669,"very":670,"ĠW":671,"ÛĮØ§":672,"our":673,"rou":674,"ĠÙħØª":675,"ĠØ¨Ø§Ø²":676,"ies":677,"ak":678,"Ġcan":679,"Ġone":680,"Ġint":681,"ast":682,"ĠÙĩØ³Øª":683,"ĠØ¢Ùħ":684,"Ø¹Ø¯":685,"ĠÛ±Û":686,"ÛĮØ¯Ùĩ":687,"ĠØ§ÛĮ":688,"Ġup":689,"Ġkn":690,"ight":691,"ame":692,"ge":693,"Ø±Ùģ":694,"ous":695,"ĠÙħØŃ":696,"Ġle":697,"00":698,"ry":699,"Ø§Ø®Øª":700,"ĠØŃØ§ÙĦ":701,"ĠØº":702,"ong":703,"ind":704,"Ú©Ø±":705,"ell":706,"Ġj":707,"ÙħÙĨ":708,"ci":709,"Ġwhich":710,"iv":711,"ack":712,"ide":713,"Ø§Ø´":714,"Ġout":715,"ÙĪÙħ":716,"Ø¨Øª":717,"ĠJ":718,"ÙĩÙħ":719,"ment":720,"ÙĪØ´":721,"ĠÙħØ¹":722,"one":723,"Ø±Ú©":724,"ra":725,"ÙĬ":726,"ĠØ§Ø³":727,"ĠÚĨÛĮØ²":728,"Ġwho":729,"ĠÚĨÙĩ":730,"Ġwould":731,"Ġthem":732,"Ġus":733,"ÙĪØ±ÛĮ":734,"ĠØ¯Ø§Ø¯":735,"Ġbut":736,"And":737,"ÙĢ":738,"ure":739,"It":740,"ÙĪØ²":741,"ĠØ¨Ø¯":742,"ost":743,"ÙģØªÙĩ":744,"Ġman":745,"ther":746,"ĠØ±ÙĪÛĮ":747,"ÚĨÙĩ":748,"ine":749,"Ø´ÙĪØ¯":750,"ĠØ§Ùħ":751,"fe":752,"Ġpl":753,"Ġ19":754,"ud":755,"Ùĭ":756,"ĠØ´ÙħØ§":757,"ĠØ¯ÛĮÚ¯Ø±":758,"Ġthere":759,"Ġabout":760,"pt":761,"Ġtheir":762,"Ø¬Ø§":763,"Ø±Ø³":764,"Ġ-":765,"own":766,"ÙĶ":767,"ĠÙĨØ¯":768,"Ġwhat":769,"Ø´ÙĨ":770,"Ø§Ø¯ÛĮ":771,"Ø§Ùģ":772,"Ø¬Ùĩ":773,"ĠÚ©Ø±Ø¯Ùĩ":774,"ace":775,"ĠÙĩÙħÙĩ":776,"ear":777,"Ø§Ø±Ø¯":778,"ran":779,"ĠÙħØ±Ø¯":780,"Ø§ÙĦÛĮ":781,"Ġbeen":782,"lo":783,"Th":784,"ĠÙĤØ±":785,"ĠÛ²":786,"ated":787,"ia":788,"ber":789,"ĠÙĨØ¸":790,"ime":791,"Ġno":792,"¹Û":793,"ĠÚ©Ø´":794,"sel":795,"Ú©ÙĨØ¯":796,"ĠÙĨÙĪ":797,"ĠÚ©ÙĨØ¯":798,"Ġsaid":799,"ck":800,"Ġ'":801,"Ġlike":802,"ÛĮÙĦ":803,"Ġmore":804,"ake":805,"ĠØ¯Ùĩ":806,"are":807,"ĠØ¯Ø§Ø±Ø¯":808,"ian":809,"ĠØ®ÙĪØ§Ùĩ":810,"ice":811,"ÛĮÙĦÛĮ":812,"Ø±Ú¯":813,"ĠØ¨Ø²":814,"Ġim":815,"ond":816,"ĠÙ¾ÛĮØ´":817,"act":818,"Ġun":819,"Ø§ÙħØ§":820,"ĠÙĩÛĮ":821,"age":822,"Ġag":823,"pl":824,"Ø´Ùħ":825,"ÙĤØª":826,"itt":827,"og":828,"ĠÙħØ´":829,"ink":830,"Ø±Øª":831,"ass":832,"Ġen":833,"In":834,"...":835,"ĠK":836,"Ġpe":837,"per":838,"ĠO":839,"ĠâĢĵ":840,"Ø§Ú©":841,"ĠÚ©ÙĪ":842,"Ġcould":843,"ven":844,"iz":845,"ions":846,"ĠØ§ÙĨØ¯":847,"Ġwhen":848,"ite":849,"hing":850,"ÛĮÚ©":851,"ru":852,"ĠU":853,"Ġother":854,"Ø§ÙħÙĩ":855,"Ø¬ÙĪØ¯":856,"hed":857,"ĠØ¨Ø§Ø´Ø¯":858,"Ġdis":859,"Ġar":860,"ip":861,"ĠÚ©Ùħ":862,"Ø±Ùĩ":863,"so":864,"ĠÙħØ³":865,"ound":866,"ĠØªÙĨ":867,"ÙħØ§ÛĮ":868,"Ġhas":869,"ary":870,"Ġif":871,"ĠØ§ØŃ":872,"ĠØ§ÙĦ":873,"Ġcomp":874,"Ġinto":875,"Ġsome":876,"ence":877,"ÙĩØ§ÛĮÛĮ":878,"ĠØ±ÙĪØ²":879,"Ø¹Ùĩ":880,"ĠØªØ±":881,"Ġro":882,"ÙħÛĮÙĨ":883,"ĠØ§Øª":884,"ĠØ¨ÙĪØ¯ÙĨØ¯":885,"Ø¹Øª":886,"Ø¯Ùħ":887,"Ġqu":888,"Ġsp":889,"reat":890,"Ġyour":891,"Ġtime":892,"ble":893,"Ġtw":894,"ep":895,"Ġany":896,"Ø´Ùĩ":897,"ĠÙĨÛĮØ³Øª":898,"able":899,"ical":900,"cc":901,"Ø³ØªÙĩ":902,"Ġknow":903,"ÙĨÛĮÙĨ":904,"Ġfe":905,"Ġwill":906,"Ġbec":907,"Ø´ÛĮ":908,"ĠÙĪØ§ÙĤ":909,"But":910,"ĠÙ¾Ø³":911,"Ġdid":912,"ÙĤÙĩ":913,"Ġlook":914,"ĠØ±Ø³":915,"ause":916,"Ø¯Ø§":917,"self":918,"ĠØªÙħ":919,"Ġaf":920,"ople":921,"ount":922,"ÙĪØ±Ø¯":923,"ress":924,"ree":925,"ĠÙĨÙĩ":926,"ish":927,"ĠØ¹Ùħ":928,"ĠØ¨Ø³ÛĮ":929,"Ø§Ø·":930,"ĠÂ»":931,"ire":932,"ĠØ±Ø§Ùĩ":933,"ĠV":934,"ĠÙħÙĤ":935,"Ġad":936,"ang":937,"Ġover":938,"ays":939,"av":940,"Ġpr":941,"ĠØ²ÙĨØ¯":942,"ĠØĽ":943,"Ù¾Ø³":944,"ose":945,"Ġthan":946,"ÙĪØ³":947,"ĠÚ©ÙĦ":948,"ĠØ±ÙģØª":949,"te":950,"ĠØ§ÙħØ§":951,"for":952,"ÙĪÙĨØ¯":953,"Ú©ÙĦ":954,"Ġcl":955,"ĠÙħØ¯":956,"ÙĤØªÛĮ":957,"ĠØ¨Ø§ÛĮØ¯":958,"Ú©Ø§Ø±":959,"ÙģØ§Ø¯Ùĩ":960,"irst":961,"ren":962,"Ø³ØªØ§ÙĨ":963,"ile":964,"ign":965,"ĠÚ¯Ø°":966,"ÙĨØ¬":967,"nder":968,"ÙĪÙĨÙĩ":969,"Ġpeople":970,"ĠÙĨØ§Ùħ":971,"Ø§Ø²Ùĩ":972,"ings":973,"ĠÛ±Û¹Û":974,"Ġper":975,"Ġvery":976,"other":977,"ĠÙħØ«":978,"the":979,"ĠÙ¾Ø§ÛĮ":980,"ach":981,"ÙĪÙĦÛĮ":982,"Ø¯Ø§ÙĨ":983,"Ġsee":984,"ild":985,"ĠØ¨Ø§ÙĦ":986,"Ø®ÙĪØ§Ùĩ":987,"ĠØ§Ø³ØªÙģØ§Ø¯Ùĩ":988,"Ø¬Ø§Ùħ":989,"Ú¯Ø°":990,"urn":991,"ĠØ¨Ø¹Ø¯":992,"ĠØ¹ÙĨ":993,"ÙĨØ§ÙĨ":994,"Û°Û":995,"ved":996,"ĠÙĨØ¸Ø±":997,"ade":998,"ĠÙħØ¬":999,"ÙĪØ±Øª":1000,"ĠÙĪØ¬ÙĪØ¯":1001,"ĠÙĩÛĮÚĨ":1002,"ÙĦÙĪ":1003,"Ġcont":1004,"Ø§Ø¯Ø±":1005,"Ø²ÛĮ":1006,"Ø§Ø®":1007,"ect":1008,"ĠÙ":1009,"ult":1010,"Ġthou":1011,"ory":1012,"Ġpart":1013,"Ø¨Ø§Ø±Ùĩ":1014,"ĠÙĤØ±Ø§Ø±":1015,"Ø§ÙħÛĮ":1016,"ĠÙĨÛĮØ²":1017,"Ġyear":1018,"port":1019,"ĠÙĪÛĮ":1020,"bl":1021,"ĠØ¨ÛĮÙĨ":1022,"ĠØªØµ":1023,"Ġonly":1024,"Ø¢ÙĨ":1025,"ance":1026,"You":1027,"ÙĪØ§":1028,"ĠØ²ÛĮ":1029,"ations":1030,"Ø¨ÙĪØ¯":1031,"Ġte":1032,"ÙĤØ·":1033,"ĠØ¯ÙĪØ±":1034,"Ġfirst":1035,"Ġour":1036,"ĠØ¨Ø§Ø±":1037,"Ø¯ÛĮØ¯":1038,"ĠÙģÚ©Ø±":1039,"ĠÙĩØ³ØªÙĨØ¯":1040,"Ġam":1041,"ĠÚĨÛĮØ²ÛĮ":1042,"ff":1043,"Ġres":1044,"Ġco":1045,"ĠÚĨÙĨØ¯":1046,"Ø¨Ø§ÙĨ":1047,"Ġjust":1048,"Ø²Ø§Ø±":1049,"Ø§Øµ":1050,"ĠÂ«":1051,"ĠØ®ÛĮÙĦÛĮ":1052,"Ø§ØŃ":1053,"Ġtwo":1054,"ĠØ¬Ùĩ":1055,"ĠØªØŃ":1056,"Ġwork":1057,"ĠÙ¾Ø±":1058,"ĠSt":1059,"ue":1060,"Ú¯Ùĩ":1061,"ĠÙĨÛĮ":1062,"cl":1063,"Ø´ØªÙĩ":1064,"ĠØ§Ø¬":1065,"ÙħØª":1066,"ick":1067,"wn":1068,"ĠCh":1069,"Ġ--":1070,"Ġthen":1071,"ĠÙħÙĪØ±Ø¯":1072,"ØªØ±ÛĮÙĨ":1073,"Ġspe":1074,"ĠØ§ÙĨØª":1075,"ĠØ¨ÛĮØ´Øª":1076,"we":1077,"Ġnow":1078,"ĠØ²ÙħØ§ÙĨ":1079,"ĠØ³ÛĮ":1080,"Ø®Øµ":1081,"ĠØ§Ú¯Ø±":1082,"Ġthink":1083,"Ġgr":1084,"ĠØ´ÙĨ":1085,"ĠØ³Ø§Ø®Øª":1086,"ĠØ¬Ùħ":1087,"ĠØ¹ÙĨÙĪØ§ÙĨ":1088,"She":1089,"ater":1090,"ĠØªÙĪØ³":1091,"Ġbo":1092,"Ġoff":1093,"Ġhow":1094,"ĠØ²ÙĨØ¯Ú¯ÛĮ":1095,"ĠØ¨ÙĦ":1096,"Ø¨ÛĮÙĨ":1097,"ĠâĢ¬":1098,"ĠØ²ÛĮØ±":1099,"Ø±Ø²":1100,"ĠØ¨Ø²Ø±Ú¯":1101,"ark":1102,"but":1103,"ĠØ´ÙĪØ¯":1104,"Wh":1105,"ĠÙĨØ´":1106,"ĠØ¯ÙĦ":1107,"Ġfo":1108,"Ø·ÙĪØ±":1109,"ife":1110,"Ġalso":1111,"right":1112,"ens":1113,"Ø¦ÛĮ":1114,"ĠØ¯Ø§Ø¯Ùĩ":1115,"ÙĪÙĩ":1116,"Ġevery":1117,"Ġagain":1118,"ĠØ§ÙĨØ¬Ø§Ùħ":1119,"ĠÙĪØ§ÙĤØ¹":1120,"ord":1121,"tern":1122,"ĠØ§Ùģ":1123,"ĠØ§Ø·":1124,"Ġdes":1125,"Ġbet":1126,"ĠÛĮÚ©ÛĮ":1127,"ĠÚ¯Ø±ÙģØª":1128,"ÙĪØª":1129,"Ġget":1130,"Ġbr":1131,"ft":1132,"ÛĮØª":1133,"Ġpo":1134,"ew":1135,"ction":1136,"ĠØ§ÙĨÚ¯":1137,"ĠØ¨Ø³ÛĮØ§Ø±":1138,"mer":1139,"So":1140,"ĠØ¯Ø§ÙĨ":1141,"Ġunder":1142,"Ø±Ú©Øª":1143,"Ġthese":1144,"ĠØ¨Ø®":1145,"ĠØ§Øµ":1146,"ial":1147,"fore":1148,"Ġback":1149,"Ġsm":1150,"alk":1151,"Ø¯Ø§ÛĮ":1152,"vel":1153,"Ġ/":1154,"ÙĨÙĩ":1155,"ÙĦØ¨":1156,"Ú©ÙĨÙĨØ¯":1157,"Ú¯ÙĪ":1158,"They":1159,"Ú©Ø§ÙĨ":1160,"ĠÙħØ§ÙĨ":1161,"vers":1162,"ict":1163,"ase":1164,"uch":1165,"Ø±Ø¨":1166,"ĠØ§ÛĮÙĨÚ©Ùĩ":1167,"ĠÙĨÙĤ":1168,"Ġwant":1169,"ĠÚĺ":1170,"Ġits":1171,"ĠØ®Ø§ÙĨ":1172,"Ġhand":1173,"Ú¯Ø±ÛĮ":1174,"ons":1175,"Ø±ÛĮÚ©":1176,"ov":1177,"ĠØ´ÙĩØ±":1178,"Ø³Ùĩ":1179,"Ġ20":1180,"ĠØ¯ÛĮØ¯":1181,"omet":1182,"ĠØ¨Ø±Ø¯":1183,"ĠÙĨÚ¯Ø§Ùĩ":1184,"ĠÙĩÙħØ§ÙĨ":1185,"ied":1186,"ĠØ¨Ø§Ø´":1187,"Ø±Ùħ":1188,"ĠÚ©ÙĨÙĨØ¯":1189,"Ø§Ø±Øª":1190,"ĠÚ©Ø±Ø¯ÙĨ":1191,"Ġpre":1192,"ĠØªÙħØ§Ùħ":1193,"orn":1194,"ward":1195,"ĠÙĨØ§":1196,"ious":1197,"ng":1198,"Ø£":1199,"'re":1200,"ĠÙĩØ§":1201,"Ġtr":1202,"du":1203,"Ġsc":1204,"This":1205,"Ġdown":1206,"ĠØ³ÙĪ":1207,"Ø§ÙħÙĦ":1208,"ÙģÛĮ":1209,"ittle":1210,"Ø§Ø²ÛĮ":1211,"Ø¶ÛĮ":1212,"Ġact":1213,"ÙĪÙĨÛĮ":1214,"hen":1215,"ather":1216,"ĠØ§Ø´":1217,"Ġway":1218,"ĠÚ©ÙĨÙħ":1219,"Ġsay":1220,"ĠØ®Ø§ÙĨÙĩ":1221,"ors":1222,"Ġ200":1223,"ĠÙĩØ§ÛĮ":1224,"ition":1225,"int":1226,"ĠØ§ÙĪÙĦ":1227,"ĠØ¨ÛĮØ´ØªØ±":1228,"Ø¨ÙĦ":1229,"ĠThe":1230,"Ú©Ø³":1231,"We":1232,"ces":1233,"ĠØ¬ÙĨ":1234,"Ġmost":1235,"iss":1236,"Ġafter":1237,"Ġwhere":1238,"Ġeven":1239,"ĠÙĨÙħ":1240,"ath":1241,"Ú©ÙĨÙħ":1242,"ÙħÙĩ":1243,"Ø§Ø¨Ø±":1244,"ÙĪØ¨":1245,").":1246,"ØªØ´":1247,"ÙĲ":1248,"ĠØ¬Ø§ÛĮ":1249,"Ú¯ÙģØª":1250,"ĠØ¯Ø§Ø´ØªÙĩ":1251,"ĠÙĩÙħÛĮÙĨ":1252,"Ġlittle":1253,"ĠØ¢ÙĨÙĩØ§":1254,"man":1255,"Ġnew":1256,"Ġfl":1257,"ÙħØ¯":1258,"ĠØ§Ø¯":1259,"ÙĨØ§":1260,"ull":1261,"rough":1262,"Ġsy":1263,"ple":1264,"ily":1265,"Ġlong":1266,"ĠØªØ¹":1267,"ood":1268,"ove":1269,"ĠÙĩÙĨ":1270,"Ġbl":1271,"ĠØªÙĨÙĩØ§":1272,"round":1273,"ĠÙħØ·":1274,"ØªÙħ":1275,"Ġcomm":1276,"ĠØµÙĪØ±Øª":1277,"ĠÙħØ«ÙĦ":1278,"Ġsuch":1279,"be":1280,"way":1281,"Ø®ÛĮ":1282,"Ġmuch":1283,"ØªØ§Ø¨":1284,"Ġworld":1285,"ÙĤØ§ÛĮ":1286,"Ġgoing":1287,"ĠØ§Ø¹":1288,"ĠØ´Ø¨":1289,"Ġrem":1290,"Ø¸Ùĩ":1291,"Ġdon":1292,"Ø³Ø§ÙĨ":1293,"ĠØŃØ±Ùģ":1294,"ĠÙĨØ¨ÙĪØ¯":1295,"ĠØ²ÙħÛĮÙĨ":1296,"Ġmade":1297,"ĠÙĨØ²":1298,"ĠÙħØ±Ø§":1299,"Ġright":1300,"ced":1301,"ĠÙĪÙĤØªÛĮ":1302,"ĠØªÙĪØ³Ø·":1303,"Ø¨Ø§ÙĦ":1304,"Ø³Ø±":1305,"ates":1306,"Ġbefore":1307,"gan":1308,"Ġdif":1309,"Ġbecause":1310,"ne":1311,"Ġform":1312,"ĠØ¶":1313,"ĠÚ©ÙĨÛĮÙħ":1314,"ĠØ§ÙĪÙĨ":1315,"Ú¯Ø§ÙĨ":1316,"Ú¯ÙĪÛĮ":1317,"oss":1318,"ents":1319,"ØªÙĪØ§ÙĨØ¯":1320,"ĠUn":1321,"Ġthrough":1322,"Ġcall":1323,"Ø§Ø¨ÙĦ":1324,"ĠÚ©ÙĪÚĨ":1325,"ÙĨØ§ÙħÙĩ":1326,"ful":1327,"ough":1328,"Ġyears":1329,"ail":1330,"ince":1331,"ĠØ§ÙģØª":1332,"Ġ_":1333,"Ġshould":1334,"ys":1335,"ÙħÙĪ":1336,"Ġind":1337,"Ø§Ú¯Ø±":1338,"Ø¯Ø§Ø¯":1339,"ØºÛĮ":1340,"ĠÚĨÙĪÙĨ":1341,"Ġthought":1342,"ĠAr":1343,"Ø¯ÙĩØ¯":1344,"ĠØ³Ùĩ":1345,"Ġgood":1346,"Ġwr":1347,"Ġmay":1348,"Ú©Øª":1349,"ÙħÚ©ÙĨ":1350,"Ġsomet":1351,"Ú¯Ø±Ø¯":1352,"Ø¬ÛĮ":1353,"Ġ3":1354,"Ġser":1355,"ave":1356,"ving":1357,"Ø§ØªÛĮ":1358,"Ġhere":1359,"Ġrec":1360,"Ø³Ø§Ø³":1361,"form":1362,"Ġday":1363,"\".":1364,"ans":1365,"ĠØªÙĤ":1366,"ert":1367,"Ù¾ÛĮ":1368,"Ġcons":1369,"ĠÙĨØ³":1370,"ĠÙĦØŃ":1371,"ited":1372,"ĠØŃØ¯":1373,"ĠØ¨Ø§Ø²ÛĮ":1374,"ars":1375,"rent":1376,"ness":1377,"Ø±Ø¯Ùĩ":1378,"ĠÙĨØ´Ø§ÙĨ":1379,"Ġey":1380,"Ġmake":1381,"ĠÛĮØ§Ø¯":1382,"ĠÚ©ÙĨÛĮØ¯":1383,"ĠØ¢Ø²":1384,"Ġlife":1385,"ĠÙħÛĮØ§ÙĨ":1386,"ĠØ¢Ø¨":1387,"end":1388,"ĠØªÙĪØ§ÙĨ":1389,"ĠÙģÙĤØ·":1390,"ational":1391,"ise":1392,"ty":1393,"ĠØµØŃ":1394,"ØªØ§":1395,"Ġapp":1396,"Ø§ÙĩÛĮ":1397,"ÛĮØ¯Ø§":1398,"lect":1399,"ĠÙĩÙħÚĨ":1400,"Ġ201":1401,"ÙģÙĩ":1402,"ĠØ¨ÛĮØ±":1403,"Ø±Ø³ÛĮØ¯":1404,"aw":1405,"igh":1406,"Ú¯Ø²":1407,"Û°Û°":1408,"augh":1409,"ves":1410,"Ø®ØªØ±":1411,"Ġown":1412,"ĠØ¯ÙĪØ³Øª":1413,"ÙĨØ¯ÛĮ":1414,"ÙĩÛĮ":1415,"ĠÙĦØ¨":1416,"ĠØ¢ÙĪØ±Ø¯":1417,"Ġnever":1418,"ual":1419,"Ġold":1420,"ually":1421,"Ġcount":1422,"ĠÚ©Ø´ÙĪØ±":1423,"ĠØ²ÙĨ":1424,"There":1425,"ÙĪØ¹":1426,"ĠÚ¯Ø±ÙģØªÙĩ":1427,"ÙħÙĦ":1428,"ĠÙĨØ¯Ø§Ø´Øª":1429,"Ġwell":1430,"Ġmany":1431,"ĠØ®ÙĪØ§ÙĩØ¯":1432,"ĠIn":1433,"olog":1434,"Ġgen":1435,"air":1436,"Ġatt":1437,"ĠÙĨÙģØ±":1438,"Ġgreat":1439,"ĠÚ¯Ø±Ø¯":1440,"'m":1441,"ible":1442,"ject":1443,"Ġph":1444,"ĠÙħØ±Ø¯Ùħ":1445,"Ġcome":1446,"Ġrel":1447,"Ø¨Ø§Ø±":1448,"ĠØ¢ÙħØ±ÛĮÚ©":1449,"ĠØ¯Ø§Ø±ÙĨØ¯":1450,"ĠØ¬ÙĨÚ¯":1451,"ĠØ®ÙĪØ´":1452,"ĠØ¯Ø±Ø¨Ø§Ø±Ùĩ":1453,"ĠÚ©Ø³ÛĮ":1454,"ĠØ®Ø·":1455,"ĠØ®ÙĪØ¨":1456,"Ġsec":1457,"ĠÚ©Ø±Ø¯Ùħ":1458,"ĠY":1459,"Ġsame":1460,"Ġbu":1461,"ÙĦÙģ":1462,"ouse":1463,"Ø§Ø·Ø±":1464,"Ġthose":1465,"ib":1466,"Ġused":1467,"ĠØ²Ø¯":1468,"ĠØ°":1469,"Ġacc":1470,"Ġhapp":1471,"ĠØ´Ùħ":1472,"ĠØ¬ÙĪ":1473,"ĠØ¨ÛĮØ±ÙĪÙĨ":1474,"ĠÙħÙħÚ©ÙĨ":1475,"Ú¯ÛĮØ±":1476,"aking":1477,"ried":1478,"ØŃØ§ÙĦ":1479,"ĠØ´Ø±":1480,"Ġwom":1481,"ÙĪÙĤ":1482,"les":1483,"Ġbeing":1484,"ĠØºÛĮØ±":1485,"ower":1486,"Ø´ÛĮØ¯":1487,"ob":1488,"Ġcr":1489,"az":1490,"ĠØ´ÛĮ":1491,"ody":1492,"ix":1493,"ĠÙĪÙĦÛĮ":1494,"ĠØªØºÛĮ":1495,"Ø§Ø¶":1496,"Ø²Ùĩ":1497,"ĠØ§ØŃØ³Ø§Ø³":1498,"Ġtoo":1499,"ØŃÛĮ":1500,"ĠØ´Ú©":1501,"Ø¹ÛĮØª":1502,"Ġask":1503,"Ġac":1504,"ĠØ·ÙĪØ±":1505,"Ġbel":1506,"Ġend":1507,"ĠÚĨÙĨÛĮÙĨ":1508,"Ġturn":1509,"Ø±ÙĪØ¹":1510,"ĠÚĨØ´Ùħ":1511,"Ø¨Ø±Ø¯":1512,"Ø¯Ø§Ø±":1513,"stem":1514,"ÙĪØ§Ø±":1515,"ĠÙĤØ¯Ø±":1516,"hes":1517,"ĠØ¯ÛĮÚ¯Ø±ÛĮ":1518,"ank":1519,"thing":1520,"'ve":1521,"ĠØ·Ø±Ùģ":1522,"old":1523,"Ġem":1524,"Ġke":1525,"Ġmust":1526,"ĠÚ©Ø§Ùħ":1527,"ĠØ¢ÙħØ¯":1528,"ĠØ³Ø§":1529,"ms":1530,"ics":1531,"ØªÙĪØ§ÙĨØ³Øª":1532,"Ø±ÛĮÙĨ":1533,"Ġneed":1534,"aid":1535,"Ġsl":1536,"ĠÙ¾Ø±ÙĪ":1537,"oc":1538,"ĠÚ¯Ø±ÙĪ":1539,"Ġwent":1540,"oth":1541,"ÙĨÙħ":1542,"Ø®ÙĪØ§Ø³Øª":1543,"Ø³Ùħ":1544,"ĠØŃØ³":1545,"ubl":1546,"ĠØªØ¬":1547,"ĠÚ©Ø±Ø¯ÙĨØ¯":1548,"ĠØ±Ø³ÛĮØ¯":1549,"ĠØ¹ÙĦ":1550,"ĠÙħÙĩ":1551,"ĠÙ¾ÛĮØ¯Ø§":1552,"Ġcar":1553,"ĠØ±ÛĮ":1554,"ĠØ¬Ø§":1555,"ĠÙħØ§ÙĨÙĨØ¯":1556,"ec":1557,"ĠØªØºÛĮÛĮØ±":1558,"ph":1559,"Ġlet":1560,"ween":1561,"Ġcame":1562,"ØªÙĪÙĨ":1563,"Ġchild":1564,"ÙĩÙĨÚ¯":1565,"ating":1566,"ĠØ¨ÙĪØ¯Ùħ":1567,"ÙĨØ´":1568,"ĠØªØ´":1569,"ĠØ·ÙĪÙĦ":1570,"Ġob":1571,"Ġthree":1572,"Ø²Ø¯":1573,"Ġhead":1574,"pect":1575,"Ġhum":1576,"ĠØ´Ø±ÙĪØ¹":1577,"ĠØ¢ÙĦ":1578,"Ú©ÙĪ":1579,"ĠÙģÛĮÙĦ":1580,"ting":1581,"What":1582,"cess":1583,"ĠØ¢ÙĨØ¬Ø§":1584,"land":1585,"Ġent":1586,"imes":1587,"ĠØ¨ÙĪØ¯Ùĩ":1588,"ÛĮÙĨÙĩ":1589,"led":1590,"ĠØ³Ø§Ø²":1591,"ĠØ¯Ø§ÙĨØ´":1592,"ĠØŃØªÛĮ":1593,"ÙĪÛĮÛĮ":1594,"ĠØ¸":1595,"Ú¯ÛĮØ±ÛĮ":1596,"ared":1597,"Ġdiffe":1598,"Ġstill":1599,"ont":1600,"ĠÙĪÙĤØª":1601,"Ġhimself":1602,"ened":1603,"ĠØ³ÙĦ":1604,"Ġtake":1605,"ÛĮÙĨÛĮ":1606,"ĠÛ²Û°":1607,"ĠÛĮÙĩ":1608,"ÛĮØ±Ùĩ":1609,"ĠMr":1610,"Ø´ØªÛĮ":1611,"ĠÚ©Ø³":1612,"Ġsomething":1613,"gin":1614,"Ġfound":1615,"ĠØªØ§Ø±ÛĮ":1616,"cial":1617,"vent":1618,"ĠØ§Ø±Øª":1619,"Ø±ÙģØª":1620,"Ġgot":1621,"ĠØ®ÙĪØ¯Ø´":1622,"fect":1623,"Ġop":1624,"ady":1625,"ning":1626,"ĠÚ©ØªØ§Ø¨":1627,"Ġdist":1628,"get":1629,"ĠÚ¯ÙĪØ´":1630,"),":1631,"Ġbetween":1632,"ier":1633,"'ll":1634,"ĠØ´Ùĩ":1635,"Ø«Ø±":1636,"ĠÚ©ÙĪÚĨÚ©":1637,"ÙħØ§ÙĨÛĮ":1638,"ĠÙģØ±ÙĪ":1639,"ĠØ¨ÛĮÙħ":1640,"ĠØ®Ø§Ø·Ø±":1641,"ÙĪØ¯ÛĮ":1642,"Ġseem":1643,"Ø§ÛĮØ´":1644,"Ġreg":1645,"ĠÙ¾ÙĨØ¬":1646,"rans":1647,"Ġear":1648,"aughter":1649,"Ġlast":1650,"Ġthings":1651,"Ġaway":1652,"ĠØ¨ÛĮØ´":1653,"ĠØ²Ø¨Ø§ÙĨ":1654,"Ġeyes":1655,"Ġinc":1656,"ĠØ¢Ø±":1657,"Ġpers":1658,"xt":1659,"ØµØ¯":1660,"Ġimp":1661,"Ġinst":1662,"ĠØªØ¨":1663,"ĠÙĨØ²Ø¯ÛĮ":1664,"Ġsur":1665,"Ġtell":1666,"ĠØ¨ÙĨ":1667,"ular":1668,"ÙĦÛĮØ³ÛĮ":1669,"ØªÙĪ":1670,"âĢĮâĢĮ":1671,"ĠØ«":1672,"gg":1673,"ĠØ¯Ø±Ø³Øª":1674,"Ġstart":1675,"ros":1676,"Ġset":1677,"Ġmight":1678,"ĠÙ¾Ø§":1679,"ased":1680,"ĠØ§ØªØ§ÙĤ":1681,"Ġword":1682,"ĠØ§ÛĮÙĨØ¬Ø§":1683,"Ġuse":1684,"¸Û":1685,"ĠØ¨Ø§ÙĦØ§":1686,"uring":1687,"Ø¹Ø§Øª":1688,"ric":1689,"Ġreally":1690,"Ø§Ø³ÛĮ":1691,"ĠØ¯Ø®ØªØ±":1692,"ĠÙħØ§Ùĩ":1693,"ific":1694,"und":1695,"Ġ{":1696,"Ġtalk":1697,"Ġsystem":1698,"ere":1699,"ows":1700,"cept":1701,"ÙĩØ§ÛĮØ´":1702,"ĠØªÙĪÙĦ":1703,"wh":1704,"Ġter":1705,"ĠØ¯ÙĨ":1706,"ĠØ§ÙģØ±":1707,"Ġ4":1708,"Ġfeel":1709,"ĠØ¨Ø¯ÙĪÙĨ":1710,"Ø¨Ø±Ø§ÛĮ":1711,"ĠÚ©ÙĨØ§Ø±":1712,"ĠØ³Ø®":1713,"Ġfam":1714,"Ø¢ÙħØ¯":1715,".\"":1716,"ĠØ¬Ø²":1717,"ĠÙĥ":1718,"ities":1719,"Ġcol":1720,"ĠÙ¾ÛĮØ±":1721,"Ġpass":1722,"ĠÙħØ¹Ùħ":1723,"gr":1724,"Ġmat":1725,"Ġpol":1726,"ĠÛ²Û°Û":1727,"ĠØµØ¯Ø§ÛĮ":1728,"Ġsupp":1729,"Ø§Ø¨ÛĮ":1730,"Ø´ÙĪÙĨØ¯":1731,"ĠÙĨÙħØ§ÛĮ":1732,"ident":1733,"ĠØ®ÛĮ":1734,"ah":1735,"Ġroom":1736,"Ø§Ø¹":1737,"Ġret":1738,"ĠÚ©Ø§Ø±ÛĮ":1739,"ĠØ§Ø·ÙĦØ§":1740,"ork":1741,"ĠØ¯ÙĨÛĮ":1742,"Ġdec":1743,"Ø®Ø§ÙĨÙĩ":1744,"Ġwithout":1745,"ĠÙħØ³Øª":1746,"als":1747,"ÙĦÛĮÙĦ":1748,"ÙĪØµ":1749,"Ġput":1750,"Ġgl":1751,"ered":1752,"ÚĺÛĮ":1753,"ĠÙħØµ":1754,"Ġap":1755,"That":1756,"ĠØªØ£":1757,"ĠØ´Ø±Ú©Øª":1758,"ĠÙĤØ·":1759,"Ú©Ø±Ø¯ÙĨØ¯":1760,"Ġpres":1761,"ĠØ¬Ø§ÙĨ":1762,"ever":1763,"Ġsub":1764,"³Û":1765,"ĠØ§Ø®":1766,"cho":1767,"ished":1768,"ĠÙ¾Ø¯Ø±":1769,"ØªØ§ÙĨ":1770,"ĠÙħØ±":1771,"ĠØ¬Ø¯ÛĮØ¯":1772,"Ġinter":1773,"If":1774,"Ø§ÛĮÙĦ":1775,"Ġface":1776,"Ġnum":1777,"ĠØ±ÙĨÚ¯":1778,"cy":1779,"Ø±Ø§Ùĩ":1780,"Ġeach":1781,"li":1782,"arch":1783,"ĠÙħÙĦ":1784,"Ġstud":1785,"ĠØ´Ø¯ÙĨ":1786,"ways":1787,"ale":1788,"Ø§ÛĮØª":1789,"ĠAir":1790,"ĠÛ±":1791,"clud":1792,"ĠØ¯Ø±ÛĮØ§":1793,"Ġaround":1794,"Ġsim":1795,"ĠÙħØ§Ø¯Ø±":1796,"ĠØ¬ÙĩØ§ÙĨ":1797,"up":1798,"ĠÚ¯Ø°Ø§Ø´Øª":1799,"ĠØ´Ø®Øµ":1800,"ĠØ³ÙĨ":1801,"Ø§ÙĨÚ¯":1802,"its":1803,"Ġmen":1804,"ĠØŃÙĤ":1805,"Ġexp":1806,"Ø§ÙĨØ³":1807,"ative":1808,"ĠÙĩÙĨÙĪØ²":1809,"ĠÙĩÙĨÚ¯":1810,"Ø§Ù¾":1811,"ret":1812,"Ġlar":1813,"ĠÚĨØ±Ø§":1814,"Ġgu":1815,"Ø¨ÙĪØ±":1816,"Ġcalled":1817,"owing":1818,"ĠTh":1819,"ÙĤØ§":1820,"ĠØ¯Ø§Ø±Ùħ":1821,"ĠÚ¯Ø±ÙĪÙĩ":1822,"Ġhel":1823,"Ġins":1824,"Ġthing":1825,"ĠØ¹ÙĤ":1826,"ures":1827,"Ġdoes":1828,"ĠØ´Ø¯ÙĨØ¯":1829,"Ġprodu":1830,"Ġâ":1831,"Ġgener":1832,"When":1833,"ĠØ´ÙĪ":1834,"ĠØ§ÛĮØ§ÙĦ":1835,"ĠØ§Ùĩ":1836,"ĠÙħÛĮØ²":1837,"ters":1838,"Ġreal":1839,"Ġleft":1840,"Ġmet":1841,"ĠØ³ÛĮØ³Øª":1842,"Ġanother":1843,"ĠÚ©ÙĦÛĮ":1844,"ĠÛ²Û°Û°Û":1845,"ten":1846,"ĠØ¨ÚĨÙĩ":1847,"ÙĪÙĤØªÛĮ":1848,"ĠÙħØ®":1849,"ps":1850,"arm":1851,"Ġdifferent":1852,"ub":1853,"ĠØ®Ø§Ø±":1854,"here":1855,"Ġmon":1856,"Ùī":1857,"ĠÚĨÙĩØ§Ø±":1858,"ĠÙĨØ²Ø¯ÛĮÚ©":1859,"Ġcour":1860,"Ġtrans":1861,"Ġ18":1862,"ĠØ¬ÙĪØ§ÙĨ":1863,"ÙħÛĮØ´Ùĩ":1864,"ÚĺÙĩ":1865,"Ġ5":1866,"ism":1867,"Ø®ÙĪØ±Ø¯":1868,"ĠÙ¾Ø´Øª":1869,"ĠRe":1870,"Ġmod":1871,"riend":1872,"ØªÙħØ§":1873,"ĠØ¨Ø¹":1874,"ĠÚ©ÙħÚ©":1875,"ivers":1876,"Ġadd":1877,"ĠØ¨ÙĦÙĨØ¯":1878,"ĠØµØŃØ¨Øª":1879,"Ġinv":1880,"ĠÙħÙĪØ¶":1881,"Ø³ØªÛĮ":1882,"ĠÙĦÛĮ":1883,"Ø¯Ø§Ùħ":1884,"ange":1885,"Ġfind":1886,"Ġplay":1887,"As":1888,"ĠØ¨Ø±ÙĨØ§ÙħÙĩ":1889,"19":1890,"ĠÙħØªØŃ":1891,"Ġmom":1892,"Ġstr":1893,"ĠÙģÛĮÙĦÙħ":1894,"ĠØ²ÛĮØ§Ø¯ÛĮ":1895,"Ġlooked":1896,"oy":1897,"ÛĮÙĩ":1898,"ĠÙħØº":1899,"ner":1900,"Ġhouse":1901,"ution":1902,"ĠÙĨÛĮØ±":1903,"ĠØ¨Ø¯Ùĩ":1904,"ĠÛ²Û":1905,"hip":1906,"velop":1907,"ĠØ³Ø§Ø¹Øª":1908,"ÙĪØ·":1909,"Ú¯ÙĪÙĨÙĩ":1910,"ility":1911,"Ġfr":1912,"Ú©ÙĨÙĪÙĨ":1913,"ĠØ¢ÙħØ±ÛĮÚ©Ø§":1914,"ĠÚ©ÙħÛĮ":1915,"Ú¯Ø´Øª":1916,"ĠØ¢ÙĤØ§ÛĮ":1917,"ĠØ³ÛĮØ³ØªÙħ":1918,"ĠÙĦØŃØ¸Ùĩ":1919,"Ø°ÛĮØ±":1920,"ÙģØ§ÙĤ":1921,"Ø¬Ø§Ø¯":1922,"io":1923,"Ġche":1924,"ĠØªÙĪØ¬Ùĩ":1925,"Ġtook":1926,"For":1927,"Ġlight":1928,"Ġwhile":1929,"Ø±ÙĪØ²":1930,"ÙĪÙħÛĮ":1931,"Ġmin":1932,"ĠØ¯ÙĤÛĮ":1933,"owed":1934,"Ġplace":1935,"ĠØŃØ§ÙĦÛĮ":1936,"ÙĩÙĨ":1937,"ØªÙĨ":1938,"ĠØªÙĪÙĦÛĮØ¯":1939,"alf":1940,"Ġbelie":1941,"ÙĤØ§Øª":1942,"ĠØ§ÙĪÙĦÛĮÙĨ":1943,"ger":1944,"Ġlove":1945,"Ġmem":1946,"Ġnight":1947,"Ġfact":1948,"iness":1949,"How":1950,"Ġkind":1951,"meric":1952,"ĠÚ¯ÛĮ":1953,"Ġalways":1954,"ized":1955,"Ġcent":1956,"den":1957,"Ġrep":1958,"Ġev":1959,"Ġnothing":1960,"ists":1961,"On":1962,"ross":1963,"ĠØ§ÙĨØªØ®":1964,"Ġref":1965,"der":1966,"ĠØ®Ø§ÙĨÙĪ":1967,"Ġfin":1968,"ĠØ§Ø¨":1969,"less":1970,"Ġair":1971,"Ġfoll":1972,"ĠÙĪØ§Ø±Ø¯":1973,"ĠÙģØ¹":1974,"ĠØŃØ±Ú©Øª":1975,"ĠØ§ÙĨØ¯Ø§Ø²Ùĩ":1976,"min":1977,"ĠØ³Ø¨":1978,"Ġpoint":1979,"ĠÙħØ®Øª":1980,"ĠÙħÙĪÙĤ":1981,"ern":1982,"Ġyoung":1983,"Ġcur":1984,"Ġupon":1985,"ĠÙĨÛĮØ§Ø²":1986,"elt":1987,"ØªØ±ÛĮ":1988,"Ġfriend":1989,"ĠLe":1990,"ÙħÛĮÙħ":1991,"ĠØ¯ÛĮØ¯Ùĩ":1992,"Ø§Ø¦":1993,"ĠØ§ÛĮØ¬Ø§Ø¯":1994,"ĠØ§ØªÙģØ§ÙĤ":1995,"ĠØ®Ø§ÙĨÙħ":1996,"Ġsaw":1997,"amp":1998,"Ù¾Ø±":1999,"Ġinclud":2000,"Ø¢ÙĪØ±Ø¯":2001,"Ġcap":2002,"Ø®ØªÙĩ":2003,"ĠØ§ÙģØ±Ø§Ø¯":2004,"ĠØ§ÙĨÚ¯ÙĦÛĮØ³ÛĮ":2005,"Ġposs":2006,"ÙĨØ¯Ø§ÙĨ":2007,"gy":2008,"Ġunderst":2009,"Ġide":2010,"ÙĪØ¯Ùĩ":2011,"Ġsmall":2012,"ained":2013,"ek":2014,"Ġdisc":2015,"ted":2016,"ĠØ§ÛĮØ³Øª":2017,"Ø¨Ø§Ø´Ø¯":2018,"'d":2019,"ĠØ¯ÙĨØ¨Ø§ÙĦ":2020,"Ġperson":2021,"ĠØ§Ø±":2022,"ĠØ¢Ø®":2023,"Ø§Ø®ØªÙĩ":2024,"to":2025,"vern":2026,"Ġ199":2027,"ĠØŃØ¶":2028,"ments":2029,"Ġbeh":2030,"any":2031,"ote":2032,"Ø¨Ø¹Ø¯":2033,"ĠÛ²Û°Û±Û":2034,"ĠÚ©Ø´ÛĮØ¯":2035,"ĠÙĩÙħÛĮØ´Ùĩ":2036,"iet":2037,"ĠØ§ÙĨØªØ®Ø§Ø¨":2038,"Ġgiv":2039,"ĠØ´Ú©ÙĦ":2040,"ched":2041,"ts":2042,"ĠØ¯ÙĪÙĦ":2043,"ĠØ§ÙĨØ³Ø§ÙĨ":2044,"ublic":2045,"ÙĪØ³Øª":2046,"ĠâĢİ":2047,"arry":2048,"Ġcre":2049,"ages":2050,"ata":2051,"na":2052,"ĠØ¹ÙħÙĦ":2053,"ĠØ¨Ø®Ø´":2054,"ĠÙĨØ³Ø¨Øª":2055,"ĠÚ©ÛĮ":2056,"ĠØ®Ø±":2057,"ĠØ¯ÙĩØ¯":2058,"Ø§ÙĪØ±":2059,"Now":2060,"Ġhelp":2061,"ĠØ¯Ø§Ø®":2062,"Ø¡":2063,"ĠAl":2064,"ĠØ²ÙħØ§ÙĨÛĮ":2065,"rist":2066,"ĠIs":2067,"ĠAmeric":2068,"ĠCom":2069,"ĠØ¯ÙĪØ¨Ø§Ø±Ùĩ":2070,"ĠÙĪØ±":2071,"ĠØªÙģ":2072,"Ġagainst":2073,"Ġfew":2074,"ĠØ³ÙĨÚ¯":2075,"Ġknown":2076,"Ġhuman":2077,"Ø¯ÛĮÚ¯Ø±":2078,"Ġhigh":2079,"ÙĤÙĦ":2080,"ĠÙħÙĪØ¶ÙĪØ¹":2081,"ĠØ³ÙĪÛĮ":2082,"ĠÙĤØ¨ÙĦ":2083,"·Û":2084,"ĠÙĨØ¯Ø§Ø±Ø¯":2085,"ĠØ¢ÙħØ¯Ùĩ":2086,"Ø¹Ø¯Ø§Ø¯":2087,"ĠÙĪØ§ÙĤØ¹Ø§":2088,"Ú¯Ø°Ø§Ø±":2089,"chool":2090,"ĠÚ©ÙĪØ¯":2091,"ĠØ§Ø¯Ø§ÙħÙĩ":2092,"ĠÙĩÙħÚĨÙĨÛĮÙĨ":2093,"she":2094,"ĠÙ¾ÙĪÙĦ":2095,"Ø¨Ø§ÙĨÛĮ":2096,"oun":2097,"ĠÚ¯ÙĦ":2098,"Ġexam":2099,"ÙĨÙĪ":2100,"ax":2101,"ĠØŃØ§ÙĦØ§":2102,"ØªÛĮØ¬Ùĩ":2103,"ĠÙħÙĨØ·":2104,"Ø®ÙĪØ§ÙĩØ¯":2105,"Ġonce":2106,"Ø§ÛĮÙĩ":2107,"Ø¯Ø§Ø´Øª":2108,"ĠÛĮØ§ÙģØª":2109,"Ġconf":2110,"Ġthough":2111,"Ġmind":2112,"ĠØ¨Ø§Ø´ÙĨØ¯":2113,"aph":2114,"ĠÙĨØ¯Ø§Ø±":2115,"Ġever":2116,"ĠØ³Ùģ":2117,"ĠÙħÙĩÙħ":2118,"ĠÙħÛĮÙĦÛĮ":2119,"ÙĪÛĮØ³":2120,"Ø¨Ø·":2121,"ik":2122,"ÙĤØ¯Ø±":2123,"uc":2124,"Ġbegan":2125,"oice":2126,"ense":2127,"Ġfour":2128,"Ġstand":2129,"rit":2130,"Ġmoment":2131,"ĠØ¨Ø¨ÛĮÙĨ":2132,"ute":2133,"Ġbetter":2134,"ology":2135,"ĠØ¢ÛĮ":2136,"ĠÙģØ±Ø¯":2137,"said":2138,"day":2139,"Ġsign":2140,"Ø±Ø§Ùģ":2141,"Ġed":2142,"ĠÙĤØ§Ø¨ÙĦ":2143,"ired":2144,"ĠÚ¯ÙĪÙĨÙĩ":2145,"ĠDe":2146,"Ġdevelop":2147,"Ø±Ø®":2148,"Ġart":2149,"irl":2150,"con":2151,"ash":2152,"Ø¹ÙĨÛĮ":2153,"ertain":2154,"ically":2155,"Ú©ØªØ±":2156,"outh":2157,"ÙĪÙĦØ§":2158,"chn":2159,"Ø¯Ø§ÙĨØ³Øª":2160,"uss":2161,"ula":2162,"Ú¯ÙĪÛĮØ¯":2163,"Ġboth":2164,"ield":2165,"Ġname":2166,"ines":2167,"ÙĦØ³":2168,"Ø§ÙĪØª":2169,"ĠÙĩÙħØ±Ø§Ùĩ":2170,"ĠØ¢Ø¯Ùħ":2171,"Ø¨ØªÙĩ":2172,"ÙĪÛĮØ´":2173,"osed":2174,"ĠØ¬ÙĦÙĪ":2175,"ĠÙħÛĮÙĦ":2176,"Ġpower":2177,"ĠØ¨ÙĩØªØ±":2178,"At":2179,"Ġhome":2180,"ality":2181,"ĠØ³Ø±ÛĮ":2182,"ĠAirport":2183,"ĠÙĨÙģ":2184,"Ø§Ø³ØªØ§ÙĨ":2185,"uth":2186,"Ġhard":2187,"Ġwater":2188,"Ġel":2189,"ĠØŃØ§Ø¶":2190,"ices":2191,"Ø§Ø¨Ø±Ø§ÛĮÙĨ":2192,"Ġdire":2193,"ĠÙģØ±ÛĮ":2194,"ĠØ´Ø§Ùĩ":2195,"rew":2196,"Ġsecond":2197,"Ø´Ø§Ø±":2198,"ĠØ±ÙģØªÙĩ":2199,"ÙħØ±Ø¯":2200,"Ø¬Ø±":2201,"Ġgive":2202,"Ġdr":2203,"Ġfil":2204,"ĠØ§ÙģØ²":2205,"000":2206,"iew":2207,"ĠØ¨Ø±Ø§Ø¨Ø±":2208,"Ġass":2209,"ĠØ®Ø§ÙĨÙĪØ§Ø¯Ùĩ":2210,"Ġheart":2211,"Laughter":2212,"ĠØ®ÙĪØ¯Ùħ":2213,"Ġcare":2214,"ĠØ®ÙĪØ§ÙĨ":2215,"ĠØ¢Øº":2216,"ural":2217,"´Û":2218,"ĠÙĨÛĮÙħ":2219,"ĠÙĨÚ©Ø±Ø¯":2220,"Ú©Ùħ":2221,"ĠØ¹ÙĦØ§":2222,"Ġprov":2223,"Ġcomple":2224,"Ø¨Ø±ÛĮ":2225,"ĠØ±ÙĪØ´":2226,"arn":2227,"ĠØ§ÙģØªØ§Ø¯":2228,"ÙĪØ¬Ùĩ":2229,"Ø§ÙĦÙĩ":2230,"Ġmean":2231,"ĠØ¯ÙĦÛĮÙĦ":2232,"Ġrest":2233,"ĠÚ¯ÙģØªÙĩ":2234,"Ø±Ø´":2235,"ĠØ¯Ø§Ø±ÛĮÙħ":2236,"Ġread":2237,"ex":2238,"ĠØ§ÛĮØ±":2239,"most":2240,"ĠÙĪØŃ":2241,"Ġquest":2242,"ĠØ¢ÙĨÚ©Ùĩ":2243,"Ġappe":2244,"Ġbook":2245,"¶Û":2246,"Ú¯ÛĮØ±Ø¯":2247,"ĠÙĤØ¨":2248,"ug":2249,"ĠÙħØ¯Ø±":2250,"Ø§Ø²Ùħ":2251,"Ġmother":2252,"Ø¹Ø«":2253,"Ġsw":2254,"ĠÙĨØªÛĮØ¬Ùĩ":2255,"ĠÛµ":2256,"Ġfather":2257,"Ú©ÙĨÛĮÙħ":2258,"ĠØ®ÙĪØ§Ø¨":2259,"Ġknew":2260,"ined":2261,"Ġtold":2262,"ÛĮØ¯ÛĮ":2263,"Ġfelt":2264,"ĠØ³Ø·":2265,"ĠÙĨØ®":2266,"alth":2267,"ĠÙ¾Ø§ÛĮÛĮÙĨ":2268,"Ġseemed":2269,"Ġdidn":2270,"Ø±Ø³ÛĮ":2271,"Ø±ÛĮÙģ":2272,"ently":2273,"ĠØ´Ø§ÛĮØ¯":2274,"Ġblo":2275,"ĠØµØ¯":2276,"ĠØ§ØµÙĦÛĮ":2277,"ĠØŃÙĦ":2278,"ĠÚĨÙĨØ§ÙĨ":2279,"Ø§Ø¨Øª":2280,"ering":2281,"oh":2282,"ins":2283,"Ø¨ÙĨ":2284,"ock":2285,"ook":2286,"Ø´Ú©":2287,"ĠÙħØ¯Øª":2288,"Ġasked":2289,"ÛĮØ²ÛĮ":2290,"Ø¬Ø¨":2291,"ene":2292,"ÙĩØ±Ùĩ":2293,"com":2294,"ĠØªÚ©":2295,"Ġtry":2296,"orm":2297,"ĠÙĤØ§ÙĨ":2298,"Ø±ÛĮØ³Øª":2299,"Ġsk":2300,"aps":2301,"Ġbus":2302,"Ø§ÙģÛĮ":2303,"ĠØ³Ø§Ø®ØªÙĩ":2304,"Ġ6":2305,"Ø¨Ø§Ø²":2306,"ĠNew":2307,"Ġnumber":2308,"ina":2309,"Ø¤":2310,"Ġdet":2311,"ĠØ¢ÙĨÚĨÙĩ":2312,"ĠÙĪØ¶":2313,"angu":2314,"ised":2315,"Ġcle":2316,"ĠØ¨Ø§Ø¹Ø«":2317,"ĠØ¬ÙĪØ§Ø¨":2318,"ĠÙħÚ©":2319,"ĠÙħØ§Ø±":2320,"Ù¾Ø§":2321,"ĠÙģØ¶":2322,"ĠÙģØ±ÙĪØ¯":2323,"ÛĮØ¯ÙĨ":2324,"ason":2325,"Ġwalk":2326,"Ġpartic":2327,"No":2328,"Ġloc":2329,"Ùĥ":2330,"Ġwomen":2331,"ĠZ":2332,"wards":2333,"akes":2334,"Ø®ÙĨØ¯Ùĩ":2335,"Ø²ÙĨ":2336,"Ġsol":2337,"ement":2338,"Ġvis":2339,"ÙĦØ§ØŃ":2340,"ature":2341,"Ġside":2342,"ĠÙĩÙĪØ§":2343,"ÚĨÙĪÙĨ":2344,"ÙĪÙģ":2345,"oney":2346,"Well":2347,"ird":2348,"erv":2349,"ĠÚ¯Ø°Ø´ØªÙĩ":2350,"ĠÙĨÚ¯Ùĩ":2351,"Ġsince":2352,"ĠØ¨Ø´":2353,"Ġinf":2354,"Ġext":2355,"ĠØ´ÙĪÙĨØ¯":2356,"ĠØ´Ø§ÙħÙĦ":2357,"ĠSh":2358,"br":2359,"Ġchar":2360,"ung":2361,"ĠØŃÛĮ":2362,"ĠØŃÙĤÛĮ":2363,"Ġactually":2364,"ĠØ¨Ø³ÛĮØ§Ø±ÛĮ":2365,"ants":2366,"Ġmed":2367,"iversity":2368,"His":2369,"Ġwind":2370,"ĠÙ¾Ø±Ø¯":2371,"Ġunderstand":2372,"ĠÙħÙĨØª":2373,"ĠÙħÙĨØ¸":2374,"Ø¨Ø¯":2375,"ĠUnited":2376,"Ġimport":2377,"ither":2378,"cri":2379,"atch":2380,"ately":2381,"ize":2382,"ĠØªØ§Ø¨":2383,"ĠÚ¯ÙĪ":2384,"ĠÙħØ±Ú¯":2385,"Ġfamily":2386,"Ġexper":2387,"Ø±ÛĮÙĤ":2388,"ĠÙģØ±Ø§ÙĨ":2389,"Ġhands":2390,"ains":2391,"Ġunt":2392,"Ø§ÛĮÙħ":2393,"ĠÙĨÙĪØ¹":2394,"Ġlooking":2395,"cent":2396,"Ø±Ú©Ø²":2397,"ĠØ®Ø§Øµ":2398,"Ġdone":2399,"ĠØ§Ø·ÙĦØ§Ø¹Ø§Øª":2400,"Ġocc":2401,"Ø¨Ø§ÛĮØ¯":2402,"Ġmo":2403,"Ġopen":2404,"me":2405,"ley":2406,"ĠÙ¾Ø§Ø³":2407,"Ġsing":2408,"ann":2409,"Ġseen":2410,"Ġless":2411,"ĠSe":2412,"Ġsil":2413,"Ġhalf":2414,"Ġenough":2415,"ĠØ¯Ø§Ø´ØªÙĨØ¯":2416,"ets":2417,"ÙĩÙħÙĩ":2418,"Ġdoor":2419,"Then":2420,"ĠHe":2421,"ĠÙħØ´Øª":2422,"Ġchildren":2423,"ĠSp":2424,"med":2425,"Ø±ÛĮÙĩ":2426,"ĠØºØ°":2427,"ĠÙĪØ§":2428,"Ġgrou":2429,"iting":2430,"Ġreturn":2431,"Ġbuild":2432,"Ġbre":2433,"ĠØ±Ùĩ":2434,"ĠØ¬ÙĩØ§ÙĨÛĮ":2435,"ĠPro":2436,"\",":2437,"ĠØ³Ù¾":2438,"ÙĪÙĦÙĪ":2439,"ĠAnd":2440,"Ø¨Ø§Ø·":2441,"Ø¯ÙĪ":2442,"Ġgirl":2443,"Ġlater":2444,"ĠØªÙĦ":2445,"ĠÙģØ±Ø§":2446,"ĠØ®Ø¯Ùħ":2447,"ĠÙħØ´Ú©ÙĦ":2448,"Ġhour":2449,"ral":2450,"ope":2451,"ling":2452,"Ġlist":2453,"Ø¨Ø®":2454,"ĠØ³Ø®Øª":2455,"ĠØªØµÙħÛĮÙħ":2456,"ĠÙħØªØŃØ¯Ùĩ":2457,"Ø²ÛĮØ±":2458,"ÙģØ§":2459,"Ġtre":2460,"Ġheard":2461,"Ġrun":2462,"erest":2463,"ream":2464,"ĠØ¯ÙĨÛĮØ§":2465,"Ġmar":2466,"ØµÙĦ":2467,"ĠØ·Ø¨ÛĮ":2468,"ries":2469,"ĠØ®ÙĪØ¨ÛĮ":2470,"ĠÙĨÙĪØ±":2471,"ury":2472,"Ø±ÛĮØ¨Ø§":2473,"uro":2474,"aj":2475,"ĠÙ¾Ø§Ø±":2476,"Ġtoget":2477,"ĠØ¯Ø§Ø³ØªØ§ÙĨ":2478,"Ġproble":2479,"Ø§ÙģØª":2480,"let":2481,"ĠØ¬Ø§Ùħ":2482,"ĠØ¢Ø´":2483,"ron":2484,"Ġtogether":2485,"ember":2486,"ĠØ§ÛĮØ§ÙĦØ§Øª":2487,"ÙĦÛĮÙĩ":2488,"ĠQ":2489,"ÙĬÙĨ":2490,"ĠØ¬Ø§ÛĮÛĮ":2491,"ruct":2492,"ĠØ³ÙħØª":2493,"ĠÙĩØ±Ú¯Ø²":2494,"Ġfar":2495,"Ġdays":2496,"ĠØ§Ø«Ø±":2497,"Ġnext":2498,"ØªÙĪØ§ÙĨÙĨØ¯":2499,"Ġanything":2500,"Ġgovern":2501,"ĠØ¢Ø±Ø§Ùħ":2502,"Ġ10":2503,"Ø§ÙħØª":2504,"ĠØ¯Ø§Ø¯ÙĨ":2505,"ĠØ¨Ø³":2506,"ĠØ²ÙĨØ§ÙĨ":2507,"Ø¯ÛĮÙĦ":2508,"de":2509,"Ġmus":2510,"Ġwa":2511,"ĠØ±ÙĪØ´ÙĨ":2512,"ĠEng":2513,"Ġoften":2514,"ĠØ§Ø³Ù¾":2515,"ĠIt":2516,"Ġlead":2517,"ital":2518,"Ġduring":2519,"Ġwoman":2520,"Ġelect":2521,"ĠØºØ±":2522,"Ø§ÛĮØ±":2523,"Ġwhy":2524,"Ġnear":2525,"Ġsat":2526,"Ø§ÙĨÙħ":2527,"Ġexpl":2528,"ĠØ¹Øµ":2529,"ided":2530,"unic":2531,"Ø²Ø§Ø¯Ùĩ":2532,"pped":2533,"ĠØ¢Ùĩ":2534,"Ġdef":2535,"An":2536,"ĠØ¢Ø³":2537,"ÙĦÙħ":2538,"fter":2539,"illion":2540,"Ġinterest":2541,"pend":2542,"Ġans":2543,"Ø§ÙħØ¨Ø±":2544,"Ġpat":2545,"Ġturned":2546,"Ġty":2547,"Ġlarge":2548,"Ġschool":2549,"Ø±Ø§ØŃÛĮ":2550,"that":2551,"ĠØ§Ø´Øª":2552,"ĠÙ¾Ø§ÛĮØ§ÙĨ":2553,"Ġcontin":2554,"aring":2555,"ĠØ§Ø¹Øª":2556,"ames":2557,"Ġdem":2558,"Ġdesign":2559,"ably":2560,"Ġtechn":2561,"Ø±Ø§Ø¦":2562,"ÙĦØ§Ùģ":2563,"Ø´ÙĪÙĨ":2564,"Ġcountry":2565,"ÙĨØª":2566,"ĠÙĨØ§Ø±":2567,"ĠAs":2568,"ĠÙħØ³Ø¦":2569,"Ġple":2570,"ĠØ§Ø¬Ø§Ø²Ùĩ":2571,"ĠØŃØ¯ÙĪØ¯":2572,"ues":2573,"ĠØ³Ø§Ø²ÙħØ§ÙĨ":2574,"Ø¨ØŃ":2575,"ully":2576,"ÙĤØ±":2577,"Ú©ÙĨÛĮØ¯":2578,"ØªÙħØ§ÙĦ":2579,"oll":2580,"ĠÙ¾Ø±Ø³ÛĮØ¯":2581,"aint":2582,"ĠPr":2583,"Ø®ÙĪØ§ÙĩÙħ":2584,"formation":2585,"Ġlot":2586,"ĠØªØ§Ø±ÛĮØ®":2587,"ĠØ§ÙĤØª":2588,"ĠØŃØ§ÙĦØª":2589,"Ġvar":2590,"ĠInd":2591,"ides":2592,"orth":2593,"ĠØ¢ÙħÙĪØ²":2594,"ĠØ¯Ø§ÙĨØ´Ú¯Ø§Ùĩ":2595,"ĠPh":2596,"Ġvoice":2597,"Ġmove":2598,"att":2599,"Ġcourse":2600,"ĠØªÙħØ§":2601,"Ġlangu":2602,"Ø§ÙħÙĪØ´":2603,"Ġspec":2604,"Ø²ÙĨØ¯":2605,"ĠØ®ÙĪØ§Ø³Øª":2606,"Ø«ÛĮØ±":2607,"Ġpop":2608,"ÙħÛĮØª":2609,"ĠØ¬ÙħØ¹":2610,"aken":2611,"ĠÙĦØ¨Ø§Ø³":2612,"ĠØ®Øµ":2613,"ĠØ¨Ú¯ÙĪÛĮ":2614,"ØŃÙĩ":2615,"ĠGod":2616,"ĠØ²Ø¯Ùĩ":2617,"not":2618,"ĠÙħØªÙĪØ¬Ùĩ":2619,"Ġprocess":2620,"Ġbro":2621,"ĠØ³ÛĮØ§Ùĩ":2622,"Ġ198":2623,"Û±Û":2624,"ÙĦØ§Ùħ":2625,"Ġbest":2626,"aut":2627,"ĠÙĩÙĪ":2628,"erman":2629,"Ø®ÙĪØ§ÙĨ":2630,"ĠØ¯ÙĪÙĦØª":2631,"ĠØ±Ø§Ø³Øª":2632,"Ú©Ø±Ø¯Ùħ":2633,"Ġfore":2634,"Ġwords":2635,"Ø±ÛĮØ§ÙĨ":2636,"gram":2637,"ÙĪØ§Ø¬":2638,"ĠÛ³":2639,"ĠØ¢ØºØ§Ø²":2640,"Ġcond":2641,"ĠØªØ¨Ø¯ÛĮÙĦ":2642,"Ġkeep":2643,"Ø¨ÛĮÙĩ":2644,"ÙħÛĮØ²":2645,"Ġval":2646,"ĠØ³Ø±Ø§":2647,"row":2648,"Ġwhole":2649,"ĠÙĦØ§":2650,"Ġclo":2651,"ĠÙĩØ²Ø§Ø±":2652,"ĠØ¨ÙĪØ¯ÙĨ":2653,"ĠÙĩØ³ØªÙħ":2654,"ÙħØ²":2655,"Ø¯Ø§Ø±ÛĮ":2656,"ured":2657,"Ú©Ø§Ø±ÛĮ":2658,"Ġtri":2659,"ĠØŃØ§Ø¶Ø±":2660,"ĠÙħØ±Øª":2661,"ĠAn":2662,"Ġdirect":2663,"ĠØ¯ÙĪÙħ":2664,"Ġstop":2665,"ĠÙħØ¬ÙħÙĪ":2666,"Ø¹Ø§":2667,"ĠØªØŃØª":2668,"ĠÙħÙĨØ·ÙĤÙĩ":2669,"raw":2670,"ĠØ§Ø±Ø²":2671,"ĠØ§Ø¬ØªÙħØ§":2672,"ĠØ§Ø±ØªØ¨Ø§Ø·":2673,"Ġuntil":2674,"ĠØ·Ø¨":2675,"Ġfive":2676,"Ġalmost":2677,"ĠÙħÙĪÙģ":2678,"Ġequ":2679,"Ø¯Ùģ":2680,"Ø¨Ø§Øª":2681,"body":2682,"bed":2683,"ying":2684,"Ø¸Ø±":2685,"Ø§ÙĨØª":2686,"ĠÚ©ÙĪØª":2687,"Ġorgan":2688,"Ġfun":2689,"Ġmoney":2690,"ĠØ¯Ø§Ø®ÙĦ":2691,"ĠÙħÙĦÛĮ":2692,"ĠÙĨÙħÙĪØ¯":2693,"ĠÙħÙĪØ¬ÙĪØ¯":2694,"Ġcertain":2695,"my":2696,"Ġ7":2697,"ĠØ¨ÙĢ":2698,"ĠFran":2699,"ogr":2700,"ĠÙħØ±Ø¨":2701,"ĠÚ¯Ø³Øª":2702,"ĠØªÙĪÛĮ":2703,"Ø³Ø§Ø²ÛĮ":2704,"ĠWh":2705,"Ú©Ø´":2706,"ĠÙĦÙĪ":2707,"ĠØ§ÙĤ":2708,"ety":2709,"Ġformula":2710,"ĠØªØµÙĪÛĮ":2711,"Ġstate":2712,"Ġwar":2713,"ĠÙĤØ¯Ø±Øª":2714,"Ġserv":2715,"Ġ8":2716,"Ġ9":2717,"ÙħÙĨØ¯":2718,"Ġsci":2719,"els":2720,"Ġbecame":2721,"ĠØ³Øª":2722,"ĠØ²ÛĮØ±Ø§":2723,"ĠØ¨ÙĦÚ©Ùĩ":2724,"ØŃØ§ÙĦØ§":2725,"bers":2726,"ĠØ³Ø®ÙĨ":2727,"Ø±Ø§Øª":2728,"Ø¯ÙĨ":2729,"Ġchange":2730,"ĠØ¹Ø±":2731,"used":2732,"ton":2733,"ged":2734,"ĠØ§Ø±ÙĪ":2735,"ĠÙħØ®ØªÙĦÙģ":2736,"ĠÙĪØ§ÙĦ":2737,"selves":2738,"Ø±ØŃ":2739,"Ġexample":2740,"aces":2741,"Ø§ÙĨÛĮØ§":2742,"Ú©Ø§":2743,"ĠØ¢ÛĮØ§":2744,"ĠØ¨ÙĪ":2745,"Ġadv":2746,"ĠØ²ÛĮØ§Ø¯":2747,"Ġtru":2748,"ternational":2749,"Ġhaving":2750,"Ġdep":2751,"Ġappro":2752,"ÙĪÛĮÙħ":2753,"Ø§Ø´ÛĮ":2754,"Ġquite":2755,"Ã©":2756,"Ġtimes":2757,"ĠØ¯Ø±ÛĮØ§ÙģØª":2758,"Ø¢ÛĮØ¯":2759,"Ġtra":2760,"une":2761,"ĠØ±ÙģØªØ§Ø±":2762,"uck":2763,"ĠÙĨØ§ÙħÙĩ":2764,"Ø´ÛĮÙĨ":2765,"Ġprot":2766,"ĠØ¯Ø§Ø±Ø§ÛĮ":2767,"ĠÚ©Ø§ÙħÙĦØ§":2768,"Ġyet":2769,"ĠÛĮØ¹ÙĨÛĮ":2770,"ĠØ§ÙĤØªØµ":2771,"ĠÚ©Ø±Ø¯ÛĮÙħ":2772,"Ġchang":2773,"ĠØªÙĦØ§":2774,"ĠØ®Ø§Ø±Ø¬":2775,"orld":2776,"Al":2777,"Ġpur":2778,"ery":2779,"ĠØ¨Ø³ØªÙĩ":2780,"ÙĦÙĤ":2781,"ane":2782,"ĠChrist":2783,"Ġwanted":2784,"conom":2785,"ĠMar":2786,"Ø¦ÙĨ":2787,"ÙĨÙħÛĮ":2788,"ĠÙ¾ÛĮÚĨ":2789,"ĠStates":2790,"Ġhist":2791,"Ġshall":2792,"ffect":2793,"ask":2794,"Ùı":2795,"ÙħØ§ÛĮØ´":2796,"Ġdri":2797,"Ġable":2798,"Ġbig":2799,"ĠÚĨÙĩØ±Ùĩ":2800,"ention":2801,"ÙĪÛĮÙĤ":2802,"Ø§ØµÙĦÙĩ":2803,"Ø®ÙĨØ¯":2804,"ĠØ®Ø¨Ø±":2805,"ĠÙħØ·Ø§ÙĦ":2806,"ĠØµØ¯Ø§":2807,"ĠØ¹Ø´":2808,"Ġwithin":2809,"yle":2810,"Ġdeath":2811,"ĠØ¨ØŃ":2812,"Ø¬ÙĪ":2813,"Ġlaw":2814,"rence":2815,"ĠØŃÙĤÛĮÙĤØª":2816,"Ġpri":2817,"ĠØ´ÙĪØ±":2818,"ĠØªÙĤØ±ÛĮØ¨Ø§":2819,"ĠØ³Ø±Ø¹Øª":2820,"Ġcor":2821,"ision":2822,"Ġdark":2823,"Ġimportant":2824,"ĠÙħØªÙģ":2825,"ium":2826,"aster":2827,"ĠØ®ØµÙĪØµ":2828,"ĠØ¯Ø±ÛĮ":2829,"Ø§ÙĩØ´":2830,"Ø±Ø¨Ùĩ":2831,"ived":2832,"ØŃØªÛĮ":2833,"Ġconst":2834,"Ú¯Ø±ÙģØª":2835,"Ø³ØªÛĮÙĨ":2836,"ĠØ³Ø·ØŃ":2837,"work":2838,"of":2839,"Ġmonth":2840,"Ġdel":2841,"ĠÙĪØ³":2842,"Ġsound":2843,"Ġbody":2844,"Ú¯ÙĩØ§ÙĨ":2845,"Ú©ÛĮÙĦ":2846,"ĠØ¬ÙĦ":2847,"ĠÙ¾ÙĪØ´":2848,"Ġ0":2849,"play":2850,"Ø§Ø¬":2851,"ĠÚ©Ø§ÙĦ":2852,"ĠØ®ÙĪØ±":2853,"Ġdoing":2854,"ĠÚ©Ø´ØªÛĮ":2855,"ister":2856,"Ø§ØªØ±":2857,"ĠÙ¾Ø³Ø±":2858,"ĠØ¹ÙĪ":2859,"Ġmil":2860,"ĠØªØ§Ø²Ùĩ":2861,"Ġblack":2862,"ĠAf":2863,"Ġalong":2864,"Ø³ÛĮÙĤÛĮ":2865,"ĠØ®Ø¯Ø§":2866,"Ġresult":2867,"bs":2868,"ĠØ¨Ø§ÙĨ":2869,"ĠØ®ÙĪØ±Ø¯":2870,"ĠÙ¾Ø§Ø³Ø®":2871,"Ġland":2872,"ĠØ®ÙĪÙĨ":2873,"ÚĨÙĨÛĮÙĨ":2874,"Ø´ÙħØ§":2875,"ĠØ§ØŃØªÙħØ§ÙĦ":2876,"ĠØ¸Ø§Ùĩ":2877,"reen":2878,"Ġkill":2879,"ĠØ§Ø´Ø§Ø±Ùĩ":2880,"Ġeas":2881,"oke":2882,"ĠØ¢ÙĨØ§ÙĨ":2883,"ĠØŃÙħ":2884,"ee":2885,"ĠEuro":2886,"ĠØ¨Ø±Ø®ÛĮ":2887,"ĠØ¨ÛĮÙħØ§Ø±":2888,"ÛĮÙĨÚ¯":2889,"ĠÙģØ±ÛĮØ§Ø¯":2890,"Ġ{\\":2891,"Ġ+":2892,"Ġpolit":2893,"ats":2894,"ĠØµÙģ":2895,"ract":2896,"Ø©":2897,"ĠØ§Ø²Ø¯":2898,"Ġcontro":2899,"ÙĪØ±Ùħ":2900,"ĠØ¯Ùģ":2901,"Ġdata":2902,"ÙĩÛĮÚĨ":2903,"Ġidea":2904,"men":2905,"ĠØªØ¹Ø¯Ø§Ø¯":2906,"Ġmark":2907,"Ġopp":2908,"Ø¬Ø§ÙĨ":2909,"My":2910,"Ø¨Ø¹":2911,"ped":2912,"Ġrequ":2913,"ĠÙĨÙĪØ´ØªÙĩ":2914,"ĠØªØ±Ú©":2915,"Ġeverything":2916,"ĠØ§Ø¶":2917,"ĠØªØµÙĪØ±":2918,"ison":2919,"ĠØªÙĪØ³Ø¹Ùĩ":2920,"ĠØ·Ø±ÛĮÙĤ":2921,"Ġcity":2922,"Ġpublic":2923,"ĠÙħÛĮÙĦÛĮÙĪÙĨ":2924,"ĠÙħØ«Ø§ÙĦ":2925,"Ġbelieve":2926,"Ø§ÙĦØª":2927,"Ġbegin":2928,"Ġele":2929,"where":2930,"Ġest":2931,"Ġgave":2932,"ÙĪØ¨ÛĮ":2933,"ases":2934,"pr":2935,"ĠØ±ÙĤ":2936,"ĠÙĩÙĨÚ¯Ø§Ùħ":2937,"ulation":2938,"ization":2939,"use":2940,"ĠØ§ÙģØ²Ø§ÛĮØ´":2941,"ĠÚĨØ´":2942,"Ġothers":2943,"âĢĮØ":2944,"Ùĳ":2945,"ĠÚĨÚ¯ÙĪÙĨÙĩ":2946,"ĠÙ¾Ø°ÛĮØ±":2947,"Ġclass":2948,"Ġpar":2949,"Ġcell":2950,"Ø±ÚĺÛĮ":2951,"Ġfell":2952,"ffic":2953,"Ø¸Ø§Ø±":2954,"ĠØ´Ø¯Ùħ":2955,"ĠØ¨ÛĮÙħØ§Ø±ÛĮ":2956,"Ġlive":2957,"Ġpos":2958,"ĠUniversity":2959,"ĠØ·Ø±Ø§ØŃÛĮ":2960,"Ġgiven":2961,"All":2962,"Ġes":2963,"ĠÚ©Ø§ÙħÙĦ":2964,"ĠSo":2965,"One":2966,"Ġeng":2967,"dden":2968,"ony":2969,"ĠØ¯Ø±Ø¯":2970,"Ú¯Ø±Ø§ÙĨ":2971,"Ø¯ÙĪØ¯":2972,"itch":2973,"ĠØ³Ø§Ø¯Ùĩ":2974,"ĠâĢĻ":2975,"ĠGerman":2976,"Ġorder":2977,"ĠØ¯Ø±ØµØ¯":2978,"Ġsoon":2979,"Ġoper":2980,"ĠØªØ±Ú©ÛĮ":2981,"Ø³Ø§":2982,"ĠØ¯Ø±ÙĪÙĨ":2983,"Ġ197":2984,"ressed":2985,"Ġsent":2986,"ĠØ¯Ø±Ø®Øª":2987,"ĠÙ¬":2988,"orning":2989,"Ø±ÛĮØª":2990,"Ġpresent":2991,"Ġeffect":2992,"Ø³ØªÙħ":2993,"ĠØ§ÙĨØ¯Ø§Ø®Øª":2994,"ĠÙħØ§ÙĨØ¯":2995,"Ú©ÙĨÛĮ":2996,"Ġbecome":2997,"cle":2998,"ØªÙĪØ§ÙĨÙħ":2999,"Ġmyself":3000,"ĠÙĩÙģØªÙĩ":3001,"Ġshort":3002,"ape":3003,"ĠØ³ÙģÛĮØ¯":3004,"Ġsort":3005,"ĠØ¢ØªØ´":3006,"ĠÙĪÙĨ":3007,"ĠØªÙĩ":3008,"ient":3009,"ÙĨØ¯Ú¯Ø§ÙĨ":3010,"Ġsix":3011,"ĠÙĨÙĤØ´":3012,"Ch":3013,"Ġri":3014,"ĠØªØ±Ø³":3015,"Ġstarted":3016,"Ġherself":3017,"ĠÚĨØ·ÙĪØ±":3018,"ĠEurope":3019,"Ø·ÛĮ":3020,"Ġrece":3021,"Ø§Ø¨Ùĩ":3022,"Ġsudden":3023,"--":3024,"ĠØ±ÙĪØ¯":3025,"ĠÙģØ±ÙĪØ¯Ú¯Ø§Ùĩ":3026,"Ġsure":3027,"Ġquestion":3028,"ĠÚ©Ø§ÙĨ":3029,"ÚĨÛĮ":3030,"ÙħØ§ÙĨØ¯":3031,"iver":3032,"Ġtown":3033,"ÙĦØ§Ø³":3034,"Ø§Øº":3035,"ØªÙĦ":3036,"ÚĨÙĨØ¯":3037,"Ġcommon":3038,"Ġresp":3039,"Ø§ÙĪÙĨ":3040,"ories":3041,"Ġoffic":3042,"Ġbit":3043,"ØªØ±ÙĦ":3044,"ÙħØ¹":3045,"Ġweek":3046,"ready":3047,"Ġprof":3048,"Ø³ÙħØª":3049,"Ú¯Ø§Ø±":3050,"Ġbehind":3051,"ĠØ¢ÛĮÙĨØ¯Ùĩ":3052,"ÛĮØ¯Ùħ":3053,"ott":3054,"ĠÙĪØ§ÙĤØ¹ÛĮ":3055,"Ø±ÙĪØ¯":3056,"ĠØ¹Ø²":3057,"ĠWorld":3058,"ĠÙħÙĤØ§Ø¨ÙĦ":3059,"Ġsit":3060,"ĠØ¬ÙħÙĦÙĩ":3061,"Ġshow":3062,"ued":3063,"ĠÙħØ§ÙĦ":3064,"Oh":3065,"ØŃØª":3066,"Ġleg":3067,"ĠÙħØ¬ÙħÙĪØ¹Ùĩ":3068,"ĠØ§Ø¬ØªÙħØ§Ø¹ÛĮ":3069,"ience":3070,"idd":3071,"ĠWe":3072,"Ø²Ø´":3073,"ĠØ±Ø§ÛĮ":3074,"ĠØ®ÙĪØ§ÙĩÙħ":3075,"Ġbed":3076,"Ġmorning":3077,"Ġgovernment":3078,"St":3079,"Ġsever":3080,"Ġdev":3081,"ĠØ¨Ø§ÙĪØ±":3082,"Ġbusiness":3083,"Ġprogram":3084,"After":3085,"ĠØ¨Ø±Ø¯Ø§Ø´Øª":3086,"ĠAmerican":3087,"ĠÙĪØŃØ´Øª":3088,"ØµÛĮ":3089,"ÛĮØ²Ùĩ":3090,"Ġpain":3091,"Ø§Ø¨Ø§ÙĨ":3092,"ĠØ´Ø¨ÛĮÙĩ":3093,"Ġsle":3094,"Ġpossible":3095,"eng":3096,"Ġamong":3097,"ĠÙĨØ´Ø¯Ùĩ":3098,"Ġplan":3099,"ograph":3100,"ĠØªÙĪÙĨ":3101,"ead":3102,"Ġcomput":3103,"ĠØ§Ú©ÙĨÙĪÙĨ":3104,"ĠØ§ÙĨØ±ÚĺÛĮ":3105,"Ġincre":3106,"Ġwhite":3107,"ode":3108,"ior":3109,"Ġstory":3110,"que":3111,"ĠØµØ¨ØŃ":3112,"Ġfull":3113,"ĠØªÙĦØ§Ø´":3114,"ĠÙĪØ³ÛĮ":3115,"ÙĦÛĮØ³":3116,"ĠÚ©ÙĨÙĩ":3117,"ĠÙħØ±Ø¨ÙĪØ·":3118,"Ø®ÙĪØ¨":3119,"Ø§Ø¨Ø¯":3120,"Ġdisplay":3121,"Ø§Ø²Ø¯":3122,"ĠØ¨Ø³Øª":3123,"acy":3124,"Ġaw":3125,"ĠØ´ÙĨØ§Ø®ØªÙĩ":3126,"Ø¦ÛĮØ³":3127,"Ø±Ø§ÙĨ":3128,"ĠØ§Ø²Ø¯ÙĪØ§Ø¬":3129,"ma":3130,"ccess":3131,"App":3132,"Ġinformation":3133,"rench":3134,"ĠÙĤØ§ÙĨÙĪÙĨ":3135,"Û²":3136,"ĠØ³Ù¾Ø³":3137,"Ġrather":3138,"ze":3139,"Ġtaken":3140,"ĠØ²ÙĪØ¯":3141,"Ġwon":3142,"ha":3143,"Ġhold":3144,"Ġprom":3145,"Ġ&":3146,"ĠØ³Ø¹ÛĮ":3147,"olution":3148,"fort":3149,"ĠØ¢Ø²Ø§Ø¯":3150,"ĠÙħÙĪØ³ÛĮÙĤÛĮ":3151,"Ġleast":3152,"ĠØ¨Ø±Ú¯":3153,"ctor":3154,"ĠØ§ÙĨØªØ¸Ø§Ø±":3155,"Ø¢ÛĮØ§":3156,"Ġhor":3157,"ĠØ¬ÙĩØª":3158,"âĢĮ.":3159,"though":3160,"Ġcase":3161,"ÙĪØ§Ø±Ùĩ":3162,"haps":3163,"ĠØ§Øº":3164,"ĠâĻ":3165,"ians":3166,"ĠØ§Ø¨Øª":3167,"Ġrese":3168,"lish":3169,"read":3170,"ĠØ¨Ø§ÙĤÛĮ":3171,"ĠØ§ÙħØ±ÙĪØ²":3172,"ĠÙ¾ÙĦ":3173,"ĠÙħØ¯Ø±Ø³Ùĩ":3174,"amed":3175,"ks":3176,"ole":3177,"ĠØ¨Ù¾":3178,"ional":3179,"ĠØ§ÙģØªØ§Ø¯Ùĩ":3180,"by":3181,"ĠÚ©ÙĨØªØ±ÙĦ":3182,"Ø¯ÙĩÙĨØ¯":3183,"ĠÙĦØ§Ø²Ùħ":3184,"To":3185,"ĠÙħØ´Ø®Øµ":3186,"ĠØ¨Ú¯ÛĮØ±":3187,"ĠÙĨÙħØ§ÛĮØ´":3188,"ĠÙģØ±ÙħØ§ÙĨ":3189,"Ġseveral":3190,"side":3191,"Ġalready":3192,"ĠØ§ÙħÛĮØ¯":3193,"ards":3194,"Ġmaking":3195,"iron":3196,"Ġusing":3197,"ĠØ¨Ø¯ÙĨ":3198,"iter":3199,"Ġeconom":3200,"ĠÚ¯ÙģØªÙħ":3201,"ror":3202,"atic":3203,"ĠØ³Ø±Ø¯":3204,"ĠÙĤØ¯":3205,"Ġmag":3206,"ĠØ¯ÙĪØ±Ùĩ":3207,"Ġelse":3208,"ĠÙ¾ÙĨ":3209,"ĠØ¯ÙĤÛĮÙĤÙĩ":3210,"Why":3211,"ĠØ®Ø·Ø±":3212,"Ø¯Ø§ÙĨÙħ":3213,"Ġinde":3214,"ĠØ§Ø³Ø§Ø³":3215,"ĠØ¯Ùħ":3216,"ĠØ·ÛĮ":3217,"ĠØ¢Ø²ÙħØ§ÛĮØ´":3218,"Ġlearn":3219,"ĠÙĥÙĩ":3220,"ĠØ³Ø±Ø´":3221,"ĠØ²ÙĨØ¯Ùĩ":3222,"ĠØ¬ÙħØ¹ÛĮØª":3223,"ĠÙħÙĨØªØ´":3224,"ĠØ¬ÙĪØ±":3225,"ĠâĢĶ":3226,"Ġsays":3227,"nect":3228,"ĠØ¨ÛĮØ´ØªØ±ÛĮ":3229,"Ġav":3230,"Ø§Ø³Ø¨":3231,"aced":3232,"ĠØ¹Ø´ÙĤ":3233,"Ġmeans":3234,"ÚĨØ§Ø±":3235,"ĠÙħÙĪÙĤØ¹":3236,"âĢĮØĮ":3237,"ĠÛĮØ§ÙģØªÙĩ":3238,"Ø§ÙĦØ¨":3239,"ots":3240,"ĠØµÙĨØ¯":3241,"Ġfilm":3242,"ĠØ¯Ø´":3243,"These":3244,"ĠØ§Ø³Ø¨":3245,"fic":3246,"ergy":3247,"Ġearly":3248,"eth":3249,"che":3250,"ĠÚ©Ø§ÙĩØ´":3251,"ien":3252,"Ġspeak":3253,"ÙĪØ§ÙĨÛĮ":3254,"ĠØ¹ÙħÙĪÙħÛĮ":3255,"ĠÙĨØ§Ø±Ø§ØŃ":3256,"Ø§ÛĮØ³Øª":3257,"ĠÂ».":3258,"ĠØµØ±Ùģ":3259,"ĠÙ«":3260,"ĠÚ©ÙĨÙĨØ¯Ùĩ":3261,"Ġacross":3262,"ĠÙħØ¹ÙħÙĪÙĦØ§":3263,"ĠÙħÙĨØªØ´Ø±":3264,"arent":3265,"Ġsupport":3266,"Yes":3267,"Ġround":3268,"Ø§ÙĦÛĮØª":3269,"Ġhear":3270,"Ġgroup":3271,"Ġmatter":3272,"ĠÛ´":3273,"ĠÙħØ³ÛĮ":3274,"ĠÙħØºØ²":3275,"Ø§ÙĩØ§":3276,"Ø¨ÙĨØ§Ø¨Ø±Ø§ÛĮÙĨ":3277,"ÛĮØ¯ÙĨØ¯":3278,"sh":3279,"ĠØ§ÙĨØªÙĤ":3280,"wer":3281,"ĠØ®Ø§Ú©":3282,"ĠØ¹Ø¬ÛĮ":3283,"fully":3284,"Ġfall":3285,"ĠÙħØ§Ø´ÛĮÙĨ":3286,"Ġfree":3287,"Ġphys":3288,"Ø´Ø¯Ùĩ":3289,"Ġori":3290,"ĠPar":3291,"ĠØŃÙħÙĦÙĩ":3292,"ÙĪÛĮÙĩ":3293,"ĠÙĤØ³ÙħØª":3294,"rought":3295,"Ø´ÙĨØ§Ø³":3296,"ĠÙĨØ´Ø³ØªÙĩ":3297,"ĠØªÙħØ§Ø´":3298,"ĠÚĺÙĨ":3299,"lause":3300,"ÙĪÙĩØ§ÛĮ":3301,"undred":3302,"ribut":3303,"ĠØ¬ÛĮ":3304,"ĠÛ±Û¹Û¹Û":3305,"rict":3306,"Ø²ÛĮØ±Ø§":3307,"ober":3308,"ĠØ¯Ø§Ø´ØªÙħ":3309,"Ġclose":3310,"ĠØ´Ø¨Ú©Ùĩ":3311,"ousand":3312,"ĠÙģÙĩÙħ":3313,"ĠØ¯ÛĮÚ¯Ø±Ø§ÙĨ":3314,"ider":3315,"ĠØ¬Ø§ÙħØ¹Ùĩ":3316,"Ø¢Ùħ":3317,"ĠÚ©Ø§ÙģÛĮ":3318,"ĠØ³ÛĮØ§":3319,"unity":3320,"ĠØ§ÙħÚ©Ø§ÙĨ":3321,"ĠØªØ´Ú©ÛĮÙĦ":3322,"oph":3323,"ÛĮÚ©ÛĮ":3324,"ĠÙ¾Ø±Øª":3325,"ĠÙģÙĦ":3326,"ĠØ³ÙģØ±":3327,"....":3328,"co":3329,"ĠØ¢Ø³ÛĮ":3330,"Ġ15":3331,"ression":3332,"Ġred":3333,"ĠCl":3334,"ĠØ¨Ø§Ø´ÛĮØ¯":3335,"ØºÙĪÙĦ":3336,"Ġrepl":3337,"Ġreason":3338,"ean":3339,"rop":3340,"ĠØ¨ÙĩØªØ±ÛĮÙĨ":3341,"ĠÙĩØ¯Ùģ":3342,"Ġ196":3343,"Ú©ÙĨÙĨØ¯Ùĩ":3344,"ĠÛĮÙĨ":3345,"mber":3346,"eral":3347,"ĠØ¨Ø±ÙħÛĮ":3348,"Ġpast":3349,"ĠØ¹ÙĤØ¨":3350,"tend":3351,"gen":3352,"ĠØ¬Ø¯Ø§":3353,"ĠØ§Ø³Ùħ":3354,"Ġobs":3355,"Ø´ÙĨÙĩ":3356,"Ú¯Ø°Ø§Ø±ÛĮ":3357,"Ġwond":3358,"Ø§ÙĨÙĪ":3359,"ĠØ¹ÙĦØ§ÙĤÙĩ":3360,"Ġlow":3361,"Ø³Ù¾Ø³":3362,"ives":3363,"Ġhealth":3364,"Ø§ÛĮÙĨØ¯":3365,"Ø®ÙĪØ¯":3366,"Ġcir":3367,"ĠØªØ®":3368,"ĠBe":3369,"ØªÙĪØ§ÙĨÛĮÙħ":3370,"ĠØ¯ÙĩÙĩ":3371,"ĠX":3372,"ĠØ¯Ø±ÙĪ":3373,"Ø±Ø³Ø¯":3374,"Ø±Ø§ÙĦ":3375,"Ġflo":3376,"Ġtable":3377,"Ġmillion":3378,"Ġparticular":3379,"ĠØ§ÛĮÙħ":3380,"ohn":3381,"Ġrele":3382,"Ġtem":3383,"ĠØ¨ÛĮØ§ÙĨ":3384,"ai":3385,"aining":3386,"Ġsun":3387,"ĠØ¯Ø³ØªÙĩ":3388,"aim":3389,"Ġhundred":3390,"Ú©Ø´ÛĮØ¯":3391,"ĠØªØ¹Ø±ÛĮÙģ":3392,"Applause":3393,"Ø¶Ø§ÛĮ":3394,"oud":3395,"Ġmeet":3396,"ĠÛĮÚ©Ø¯ÛĮÚ¯Ø±":3397,"Ġlanguage":3398,"Ġproblem":3399,"ĠØ¯Ø±Ú©":3400,"cing":3401,"Ġalone":3402,"Ġca":3403,"Ø´Ø§ÛĮØ¯":3404,"ĠÚĨÛĮ":3405,"ÙĩØ§ÛĮØª":3406,"ĠCon":3407,"ĠØ¨Ø±Ø§Ø¯Ø±":3408,"ĠØªØŃÙĤÛĮ":3409,"ĠMrs":3410,"ÙĪÛĮØª":3411,"Ġfre":3412,"Ø²ÛĮÙĨÙĩ":3413,"ĠÚ©ÙĨÛĮ":3414,"Ú¯Ø§ÙĩÛĮ":3415,"Ġcoming":3416,"ening":3417,"20":3418,"Ġtop":3419,"Ø°ÛĮ":3420,"Ġsocial":3421,"iously":3422,"Ġstrong":3423,"Ġsingle":3424,"ev":3425,"ached":3426,"uff":3427,"ĠØ±ÙģØªÙĨ":3428,"Ø®ØµÙĪØµ":3429,"Ġsuccess":3430,"ÙģØ±ÛĮ":3431,"ĠØ¨Ø±Ø³":3432,"Ġfriends":3433,"Ġthousand":3434,"ĠØ§Ø®Øª":3435,"ÙĨØ§Ú©":3436,"Ġage":3437,"µÛ":3438,"Ġexpect":3439,"ÙħÙĦÙĦÛĮ":3440,"ĠØªØ±ØªÛĮ":3441,"ĠÚ©Ø³Ø§ÙĨÛĮ":3442,"lex":3443,"Ġquick":3444,"Ġve":3445,"ÙħØ«":3446,"ĠØ·Ø¨ÛĮØ¹ÛĮ":3447,"Ġmusic":3448,"Ú©Ø³ÛĮ":3449,"ĠÙģØ¹Ø§ÙĦÛĮØª":3450,"ĠÙ¾Ø§Ú©":3451,"ĠFrench":3452,"ĠÙħØ´ØºÙĪÙĦ":3453,"Ġlay":3454,"asure":3455,"ÙĪÙĨØ§":3456,"ĠØ§Ø·Ø±Ø§Ùģ":3457,"Ġfire":3458,"Ġnat":3459,"acter":3460,"cer":3461,"lf":3462,"Ġenergy":3463,"Ø¨ÛĮÙĨÛĮ":3464,"ĠØ¨Ø§Ø¯":3465,"ĠCol":3466,"ĠØ¯Ø§Ø±ÛĮØ¯":3467,"ĠÚĨØ´ÙħØ§ÙĨ":3468,"Ġcreat":3469,"ĠÚ©ÙĦÙħÙĩ":3470,"Ø§ÙĨØ´":3471,"Ġobject":3472,"reet":3473,"ĠØ¯Ø§Ø±Ùĩ":3474,"aper":3475,"ĠØ¹Ø¶":3476,"Ġgone":3477,"ÙĪÙĦÙĩ":3478,"ĠÙĨØ¬":3479,"Ø§Ø¯Øª":3480,"Ġdescri":3481,"Ġabs":3482,"ĠØ¬Ø±ÛĮØ§ÙĨ":3483,"ĠØ¬ÙħÙĩ":3484,"ĠBr":3485,"ĠØ³ÛĮØ§Ø³ÛĮ":3486,"ĠÙĨÙĪØ´Øª":3487,"itting":3488,"ogn":3489,"ĠÙħØŃÛĮ":3490,"ĠØ³ÙĪÙħ":3491,"Ø®Ùĩ":3492,"ified":3493,"ĠØ§Ø±Ø§Ø¦":3494,"Ġcountries":3495,"Ġstep":3496,"ĠØ¯Ø³ØªÙĪØ±":3497,"ler":3498,"Ø¯ÙĩÙħ":3499,"ĠØ¨Ø²Ø±":3500,"ĠØ§Ø±Ø§Ø¦Ùĩ":3501,"Ġboy":3502,"ĠYou":3503,"Ġheld":3504,"Ġanim":3505,"ĠÙħØŃÙĦ":3506,"yd":3507,"Ġdi":3508,"Ø§ÙģÙĩ":3509,"Ø®Ø¨":3510,"Ġtoday":3511,"Ø´Ø§Ùĩ":3512,"ĠØªØ³":3513,"ĠComm":3514,"Ġline":3515,"ĠØ±Ø´Ø¯":3516,"Ø±ÙĪÛĮ":3517,"son":3518,"Ġbeaut":3519,"Ġeither":3520,"ĠEm":3521,"Ġill":3522,"Ġbad":3523,"lu":3524,"ÙĪÛĮØ¯":3525,"Ġdou":3526,"ĠÙĤØ¯Ùħ":3527,"Ġbrought":3528,"Ġfield":3529,"bal":3530,"ush":3531,"ÙĤØ·Ùĩ":3532,"Ġthinking":3533,"ĠØ§ÛĮØ±Ø§ÙĨ":3534,"Ġprob":3535,"ĠØ´Ø¹":3536,"ĠØŃØ¶ÙĪØ±":3537,"Ġris":3538,"ÙĨØ³":3539,"Ġfront":3540,"ÙģÚ©Ø±":3541,"ĠÙ¾ÙĨØ¬Ø±Ùĩ":3542,"Ø±ÛĮØ³ØªÙģ":3543,"Ġson":3544,"now":3545,"oul":3546,"Ø¢ÙĤØ§ÛĮ":3547,"Â«":3548,"Ġwall":3549,"ĠÚĺØ§ÙĨ":3550,"ĠÙħØ¹ÙĨÛĮ":3551,"Ú©ÙĪÙħ":3552,"ĠÛ°":3553,"ĠÙĨÛĮØ±ÙĪÛĮ":3554,"Ø§ÙĦØ¨ØªÙĩ":3555,"ĠÙħØ¯ÙĦ":3556,"ÙģÙĩÙħ":3557,"Some":3558,"Ġsoft":3559,"Ġbrother":3560,"ones":3561,"ÙħÙĤ":3562,"ĠØŃÙĤÙĪÙĤ":3563,"itions":3564,"Ø¨Ø§Ùĩ":3565,"Ġthemselves":3566,"Ġdead":3567,"Ġmaj":3568,"ĠØ§ÛĮØ¯Ùĩ":3569,"ĠØ§ØºÙĦØ¨":3570,"Ġste":3571,"Ø³ÙĪÙĨ":3572,"style":3573,"ording":3574,"ĠSc":3575,"ĠØ§Ø¹ÙĦØ§Ùħ":3576,"ĠÙħÙĪØ§Ø¯":3577,"ĠØ¨Ø¹Ø¶ÛĮ":3578,"Ġleave":3579,"ciety":3580,"ØªØ´ÙĪÛĮÙĤ":3581,"ĠØ¹Ø§ÙĦÛĮ":3582,"Ġwhether":3583,"Ġra":3584,"ĠÚ©Ø¬Ø§":3585,"ĠØ§Ø¨Ø±":3586,"ĠØ¢ÙĪØ±Ø¯Ùĩ":3587,"Ġfear":3588,"Ġorigin":3589,"ÙĦØŃ":3590,"Her":3591,"ĠØ³ÙĦÙĪÙĦ":3592,"hem":3593,"Ġago":3594,"ĠÙĩØ³ØªÛĮÙħ":3595,"Ġimag":3596,"ĠÚ©ÙħØªØ±":3597,"ĠØ¨Ø§Ø´Ùħ":3598,"Ġgeneral":3599,"ĠØ¬Ø³Øª":3600,"ches":3601,"Ġann":3602,"Ġbrain":3603,"ĠEx":3604,"ĠØ¯ÙĦØ§Ø±":3605,"ĠØ¯ÛĮØ¯ÙĨ":3606,"ĠØ´Ø±Ø§ÛĮ":3607,"Ġwife":3608,"ĠÚ¯ÛĮØ±":3609,"ĠÙĨØ±Ùħ":3610,"Ġspace":3611,"ĠRuss":3612,"ĠÙħØ´Ø§Ùĩ":3613,"ØªÙĤ":3614,"ĠÚ¯Ùĩ":3615,"ilt":3616,"ĠØ¢Ø®Ø±ÛĮÙĨ":3617,"Ġcompany":3618,"unt":3619,"ĠGr":3620,"ission":3621,"ĠÙĤØ±ÙĨ":3622,"ĠÙģØ±Ø§ÙĨØ³Ùĩ":3623,"ator":3624,"ĠÙĨØ§Ù¾":3625,"Ġworking":3626,"ĠÙģØ±ÙĪØ´":3627,"Ø¬Ø¹":3628,"ĠWar":3629,"Not":3630,"aged":3631,"ĠØ¨Ø§ÙĦØ§ÛĮ":3632,"Ġstran":3633,"Ġnews":3634,"Ø´Ø¯ÙĨØ¯":3635,"par":3636,"Ġfoot":3637,"Ġbar":3638,"ĠÙ¾Ø±Ø¯Ø§Ø®Øª":3639,"Ġtrue":3640,"ĠÙĤÙĦØ¨":3641,"oon":3642,"Ø®ÛĮÙĦÛĮ":3643,"ÙħØ§ÙĦ":3644,"oint":3645,"put":3646,"Ġstood":3647,"ĠÙħØ²":3648,"ĠÙħØ§ÙĦÛĮ":3649,"ĠØ±Ø¯":3650,"iddle":3651,"ÙĩÙħØ§ÙĨ":3652,"ĠØ³Ø§Ø®ØªÙħØ§ÙĨ":3653,"Ġmov":3654,"ĠØ´Ø®ØµÛĮ":3655,"ief":3656,"ĠÙħØ¬Ø¨ÙĪØ±":3657,"ĠØ´Ú©Ø³Øª":3658,"ĠØªÚ©Ø§ÙĨ":3659,"ĠÙģØ±ÙĩÙĨÚ¯":3660,"itive":3661,"ky":3662,"ae":3663,"Ø§ÙĦÙħÙĦÙĦÛĮ":3664,"ĠØ¹Ø¨":3665,"ĠÚ©ÙĪØªØ§Ùĩ":3666,"Ø¨Ø´":3667,"ids":3668,"Ġhope":3669,"ĠØ®ÙĪÛĮØ´":3670,"ĠÚ©Ø±":3671,"ĠÙĩÙħÚĨÙĨØ§ÙĨ":3672,"ĠØ¨Ø±Ú¯Ø±Ø¯":3673,"Ø¸ÛĮÙħ":3674,"Ġcomplete":3675,"ĠÙĨÙĤØ·Ùĩ":3676,"airs":3677,"ĠØªÛĮÙħ":3678,"Ø±ÙĪÙģ":3679,"Ø¸ÛĮ":3680,"ĠÙĨÚ©Ø±Ø¯Ùĩ":3681,"ĠØ®ÛĮØ§ÙĦ":3682,"Ú¯ÙĪÙĨ":3683,"Ġconnect":3684,"ÙĤÛĮÙħ":3685,"ĠIran":3686,"ĠØ³Ø±Ø®":3687,"Ø´Ø¨":3688,"Ġcal":3689,"ĠÙħØ°":3690,"ĠØ¨Ø²Ø±Ú¯ÛĮ":3691,"Ġsum":3692,"Ġrev":3693,"iol":3694,"ored":3695,"Do":3696,"Ġtrying":3697,"ĠØ±Ø§Ø¨Ø·":3698,"Ġwhom":3699,"rodu":3700,"ÙĤÛĮÙĩ":3701,"Ġvill":3702,"ĠØ¯Ø±Ø§Ø²":3703,"ÙĪØ²ÛĮ":3704,"ÚĨØ±Ø§":3705,"ĠØ®ÙĪØ§ÙĩÙĨØ¯":3706,"ĠÙ¾ÛĮØ´ÙĨÙĩ":3707,"ĠÙĩÙģØª":3708,"ØªÙĪØ±":3709,"ĠAfric":3710,",\"":3711,"Ġdisplaystyle":3712,"Ġmain":3713,"Ø¨ÛĮÙĦ":3714,"ĠØ¢ÙħØ§Ø¯Ùĩ":3715,"ĠØªØ±ØªÛĮØ¨":3716,"ivid":3717,"Ġattack":3718,"Ġreport":3719,"Ġpercent":3720,"ĠÚ¯Ø±ÛĮ":3721,"ĠÙĨØ´Ø³Øª":3722,"ĠØªÙĦÙģ":3723,"ination":3724,"ĠÙĩÙĨØ¯":3725,"With":3726,"ĠÙĨØ®Ø³ØªÛĮÙĨ":3727,"Ġclear":3728,"ÙĦÙĪÙħ":3729,"ÙĨÚ¯ÛĮ":3730,"Ġcontrol":3731,"Ø±Ø§ÛĮ":3732,"Ġfut":3733,"ĠÚ©Ùģ":3734,"ĠØ¨Ø±Ø±Ø³ÛĮ":3735,"ĠØ§ÙĦØ¨ØªÙĩ":3736,"ĠØ¨Ø±Ø®ÙĪØ±Ø¯":3737,"etwork":3738,"ĠØ¯ÙĩÙĨØ¯":3739,"ĠÙĩÙĨÚ¯Ø§ÙħÛĮ":3740,"Ġlevel":3741,"ĠÚ©Ø´ÛĮØ¯Ùĩ":3742,"Ġtest":3743,"Ġexist":3744,"ster":3745,"ĠØ®Ø¯ÙħØª":3746,"bo":3747,"ĠØ¨Ú©":3748,"ĠÚ©ÙĦÙħ":3749,"Ġsaying":3750,"Ġfur":3751,"ĠØ´ÙĩØ±Ø³ØªØ§ÙĨ":3752,"ĠØ§ÛĮØ³ØªØ§Ø¯Ùĩ":3753,"ĠâĻ«":3754,"Ġground":3755,"Ġlost":3756,"Ø³Ø§ÙĦ":3757,"ĠØªÙĪØ¶ÛĮ":3758,"ÙĪÙĦÙĪÚĺÛĮ":3759,"ĠMiss":3760,"ĠÚ¯Ø±Ùħ":3761,"ĠØ²ÙħÛĮÙĨÙĩ":3762,"Ø§Ø¯ÙĦ":3763,"Ġincluding":3764,"ÙĪØ§ÙĦ":3765,"Ġperform":3766,"ĠØ®ÛĮØ§Ø¨Ø§ÙĨ":3767,"ĠØ±ÙĪØŃ":3768,"ĠØ´ÛĮØ±":3769,"Ø¯ÛĮÙħÛĮ":3770,"Ø²Ø§Ø±Ø´":3771,"ius":3772,"Ġdeep":3773,"ĠØ¯ÙĪÙĨ":3774,"Ġliving":3775,"ÙĩÙħÚĨÙĨÛĮÙĨ":3776,"Ġpoor":3777,"ĠØ³Ø§ÙĦÙĩ":3778,"you":3779,"ĠØ¨Ø±Ø®":3780,"itary":3781,"Ġview":3782,"ĠÙĦØ°":3783,"ances":3784,"ĠØ¯ÛĮÙĪØ§Ø±":3785,"Ġproject":3786,"Ġcult":3787,"Ø§ÙĤÙĦ":3788,"utes":3789,"ĠØ´Ø´":3790,"ĠØ§ØµÙĦØ§":3791,"ĠØ¹Ú©Ø³":3792,"ĠØ¨Ø±ÙĪØ¯":3793,"ĠTr":3794,"Ø±ÙģÛĮ":3795,"Ġprop":3796,"ĠÚ¯Ø°Ø§Ø´ØªÙĩ":3797,"Ġstay":3798,"However":3799,"ring":3800,"Ġcannot":3801,"ental":3802,"ption":3803,"Ġhon":3804,"with":3805,"ĠGe":3806,"NA":3807,"ĠÙĨØ§Ú¯ÙĩØ§ÙĨ":3808,"ĠBl":3809,"Ø²ÙħÛĮÙĨ":3810,"ficult":3811,"ĠØ¨Ú¯Ø°Ø§Ø±":3812,"ĠÚĨØ±Ø®":3813,"ĠØ¢ÙħÙĪØ²Ø´":3814,"ĠÙģØ±Øµ":3815,"ĠSy":3816,"ĠØ¯Ø§Ùħ":3817,"ÙģÙĤØ·":3818,"ĠØºØ°Ø§":3819,"ĠØ³Ú©":3820,"Ġlonger":3821,"ĠØ§Ø±ÙĪÙ¾Ø§":3822,"ĠØ§ÙĨØ¯ÛĮ":3823,"ĠØ§Ø±Ø²Ø´":3824,"Ġsuddenly":3825,"Ú¯ÙĨ":3826,"ĠØ´ÙĪÙĩØ±":3827,"ĠØ¯Ø§Ø±ÛĮ":3828,"aught":3829,"Ġdifficult":3830,"ĠÙħØ·Ùħ":3831,"ĠÙħØªÙģØ§ÙĪØª":3832,"IS":3833,"ĠØ¨Ø¯ÙĩØ¯":3834,"ĠØ¢Ø®Ø±":3835,"Ġitself":3836,"Ùİ":3837,"ford":3838,"Ġtowards":3839,"ĠCount":3840,"Ġ17":3841,"Ġhistory":3842,"cum":3843,"sy":3844,"enn":3845,"Ø§ÙĪÛĮ":3846,"ĠÙĦÙĩ":3847,"ĠØ¹ÙħÙĦÛĮ":3848,"ĠØ®Ø´Ùħ":3849,"ĠÙĪÙĦ":3850,"ĠÙģÛĮ":3851,"iod":3852,"osp":3853,"Ġarm":3854,"Ġang":3855,"ĠOr":3856,"soci":3857,"ĠØ§Ø¬Ø±Ø§":3858,"Ġlab":3859,"Ø¯Ø³Øª":3860,"Ġbas":3861,"mb":3862,"ĠØ¨Ø±Ú¯Ø´Øª":3863,"ĠÚĺÙĪ":3864,"Ġblood":3865,"urg":3866,"Ġwatch":3867,"Ġsometimes":3868,"Ú¯ÛĮÙĨ":3869,"ĠÙħØ§ÙĨØ¯Ùĩ":3870,"200":3871,"ĠÙĪØ¨":3872,"ĠEd":3873,"ĠÙħØ³Ø¦ÙĦÙĩ":3874,"Ġla":3875,"Ø§Ø¨Ø¹":3876,"ÙħÙĪÙĨ":3877,"Ġ194":3878,"Ġfeet":3879,"ĠÛ³Û":3880,"ourn":3881,"Ġpay":3882,"ĠØªØµÙĪÛĮØ±":3883,"Ġpassed":3884,"ĠÙħØªØ±":3885,"Ġmajor":3886,"ude":3887,"Ġfeeling":3888,"ĠEnglish":3889,"ĠØ±Ø³ÛĮØ¯Ùĩ":3890,"ĠØ²Ø¯ÙĨ":3891,"ĠÙ¾Ø§Ø¯":3892,"ĠÙħØ´Ø§ÙĩØ¯Ùĩ":3893,"ÙĤÙģ":3894,"cul":3895,"Ø¨ÛĮÙĨØ¯":3896,"ÙħØ§ÛĮÙĩ":3897,"Ø³Ø§ÙĨÛĮ":3898,"Ġmot":3899,"Ġpie":3900,"ĠÙĨÙĪÛĮØ³":3901,"ĠØ¨Ø±Ø¯Ùĩ":3902,"ĠØ§ÛĮØ´Ø§ÙĨ":3903,"ĠÙħØ±Ú©Ø²":3904,"Ġself":3905,"ĠØµÙĨ":3906,"ĠØ¨ÙĨØ¯":3907,"Ġbring":3908,"Mr":3909,"ĠØ²ÛĮØ³Øª":3910,"Ġexc":3911,"ĠØ±ÙĨØ¬":3912,"they":3913,"Ġanswer":3914,"unicip":3915,"Ġhappened":3916,"Ġremember":3917,"ĠØ¢Ø´ÙĨ":3918,"ĠÙĤØ§Ø¯Ø±":3919,"Ġmonths":3920,"ĠØ´Ø¯Øª":3921,"Ġappl":3922,"ĠÙħÙĩØ±":3923,"ĠÛ¶":3924,"ĠMan":3925,"Ġpolitical":3926,"ĠØªÙĪØ¶ÛĮØŃ":3927,"ÙĬÙħ":3928,"ĠØ±Ø®":3929,"ternal":3930,"Ø®ÛĮØµ":3931,"ĠØ¯Ø¹":3932,"Ø´ÙĨØ§Ø³ÛĮ":3933,"Ù¾ÛĮÙħ":3934,"ĠÙĩÙĪØ´":3935,"ĠÛ±Û¸Û":3936,"ØªÙĪØ§ÙĨÛĮØ¯":3937,"ĠØ¹Ø¯":3938,"Ġwin":3939,"ĠØ¨Ø±Ø§ÛĮØ´":3940,"Ġsystems":3941,"irt":3942,"ĠJohn":3943,"Ġhair":3944,"ÙĦÙĨØ¯":3945,"ØµÙĪÙĦ":3946,"Ø¢ÛĮ":3947,"ĠØ·ÙĪÙĦØ§ÙĨÛĮ":3948,"ĠØ¢ÙħØ±ÛĮÚ©Ø§ÛĮÛĮ":3949,"resent":3950,"Ġfuture":3951,"ĠÙħØ±Ø¯ÛĮ":3952,"ĠÙ¾Ø±ÙĪÚĺÙĩ":3953,"ĠØ±Ø¦ÛĮØ³":3954,"Ġactiv":3955,"ĠØ¯Ø§Ø¯ÙĨØ¯":3956,"Ġsense":3957,"urs":3958,"Ġhur":3959,"ĠÚ¯Ùħ":3960,"ĠYork":3961,"Ø¬ÙĪÛĮ":3962,"ÙħØ§Ø¯":3963,"Ġlim":3964,"rie":3965,"ĠØ¹Ø²ÛĮØ²":3966,"ĠØ¨Ú¯ÙĪÛĮÙħ":3967,"line":3968,"ĠÚ¯Ø§Ùĩ":3969,"ÙĩÙħÛĮÙĨ":3970,"ĠÙħØŃÛĮØ·":3971,"tt":3972,"Ø®Ø´":3973,"ĠÙģØ§ØµÙĦÙĩ":3974,"ĠØ§ÙĬÙĨ":3975,"ĠÙ¾ÛĮØ´ÙĨÙĩØ§Ø¯":3976,"ĠCar":3977,"ĠÙģØ±Ø³Øª":3978,"ĠØ¯Ú©ØªØ±":3979,"ĠPol":3980,"Ġsold":3981,"Ġglo":3982,"ĠØ³Ø±ÛĮØ¹":3983,"idence":3984,"af":3985,"ĠØ¨ØŃØ«":3986,"ĠÙħØªÙĨ":3987,"Ġtalking":3988,"ilar":3989,"ĠÙĨÙģØ³":3990,"ĠÚĨÛĮÙĨ":3991,"Ġhours":3992,"Ø³ÛĮÙħ":3993,"Ġfood":3994,"ĠÚĨÙĤØ¯Ø±":3995,"ĠØªØ£Ø«ÛĮØ±":3996,"ĠTe":3997,"aly":3998,"ĠØ·ÙĪØ±ÛĮ":3999,"ĠPhil":4000,"Ġdiv":4001,"ĠÙħÚ©Ø§ÙĨ":4002,"por":4003,"ĠÙħÙĦØ§":4004,"Ġroad":4005,"ĠÙĨÙħÙĪÙĨÙĩ":4006,"Ġaut":4007,"bit":4008,"ĠÙħØ¯ÛĮ":4009,"itten":4010,"ØµÙĩ":4011,"ĠAd":4012,"apan":4013,"ĠÙĪØ¶Ø¹":4014,"Ġproper":4015,"Ø³Ø¨":4016,"Ø³ÙĪ":4017,"Ġcut":4018,"cious":4019,"ĠÚ©Ø§Øª":4020,"Ġrad":4021,"ĠØ³ÛĮØ§Ø³Øª":4022,"ĠÙģØ´Ø§Ø±":4023,"ĠÙħØŃØ¯ÙĪØ¯":4024,"Ġconc":4025,"ĠØ§Ú©":4026,"ĠGen":4027,"Ġfig":4028,"ĠØ§Ø«":4029,"ĠCan":4030,"band":4031,"ability":4032,"ĠÚĨÙĨØ¯ÛĮÙĨ":4033,"ĠØªØ¬Ø±Ø¨Ùĩ":4034,"Ġfollowing":4035,"ĠÙĪØ³ÛĮÙĦÙĩ":4036,"ÙĬØ¯":4037,"Ġgrow":4038,"ĠØ³Ø§Ø¨":4039,"Ø§ÙĪÙĦ":4040,"ĠBrit":4041,"ĠØŃØ³Ø§Ø¨":4042,"ought":4043,"ĠØŃØ¶Ø§Ø±":4044,"Ġbi":4045,"Ġ12":4046,"Ø§ÙĦØ¹":4047,"cially":4048,"fer":4049,"ĠMin":4050,"ĠÙĩÙĨØ±":4051,"Ġ#":4052,"ĠØ®ÙĨØ¯Ùĩ":4053,"ĠÙħÛĮÙĦØ§Ø¯ÛĮ":4054,"Ġtyp":4055,"Ø§Ø´ÙĤ":4056,"Ġmass":4057,"ĠØ¢ÙĩÙĨÚ¯":4058,"Ø§Ø¯Ø§":4059,"ÙħØ³":4060,"empt":4061,"Ġteam":4062,"ĠNational":4063,"ĠMe":4064,"ĠÙĤÙĦ":4065,"ille":4066,".,":4067,"iled":4068,"Ġpract":4069,"ØŃØ§ÙĦÛĮ":4070,"ĠØ§ÛĮÙĨØªØ±":4071,"Ø¢ÙĪØ±":4072,"ĠØ´Ø±Ø§ÛĮØ·":4073,"ĠØ®ÙĪØ±Ø´ÛĮØ¯":4074,"ĠØ¬ÙħÙĩÙĪØ±ÛĮ":4075,"Ġcost":4076,"Ġabove":4077,"ĠØ¬Ø±":4078,"bled":4079,"ĠØ¹ÙĪØ¶":4080,"ĠØ±Ø§Ø¨Ø·Ùĩ":4081,"ĠGo":4082,"Ġsqu":4083,"Ġdream":4084,"ØµØ±":4085,"ÙģØ¸":4086,"ĠPl":4087,"Ġtried":4088,"Ġgetting":4089,"Ġ16":4090,"ĠÙħØ·Ø§ÙĦØ¹Ùĩ":4091,"ophe":4092,"ĠÙħØ³ÛĮØ±":4093,"app":4094,"then":4095,"yn":4096,"ÚĺÙĨ":4097,"ana":4098,"ĠØ¯ÙĪØ±Ø§ÙĨ":4099,"Ġgent":4100,"\")":4101,"Ø§ÙĩÙħ":4102,"ĠÙĪÛĮØ±":4103,"ÙĩØ±Ø³Øª":4104,"ĠÚ©Ø¯Ø§Ùħ":4105,"ĠÙħØ¤":4106,"ĠØ§Ø´ØªØ¨Ø§Ùĩ":4107,"ĠØ¯ÛĮØ±":4108,"ĠØ¨Ø±ÛĮØª":4109,"aving":4110,"Ġvers":4111,"Ġident":4112,"ĠÙĨØ¯Ø§Ø±Ùħ":4113,"over":4114,"Ġbuilding":4115,"ĠØªØ´Ø®ÛĮØµ":4116,"Ar":4117,"Ġbased":4118,"Ġcold":4119,"Ġsour":4120,"Ġgame":4121,"ĠØ²ÛĮØ¨":4122,"Ġpict":4123,"Ġnon":4124,"ĠØµÙĨØ¯ÙĦÛĮ":4125,"ĠÙĩØ²ÛĮÙĨÙĩ":4126,"Ġsleep":4127,"lled":4128,"ĠÚ¯Ø§ÙĩÛĮ":4129,"ĠØŃÙħØ§ÛĮ":4130,"Ġtaking":4131,"ĠCent":4132,"ĠÙħØ±Ø¯Ø§ÙĨ":4133,"Ø¬Ùħ":4134,"ĠInternational":4135,"ĠØ§ÙĪØ±":4136,"Ø¢ÙĨÙĩØ§":4137,"ÙĦØ§ÙĦ":4138,"ĠÙĩØ±ÛĮ":4139,"ĠSouth":4140,"ĠÙ¾Ø§ÛĮÙĩ":4141,"Ġentire":4142,"Ġcentury":4143,"Ġauth":4144,"Ġrelations":4145,"ÙĩØ±ÛĮ":4146,"Ġdest":4147,"Ġ195":4148,"ĠÚ¯Ø²Ø§Ø±Ø´":4149,"ÙĪØ§ÙĨÙĩ":4150,"ĠØªÚ©ÙĨ":4151,"Ø¢ÙĪØ±ÛĮ":4152,"gest":4153,"Ø·Ø§ÙĨ":4154,"ively":4155,"ĠÛ±Û°":4156,"ĠÙĨØ¸Ø§ÙħÛĮ":4157,"ĠÙħÙĤØ¯Ø§Ø±":4158,"ĠØ¢Ø²Ø§Ø¯ÛĮ":4159,"ĠÙ¾ÙĨÙĩ":4160,"ĠØ¨Ø¯Ø§ÙĨ":4161,"ØªÛĮØ§Ø±":4162,"Ġ193":4163,"ĠÙħÙģ":4164,"Ø§ÙĨØ¬Ø§Ùħ":4165,"Ġpost":4166,"ĠÙħØ§ÙĩÛĮ":4167,"ĠUS":4168,"Ġten":4169,"ÙĪÙĦØ¯":4170,"ĠÙĤØ¯ÛĮÙħÛĮ":4171,"Ø§Ø±Ø§ÙĨ":4172,"Ġstat":4173,"ĠÙħÙĨØ¸ÙĪØ±":4174,"Ġlate":4175,"hern":4176,"ondon":4177,"Ġrecogn":4178,"gor":4179,"ĠØ³Ø±Ø§Ø³Ø±":4180,"ĠØ¢ÙĦÙħØ§ÙĨ":4181,"ÙĨØ§Ùħ":4182,"ÙĦÛĮÙħ":4183,"ĠØ¨Ø§Ø²Ú¯Ø´Øª":4184,"Ú¯Ø°Ø´Øª":4185,"ĠØ¨Ú¯ÛĮØ±Ø¯":4186,"ØµÛĮÙĦ":4187,"Ġsuper":4188,"ĠØ¨Ø¹Ø¯ÛĮ":4189,"ĠØ¢Ø¨ÛĮ":4190,"Ġport":4191,"aterial":4192,"Ġperhaps":4193,"Ġenv":4194,"tered":4195,"Ø¨Ø³ÛĮ":4196,"ĠØ¨Ø§Ø´ÛĮÙħ":4197,"Ġstru":4198,"ĠØ§Ø·ÙĦØ§Ø¹":4199,"ĠØ§Ø³ØªØ§ÙĨ":4200,"Ø±ÙĪÙħ":4201,"ges":4202,"ĠØ¯Ø³ØªØ´":4203,"ĠÙĨØ³Ø®Ùĩ":4204,"ĠØ¨ÙĨØ§Ø¨Ø±Ø§ÛĮÙĨ":4205,"Ø§Ø¦ÙĦ":4206,"Ø§ÙģØ±":4207,"ĠØ±Ø³ÙħÛĮ":4208,"ĠÚ¯Ø°Ø´Øª":4209,"Ġmis":4210,"ĠÚ©Ø´ÙĪØ±ÙĩØ§ÛĮ":4211,"ÛĮÙĦÛĮÙ¾":4212,"ÙĨÙħÙĪØ¯":4213,"ividual":4214,"Ġiss":4215,"ĠØ¨ÙĤÛĮÙĩ":4216,"ĠØ¢ÙĩØ³ØªÙĩ":4217,"Ġdoesn":4218,"Ġevening":4219,"ĠÙħØ§ÛĮ":4220,"ĠØ¨Ø®Ø´ÛĮ":4221,"Ġdro":4222,"Ø·Ø±":4223,"Ġpubl":4224,"Ġord":4225,"Ġbreak":4226,"ĠÙĨÙĤØ´Ùĩ":4227,"ĠHarry":4228,"Ġfail":4229,"Ġdraw":4230,"ĠØ§ÙĤØªØµØ§Ø¯ÛĮ":4231,"ĠØ®ÙĦØ§":4232,"Ġdeal":4233,"ĠÚ©Ø¯":4234,"ales":4235,"ĠÚĨÙ¾":4236,"ĠÙħÙĪÙģÙĤ":4237,"Ġthird":4238,"Ġeduc":4239,"ÛĮØ§ÙģØª":4240,"BN":4241,"By":4242,"enty":4243,"ĠÙģØ±Ø§ÙħÙĪØ´":4244,"Ġarri":4245,"ĠØŃÛĮÙĪØ§ÙĨ":4246,"rel":4247,"Ġwrong":4248,"ĠØµÙģØŃÙĩ":4249,"ĠÙĩØ³ØªÛĮØ¯":4250,"Ġhus":4251,"Ġdear":4252,"Ġhig":4253,"which":4254,"ĠÙħØ¹ÙĨ":4255,"Ġstudy":4256,"ÙĪÚ©":4257,"ĠÙħØ®ØµÙĪØµ":4258,"ĠØŃÙħÙĦ":4259,"Ġhowever":4260,"ĠØ®ÛĮØ±Ùĩ":4261,"ĠÙģØ±Ø§ÙĨØ³":4262,"ĠØ³Ø±ÙħØ§ÛĮÙĩ":4263,"uge":4264,"ney":4265,"ÙĤÛĮØª":4266,"Ġemp":4267,"ivil":4268,"ĠØ¸Ø§ÙĩØ±":4269,"ĠØ¯Ø±ÙħØ§ÙĨ":4270,"ĠØ§ÛĮØª":4271,"Ø¶Ø§":4272,"Ġsubject":4273,"Ø±ÛĮÙħ":4274,"ĠÚ¯ÙĨ":4275,"Ġcomes":4276,"ĠØ±ÙĪØ³ÛĮ":4277,"ĠØ´Ø§ÙĩØ²Ø§Ø¯Ùĩ":4278,"ĠØŃÙĪ":4279,"ĠMy":4280,"ĠÙĦØ¨Ø®ÙĨØ¯":4281,"Ġperiod":4282,"head":4283,"ĠÙĨÚ¯Ø§ÙĩÛĮ":4284,"10":4285,"ĠÚ¯Ø±ÙģØªÙĨ":4286,"Ġminutes":4287,"²Û":4288,"ĠÙħØ§Ø±ÛĮ":4289,"Ġmoved":4290,"ĠØŃÙģØ¸":4291,"ĠÙģÙĪÙĤ":4292,"ĠTur":4293,"ĠØ¨ÛĮØ¯":4294,"Ġbur":4295,"ĠØ¨ÙĨÛĮ":4296,"ĠÙħØŃÙĦÛĮ":4297,"Be":4298,"Ġnetwork":4299,"ially":4300,"ĠØ§Ø´Ú©":4301,"Ġhappy":4302,"ĠÚ©ÙĪØ¯Ú©Ø§ÙĨ":4303,"Ġz":4304,"Ġmeth":4305,"ĠÚ©Ø´Ùģ":4306,"Ġmach":4307,"itted":4308,"ĠØªÙĪØ±":4309,"Ø³ÛĮØ³":4310,"ĠÙĪÛĮÚĺÙĩ":4311,"Ġmodel":4312,"ĠØ®Ùħ":4313,"Ø±Ø§Ø±":4314,"ĠÙ¾Ùĩ":4315,"Ġnatural":4316,"ĠÙ¾ÙĪØ³Øª":4317,"Ġsecret":4318,"Ġcry":4319,"ipp":4320,"ÙĪØªØ±":4321,"iful":4322,"ĠØ¨Ø§Ø²Ø§Ø±":4323,"ĠJapan":4324,"Ø®Ø±":4325,"Ġbreat":4326,"Ú©ØªÙĩ":4327,"Ġpret":4328,"Ø§ÙĨÛĮØ§ÛĮÛĮ":4329,"ĠÙĨØ®ÙĪØ§ÙĩØ¯":4330,"Ġarea":4331,"ĠØŃÙħØ§ÛĮØª":4332,"ĠØ¯Ø³ØªÚ¯Ø§Ùĩ":4333,"ĠØ®ÙĪØ´ØŃØ§ÙĦ":4334,"Ġfight":4335,"ĠØªÛĮ":4336,"ĠØ´ÛĮÙħÛĮ":4337,"Ø§Ø¸":4338,"ĠØ§ÙĪÙĦÛĮÙĩ":4339,"Ġresearch":4340,"Ġtreat":4341,"ĠÙħÙĢ":4342,"ĠPet":4343,"Ġtrou":4344,"ĠAust":4345,"Ġexact":4346,"ĠØ¹Ø¬ÛĮØ¨":4347,"Ø¯Ø±ÛĮ":4348,"Ø®ÙĪØ§Ø¨":4349,"Ġinvol":4350,"Ġcharacter":4351,"Ġinside":4352,"val":4353,"Ú©ØªØ±ÛĮ":4354,"Ġprin":4355,"ĠÙĨØ§Ø¨":4356,"arth":4357,"ĠØ¬Ø§Ø¯Ùĩ":4358,"ĠÛ±Û¹Û¸Û":4359,"Ġcurrent":4360,"ĠØ¬ÙĨÙĪØ¨":4361,"ply":4362,"Ġlink":4363,"Ø§Ø¯Ú¯ÛĮ":4364,"Ġindividual":4365,"ĠØ¨Ø§ÙĨÚ©":4366,"ĠÙĨØ²Ø¯":4367,"ĠÙ¾ÙĪ":4368,"Ġant":4369,"Ġkept":4370,"Ġwindow":4371,"ĠGu":4372,"Ġslow":4373,"ĠÛ¸":4374,"Let":4375,"Ġgentle":4376,"Ġeight":4377,"pri":4378,"Ġoutside":4379,"ĠØ¨ÙĦÙĩ":4380,"ĠÙ¾ÛĮØ§Ø¯Ùĩ":4381,"Ġaccount":4382,"ĠØ·Ø¨ÙĤÙĩ":4383,"idge":4384,"unicipality":4385,"ĠØ¯Ø±Ø¢ÙħØ¯":4386,"ÙģÙĦ":4387,"Ø§Ø±Ø´":4388,"Ø®Ø§ÙĨÙħ":4389,"Ġsens":4390,"arr":4391,"Ø¨Ø±Ø§ÙĨ":4392,"ĠØ¬ÙĨÙĪØ¨ÛĮ":4393,"ĠØ§Ø¶Ø§ÙģÙĩ":4394,"ĠÙ¾Ø²Ø´":4395,"ecause":4396,"Ġmult":4397,"ĠÚ©Ø§ÙħÙ¾ÛĮ":4398,"ĠØ±ÙĪØ²ÙĨØ§ÙħÙĩ":4399,"ĠÙ¾Ø±Ø³":4400,"Ġtou":4401,"action":4402,"ĠÙħØŃØµÙĪÙĦ":4403,"Ġadm":4404,"ØªØ³":4405,"Ġdaughter":4406,"urity":4407,"ĠØ¨Ø±Ø¬":4408,"Ġrecord":4409,"ĠØ±Ø´ØªÙĩ":4410,"Ġled":4411,"ĠØ¯ÙĪØ´":4412,"Ġrespect":4413,"ĠÙĪØ±Ø²":4414,"Ġdied":4415,"ĠØ¯Ø§Ø´ØªÙĨ":4416,"ĠØ¬Ø§ÛĮØ²Ùĩ":4417,"Ġviol":4418,"ĠÙħØ±ØŃ":4419,"ĠØ°ÙĩÙĨ":4420,"ols":4421,"Ø«ÛĮ":4422,"Ø§Ú©ÙĨÙĪÙĨ":4423,"Ġenc":4424,"Ġmakes":4425,"ising":4426,"Ġevent":4427,"ÙĢÙĩ":4428,"ware":4429,"ĠÙĨØ¨Ø§ÛĮØ¯":4430,"Ġ30":4431,"ĠØ²ÛĮØ¨Ø§":4432,"Ġearth":4433,"Ġjob":4434,"Is":4435,"Ġhot":4436,"ump":4437,"ĠÙħØ±Ú©":4438,"Ġmaterial":4439,"ledge":4440,"ino":4441,"ĠÙħØµØ±Ùģ":4442,"Ġpriv":4443,"ĠÙĩØ´Øª":4444,"ĠÙĨÚ¯Ø±":4445,"Ġproduct":4446,"ĠØ¨ÙĪØ¯ÛĮÙħ":4447,"ĠÙĤÛĮÙħ":4448,"Ġvillage":4449,"Ġstruct":4450,"ØªÙĨÙĩØ§":4451,"ØªÙĩ":4452,"ĠØ¬Ø°":4453,"ĠØ´Ø§Ø®":4454,"ades":4455,"ĠØ±Ø§Ø¬Ø¹":4456,"ĠØ¯ÙĪØ³ØªØ§ÙĨ":4457,"Ø²ÙĦ":4458,"ceed":4459,"Ġhusband":4460,"amm":4461,"aves":4462,"ule":4463,"ĠÙħØ³ØªÙĤÛĮÙħ":4464,"ĠÙģÙĪØª":4465,"ĠØ¹ÙħÛĮ":4466,"Ġer":4467,"van":4468,"ĠØ¬ÙĨØ³ÛĮ":4469,"ken":4470,"Ġnecess":4471,"Ġswe":4472,"Ġ13":4473,"ĠØ¹Ø§Ø´ÙĤ":4474,"Ġsurpr":4475,"Ġwhose":4476,"ĠChar":4477,"ĠÙħÛĮØ¯Ø§ÙĨ":4478,"bt":4479,"Ú¯Ø§ÙĨÙĩ":4480,"Ġtechnology":4481,"ĠÙĨÙĩØ§ÛĮØª":4482,"urch":4483,"ĠRep":4484,"ĠØ§Ø³ÙĦ":4485,"Ú©Ø±ÛĮ":4486,"ĠAll":4487,"ĠØ¨Ø¯Ø³Øª":4488,"Ġarms":4489,"ĠØ³ÙĪØ§ÙĦ":4490,"ĠÙĨÛĮÙħÙĩ":4491,"ĠØ§ÙĨØ³Ø§ÙĨÛĮ":4492,"Ġyourself":4493,"ĠAm":4494,"iding":4495,"ĠÙħØªØ¹":4496,"ĠÚĺØ§Ù¾":4497,"ĠÚ©ÙĪÙĩ":4498,"Ø³ØªØ±":4499,"Ġ11":4500,"ĠFe":4501,"ĠÚĨÛĮØ²ÙĩØ§ÛĮÛĮ":4502,"ference":4503,"Ù¾Ø±Ø¯":4504,"Ù¾Ø°ÛĮØ±":4505,"stit":4506,"ĠØ§ÙĦØ§ÙĨ":4507,"Ġborn":4508,"ĠÙħÙĬ":4509,"Ø³ØªØ§ÙĨÛĮ":4510,"Ġvol":4511,"ĠEl":4512,"atter":4513,"ples":4514,"Ġpopulation":4515,"ĠÙħØ§Ø¯":4516,"ĠÙĦØ§Øª":4517,"like":4518,"Ã³":4519,"ÚĨÙĨØ§ÙĨ":4520,"ĠÚ©Ø§Ø±ÙĩØ§ÛĮ":4521,"ĠAb":4522,"Ġexcept":4523,"ĠÙĨØ¬Ø§Øª":4524,"rences":4525,"ĠSw":4526,"Ġphot":4527,"Ø¸Øª":4528,"ĠÙª":4529,"Ġrelig":4530,"Ġà":4531,"ĠÙĨÛĮÚ©":4532,"ĠØ¬Ø¯ÛĮ":4533,"Ġappear":4534,"ØºÙĦ":4535,"Ġletter":4536,"attle":4537,"ĠØ§ÙĩÙħÛĮØª":4538,"ĠÙħØ¯ØªÛĮ":4539,"medi":4540,"Ġconvers":4541,"ĠÙĩÙħØ³Ø±":4542,"Ø±ÙĪØ³":4543,"odes":4544,"Ġeye":4545,"Ġprotect":4546,"Ø¬ÙħÙĩ":4547,"ĠÙħØ³Ø§Ø¨":4548,"ĠÙĨÛĮØ³ØªÙĨØ¯":4549,"Ø²Ø¨":4550,"ĠØ´Ú¯ÙģØª":4551,"Ø¦ÛĮÙĨ":4552,"Ġusually":4553,"ĠØ·Ø±ØŃ":4554,"Ġlives":4555,"Ġpretty":4556,"ĠÙĨØ´Ø¯":4557,"ĠAlex":4558,"Ġmer":4559,"Ġ(\"":4560,"ĠØ§ÙħÙĨÛĮ":4561,"ĠØ¨ÛĮØ³Øª":4562,"Ġsimple":4563,"Ø¨ÙĦÙĩ":4564,"ellig":4565,"riage":4566,"Ú©Ø§Øª":4567,"Ø¨Ø²":4568,"Ġmess":4569,"apt":4570,"ĠØ¹ÙĦÙħÛĮ":4571,"Ġwritten":4572,"ĠØ¹Ø¨Ø§Ø±Øª":4573,"ÙĪØ±Ø§":4574,"inary":4575,"Ġsn":4576,"ining":4577,"gs":4578,"idered":4579,"Ġdeter":4580,"hel":4581,"Ø³ØªÚ¯ÛĮ":4582,"Ġfa":4583,"ĠØ¯Ø§Ø¯Ùħ":4584,"antly":4585,"ĠØ§ØŃØªÛĮ":4586,"ĠÙĨØª":4587,"Ġcross":4588,"Ġredu":4589,"ĠØ¹ÛĮÙĨ":4590,"Ġi":4591,"ĠØ´ÙĨØ§Ø³":4592,"Ġpress":4593,"ishing":4594,"Ġcomb":4595,"rest":4596,"oms":4597,"ĠÚ¯Ø±Ø¯ÛĮØ¯":4598,"ĠØªÚ©Ø±":4599,"ĠÙģØ±Ø§Ø±":4600,"ĠØ±ÙĪØ³Øª":4601,"ĠÛĮÙĪÙĨ":4602,"ili":4603,"ÙĪØ±Ú©":4604,"ĠMay":4605,"Ġmethod":4606,"Ġrepresent":4607,"Ġscient":4608,"ese":4609,"ration":4610,"Ġbene":4611,"ĠØ¹ÙĦØª":4612,"ĠÚ©Ø´Øª":4613,"Ġbank":4614,"ĠØ´ÙħØ§ÙĦ":4615,"ÙħØ´":4616,"Ġtele":4617,"Ø¢ÙĦ":4618,"ĠÙħØ±Ø§ÙĤ":4619,"Ġmor":4620,"ential":4621,"ĠÙħØ¨Ø§Ø±":4622,"ĠÙģØ±Ø§ÙĨØ³ÙĪÛĮ":4623,"Ġcorn":4624,"Ø§Ø®Ø±Ùĩ":4625,"ĠÙħÛĮØ²Ø§ÙĨ":4626,"ĠØ¯ÙĩÛĮÙħ":4627,"ĠÙģØ±ØµØª":4628,"ĠØ¨Ø±ÙĤ":4629,"}}":4630,"Ġcou":4631,"ĠØ§Ø±ØªØ´":4632,"Every":4633,"ĠØ§ÙģØ³":4634,"Ø²Ø¯Ùĩ":4635,"Ġgra":4636,"ops":4637,"Ġposition":4638,"mp":4639,"Ġaccept":4640,"Ġdecided":4641,"ĠÙħÙĨØªØ¸Ø±":4642,"ĠJu":4643,"Ġcomputer":4644,"vin":4645,"when":4646,"Ġlaugh":4647,"ĠØ®Ø§ÙĦÛĮ":4648,"ĠÙĨÙĪØ¹ÛĮ":4649,"Ġreceived":4650,"light":4651,"ĠØ´Ø§Ùħ":4652,"Ø¶ÛĮÙĩ":4653,"ĠÙĤØ·Ø¹":4654,"ØµØ¯Ø§ÛĮ":4655,"ĠÙĤØ¨ÙĦØ§":4656,"ocr":4657,"Ġprobably":4658,"Ġ14":4659,"Ġengine":4660,"Ø§Ø±Ú©":4661,"ĠØ³Ú¯":4662,"ĠØ´ÙĨÛĮØ¯Ùĩ":4663,"istic":4664,"ÙĪØ±ÛĮÙĩ":4665,"ĠÙħÙĦØ§ÙĤØ§Øª":4666,"Ġinstead":4667,"pecially":4668,"ÙĨØªÛĮ":4669,"oman":4670,"Ø±Ø§Ø³":4671,"imate":4672,"got":4673,"ĠØ§ÙĦÚ©ØªØ±":4674,"Ġauthor":4675,"ĠÙĤÛĮØ§":4676,"ÙģØ³":4677,"Ġwasn":4678,"ological":4679,"Ø¨ÙĨØ¯ÛĮ":4680,"Ġarg":4681,"Ø§ÛĮÙĤ":4682,"Ġarch":4683,"ĠØ¨Ú¯ÙĪÛĮØ¯":4684,"ĠKing":4685,"ĠØ§ÙĨÚ¯ÙĦ":4686,"Ġsmile":4687,"ÙħÛĮÙĦ":4688,"Ġsomeone":4689,"Ø®ÙĪØ§ÙĩÛĮ":4690,"ĠÛ±Û¹Û·Û":4691,"Ġtruth":4692,"ĠLondon":4693,"Ġwalked":4694,"ĠØ¹Ø±Ø¶":4695,"ming":4696,"Ø¯ÛĮÙĨ":4697,"ĠÙħÙĨØ§Ø¨Ø¹":4698,"Ġinvest":4699,"Ú©Ø´ÛĮ":4700,"Ġnor":4701,"Ø§Ø¯ÙĪ":4702,"ĠØªÙħØ§ÙħÛĮ":4703,"Ġsimilar":4704,"Because":4705,"ĠØªÙĩÛĮ":4706,"Ġcouldn":4707,"ĠPe":4708,"ÙĨÚ¯Ø§Ùĩ":4709,"ĠÙ¾Ø¯Ø±Ø´":4710,"ØŃÙĦ":4711,"Ġsong":4712,"Ġspecial":4713,"Ġnature":4714,"ĠÙĨØ§Ø±Ø§ØŃØª":4715,"Ġheav":4716,"ĠÚ©ÙĪØ¯Ú©":4717,"Ġquickly":4718,"Ø¨ÛĮØ±":4719,"ĠÙĨØŃ":4720,"Ġpaper":4721,"ÙĪÛĮÙĦ":4722,"ÙĤØ±Ø§Ø±":4723,"ival":4724,"ÙĩÙĨÚ¯Ø§ÙħÛĮ":4725,"ĠÙ¾ÙĨÙĩØ§ÙĨ":4726,"ĠÚ¯ÙĪØ´Ùĩ":4727,"ĠØ¨ØªÙĪØ§ÙĨØ¯":4728,"how":4729,"ĠÙĤØµØ¯":4730,"Ġsociety":4731,"Ø§ÙĨÚ¯ÛĮØ²":4732,"ĠÙĬ":4733,"Ġparent":4734,"Ġmembers":4735,"ĠØ®ÙĪØ¯Ø´Ø§ÙĨ":4736,"ĠNorth":4737,"ously":4738,"ĠÙĦØ°Øª":4739,"ideo":4740,"ĠØ¢ÙĪØ±ÛĮ":4741,"Ġspir":4742,"ĠØ¯Ø±Ø¬Ùĩ":4743,"ĠØ«Ø§Ø¨Øª":4744,"Ġmarket":4745,"Ø´ÙĪ":4746,"ĠÚ©ÙĦØ§Ø³":4747,"ÚĨÛĮØ²":4748,"ĠØ¢ÙĦØ¨":4749,"ĠØ®Ø±ÛĮØ¯":4750,"Ú¯ÙĦ":4751,"Ġtot":4752,"Ġopened":4753,"ada":4754,"Ġdevelopment":4755,"loy":4756,"ĠØ¹Ø¶ÙĪ":4757,"Ġseries":4758,"ament":4759,"overed":4760,"Û°Û°Û°":4761,"ĠØ§ÙĨÚ¯Ø´Øª":4762,"ĠÚĨÛĮØ³Øª":4763,"ĠWill":4764,"go":4765,"ĠØ³Ø§ÛĮØ±":4766,"Ġnational":4767,"Ø±ÛĮØ¨":4768,"Ú¯Ø±Ø¯Ø¯":4769,"ĠÙĩÛĮØ¬Ø§ÙĨ":4770,"Ġpick":4771,"Ú©ÙĦÛĮ":4772,"Ġinflu":4773,"hers":4774,"iling":4775,"Ġfunction":4776,"ĠÛ·":4777,"Ø§Ú©Øª":4778,"ĠØ¯ÛĮØ¯Ùħ":4779,"ĠØ¯ÙĤØª":4780,"ĠFor":4781,"Ġconsidered":4782,"Ġtheory":4783,"ĠÙħØ¹ÙĦÙĪÙħ":4784,"Ø³Ø§Ø®Øª":4785,"ĠØ¨Ø§Øº":4786,"Ġindust":4787,"Ġbuilt":4788,"ĠØ§ÙħØ±":4789,"ĠØ³Ø§ØŃ":4790,"ÙĪØ±ØªÛĮ":4791,"ike":4792,"Ø¢ÙħÛĮØ²":4793,"ĠArab":4794,"Ġwish":4795,"Ġfill":4796,"Ġjo":4797,"Ġimm":4798,"ÙĪÛĮØ²ÛĮ":4799,"ĠØ§Ø¹ØªØ±":4800,"ĠÙĤÙĪÛĮ":4801,"Ġreturned":4802,"Ġcamp":4803,"ĠÙĤÛĮØ§ÙģÙĩ":4804,"Ġforward":4805,"ĠÙ¾Ø±ÙĪØ§Ø²":4806,"ĠÙģØ¹Ø§ÙĦ":4807,"uz":4808,"ĠÙĩØ§ÛĮÛĮ":4809,"Ġforce":4810,"unch":4811,"ĠHer":4812,"Ġkey":4813,"ÚĨÛĮØ²ÛĮ":4814,"ironment":4815,"Ġmist":4816,"ĠØ®Ø§ÙħÙĪØ´":4817,"ĠÙ¾ÛĮÚĨÛĮØ¯Ùĩ":4818,"Ġsex":4819,"ift":4820,"ĠØ³Ø±Ø¨Ø§Ø²":4821,"ĠØ³Ø§ÙĨ":4822,"ĠÙħÙĨØ§Ø³Ø¨":4823,"ĠØ§ÛĮØ§ÙĦØª":4824,"ĠÚ¯Ø³ØªØ±Ø¯Ùĩ":4825,"ĠNo":4826,"ĠII":4827,"Ġship":4828,"ĠØ¯Ø³ØªÛĮ":4829,"ĠÚ©ÛĮÙĦ":4830,"anger":4831,"ires":4832,"ĠØ´Ø¯ÛĮØ¯":4833,"lam":4834,"Ø´Ú©Ø±":4835,"Ġce":4836,"Ġdise":4837,"Here":4838,"oe":4839,"Ø§ÙģØ¸Ùĩ":4840,"Ġlocal":4841,"oot":4842,"ĠØ¯Ø±Ø³":4843,"ĠØ§ÙĨØªÙĤØ§ÙĦ":4844,"Ø±Ø§ÙĨÛĮ":4845,"ĠØ³ÙĪØ§Ø±":4846,"Ġservice":4847,"ĠÚĨÛĮØ²ÙĩØ§":4848,"ĠØ°Ùĩ":4849,"Ø¨Ø§Ø´":4850,"±Û°":4851,"ĠØ§ØªØŃ":4852,"Ø§ÙĨÚ¯ÙĦÛĮØ³ÛĮ":4853,"Ġcreated":4854,"Ġadded":4855,"Ġ100":4856,"Ġperfect":4857,"face":4858,"ĠØ¨Ú¯Ø°":4859,"Ġyes":4860,"Ġ2010":4861,"ĠØªÙĪØ§ÙĨØ³Øª":4862,"Ġbeginning":4863,"Ġscience":4864,"ĠÙħÙĪØ§Ø±Ø¯":4865,"uct":4866,"Ġpot":4867,"ĠØ¹Ø¨ÙĪØ±":4868,"Ġcompan":4869,"ĠÙħÙĪØ±":4870,"Ġsoul":4871,"Ġchanged":4872,"Ġcried":4873,"ĠØ®ÙĪØ§ÙĩÛĮÙħ":4874,"ĠAmerica":4875,"ĠØ¶Ø±":4876,"ĠQu":4877,"Ġwonder":4878,"ĠÙĨØ¸Ø±ÛĮÙĩ":4879,"ĠØ§Ø¹Ø¶Ø§ÛĮ":4880,"Ġwide":4881,"Ġspecies":4882,"Ġthr":4883,"Ġut":4884,"ĠÙģØ±Ø§ÙĩÙħ":4885,"ĠÙħØ§Ø¯Ø±Ø´":4886,"Ġmemory":4887,"ĠØ§ØŃØªÙħØ§ÙĦØ§":4888,"Ø²Ø§":4889,"Ù¾Ùĩ":4890,"ĠÙħØ®Ø§ÙĦ":4891,"view":4892,"Ú©ÙĨØ§ÙĨ":4893,"Ġgrand":4894,"ĠÙħØ·ÙħØ¦ÙĨ":4895,"ĠØ¯ÙĨÛĮØ§ÛĮ":4896,"ĠØ§Ø¨ØªØ¯Ø§":4897,"yond":4898,"Ġsus":4899,"Ø§Ø±ÙĩØ§ÛĮ":4900,"ences":4901,"ØºØ§ÙĦ":4902,"Ú¯Ø°Ø§Ø´Øª":4903,"ggest":4904,"ÙĨØ¯Ú¯ÛĮ":4905,"ÙĪÙĤØª":4906,"ĠØ±ÙĩØ§":4907,"Ġcolle":4908,"ĠÙħØ±ØŃÙĦÙĩ":4909,"Ġsitting":4910,"ĠÚ©Ø´ØªÙĩ":4911,"ĠØªØ±Ø§":4912,"Ġgreen":4913,"Ġtrad":4914,"ĠIS":4915,"Ù¾ÛĮØ´":4916,"ÛĢ":4917,"ĠØ§Ø³ØªØ§ÙĨØ¯":4918,"ÙĪØ²Ùĩ":4919,"Ġimpro":4920,"Don":4921,"Ø³Ø§Ø²":4922,"Ø§ØµÙĦ":4923,"ĠÙĪØ§ØŃ":4924,"ĠCounty":4925,"ÙĨØ¯ÙĨ":4926,"Ġran":4927,"ØªØŃ":4928,"Ġlocated":4929,"ĠÚ©Ø³Ø¨":4930,"ÙħØ«ÙĦ":4931,"hood":4932,"ÙħÛĮÙĨØ§ÙĨ":4933,"ĠØ§ÙĨØ¬":4934,"ĠÙħÙĨØ¬Ø±":4935,"Ġcommand":4936,"agn":4937,"Ø§Ø±ØªÛĮÙĨ":4938,"Ġmilitary":4939,"ĠØ±ÛĮØ§":4940,"Ġprison":4941,"Ġsir":4942,"ighb":4943,"urd":4944,"Ġcreate":4945,"ĠÙĦØ±Ø²":4946,"Ø§ØŃØ¨":4947,"Ġbooks":4948,"Ġprofess":4949,"ĠØ§ÙĨÚ¯ÙĦØ³ØªØ§ÙĨ":4950,"11":4951,"Ġattention":4952,"ĠØªØ±Ú©ÛĮØ¨":4953,"ĠØ¹Ùĩ":4954,"ÙĪØ´ÛĮØ¯":4955,"ĠØ§Ú¯Ùĩ":4956,"cus":4957,"Ġmount":4958,"ĠÚ©Ø´ÛĮ":4959,"bon":4960,"iction":4961,"ĠØ¨Ø²ÙĨ":4962,"ĠØ¯ÙģØª":4963,"ĠØ®ØµÙĪØµÛĮ":4964,"Ġmiss":4965,"Ġsuggest":4966,"Ġaccess":4967,"ĠØ³Ø¨Ø²":4968,"ĠØ¢Ø¯":4969,"ĠØ«Ø±ÙĪ":4970,"ĠØ¢Ø³ÙħØ§ÙĨ":4971,"ĠØ³ÛĮÙĨÙĩ":4972,"ume":4973,"Ġstrange":4974,"Ġir":4975,"Ġdue":4976,"ĠÚ©ÙĪÚĨÚ©ÛĮ":4977,"Ø«Ø§Ø±":4978,"add":4979,"Ġfollowed":4980,"ĠØªÚ©Ø±Ø§Ø±":4981,"Ġworked":4982,"Ù¾Ø¯Ø±":4983,"ox":4984,"Ġready":4985,"Ġsend":4986,"Ø¸ÙĩØ§Ø±":4987,"iam":4988,"ĠÛ±Ûµ":4989,"ĠÙ¾Ø´ØªÛĮ":4990,"rid":4991,"uk":4992,"Ä±":4993,"Ġfurther":4994,"Ġestab":4995,"ĠParis":4996,"ĠØ¯ÛĮÙĨ":4997,"anced":4998,"Ġdoll":4999,"ĠÛ±Û³Û":5000,"ĠÙħØ¹Ø±ÙģÛĮ":5001,"ara":5002,"ĠØ¨Ø¨ÛĮÙĨÙħ":5003,"iment":5004,"ĠØ§Ø¨Ø²Ø§Ø±":5005,"Ġcoll":5006,"Ġgold":5007,"Ú¯ÙĪÛĮÛĮ":5008,"ĠGeor":5009,"raft":5010,"Ú¯ÙĪÛĮÙħ":5011,"Ú¯ÙĪØ±ÛĮ":5012,"ĠØªÙĪØ§ÙĨØ§ÛĮÛĮ":5013,"ĠØªÙĦÙĪÛĮØ²ÛĮ":5014,"Ġways":5015,"ĠÙĩÙĪØ§Ù¾ÛĮÙħ":5016,"Ġstri":5017,"Ġlived":5018,"Ġbott":5019,"Ġteac":5020,"ĠØ§ÙĤØªØµØ§Ø¯":5021,"ĠÙħØ±ÛĮ":5022,"ĠØ¨Ø¯ÛĮ":5023,"ĠØ§Ø®ØªÛĮØ§Ø±":5024,"Ġwood":5025,"ĠØªÛĮØ±":5026,"omen":5027,"ĠÙħÙĨØ§Ø·":5028,"Ġfing":5029,"ĠHar":5030,"ĠØ¢ÙģØ±ÛĮ":5031,"ĠØŃØ²Ø¨":5032,"Ø¹ÛĮÛĮÙĨ":5033,"ĠFl":5034,"ĠØ³ØªØ§Ø±Ùĩ":5035,"cks":5036,"ĠØ§ÙĦÛĮ":5037,"ÙħØ§ÙĨÙĨØ¯":5038,"Ġparty":5039,"Ġcapt":5040,"Ġoccur":5041,"ging":5042,"ĠØ§ÙĨØ¯Ú©ÛĮ":5043,"Ø¹ØªÛĮ":5044,"Ġdom":5045,"ĠPart":5046,"ears":5047,"Ġwrote":5048,"ĠÙĨØ¯Ø§Ø±ÙĨØ¯":5049,"Ġdeveloped":5050,"ĠÙħÙĪÙģÙĤÛĮØª":5051,"estern":5052,"ĠØ±ÙĪØ²ÛĮ":5053,"ĠØ§ÛĮØ³ØªØ§Ø¯":5054,"ĠØ§ÙĤØ¯Ø§Ùħ":5055,"ØµÙģ":5056,"ĠÙħØ±Ø¯Ùĩ":5057,"ĠÚ©ÙĦØ§Ùĩ":5058,"ency":5059,"ushed":5060,"istan":5061,"ruction":5062,"ĠØ§ØŃØªØ±":5063,"Ġx":5064,"ED":5065,"Ġtree":5066,"ĠØªØ®Øª":5067,"ĠØ±Ø§ÙĨ":5068,"Ġeff":5069,"ĠÙĤÙĪØ§ÙĨ":5070,"Ġquiet":5071,"ĠØ¢Ø±Ø²":5072,"ĠØ´ÙħØ§ÙĦÛĮ":5073,"Thank":5074,"ĠÙĦØª":5075,"Ġsepar":5076,"Ø¦ÙĪ":5077,"ĠØªÙĨØ¯":5078,"ĠØ§Ø®ÙĦØ§":5079,"ĠØªØ±ÛĮ":5080,"etic":5081,"Ġrepe":5082,"Û±Û¹Û":5083,"ĠØ±ÙĪØ§ÙĨ":5084,"ĠÚ¯Ø´Øª":5085,"ĠØ¯ÚĨØ§Ø±":5086,"ĠFrance":5087,"ĠØ²ÙĨÛĮ":5088,"Ġsitu":5089,"ĠÛ¹":5090,"artment":5091,"ĠÙĦØ§ØªÛĮÙĨ":5092,"ĠØ±Ø§ØŃØª":5093,"Ġcompl":5094,"ĠØ³Ø¨Ú©":5095,"ĠØ¨Ø±Ø®Ø§Ø³Øª":5096,"ÙĪÛĮÙĨ":5097,"cient":5098,"itude":5099,"Ġseven":5100,"ĠØ´Ø§ÙĨÙĩ":5101,"Ġaff":5102,"Ġexperience":5103,"Ã¼":5104,"ÛĮÛĮ":5105,"ĠØµØŃÙĨÙĩ":5106,"Ġfav":5107,"ĠØ¨Ø§Ø±ÛĮ":5108,"ĠÚ©Ø§Øº":5109,"Ġsuff":5110,"Ġcells":5111,"Ġcause":5112,"ĠÙ¾Ø³Øª":5113,"ĠBritish":5114,"ique":5115,"Ġbehav":5116,"ĠÚĨÛĮØ²ÙĩØ§ÛĮ":5117,"Ġbeautiful":5118,"reme":5119,"ĠØ®Ø§ØµÛĮ":5120,"Ø§ÙĪØ±Ø¯":5121,"raid":5122,"ĠØ¨Ø±ÛĮØªØ§ÙĨÛĮØ§":5123,"Ġchem":5124,"ĠØ¬ÙĦÙĪÛĮ":5125,"Ġpull":5126,"Ġvalue":5127,"ball":5128,"ked":5129,"ĠÙħØ§Ø¯Ùĩ":5130,"raz":5131,"Ġstopped":5132,"omb":5133,"Ġobser":5134,"Ġconsider":5135,"Ġsimply":5136,"Ġintrodu":5137,"ingly":5138,"Ġcrit":5139,"Ø¨ÙĨØ¯":5140,"yl":5141,"Ġtype":5142,"Ø§Ø±ÛĮØ³":5143,"Ø¬Ø§Ø³Øª":5144,"ĠÙĨØ¯Ø§Ø´ØªÙĩ":5145,"From":5146,"ØªØµ":5147,"Ġtill":5148,"ĠÙħØ¨Øª":5149,"Ġfast":5150,"Ø±Ø§Ú©":5151,"ĠMarch":5152,"ĠØ§Ø¸ÙĩØ§Ø±":5153,"ØªØ±Ø³":5154,"Ġattempt":5155,"Ġmovement":5156,"Ġreached":5157,"Ġ25":5158,"sequ":5159,"Ġvarious":5160,"Ġbecom":5161,"Ġappeared":5162,"do":5163,"ĠÛ´Û":5164,"ØªÙħÙĨØ¯":5165,"Ġcontinued":5166,"ĠØªØ¹ÛĮÛĮÙĨ":5167,"ĠÙħÙĪØ¬Ø¨":5168,"Ġformer":5169,"ĠØ²ÙĨØ¯Ø§ÙĨ":5170,"ĠØ§Ø·ÙħÛĮÙĨØ§ÙĨ":5171,"ĠÚĨÙĪØ¨":5172,"Ġinn":5173,"Ġglass":5174,"ĠÎ":5175,"Ġrob":5176,"owers":5177,"ĠØ¬Ø¯":5178,"Ġkilled":5179,"ĠEn":5180,"ĠÙĤÛĮÙħØª":5181,"Ġnamed":5182,"ĠÛ±Û¹Û¶Û":5183,"ĠÙĨÙĤÙĦ":5184,"Ø¨ÙĪ":5185,"ĠØªØŃÙħÙĦ":5186,"ague":5187,"ĠÃ":5188,"Ø§ÛĮÛĮØ¯":5189,"icle":5190,"Ú©ÙĨØ´":5191,"ĠÙħØ¯ÛĮØ±ÛĮØª":5192,"ÙĩØ§ÛĮØ´Ø§ÙĨ":5193,"ĠØ¯ÙĩÙħ":5194,"ĠÙĤØ¨ÙĪÙĦ":5195,"Ġesc":5196,"ĠÚĨÙĨØ¯Ø§ÙĨ":5197,"Ġstanding":5198,"uel":5199,"Ġimmedi":5200,"ĠØºÙħ":5201,"Ġsor":5202,"Ġbes":5203,"ĠVal":5204,"ĠØªØŃÙĤÛĮÙĤ":5205,"Ġblue":5206,"ĠMus":5207,"agement":5208,"Ø³Ø§ÛĮ":5209,"Ø¨Ø§Ø±ÛĮ":5210,"lling":5211,"Ġge":5212,"Ġcommunity":5213,"Ġgirls":5214,"ĠMad":5215,"Ġterri":5216,"ĠâĪ":5217,"ĠØ²ØŃ":5218,"Ø§Ú©ÛĮ":5219,"sc":5220,"ills":5221,"ĠØ®Ø¨":5222,"ÙĪØ±Ø§ÙĨ":5223,"ama":5224,"ĠÙ¾ÛĮØ´Ø±ÙģØª":5225,"ournal":5226,"Sh":5227,"Ø§Ø¨Ø·":5228,"ĠÙĩÙħÚ©Ø§Ø±ÛĮ":5229,"ĠBut":5230,"ĠØ´Ø®ØµÛĮØª":5231,"inct":5232,"Ø³Ú©":5233,"Ġfine":5234,"ĠÙ¾ÙĦÛĮØ³":5235,"ĠØ´Ø§Ø¯":5236,"ĠHist":5237,"itect":5238,"Ġdistrict":5239,"ibility":5240,"Ú©ÙĨÙĩ":5241,"ica":5242,"ĠÙĨØ´Ø§ÙĨÙĩ":5243,"Ġmiddle":5244,"his":5245,"Ġstreet":5246,"ĠØ¯Ø§Ø®ÙĦÛĮ":5247,"AS":5248,"Ø¯Ø³":5249,"ĠÙħÙĤØ§Ùħ":5250,"usion":5251,"ĠÙħÙĤØ§ÛĮ":5252,"ta":5253,"Ġsea":5254,"ĠØºØ±Ø¨ÛĮ":5255,"Ġmouth":5256,"Ù¾ÙĦ":5257,"Ø¬Ø§ÛĮ":5258,"there":5259,"ĠÚ©Ø±ÛĮ":5260,"who":5261,"ĠÙĪØ§ØŃØ¯":5262,"ÙĩÙĪØ±":5263,"Ġfif":5264,"Ġpublished":5265,"Ġneighb":5266,"Ġmeant":5267,"ĠMed":5268,"Ġjud":5269,"wered":5270,"ĠØ®Ø§Ø±Ø¬ÛĮ":5271,"Ġdie":5272,"Ġterm":5273,"ĠØ¨Ùħ":5274,"ĠØ³Ú©ÙĪØª":5275,"ĠÙħØ¨":5276,"ĠJune":5277,"ray":5278,"ĠØ¢ÙģØª":5279,"isf":5280,"Ġver":5281,"Ø³ÙĦ":5282,"Ġspecific":5283,"ĠÙ¾Ø²Ø´Ú©ÛĮ":5284,"ĠÙħÙĤØ§ÛĮØ³Ùĩ":5285,"ĠÙĨÙĤØ§Ø´ÛĮ":5286,"ny":5287,"Ġseeing":5288,"ĠØ§Ø³ØªØ§ÙĨØ¯Ø§Ø±Ø¯":5289,"ĠØ¨Ø¨ÛĮÙĨØ¯":5290,"Harry":5291,"Ġpath":5292,"ĠØ®ÙĪØ¯Øª":5293,"ĠØªÙĪØµÛĮ":5294,"ĠÚ¯Ø³ØªØ±Ø´":5295,"Ġdepend":5296,"ĠØ³Ø§Ùħ":5297,"ĠØ§ØŃØ³Ø§Ø³Ø§Øª":5298,"ĠØªØ¹Ø¬Ø¨":5299,"ĠÚ¯ÙĪÛĮÛĮ":5300,"ĠØŃÙĦÙĤÙĩ":5301,"ĠØ±ÙĤØµ":5302,"ey":5303,"ĠÙħØ¹ÙħÙĪÙĦ":5304,"aven":5305,"Ø§Ø±ÙĪ":5306,"ĠØ¯Ø¹ÙĪØª":5307,"ĠØ§Ø¹ØªÙħØ§Ø¯":5308,"ĠÙĤÙĩ":5309,"Ġdecl":5310,"Ġworks":5311,"ÙĨÙĪØ§ÙĨ":5312,"ĠØ¨Ø²ÙĨØ¯":5313,"ĠÙħÙĩØ§":5314,"Ø§Ø¯Ø«":5315,"ĠÙħÙģÙĩ":5316,"Ġpurp":5317,"Ø§ÙĨÙĪØ³":5318,"Ø®ÙĪØ§ÙĩÛĮØ¯":5319,"ĠØ³ÙĪØ¯":5320,"Ġbab":5321,"ĠJan":5322,"inal":5323,"ĠÙģØ±Ø§ÛĮÙĨØ¯":5324,"ÙĩØ§ÛĮÙħ":5325,"ĠØ¨ÛĮØ§ÛĮØ¯":5326,"ĠÙħØ³ÙĦ":5327,"ĠØ³Ø§Ø²ÛĮ":5328,"ĠÛ±Û¹Û´Û":5329,"ĠÙĩØ³ØªÛĮ":5330,"Ġmaybe":5331,"Ø¨Ø²Ø±Ú¯":5332,"ĠØ±Ùģ":5333,"ĠÚĨØ§Ø±":5334,"ights":5335,"ĠAfrica":5336,"Ġafraid":5337,"ĠØ§Ø³Ù¾Ø§ÙĨÛĮØ§":5338,"ĠØ®Ø´Ú©":5339,"ĠRes":5340,"ĠCal":5341,"ĠØ§ÙĪÙĤØ§Øª":5342,"ĠIndia":5343,"Ġfloor":5344,"Ġavail":5345,"ĠØ¹ÙĦÛĮÙĩ":5346,"ĠØ§ÙĨÙĤÙĦ":5347,"uary":5348,"Ġproblems":5349,"ĠØªÙĤØ³ÛĮÙħ":5350,"Ġdin":5351,"ĠÚĨØ§Ù¾":5352,"18":5353,"CA":5354,"ĠÙĪÛĮÙĨ":5355,"ÙĪØ±Ø´":5356,"ĠÙģÙĦØ³":5357,"Ġenvironment":5358,"ĠØŃØ±ÙģÙĩ":5359,"Ġknowledge":5360,"ĠØªØ¦":5361,"Ġ2012":5362,"Ġ$":5363,"Ø´ØªØ±":5364,"ptember":5365,"ĠØ§Ø®ÛĮØ±":5366,"Ġfix":5367,"ĠÚ©Ø§Ø±Ø¨Ø±Ø¯":5368,"emy":5369,"ya":5370,"Ø¬Ø²":5371,"ĠEarth":5372,"ĠØ´Ø§ÙĨ":5373,"Ġespecially":5374,"ĠØ®Ø³ØªÙĩ":5375,"ĠÙģØ±Ùħ":5376,"Ø²ÙħØ§ÙĨ":5377,"ĠÙ¾ÛĮØ§Ùħ":5378,"Ġrights":5379,"ĠDon":5380,"ĠØ«Ø¨Øª":5381,"ĠÙĨÛĮØ±ÙĪÙĩØ§ÛĮ":5382,"rupt":5383,"ĠØ¯Ø±ÛĮØ§ÛĮÛĮ":5384,"ĠÙĨÚ©ØªÙĩ":5385,"ÚĨØ±Ø®":5386,"ÙĦÛĮØª":5387,"Ġoffice":5388,"ĠÚ©ÙĦÙħØ§Øª":5389,"Ġwrite":5390,"Ġinclude":5391,"Ġast":5392,"ĠÙĩÙħÚĨÙĪÙĨ":5393,"Ġcomplex":5394,"Ġrespons":5395,"Ġlearned":5396,"Ġbeyond":5397,"Ø·ÙĪØ±ÛĮ":5398,"ĠSec":5399,"ĠØ§ÙĨÚ¯Ø§Ø±":5400,"ounced":5401,"ĠØ¨ÛĮØ¯Ø§Ø±":5402,"ĠØªÙĩÛĮÙĩ":5403,"chie":5404,"wo":5405,"Ġsister":5406,"chan":5407,"ĠÙĨÛĮÙĪÛĮ":5408,"ØªÙĪØ§ÙĨØ³ØªÙħ":5409,"Ġsett":5410,"Ø³ÛĮÙĨ":5411,"ĠÙģØ¶Ø§ÛĮ":5412,"ĠSan":5413,"Ġhop":5414,"ĠÙĤÙĪØ§ÙĨÛĮÙĨ":5415,"oices":5416,"ĠÙħØ´Ø§Ø¨Ùĩ":5417,"ĠØ¨Ø´ÙĪØ¯":5418,"ĠÙĪØ§ÙĤØ¹ÛĮØª":5419,"Ġcarry":5420,"ĠPa":5421,"Ġcivil":5422,"ĠØ¬Ø§ÙĦØ¨":5423,"Ġ50":5424,"ĠÙħØ´Ú©ÙĦØ§Øª":5425,"Ġreplied":5426,"Ġfund":5427,"ager":5428,"ĠÙĨÙĩØ§Ø¯":5429,"ĠØ§Ø·Ø§ÙĤ":5430,"Ġpred":5431,"itor":5432,"ĠÙģØ§Ø±":5433,"osing":5434,"itional":5435,"ĠÙĩÙĪØ§ÛĮÛĮ":5436,"Ġtwenty":5437,"iff":5438,"Ġeffort":5439,"Ġpeace":5440,"Ġmodern":5441,"Un":5442,"uf":5443,"Ã¡":5444,"ĠÙģÙĨØ§":5445,"Ġdesp":5446,"ĠØ¬ÙĨÚ¯ÙĦ":5447,"Ġexactly":5448,"ĠCity":5449,"ĠØ§ÙĨØªØ´Ø§Ø±":5450,"ĠÙĦÙĨØ¯ÙĨ":5451,"ĠØ¨Ø¯ÛĮÙĨ":5452,"Ġclaim":5453,"Ú¯ÙĪÛĮÙĨØ¯":5454,"ĠØ®ÙĪØ±Ø¯Ùĩ":5455,"ÙĪÛĮÚĨ":5456,"ĠÙħØ±Ú©Ø²ÛĮ":5457,"lock":5458,"Ġeveryone":5459,"reed":5460,"Ġprev":5461,"Ø®ÙĪØ§Ø³ØªÙħ":5462,"Ø³Ú©Ùĩ":5463,"ators":5464,"ÙĪØ§Ø¹":5465,"ĠØªÙĦÙģÙĨ":5466,"ites":5467,"ĠØ¢Ø³ÛĮØ¨":5468,"ĠØ§Ø¯Ø§Ø±Ùĩ":5469,"Ġassoci":5470,"Ġreleased":5471,"ĠØ¬Ø³":5472,"ĠâĢĿ":5473,"bec":5474,"ĠØ§ØªÙģØ§ÙĤÛĮ":5475,"Ġanyone":5476,"ĠÙħØ´ØªØ±Ú©":5477,"Ġtrees":5478,"ĠØªÚ©Ùĩ":5479,"ĠÚ©ÙĦØ§ÛĮØ¯":5480,"ĠØ¢ÙĦÙħØ§ÙĨÛĮ":5481,"ĠØªØ§Ùħ":5482,"ĠCo":5483,"ĠÛ±Û¹":5484,"ength":5485,"asc":5486,"ĠØ´ÛĮÙħÛĮØ§ÛĮÛĮ":5487,"Ġwat":5488,"Ġmaster":5489,"resh":5490,"Ġeasy":5491,"ĠØ¢ÙĦØ¨ÙĪÙħ":5492,"ternet":5493,"Ġcollect":5494,"Ġspoke":5495,"ography":5496,"ĠÐ":5497,"ĠÚ©Ø±Ùĩ":5498,"ĠØ¹ÙħØ±":5499,"dom":5500,"ĠØ·ÙĦ":5501,"ĠÙĨÛĮØ³ØªÙħ":5502,"ØªÙħØ§Ùħ":5503,"Ġhappen":5504,"ĠÙħØ¯ÛĮØ±":5505,"Ġofficial":5506,"arily":5507,"Ġfort":5508,"ram":5509,"ĠÙħØ§ÛĮÙĦ":5510,"ĠÚ©Ø±ÛĮØ³ØªÙģ":5511,"ĠØ¨Ø§Ø´Ùĩ":5512,"Ġneeded":5513,"ĠØ§Ø³Ù¾Ø§ÙĨÛĮØ§ÛĮÛĮ":5514,"Ġtoward":5515,"ĠÙħÙĨØ§Ø·ÙĤ":5516,"Ġregard":5517,"ĠØ³ÙĨØª":5518,"ĠØºÙĦ":5519,"ĠØ§ÙģØ±Ø§Ø¯ÛĮ":5520,"ĠØ¬Ø²ÛĮØ±Ùĩ":5521,"Ú©Ø²":5522,"ĠØªÙĪØµÛĮÙģ":5523,"Ġking":5524,"ĠÙĤØ±ÙħØ²":5525,"Ġ2008":5526,"Ø§ÙĨÛĮÙĩ":5527,"iant":5528,"ĠChristophe":5529,"ĠÙĤÙĩØ±":5530,"Ø±Ø§ÙĨØ¯":5531,"ĠÙĨØ§Øª":5532,"Ġmarried":5533,"ĠÙ¾Ø§ÙĨ":5534,"Ġ2011":5535,"ÙħØ§Ø¯Ø±":5536,"Ġfac":5537,"ĠBer":5538,"owd":5539,"set":5540,"Ġwhis":5541,"Ġdoctor":5542,"Of":5543,"gorith":5544,"Ġwouldn":5545,"ĠÙħØ°Ùĩ":5546,"ĠØ¯ÙģØªØ±":5547,"ĠÙ¾Ø§Ø±ÛĮØ³":5548,"Ġdoubt":5549,"iverse":5550,"ĠØªØŃØµÛĮÙĦ":5551,"ĠØ¨Ø±Ú¯Ø²Ø§Ø±":5552,"ĠÙģØ±Ø²ÙĨØ¯":5553,"Ġquestions":5554,"Ø§ÙĦÛĮØ§":5555,"ĠÙĩØ±ÚĨÙĩ":5556,"Ġshare":5557,"Ġ2009":5558,"ugust":5559,"Ġcast":5560,"ris":5561,"ĠØŃÚ©ÙĪÙħ":5562,"ĠØ±Ø³ÛĮØ¯ÙĨ":5563,"Ġinternational":5564,"ĠÙ¾Ø®Ø´":5565,"irth":5566,"ĠÙ¾ÙĨØ§Ùĩ":5567,"ĠØ§Ú©Øª":5568,"ĠÙĤÙĪÙĦ":5569,"ĠØ¨ÙĩØ¨ÙĪØ¯":5570,"ĠØªÚ©ÙĨÙĪÙĦÙĪÚĺÛĮ":5571,"Ġstra":5572,"oly":5573,"Ġspent":5574,"ctober":5575,"ĠÙħÙĪÙĤØ¹ÛĮØª":5576,"ban":5577,"Ø³Ùģ":5578,"ĠMon":5579,"ĠØ¯Ø³ØªØ±Ø³ÛĮ":5580,"Ġcommunic":5581,"ĠÙĪØ¶Ø¹ÛĮØª":5582,"ĠÚ©Ø§ÙħÙ¾ÛĮÙĪØªØ±":5583,"Ø¯Ø§Ø¯ÙĨØ¯":5584,"ĠÙĪÛĮÙĦ":5585,"ÙĪØŃ":5586,"Ú¯Ø±Ø¯Ø§ÙĨ":5587,"Ġideas":5588,"Ġapplic":5589,"Ø¯Ø§ÙĪ":5590,"ĠØ´ÙĩØ±ÛĮ":5591,"ĠÚ©ÛĮÙģ":5592,"icro":5593,"Ġworth":5594,"AT":5595,"cil":5596,"ĠPress":5597,"Ġprim":5598,"ĠØ§Ø³Ø§Ø³ÛĮ":5599,"Ġcontr":5600,"ĠØªÙģØ§ÙĪØª":5601,"ĠSeptember":5602,"Ġindepend":5603,"ĠRussian":5604,"12":5605,"Ġexpression":5606,"Ġdrink":5607,"ĠDav":5608,"ĠØ®Ø¯ÙħØ§Øª":5609,"Ø¯Ø§ÙĨØ¯":5610,"ĠØ¨ÙĩØ±Ùĩ":5611,"Ġdig":5612,"ĠØ§ÙģÚ©Ø§Ø±":5613,"Ġpack":5614,"ĠØ³ÛĮÙħ":5615,"ĠØ³Ø§ÙĦÚ¯ÛĮ":5616,"ĠØ¯Ø´ÙħÙĨ":5617,"ĠÙĪØ±ÙĪØ¯":5618,"Ġsal":5619,"ÚĺÚ¯ÛĮ":5620,"Ø¹Ùħ":5621,"?\"":5622,"Ġpolic":5623,"Ġeat":5624,"iers":5625,"Ġpiece":5626,"reng":5627,"ĠØ¯ÙĤÛĮÙĤ":5628,"Ø´ÙĪÙĨØª":5629,"ĠEuropean":5630,"ĠØ¹Ø§Ø¯ÛĮ":5631,"ĠØ¨Ø¨Ø±":5632,"Ġdanger":5633,"ferences":5634,"rum":5635,"ĠÙĨØ§Ø´":5636,"ĠWest":5637,"Ġwaiting":5638,"ĠGermany":5639,"Ġfair":5640,"ĠØ²ÛĮØ¨Ø§ÛĮÛĮ":5641,"ĠÙĪÙĤ":5642,"ĠØ³ÙĪØ±":5643,"ĠJew":5644,"Ġda":5645,"ĠØ¹ÙĤÛĮØ¯Ùĩ":5646,"what":5647,"irm":5648,"ĠØ±ÙĪØ¯Ø®Ø§ÙĨÙĩ":5649,"ĠJuly":5650,"ĠØ¢ÙĨØ¯":5651,"Ġmeaning":5652,"ĠØ¨Ø´Ø±":5653,"ĠÙĨÛĮÙĪÛĮÙĪØ±Ú©":5654,"Ġcop":5655,"Ġrelationship":5656,"Ġindeed":5657,"ĠAt":5658,"Ġtemper":5659,"Ø®Ø±Ùĩ":5660,"fered":5661,"ĠØ±Ø§ÙĩÛĮ":5662,"ĠØ§ÙĨØ¯ÛĮØ´Ùĩ":5663,"ÙĤÛĮØ±":5664,"ĠØ§ÛĮÙĨÙĩ":5665,"Ø¦ÙĪÙĨ":5666,"uses":5667,"Ġur":5668,"Ġhy":5669,"ĠØ¬Ø¯ÛĮØ¯ÛĮ":5670,"Ġsilence":5671,"Ġsize":5672,"ĠØ¢ÙĪØ±":5673,"ĠØ§ÙĩÙĦ":5674,"ÙĤØ§ÙĨ":5675,"lying":5676,"Ġloved":5677,"Ġchance":5678,"Ġbox":5679,"Ġhorse":5680,"Ġcompletely":5681,"ĠØ±ÙĪØ³ÛĮÙĩ":5682,"Ø¯ÙĪØ±":5683,"ĠÙħØ¹ØªÙĤ":5684,"Ø±ÙģØªÙĩ":5685,"Ġmid":5686,"ĠÙħØ¯Ø§Ø±":5687,"ÙĪÙĦÛĮØª":5688,"ĠØ¢Ø´Ú©Ø§Ø±":5689,"ĠÙĨÚ¯Ø±Ø§ÙĨ":5690,"ilos":5691,"ĠÛ°Û°Û°":5692,"ĠNe":5693,"ĠØ³Ø§Ø¨ÙĤ":5694,"Ġeducation":5695,"ĠÙħØ¨Ø§Ø±Ø²Ùĩ":5696,"omp":5697,"ĠÙħÚ¯Ø±":5698,"ned":5699,"ĠØ§ØµÙĦ":5700,"Ø®ÙĪØ§ÙĩÙĨØ¯":5701,"ĠØ¹ÙĦÙħ":5702,"ĠEngland":5703,"het":5704,"ĠÙħÙĪÙĨ":5705,"Ġburn":5706,"Ġnorm":5707,"ÙħÛĮØ±":5708,"Ġ2013":5709,"ÙħØŃ":5710,"ĠØ³Ù¾Øª":5711,"Ø¢Ùĩ":5712,"ĠPres":5713,"ĠÙħÙĤØ§ÙĪ":5714,"ĠÙ¾Ø±ÙĪØª":5715,"Ġcapital":5716,"ĠÙĦØ·":5717,"ustom":5718,"Ġamount":5719,"ĠÙħÙĩÙĨØ¯":5720,"Ù¾Ø²":5721,"ĠÙĪØ³Ø·":5722,"ĠØ¢Ø´ÙĨØ§":5723,"ĠÙħØŃØ¨":5724,"Ġlargest":5725,"ĠÙģØµÙĦ":5726,"ibly":5727,"ĠØ¢Ø«Ø§Ø±":5728,"Ġregion":5729,"Ġrunning":5730,"ĠØ³ÛĮÙĨ":5731,"ĠØªØ§Ø±ÛĮÚ©":5732,"bum":5733,"ĠØ³Ø§ÛĮÙĩ":5734,"ka":5735,"Ø®Ø§Øµ":5736,"Ġaffect":5737,"ĠØªØµØ§Ø¯":5738,"pril":5739,"Ġconcept":5740,"ĠPer":5741,"Ġchair":5742,"Ġconversation":5743,"Ġlooks":5744,"Ġ>":5745,"Ġhost":5746,"ĠØ¯ÙĦØ´":5747,"ossible":5748,"Ġsearch":5749,"bsite":5750,"ĠÚ¯ÙħØ§ÙĨ":5751,"Ġstudents":5752,"ĠÙĨØ§ÙħÛĮØ¯Ùĩ":5753,"Ù¾Ø§ÛĮ":5754,"Ġcoun":5755,"ĠØ´ÛĮÙĪÙĩ":5756,"ĠØªØ¬Ø§Ø±ÛĮ":5757,"Ġprinci":5758,"Ġwarm":5759,"ĠØ²ØŃÙħØª":5760,"ĠÚ©ÙĪØ±":5761,"Ġparents":5762,"ĠØªØ§Ø«ÛĮØ±":5763,"ĠØ¬Ø¹":5764,"Ġmunicipality":5765,"ĠØªØºÛĮÛĮØ±Ø§Øª":5766,"izing":5767,"Ġgoes":5768,"Ø¯ÙĪÙĨ":5769,"Ġsight":5770,"well":5771,"iny":5772,"ĠSam":5773,"Ġband":5774,"ĠØ§ÙĦÙĩ":5775,"ĠØ³Ø±Ø²ÙħÛĮÙĨ":5776,"ĠØ´ÙħØ§Ø±Ùĩ":5777,"bling":5778,"ovember":5779,"lands":5780,"ĠÙħØŃØ¶":5781,"ĠØ³Ø®ÙĨØ§ÙĨ":5782,"Ġproduced":5783,"ĠØ§ÙĪÙĨÙĩØ§":5784,"aur":5785,"Ø¨Ø±ÙĪ":5786,"ĠØ¯ÙĤÛĮÙĤØ§":5787,"ĠØªØ±Ø¯":5788,"Ġstates":5789,"ĠØ·Ø¨ÛĮØ¹Øª":5790,"Ġcam":5791,"Ø§Ú©Ø³":5792,"oid":5793,"ĠChina":5794,"Ġisn":5795,"ĠÙģÙĨØ§ÙĪØ±ÛĮ":5796,"Ġavailable":5797,"Ġdress":5798,"ĠÚ¯ÙĪÛĮ":5799,"Ø¹Ø¯Ø§Ø¯ÛĮ":5800,"ĠÙĨØ¨Ø±Ø¯":5801,"aud":5802,"Ġmember":5803,"ĠÙĨØ§Ø´ÛĮ":5804,"Ġinit":5805,"Ġ2006":5806,"ÙĦØ²":5807,"ĠØ³Ø¤":5808,"Ġstreng":5809,"ĠØªØ§Ø±ÛĮÚ©ÛĮ":5810,"gress":5811,"ĠØ®Ø´ÙĪÙĨØª":5812,"ĠØ³Ù¾ØªØ§ÙħØ¨Ø±":5813,"Ġrul":5814,"ĠØ¨ÛĮÙĨÛĮ":5815,"Ġ[":5816,"Ø®Ø§Ø±":5817,"ÚĨØ´Ùħ":5818,"ify":5819,"Ġsignific":5820,"Ø¯Ø§ÙĨÛĮ":5821,"minist":5822,"Ġfem":5823,"ĠØ¯ÙĩÛĮØ¯":5824,"199":5825,"Ġfigure":5826,"ald":5827,"Ø¦Øª":5828,"Ø§ÙģÙĤ":5829,"ĠØ®Ø¯Ø§ÛĮ":5830,"cember":5831,"ĠØ¯ÙģØ§Ø¹":5832,"Ø±ÙĪØ²Ùĩ":5833,"ĠÚ¯ÛĮØ§Ùĩ":5834,"Ġep":5835,"ĠPal":5836,"ĠTom":5837,"ification":5838,"ĠØ¨Ø¯ÙĩÙħ":5839,"aled":5840,"iced":5841,"Ġacqu":5842,"Ġpersonal":5843,"Ġweeks":5844,"Ġeconomic":5845,"ER":5846,"Ø±ÙĪÙĨØ¯":5847,"arden":5848,"mit":5849,"ĠØ§ØŃØªØ±Ø§Ùħ":5850,"ĠOctober":5851,"Ġphysical":5852,"ĠAustral":5853,"Ã¶":5854,"room":5855,"ĠØ¬Ø´ÙĨ":5856,"Ġparts":5857,"Ø±Ø§ÙĤ":5858,"Ø¢ÛĮÙĨØ¯":5859,"ĠÙĤØ§ÛĮÙĤ":5860,"ĠØ®ÙĪØ§ÙĨØ¯ÙĨ":5861,"ĠØ±ÛĮØ§Ø¶ÛĮ":5862,"ĠØ´Ø§ÛĮ":5863,"ĠØ¶Ø¹ÛĮ":5864,"Ġbroad":5865,"Ġrate":5866,"Ġliter":5867,"During":5868,"Ġcode":5869,"ĠØ®ÙĪØ§ÙĩÛĮØ¯":5870,"Ġnearly":5871,"ĠÙħØŃÚ©Ùħ":5872,"ĠÙħÛĮÚ©":5873,"Ġcrowd":5874,"umb":5875,"Or":5876,"ĠMor":5877,"Ġemot":5878,"Ġaction":5879,"Ø§Ø±Ùħ":5880,"ĠShe":5881,"elligence":5882,"Ġclot":5883,"ĠØ³Ø®ØªÛĮ":5884,"ghed":5885,"ĠØ¶Ø¯":5886,"Ġwild":5887,"ĠÙĤØ¶ÛĮÙĩ":5888,"ĠØºØ±Ø¨":5889,"ĠBar":5890,"ĠÙĪÛĮÚĺÚ¯ÛĮ":5891,"kn":5892,"aff":5893,"Ġtravel":5894,"Ġtit":5895,"ero":5896,"ĠØ¯ÛĮÚ¯Ùĩ":5897,"Ġentered":5898,"Ġgroups":5899,"ĠÚ¯Ø§Ø²":5900,"ĠØµØ§ØŃØ¨":5901,"ĠØ§ÙĨÙĪØ§Ø¹":5902,"Ġexec":5903,"Ġvideo":5904,"Ú©Ùģ":5905,"ĠÛ±Û²":5906,"ĠØ§ØµØ·":5907,"Ø®ÙĪØ§ÙĨØ¯":5908,"Ú¯ÛĮØ±ÙĨØ¯":5909,"Ġaud":5910,"ĠÙģØ´":5911,"ØµÙĪØ±Øª":5912,"aded":5913,"Ġsatisf":5914,"was":5915,"Ġstraight":5916,"ĠÙħØ³Ø§ÙģØ±":5917,"ĠØ¨Ø²Ø±Ú¯ØªØ±ÛĮÙĨ":5918,"Ġrole":5919,"ĠØªÛĮØ±Ùĩ":5920,"ĠAugust":5921,"ÙħØ§ÙĨØ¯Ùĩ":5922,"ĠØ§ÙħÛĮØ¯ÙĪØ§Ø±":5923,"Ġversion":5924,"Ġdeg":5925,"ĠDr":5926,"ĠØŃØ¯Ø§ÙĤÙĦ":5927,"Ø§Ø¬Ùĩ":5928,"ĠØ¨ÙĪÛĮ":5929,"ÙĨØ´ÛĮÙĨ":5930,"Ġlikely":5931,"ĠÙħØ³Ø§Ø¦ÙĦ":5932,"Ġpicture":5933,"Ph":5934,"Ġlady":5935,"ĠØ¹ÙĦÛĮ":5936,"ĠMary":5937,"ĠØ±ÙĪØ§Ø¨Ø·":5938,"Ġslight":5939,"ĠÙĩÙĨØ±ÛĮ":5940,"ÙĪØ§ÛĮ":5941,"ĠÙħÙħÙĨ":5942,"ĠApril":5943,"ĠÚ¯ÙģØªÙĨ":5944,"Ġtakes":5945,"atory":5946,"unk":5947,"Ġallow":5948,"ĠØ¸Ø±Ùģ":5949,"Ġaddress":5950,"ĠÚ¯Ø±ÛĮÙĩ":5951,"Ġalgorith":5952,"Ġvict":5953,"Ġspend":5954,"while":5955,"Ġlif":5956,"ĠØŃØ±Ú©":5957,"Ġmoving":5958,"ĠÚ©ÙĦØ§":5959,"rey":5960,"ĠØ¯Ø³":5961,"Ø£Ùħ":5962,"ĠØ¯Ø±Ø¢ÙĪØ±Ø¯":5963,"olute":5964,"atever":5965,"Ġachie":5966,"Ġseems":5967,"Ġfrequ":5968,"ĠÙĨÙĪÛĮØ³ÙĨØ¯Ùĩ":5969,"ĠØ§ÙĨØ¬ÙħÙĨ":5970,"ÙĩØ§Ø³Øª":5971,"Ġlad":5972,"ĠØ³Ø§Ø®ØªØ§Ø±":5973,"ĠÙĩØ³ØªÙĩ":5974,"ÙĪØªÛĮ":5975,"ÙĪØ³ØªÙĩ":5976,"Ġdam":5977,"ĠØªÙĩØ¯ÛĮØ¯":5978,"ĠØ±ÙģØªÙĨØ¯":5979,"ham":5980,"ĠÚ¯ÙģØªÚ¯ÙĪ":5981,"Ġremained":5982,"utions":5983,"Ġones":5984,"Ø¨Ø®Ø´":5985,"ĠØŃØ§ØµÙĦ":5986,"ĠÙģØ¶Ø§":5987,"ĠØ³Ø§ØŃÙĦ":5988,"ĠØ§ØªÙĪÙħ":5989,"Ġopport":5990,"ĠØ±Ø§Ø¯ÛĮ":5991,"ĠMc":5992,"ÙĨØ²":5993,"Ġrisk":5994,"lla":5995,"Ġpolice":5996,"ĠØ¨ÙĨØ§":5997,"ĠAlexand":5998,"ĠSpain":5999,"Ġdemand":6000,"Ø¨Ø®Øª":6001,"ĠMos":6002,"ĠØ¬Ø§ÛĮÚ¯Ø²":6003,"Ġhigher":6004,"!...":6005,"Ġcy":6006,"ÙĦØ§ÙĪÙĩ":6007,"Ġ|":6008,"Ġhat":6009,"ĠÙħÙĪØªÙĪØ±":6010,"ĠØ¨Ø·ÙĪØ±":6011,"ĠØ¬ÙĦØ¨":6012,"Ġcomfort":6013,"ĠÙĪØ§Ú©ÙĨØ´":6014,"Ú©ÛĮÙĩ":6015,"ĠØ¨Ø¨ÛĮÙĨÛĮØ¯":6016,"ĠØ±ÙģØªÙħ":6017,"Ġvisit":6018,"Ġshowed":6019,"ĠÙĪØ§Ø¨":6020,"ÙģØ±ÙĪ":6021,"ÙĪØ§ÙĤ":6022,"ĠØ§ÙħÙĪØ±":6023,"Ġstar":6024,"ĠØªÙħØ§Ø´Ø§":6025,"Ġconcern":6026,"Ġ2007":6027,"ĠØ¹ÙĩØ¯Ùĩ":6028,"50":6029,"Ø§ØŃÛĮÙĩ":6030,"Ġplaces":6031,"ĠÙħØ¬ÙĦØ³":6032,"Ø§ÙĪÙĦÛĮÙĨ":6033,"ari":6034,"ĠØ®Ø±ÙĪ":6035,"ĠEast":6036,"Ġfeat":6037,"Ġplayed":6038,"Ġanswered":6039,"asant":6040,"Ġrock":6041,"ĠÙħØ¹Ø±ÙĪÙģ":6042,"ĠÙĤÙĩÙĪÙĩ":6043,"Ġallowed":6044,"Ġlower":6045,"ĠØ®ÛĮØ±":6046,"Ø§ÙĨØ¯Ø§Ø²":6047,"ĠØ¹ÙħÙĦÚ©Ø±Ø¯":6048,"Ø§ÙĦÙħ":6049,"ensive":6050,"Ġdiscuss":6051,"ĠØ¯ÙĪØ´ÛĮØ²Ùĩ":6052,"ĠØŃØªÙħØ§":6053,"ĠØµÙĪØ±ØªÛĮ":6054,"ĠØªÙĪÙ¾":6055,"ught":6056,"ĠØ¯ÙĨØ¯Ø§ÙĨ":6057,"isted":6058,"Ġweak":6059,"ĠÚ¯Ø±ÙģØªÙħ":6060,"Ġbelieved":6061,"Ġstandard":6062,"ĠDecember":6063,"ĠØ²Ùħ":6064,"Ġraised":6065,"Just":6066,"ÙħØ§ÙĨÙĩ":6067,"ĠNovember":6068,"ĠÚ©Ø§ØºØ°":6069,"Re":6070,"Ø§ÙģØ²Ø§Ø±":6071,"Ġcompet":6072,"Ġbound":6073,"rael":6074,"Ġball":6075,"Ø´Ú©Ø±Ùħ":6076,"come":6077,"ĠØ´Ø§Ø¯ÛĮ":6078,"ĠØŃÛĮÙĪØ§ÙĨØ§Øª":6079,"Ø¨Ø§ÛĮØ³Øª":6080,"ilities":6081,"ĠÚ©ÙħØ§ÙĦ":6082,"Ġdetermin":6083,"Ġpen":6084,"Ġterms":6085,"ĠØŃØ§ÙģØ¸Ùĩ":6086,"ĠLord":6087,"ĠÙħØŃØ§Ø³":6088,"Ġ192":6089,"ĠØ§Ø¬Ø±Ø§ÛĮ":6090,"ĠØ§ØŃÙħÙĤ":6091,"Ġknows":6092,"ĠØ°Ø®":6093,"Ġdisease":6094,"ÙħÙħÚ©ÙĨ":6095,"rect":6096,"Ġgrew":6097,"ĠØ´Ø±ÙĤÛĮ":6098,"onst":6099,"Ġmad":6100,"Ġgiving":6101,"ÙĨÙĪØ´Øª":6102,"Ġdefe":6103,"Ġmachine":6104,"ani":6105,"ĠÙ¾Úĺ":6106,"ĠØ¯ÛĮÙĪØ§ÙĨÙĩ":6107,"ĠØ¹ØµØ¨Ø§ÙĨÛĮ":6108,"Ú¯ÙĪØ±ÛĮØªÙħ":6109,"ĠÙĩØ¯Ø§ÛĮ":6110,"anish":6111,"bert":6112,"ĠÚ©ÙĦÛĮØ¯":6113,"ĠÙĦØŃØ§Ø¸":6114,"ĠAnt":6115,"ĠØ¨ÛĮØ§ÙĪØ±":6116,"ĠØŃÚ©ÙĪÙħØª":6117,"Ġmut":6118,"Ġsource":6119,"ĠÙ¾ÛĮÙĪÙĨØ¯":6120,"Ġ2005":6121,"âĢĮâĢĮâĢĮâĢĮ":6122,"Ø±ÙĪØ¨":6123,"asion":6124,"ĠØ¨ÙĢÙĩ":6125,"ables":6126,"Ð°":6127,"arlet":6128,"Ġdiscovered":6129,"Ġchanges":6130,"ĠØ¯Ø±ÙĪØº":6131,"Ġslowly":6132,"ĠRepublic":6133,"Ġrefer":6134,"ĠÛĮØ®":6135,"ĠGreat":6136,"ĠØ³Ø¨Ø¨":6137,"Ø¸ÛĮÙģÙĩ":6138,"Ø§Ø²Ø¯Ùĩ":6139,"lim":6140,"Ú©ÙĪÙĦ":6141,"Ġden":6142,"Ø§Ø¦ÛĮ":6143,"Ġshout":6144,"ĠJanuary":6145,"Ġ<":6146,"iety":6147,"ØºØ§ÙĨ":6148,"ĠÙ¾Ø§Ø±Ú©":6149,"Ġtotal":6150,"Ø§Ø²Ø´":6151,"Ġemploy":6152,"ĠØŃØ±":6153,"Ġanimals":6154,"Ø¯ÙĦ":6155,"ĠÙħØ´Ø§Ø±":6156,"ĠÛ³Û°":6157,"ĠÙĨØ§Ùĩ":6158,"ĠØ§Ø¹ÙħØ§ÙĦ":6159,"ĠÙĨÙħØ§ÛĮØ¯":6160,"Ø¬Ø§ÛĮÛĮ":6161,"Ġcolor":6162,"ĠÚĺÙĪØ¦ÙĨ":6163,"ĠØ¯Ø±Ø®":6164,"Ġund":6165,"ĠØ¨Ú¯":6166,"Ú¯Ø§Ø±ÛĮ":6167,"asing":6168,"Ġareas":6169,"Ġrose":6170,"Ġspread":6171,"ĠØ¹ÙĦÙĪÙħ":6172,"mon":6173,"ching":6174,"osition":6175,"Ġstories":6176,"Ġimpossible":6177,"itation":6178,"ĠØ¨ÙĩØ´":6179,"Ġthus":6180,"sych":6181,"Ġunc":6182,"Ġwait":6183,"Ġcorner":6184,"ÙĪÙ¾":6185,"lict":6186,"Ġdru":6187,"Ø³ÛĮÙĦ":6188,"ĠÙĩÙĪØ§ÛĮ":6189,"ĠRober":6190,"Ġquar":6191,"ĠØ³Ø§ÙĦÙħ":6192,"Ġclosed":6193,"Ġalthough":6194,"Ġterror":6195,"cience":6196,"While":6197,"Ġfellow":6198,"Ġmanner":6199,"Acc":6200,"ĠÙģÛĮØ²ÛĮ":6201,"ÙĨÙĪØ¹ÛĮ":6202,"ĠÚ©Ø§ÙĦØ³Ú©Ùĩ":6203,"ĠØ§ÙĤÛĮ":6204,"era":6205,"key":6206,"Ġspeed":6207,"Ø³ØªÙĨ":6208,"Ø±Ø¯ÙĪ":6209,"Ú¯Ø±Ùħ":6210,"irty":6211,"Ú¯ÙģØªÙħ":6212,"king":6213,"eness":6214,"icated":6215,"Ġlear":6216,"cia":6217,"Ġprep":6218,"Ġprevent":6219,"Ġphilos":6220,"Ø·Ùĩ":6221,"ĠØ¨ÛĮØª":6222,"Ġchall":6223,"ĠØ§ØµÙĦØ§ØŃ":6224,"ĠÙħØŃØ§Ùģ":6225,"ĠÙĨØ³ÙĦ":6226,"ĠÚ©ÙĦÛĮØ³Ø§":6227,"ĠÙħÙĪØ³":6228,"ÙĦØ§ÙģØ§ØµÙĦÙĩ":6229,"ĠÙģÙĩØ±Ø³Øª":6230,"ĠWhat":6231,"Ġdinner":6232,"Ġcases":6233,"ĠÙħØ±ØªØ¨Ø·":6234,"hemat":6235,"ĠØ´ÙĨÛĮØ¯":6236,"Ø§ÙĦØ¹Ø§Ø¯Ùĩ":6237,"ĠParty":6238,"Ġlau":6239,"Ġgas":6240,"ĠØªØ±ÛĮÙĨ":6241,"ĠØ§ÙħÙĨÛĮØª":6242,"ients":6243,"ĠØ®ÙĪØ±Ø¯ÙĨ":6244,"ÙĤÛĮÙĨ":6245,"Ù¾ÛĮØ±":6246,"ĠØ§ÛĮÙĨØªØ±ÙĨØª":6247,"ĠØ®ÙĪØ¯ÙħØ§ÙĨ":6248,"ØºÛĮØ±":6249,"ÙħØ§ÛĮÙĦ":6250,"ĠState":6251,"Ø¨Ø§Ø²ÛĮ":6252,"ione":6253,"ĠÙħØ®ÙģÛĮ":6254,"Ø¨ÛĮÙĨÛĮØ¯":6255,"bing":6256,"verage":6257,"ĠØ¬ÙĨØ¨Ø´":6258,"Ġdollars":6259,"oes":6260,"ĠÙ¾ÙĦÙĩ":6261,"Ø¯Ø§ÙĨÛĮØ¯":6262,"Ġnumbers":6263,"ĠÙģÛĮÙĦÛĮÙ¾":6264,"Ġimmediately":6265,"ĠØ¹ÙħÙĦÛĮØ§Øª":6266,"ĠØ§Ú©ØªØ¨Ø±":6267,"ĠØ´ÙĪÙħ":6268,"Ø¯ÙĩÛĮ":6269,"ĠÛĮÙĩÙĪØ¯ÛĮ":6270,"ĠØ¹ÙħÛĮÙĤ":6271,"Ġarchitect":6272,"ĠÙħÙģÙĩÙĪÙħ":6273,"Ġmention":6274,"Ġthreat":6275,"oking":6276,"Ø§Ø®Ø±":6277,"Ġproduction":6278,"Ġnecessary":6279,"ux":6280,"Ġpopular":6281,"ĠØ±Ø²":6282,"ki":6283,"Ġthoughts":6284,"ĠÙħØ±Ø§ÙĤØ¨Øª":6285,"field":6286,"Ġheat":6287,"ÙĩØ§Ø¦ÛĮ":6288,"Ġsafe":6289,"Ġdistribut":6290,"ÙĪÛĮØ³ÛĮ":6291,"ĠØ¢Ø±Ø§ÙħØ´":6292,"ĠØ´ØªØ§Ø¨":6293,"Ġlog":6294,"ĠØ®ÙĦÙĤ":6295,"Ġglad":6296,"Ġamaz":6297,"ancy":6298,"ĠØ¨Ø§ÙĦØ§ØªØ±":6299,"ĠÙħÛĮÙĦÛĮØ§Ø±Ø¯":6300,"ria":6301,"Ø¨ÛĮÙĨÙħ":6302,"ĠSer":6303,"ĠØ³ÙĨÚ¯ÛĮÙĨ":6304,"ĠÙĦØŃÙĨ":6305,"ĠÙħÚ©Ø§ÙĨÛĮ":6306,"ĠÙħØ§Ø±Ø³":6307,"ÙĢÙħ":6308,"ĠØ¢ÙģØªØ§Ø¨":6309,"ĠÙħÙī":6310,"Ġcat":6311,"Ġfinally":6312,"ĠÙħÙĪÙĦ":6313,"Ġcand":6314,"Ġrap":6315,"ĠIslam":6316,"ĠØ±ÙĪÙĨ":6317,"Ġtext":6318,"ĠArt":6319,"ĠÙħØ¹ÙħÙĪÙĦÛĮ":6320,"Ø¢Ø¨":6321,"ĠÙħÙĤØ§ÙĦÙĩ":6322,"ĠÙĨØ¯ÛĮØ¯Ùĩ":6323,"ĠÙħØ¬Ø¯":6324,"Ġwriting":6325,"ĠØ±Ø³Ø§ÙĨÙĩ":6326,"ĠÛ²Û°Û±Û°":6327,"arc":6328,"Ġlips":6329,"Ġlinks":6330,"ĠÙħÙĪØ¬":6331,"ucle":6332,"Ġhosp":6333,"Ġemer":6334,"Ù¾Ø±Ø§Øª":6335,"ĠÙ¾ÙĪØ´ÛĮØ¯Ùĩ":6336,"ĠØ¹Ø¸ÛĮÙħ":6337,"ĠÚ©ÛĮÙĦÙĪÙħ":6338,"Ġcarried":6339,"ĠØ¯Ø±Ø®ÙĪØ§Ø³Øª":6340,"ĠØ³Ø¹":6341,"Ġmechan":6342,"Ġminute":6343,"rov":6344,"ctions":6345,"Ø¨Ø±Ø®ÛĮ":6346,"joy":6347,"ĠØ¹Ø§ÙħÙĦ":6348,"ĠØ³ÙĦØ§Ùħ":6349,"Where":6350,"ails":6351,"ÙħØ§Ø±":6352,"Ġdistance":6353,"Ġprivate":6354,"Ġder":6355,"ĠÙħÛĮÙĨ":6356,"Ġimagine":6357,"Ø±Ø§Ø¬":6358,"ĠØ¢ÙĪ":6359,"Ġtrem":6360,"Ġgun":6361,"ises":6362,"ÙĦÛĮÙĨ":6363,"ĠØ¯ÙĩÙĨØ¯Ùĩ":6364,"reg":6365,"ĠDNA":6366,"ees":6367,"iation":6368,"ners":6369,"ĠÙĨØ§Ø®":6370,"ĠÚĺØ§Ù¾ÙĨ":6371,"ĠØ³Ø¤Ø§ÙĦ":6372,"ÙħØ·":6373,"ĠPhilip":6374,"ĠÙħØ´Ø§Ø±Ú©Øª":6375,"Ú©Ø¯Ùĩ":6376,"ĠØ®Ø´":6377,"Ø®ÙĪØ§ÙĩÛĮÙħ":6378,"ĠPresident":6379,"appe":6380,"ĠÙĤØ§ÙĨÙĪÙĨÛĮ":6381,"Ø´Ø§ÙĩØ²Ø§Ø¯Ùĩ":6382,"Ø¯Ø®ØªØ±":6383,"ĠØ¨Ú¯ÙĪ":6384,"ĠØ´ÙĩØ±ÙĩØ§ÛĮ":6385,"ÙĪÙĤÙģ":6386,"ĠØ§Ø±Ø¨":6387,"ĠÙħÙĨØ²ÙĦ":6388,"Ġdocum":6389,"ÙĨØ¸":6390,"Ø¹Ú©Ø³":6391,"Ú©Ø±ÛĮØ³ØªÙģ":6392,"Ġmur":6393,"Ġextreme":6394,"ĠØ¢ÙĤØ§":6395,"Ø´ÙĨØ¨Ùĩ":6396,"Ø¸Ø§Ùĩ":6397,"II":6398,"vision":6399,"ĠØ¨Ø±Ø³Ø¯":6400,"bru":6401,"ÃŃ":6402,"Ġnorth":6403,"Ø¨Ø±Øª":6404,"Ġlength":6405,"Ġglobal":6406,"ĠØ³Ø§Ú©Øª":6407,"ĠØ²ÙĨÚ¯":6408,"Ġdifference":6409,"Ġarmy":6410,"ĠØµØ¯Ø§ÛĮÛĮ":6411,"Ġextra":6412,"ĠØ¨Ø§Ø´ÛĮ":6413,"ĠMart":6414,"ĠØ´Ø±ØŃ":6415,"Ø§Ø¯ÛĮÙĩ":6416,"Ġmine":6417,"ĠØ¨Ø±ÙĪÙħ":6418,"Ø±ÛĮØŃ":6419,"ĠÚ¯Ø±ÙģØªÙĨØ¯":6420,"ÙħØ¬":6421,"ĠÙħÙĪØ§Ø¬Ùĩ":6422,"ĠÙĨÚ¯Ø±Ø§ÙĨÛĮ":6423,"ĠInt":6424,"ĠÙ¾ÙĩÙĦ":6425,"ĠÙĨÚ¯Ø±ÛĮ":6426,"Since":6427,"Ġconscious":6428,"Ø§ÛĮØ¬":6429,"Ø±ÙĪÙĨ":6430,"ĠHistory":6431,"ĠØŃÛĮØ±":6432,"ÛĮØ§Ø·":6433,"Ġsecurity":6434,"Ġfinal":6435,"ĠMer":6436,"Ġalbum":6437,"Ø¯Ø±Ø³Øª":6438,"ĠAg":6439,"ĠØ¹Ø¯Ø¯":6440,"ĠÙħÛĮØ´Ùĩ":6441,"ĠÙħØ§Ø¬":6442,"Ø¨Ø®ØªÛĮ":6443,"ĠØ¨Ø±ÙĪ":6444,"Ġmedia":6445,"Ġopt":6446,"Ø¬ÙĨ":6447,"ĠÚ©Øª":6448,"ĠÚ©Ø§ÙĨØ§Ø¯Ø§":6449,"Ġcouple":6450,"ĠØ¹Ø§Ø¯Øª":6451,"ĠÙģØ±Ø§ÙĨÚ©":6452,"Ġkids":6453,"ĠØ´ÙĨÛĮØ¯ÙĨ":6454,"ĠØ§Ø®ØªØµ":6455,"ĠÙĤØ§Ø¨":6456,"Ġhistor":6457,"ĠÚ©Ø´Ø§ÙĪØ±":6458,"Ù¾Ø§Ø±":6459,"iles":6460,"rief":6461,"aries":6462,"Ġbroken":6463,"Ú¯Ø§ÙĨÛĮ":6464,"Ġet":6465,"Ġstuff":6466,"ĠÚ¯ÙĪØ´Øª":6467,"Ġremark":6468,"teen":6469,"Ġbelong":6470,"According":6471,"Ġpurpose":6472,"Ù¾ÙĪØ´":6473,"ĠComp":6474,"ech":6475,"Ø§Ø¹Øª":6476,"Ø³ØªØ±ÛĮ":6477,"Ø§ÙħÛĮØ¯":6478,"Ġwebsite":6479,"ĠÚ¯ÛĮØ±ÛĮ":6480,"ĠØ§ÛĮØªØ§ÙĦÛĮØ§":6481,"Ø¯Ø§ÙĪÙĨØ¯":6482,"itiz":6483,"Ġoil":6484,"lyde":6485,"Ø³ÛĮÙĪÙĨ":6486,"ĠØ§ÙĨØ¨":6487,"ÙĨØ§Ú¯ÙĩØ§ÙĨ":6488,"Ġyell":6489,"ĠØ¬Ø²Ø¦ÛĮ":6490,"ĠBlack":6491,"ĠSm":6492,"ĠØ®ÙĪØ¯ØªØ§ÙĨ":6493,"ĠÙħØ·Ø±ØŃ":6494,"Ġsurface":6495,"Ġparticularly":6496,"lin":6497,"ÙĪÙĨØª":6498,"Ġemb":6499,"Ġbreath":6500,"ĠÙĨØ§ÙĨ":6501,"ĠÛ¶Û":6502,"Ġdisp":6503,"15":6504,"Ġcaught":6505,"olf":6506,"erve":6507,"ĠÙħÙĩÙħØ§ÙĨ":6508,"Ġprovince":6509,"Ġexpected":6510,"Ġheavy":6511,"ĠØ®ÙĨØ¯":6512,"order":6513,"ĠÚ¯Ø±Ø§ÙĨ":6514,"ĠÙĨÙĪØ§ÙħØ¨Ø±":6515,"Ġbelow":6516,"ĠØ®Ø±Ø¯":6517,"ĠØ³ÙĦØ§ÙħØª":6518,"Ġpal":6519,"ĠØ¹Ø¯Ùħ":6520,"ĠØ¨Ú©Ø§Ø±":6521,"ĠÙĪØ±ÙĪØ¯ÛĮ":6522,"ĠØ²Ø®":6523,"istry":6524,"Ġstrength":6525,"ÙĪØ§Ø±ÛĮ":6526,"Ø§ÙģØªØ¯":6527,"ĠØ¨ÙĦÙĪ":6528,"ĠØªÙĤØ§Ø¶":6529,"ĠIsrael":6530,"Ø§ÙĦØ´":6531,"Ġimage":6532,"Ġsurv":6533,"Many":6534,"ÙħÛĮÙĪÙĨ":6535,"astic":6536,"13":6537,"arp":6538,"ĠØ¬ÛĮÙħ":6539,"ĠÙħÙĨØŃ":6540,"ĠÙħØ³ØªÙĤÙĦ":6541,"omm":6542,"ĠØ·Ø±Ø²":6543,"ests":6544,"ĠÙħÙĩÙħÛĮ":6545,"Ġpleasure":6546,"Ġopin":6547,"ĠÙħÙĤØ¯Ø³":6548,"ĠØ¨Ø·":6549,"Ø§Ø¯Ø§Ø±":6550,"ĠÙ¾Ø´ØªÛĮØ¨Ø§ÙĨÛĮ":6551,"Ø¨Ø§Ø¨":6552,"ĠÙĨØ§ØŃÛĮÙĩ":6553,"ĠÙĤÙĦÙħ":6554,"Ġsteps":6555,"Ġpp":6556,"ĠØ¨Ø±Ùĩ":6557,"Ġresour":6558,"Ġdefin":6559,"Ú©Ø§Ùħ":6560,"ØµØ¨":6561,"ĠØºØ±ÛĮ":6562,"Ġsilent":6563,"ĠØªÙĨÚ¯":6564,"ĠØ¢ÙħÛĮ":6565,"ĠÙħÙĨØ¨Ø¹":6566,"Ġ40":6567,"Ġneeds":6568,"ĠØ±ÛĮØ´Ùĩ":6569,"no":6570,"ÙģØ±Ø¯":6571,"ĠØ¯ÙĪÙĦØªÛĮ":6572,"Ġspirit":6573,"Ø²Ø§ÙĨ":6574,"ivity":6575,"ierre":6576,"Ġbillion":6577,"ĠØ³ÙĪØ²":6578,"ĠØ¯ÙĩØ§ÙĨ":6579,"ĠØ±Ú©":6580,"ĠØ¢ÙĪÛĮ":6581,"Ġreading":6582,"dd":6583,"Ġbirth":6584,"Ġanx":6585,"Ġspeaking":6586,"ĠÙĩØ¯Ø§ÛĮØª":6587,"chen":6588,"ÙĨÙĪÛĮØ³":6589,"ĠØµÙĦØŃ":6590,"ĠØ¹Ø²ÛĮØ²Ùħ":6591,"Ġsky":6592,"ĠØ¹ØµØ¨ÛĮ":6593,"ĠØ®ÙĪØ§ÙĩØ±":6594,"ĠØ¯Ø³Ø§ÙħØ¨Ø±":6595,"Ø±ÙĨÚ¯":6596,"alys":6597,"ĠØ±Ø§ØŃØªÛĮ":6598,"ĠÙħØªÙĪÙĤÙģ":6599,"Ġdirectly":6600,"Ġpossess":6601,"Ġoriginal":6602,"lt":6603,"ĠØ¨Ø´ÙĨ":6604,"Ġmill":6605,"ĠÙĤØ´":6606,"ĠØ±Ø³Ø§ÙĨØ¯":6607,"ĠÙĢ":6608,"ĠØ¨Ø±Ø§ÛĮÙħ":6609,"Ġtrust":6610,"ĠÙħØ³Ø§Ø¨ÙĤÙĩ":6611,"Ġsoftware":6612,"ĠØ¯ÙĪØ¯":6613,"ÙĤØ§Ø¯":6614,":âĢĮ":6615,"Ġcool":6616,"Ø§ÙĨØ³Ú©ÛĮ":6617,"ĠÙħØ±Ø²":6618,"Ġforget":6619,"ĠØ¬ÙĪØ§ÙĨÛĮ":6620,"Ø§ÙĨØ¯ÛĮ":6621,"ĠØ¯Ø§ÙĨØ´Ùħ":6622,"ĠØ¶ÙħÙĨ":6623,"ĠØ¶Ø¹ÛĮÙģ":6624,"Most":6625,"ĠØ¨ÙĦØ§":6626,"Ú©ÙĨÙĨØ¯Ú¯Ø§ÙĨ":6627,"ĠØ¢ÙģØ±ÛĮÙĤØ§":6628,"ĠØ°Ø®ÛĮØ±Ùĩ":6629,"MD":6630,"Ø¢ÙĨÚ¯Ø§Ùĩ":6631,"ĠØ¯Ø§Ø¦":6632,"ĠÙĩÙĨØ±Ùħ":6633,"Ġess":6634,"Ġtears":6635,"Ø§ÙħÙĪÙĨ":6636,"vered":6637,"fection":6638,"ĠÙĪØ¸ÛĮÙģÙĩ":6639,"ether":6640,"Ġjoy":6641,"bered":6642,"ĠØªÙĪØ§ÙĨØ¯":6643,"Ġought":6644,"Ø§ÛĮØ¯Ùĩ":6645,"ĠØ§Ø³Ú©Ø§Ø±":6646,"Ġturning":6647,"Ġpock":6648,"ĠÛ±Û°Û°":6649,"Ġguess":6650,"Ġestabl":6651,"Ġenjoy":6652,"Ġprince":6653,"ĠØ±Øª":6654,"Ġtrouble":6655,"bes":6656,"Ø§ÙħØ¯":6657,"ĠÙħØ¶":6658,"ĠØ¨ÛĮÙħØ§Ø±Ø³ØªØ§ÙĨ":6659,"Ġmere":6660,"ĠÙ¾ÛĮÙĪØ³ØªÙĩ":6661,"Ġtalked":6662,"gypt":6663,"Ġinteresting":6664,"ĠØ²ÙĪØ¯ØªØ±":6665,"ĠØ§ÙĨÙĤÙĦØ§Ø¨":6666,"ÙĨÚ¯Ø±ÛĮØ³Øª":6667,"ios":6668,"amb":6669,"Ġmagn":6670,"Even":6671,"ÛĮØ¹ÙĨÛĮ":6672,"roy":6673,"ĠÚ©ÙĪÚĨÙĩ":6674,"bruary":6675,"ĠØ·ÙĦØ§":6676,"ĠØ³Ø§Ø®ØªÙĨ":6677,"ĠØ§Ø´Ø®Ø§Øµ":6678,"ĠØªØŃÙĦÛĮÙĦ":6679,"Ġgrowing":6680,"ĠÙĤØ·Ø¹Ùĩ":6681,"ĠØ¢Ø±ÛĮ":6682,"Ġforces":6683,"ĠSu":6684,"ĠØ¨Ø¯ÙĩÛĮØ¯":6685,"ĠÚĺØ§ÙĨÙĪÛĮÙĩ":6686,"book":6687,"ĠAng":6688,"Ġkiss":6689,"ĠØ·Ø¨ÙĤ":6690,"ĠÙĪØ§Ø±":6691,"Ġhous":6692,"ores":6693,"ØªÙĪØ§ÙĨÛĮ":6694,"ĠØ´ÛĮØ´Ùĩ":6695,"ĠØ¨Ø§ÙĦØ§Ø®Ø±Ùĩ":6696,"Ġfilled":6697,"ounds":6698,"ĠÙħØ®ØªÙĦ":6699,"Ġneg":6700,"ĠØ§Ø³ØªØ§Ø¯":6701,"ĠØ¬ÙĦÙĪÚ¯ÛĮØ±ÛĮ":6702,"ĠØ¨Ø§Ø±Ùĩ":6703,"ÙĪØ±ÙĨ":6704,"rig":6705,"ĠÛ²Ûµ":6706,"Ġevidence":6707,"Ġstructure":6708,"ÙħÙĨØ¸":6709,"cked":6710,"tended":6711,"à¤":6712,"ĠSte":6713,"ĠÙĨØ²Ø¯ÛĮÚ©ÛĮ":6714,"eration":6715,"ĠØ¯Ø§Ø±ÙĪ":6716,"Ġ24":6717,"eter":6718,"ĠØ¶Ø±Ø¨Ùĩ":6719,"ĠInternet":6720,"Ø¨Ø³ÛĮØ§Ø±":6721,"ĠØ³Ùħ":6722,"Ġcho":6723,"ĠØ§ÙĦÚ¯ÙĪØ±ÛĮØªÙħ":6724,"ĠØ§ÙĨØªØ®Ø§Ø¨Ø§Øª":6725,"because":6726,"abor":6727,"Ø¨ÙĦÚ©Ùĩ":6728,"Ġculture":6729,"Ø³Ú©ÛĮ":6730,"Ġfat":6731,"Ú©Ø±Ø§Øª":6732,"Who":6733,"ĠØ¯ÙħÙĪ":6734,"Ġgreater":6735,"Ú©ÛĮÙĨ":6736,"ĠÙĨØ¨Ø§Ø´Ø¯":6737,"Ø¨Ø¹Ø¶ÛĮ":6738,"ĠØ¹ÛĮ":6739,"ĠÚ©Ø§Ø±ÙĩØ§":6740,"ÙĢÙĨ":6741,"ĠÙ¾Ø±ÛĮ":6742,"vert":6743,"ĠÙģØ±Ø¯Ø§":6744,"rs":6745,"ĠØ§ÛĮÙĨÙĩØ§":6746,"Ġairport":6747,"ĠÙģØ±Ø³ØªØ§Ø¯":6748,"ĠØ§ÙģØªØ®Ø§Ø±":6749,"Ġcertainly":6750,"Ġstrugg":6751,"Ġgenerally":6752,"Ġlanguages":6753,"Ø§Ø±Ø§":6754,"Ġconv":6755,"axim":6756,"Ġskin":6757,"ÙĨÛĮØ§":6758,"Ġtask":6759,"ĠØ¨Øª":6760,"Ġconsum":6761,"ĠÚ¯Ø±Ø¯Ø´":6762,"Ġ2000":6763,"AR":6764,"Ġshut":6765,"Ġtransl":6766,"ĠÙĨØ®Ø³Øª":6767,"Ø§ØµØ±":6768,"zer":6769,"Ġhom":6770,"ĠØ§ÙĪØ§Ø®Ø±":6771,"Ġrain":6772,"ĠØ¢ÙħØ¯ÙĨ":6773,"Ġ21":6774,"ĠÚ©Ø±Ø¨":6775,"ĠØ¯Ø±ØŃØ§ÙĦÛĮ":6776,"ĠØ§ÙĨØ¯Ø§Ø®ØªÙĩ":6777,"Am":6778,"ĠØ³Ø±Ø§ÙĨØ¬Ø§Ùħ":6779,"Ġshad":6780,"ĠØ¢ÙĨÙĤØ¯Ø±":6781,"ĠØªÙħØ±Ú©Ø²":6782,"Ġempt":6783,"ĠØ´Ùģ":6784,"aste":6785,"Ġdescribed":6786,"Ú©Ø´Ø¯":6787,"ashing":6788,"ĠÙħÙĤØ§ÙĪÙħØª":6789,"ĠØ±Ùħ":6790,"ĠØ§Ø³ØªØ®":6791,"ĠØ³Ø±Ø·Ø§ÙĨ":6792,"Ġability":6793,"plement":6794,"Ġbright":6795,"Ġexcl":6796,"Ġpray":6797,"ĠÙģÙĪØªØ¨Ø§ÙĦ":6798,"ĠDavid":6799,"ĠØªØ¬Ø§Ø±Øª":6800,"ÙĢØ±":6801,"Ġfreed":6802,"ĠÙĨÙĪØ´ØªÙĨ":6803,"ĠÙĪØ§Ø³":6804,"ĠÚ¯Ø±ÙĪÙĩÛĮ":6805,"Ø®ÛĮØ±":6806,"ÛĮÙĨÙĪ":6807,"ĠÙħØŃØ¨Øª":6808,"ĠØ§ÙĤÛĮØ§ÙĨÙĪØ³":6809,"born":6810,"Per":6811,"Ġhuge":6812,"ĠÙģØ±Ø¯ÛĮ":6813,"Ø¨ÛĮØª":6814,"ĠØªÙ¾Ùĩ":6815,"ĠØ´Ú©Ø§Ø±":6816,"ÙģØ±Ø³Øª":6817,"ĠÛ±Û¸":6818,"udd":6819,"Ġforgot":6820,"Ø§Ø·ÛĮ":6821,"Ú¯ÛĮØ±ÛĮÙħ":6822,"Ġevents":6823,"Ġdirection":6824,"Ġcompanies":6825,"Ġgrad":6826,"Ø§Ú¯Ùĩ":6827,"ĠØ¢Ø³Ø§ÙĨ":6828,"ping":6829,"ĠSchool":6830,"Ġfocus":6831,"ĠÚ©Ø´ÛĮØ´":6832,"Ġlearning":6833,"ĠØ¨ÙĪØ³":6834,"Ġsick":6835,"ES":6836,"Ġbird":6837,"ĠRoman":6838,"pha":6839,"Ġoccup":6840,"):":6841,"rain":6842,"ĠSch":6843,"ĠØ¢Ú¯Ø§Ùĩ":6844,"vere":6845,"Ġmeasure":6846,"ĠÙģØ±Ø¶":6847,"ĠÛ±Û¹Û³Û":6848,"bles":6849,"Ġeverybody":6850,"ĠArmen":6851,"Ġsave":6852,"Ġdesigned":6853,"ĠÙĨØ¯Ø§Ø¯":6854,"ĠØ¨Ø±ÙĨØ¯Ùĩ":6855,"Ú¯ÙģØªÙĨØ¯":6856,"Ġstation":6857,"Ġplant":6858,"ĠØ¹ÙĦØ§ÙĪÙĩ":6859,"ended":6860,"ĠØªØŃÙĤÛĮÙĤØ§Øª":6861,"Ġdeli":6862,"Ú©Ø±Ø¯Ùĩ":6863,"Ġpowerful":6864,"gar":6865,"ĠÚĨØ±":6866,"Ġboys":6867,"wise":6868,"Ġdim":6869,"aped":6870,"ÙĩÙĨÙĪØ²":6871,"Ġsummer":6872,"ÚĨØ§Ø±Ùĩ":6873,"ĠÙĪØ±Ø²Ø´":6874,"ĠØµØ¨Ø±":6875,"Ġtherefore":6876,"ĠÙħØ§Ùħ":6877,"useum":6878,"ÙĦØ±Ø²":6879,"za":6880,"Ġbaby":6881,"Ġreach":6882,"ÙĪØ³Ø·":6883,"Ġ2014":6884,"Ġsituation":6885,"ĠØ²Ø§":6886,"Ø¯ÛĮÙĩ":6887,"ĠØ´Ø§Ø®Ùĩ":6888,"Ġsuppose":6889,"ĠØ®ÙĪØ§ÙĨØ¯Ùĩ":6890,"Ġresults":6891,"Ġcenter":6892,"Ġunderstood":6893,"Ġforeign":6894,"Ġdelight":6895,"asons":6896,"lected":6897,"Ġmeeting":6898,"rill":6899,"Ø±Ø§ÙģÛĮ":6900,"ĠØ±ÙħØ²":6901,"Ġcancer":6902,"Ġnice":6903,"Ġrich":6904,"Ø§ÙĪØªÛĮ":6905,"uman":6906,"Ú¯Ø³":6907,"Ġhall":6908,"ĠRon":6909,"iving":6910,"ĠØ³ÛĮØ§Ø±Ùĩ":6911,"Ġtar":6912,"ØªÛĮÚ©":6913,"Ġelectric":6914,"ĠØ®ÙĦ":6915,"ĠØ§ÙĨÚ¯ÛĮØ²":6916,"ĠØ¯Ø§Ø¯Ú¯Ø§Ùĩ":6917,"ÙħØ±":6918,"Ø§ÙĨØ¯Ø±":6919,"Ġadminist":6920,"ĠFebruary":6921,"ĠÚ¯ÛĮØ±Ø¯":6922,"ĠØ´ÙĦÙĪ":6923,"ĠÙħÙĪÙĤØ¹ÛĮ":6924,"Ġarrived":6925,"apers":6926,"Ġ2004":6927,"May":6928,"Ø±Ø§Ø³Øª":6929,"ĠØªØ§Ø±ÛĮØ®ÛĮ":6930,"Ġprovide":6931,"ĠØªØ¹Ø¯Ø§Ø¯ÛĮ":6932,"ĠØ´Ø±Ùħ":6933,"ĠÙģØ±Ø²":6934,"ĠÙĪÛĮØ¯":6935,"ĠØªÙĪØ²ÛĮ":6936,"ĠØ¹ØµØ±":6937,"ĠÙĨØ§Ø±Ø§ØŃØªÛĮ":6938,"ĠÚ¯Ø±Ø¯ÙĨ":6939,"ĠØ¢ÙĪØ±Ø¯ÙĨ":6940,"Ġparticip":6941,"Ø§ÙĨØ¯Ùĩ":6942,"Ø¦ÛĮÙĩ":6943,"imately":6944,"ĠØŃØ°":6945,"ĠÛ²Û°Û±Û±":6946,"ĠÚ¯ÙĨØ§Ùĩ":6947,"ĠØªØ¯Ø±ÛĮ":6948,"ĠØ¯Ø§Ø´ØªÛĮÙħ":6949,"Ø§ÛĮØ³ØªÛĮ":6950,"ĠØ¨ÙĩØ¯Ø§Ø´Øª":6951,"ĠJames":6952,"ĠÚ©Ø§ØªØ±ÛĮÙĨ":6953,"oo":6954,"Ġhardly":6955,"rons":6956,"ĠØ¨Ø±ÙĤØ±Ø§Ø±":6957,"ĠØ²Ø±Ø¯":6958,"ĠØ¨Ø®ÙĪØ§ÙĨ":6959,"ĠØ«Ø§ÙĨÛĮÙĩ":6960,"ĠØ®ÙĪØ§ÙĨØ¯":6961,"ĠØºØ±ÙĤ":6962,"ĠØŃØ¯Ø³":6963,"hest":6964,"ĠØ¨Ø±Ø¢ÙĪØ±Ø¯":6965,"ĠCor":6966,"ĠØ¢ÙĪØ±ÛĮÙĦ":6967,"ÙĦÛĮÚ©":6968,"ÙĪØ°":6969,"cell":6970,"ĠØ¨Ú©ÙĨØ¯":6971,"ĠØ¹Ø¬":6972,"ØºØ±":6973,"Ø±Ø§ØŃØª":6974,"Ġfollow":6975,"ophy":6976,"ĠWilliam":6977,"ĠÙģÛĮØ²ÛĮÚ©ÛĮ":6978,"Ġign":6979,"ĠÙ¾ÚĺÙĪÙĩ":6980,"ĠÚ©Ø±Ø¯ÛĮ":6981,"ĠØ¯Ø³ØªØ±Ø³":6982,"ĠÙ¾Ø±Ø¯Ùĩ":6983,"ĠØŃØ§ÙĦØªÛĮ":6984,"ĠÙħØ±Ø§Ø³Ùħ":6985,"oring":6986,"ĠÙĪØŃØ´ÛĮ":6987,"ÙĪØ³ÛĮ":6988,"Ġworse":6989,"Ġhappens":6990,"Ø°ÛĮØ±ÛĮ":6991,"Ġgaz":6992,"Ġdrive":6993,"alian":6994,"ĠØ¨ÙħØ§ÙĨØ¯":6995,"ĠÙħØ¹ÙĨØ§ÛĮ":6996,"ĠÙĩÙħØ³":6997,"14":6998,"een":6999,"Ġfright":7000,"oted":7001,"Ġaccording":7002,"mina":7003,"Ġsouth":7004,"Ġwhatever":7005,"ĠØ´Ø¯ÛĮÙħ":7006,"IN":7007,"craft":7008,"ĠÙ¾Ø¯ÛĮØ¯":7009,"Ġconduct":7010,"ÙħØ§Ø³":7011,"Ø±Ø§ÙĦÛĮØ§":7012,"cies":7013,"Ġformed":7014,"ĠØ¨ÙĪØ±":7015,"Ġbear":7016,"ĠÙ¾Ø§Ø±Ùĩ":7017,"Ġmarriage":7018,"Ġarran":7019,"Ġexperien":7020,"ĠGeneral":7021,"Ġbehavior":7022,"hab":7023,"ateg":7024,"ĠØ§ØªØŃØ§Ø¯ÛĮÙĩ":7025,"ÙĤØ§Ø¨ÙĦ":7026,"Ø®ÙĪØ±":7027,"ÛĮØ²ÛĮÚ©":7028,"lection":7029,"Ġbattle":7030,"ĠÙĩÙħÙĪØ§Ø±Ùĩ":7031,"had":7032,"Ġgarden":7033,"ÙĤØ¨":7034,"ĠÙĨØ§Ø²":7035,"Ġmiles":7036,"Ġdog":7037,"ĠÙħØŃØ³":7038,"ĠØ§ÙĦÚ©ØªØ±ÛĮ":7039,"ĠØ³Ø§ÙĦÙĨ":7040,"Ġplaying":7041,"Ġdesire":7042,"ÙģØ§Ø¹":7043,"ĠØŃÙģØ§":7044,"ĠÛ·Û":7045,"ĠØ¬Ø§ÛĮÚ¯Ø²ÛĮÙĨ":7046,"ĠÙħØ°ÙĩØ¨ÛĮ":7047,"ĠÙħØ¹ØªÙĤØ¯":7048,"idden":7049,"ĠDo":7050,"orthern":7051,"aker":7052,"Ġcontent":7053,"ĠØªÙĪØ¬ÙĩÛĮ":7054,"ĠCanada":7055,"ĠÙĨÛĮØ±ÙĪ":7056,"iqu":7057,"Ø®ÙĪØ´":7058,"ĠØ§ÙĦØ¹":7059,"ĠØªØ£Ø³ÛĮØ³":7060,"cise":7061,"rem":7062,"Ġtrack":7063,"Ġremem":7064,"ĠØ§ÛĮØ³ØªÚ¯Ø§Ùĩ":7065,"ØºÙħ":7066,"arlett":7067,"Ġcondition":7068,"Ø¨ÛĮØ§":7069,"ĠØ´Ø±ÙĤ":7070,"ĠReferences":7071,"ØºÙĩ":7072,"Ġtelling":7073,"Ġannounced":7074,"Ġnames":7075,"Ġreve":7076,"alysis":7077,"Ex":7078,"ĠÛ±Û¹ÛµÛ":7079,"ĠÚ¯Ø±Ø¯Ø¯":7080,"16":7081,"su":7082,"ĠÙħØ¨ÙĦ":7083,"aked":7084,"ĠØŃØ§ÙĦÛĮÚ©Ùĩ":7085,"ĠØ³Ø®ÙĨØ±Ø§ÙĨÛĮ":7086,"Ġinvent":7087,"isc":7088,"Ø¦Ùĩ":7089,"ĠÙĨÙĪØ²":7090,"onse":7091,"ĠÙħØ¬ÙĦÙĩ":7092,"ĠØªÙĪØ²ÛĮØ¹":7093,"Ġimplement":7094,"Ġaftern":7095,"Ġmedical":7096,"ĠÙħØ§Ø±ØªÛĮÙĨ":7097,"ĠÚ¯Ø±Ùĩ":7098,"Ġclean":7099,"Ġpan":7100,"Ġpositive":7101,"ĠÙģÙĪØ±ÛĮÙĩ":7102,"Ø²Ø¯ÙĨØ¯":7103,"arb":7104,"ĠÙĦØº":7105,"outhern":7106,"Ġuniverse":7107,"Ġthousands":7108,"ĠØŃÚ©Ùħ":7109,"ĠÙħØ¨Ùĩ":7110,"ett":7111,"Ġcourt":7112,"Ġrequire":7113,"Ġlaughed":7114,"ĠÙĤØ³Ùħ":7115,"Ġattract":7116,"Ġhappiness":7117,"Ø¨Ø§Ø´ÙĨØ¯":7118,"ÙĪØ§Ø±Ø¯":7119,"ella":7120,"ĠØ§ÙĨØ¯ÙĪÙĩ":7121,"ĠØŃÛĮØ±Øª":7122,"ĠØ¨Ø±ÛĮ":7123,"Ġpoints":7124,"ĠØ´Ø§ÙĩØ¯":7125,"ĠØŃÚ©":7126,"Ġbuy":7127,"Ġsad":7128,"ĠØ¯ÙĦÙħ":7129,"Ġautom":7130,"ĠÚ©ÙħÙ¾":7131,"ĠÙĨÚĺ":7132,"Ġcustom":7133,"ĠUnion":7134,"Ġcities":7135,"Ġabsolute":7136,"ĠÙħØ®Ø§ÙĦÙģ":7137,"Ø¬ÛĮØŃ":7138,"ĠØ¨ÙģÙĩÙħ":7139,"ico":7140,"ĠØ²ÙĪØ¯ÛĮ":7141,"rated":7142,"Ġloss":7143,"ĠØ±ÙĪØŃÛĮ":7144,"ØªÙĪØ§ÙĨØ³ØªÙĨØ¯":7145,"Ø±ÙģØªÙĨØ¯":7146,"ĠØ¯Ø±ÙĩÙħ":7147,"ĠEgypt":7148,"ĠØ¯Ø³ØªÙħ":7149,"aging":7150,"erson":7151,"ĠØ²ÙĨØ¯Ø§ÙĨÛĮ":7152,"ĠÙħØ§ÙĨØ¹":7153,"Ġrequired":7154,"ĠGeorge":7155,"just":7156,"ĠØ¯Ø±Ø®ØªØ§ÙĨ":7157,"ipped":7158,"ĠÙĪØ§ÚĺÙĩ":7159,"Ø´ÙĨØ§Ø®Øª":7160,"Ġremain":7161,"Ġdecision":7162,"ĠØ§ØµØ·ÙĦØ§ØŃ":7163,"Ne":7164,"Ġthick":7165,"ĠÚ©ÙĨØ¬":7166,"Ġaware":7167,"Ġsorry":7168,"ĠÙħØ´ÙĩÙĪØ±":7169,"Ġfaith":7170,"ĠÙĤØ¶":7171,"Ġcloud":7172,"Ġreality":7173,"ĠØªÚ©ÛĮÙĩ":7174,"hib":7175,"Ġsite":7176,"Ġnovel":7177,"ĠØ¨Ø§Ø±Ø§ÙĨ":7178,"Ġcover":7179,"ĠÙĨÙģØ±Øª":7180,"Ġplanet":7181,"ĠØµÙĨØ¹Øª":7182,"ĠØ´ÙĨØ§Ø³Ø§ÛĮÛĮ":7183,"Ġcitiz":7184,"Ġmix":7185,"Ġleaving":7186,"ĠØªÙĨØ¸ÛĮÙħ":7187,"Ġexpress":7188,"Ġlisten":7189,"AC":7190,"Ð¾":7191,"Ġcovered":7192,"ls":7193,"ĠÚĨÙĨÚ¯":7194,"ĠÛ²Û°Û±Û²":7195,",'":7196,"ØŃÙĤ":7197,"ĠØ¯ÙĪÙħÛĮÙĨ":7198,"ĠÙħØ¯Ø±ÙĨ":7199,"ĠØªÙħØ§Ø³":7200,"ĠØ´ÙĪÙĩØ±Ø´":7201,"ĠØªØ±Ø¯ÛĮØ¯":7202,"cos":7203,"ĠÙ¾ÛĮØ±ÙĪØ²ÛĮ":7204,"ĠØªÙĨÙĩØ§ÛĮÛĮ":7205,"Ġboard":7206,"Ø§ÙĨØ§":7207,"ĠØ§Ø³Ø±Ø§Ø¦":7208,"ĠÙĤØ±Ø§Ø±Ø¯":7209,"ĠInstit":7210,"iber":7211,"ĠBel":7212,"ĠDep":7213,"Ġstage":7214,"Ġplaced":7215,"ĠØ³ÙĪØ®Øª":7216,"Ġleaders":7217,"Ġcircum":7218,"Ġeasily":7219,"ĠØ¯Ø´ÙĪØ§Ø±":7220,"ancing":7221,"Ġwalking":7222,"ĠØ¢Ø¯ÙħÛĮ":7223,"cend":7224,"Ġvan":7225,"ĠØ³Ø§ÛĮØª":7226,"ĠØ§ÙĪØ§ÛĮÙĦ":7227,"Ġservices":7228,"ĠÙħØ£Ùħ":7229,"Ġsmiled":7230,"ilies":7231,"Ġserved":7232,"ĠSir":7233,"Ġ2003":7234,"ĠØ´ØºÙĦ":7235,"ĠBab":7236,"ĠØ¢ÛĮØ¯":7237,"omy":7238,"ĠØªÚ¯Ø²":7239,"ĠØ§ÙģØ³Ø±":7240,"ĠÚĺÙĪØ¦ÛĮÙĩ":7241,"lor":7242,"ĠØ¬Ø§Ø¯ÙĪ":7243,"ĠÙĤØªÙĦ":7244,"ĠØ§ÙĪÙĦÛĮ":7245,"Ġquant":7246,"Ġincrease":7247,"Ġtro":7248,"ĠØ¢ÙħÛĮØ²":7249,"alt":7250,"ĠÙħØ·ÙĦØ¨":7251,"Ø§ÙģØªØ§Ø¯":7252,"ĠØ§Ø®ÙĦØ§ÙĤÛĮ":7253,"ØŃÙħ":7254,"Ġusual":7255,"ĠIvan":7256,"ola":7257,"Ġmeas":7258,"raq":7259,"fficient":7260,"Ġpage":7261,"ÙĢØ¯":7262,"ÙħØ±Ú©Ø²":7263,"ĠÚĨØ±Ø§Øº":7264,"Somet":7265,"Ġlack":7266,"istics":7267,"ĠHouse":7268,"ĠØ¨Ø²Ø±Ú¯ØªØ±":7269,"Ġletters":7270,"ĠÙģØ±ÙĩÙĨÚ¯ÛĮ":7271,"ĠISBN":7272,"ĠØ±ÛĮØ²":7273,"ĠØ§ÙħÙ¾Ø±Ø§Øª":7274,"Ġdetect":7275,"ĠØ§ØŃØªÛĮØ§Ø¬":7276,"ael":7277,"ĠÙģÙĨ":7278,"ĠDem":7279,"ĠÚĨÚ©":7280,"Ø¨Ø±Ú¯":7281,"ĠÙ¾Ø±ÚĨ":7282,"Ġpresence":7283,"ĠÛ¹Û":7284,"ĠØ¯ÙĦÛĮ":7285,"pir":7286,"ÛĮÛĮØ¯":7287,"ĠØ¬Ø±Ùħ":7288,"Ġstre":7289,"Ġrange":7290,"known":7291,"Ġthin":7292,"ĠÚ¯ÙģØªÙĨØ¯":7293,"ĠÙĨÙģØª":7294,"Ġgrowth":7295,"ams":7296,"Ġshown":7297,"ĠØªØµØ§ÙĪÛĮ":7298,"ĠCharles":7299,"Ġhung":7300,"Ġharm":7301,"17":7302,"Pe":7303,"ĠØ§Ø¹ØªÙĤØ§Ø¯":7304,"gu":7305,"ĠÙĨØ¯Ø§Ø´ØªÙĨØ¯":7306,"Ġcentral":7307,"back":7308,"Ġtypes":7309,"Ġestablished":7310,"EC":7311,"ĠThat":7312,"ĠPaul":7313,"Ø¨ÛĮØ´ØªØ±":7314,"Ġforced":7315,"ĠÙħÙĨØªÙĤÙĦ":7316,"Ø±Ø§ØŃ":7317,"och":7318,"Ġourselves":7319,"inc":7320,"ĠÙĪØ§Ø¨Ø³ØªÙĩ":7321,"Ġunderstanding":7322,"ĠÙĤØ¯Ø±ÛĮ":7323,"ĠÙĨØ§Ø¯":7324,"ĠExternal":7325,"Ġwatching":7326,"Ø¢Ø±":7327,"Ġinterested":7328,"ĠØªÚ¯Ø²Ø§Ø³":7329,"ĠÙ¾ÛĮÙħ":7330,"ĠÚ¯Ø°Ø§Ø±ÛĮ":7331,"ÙĨØ¯Ø§Ø´Øª":7332,"ĠØ³ÙĪÙĨ":7333,"Ġstone":7334,"Ġvirt":7335,"ĠâĪĴ":7336,"Ġrapid":7337,"Ġstruck":7338,"Ġmarry":7339,"Ù¾Ø±Ø§":7340,"Ø§Ø²ÙĨØ¯":7341,"oses":7342,"Ġfresh":7343,"ĠVol":7344,"Ġaddition":7345,"Only":7346,"Ġchemical":7347,"Ġwatched":7348,"Ġpsych":7349,"Ġcontribut":7350,"Ġindustry":7351,"aching":7352,"ÙĪÙĦØª":7353,"ĠÛµÛ":7354,"Ġforms":7355,"inated":7356,"ĠHow":7357,"Ġnucle":7358,"Ġfixed":7359,"Although":7360,"ĠØ®Ø¯Ø§ÙĪÙĨØ¯":7361,"oked":7362,"ĠØŃÛĮØ§Øª":7363,"ĠØ§ÛĮÙĪØ§ÙĨ":7364,"Ġuses":7365,"Ab":7366,"cad":7367,"rial":7368,"ĠÙħØ¹ÙħØ§Ø±ÛĮ":7369,"ĠØ²ÙĨØ¬":7370,"ĠØ§Ø±ØªÙģØ§Ø¹":7371,"ĠØ¯ÙģØ¹Ùĩ":7372,"OS":7373,"ĠØ¨Ø§Ùħ":7374,"ĠØªØ§ÙĦ":7375,"ĠÙĦØ§ÛĮ":7376,"istance":7377,"ĠÚ©ÙĪØ¯Ú©ÛĮ":7378,"Ġ2015":7379,"Ġfinished":7380,"Ġbeg":7381,"Ġshop":7382,"ĠØ¯Ø±ÙħÛĮ":7383,"ĠÚ©Ø§Ø±Øª":7384,"Ø§ÙĦÛĮØ§ÛĮÛĮ":7385,"Ġrelated":7386,"ĠØ±ÙĩØ¨Ø±ÛĮ":7387,"Ø§ÙĩØ§ÛĮ":7388,"Ø´ÙĩØ±":7389,"Ġnone":7390,"ĠÚ©ØªØ§Ø¨Ø®Ø§ÙĨÙĩ":7391,"ĠGree":7392,"ĠØªØ£ÛĮÛĮØ¯":7393,"Ġproduce":7394,"ĠØ¨Ú©ÙĨÙħ":7395,"ingu":7396,"ils":7397,"alled":7398,"ĠÚ¯Ø±Ø³":7399,"anta":7400,"Your":7401,"ĠClyde":7402,"Ġhumans":7403,"Ġinvolved":7404,"Ġfro":7405,"ĠØ§Ø³ØªØ±Ø§ÙĦÛĮØ§":7406,"odd":7407,"Ġorganization":7408,"ĠÙħØ±ØªØ¨":7409,"ancial":7410,"Ø¬ÙĪØ§ÙĨ":7411,"Ġlie":7412,"ĠLa":7413,"ĠWin":7414,"Ġtend":7415,"Ġserious":7416,"ĠÙĨÙģÙĪØ°":7417,"ĠÙĨØ§Ù¾Ø¯ÛĮØ¯":7418,"Ù¾ÙĪ":7419,"ĠÙ¾Ø±Ø³Øª":7420,"ĠÙ¾ÙĪØ´Ø´":7421,"IV":7422,"ĠØªØ±Ø§ÙĨÙĩ":7423,"Ø®ØµØµ":7424,"ĠÙĤØ¨ÙĦÛĮ":7425,"Ġbeside":7426,"Ġfaces":7427,"ĠØ±ÙĪÙĨØ¯":7428,"ĠÙĨØªØ§ÛĮØ¬":7429,"ini":7430,"ĠØ¢ÙĩÙĨ":7431,"rian":7432,"Ġpattern":7433,"Ġfavor":7434,"Ġiron":7435,"ĠÙĨØ±":7436,"Ġplease":7437,"Ġriver":7438,"Ġnormal":7439,"lier":7440,"ĠÙĪØ¬Ùĩ":7441,"ĠØ±ÙĪÛĮØ¯":7442,"ĠØ¬Ø¹Ø¨Ùĩ":7443,"ĠØ§Ø±Ø¨Ø§Ø¨":7444,"AN":7445,"Ġbenef":7446,"Ġmaint":7447,"ĠÙĤØ§":7448,"ĠØ¨Ø¯ØªØ±":7449,"ĠKh":7450,"µÛ°":7451,"Ġconditions":7452,"ĠØ¨Ø¯Ùħ":7453,"ĠIndian":7454,"Ġgets":7455,"Ġregular":7456,"year":7457,"ĠØ³Ø§ÛĮ":7458,"ĠÂ·":7459,"ĠÙħØ¬Ø§Ø²":7460,"ĠØ¨ÙĨØ¯ÛĮ":7461,"Ø¯Ø§ÙĨØ³ØªÙħ":7462,"ĠØ¸Ø§ÙĩØ±Ø§":7463,"Ġlegs":7464,"ĠReg":7465,"ĠFrank":7466,"Can":7467,"rank":7468,"ij":7469,"Ġsequ":7470,"Ġinfluence":7471,"Ġterrible":7472,"ĠØ¨ÙĦØ§ÙģØ§ØµÙĦÙĩ":7473,"Ġclothes":7474,"edia":7475,"Ġpaid":7476,"Ġshot":7477,"ĠÛ±Û¶":7478,"ĠÛ±Û¹Û±Û":7479,"Ġbroke":7480,"Ġopportunity":7481,"ĠØ³ÙĤ":7482,"Ġnine":7483,"text":7484,"Ġafternoon":7485,"ÙĪØ´ÛĮ":7486,"ĠØµÙĪØ±ØªØ´":7487,"Ah":7488,"ĠØ®Ø±Ø¬":7489,"fess":7490,"Ġdut":7491,"ĠÛ±Û±":7492,"ĠÙħØ«Ø¨Øª":7493,"ÙħØ±Ø¯Ùħ":7494,"Ġsweet":7495,"ĠÚ©ÛĮÙĦÙĪÙħØªØ±":7496,"Ġjour":7497,"Ġrealized":7498,"off":7499,"Ġhun":7500,"ĠØ¬ÛĮÙĨ":7501,"Ġneck":7502,"ĠÙĩÙħØ³Ø±Ø´":7503,"Le":7504,"ĠØ±ÙĪØ²ÙĩØ§ÛĮ":7505,"orses":7506,"ĠØ±ÛĮØ®Øª":7507,"Ø±Ø¶":7508,"Ġlines":7509,"ĠÛµÛ°":7510,"ĠØ³Ø±ÙĪ":7511,"pping":7512,"ĠØ¨Ø²ÙĨÙħ":7513,"Ġwit":7514,"org":7515,"ĠØ®ÙĪØ¯Ø±ÙĪ":7516,"Ġnotice":7517,"ĠÚ©Ø§Ø±Ø´":7518,"Ġconflict":7519,"night":7520,"ĠPri":7521,"ÙĪØ±ÛĮØª":7522,"rate":7523,"Ġfirm":7524,"Ú©Ø§Ø±Ø§ÙĨ":7525,"Ġgentleman":7526,"Ø§Ø¯Ø«Ùĩ":7527,"ĠÙħØªØŃØ¯":7528,"Ġleading":7529,"Ġbottom":7530,"Ø±ÙĤ":7531,"ĠØ±Ø¯ÛĮ":7532,"ĠÚ¯ÙĪÙĨØ§":7533,"wood":7534,"ISBN":7535,"ait":7536,"ĠJapanese":7537,"ground":7538,"aign":7539,"ĠÙħØ§Ø³":7540,"ĠCast":7541,"ĠPort":7542,"Ġchief":7543,"Ġteeth":7544,"ĠPrince":7545,"Ø´Ø§":7546,"Ġnote":7547,"ĠÙĨØ¸Ø±Ùħ":7548,"ĠÙħØ§Øª":7549,"ĠØªØ¶":7550,"Ġpale":7551,"oles":7552,"iforn":7553,"Ġspeech":7554,"Ġsurround":7555,"ĠÙħØ³Ø¦ÙĪÙĦ":7556,"ulf":7557,"inese":7558,"Ġimprove":7559,"Ġobl":7560,"ĠÚĨØ´ÙħØ§ÙĨØ´":7561,"ĠNor":7562,"ĠØ´Ú©Ø³ØªÙĩ":7563,"Ġaverage":7564,"Ġfool":7565,"Ġapproach":7566,"ĠØ¨ÛĮØ§":7567,"isions":7568,"Ø§ÙĪÙĩ":7569,"ĠÛĮØ§ÙģØªÙĨ":7570,"Ġwalls":7571,"fl":7572,"ĠIm":7573,"gged":7574,"ĠÙħÙĦÙĦ":7575,"ĠØºØ°Ø§ÛĮÛĮ":7576,"Ġanimal":7577,"Ġthroughout":7578,"ĠØ§ØªÙĪÙħØ¨ÛĮÙĦ":7579,"ĠØ®Ø§Ú©Ø³ØªØ±ÛĮ":7580,"ĠØŃØ°Ùģ":7581,"road":7582,"Ġneither":7583,"Ġvir":7584,"ĠÙħÙĦØª":7585,"ÙĨÙħØ§ÛĮ":7586,"Ú©Ø§ÙĦ":7587,"Ø±Ø¯ÛĮ":7588,"ĠØ¢Ø´Ù¾Ø²":7589,"ĠØ®ÙĪØ§Ø³ØªÙĩ":7590,"ufact":7591,"vey":7592,"pper":7593,"ĠØ¯Ø§Ø¯ÛĮÙħ":7594,"ĠÙĨØ¨ÙĪØ¯Ùĩ":7595,"ET":7596,"ĠÚ¯Ø§Ùħ":7597,"Ġspot":7598,"ĠÙħØµÙĨÙĪØ¹ÛĮ":7599,"Ú©Ø±Ø¯ÛĮÙħ":7600,"Ġholding":7601,"Ġdrawing":7602,"ĠØ¹ÙĦØ§ÙħØª":7603,"ĠØ¹ÙĤÙĦ":7604,"Ġfreedom":7605,"ĠÙĨØ¸Ø±Ø´":7606,"ĠRussia":7607,"ĠÚ¯Ø´ÙĪØ¯":7608,"Their":7609,"ØºÙĨ":7610,"ship":7611,"Ġtrain":7612,"Pr":7613,"ghan":7614,"ÙģØ´":7615,"Ġdrew":7616,"ĠØ§ÙĪØª":7617,"Ø®ÙĪØ§Ùħ":7618,"Ġchurch":7619,"Ġ22":7620,"Ġ23":7621,"Ġinte":7622,"ashion":7623,"ĠÙħØ§Ø¬Ø±Ø§":7624,"Ġempty":7625,"ÙģÛĮÙĦ":7626,"ĠÙħØªØµÙĦ":7627,"ĠØ´ÙĨØ§Ø®Øª":7628,"Ø¨Ø³":7629,"Christ":7630,"Ø±ÛĮØ²ÛĮ":7631,"Ġinstit":7632,"ĠØ³ÙĦØ·":7633,"¹Û°":7634,"Ġbod":7635,"ĠÙģÛĮØ²ÛĮÚ©":7636,"ĠArch":7637,"ÙĦØ§Øª":7638,"Ø´ÛĮØ±":7639,"Ġdisappe":7640,"ĠÙģØ¶Ø§ÛĮÛĮ":7641,"Ġrepeated":7642,"Ġstudies":7643,"Ġexplain":7644,"ĠÙģÙĪØ±Ø§":7645,"Ġpun":7646,"Ġmathemat":7647,"Ġfingers":7648,"Come":7649,"ĠØ§Ø®ØªØ±":7650,"unities":7651,"ĠØ¨Ø¹Ø¯Ø§":7652,"Ġenter":7653,"Ġadvant":7654,"Ø¯Ø§Ùģ":7655,"Ù¾Ø§ÛĮÛĮ":7656,"ĠØ®Ø´ÙĨ":7657,"ĠChristian":7658,"Ø¨Ø³ÛĮØ§Ø±ÛĮ":7659,"icles":7660,"ĠBo":7661,"ĠFil":7662,"atin":7663,"cean":7664,"Ġlarger":7665,"Ġmessage":7666,"Ġstars":7667,"ĠÙ¾ÛĮÙĪØ³Øª":7668,"Ø§Ø´Ø§":7669,"ĠOn":7670,"ĠØªØ±Ø¬ÛĮØŃ":7671,"Ġsac":7672,"agon":7673,"hold":7674,"Ġcru":7675,"ĠPark":7676,"ago":7677,"ĠÚĺÙĨØ±Ø§ÙĦ":7678,"Ġtarget":7679,"Ø³ÙĨ":7680,"ĠØ¯ÛĮØ¯Ø§Ø±":7681,"ĠÙĨÚ¯ÙĩØ¯Ø§Ø±ÛĮ":7682,"ĠÚ©Ø§ÙĦÛĮ":7683,"ĠÙĨØ¸Ø§Ùħ":7684,"ĠÙ¾Ø§ÛĮØ¯":7685,"ĠIraq":7686,"ĠØ§ÙħØªØŃ":7687,"Ø§ÙģØ¹":7688,"ÙĨÙħØ§ÛĮÛĮ":7689,"Ġreported":7690,"ĠÙħÙĨÙĪ":7691,"using":7692,"Ġshape":7693,"ĠÛ±Û´":7694,"ĠØ¢Ø±Ø§ÙħÛĮ":7695,"ĠÚ¯Ø²":7696,"Ġconce":7697,"Ġmultip":7698,"ĠØ³Ø±Ø§Øº":7699,"Ġpractice":7700,"ĠØ¨Ø¨Ø±Ø¯":7701,"Ø²ÙħØ§ÙĨÛĮ":7702,"Ġfle":7703,"Ġbell":7704,"ĠÚ©ÙĢÙĩ":7705,"ĠJean":7706,"more":7707,"Ġbeauty":7708,"ĠØ¨ÙĪÙħÛĮ":7709,"ĠÙħØ¹Ø¯":7710,"ĠØ¯Ø§":7711,"Ġblind":7712,"Go":7713,"Other":7714,"ĠØ±Ø¶":7715,"ĠCoun":7716,"ailed":7717,"ĠMich":7718,"ĠØµØŃÛĮ":7719,"uous":7720,"ĠØ¬ÙĨØ¨Ùĩ":7721,"Ġpressure":7722,"Ġopinion":7723,"Ġforest":7724,"Ġresponse":7725,"ĠBill":7726,"ĠâĢľ":7727,"ĠØ´Ø¹Ø±":7728,"ĠØ±Ø§Ø²":7729,"Ġliked":7730,"Ġfamilies":7731,"house":7732,"Ð¸":7733,"sec":7734,"ĠØ³Ø±Ùħ":7735,"Ġreligious":7736,"Ġinqu":7737,"ĠØ±Ø§Ø¶ÛĮ":7738,"ĠØ¹Ø°":7739,"Ġended":7740,"ĠØ¢ÙħØ¯ÙĨØ¯":7741,"ĠÙģØ¯Ø±":7742,"Ġboat":7743,"ĠÛ²Û°Û°Û¸":7744,"ĠÙĤÙĩØ±ÙħØ§ÙĨ":7745,"De":7746,"cast":7747,"ĠØ§ÛĮØ¯":7748,"Ġhorses":7749,"ĠØ§ÙĦÙģ":7750,"ĠÛ²Û°Û°Û¹":7751,"onel":7752,"ĠÙģØ±ÙħØ§ÙĨØ¯Ùĩ":7753,"Ġbal":7754,"ĠØŃÙĪØ²Ùĩ":7755,"ĠØ¨ÛĮÙģØª":7756,"osite":7757,"198":7758,"Ġmir":7759,"Ø®ÙĨØ¯ÛĮ":7760,"ÙĢØ§":7761,"Ġvari":7762,"ĠÙĨÙĪØ±ÛĮ":7763,"ÛĮØ³ØªÛĮ":7764,"Ġ190":7765,"Ġmole":7766,"ĠØ§Ø¶Ø·Ø±":7767,"ifornia":7768,"otes":7769,"antic":7770,"Ġdestroy":7771,"Ġpassion":7772,"ĠLF":7773,"ĠSpanish":7774,"ĠØ®Ø§ÙĦ":7775,"ÙĦÙĪØª":7776,"Ġsmell":7777,"Ġtrade":7778,"ĠÙĩØ²Ø§Ø±Ø§ÙĨ":7779,"Two":7780,"ÛĮØ§Ø¨Ø¯":7781,"ĠØ§Ø¯Ø¨ÛĮ":7782,"ĠÙĨØ¯Ø§Ø´ØªÙħ":7783,"Ġincreased":7784,"Ġincluded":7785,"Ú©Ø±Ùĩ":7786,"ÙĢÛĮ":7787,"ĠÙĨÚ¯Ø±ÛĮØ³Øª":7788,"ĠØ³ÛĮÙĦ":7789,"Ġrelative":7790,"ĠØ³ØªÙĪÙĨ":7791,"Ø§Ú¯Ø±Ø§ÙĨ":7792,"ĠØ´ÙħØ§Ø±":7793,"ÙħÙ¾":7794,"Ú©ÙħÛĮ":7795,"Ġcred":7796,"Ġliber":7797,"ĠÙĪÛĮÚ©ÛĮ":7798,"ĠØªØ´ÙĪÛĮÙĤ":7799,"Ġactivity":7800,"acing":7801,"Ġasking":7802,"ĠÚ©Ø´ÛĮØ¯ÙĨ":7803,"ĠÙ¾Ø§ÛĮÚ¯Ø§Ùĩ":7804,"Ġcaused":7805,"ĠØ§ÙĪØ³Øª":7806,"olly":7807,"ĠÙĬÙĥ":7808,"Ġluck":7809,"Ġgraph":7810,"ĠØªÙĪØ§ÙĨÛĮÙħ":7811,"ĠØ´Ú©ÙĦÛĮ":7812,"Ġperformance":7813,"Ġtelevision":7814,"Ġactive":7815,"Ġlabor":7816,"ĠÙģØ±Ø³ØªØ§Ø¯Ùĩ":7817,"ĠÙģÚ©Ø±ÛĮ":7818,"ĠØ¬Ø³ØªØ¬ÙĪ":7819,"kay":7820,"mione":7821,"ĠØ¨Ø±ÙĪÛĮÙħ":7822,"Ġ()":7823,"ĠCr":7824,"ounded":7825,"ĠØ¯ÛĮØ¯Ú¯Ø§Ùĩ":7826,"Ġlean":7827,"Ġmedic":7828,"Ġtreatment":7829,"ĠØ¯Ø§ÛĮ":7830,"ĠÛĮÙĪ":7831,"ĠØŃØ¯ÛĮ":7832,"Ġcommer":7833,"zen":7834,"ĠØ®ÙĦØ§Ùģ":7835,"ĠØ§ÙģØºØ§ÙĨ":7836,"ĠØ§Ø³ØªØ®ÙĪØ§ÙĨ":7837,"ĠØŃØ§Ø¯Ø«Ùĩ":7838,"Ġnoticed":7839,"pro":7840,"ĠØ¬ÙģØª":7841,"ĠØ±Ø§Ø³ØªÛĮ":7842,"Ø´Ø§ÙĨØ¯":7843,"Ġplain":7844,"izations":7845,"ĠØŃÙģØ§Ø¸Øª":7846,"Ġconsequ":7847,"BC":7848,"isters":7849,"ID":7850,"MS":7851,"Ġ\"(":7852,"pered":7853,"Ġgives":7854,"Ġsymb":7855,"Ġobv":7856,"ĠÙ¾ÛĮØ±ÙħØ±Ø¯":7857,"ĠØ¨Ú¯ÛĮØ±ÛĮØ¯":7858,"Are":7859,"¸Û°":7860,"Ġï":7861,"ÙģÙĩØ±Ø³Øª":7862,"atives":7863,"Ġonline":7864,"Ġyouth":7865,"Ġshows":7866,"ĠJack":7867,"ĠØ¨Ø±Ø¬Ø³ØªÙĩ":7868,"anda":7869,"ĠÙĦØ§ÛĮÙĩ":7870,"ĠList":7871,"ĠÙħÙĩØ±Ø¨Ø§ÙĨ":7872,"ĠÙħØŃØµÙĪÙĦØ§Øª":7873,"Did":7874,"ĠØ§Ø±Ø³":7875,"ĠØ¯Ø±Ùĩ":7876,"Ġstick":7877,"Ġrid":7878,"ĠTED":7879,"ĠItalian":7880,"ĠAfrican":7881,"ĠØ¯ÙĪÙĨÙħ":7882,"Ġtouch":7883,"ĠØ¨Ú¯Ø°Ø§Ø±Ø¯":7884,"Ġrare":7885,"iano":7886,"Ġclim":7887,"yr":7888,"Ġ^":7889,"ĠGlo":7890,"Ġfeed":7891,"ĠÙħÙĩØ§Ø±Øª":7892,"ĠThis":7893,"ĠItaly":7894,"ĠØ§Ø·ÙĦØ§Ø¹Ø§ØªÛĮ":7895,"ĠØ¯Ø±Ú¯ÛĮØ±":7896,"Ġweight":7897,"Ġchoice":7898,"ĠØ¹Ø±Ø¨":7899,"ĠØ¯ÙĪØ³ØªÛĮ":7900,"ĠÙħØµØ±":7901,"Ġren":7902,"Ġ2002":7903,"Ġther":7904,"ĠÙĨÙĤØ§Ø·":7905,"ĠÚĨÙĩØ§Ø±Ùħ":7906,"orrow":7907,"Ġlaid":7908,"ĠÚ©ÙĨØª":7909,"78":7910,"ym":7911,"Ù¾Ø±Ø³ÛĮØ¯":7912,"ĠÙĥÙĨ":7913,"ĠØ±ÙĤØ§Ø¨Øª":7914,"ĠØ±Ø§ÛĮØ§ÙĨÙĩ":7915,"ĠÙĪØ²ÛĮØ±":7916,"itable":7917,"Ġfit":7918,"Ġfarm":7919,"Ø¹ÙĦ":7920,"ÙģØ±Ø§ÙĨ":7921,"ØºØ°":7922,"ste":7923,"Cl":7924,"ĠØ³ÙĪØ¦":7925,"iot":7926,"Ġhang":7927,"ĠÚĨØ§ÙĤ":7928,"ĠØ®ÙĪØ§ÙĩØ´":7929,"Ġbran":7930,"ĠØ¯Ø³ØªÚ¯ÛĮØ±":7931,"Ġtone":7932,"ĠØ¹Ø¬ÛĮØ¨ÛĮ":7933,"Ġalgorithm":7934,"ĠØ§ÙĦÚ©ØªØ±ÛĮÚ©ÛĮ":7935,"Ø·Ø¨":7936,"ĠØ²ÙĪØ±":7937,"ĠÛ±Û³":7938,"Ø¯ÛĮØ¯Ùĩ":7939,"eles":7940,"ĠØ®ÙĪØ§ÙĩÛĮ":7941,"ĠØ±ÛĮØ§Ø³Øª":7942,"Ġsuccessful":7943,"Ġbeat":7944,"ĠKore":7945,"Ġprint":7946,"Ġremembered":7947,"ĠÙĩØ§Ø±":7948,"rance":7949,"ĠÙħØ®ØªÙĦÙģÛĮ":7950,"ĠÙĨØ§Ø´ÙĨ":7951,"ĠÙĨÙħÙĪØ¯Ùĩ":7952,"Ã³n":7953,"ĠThom":7954,"Ġtall":7955,"ĠÚ©ÙĨÙĨ":7956,"Ø¨Ø±ØªØ§":7957,"ĠØ§ÙħØªÛĮ":7958,"Ġolder":7959,"ĠØªÙĪÙĦØ¯":7960,"ĠBook":7961,"ĠÙģÙĩÙħÛĮØ¯":7962,"ĠSystem":7963,"Ġjournal":7964,"Ġassum":7965,"Ġmanufact":7966,"under":7967,"olved":7968,"roud":7969,"ĠÙħØªÙĪØ³Ø·":7970,"ĠÙ¾Ø§Ø¯Ø´Ø§Ùĩ":7971,"Ġscientific":7972,"Ġobserved":7973,"ĠAustralia":7974,"Ġturns":7975,"aimed":7976,"ÙĨØ®":7977,"Ġmanagement":7978,"ĠØ§ÙĪÙĨØ¬Ø§":7979,"·Û°":7980,"ÙĪØ¦":7981,"Ġancient":7982,"ĠØŃØ±ÙģÛĮ":7983,"Pro":7984,"Ġsynt":7985,"ĠØ§Ø®ØªØµØ§Øµ":7986,"ĠØ¨Ø¹Ø¯ÙĩØ§":7987,"Ġsupposed":7988,"ÙħÚ¯Ø±":7989,"ĠÚ¯ÙĪØ±":7990,"Ġalive":7991,"ĠØ¯Ø±ÛĮØ§ÚĨÙĩ":7992,"Ø¯Ú©ØªØ±":7993,"hered":7994,"ĠØ±ÙħØ§ÙĨ":7995,"::":7996,"ĠSpe":7997,"ĠØ¬ÛĮØ¨":7998,"onia":7999,"arian":8000,"Ġprogress":8001,"Ġtax":8002,"ĠÙĪØ²":8003,"Ù¾Ø¯ÛĮ":8004,"ĠØ¨ÛĮÙĨØ¯":8005,"Ġrule":8006,"Ġkit":8007,"Ġcareer":8008,"ye":8009,"ĠØªÙĪÙĤÙģ":8010,"ĠDist":8011,"ĠWestern":8012,"ĠQue":8013,"ĠâĢı":8014,"Ġlose":8015,"ĠÙħØ«ÙĦØ§":8016,"ĠØªÙĪØ§ÙĨÛĮØ¯":8017,"ĠÙĦÙĩØ³ØªØ§ÙĨ":8018,"ĠCalifornia":8019,"ĠØ¨ÙĪÙĦ":8020,"ĠØ¢ÙĨØ§":8021,"Ġarrest":8022,"ĠØ¸ÙĩØ±":8023,"Ġequal":8024,"ĠÙĨÚ¯":8025,"ĠÚĨØ§ÙĦØ´":8026,"ĠSov":8027,"Ġtea":8028,"ĠÙĨÙĤØ±Ùĩ":8029,"ĠØ¨Ø±Ø¯ÙĨ":8030,"Ġhouses":8031,"Our":8032,"Ġlying":8033,"Ø¬ÛĮØª":8034,"Ø±ÙĪØ²ÛĮ":8035,"Ġincludes":8036,"ĠÙħØŃØ¯":8037,"cow":8038,"Ġhaven":8039,"Ġexch":8040,"Ġknowing":8041,"Ø¢ÙħÙĪØ²":8042,"la":8043,"ĠÙĨØ¯Ùĩ":8044,"berg":8045,"Ġoffer":8046,"ĠØ±Ø³ÛĮØ¯ÙĨØ¯":8047,"ĠSoviet":8048,"burg":8049,"ĠØ¯Ø®":8050,"ĠØ¹Ø¯Ùĩ":8051,"ĠÙĦØŃÙĨÛĮ":8052,"ĠÚ©Ø±Ø¨ÙĨ":8053,"ĠÙħÙĨÙģÛĮ":8054,"Ġimpact":8055,"Ġjourney":8056,"ĠØ¯Ø§ÙĪ":8057,"ĠØ§ØªÙħ":8058,"ĠØ¹Ø±Ø§ÙĤ":8059,"ĠRed":8060,"ĠÙĤØ±Ø¨Ø§ÙĨÛĮ":8061,"Ġpresident":8062,"ĠØ³ÙĪØ±Ø§Ø®":8063,"Ġpocket":8064,"ĠÙĨÙĩØ§ÛĮÛĮ":8065,"Ø§ÛĮÙĨØ¬Ø§":8066,"ÙĤÛĮØ¨":8067,"Ġwants":8068,"sp":8069,"ĠØ¬ÙĪÙĨ":8070,"ĠMat":8071,"Ġblock":8072,"Ġeventually":8073,"Ø§Ø¨Ø±ÛĮ":8074,"Ġspect":8075,"asha":8076,"ĠØ§ÛĮØ²":8077,"ĠHen":8078,"ĠØªÙħØ§ÛĮÙĦ":8079,"ĠØ¢Ù¾":8080,"ĠÙĩÙĦ":8081,"Ġstock":8082,"uls":8083,"Ġintelligence":8084,"ĠØ´ÙĪØ±ÙĪÛĮ":8085,"Ġwand":8086,"Ġlibr":8087,"ĠØªØ±Ø¬ÙħÙĩ":8088,"ĠØªÙħØ±ÛĮÙĨ":8089,"Ø³ÙĪØ±":8090,"aling":8091,"Ú©ÛĮØª":8092,"rawn":8093,"ĠØ¨Ú¯ÛĮØ±ÙĨØ¯":8094,"Ġpotential":8095,"ĠØ¨Ø§Ø¨Ø§":8096,"Ġgall":8097,"Ġmel":8098,"ĠÚ©Ø´ÙĪØ±ÙĩØ§":8099,"ĠØ¹Ø±Ø¶Ùĩ":8100,"Ġcard":8101,"Ø¬ÛĮÙĨ":8102,"ĠØ¨Ø¨ÛĮÙĨÛĮÙħ":8103,"eal":8104,"Ġcatch":8105,"Ġseat":8106,"earch":8107,"Ġdesert":8108,"Ġreasons":8109,"clock":8110,"Ġloud":8111,"ips":8112,"ĠÙĤØ§Ø¨ÙĦÛĮØª":8113,"ĠÚĨØ§ÛĮ":8114,"asy":8115,"ĠCong":8116,"ĠØªØ§Ø¨Ø³ØªØ§ÙĨ":8117,"ĠØ¶Ø±Ø¨":8118,"ĠØ¨Ú©Ø´Ø¯":8119,"Ġ2001":8120,"cript":8121,"ĠØ§Ø³ÙĦØ§ÙħÛĮ":8122,"Ġox":8123,"Ġbare":8124,"ĠNat":8125,"Ġangry":8126,"ĠÙĨØ§Ø¨ÙĪØ¯":8127,"Ġsurprise":8128,"ĠØ´Ø§Ø±":8129,"ĠÙħÙĪØ²Ùĩ":8130,"Ġsomebody":8131,"ĠØ³ÙĨØªÛĮ":8132,"Ġdocument":8133,"Tr":8134,"ĠÙħÙĦØ§ØŃ":8135,"Ø²ÛĮÚ©":8136,"Ġintroduced":8137,"Ġfeatures":8138,"umbled":8139,"Ġ27":8140,"ÙĨØ¬ÛĮ":8141,"ĠÙ¾Ø±ÙĪØ±Ø´":8142,"pic":8143,"Ġhit":8144,"Ġeast":8145,"ÙĨØ§Ú©ÛĮ":8146,"Ġoccasion":8147,"rif":8148,"ĠØ§Ø¯Ø¹Ø§":8149,"ĠØ¢ÙĨØ¯Ø±Ùĩ":8150,"Ġdegree":8151,"ĠÙħØŃØ§Ø³Ø¨Ùĩ":8152,"Ġforth":8153,"ĠRos":8154,"ĠChinese":8155,"Ø¢ÙħØ¯Ùĩ":8156,"enge":8157,"Ġfashion":8158,"ĠÙ¾ÙĦØ§":8159,"Ġhospital":8160,"ĠØªÙĦÙĪÛĮØ²ÛĮÙĪÙĨ":8161,"ĠÙħØŃØ³ÙĪØ¨":8162,"ĠØ¨ØªÙĪØ§ÙĨÙĨØ¯":8163,"ĠÙĨÚ©ÙĨØ¯":8164,"Ġfal":8165,"ĠØ¢Ø²Ø§Ø±":8166,"oved":8167,"Ġaim":8168,"Ġbase":8169,"Ġcircumst":8170,"Ġpark":8171,"ĠØ®Ø¨Ø±ÛĮ":8172,"pected":8173,"ĠÙģØ±Ø²ÙĨØ¯Ø§ÙĨ":8174,"Ġring":8175,"ĠÙĨØ¨ÙĪØ¯ÙĨØ¯":8176,"Ġfeelings":8177,"Ġproperty":8178,"ĠØµØŃÛĮØŃ":8179,"Ú©ÛĮØ¯":8180,"olic":8181,"ĠÙ¾ÙĨØ¬Ø§Ùĩ":8182,"Ġ80":8183,"volution":8184,"ĠØ¨Ø§ÙģØª":8185,"Ġ60":8186,"Ġhurt":8187,"eless":8188,"Ø´ÙĪÙħ":8189,"ĠÛ¸Û":8190,"Ġvac":8191,"ĠTrans":8192,"ÙĪÙħÙĩ":8193,"ÙģÛĮÙĦÛĮÙ¾":8194,"Ġguard":8195,"ĠÙ¾Ø±ØªØ§Ø¨":8196,"ĠÙħØ¤Ø³":8197,"IT":8198,"ĠØ´ÙĪÛĮÙħ":8199,"Ġspite":8200,"Ø§Ø´ØªÙĩ":8201,"Ø®ÙĪØ±Ø¯Ùĩ":8202,"ĠÙħØŃÚ©ÙĪÙħ":8203,"Ġappearance":8204,"ĠInstitute":8205,"IC":8206,"Ú©Ø¯Ø§Ùħ":8207,"acity":8208,"Ø§ØŃØ³Ø§Ø³":8209,"Ġearlier":8210,"Ġsuc":8211,"ĠSwed":8212,"ĠØªØµØ§ÙĪÛĮØ±":8213,"ĠÚ©ÙĪØ´":8214,"ĠÚ¯ÛĮØª":8215,"Ġ1990":8216,"ĠÙħÙĩØ§Ø¬":8217,"uh":8218,"atab":8219,"ĠØ®Ø§Ø·":8220,"ĠSaint":8221,"Mrs":8222,"Ġsoldiers":8223,"ĠÙĨØ§ÙĩØ§Ø±":8224,"oured":8225,"ĠÚĨØ³Ø¨":8226,"ĠØ¯Ø®ØªØ±Ø§ÙĨ":8227,"Ġwished":8228,"Ġbag":8229,"ĠØ§ÛĮÙĨÚ©":8230,"Ġrise":8231,"ĠØ´ÙĪÛĮØ¯":8232,"ĠPoland":8233,"ĠØ¨Ø¯ÙĩÙĨØ¯":8234,"iliar":8235,"time":8236,"Ø¯Ø§ÛĮÛĮ":8237,"Ġshock":8238,"ĠØªØ£ÙħÛĮÙĨ":8239,"Ġhelped":8240,"Ġclos":8241,"ension":8242,"Ġviolence":8243,"Look":8244,"ĠDor":8245,"ĠØªØ³ÙĦÛĮÙħ":8246,"ĠØŃØ§Ø¶Ø±ÛĮÙĨ":8247,"Ġentirely":8248,"roup":8249,"Ø±ÛĮØ´":8250,"Ø§ÙģØ²":8251,"ĠÛ²Û°Û±Û³":8252,"Ġeconomy":8253,"ydro":8254,"ĠÙħÙĩÙĨØ¯Ø³ÛĮ":8255,"More":8256,"Ù¾Ø±ÙĪ":8257,"ĠØ®Ø·Ø±ÙĨØ§Ú©":8258,"ØµØ§Ø¨":8259,"Ġprice":8260,"ĠÙ¾Ø²":8261,"Ġassociated":8262,"ĠØ§ØŃØ³":8263,"Ġestim":8264,"Ġsignificant":8265,"ithe":8266,"ĠÚ¯Ø§ÙĪ":8267,"ÙħØ¹Ùħ":8268,"ÙĪØ§ÙĤØ¹Ø§":8269,"Ġgoal":8270,"Ġsolution":8271,"Ø¨Ø¯ÙĪÙĨ":8272,"Ġpolicy":8273,"ĠØ§Ø³Ø±Ø§Ø¦ÛĮÙĦ":8274,"Ú¯Ø°Ø§Ø±Ø¯":8275,"ĠÙĪØ³Ø§ÛĮÙĦ":8276,"ĠÙħØ§Ø±ÛĮØ§":8277,"Ġfish":8278,"ĠÚ©Ø§Ø±Ø®Ø§ÙĨÙĩ":8279,"oken":8280,"ĠWhite":8281,"lebr":8282,"Ġstore":8283,"ĠÙħÙħÚ©ÙĨÙĩ":8284,"Ġelements":8285,"ĠØ¹Ø¬ÙĦÙĩ":8286,"Ind":8287,"ĠPers":8288,"ĠÙ¾ÙĪÙĦÛĮ":8289,"ĠÙĦØ¨Ùĩ":8290,"ĠØ¯ÛĮØ¬ÛĮØª":8291,"ĠØ¨Ø§Ø´Ú¯Ø§Ùĩ":8292,"ĠØ¬Ø§ÙĨØ¨":8293,"igned":8294,"ĠAfghan":8295,"Ġsucceed":8296,"Each":8297,"Ġseason":8298,"ĠÙħØŃØª":8299,"Ġresources":8300,"ĠØ§ÙħØªØŃØ§ÙĨ":8301,"tte":8302,"Ø§Ø³Ùģ":8303,"Ø²Ø§Ø±Øª":8304,"Ġissue":8305,"ca":8306,"ĠÙĩØ¬":8307,"Ġdry":8308,"tering":8309,"Ġfamous":8310,"Ġinterp":8311,"ffe":8312,"Ø·Ø±Ùģ":8313,"ĠRo":8314,"ĠØ¨Ù¾Ø±Ø¯":8315,"Ø¹ÙĦØ§ÙĪÙĩ":8316,"Ġru":8317,"ĠÙħØ®ØµÙĪØµØ§":8318,"Ġbecomes":8319,"30":8320,"ĠTV":8321,"ĠÙħØ±Ø¯ÙħÛĮ":8322,"Ġissues":8323,"Ġyellow":8324,"IP":8325,"Ø¯Ø§Ø±Ø¯":8326,"ĠÙĪØ²ÙĨ":8327,"ĠÚ©ÙĩÙĨÙĩ":8328,"ÛĮØ§ÙĨ":8329,"ĠÙģØ±Ø§ÙĪØ§ÙĨ":8330,"ĠØ§Ø´ØªØ±Ø§Ú©":8331,"Ø±Ø¯ÙĨ":8332,"ĠØ¯Ø¹Ø§":8333,"Ġtitle":8334,"ĠÙ¾ÛĮØ±Ø§Ùĩ":8335,"Ú¯ÙĨØ§ÙĦ":8336,"ĠÚ©Ø´Ø§ÙĪØ±Ø²ÛĮ":8337,"Ġgreatest":8338,"ĠMuslim":8339,"ĠØ§Ø¹ØªØ±Ø§Ø¶":8340,"ĠÙħÛĮØ§Ø¯":8341,"Ġdefined":8342,"ØªÙĪÙĨÙĩ":8343,"ittee":8344,"ĠØ§Ø¹ØªØ±Ø§Ùģ":8345,"cu":8346,"ĠØ±Ø£":8347,"Ġescape":8348,"ĠØ¢ÙĪØ§Ø²":8349,"ords":8350,"Ġ*\"":8351,"Ø§Ú©Ø«Ø±":8352,"Ġrelease":8353,"Ġobjects":8354,"Ø¶Ø§Ø¹":8355,"Ú©ÙĨÙĨ":8356,"ĠLou":8357,"ĠØ§ÙħØ±ÙĪØ²Ùĩ":8358,"ĠØªÙĦÙĪÛĮØ²ÛĮÙĪÙĨÛĮ":8359,"Ġice":8360,"ĠØ¨ÛĮÙĦ":8361,"ĠPierre":8362,"Ġflat":8363,"ĠØ®Ø±Ø§Ø¨":8364,"ĠØ³ÙĤÙĪØ·":8365,"Ġinj":8366,"ĠÙħØŃÙĤ":8367,"ĠØ§Ø´ÛĮØ§":8368,"Ø¨ÙĪØ±Ú¯":8369,"oned":8370,"ĠRich":8371,"Ġnoise":8372,"ĠØ¶Ø¨Ø·":8373,"ĠâĢĮ":8374,"Ú©ÙĪØ¨":8375,"ÙĬØ±":8376,"Ġquality":8377,"Ø§Ø²ÙĨØ¯Ùĩ":8378,"ĠÛ²Û°Û°Û¶":8379,"ĠØ§Ú©Ø«Ø±":8380,"MA":8381,"Ú©ÙĪÙĨÛĮ":8382,"ĠLaw":8383,"Ġcontinue":8384,"ĠØ±ÙĪÛĮØ¯Ø§Ø¯":8385,"ĠÙĪØ§ÛĮ":8386,"ĠÚ¯ÙĦÙĪÙĦÙĩ":8387,"Ġrules":8388,"Ġstreets":8389,"ĠÙģØ§ÙĨÛĮ":8390,"Ġgrass":8391,"Another":8392,"ĠØ¬Ø°Ø¨":8393,"ĠÙħØªØ¹ÙĦÙĤ":8394,"ĠChurch":8395,"Ġindic":8396,"Good":8397,"ÙĦÛĮØº":8398,"ĠØ¢ÙĦÙĪØ¯":8399,"ĠØ¯Ø§ÙĨØ´Ø¬ÙĪÛĮ":8400,"Ġfinancial":8401,"Ġhonor":8402,"Ġpredict":8403,"ĠMal":8404,"ĠØ¬ÙħØ¹ÛĮ":8405,"Sc":8406,"ÙĨØ¸Ø±":8407,"Ġeth":8408,"ĠØ¨ÛĮÚĨØ§Ø±Ùĩ":8409,"ĠÙħØ³Ú©ÙĪ":8410,"ĠØ¯Ø®Øª":8411,"obile":8412,"ĠØ§ÙģØ²ÙĪØ¯":8413,"ĠMartin":8414,"Ø¬ÙĨÚ¯":8415,"ĠØ²ÙĪ":8416,"ĠDay":8417,"Ġdarkness":8418,"ĠGovern":8419,"ĠÙħØŃØ§ÙģØ¸Øª":8420,"Ú¯Ø²Ø§Ø±":8421,"Ø¨Ø¯ÛĮÙĨ":8422,"mission":8423,"Ø§ÙĦØ§ÙĨ":8424,"ĠMel":8425,"resp":8426,"Ġsilver":8427,"Ġbuildings":8428,"ĠÙħØ³ÙĦÙħØ§ÙĨ":8429,"New":8430,"Ø¨ÚĨÙĩ":8431,"ÙģÙĪØ±":8432,"Ġadop":8433,"based":8434,"ĠÙħÛĮØªÙĪÙĨ":8435,"Ø®Ø¯Ùħ":8436,"ours":8437,"Ġagree":8438,"ĠØ¨Ø±Ø§ÙĨ":8439,"ĠÚĨÛĮÙĨÛĮ":8440,"Ġfemale":8441,"ÙģØ¬":8442,"ĠÙĩØªÙĦ":8443,"aches":8444,"Ġwealth":8445,"Ø§ÙĨØ¯Ø§Ø®Øª":8446,"Its":8447,"Ġprote":8448,"ĠØ¨Ø§Ø±ÙĩØ§":8449,"arsh":8450,"ĠÙħØ§Ø¯Ø±Ùħ":8451,"¶Û°":8452,"retched":8453,"Ġedge":8454,"ĠØ¨Ø±Ú¯Ø²":8455,"ĠMiddle":8456,"ĠØ§ÛĮÙĨØªØ±ÙĨØªÛĮ":8457,"erous":8458,"Ġreb":8459,"ĠCam":8460,"Ġrace":8461,"Ġcalm":8462,"Like":8463,"ault":8464,"Ġtom":8465,"ĠØ³Ø§Ø²Ø¯":8466,"ĠØ¢ØºÙĪØ´":8467,"ĠTurk":8468,"60":8469,"Ġwis":8470,"ĠÛĮØ§Ø¨Ø¯":8471,"ĠØ¢ÙħØ±ÛĮÚ©Ø§ÛĮ":8472,"Ġrevolution":8473,"ĠHigh":8474,"ĠÙħØŃÙħØ¯":8475,"Ġunivers":8476,"ĠØ³ÙĪØ¡":8477,"Ġcampaign":8478,"Ø§ÛĮØ§ÙĨ":8479,"ĠMo":8480,"ĠStud":8481,"Ġlistening":8482,"Ġdropped":8483,"Ġreligion":8484,"ĠØµØ§Ùģ":8485,"ĠØªØ§Ú©ÙĨÙĪÙĨ":8486,"ĠØªÙħØ§Ø´Ø§Ú¯Ø±Ø§ÙĨ":8487,"ĠMoscow":8488,"ĠØ±Ø¶Ø§ÛĮØª":8489,"ĠÙĨØ±Ø®":8490,"ĠMac":8491,"Ġphone":8492,"Ġfinding":8493,"Ġlaws":8494,"ĠCouncil":8495,"ares":8496,"ĠØ¨Ø±Ùħ":8497,"ĠØµÙĨØ¹ØªÛĮ":8498,"ĠØ¹Ùģ":8499,"Ġleaves":8500,"Ġincred":8501,"ĠØ¬ÙĦÙĪÙĩ":8502,"ĠÚ©ÙĪØªØ§ÙĩÛĮ":8503,"ĠÙ¾ÚĺÙĪÙĩØ´":8504,"Ø§ÙĦÙĪ":8505,"Ġinstance":8506,"ÙģØ±Ø§ÙĨØ³":8507,"Ġofficer":8508,"Ġconnected":8509,"kes":8510,"ĠÙĪØ§Ø¶":8511,"ĠØ¨ÙĩØªØ±ÛĮ":8512,"ĠÙħÙĪØ´":8513,"ÙħØ«ÙĦØ§":8514,"ĠSun":8515,"Ġimages":8516,"Ġplayer":8517,"Ġcorrect":8518,"Ġlegal":8519,"Ġjoined":8520,"ĠØ³ÛĮØ±":8521,"Ġweb":8522,"Ġrank":8523,"Ġclub":8524,"ĠÙĩÙħÚ¯ÛĮ":8525,"ĠGmina":8526,"ĠÙħØªØ¹Ø¯":8527,"ĠÙĤÙĦØ¹Ùĩ":8528,"umn":8529,"Ġpatients":8530,"Ġmotion":8531,"MDb":8532,"ĠÚ©Ø§ÙĦÛĮÙģØ±":8533,"ĠÙĦÛĮÙĨ":8534,"Ġalt":8535,"Ġcoat":8536,"ĠØ§ÙĩØ¯Ø§Ùģ":8537,"ÙħØ²ÙħÙĩ":8538,"ĠÙħØ³ÛĮØŃÛĮ":8539,"Ġfields":8540,"Ġopposite":8541,"Ðµ":8542,"ĠØ¨Ø§ÙĨØ¯":8543,"Ġsmiling":8544,"Ġ189":8545,"ĠAssoci":8546,"ĠCenter":8547,"ĠMont":8548,"Ġcarbon":8549,"Ġapart":8550,"Ġpulled":8551,"Ø§Ø²ÛĮÙħ":8552,"fficial":8553,"Ġencour":8554,"ĠØµØ§Ø¯Ø±":8555,"Ġsym":8556,"ĠØ¨Ú¯ÛĮØ±Ùħ":8557,"Ø§Ø¨ÙĤ":8558,"Ġstream":8559,"ulated":8560,"Ġdemocr":8561,"Ø±Ø§ÛĮÛĮ":8562,"Ø³Ø±Ø§ÙĨØ¬Ø§Ùħ":8563,"Ġdance":8564,"ĠTer":8565,"ĠÛ±Û·Û":8566,"ÙĢØª":8567,"ĠÙĪØ²Ø§Ø±Øª":8568,"ĠØ¨ÙĪØ¯ÛĮ":8569,"ØµÛĮÙĩ":8570,"Ġinterview":8571,"ĠMil":8572,"ĠØ¨Ø±Ø¯Ø§Ø±":8573,"Ġsounds":8574,"Ġkitchen":8575,"ront":8576,"Ġshoulder":8577,"ĠØ¬Ø°Ø§Ø¨":8578,"ØµØ§ÙĦ":8579,"ĠØ´Ø¨Ø§Ùĩ":8580,"upid":8581,"Ġarticle":8582,"Ġelectron":8583,"cles":8584,"ĠÙ¾ÛĮÚĨÛĮØ¯":8585,"ĠØ¢Ø±Ø²ÙĪ":8586,"nam":8587,"plic":8588,"Ġstarting":8589,"ĠÙĤØ·Ø§Ø±":8590,"ĠØ±ÙĨÚ¯ÛĮ":8591,"Ġhonest":8592,"ĠØµÙĨØ¯ÙĪÙĤ":8593,"People":8594,"ĠØ§ÙħØª":8595,"Ġpoet":8596,"Ġsand":8597,"Ġdread":8598,"ĠFed":8599,"ĠØ±Ø³Øª":8600,"ĠÙ¾ØªØ±":8601,"Ġsport":8602,"ĠØŃØ³Ø§Ø¨ÛĮ":8603,"ĠØ§ÛĮØ±Ø§ÙĨÛĮ":8604,"eff":8605,"ĠØ±Ø¤":8606,"Ġisland":8607,"ĠÛ±Û·":8608,"ĠÙ¾Ø³Ø±Ø´":8609,"ĠSociety":8610,"ĠØ¢Ø²ÙħØ§ÛĮØ´Ú¯Ø§Ùĩ":8611,"Ġexistence":8612,"ĠØ³Ø±Ø¨Ø§Ø²Ø§ÙĨ":8613,"Ø±Ø³ÙĨØ¯":8614,"Ġ1980":8615,"ĠØ´Ø¨Ùĩ":8616,"Ġobt":8617,"Art":8618,"aval":8619,"Ġpa":8620,"Ø·Ø¨ÛĮ":8621,"ĠØºÛĮ":8622,"Ġvalues":8623,"Ġradio":8624,"ĠÚ©ÛĮÙģÛĮØª":8625,"aria":8626,"Ø®Ø¯Ø§":8627,"ashed":8628,"Ø§Ú¯Ø±ÚĨÙĩ":8629,"ĠArmy":8630,"ĠØ¨Ø¹ÙĨÙĪØ§ÙĨ":8631,"ĠØ§Ø±Ø²ÛĮ":8632,"Ġmagic":8633,"Ġinform":8634,"Ġthank":8635,"Ġgrown":8636,"Ġtypically":8637,"Ġgames":8638,"Ġscar":8639,"Ġwest":8640,"ĠÙĩÙĪØ§Ù¾ÛĮÙħØ§":8641,"Ġputting":8642,"Ġbecoming":8643,"ĠØ¢Ø°":8644,"Ġonto":8645,"ĠØ³ÛĮÚ¯ÙĨØ§ÙĦ":8646,"Û±":8647,"Ġoffered":8648,"ĠØ§ØµÙĪÙĦ":8649,"ĠPeter":8650,"ĠAct":8651,"Ġinstant":8652,"ĠÚ©ÙĦÛĮØ³Ø§ÛĮ":8653,"Ġlaughing":8654,"Ġachieve":8655,"met":8656,"arrow":8657,"ĠØ¹ÙħØ¯Ùĩ":8658,"Ġmatch":8659,"ĠØ¬ÛĮÙħØ²":8660,"ĠÙ¾Ø±ÙĨØ¯Ùĩ":8661,"ĠØ¨Ø§Ø²ÛĮÚ©ÙĨ":8662,"ĠAndrew":8663,"ĠØ§ÙĦØ¹Ø§Ø¯Ùĩ":8664,"ĠØ¨Ø§Ø¨":8665,"ĠÙħØ§Ø¯Ø§Ùħ":8666,"Ġindependent":8667,"ĠØ¯ÙħØ§":8668,"anted":8669,"ĠIsland":8670,"ĠÙħÛĮØ§ÙĨÙĩ":8671,"iana":8672,"ĠØ¬Ø³ØªØ¬ÙĪÛĮ":8673,"ĠDes":8674,"Ø²Ø§ÛĮ":8675,"ĠØªÙĪØ¯Ùĩ":8676,"eper":8677,"ĠÙħÙĨØ§Ø³":8678,"Ġdeb":8679,"Ġavoid":8680,"ĠØ·ÙĦØ§ÛĮÛĮ":8681,"eah":8682,"ĠÙĨØ§Ø³":8683,"ĠÙħÛĮÚ©ÙĨÙħ":8684,"ĠØ®ÙĨ":8685,"ĠØ¨ÛĮØ§ÙĪØ±Ø¯":8686,"ĠØ§ÛĮÙħØ§ÙĨ":8687,"ĠØ§Ø³ØªØ¯":8688,"ĠÙĨØ´ÙĨ":8689,"ĠÙħÛĮØ´ÙĪØ¯":8690,"ĠRoy":8691,"Ġsmaller":8692,"ĠØªÚ©Ø§ÙħÙĦ":8693,"ĠÙģÙĤÛĮØ±":8694,"Ġbodies":8695,"ĠØ§ÙħØªÛĮØ§Ø²":8696,"Ú¯Ø§":8697,"Ġcontact":8698,"Ġhappening":8699,"anned":8700,"Ø§ÙĨØªÛĮÙĨ":8701,"Ġeffects":8702,"ĠÙħÙĪÙĩØ§ÛĮ":8703,"Ġnose":8704,"Ġcheck":8705,"ĠØ¨ØŃØ±Ø§ÙĨ":8706,"ĠGlobal":8707,"Ġtaught":8708,"Ø§ÙĩÛĮÙħ":8709,"ĠØµÙģØ±":8710,"ĠØ§ÙħØ¶Ø§":8711,"ĠØ§ÙĨØªÙĩØ§ÛĮ":8712,"idae":8713,"ĠLib":8714,"Ġ28":8715,"ĠÙħØ§Ø³Øª":8716,"ĠOh":8717,"ĠÙĨØ´ÙĪÙĨ":8718,"ĠØªØ§Ø±":8719,"Ø¢ÙĨÚĨÙĩ":8720,"Ġmodels":8721,"ĠGrand":8722,"leep":8723,"ĠØ¢Ú©":8724,"ĠÙĩÛĮØ¦Øª":8725,"ĠÛ±Û¹Û²Û":8726,"gency":8727,"Ġweap":8728,"ĠProv":8729,"ĠÙħÙģÛĮØ¯":8730,"ĠÙħØŃØ¨ÙĪØ¨":8731,"ĠØ§ÙĨØ¯Ø§Ùħ":8732,"Ġaward":8733,"gent":8734,"ØŃØ§Ùģ":8735,"ĠÛ²Û°Û°Û·":8736,"ĠØ±ÙĪØ´ÙĨØ§ÛĮÛĮ":8737,"ĠØ±Ø®Øª":8738,"Ġhabit":8739,"ÚĺÛĮÚ©":8740,"Ġspring":8741,"Ġevil":8742,"Ġtiny":8743,"Ġpet":8744,"Ø¦ÛĮØ¯":8745,"Ġuncle":8746,"Ġapprox":8747,"Ġchoose":8748,"Ġid":8749,"Ġdust":8750,"icked":8751,"ĠÛĮØ§Ø¯Ú¯ÛĮØ±ÛĮ":8752,"Ġsources":8753,"Ġfol":8754,"Ġsomewhere":8755,"ĠØ±ÙĪØ²ÙĩØ§":8756,"Ġtwice":8757,"Ġcheek":8758,"Ø³Ø§Ùħ":8759,"Ġheaven":8760,"ĠØ§Ø¨Ø±Ø§Ø²":8761,"Ġburst":8762,"Ú¯Ø±ÙĪÙĩ":8763,"Ġperfectly":8764,"ĠØ§ÙģØºØ§ÙĨØ³ØªØ§ÙĨ":8765,"ĠØ§Ú©Ø³":8766,"ÙģØ¹":8767,"Ġsquare":8768,"ĠÙĨØ§Ø¯Ø±":8769,"Ġtraining":8770,"ĠÛ²Û°Û°Ûµ":8771,"ĠÛ²Û°Û±Û´":8772,"ĠÙħÙĨØ·ÙĤÛĮ":8773,"Ġmicro":8774,"ĠØŃÛĮØ§Ø·":8775,"vention":8776,"ĠÛĮÙĤÛĮÙĨ":8777,"ĠSal":8778,"ument":8779,"Ġdate":8780,"ĠÙħÙĤØ±":8781,"Ú¯Ø°Ø´ØªÙĩ":8782,"Ø²ÛĮÙĩ":8783,"ĠThank":8784,"ĠIranian":8785,"board":8786,"Ø¨Ø±Ø¯Ø§Ø±ÛĮ":8787,"SA":8788,"Ġult":8789,"ĠØ¹ÙħÙĪ":8790,"Ġwindows":8791,"ih":8792,"Ġ.":8793,"ĠØ¬Øº":8794,"Ø±Ø§Ø³ÛĮ":8795,"Ġproducts":8796,"Ġthro":8797,"ĠØ¨Ø±ÙĪÙĨØ¯":8798,"ĠÙĤÛĮ":8799,"Ø±Ø§ÙģØª":8800,"Ġprevious":8801,"Ð½":8802,"ĠØ´Ø¬Ø§":8803,"ĠÚ¯ÙģØªÛĮ":8804,"Ġshoulders":8805,"ushing":8806,"icide":8807,"ĠÙĨØ¸Ø±ÛĮ":8808,"ĠÙħØ·ÙĦ":8809,"Ġfly":8810,"Ø¹Ùģ":8811,"ĠØ§Ø³ØªÛĮ":8812,"anding":8813,"ĠØ¨ÛĮÙĩ":8814,"fessor":8815,"ĠØ§Ø³ØªØ±Ø§Øª":8816,"ĠØ¢ÙħÙĪ":8817,"Ġpieces":8818,"ĠØ§ÛĮØªØ§ÙĦÛĮØ§ÛĮÛĮ":8819,"ØªØ§Ùħ":8820,"ĠDen":8821,"ĠØªØ¨ÙĦÛĮØº":8822,"ĠØªØ§Ø¨Ø¹":8823,"ĠØªÙĪÙĨÙħ":8824,"Ġfighting":8825,"ĠWind":8826,"Ġenemy":8827,"ĠØ¯ÙĪØ±Ø¨ÛĮÙĨ":8828,"ĠÚ©ÙģØ´":8829,"bre":8830,"Ø³Ø§Ø²Ø¯":8831,"Ġcars":8832,"Ġtools":8833,"iance":8834,"Ġcharge":8835,"ĠÙħØ³ÛĮØŃ":8836,"Ġheads":8837,"Ġlistened":8838,"Ú©Ø¨":8839,"Ġrecent":8840,"Ġstudent":8841,"ĠÙĨØ³Ø¨ØªØ§":8842,"Ġindividuals":8843,"urb":8844,"Ú©ØªØ§Ø¨":8845,"Ø²ÙĨÛĮ":8846,"Ġcontract":8847,"Ġpatient":8848,"ĠEdward":8849,"Ġhighest":8850,"Ġreaction":8851,"ĠJust":8852,"Ġfounded":8853,"Ġcalcul":8854,"Ġbasic":8855,"cher":8856,"Ġeld":8857,"ĠØ¬ÙĨÚ¯ÛĮ":8858,"ÙĤÙĦØ§ÙĦ":8859,"Ġdetermined":8860,"ĠØ´Ø§Ø¹":8861,"ĠØŁ\"":8862,"Ġ1970":8863,"Ġdu":8864,"Ø±ÙĪØ³ÛĮ":8865,"Ġscale":8866,"Ú©ÙĪÙ¾":8867,"Ġkid":8868,"ĠLu":8869,"ĠØ¨Ø±Ø§":8870,"Ø·ÛĮÙĦ":8871,"Ø§Ø®ØªÛĮ":8872,"ointed":8873,"Ġmaterials":8874,"Ġcelebr":8875,"Ġadvantage":8876,"Ġscene":8877,"Ġgate":8878,"Ġasse":8879,"Ġoblig":8880,"ÙĨÙĪÛĮØ³ÛĮ":8881,"ĠØ³ÙĦØ§ØŃ":8882,"ologies":8883,"ĠØªØ®Ùħ":8884,"ÙĨÙĤ":8885,"ĠØ¯Ø¨ÛĮØ±":8886,"Ġfile":8887,"ĠØ¨ÛĮÙħØ§Ø±Ø§ÙĨ":8888,"Con":8889,"jo":8890,"pire":8891,"ĠØ¨Ú¯ÛĮØ±ÛĮÙħ":8892,"Ø¬ÙĨØ³":8893,"Ġinteract":8894,"Ġlevels":8895,"Ġrecognized":8896,"ĠServ":8897,"ĠØªÙĪØµÛĮÙĩ":8898,"Ġdepart":8899,"Ġslightly":8900,"Ġspl":8901,"ĠØ¢ÙĨÚ¯Ø§Ùĩ":8902,"ĠÛĮÚ©Ø³Ø§ÙĨ":8903,"ĠMag":8904,"Ġrub":8905,"ĠÙĨØ¯Ø§Ø±ÛĮÙħ":8906,"ON":8907,"ĠÚ¯Ø°Ø±":8908,"see":8909,"iring":8910,"Ġwear":8911,"ĠØ¯Ø§Ø±ÙĨ":8912,"ĠØ³ÛĮÚ¯Ø§Ø±":8913,"Ø¨Ø§Ø²Ø¨ÛĮÙĨÛĮ":8914,"ĠCentral":8915,"Ø±Ø¨ÛĮ":8916,"ĠØ¨Ø±Ø²":8917,"ĠÙĩÙħØ¯ÛĮÚ¯Ø±":8918,"elve":8919,"Ġ26":8920,"Ġtired":8921,"ĠEr":8922,"ĠÙħØªØ£":8923,"ĠØ±ÛĮØ´":8924,"Ġamazing":8925,"ii":8926,"ĠØ´Ø§ÙĨØ³":8927,"Ġpair":8928,"âĢĮâĢĮâĢĮâĢĮâĢĮ":8929,"ube":8930,"ĠÙĪØ§Ùħ":8931,"ĠØ³Ø§Ø¯Ú¯ÛĮ":8932,"Ġunf":8933,"ĠÙĤØ±Ø§Ø±Ø¯Ø§Ø¯":8934,"Ø¹Ø¯Ùĩ":8935,"Ø¢ÙħÛĮ":8936,"Ġrout":8937,"Ġshook":8938,"ĠÙĦÛĮØ³Øª":8939,"ĠØ¨ÙħØ¨":8940,"Ġmultiple":8941,"ĠØ§ÙĪØ¶Ø§Ø¹":8942,"Ú¯Ø±Ø§ÛĮÛĮ":8943,"Ġprovided":8944,"ĠÙĪØ¬":8945,"Ġcart":8946,"ĠÙ¾Ø§ÙĦ":8947,"ĠAsia":8948,"ĠÙ¾Ø±Ø³Ø´":8949,"Ġintegr":8950,"ĠÙħÙĤÛĮ":8951,"ĠØ¯Ø§Øº":8952,"Ġanalysis":8953,"Ġflag":8954,"Ġmethods":8955,"ĠÙħÛĮØ®":8956,"Ġproud":8957,"Ú¯ÙĩØ§ÙĨÛĮ":8958,"ĠØ¨Ø®Ø§Ø·Ø±":8959,"ĠDepartment":8960,"Ġfully":8961,"ĠØ¨Ø±Ùģ":8962,"ĠÚĨÛĮÙĩ":8963,"Ġhighly":8964,"ĠÙħØªÙģØ§ÙĪØªÛĮ":8965,"ĠÙĪØŃØ´ØªÙĨØ§Ú©":8966,"Ø²Ø§Ø¨Øª":8967,"Ġstro":8968,"ĠØ´ÙĩØ±ÙĪ":8969,"ĠÙħÙĪØ¬ÙĪØ¯Ø§Øª":8970,"ĠCour":8971,"Ġcompon":8972,"ĠØ§Ø±Ø§Ø¯Ùĩ":8973,"ĠKar":8974,"Ø¢ÙħØ¯ÙĨØ¯":8975,"Ġbreast":8976,"Ġinvestig":8977,"ĠØ´Ø§":8978,"Ø£Øª":8979,"ĠÛĮØ§Ø¯Ø¯Ø§Ø´Øª":8980,"ĠØ¯ÙĪØ³ØªØ´":8981,"ĠØ§ÙĦÙĩØ§Ùħ":8982,"Ø¯Ø±Ø³":8983,"Ġrough":8984,"ĠÙħØ¹Ø±Ø¶":8985,"ĠÛ²Û´":8986,"ĠØ§Ø®ØªÙĦØ§Ùģ":8987,"AP":8988,"ØŃØ³":8989,"ĠØ§ÙĪÙĩ":8990,"Ġsurprised":8991,"Ġseparate":8992,"pen":8993,"ÑĢ":8994,"Ġsnow":8995,"ĠØ¢ÙģØ±":8996,"ĠBank":8997,"Ġgeneration":8998,"ĠRobert":8999,"ĠØ¯Ø²":9000,"rees":9001,"ĠÙĨÙħØ§Ø¯":9002,"ĠÙ¾Ø±ÙĪÙĨØ¯Ùĩ":9003,"ĠÙħÙĤØ¯Ø§Ø±ÛĮ":9004,"Ġcarriage":9005,"Ġladies":9006,"ĠØ¢Ø±Ø§":9007,"Ġnerv":9008,"Ġconcent":9009,"ÙĦÙĪØ¨":9010,"ĠØ§Ø«Ø¨Ø§Øª":9011,"ĠÙħÛĮÚ©ÙĨØ¯":9012,"Ġtemperature":9013,"Maybe":9014,"ias":9015,"nes":9016,"ĠWell":9017,"Ø±Ø§Ø¨":9018,"Ø´ÙĪØ±":9019,"erved":9020,"Ġpure":9021,"ĠÚ©Ø§Ø±Ùħ":9022,"azine":9023,"Ġlimited":9024,"ĠÙħØ³Ø§Ø¨ÙĤØ§Øª":9025,"ĠØ®ÙĪÛĮ":9026,"ĠÙħØªÙĪÙĦØ¯":9027,"Ø¯Ø§ÙĨÙĨØ¯":9028,"ĠØŃØ±Ø§Ø±Øª":9029,"ĠÙĨØ´ÙĪØ¯":9030,"ÚĨØ·ÙĪØ±":9031,"Ġaspect":9032,"olid":9033,"ĠÙħØªÙħØ±Ú©Ø²":9034,"ĠÛ²Û°Û°Û°":9035,"Ø´ÙħØ§Ø±":9036,"ĠÙĪÛĮÙĦÛĮ":9037,"ading":9038,"Ġhundreds":9039,"ĠØ§ØŃØ³Ø§Ø³ÛĮ":9040,"eds":9041,"ĠØŃØ§Ú©":9042,"ĠØ®ÙĪØ¯Ú©Ø´ÛĮ":9043,"Ġoccurred":9044,"razil":9045,"Ġble":9046,"lege":9047,"ĠØ§Ø³ØªÙĤÙĦØ§ÙĦ":9048,"ĠÙģØ±ÙĤ":9049,"ĠØ¨Ø®ÙĪØ±":9050,"ĠÙĨØ§Ú¯ÙĩØ§ÙĨÛĮ":9051,"ĠÙ¾Ø¯Ø±Ùħ":9052,"ĠScarlett":9053,"ĠMinister":9054,"Ø´ÛĮÙħ":9055,"rodo":9056,"ĠØ°Ú©Ø±":9057,"Ø³ØªÙĪÙĨ":9058,"Ġstyle":9059,"ĠÙħØ³Ø¦ÙĪÙĦÛĮØª":9060,"after":9061,"ĠThey":9062,"ĠÙĤØ§ÙĦØ¨":9063,"Ġnation":9064,"ulations":9065,"ĠWil":9066,"ĠØ®ÙĪØ±Ø´ÛĮØ¯ÛĮ":9067,"ĠØ§Ø¹Ø¯Ø§Ø¯":9068,"emic":9069,"Ġagreed":9070,"ĠØ§ÙĨÚ¯ÛĮØ²Ùĩ":9071,"ĠÙħØ¨ØªÙĦØ§":9072,"ool":9073,"wide":9074,"Ġtransform":9075,"Ġwonderful":9076,"ĠØªÙĪÙĨÛĮ":9077,"ensis":9078,"Ø¯Ø§Ø±Ø§ÙĨ":9079,"ĠØ¯Ø±ÙĪØ§Ø²Ùĩ":9080,"Ġextremely":9081,"Ġmal":9082,"ĠØ¯ÙĪÛĮ":9083,"Ġaltern":9084,"ĠÙħØ³Ú©ÙĪÙĨÛĮ":9085,"Ġexecut":9086,"Im":9087,"25":9088,"ura":9089,"ĠBen":9090,"Ø¨Ø§ÙĦØ§Ø®Ø±Ùĩ":9091,"Ġfamiliar":9092,"Ġtransport":9093,"Ġkinds":9094,"ĠØ²Ø¯Ùħ":9095,"ĠMex":9096,"Ø°Ø§":9097,"Ġcurrently":9098,"Ġsuffering":9099,"gate":9100,"Ø¹ÙĩØ¯":9101,"Ġuseful":9102,"Ġtim":9103,"ĠØ±Ø§Ø³":9104,"ulate":9105,"Ġallows":9106,"ĠMa":9107,"Ø§ÙĨØ¯Ø§Ø²ÛĮ":9108,"ÙģÛĮÙĤ":9109,"ĠØªÙģÚ©Ø±":9110,"Ġelement":9111,"illy":9112,"ĠÚ©ÙħÛĮØªÙĩ":9113,"Ġreceive":9114,"ĠØ¨ÙĩØª":9115,"Ø§ÙħØ±ÙĪØ²":9116,"amond":9117,"lov":9118,"80":9119,"ĠApp":9120,"ĠÙĦÙĪÙĦÙĩ":9121,"ĠÚ©Ø§Ø±Ú¯Ø±":9122,"Ġsole":9123,"ĠFred":9124,"ogle":9125,"ĠÙħØµØ§ØŃ":9126,"ĠØ¢ÙħÙĪØ²Ø´ÛĮ":9127,"Ġnewsp":9128,"Ġcounter":9129,"ĠÙĨÚĺØ§Ø¯":9130,"ÛĮØ²Ùħ":9131,"Ġrat":9132,"Ġune":9133,"Ġsolar":9134,"ĠØºØ°Ø§ÛĮ":9135,"Ġclearly":9136,"ĠÙħÛĮÚ©ÙĨÙĨØ¯":9137,"Ġgod":9138,"ÙĪÙĨÙħ":9139,"urt":9140,"ĠMod":9141,"ĠØ§Ø±ÙĪÙ¾Ø§ÛĮÛĮ":9142,"Ġrespond":9143,"ĠÚ©Ø§Ø±Ú¯Ø±Ø§ÙĨ":9144,"ĠÙĨØ¸ÛĮØ±":9145,"ache":9146,"Ġrooms":9147,"Ġwinter":9148,"ĠHall":9149,"ĠØ¨Ø®Ø§Ø±ÛĮ":9150,"ĠÙĦØ¨Ø®ÙĨØ¯ÛĮ":9151,"Ġforgotten":9152,"Ġcommercial":9153,"ĠÙħØ¹Ø§Ø¯ÙĦ":9154,"ervish":9155,"ĠÙ¾Ø²Ø´Ú©":9156,"Ġhadn":9157,"ĠÙħØªØºÛĮØ±":9158,"Ġpassing":9159,"ĠÙħØ±Øº":9160,"Ġmerely":9161,"ĠØ¯Ø±ÙĨÚ¯":9162,"Ø§ÙĤØ¹":9163,"Ġworry":9164,"Ġsubst":9165,"Ġmoon":9166,"Ġdangerous":9167,"ĠØ¢Ø´Ù¾Ø²Ø®Ø§ÙĨÙĩ":9168,"Ġcup":9169,"ston":9170,"ĠAward":9171,"Ø¢Ø²":9172,"Ġnobody":9173,"ensus":9174,"Ġbelief":9175,"ĠØ®Ø§ÙĨÙĪØ§Ø¯Ú¯ÛĮ":9176,"ipe":9177,"ville":9178,"Ġfed":9179,"ĠÙħØªØ´Ú©Ø±Ùħ":9180,"ĠØ§ÙħØ´Ø¨":9181,"ĠØ±Ø¨Ø±ØªØ§":9182,"Ù¾Ø§ÙĨ":9183,"Ø¹Ø´":9184,"ĠÚ¯ÙĨØ¬":9185,"stead":9186,"ĠØµÙħÛĮ":9187,"ĠÙħÙĪØ§Ùģ":9188,"ements":9189,"Ġexcited":9190,"ÙħÛĮØ¯":9191,"ĠØ®Ø¬":9192,"ĠÙģÙĤØ±":9193,"Ġstupid":9194,"Ø³ÛĮÚ©":9195,"Ġcritic":9196,"ties":9197,"ona":9198,"Ġhar":9199,"ĠØ¯Ø±Ø³ØªÛĮ":9200,"ÙĪØ·Ùĩ":9201,"Ġevolution":9202,"ĠØ§Ø±Ø²ÛĮØ§Ø¨ÛĮ":9203,"rant":9204,"ĠMark":9205,"ĠCont":9206,"Ø¢Ø±ÛĮ":9207,"ĠRiver":9208,"ĠÙĨØ¯Ø§":9209,"ga":9210,"Ø¯ÙĩÛĮÙħ":9211,"Ġrail":9212,"Ġshared":9213,"ĠDar":9214,"peror":9215,"Ġcris":9216,"ĠØ¨Ø§Ø²ÛĮÚ¯Ø±":9217,"Ġvision":9218,"Ġcitizens":9219,"ĠØ§Ø¯ÙĪØ§Ø±Ø¯":9220,"ĠÛ²Û°Û±Ûµ":9221,"Ġconnection":9222,"ĠØ³Ø±Ú¯Ø±Ùħ":9223,"ĠRome":9224,"ĠEup":9225,"ĠÙħØªØ®ØµØµ":9226,"Once":9227,"Mar":9228,"ĠØ³Ø±Ø²":9229,"Ġgrave":9230,"ĠØ«Ø±ÙĪØª":9231,"ĠØ§Ø±Ø³Ø§ÙĦ":9232,"Ø·ÙĦØ¨":9233,"Ø§Ø³Ú©Ø§Ø±":9234,"ĠOne":9235,"Ú©Ø³Ø§ÙĨØ¯Ø±":9236,"ĠØ³Ø±Øª":9237,"ĠGl":9238,"ĠÙĨÙĢ":9239,"Ġhate":9240,"ĠØ´ÙĦÛĮÚ©":9241,"ĠThere":9242,"Ġmostly":9243,"Ġafterwards":9244,"Ġpictures":9245,"enced":9246,"this":9247,"Ġdevice":9248,"fast":9249,"Ġreact":9250,"ĠØ´Ø±Ø·":9251,"ĠÙģÙĦØ³ÙģÙĩ":9252,"Ġresponsible":9253,"Ø§ÙĪØ²":9254,"othe":9255,"Ġamb":9256,"Ø²ÙĨÙħ":9257,"Ġbill":9258,"Ġthirty":9259,"Ġconstit":9260,"Ġahead":9261,"ĠÙĪÙģ":9262,"ĠØ³ÙĤÙģ":9263,"Ġinstruct":9264,"ĠØ¬ÙĪØ§ÙĨØ§ÙĨ":9265,"ĠØ¨Ø®ÙĪØ§ÙĩØ¯":9266,"Ú¯Ø±ÙģØªÙĩ":9267,"Ø§ÙĤØª":9268,"Ġchanging":9269,"ĠÙħØ·Ø§ÙĦØ¹Ø§Øª":9270,"ĠØ¬ÙĦØ³Ùĩ":9271,"ĠÚ©Ø§ÙĦÛĮÙģØ±ÙĨÛĮØ§":9272,"uild":9273,"Ġgal":9274,"ĠÙģØ±ÛĮØ¨":9275,"Christophe":9276,"Ġsides":9277,"Ø¯Ø§Ø®":9278,"Ù¾ÛĮÚĨ":9279,"Ġordered":9280,"ĠÚ©Ø§Ø¨":9281,"ĠØ¯Ø§ÙĨØ³Øª":9282,"rative":9283,"ĠØ¬Ø§Ø¯":9284,"ĠØ¯ÙĪØ§Ø²Ø¯Ùĩ":9285,"ults":9286,"Ġshowing":9287,"ĠØªØ±ÙĪØ±":9288,"ĠÙħÙĦÚ©Ùĩ":9289,"ĠÙģØª":9290,"iments":9291,"Ġroof":9292,"Ġcoast":9293,"mark":9294,"Ø³Ø±ÛĮ":9295,"ĠCat":9296,"oday":9297,"Ġsell":9298,"ĠÙĩØ±ÚĨÙĨØ¯":9299,"Ġtransfer":9300,"Ġaccepted":9301,"Perhaps":9302,"ĠDistrict":9303,"Ġmort":9304,"Ú¯Ø±Ùĩ":9305,"ĠØ±ÙĪØ¨Ø±ÙĪ":9306,"ĠÙħØ¹ÙĦÙħ":9307,"ĠÙĦØ·Ùģ":9308,"andom":9309,"ĠØ´ÙĪØ±Ø§ÛĮ":9310,"ĠÙħØŃØ¯ÙĪØ¯ÛĮØª":9311,"Ġsam":9312,"ÚĨØ´":9313,"ĠÚ©Ø§Ø±Ø¨Ø±":9314,"ĠFin":9315,"itty":9316,"Ġframe":9317,"ĠKingdom":9318,"ÛĮÙĨØ§":9319,"Ġschools":9320,"ĠØ¨Ø°":9321,"Ø§ØªÛĮÚ©":9322,"aming":9323,"ĠØ³Ø§ÙĦÛĮ":9324,"ĠInter":9325,"Ġfailed":9326,"ĠÚĺØ§Ù¾ÙĨÛĮ":9327,"ĠØ¯Ø²Ø¯":9328,"ÙħÛĮØªÛĮ":9329,"inking":9330,"ĠØ§ØµØ±Ø§Ø±":9331,"Ġdistinct":9332,"Ġguy":9333,"ĠÙħØºØ§Ø²Ùĩ":9334,"Ġmale":9335,"ĠFore":9336,"Ġplants":9337,"ĠÙĪØ§Ø¶ØŃ":9338,"Will":9339,"ĠØ¢Ú¯Ø§ÙĩÛĮ":9340,"Ġspoken":9341,"ĠØ¨Ø±Ø§Ø¯Ø±Ø´":9342,"vest":9343,"ĠØªØ²":9344,"ĠØªØ§ÛĮ":9345,"Ġhero":9346,"ĠØ²ÙħØ²ÙħÙĩ":9347,"Ġscr":9348,"ĠÙĨÙħØ§ÛĮØ§ÙĨ":9349,"Ġartist":9350,"ovna":9351,"ĠÙ¾Ø°ÛĮØ±ÙģØª":9352,"ĠØŃØ±Ú©Ø§Øª":9353,"Ø§ÙĩØ¯":9354,"ĠØ§ÙĨØ¹":9355,"ÙĬØ²":9356,"Ġreflect":9357,"Ġscientists":9358,"ĠAssociation":9359,"Yet":9360,"à®":9361,"ĠØ¹Ø±Ø¨ÛĮ":9362,"Ġprograms":9363,"ĠÙĨØµØ¨":9364,"ĠØ§Ø³ÙĦØŃÙĩ":9365,"Me":9366,"Ġmental":9367,"ems":9368,"Ġintended":9369,"Ġperce":9370,"ĠÙĨÚ¯Ø§ÙĩØ´":9371,"ĠØ¨Ø±Ú¯Ø±Ø¯Ø§ÙĨØ¯":9372,"Ø§ÙĦØ¹ÙħÙĦ":9373,"Ġ:âĢĮ":9374,"Ú©ÙĨØª":9375,"Ġflight":9376,"ĠØ§ÙĪÙĨØ§":9377,"ĠÙ¾Ø§ÛĮØ´":9378,"ĠÙ¾ÛĮØ±Ø§ÙħÙĪÙĨ":9379,"Ġdrag":9380,"Ġexperiment":9381,"Ġbul":9382,"Ø®Ø¨Ø±":9383,"ĠÙĩÙħØ§Ùĩ":9384,"ĠØ¹Ø§ÙĦÙħ":9385,"ĠTw":9386,"ĠFather":9387,"Ġscreen":9388,"ĠÙħØ´ØªØ±ÛĮ":9389,"ĠØ±ÙĪØ¨Ùĩ":9390,"Ġflu":9391,"Ġchest":9392,"Ġevident":9393,"22":9394,"Ã¤":9395,"Ġmath":9396,"ÚĨÛĮÙĨ":9397,"Ø¢Ø®Ø±":9398,"ĠØ³Ø±ÙĨÙĪØ´Øª":9399,"Ø®ÙĪØ§Ø¯":9400,"ĠØ®Ø·ÙĪØ·":9401,"ÙĩÙħÛĮØ´Ùĩ":9402,"Ġanybody":9403,"Ġremind":9404,"ĠØ§ÙĦÚ©ØªØ±ÙĪÙĨ":9405,"ĠØªØµØ§Ø¯ÙģÛĮ":9406,"Ġuser":9407,"gl":9408,"Ġears":9409,"uries":9410,"ĠÚ©Ø±Ø¯ÛĮØ¯":9411,"ĠOff":9412,"ocol":9413,"ithecia":9414,"overy":9415,"Ø³Ù¾":9416,"Ø§Ø¯ÙĤ":9417,"Ġforg":9418,"ÙĦØ§Ú©":9419,"ÙĦØ§ÙĤ":9420,"ØºØ§Ùħ":9421,"ĠEupithecia":9422,"inet":9423,"Ġmajority":9424,"Ġdressed":9425,"ĠØ¨Ø§Ùĩ":9426,"verse":9427,"Ġprefer":9428,"ĠØ´ÙĪØ®ÛĮ":9429,"Ġvictim":9430,"Ġdism":9431,"ĠÙħÙĤØ¯Ùħ":9432,"Ġrecently":9433,"Ġdemonst":9434,"zy":9435,"erable":9436,"Ġbrief":9437,"Ġdiss":9438,"Ø§Ø±ÙĩØ§":9439,"ena":9440,"ĠØ§Ø³Ú©":9441,"Ġusers":9442,"ĠUN":9443,"Ġtight":9444,"ĠÚ©Ø§Ù¾":9445,"ĠÚ©Ø«ÛĮ":9446,"ĠÛ²Û±":9447,"Ġfilms":9448,"ĠÙħÛĮÚ©ÙĨÙĩ":9449,"ĠÙĩÙĪÛĮØª":9450,"ĠÙģÙĦÙĪØ±":9451,"ÙĪØ§ÛĮÛĮ":9452,"Ø´Ø§ÙĩÛĮ":9453,"astern":9454,"ĠÚ©ÙĨØ³":9455,"Ġsexual":9456,"ÚĨØ±Ø®Ùĩ":9457,"ĠØ±ÛĮØ¯":9458,"enes":9459,"ĠØµØ¯ÙĩØ§":9460,"ĠÙħØ®Ø§ÙĦÙģØª":9461,"ĠØ«Ø±ÙĪØªÙħÙĨØ¯":9462,"ĠÙĨØ®ÙĪØ§ÙĩÙħ":9463,"ĠØªÙĪØ§ÙģÙĤ":9464,"ĠFirst":9465,"ĠØ¬ÙĪØ±Ø¬":9466,"ĠØ§Ø±Ùħ":9467,"Ø§Ø±ÙĨ":9468,"Ġdrawn":9469,"Ġknock":9470,"ĠÙĨÙĩØ§Ø¯Ùĩ":9471,"Ø±Ø³Ùħ":9472,"Ġdigital":9473,"ĠÚ¯ÙĪÙĨØ§Ú¯ÙĪÙĨ":9474,"Ã§":9475,"Ġsmart":9476,"liament":9477,"ĠØ¨Ú¯Ø°Ø§Ø±ÛĮØ¯":9478,"ĠØ®ÙĨØ¯ÛĮØ¯":9479,"Ġfalse":9480,"ĠØ±ÙĪÙħ":9481,"Ġopening":9482,"ĠØ§Ø³ØªØ¯ÙĦØ§ÙĦ":9483,"Ø§ØªØ§":9484,"olar":9485,"ĠØ®Ø·ÛĮ":9486,"ois":9487,"Ġtor":9488,"ÙĦØ§ÛĮ":9489,"ĠØ§Ø³ØªØ±Ø§ØŃØª":9490,"OR":9491,"ĠJer":9492,"ĠØ¨ÛĮØ´ØªØ±ÛĮÙĨ":9493,"ĠÚ¯ÛĮØ§ÙĩØ§ÙĨ":9494,"ÙħÙĪØ±Ø¯":9495,"ĠÙ¾Ø¯ÛĮØ¯Ùĩ":9496,"ĠÙĩÙħØ²ÙħØ§ÙĨ":9497,"erella":9498,"Ġrefuge":9499,"ĠØ±ØªØ¨Ùĩ":9500,"ais":9501,"ĠÚ©Ø§Ø´":9502,"ĠÚ¯ÙĨØ¯":9503,"Ġbeneath":9504,"Ġreferred":9505,"ĠØ§ÙħÙ¾Ø±Ø§ØªÙĪØ±ÛĮ":9506,"Ġcab":9507,"ĠØ²Ø§ÙĨÙĪ":9508,"Ġweather":9509,"ĠÙĨÙĪÚ©":9510,"ception":9511,"Ġneighbor":9512,"Ġain":9513,"ĠØ¬Ø§ÙĦ":9514,"ĠÚĨØ´ÙħØ´":9515,"Ġwaited":9516,"atabase":9517,"40":9518,"Ú¯ÙĪØ´":9519,"ĠÛ´Û°":9520,"Ġwave":9521,"Ġhast":9522,"Ġclimate":9523,"Ø§Ø³ÛĮÙĪÙĨ":9524,"ĠØ¨Ø±Ø¯Ø§Ø´ØªÙĩ":9525,"ĠØ¯Ø±Ø®Ø´Ø§ÙĨ":9526,"Ġwitness":9527,"gers":9528,"Ø´Ú©ÙĦ":9529,"ÙħÛĮØ´":9530,"ĠØªØ¬Ø²ÛĮÙĩ":9531,"ĠØ±ÛĮØ®ØªÙĩ":9532,"Ġobserv":9533,"ras":9534,"ented":9535,"ĠØ¨Ø§Ø²Ø³Ø§Ø²ÛĮ":9536,"Ġproposed":9537,"ĠTechn":9538,"ss":9539,"Ġapparent":9540,"ĠØ³ÙĨÚ¯ÛĮ":9541,"Ġexplained":9542,"Ġpleased":9543,"ĠØ³Ø±ÙĪÛĮØ³":9544,"ĠØ¯ÙĦØ§ÛĮÙĦ":9545,"Ġscream":9546,"ĠØŃÙĪØ§Ø³":9547,"Before":9548,"ĠØ¨Ø±ÙĪØ²":9549,"Ġhearing":9550,"Ø³ÛĮÙĦÙĩ":9551,"ĠBi":9552,"Ġcoffe":9553,"ĠØªØ±Ú©ÛĮÙĩ":9554,"Ø´ÙĪØª":9555,"ĠÙ¾ÙĩÙĨ":9556,"terday":9557,"ĠBrazil":9558,"ĠRec":9559,"Ġworst":9560,"Ġmatters":9561,"ĠJo":9562,"ĠØªØŃØ³ÛĮÙĨ":9563,"Ġjoin":9564,"FA":9565,"ĠÙĨØ§ÛĮ":9566,"ĠÙĨÚ©ÙĨ":9567,"ÚĨØ³Ø¨":9568,"izab":9569,"Ġapplications":9570,"ĠHam":9571,"ĠØ³Ø§Ú©ÙĨ":9572,"ĠÙ¾Ø§Ø¦ÛĮÙĨ":9573,"ĠThomas":9574,"DP":9575,"Ġhide":9576,"Ġpros":9577,"Ġorganizations":9578,"Ġhole":9579,"ĠCollege":9580,"Ġshadow":9581,"gn":9582,"ÙĦØ§ÛĮÙĨ":9583,"ĠÚ©ÙĢ":9584,"Ġunknown":9585,"ishment":9586,"ĠØ§ØªØŃØ§Ø¯":9587,"ÛĮØ§Ø¯":9588,"Ġodd":9589,"Ġparties":9590,"ĠØµØ¯Ø§ÛĮØ´":9591,"ĠÙĪÛĮØ±ÙĪØ³":9592,"ĠÙĨØµÙģ":9593,"Ø¦ÙĪØ±":9594,"Ġmanaged":9595,"kin":9596,"ĠÙĤØ¨ÛĮÙĦ":9597,"ÙģØ±ÙĪØ¯":9598,"Ġcontains":9599,"ĠØ®Ø§Ø·Ø±Ø§Øª":9600,"Any":9601,"ĠÙħÙĤÛĮØ§Ø³":9602,"Ġ29":9603,"ĠØ²ÙħÛĮÙĨÛĮ":9604,"ĠØ§ÙĨØ¨ÙĪÙĩ":9605,"ads":9606,"ĠGreen":9607,"ĠÙĨØªÙĪØ§ÙĨØ³Øª":9608,"Ġeager":9609,"rical":9610,"spe":9611,"Ø¯Ø§ÙĨÛĮÙħ":9612,"Ġflow":9613,"ĠÙĪØ§ÙĦØ¯ÛĮÙĨ":9614,"aptain":9615,"HE":9616,"ctors":9617,"ulture":9618,"ĠÙĨÙħØ§ÛĮÙĨØ¯Ùĩ":9619,"Ú©Ø§ÙĪÛĮ":9620,"Ġtong":9621,"ĠØªÙħÛĮØ²":9622,"ampions":9623,"ĠØ¨Ú¯ÙĪÛĮÛĮØ¯":9624,"orough":9625,"ĠØ³ÙĪØ±ÛĮÙĩ":9626,"Ġens":9627,"Ø²ÙĨØ¯Ú¯ÛĮ":9628,"ĠÙ¾Ø±ÙĪØªØ¦ÛĮÙĨ":9629,"ĠÚ¯Ø±Ø¨Ùĩ":9630,"ĠØ§Ø³Ø±Ø§Ø±":9631,"ĠØ§ØªØµØ§ÙĦ":9632,"Ġaccident":9633,"ĠÙħÙĨØ¸Ø±Ùĩ":9634,"ĠÙģØ±ÙĪØ´Ú¯Ø§Ùĩ":9635,"Ġduty":9636,"ĠØ§Ø®ØªØ±Ø§Ø¹":9637,"Ø¯ÙĪØ³Øª":9638,"ulous":9639,"ĠÚĨÙĩÙĦ":9640,"ĠÙħÙĪØ§ÙģÙĤØª":9641,"rim":9642,"ĠØ³ÙĨØ¬":9643,"ĠÙģØ§ÛĮÙĦ":9644,"Ġnotes":9645,"Ġconsist":9646,"can":9647,"ĠØªÛĮØ²":9648,"Ġleader":9649,"ÙĤØ¨ÙĦ":9650,"Ġcalling":9651,"ĠÙĨØŃÙĪÙĩ":9652,"Ġsen":9653,"ĠÙĨÛĮÙħÛĮ":9654,"ĠØ°ÙĩÙĨÛĮ":9655,"ĠAtl":9656,"ĠØªØ§ÙĦØ§Ø±":9657,"First":9658,"ÙħØ§Ø±ÛĮ":9659,"Ø¨Ø§Ø¯":9660,"Ġash":9661,"Ġvast":9662,"ĠØ§Ø³ÙĦØ§Ùħ":9663,"Ġbrown":9664,"ĠØªØ¹ÙĦÙĤ":9665,"Ġconstruct":9666,"Ġveh":9667,"ØªÙĤØ±ÛĮØ¨Ø§":9668,"mar":9669,"Ġplat":9670,"ĠÙ¾ÛĮØ´Ø§ÙĨÛĮ":9671,"ĠÙħØ³Ø®Ø±Ùĩ":9672,"Ġstudied":9673,"ĠØªØµÙĪÛĮØ¨":9674,"ĠSocial":9675,"Ġdouble":9676,"Ġmentioned":9677,"ba":9678,"Ġwine":9679,"ita":9680,"Ġconvin":9681,"ĠJac":9682,"izes":9683,"ÙħÙĪÙĤ":9684,"ĠØ¨Ø³ØªÚ¯ÛĮ":9685,"ĠØ¯Ø®ØªØ±ÛĮ":9686,"ĠØªÙĤÙĪÛĮØª":9687,"Ġprior":9688,"Ġorders":9689,"Ġcoffee":9690,"ĠØ±Ø§Ùħ":9691,"fortun":9692,"Ġcultural":9693,"ynam":9694,"mitted":9695,"Ġtour":9696,"ĠÙħØ§ÛĮÙĩ":9697,"ØªÛĮÚ©ÛĮ":9698,"Ġattend":9699,"ĠØ§ÙĨØŃ":9700,"ĠÚ¯Ø±Ú¯":9701,"ĠØºÛĮØ±ÙĤØ§Ø¨ÙĦ":9702,"Ġinstrum":9703,"ĠØ±Ø§ÛĮØ¬":9704,"ĠMycos":9705,"ĠØ§ÙĦÛĮØ²Ø§Ø¨Øª":9706,"phaerella":9707,"ĠÙ¾Ø±ÚĨÙħ":9708,"ĠMycosphaerella":9709,".'":9710,"Ġstated":9711,"ĠØ±ÙĩØ¨Ø±":9712,"ĠÙħÙĢÛĮ":9713,"Ġshoot":9714,"ĠÙħØ³ÙĦØŃ":9715,"athy":9716,"ĠÙħØ±ØªØ¨Ùĩ":9717,"ĠÙĩÙĪØ´ÙħÙĨØ¯":9718,"ĠØ¢ÙĦÛĮ":9719,"ĠØ¨Ø§Ú©ØªØ±ÛĮ":9720,"ĠØ§ÙĪØ¬":9721,"ĠDef":9722,"Ġfru":9723,"Ø¹ÙĨÙĪØ§ÙĨ":9724,"Ø¬ÙĪØ±":9725,"ĠScience":9726,"ĠÙĨØ§ÚĨØ§Ø±":9727,"Ġfifty":9728,"Ġsettled":9729,"ĠÙĩÙĨØ±ÙħÙĨØ¯":9730,"ĠØ¨Ø¯Ø±":9731,"ĠØ¬ÙĪØ§Ùħ":9732,"Ġsignal":9733,"ĠÙĩÛĮØ¯":9734,"aza":9735,"ĠHermione":9736,"ĠCompany":9737,"Ø±ÙĪØŃ":9738,"ĠGold":9739,"anny":9740,"eed":9741,"Ġsch":9742,"entially":9743,"Ġcarefully":9744,"ĠØ¬Ø²Ø¦ÛĮØ§Øª":9745,"Ġlibrary":9746,"Ú©Ø§Ø³":9747,"ĠØ¬ÙĪÛĮ":9748,"ĠØ´ÛĮØ·":9749,"Ġtraditional":9750,"Ġarchitecture":9751,"lymp":9752,"ĠBest":9753,"ĠÚĨØ§Ø±ÙĦØ²":9754,"mn":9755,"ĠØ§Ú¯Ø±ÚĨÙĩ":9756,"Ġmoments":9757,"ĠØ§ÙĤØ§ÙħØª":9758,"Ġmillions":9759,"respond":9760,"ĠÙĪÛĮÙĦÛĮØ§Ùħ":9761,"Never":9762,"ĠØ¯Ú¯Ø±":9763,"Ġdoors":9764,"ĠØ´Ø±Ø§Ø¨":9765,"ĠÛ²Û°Û°Û³":9766,"Ø¯Ø§ÙĨØ³ØªÙĨØ¯":9767,"nik":9768,"esh":9769,"ida":9770,"ĠØ´Ø¨Ø§ÙĩØª":9771,"ĠSund":9772,"Ġlies":9773,"ĠÙ¾Ø±Ø¯Ø§Ø²Ø´":9774,"Ġpresented":9775,"ĠLevin":9776,"ĠØ§Ø®ØªÙĦØ§ÙĦ":9777,"ØŃØ¯ÙĪØ¯":9778,"Ġbought":9779,"Ġhell":9780,"ĠØ§ÙĪÙħ":9781,"Ġvoices":9782,"Thus":9783,"ĠUK":9784,"Ġglance":9785,"ĠÙħØ·ÙħØ¦":9786,"See":9787,"ãĥ":9788,"ÙĩØ±ÚĨÙĨØ¯":9789,"Ġremains":9790,"ĠØ¶Ø±ÙĪØ±ÛĮ":9791,"Ġapplication":9792,"ĠØ¨ÙĪØª":9793,"Ù¾Ø´Øª":9794,"estival":9795,"ÙĩØ±Ú¯Ø²":9796,"ĠØ¹ÙħØ¯":9797,"ĠØ±ÙĪØ³ØªØ§ÛĮÛĮ":9798,"ĠFilm":9799,"EE":9800,"rary":9801,"isco":9802,"Ġmap":9803,"ogether":9804,"Ġdisapp":9805,"Ġabsolutely":9806,"ĠØ§Ø¶Ø·Ø±Ø§Ø¨":9807,"ĠÙĪÙħ":9808,"nding":9809,"Ø§Ø¯ÙĦÙĩ":9810,"Ø¢Ø®":9811,"ĠLatin":9812,"Ġdeveloping":9813,"Ø¯ÙĪØ¨Ø§Ø±Ùĩ":9814,"ĠØ§Ø±ØªØ¨Ø§Ø·Ø§Øª":9815,"ĠÙ¾Ø°ÛĮØ±Ø§ÛĮÛĮ":9816,"Ġhidden":9817,"Ġenorm":9818,"ĠÙĩÙħØ§ÙĨÙĨØ¯":9819,"ĠAnna":9820,"Ġconstruction":9821,"ĠÙ¾Ø°ÛĮØ±ÙģØªÙĩ":9822,"Û²Û°":9823,"win":9824,"Ø¬ÙĩÛĮØ²":9825,"Ġdirected":9826,"Ġoperation":9827,"ĠØ¨ÙĨÛĮØ§Ø¯":9828,"ĠÙ¾Ø§ÛĮØ¯Ø§Ø±":9829,"anc":9830,"Ġsoci":9831,"ĠØ¨ÙĦÙĨØ¯ÛĮ":9832,"ĠØ´ÙĩØ±Øª":9833,"ĠØ§ØŃØªÛĮØ§Ø·":9834,"ĠØªØ¦ÙĪØ±ÛĮ":9835,"ÉĻ":9836,"ĠÛĮØ¯":9837,"ĠØ³ÙĦÛĮ":9838,"Ġhyp":9839,"Ġwaste":9840,"Ġrot":9841,"ĠØ³Ù¾Ø§Ø³":9842,"ĠÙ¾Ø§Ø´":9843,"Ġunit":9844,"Ġproceed":9845,"ĠJane":9846,"ĠØ¬Ø§ÛĮÚ¯Ø§Ùĩ":9847,"ĠØ®ÙĪØ´Ø´":9848,"Ø¯ÙĩÙĨØ¯Ùĩ":9849,"Ġsharp":9850,"ĠÙĩÙħØ§ÙĨØ·ÙĪØ±":9851,"ĠProt":9852,"Sometimes":9853,"net":9854,"ĠØ¯Ø§ÙĨØ´ÙħÙĨØ¯Ø§ÙĨ":9855,"ĠØ®ÙĪØ´ÛĮ":9856,"ĠStreet":9857,"ĠØªÙģÙĨÚ¯":9858,"annel":9859,"Ġfunctions":9860,"Ġperformed":9861,"Ġdying":9862,"ĠÚ©ÙĨÙĨØ¯Ú¯Ø§ÙĨ":9863,"Ġinterrupt":9864,"Ġfourth":9865,"Ġappears":9866,"Ġmoral":9867,"ĠØ´ÙĢ":9868,"ĠSen":9869,"ĠØ§Ø³Ú©Ø§Øª":9870,"Ġpossibly":9871,"ĠÚ©Ø§ÙĨØ§ÙĦ":9872,"Ġpor":9873,"ĠAcad":9874,"estic":9875,"Ġoperating":9876,"Ġcauses":9877,"ĠIslamic":9878,"Ø§ÙħÙĦÙĩ":9879,"osen":9880,"ĠJose":9881,"ÙĨØ´Ø³Øª":9882,"Ġbread":9883,"rep":9884,"ĠØ´Ú©ÙĨ":9885,"ĠÙĩÙĪÙĦ":9886,"ava":9887,"ĠÙĪÙĤÙĪØ¹":9888,"Ġprepared":9889,"ĠRoyal":9890,"ÙĩØ±Ø§ÙĨ":9891,"ĠÙħØ¬ÙħÙĪØ¹":9892,"ĠØ¨Ø³ØªØ±":9893,"ĠØ¹ÙĦÙģ":9894,"ĠØ§ÙĨÙģØ¬":9895,"Ġaren":9896,"AM":9897,"Ġthrew":9898,"ĠØ²Ø§Ø¯Ùĩ":9899,"Ġstared":9900,"Ġexcell":9901,"Ġworkers":9902,"ĠÙħØ±Ø§Ø¬":9903,"ĠØ²Ø®Ùħ":9904,"stein":9905,"ĠØŃÛĮÙĨ":9906,"ĠCO":9907,"Ø¨Ø±ÙĨØ¯":9908,"ĠNow":9909,"Ġrealize":9910,"Ù¾Ø¯ÛĮØ§":9911,"Ġconfess":9912,"ĠØ¢Ùģ":9913,"ĠØ¨Ø±ÙĪÛĮØ¯":9914,"ĠÙĨØ¸Ø§Ø±Øª":9915,"Ġadvent":9916,"Ġdiscover":9917,"Ġfootball":9918,"Ġpicked":9919,"Ġfaster":9920,"Ø§ÙĨØ¯ÙĨ":9921,"ĠØ°Ø±Ùĩ":9922,"197":9923,"ĠÙģØ¯Ø±Ø§ÙĦ":9924,"Have":9925,"ĠVo":9926,"Ġ1960":9927,"ĠØ²ÙħØ³ØªØ§ÙĨ":9928,"Mus":9929,"ĠØ§Ù¾":9930,"Ġsin":9931,"ĠÙħØ²Ø±":9932,"Ġearn":9933,"Ġsuggested":9934,"ÙħØ·Ùħ":9935,"Ġflying":9936,"ĠÚ¯Ø±Ø§Ùģ":9937,"ĠØ§Ø³ØªØ«":9938,"illa":9939,"Ġshame":9940,"ĠØ¨ÙĪØ³ÛĮÙĦÙĩ":9941,"Ø§ÙĪÙĦÛĮ":9942,"Ġcrim":9943,"gal":9944,"pet":9945,"Ġincome":9946,"bridge":9947,"Ġdevices":9948,"ĠØ´ÛĮØ±ÛĮÙĨ":9949,"ĠÙħÙĩØ§Ø¬Ø±Øª":9950,"inite":9951,"Ġactivities":9952,"ĠØ§Ø²Ø´":9953,"ĠÙĤØ¯ÛĮÙħ":9954,"ĠØ§ÛĮÙħÙĨÛĮ":9955,"ĠØ°ÙĩÙĨØ´":9956,"isl":9957,"ĠØªØ§ÙĨ":9958,"ÚĨÙĪØ¨":9959,"Ġalarm":9960,"ĠÙħØ´Ø§ÙĪØ±":9961,"ĠØŃÙĤÛĮÙĤÛĮ":9962,"Ø³ÛĮØ±":9963,"atus":9964,"Those":9965,"ĠStr":9966,"ĠRevolution":9967,"Ġgentlemen":9968,"ĠMount":9969,"Ġcompared":9970,"Ø¯Ø§ÙĨØ´":9971,"Ġ1991":9972,"Se":9973,"omin":9974,"iently":9975,"liv":9976,"Ġwid":9977,"ĠØ§ÙĦÚ¯ÙĪ":9978,"ker":9979,"rier":9980,"Ġrecomm":9981,"ĠØªÙĪØ§ÙĨÙĨØ¯":9982,"Ġcrack":9983,"Ġdirector":9984,"Ġpromise":9985,"Ġwarn":9986,"ĠÙĩØ¯ÛĮÙĩ":9987,"Ġcharm":9988,"ĠJul":9989,"ĠÙĤØ¯Ø±ØªÙħÙĨØ¯":9990,"ĠÙĨÛĮØ§Ø²ÙħÙĨØ¯":9991,"ĠPrin":9992,"ĠÙ¾Ø§Ø¯Ø´Ø§ÙĩÛĮ":9993,"ĠÚ©Ø§Ø±Ø¨Ø±Ø§ÙĨ":9994,"ÙĪØ´Ø§":9995,"ĠØ¨Ø§Ø±ÛĮÚ©":9996,"Ġhes":9997,"ĠOlymp":9998,"ĠÚ¯Ø°Ø§Ø±":9999,"ĠØ®ÙĪØ´ØŃØ§ÙĦÛĮ":10000,"ĠØ®Ø´ÙħÚ¯ÛĮÙĨ":10001,"Ġcrisis":10002,".;":10003,"Ġsaf":10004,"ĠÙħØ®Ø§Ø·":10005,"Ġ1999":10006,"ĠØ®ÙĪØ§ÙĨÙĨØ¯Ùĩ":10007,"acle":10008,"ĠChe":10009,"ieur":10010,"ÙħÙĨØª":10011,"eping":10012,"Ġcommonly":10013,"Ġmission":10014,"urally":10015,"ĠGroup":10016,"Ġserve":10017,"ĠØ¯Ø±ÛĮØ§ÛĮ":10018,"Ġcreating":10019,"ĠØ¨Ø±Ø®ÙĪØ±Ø¯Ø§Ø±":10020,"Ġquarter":10021,"Ġlatter":10022,"ĠØ§Ø³ØªØ¹Ø¯Ø§Ø¯":10023,"ĠØ§ÙĨØ¯Ú©":10024,"Ġfold":10025,"Ø§Ø±Ø§Øª":10026,"Ø§Ø¨ÙĨØ¯":10027,"ĠØµØ§Ø¯ÙĤ":10028,"Ġsust":10029,"Ġcapable":10030,"Ġcapacity":10031,"mas":10032,"ÅŁ":10033,"ĠÙĨÚ©ÙĨÛĮØ¯":10034,"ĠØ§ÙĨØ¨Ø§Ø±":10035,"Ø¨ÛĮØ´":10036,"Ġjustice":10037,"Ġminim":10038,"Ġsuspic":10039,"ander":10040,"ĠØªØ¹Ø·ÛĮÙĦ":10041,"ĠØ¯Ø§ÙħÙĨÙĩ":10042,"ĠGreek":10043,"Ã¨":10044,"Ġrang":10045,"Ġtrick":10046,"ĠÛ¶Û°":10047,"Ġprofessional":10048,"ĠÙģØ±ÙħÙĪÙĦ":10049,"ĠÙħØ´Ú©ÙĦÛĮ":10050,"ĠÙħØ·Ø¨":10051,"ĠÛ²Û°Û°Û´":10052,"Ġofficers":10053,"Ġextraord":10054,"ĠÙĩÙħØ³Ø§ÛĮÙĩ":10055,"Ú©Ø´Ø§ÙĨ":10056,"isms":10057,"Ġasleep":10058,"ĠÂ°":10059,"Ù¾Ø±Ø³Øª":10060,"Ġwhispered":10061,"ĠÛ±Û¹Û¹Û°":10062,"ĠØ§ÙģØ³Ø§ÙĨÙĩ":10063,"Ġcommunication":10064,"ÙĩÙĨÚ¯Ø§Ùħ":10065,"ĠMuseum":10066,"umber":10067,"Ġteach":10068,"Ġquietly":10069,"ĠØ¨ØªÙĪØ§ÙĨÛĮÙħ":10070,"owned":10071,"ĠØ´ÛĮØ·Ø§ÙĨ":10072,"Û³":10073,"ÙĨØ§ÛĮÛĮ":10074,"ĠØ¨ØªÙĪÙĨ":10075,"Ø¸ÙĩØ±":10076,"ÙĨÛĮÚ©Ùģ":10077,"arts":10078,"ĠÙħØªÙĩÙħ":10079,"ala":10080,"omic":10081,"Ġgray":10082,"ĠØ´ÙħØ´ÛĮØ±":10083,"ĠÙĨØŃÙĪÛĮ":10084,"ĠØªØ¦Ø§ØªØ±":10085,"ĠÚ©ÛĮØª":10086,"Ġpaint":10087,"ĠØ§Ø³ØªÙĤ":10088,"Also":10089,"ĠÙħØ¤Ø³Ø³Ùĩ":10090,"ĠPat":10091,"osh":10092,"apole":10093,"ĠØ¹ÙĪØ§ÙħÙĦ":10094,"iar":10095,"Ad":10096,"PD":10097,"ĠHis":10098,"ĠØ¨Ø¯Ø§ÙĨØ¯":10099,"ĠØ±ÙĪØ²Ø§ÙĨÙĩ":10100,"Ġcircumstances":10101,"ĠSat":10102,"ĠØ·ÙĨ":10103,"Ø«Ø§":10104,"itter":10105,"ĠØ¨Ø±ØªØ±":10106,"ĠÙģØ§ÛĮØ¯Ùĩ":10107,"ĠBul":10108,"alog":10109,"ĠØ¯Ø®ØªØ±Ø´":10110,"Ġmountain":10111,"ĠMadame":10112,"wing":10113,"ested":10114,"ÙĦØ§ÙĨØ¯":10115,"ĠÛĮÚ©Ùĩ":10116,"ĠMet":10117,"Ġqual":10118,"ÙĪØ³Ùģ":10119,"ĠÙħØ°Ø§":10120,"Ġfinger":10121,"ĠØ¯Ø±ÙĪÙĨÛĮ":10122,"ĠØºØ±ÛĮØ¨":10123,"ÙĩÙħÚĨÙĨØ§ÙĨ":10124,"ĠÚ¯ÛĮØ¬":10125,"Ġimportance":10126,"Ġeffective":10127,"va":10128,"Ø¯ÙĪØ´":10129,"itated":10130,"ĠØ¢ÙĨØ±Ø§":10131,"onsieur":10132,"ĠØ¯Ø®ØªØ±Ú©":10133,"ĠØŃØ¶Ø±Øª":10134,"ashington":10135,"ÙĪÙħÙĨØ¯":10136,"ĠØªØŃØ±ÛĮÚ©":10137,"Ġaudience":10138,"Ġnuclear":10139,"ÙĦÙħØ§ÙĨ":10140,"Ġcompar":10141,"ÙħÙħ":10142,"Ġkeeping":10143,"Ġbegun":10144,"ĠÙ¾ÛĮØ±Ø§ÙĩÙĨ":10145,"cular":10146,"unched":10147,"Ġwilling":10148,"ĠForce":10149,"Ġaircraft":10150,"ĠØ¯ÙĨØ¨Ø§ÙĦÙĩ":10151,"ĠØŃØ´":10152,"angl":10153,"Ġchallenge":10154,"))":10155,"ĠØ¨Ø´Ùĩ":10156,"Ġdrop":10157,"Ġunable":10158,"ĠÙ¾Ø±ÛĮØ¯Ùĩ":10159,"Ġseconds":10160,"Ġattacks":10161,"Ø§Ú¯ÙĪ":10162,"Ø§Ø±Ùģ":10163,"esp":10164,"Ġtender":10165,"Ġdistingu":10166,"Ġdreams":10167,"ĠAfghanistan":10168,"ĠØ³Ø±Ø²ÙĨØ´":10169,"ĠØ§Ø´ØªÛĮ":10170,"Ġeverywhere":10171,"Ġremoved":10172,"ĠÙģÙĩÙħÛĮØ¯Ùħ":10173,"Ú¯ÙĨØ¯":10174,"Ġflowers":10175,"ĠÙĤØ¶Ø§ÙĪØª":10176,"ĠMichael":10177,"ĠØ§ÙģÚ©ÙĨØ¯":10178,"ĠOrgan":10179,"Ġfurn":10180,"ĠØ¨Ø§Ø³ØªØ§ÙĨ":10181,"Ø¯Ø±Ø®":10182,"ĠÙĦØ§Ø³":10183,"ĠØ®ÙĪØ´Ùħ":10184,"Ġvariety":10185,"Ú¯ÙĪÙĨÚ¯ÛĮ":10186,"Ġapplied":10187,"apoleon":10188,"wers":10189,"Ø§ÛĮØ¹":10190,"ĠØªØ¬ÙĩÛĮØ²":10191,"ĠØ¯ÙĩÚ©Ø¯Ùĩ":10192,"Ġcreature":10193,"ĠØ§Ø´ØªÛĮØ§ÙĤ":10194,"edd":10195,"Ġho":10196,"ÙĪÙĦÛĮÙĨ":10197,"elle":10198,"ĠÛĮÙĦ":10199,"Ø·ÙĦ":10200,"Ġdelic":10201,"ĠÙĨÙĪØ´":10202,"ĠØµÙĦÛĮ":10203,"Ġsuicide":10204,"Ø²ÙĨÙĨØ¯":10205,"ĠØ¨ÙĨÛĮØ§ÙĨ":10206,"ĠØ®Ø±ÙĪØ¬ÛĮ":10207,"Ġdrug":10208,"Ġton":10209,"ĠØ³ÙĨØ¯":10210,"ĠSim":10211,"CH":10212,"CO":10213,"ĠÙħÙĨÙģ":10214,"ĠAp":10215,"ĠØµØ®Ø±Ùĩ":10216,"Ġbridge":10217,"ĠResearch":10218,"ĠØ§Ø³ØªØ®Ø¯Ø§Ùħ":10219,"fa":10220,"yth":10221,"Ø±ÙĪÛĮÛĮ":10222,"Ø²Ø¨Ø§ÙĨ":10223,"Ø¨ÙĦÛĮ":10224,"olas":10225,"ĠØ¨ÙĪØ¬ÙĪØ¯":10226,"ĠØ®Ø¯Ø§ØŃØ§Ùģ":10227,"ĠProvince":10228,"ĠÙĩÙħÙĪÙĨ":10229,"Ġuniversity":10230,"irect":10231,")\".":10232,"ĠØ¨ØªÙĪØ§ÙĨÙħ":10233,"Ø³Ø±Ø§":10234,"ĠØ±Ø¨Ø§Øª":10235,"Ġbow":10236,"Ġpapers":10237,"Ġfalling":10238,"ĠHenry":10239,"ĠØ¬ÙĪØ§ÙħØ¹":10240,"Em":10241,"ĠØ´Ú©Ø±":10242,"ĠBro":10243,"ĠFer":10244,"ÙĦØ¦ÙĪÙĨ":10245,"Ġneare":10246,"cip":10247,"Phil":10248,"ĠCongress":10249,"ĠLouis":10250,"ĠSmith":10251,"ĠHel":10252,"ĠØ¢ÙħØ§Ø±":10253,"ĠØ§Ø³ÙĨ":10254,"Ġotherwise":10255,"Ġrefused":10256,"Ġpleasant":10257,"porary":10258,"Ġnarrow":10259,"Ø§ØªÙĦ":10260,"Ú¯ÛĮØ³":10261,"ĠÙĨÛĮØ§Ø²ÛĮ":10262,"hens":10263,"ĠGoogle":10264,"BS":10265,"ĠÙĨØ±ÙĪ":10266,"ĠÚ©ÙĦØ§Ø³ÛĮÚ©":10267,"ÙĨÚ¯Ø±":10268,"reement":10269,"omer":10270,"Ġsevere":10271,"ĠÙģØ±Ø³":10272,"Ġsomehow":10273,"Ġdistribution":10274,"Ġstairs":10275,"olt":10276,"Ġcontext":10277,"Ġtells":10278,"enth":10279,"Ġpersu":10280,"Ø§ÙĦØ§Øª":10281,"amily":10282,"Ġstir":10283,"ĠAsh":10284,"ĠÛĮÙĪÙĨØ§ÙĨÛĮ":10285,"Ġprimary":10286,"izabeth":10287,"Such":10288,"ØªÛĮÙħ":10289,"bits":10290,"iest":10291,"ĠØªØ§Ø²":10292,"ĠØ¯Ø±Ú¯Ø°Ø´Øª":10293,"ĠØ§ÛĮÙĨØ·ÙĪØ±":10294,"Ġwondered":10295,"Both":10296,"ugg":10297,"Ù¾ÙĨ":10298,"ĠGal":10299,"Ġsake":10300,"ĠØ¨Ø§ÛĮØ³Øª":10301,"Ġappre":10302,"Ġfallen":10303,"Ġrising":10304,"Ġreview":10305,"Ø±Ø§ÙĩÛĮ":10306,"ÙĪØ±ÙĪ":10307,"Ġ2016":10308,"ĠÙģØ¹ÙĦÛĮ":10309,"ĠÙ¾Ø§Ø±ÚĨÙĩ":10310,"Ġcloser":10311,"ÙħØ±Ø§":10312,"ĠØ¢Ø³Øª":10313,"idents":10314,"ĠÙĨØ§ÙħØ²Ø¯":10315,"Ġcrime":10316,"Ġengineering":10317,"Ġnegative":10318,"ĠØ¨ÙħØ§ÙĨ":10319,"ÙĦØ·":10320,"ĠØ¯Ø±Ø¨Ø§Ø±":10321,"ĠÚ¯ÙĪØ±ÛĮ":10322,"ĠNations":10323,"ĠØ³ÛĮØ¨":10324,"Ġends":10325,"ĠØ§Ø¹Ø¯":10326,"alls":10327,"ÙĪØ²Øª":10328,"Ġcontain":10329,"atherine":10330,"Ġcollection":10331,"ĠØ¨Ø§ÛĮ":10332,"ĠÙħØ¹Øª":10333,"99":10334,"Ġbacter":10335,"Ġtool":10336,"omys":10337,"Ø§Ø³ØªÙģØ§Ø¯Ùĩ":10338,"ĠØ¨Ø§ÙĦØ§Øª":10339,"Ġdescend":10340,"Ġpoly":10341,"ĠFranc":10342,"Ġoptim":10343,"Ġadministrative":10344,"ĠØ¯Ø§ÙĨÙĩ":10345,"Ġinput":10346,"ĠØ®ÙĦÛĮ":10347,"Ø³ÛĮØ³ØªÙħ":10348,"ands":10349,"ĠØ±ÙĪÛĮØ´":10350,"ĠÚ©ÙħØªØ±ÛĮ":10351,"ĠÙħØŃÙĪ":10352,"Ø¨Ø®Ø´ÛĮØ¯":10353,"Ġconstant":10354,"Ed":10355,"ua":10356,"Ø²ÛĮØ¯":10357,"Ġpity":10358,"Ġimper":10359,"Ø®ÙĪØ§Ø³ØªÙĨØ¯":10360,"ÙĨØ§Øª":10361,"Ġexer":10362,"Ġsav":10363,"Ù¾Ø³Ø±":10364,"ĠÙĤÙĦØ¨ÛĮ":10365,"Ġyesterday":10366,"Ġutter":10367,"ĠÙģØ§Ø±Øº":10368,"Ú©ÙĪØ³":10369,"ĠÙ¾ÛĮÙĨ":10370,"Ġdogs":10371,"Ġtwelve":10372,"Ġpointed":10373,"ĠØ¨ÙĬ":10374,"inate":10375,"Ø¯ÛĮÚ©":10376,"ĠNot":10377,"Ġdrove":10378,"Ġtouched":10379,"Ġwidely":10380,"jean":10381,"Ø¯ÙĪÙħ":10382,"ĠØ§Ø¯Ø±":10383,"ĠØ±ÙĪØ§ÙĨÛĮ":10384,"ĠAh":10385,"ĠHIV":10386,"ĠÙħØŃÙĦÙĩ":10387,"ĠÙ¾Ø±ÛĮØ¯":10388,"Ø³ÙħÙĩ":10389,"ĠØªØŃÙĤÛĮØ±":10390,"Ġ90":10391,"Ġaston":10392,"father":10393,"ÙģÙĪØ±Ø¯":10394,"Ġwearing":10395,"ĠSil":10396,"ĠTimes":10397,"ĠØ®ÙĪØ´Ø¨Ø®Øª":10398,"ĠÚ¯ÙĪÛĮØ¯":10399,"ĠØ¢Ø³ÛĮØ§":10400,"ĠØ¨ÙģÙĩ":10401,"ĠÙĦØ²":10402,"Ġvent":10403,"Ġreply":10404,"Ġbasis":10405,"ĠÙħØ¬Ø¯Ø¯":10406,"ĠRichard":10407,"Ø±ÛĮØ®Øª":10408,"osis":10409,"ĠØ§ÙħÙ¾Ø±Ø§":10410,"Ġsigned":10411,"ĠÙħØ²Ø±Ø¹Ùĩ":10412,"ÙĩØ§Ùħ":10413,"Ġaside":10414,"umped":10415,"Ø¯ÛĮØ¯Ùħ":10416,"Com":10417,"ĠØ±ÙĪØ³":10418,"akistan":10419,"Ġcorrespond":10420,"ĠØ§ÙĦÚ©ØªØ±ÙĪÙĨÛĮ":10421,"ØºØ°ÛĮÙĩ":10422,"Ñģ":10423,"Ø¯ÛĮØ±":10424,"ÙħÙĨØ³ØªØ§ÙĨ":10425,"ĠÙĨØ¯Ø§Ø¯Ùĩ":10426,"ĠØ§Ø®Ø¨Ø§Ø±":10427,"ĠØ¨Ø¯ÙĩÛĮÙħ":10428,"ĠØ¨ÛĮÙģØªØ¯":10429,"ĠWindows":10430,"TP":10431,"ĠÚ©Ø§Ø±ÙĩØ§ÛĮÛĮ":10432,"ĠØ®ÙĪØ§ÙĩØ±Ø´":10433,"Ġpainting":10434,"ØŃØ¯":10435,"ÙĪØ±ÙĩØ§ÛĮ":10436,"cely":10437,"ĠØªØ¹ÙĤÛĮØ¨":10438,"Ġ70":10439,"Ġshouted":10440,"Ġcous":10441,"ĠØ¨ÛĮØ§ÛĮÛĮØ¯":10442,"ĠÙģØ±Ø§ØªØ±":10443,"ĠÙĨÛĮØ§Ùħ":10444,"Ú©Ø´ÙĨØ¯":10445,"uzz":10446,"ĠÙħØ¯Ø§ÙĪ":10447,"Ø¨ÛĮÙĨÛĮÙħ":10448,"Ġprojects":10449,"ĠÚĨÚ¯ÙĪÙĨÚ¯ÛĮ":10450,"Ø§ØŃØª":10451,"Ġinnov":10452,"Ġcarrying":10453,"mine":10454,"Äģ":10455,"ĠÚ©Ø§ÙħÛĮ":10456,"Ù¾ÙĨØ¬":10457,"ĠØ¨Ø¯ÙĩÛĮ":10458,"ĠØ§Ø¬ØªÙħØ§Ø¹":10459,"ĠÙħØ¬Ø¯Ø¯Ø§":10460,"ĠÙħÛĮØ±":10461,"ĠØ¨Ø§ÙĩØ§":10462,"ĠÙĩÙħÚ©Ø§Ø±":10463,"Ġ\".":10464,"Ġchosen":10465,"ĠÙ¾ÛĮØ´ÛĮÙĨ":10466,"Nothing":10467,"Tom":10468,"ÙĩØ¯Ùģ":10469,"Ġhydro":10470,"Ġanywhere":10471,"Ø§ØµÙĦØ§":10472,"hetic":10473,"ĠÙĨÛĮØ§":10474,"Ġfan":10475,"Ġfran":10476,"atell":10477,"ĠÛ±Û¹Û¸Û°":10478,"ÙĪØªØ±ÛĮ":10479,"ĠØ¯ÙĪÚĨØ±Ø®Ùĩ":10480,"Ġexpressed":10481,"rieved":10482,"ĠØ±Ø£ÛĮ":10483,"cs":10484,"Ġhill":10485,"ĠFrodo":10486,"rous":10487,"ĠØ¬Ø§ÛĮØ´":10488,"Ġoriginally":10489,"ĠÙģØ´Ø±Ø¯Ùĩ":10490,"ĠÏ":10491,"ÙĪØ§Ø³":10492,"ØªØ¹":10493,"ĠØ³ÙĩÙħ":10494,"Ø±Ø¯Ú¯ÛĮ":10495,"ĠÙĤÙģÙĦ":10496,"Ġsuit":10497,"ØªØ±Ø³ÛĮØ¯":10498,"gment":10499,"Ú©ÙĪØ´ÛĮØ¯":10500,"ĠÙ¾Ø±Ùĩ":10501,"ĠLife":10502,"ÙĬÙĦ":10503,"Ġunique":10504,"ĠØ¨ÙĨÙĪÛĮØ³":10505,"Ġcourage":10506,"ĠÙħØ´ØªØ§ÙĤ":10507,"Ġcollege":10508,"Ġefforts":10509,"ĠØ§Ø¹Ø¯Ø§Ùħ":10510,"86":10511,"Ġincl":10512,"Ġpride":10513,"ĠØ³ÙĦØ§ÙħØªÛĮ":10514,"ÙĦØ±Ø²ÛĮØ¯":10515,"Ġthroat":10516,"ĠØªÙĩØ±Ø§ÙĨ":10517,"ĠØ´ÙĨÛĮØ¯Ùħ":10518,"Ġfortune":10519,"ĠÙħÙĪØ§ÙģÙĤ":10520,"ĠØªØ¬Ø¯ÛĮØ¯":10521,"Ġyounger":10522,"Ġdivided":10523,"Ġsuffer":10524,"ĠÙħØ¨Ø§Ø¯Ø§":10525,"ĠØ±Ø¯ÛĮÙģ":10526,"oor":10527,"rol":10528,"ĠEmpire":10529,"iques":10530,"Ġplatform":10531,"32":10532,"ĠÙĪØ§Ø¯Ø§Ø±":10533,"Ġaband":10534,"ĠWomen":10535,"ĠØ§Ø³Ú©ÙĨ":10536,"Ġpoll":10537,"ĠØ³ÙĩØ§Ùħ":10538,"ĠØ§ØŃÙħÙĤØ§ÙĨÙĩ":10539,"yer":10540,"ĠÙģÙĤ":10541,"Ġplans":10542,"Ġsolid":10543,"Ġadvanced":10544,"Ġprogramming":10545,"Ġcomputers":10546,"Ġreduce":10547,"atically":10548,"Ġcodes":10549,"Ġnorthern":10550,"ifying":10551,"Ġknees":10552,"ĠØªØŃÙĪÛĮÙĦ":10553,"ĠØ¢ÙĪØ±Ø¯ÙĨØ¯":10554,"Ġaccomp":10555,"Pl":10556,"Ġban":10557,"lement":10558,"ĠÚĨÙĪØ¨ÛĮ":10559,"ĠØ¨Ø§Ø²Ø¯ÛĮØ¯":10560,"Ġaffection":10561,"ĠØ²Ø¯ÙĨØ¯":10562,"ĠSee":10563,"Ġoperations":10564,"Ġconcerned":10565,"FC":10566,"Ú©Ø±Ø§Ø³ÛĮ":10567,"ĠØ§Ø±Ø¯ÙĪ":10568,"Ø´Ø®Øµ":10569,"Ø¨ØªÛĮ":10570,"ĠØ§ÙħÙĪØ§Ø¬":10571,"Ġlights":10572,"Ġphysic":10573,"Ġsafety":10574,"IA":10575,"ĠØ¢Øª":10576,"illed":10577,"Ø´Ø¯Ùħ":10578,"ĠÙĨÙĪØ§Ø±":10579,"ĠÚ¯Ø±ÙģØªØ§Ø±":10580,"ĠÛ²Û²":10581,"Ġvisual":10582,"Ġcere":10583,"ĠØ¢ÙĨÙĦØ§ÛĮÙĨ":10584,"ĠØ¨Ø§ÙĦØ§ÛĮÛĮ":10585,"ÙĪÙģØ§ÙĨ":10586,"EN":10587,"ÙĪØ¹ÛĮ":10588,"utch":10589,"aya":10590,"amber":10591,"ĠØ³Ø±ÛĮØ§ÙĦ":10592,"Ġcritical":10593,"Ġphilosophy":10594,"Ø§ÛĮØ²":10595,"Ġactions":10596,"hesis":10597,"ĠØªÙħØ§Ø´Ø§ÛĮ":10598,"Ġdifficulty":10599,"ĠOffice":10600,"ador":10601,"ĠÙģÙĪÙĦ":10602,"ĠÙħÙĩØ±Ø¨Ø§ÙĨÛĮ":10603,"Ġbra":10604,"verty":10605,"ĠÙħÙĨØµ":10606,"happ":10607,"Ġprotection":10608,"Ġterrit":10609,"Ø§ÙĨÚ¯Ø§Ø±":10610,"ĠÙħØ®ÙĦÙĪ":10611,"ĠØ§Ø«Ø±ÛĮ":10612,"ĠÙĩØ±ÙħÛĮÙĪÙĨ":10613,"Ú©ÙĦÙĨÛĮÚ©Ùģ":10614,"ĠØ¨ÛĮÙĨÛĮØ¯":10615,"Ġpoverty":10616,"Ø±ÛĮÙĤØ§ÛĮÛĮ":10617,"Ġdescribe":10618,"Ġmovie":10619,"ĠÙħØ¤Ø«Ø±":10620,"ĠÙħÙĦØ§ØŃØ¸Ùĩ":10621,"xford":10622,"ĠÚ©Ø¬Ø§Ø³Øª":10623,"Ø§Ø³Ø±":10624,"ĠØ±Ø§ÙĩÙĨÙħØ§ÛĮÛĮ":10625,"phone":10626,"ĠØ¢ÙĦÙĪØ¯Ùĩ":10627,"razy":10628,"Ø¨Ú¯Ø°Ø§Ø±":10629,"unn":10630,"ÙĨØ§ÛĮ":10631,"Ġsouthern":10632,"edy":10633,"ĠØ®ÙģÙĩ":10634,"ĠØ±ÙĪØ´ÛĮ":10635,"ĠØ±ÙĪØºÙĨ":10636,"ĠStep":10637,"ĠØ¹Ø±ÙĤ":10638,"ĠÛ±Û¹Û°Û":10639,"ÑĤ":10640,"ĠØ¨Ø±ÙĨ":10641,"ĠIP":10642,"Ø±ÙĪØ´":10643,"Ø´ÙĨÛĮØ¯":10644,"Ġexplan":10645,"ĠÙ¾Ø±Ø§Ú©":10646,"ĠHuman":10647,"ĠØªØ±Ú©ÛĮØ¨ÛĮ":10648,"ĠØ§ÙħÙĨ":10649,"ĠTri":10650,"ĠÚ©ÛĮØ³Ùĩ":10651,"Ġdriving":10652,"Ġtomorrow":10653,"ØªÙģ":10654,"Ġgro":10655,"ĠâĢ¦":10656,"Ġsupply":10657,"ĠØ®ÙĦØ§ØµÙĩ":10658,"Ġfrightened":10659,"ĠØ¨Ø±Ø²ÛĮÙĦ":10660,"Ġmaxim":10661,"Ġactual":10662,"ĠØ¬ÙĨØ§ÛĮØª":10663,"ĠÙĦØŃØ¸":10664,"ÙħØ±Ø¯ÛĮ":10665,"Ġlocation":10666,"Ø³Ø§ÛĮØª":10667,"Ú¯ÙħØ§ÙĨ":10668,"Ġheight":10669,"ĠØ®ÙĪØ¯Ø¯Ø§Ø±ÛĮ":10670,"unist":10671,"Ġphysics":10672,"ĠÙħÙĪÛĮ":10673,"leg":10674,"ĠØ¬ÙĪØ±ÛĮ":10675,"ĠAlexandrov":10676,"ĠÙħÛĮÙĪÙĩ":10677,"ĠØ´ØªØ±":10678,"ĠÛĮØ§Ø±":10679,"ĠCas":10680,"ĠØ§Ø³ÛĮØ¯":10681,"ĠØªØµÙĪÛĮØ±ÛĮ":10682,"Ġenormous":10683,"God":10684,"ĠØ±Ø¹":10685,"Ġvia":10686,"Ġpromised":10687,"ĠÚ©Ø§Ø³Øª":10688,"stairs":10689,"ÙħÛĮÙĦÛĮ":10690,"ĠÚ¯Ø°Ø±Ø§ÙĨØ¯":10691,"Ġmachines":10692,"ĠÙħØŃØ¯ÙĪØ¯Ùĩ":10693,"yal":10694,"ÛĮØ±ÛĮ":10695,"ĠØºÙĪÙĦ":10696,"ĠØ§Ø¨Ø¯Ø§":10697,"ÙģØ§Ø¹ÛĮ":10698,"Ġbitter":10699,"ĠØµØ±ÙģØ§":10700,"ĠÙĤØ³ÙħØªÛĮ":10701,"Ø§ÙĨÛĮØ¯":10702,"Ø§ÙĦÛĮØ²":10703,"Ġcounty":10704,"ĠØ¬Ø±Ø£Øª":10705,"ĠØ§ÙħÛĮØ¯ÙĪØ§Ø±Ùħ":10706,"ML":10707,"bel":10708,"ffered":10709,"ĠØ§ÙĨØªÙĤØ§Ø¯":10710,"ĠØ³ÙĪØ¦Ø¯":10711,"Today":10712,"mosp":10713,"Ú©ÙĪÙĩ":10714,"Ø·ÙĨ":10715,"ĠRat":10716,"apes":10717,"ÙħØªØ´Ú©Ø±Ùħ":10718,"ĠØ®Ø·Ø§Ø¨":10719,"Ġ1998":10720,"ØªÙĪÙĨÛĮ":10721,"Ġegg":10722,"ĠÚ©ÙĨÚ¯Ø±Ùĩ":10723,"ĠØºØ±ÙĪØ±":10724,"ĠØ§Ø´ÛĮØ§Ø¡":10725,"Ø³Ø§Ø¯":10726,"ĠÙ¾ÛĮØ¯":10727,"Ġstaff":10728,"iger":10729,"ĠLos":10730,"ÙģØ±Ùĩ":10731,"Ġelection":10732,"Ġexclaimed":10733,"ØµÛĮØ±":10734,"Ø´ÙħØ§Ø±ÛĮ":10735,"Ġdesper":10736,"ĠØªØ¹Ø§Ø¯ÙĦ":10737,"ĠØºÛĮØ±Ùĩ":10738,"ĠJewish":10739,"Ġdefinition":10740,"Ġbirds":10741,"itz":10742,"ĠØ³ÙĢ":10743,"ĠIf":10744,"Ú¯Ø±ÚĨÙĩ":10745,"Ġanger":10746,"ĠÙĨØ¨ÙĪØ¯Ùħ":10747,"Ġprocesses":10748,"Ġmurm":10749,".)":10750,"ses":10751,"vant":10752,"ĠÚ©ÙĦÙĩ":10753,"ĠØ¨Ø¯Ø¨Ø®ØªÛĮ":10754,"Ġunless":10755,"Ġbreakfast":10756,"ĠØŃØ±Ú©ØªÛĮ":10757,"ĠÚ©ÙĨØ¬Ú©Ø§ÙĪÛĮ":10758,"ĠØ³ÙĦØ·ÙĨØªÛĮ":10759,"ĠØªØ¸Ø§Ùĩ":10760,"Ú©Ø±Ø¯ÙĨ":10761,"ĠØ§Ø®ÙĦØ§ÙĤ":10762,"ĠValjean":10763,"64":10764,"Over":10765,"Ø¨ÙĪØ³":10766,"ĠØ¢Ø±Øª":10767,"Ġpages":10768,"ompl":10769,"ĠØ§Ø³ØªØ±":10770,"Ġlots":10771,"ĠØ¨Ø±Ø³Ø§ÙĨØ¯":10772,"ĠÚĨØ±Ø®Ùĩ":10773,"ĠÙħØ¨ØªÙĨÛĮ":10774,"Ġcopy":10775,"ĠPrize":10776,"ĠØ®Ø§Ø·Ø±Ùĩ":10777,"Very":10778,"ĠÚ¯ÙĦÙĩ":10779,"ĠØ§ÙĩÙħÛĮØªÛĮ":10780,"Ġdepth":10781,"ĠØ¯ÙħÙĪÚ©Ø±Ø§Øª":10782,"ĠØ´Ú©ÙĨØ¬Ùĩ":10783,"ĠÙħØ·Ø¨ÙĪØ¹":10784,"amental":10785,"oper":10786,"Ġrandom":10787,"ĠØºØ±ÙĪØ¨":10788,"Ġ2017":10789,"ĠØªØ¬Ø§ÙĪØ²":10790,"Ġdaily":10791,"SS":10792,"Ġocean":10793,"ĠØ§ÛĮÙĨØ³Øª":10794,"ĠØ§Ø³ØªÙĨ":10795,"ĠLong":10796,"ĠTo":10797,"Ġcircle":10798,"Ø¢ÙĦÙĪØ¯":10799,"Ġsem":10800,"ÙģØ±ÙħØ§ÛĮ":10801,"onscious":10802,"ÙħØ¯Øª":10803,"Ġcalls":10804,"ĠÙĤØ´ÙĨÚ¯":10805,"ĠÙĦØ¹":10806,"ovitch":10807,"ĠØ¯ÙĦÛĮÙĦÛĮ":10808,"ĠÙĩÙĢÙħ":10809,"ĠWashington":10810,"Ġaccompl":10811,"Ġidentity":10812,"Ġdare":10813,"ĠØ§Ø³ØªÙĪØ¯ÛĮ":10814,"Ġsuffered":10815,"ĠÙĩÙħÛĮÙĨØ·ÙĪØ±":10816,"Ø¯ÛĮÙħ":10817,"Ø²ÙĨØ§ÙĨ":10818,"Ú¯ÙĪÙĨÛĮ":10819,"ĠÙĨØ§Ú©":10820,"ĠØ¯Ø±ÙħØ§ÙĨÛĮ":10821,"ĠØ²Ø´Øª":10822,"ÙħÛĮØªØ±ÛĮ":10823,"ĠÙħØ³ØªÙĤÛĮÙħØ§":10824,"Ġphotograph":10825,"ĠÙĪØ§Ø´":10826,"ĠÙĪÛĮÚ©":10827,"ĠØ¯Ø±Ø´Øª":10828,"ĠØ¬ÙĨØ§Ø¨":10829,"ĠØ¶Ø¹Ùģ":10830,"ĠÙħØ¯Ø§Ø±Ø³":10831,"ĠÚ©Ø§Ø®":10832,"Ù¾ÙĪØ³Øª":10833,"Ù¾Ø°ÛĮØ±ÛĮ":10834,"ĠØ§Ø³ØªØ±Ø§ØªÚĺÛĮ":10835,"ĠØªØºØ°ÛĮÙĩ":10836,"icago":10837,"Ġregions":10838,"ĠDemocr":10839,"Ġnervous":10840,"ĠRad":10841,"ĠØ´ÙĨØ§Ø³ÛĮ":10842,"Ġsmoke":10843,"Ġgrav":10844,"bly":10845,"ww":10846,"Ġpit":10847,"Ġnarr":10848,"ĠÙĤÙģ":10849,"Ġcommunities":10850,"Ġacid":10851,"Ġburning":10852,"ĠØ´ÙĩØ±ÙĪÙĨØ¯Ø§ÙĨ":10853,"ĠØªØ®ØªÙĩ":10854,"ĠØŃØ§ÙĪÛĮ":10855,"ĠØ¹Ø±ÙĪØ³ÛĮ":10856,"ĠØ¯ÛĮÙĪÛĮØ¯":10857,"ĠØ¯ÙĩØ§ÙĨØ´":10858,"Ġmurder":10859,"Ø¯Ø§Ø³ØªØ§ÙĨ":10860,"Ú©ÙĪØ±":10861,"ĠÚ©ÙĪØ§ÙĨ":10862,"ĠÙĪØµÙĦ":10863,"ĠÙĩØ´Ø¯":10864,"Ø§ÙĤØ¨Øª":10865,"ĠÙ¾ÛĮØ´Ø±ÙģØªÙĩ":10866,"ĠÚ©ÙĦØ¨Ùĩ":10867,"Ġcreation":10868,"ĠØ§ÙħÙĨÛĮØªÛĮ":10869,"Ġcaptain":10870,"ĠØ´Ø§ÛĮØ³ØªÙĩ":10871,"ØµØ¯Ø§":10872,"ĠÙģØ±Ø§Ø²":10873,"Ġproof":10874,"Ġdesk":10875,"ĠØ¹Ø¯Ø§ÙĦØª":10876,"ĠÚ¯Ø±Ø³ÙĨÚ¯ÛĮ":10877,"low":10878,"ĠØ¯Ø§Ø³Øª":10879,"ĠÚ©Ø¬":10880,"ĠÙĨØ¨Ø§":10881,"ĠBur":10882,"ÙĨÛĮÚ©":10883,"ĠProfessor":10884,"Ġzero":10885,"ĠÙħÛĮÚ©ÙĨÛĮÙħ":10886,"ĠCaptain":10887,"rang":10888,"ĠØªÚ©ÙĨÛĮÚ©":10889,"Ġanti":10890,"Ø¨Ø§ÛĮØ³ØªÛĮ":10891,"ØŃØ±":10892,"Ġnodd":10893,"ÙĩØ§ÙĬ":10894,"Ġsolve":10895,"ÙħØ¹ÙħÙĪÙĦØ§":10896,"Ġsevent":10897,"Though":10898,"Ġrequires":10899,"ĠØ§ÙĨØ¯ÛĮØ´ÛĮØ¯":10900,"iable":10901,"zed":10902,"ĠØ§Ø°":10903,"ØŃØªÙħØ§":10904,"ĠØ¯ÙĪÛĮØ¯":10905,"assion":10906,"ĠØ¨Ø±Ø¯Ø§Ø±ÛĮ":10907,"ĠØ§Ø±ØªØ¨Ø§Ø·ÛĮ":10908,"Ġbomb":10909,"ĠØ®Ø³ØªÚ¯ÛĮ":10910,"uts":10911,"Ġconfidence":10912,"Ġtroops":10913,"ĠÙ¾Ø±Ø§Ú©ÙĨØ¯Ùĩ":10914,"Ġaid":10915,"Ġaunt":10916,"ĠÛ±Û¹Û·Û°":10917,"Ġaccur":10918,"annon":10919,"ĠTurkish":10920,"ĠÙĪÙĪØ¯":10921,"Ġbent":10922,"ĠÙĩØ³ØªÙĨ":10923,"ensity":10924,"ĠYes":10925,"Ġadvice":10926,"Ġpolitics":10927,"Ġstayed":10928,"Ġthrow":10929,"Ø³Ø§Ø¹Øª":10930,"Ġdeclared":10931,"Ġinfect":10932,"ĠAri":10933,"Ġsymp":10934,"Ġ1986":10935,"ĠØ§Ø¯Ø¨ÛĮØ§Øª":10936,"ĠØ¯Ø§ÛĮØ±Ùĩ":10937,"ĠÚ©Ø§Ø²":10938,"icy":10939,"ĠÙħÙĩÙħØ§ÙĨÛĮ":10940,"ĠÚ©ØªØ§Ø¨ÛĮ":10941,"Ø¸ÛĮÙħÛĮ":10942,"Ġhotel":10943,"Ġgradu":10944,"Ġpig":10945,"Ġordinary":10946,"Ġcontrast":10947,"70":10948,"kins":10949,"Ġwore":10950,"ÙĤØ§Ø¨":10951,"ĠØ¯Ø±Ø´":10952,"ano":10953,"anded":10954,"ÙĨØ§Ù¾Ø°ÛĮØ±":10955,"ĠØªØ®ÙħÛĮÙĨ":10956,"Ġinitial":10957,"Ø§Ø·ÛĮØ³ÛĮ":10958,"Ġassist":10959,"Ġabsor":10960,"Ġteacher":10961,"ĠØ´Ø§Ø¹Ø±":10962,"Ġtongue":10963,"Miss":10964,"ĠØ¨ÙħÛĮ":10965,"Ø§ØŃØªÙħØ§ÙĦ":10966,"Ġprovides":10967,"Ġindustrial":10968,"yp":10969,"ĠÙħØ¹ÛĮ":10970,"Ġanaly":10971,"Ġblank":10972,"Ġinterpret":10973,"ĠÙħØµØ§ØŃØ¨Ùĩ":10974,"Åį":10975,"ĠÙĨØ¹":10976,"ĠØ¹ÙĨØ§ØµØ±":10977,"Ġtaste":10978,"ĠØ¬Ø§Ø±ÛĮ":10979,"ĠØ´Ø¯ÛĮØ¯ÛĮ":10980,"Ø§ØŃÛĮ":10981,"Gr":10982,"enger":10983,"Ú¯Ø°Ø±Ø¯":10984,"Ġwriter":10985,"Ġlimit":10986,"Ġphen":10987,"Ø§ØªØ´":10988,"Ġforty":10989,"Ġfactors":10990,"arrass":10991,"Ġrapidly":10992,"Ù¾ÙĪÙĦ":10993,"Ø§ÙħÙĦÛĮ":10994,"ĠØªØ¹Ø§ÙħÙĦ":10995,"Ġstaring":10996,"usted":10997,"ĠÙħØ¬Ø³ÙħÙĩ":10998,"Ġprecise":10999,"Ġemotion":11000,"ĠØªÙĤØ§Ø¶Ø§":11001,"ĠØ¯ÛĮØ¬ÛĮØªØ§ÙĦ":11002,"rich":11003,"ĠØªØ³Øª":11004,"ĠØ®Ø§ÙĦÙĩ":11005,"ĠØ¨Ø±Ø³Ø§ÙĨ":11006,"Ġcompleted":11007,"Ġeasier":11008,"urgis":11009,"Ġteaching":11010,"ĠVer":11011,"ĠÙĪØ³ÛĮØ¹":11012,"Ġrecognize":11013,"Ġfault":11014,"Ġdespite":11015,"Ø³ÙĪØ²":11016,"ĠÙĨØ§ÙĦÙĩ":11017,"lease":11018,"ĠÚ©Ø§ÙĦØ¬":11019,"Ġinternal":11020,"rome":11021,"Ġ1994":11022,"bur":11023,"Ø§Ø³Ø§Ø³":11024,"Ġliqu":11025,"ggie":11026,"ÙĦØŃØ¸Ùĩ":11027,"El":11028,"iro":11029,"ÄŁ":11030,"ĠÙĩÙħÛĮØ´":11031,"Ġlaughter":11032,"Ġreject":11033,"ĠØ¨Ø¨ÛĮÙĨÙĨØ¯":11034,"ĠÙħØ±Ø¨Ø¹":11035,"Ġcollabor":11036,"ĠØ¨Ú¯Ùħ":11037,"Ġconsciousness":11038,"Ġconvinced":11039,"acters":11040,"ĠCamp":11041,"ĠPakistan":11042,"ĠØ¯ÙĪØ®ØªÙĩ":11043,"Ø¦Ùħ":11044,"ĠÙ¾ÛĮÚ©Ø±":11045,"ĠØ±Ø¯Ùĩ":11046,"ĠDel":11047,"ĠÛ²Û³":11048,"Ġresearc":11049,"ĠÙĤØ§Ø±Ùĩ":11050,"ĠÚ©ÙĦØ§Ùħ":11051,"ĠØ°Ø±Ø§Øª":11052,"Ġcosts":11053,"Ġinnoc":11054,"ora":11055,"Ġoutput":11056,"aren":11057,"ĠØ¬ÙĨØ³":11058,"uing":11059,"Ø´ØªÙĨ":11060,"Ú¯Ø±Ø§":11061,"Ġdetails":11062,"attered":11063,"Ġunex":11064,"ĠØªØ´Ú©Ø±":11065,"Ġfactor":11066,"Ġfailure":11067,"Ġrobot":11068,"AL":11069,"pired":11070,"sk":11071,"war":11072,"ĠÚ©Ø§ÙĪ":11073,"ĠØĮâĢĮ":11074,"ĠØ³ÛĮØ¯":11075,"Ø§ÙħÙ¾":11076,"ĠCath":11077,"Ġatmosp":11078,"ĠØ´ÙħØ§Ø³Øª":11079,"Ø§ÙģÙĦ":11080,"Ø¯Ø§Ø¯Ùħ":11081,"Ġcheer":11082,"Ġstatus":11083,"ĠÙħÙĤØ§ÙħØ§Øª":11084,"ĠÙĩÛĮØ¯Ø±ÙĪ":11085,"ĠÚĨÙħÙĨ":11086,"Ø±ÛĮØ²":11087,"Ġformal":11088,"worth":11089,"Ø±Ø§Ø³ØªÛĮ":11090,"ĠEconom":11091,"ĠØ§Ø±Ø´Ø¯":11092,"Ġdeeply":11093,"Ø§ÙĨØ¯ÛĮØ´ÛĮØ¯":11094,"Ġstruggle":11095,"Qu":11096,"encies":11097,"alle":11098,"Ġgrey":11099,"ĠØªØ§Ø¬":11100,"esty":11101,"ĠÙħØªÙĤØ§":11102,"Ġphr":11103,"Ġincreasing":11104,"Ġraise":11105,"Ġcredit":11106,"Ġapproximately":11107,"Ġpra":11108,"ØµØ±ÛĮ":11109,"Ú¯Ø±ÙħÛĮ":11110,"Ġcontem":11111,"ĠÙĨÚ¯ÙĩØ¨Ø§ÙĨ":11112,"ĠÚ©Ø§Ø±Ø¨Ø±Ø¯ÛĮ":11113,"SP":11114,"oz":11115,"ĠØ¨Ú©ÙĨÛĮÙħ":11116,"ĠÛĮÚ©Ø´ÙĨØ¨Ùĩ":11117,"ighed":11118,"ĠØ¹ÙħÙĩ":11119,"Ġvisible":11120,"Ġtruly":11121,"Ġirrit":11122,"ĠØ¨ÙĪØ¯Ø¬Ùĩ":11123,"Instead":11124,"Ġ1996":11125,"Ġlaunched":11126,"ĠÙħÙĪÙĦÚ©ÙĪÙĦ":11127,"ĠØ³Ø¹Ø§Ø¯Øª":11128,"Ġafford":11129,"ĠÛ¸Û°":11130,"Ġsymbol":11131,"Ġtheore":11132,"ĠØ§ÛĮÙĨÚ©Ø§Ø±":11133,"ĠÙģÙĪØ±ÛĮ":11134,"Ø¯Ø±Ø¨Ø§Ø±Ùĩ":11135,"ĠFree":11136,"Ġmovements":11137,"ĠØ´Ø¹ÙĦÙĩ":11138,"ĠÙħØ²Ø§ØŃ":11139,"ĠØ¬Ø¯ÙĪÙĦ":11140,"ØªØ®Øª":11141,"Ø§ØªÙĪØ±":11142,"Ġvul":11143,"ĠØ§Ø´ØºØ§ÙĦ":11144,"Ø¬ÛĮØ¨":11145,"Ġaffected":11146,"Ġdestroyed":11147,"Ø§Ø¨ÙĦÙĩ":11148,"Ø¢Ø´":11149,"Ġprove":11150,"ĠØ¹ÙĨØµØ±":11151,"ØªØµÙĪØ±":11152,"Philip":11153,"Ùł":11154,"ĠØ¨Ø§Ø¨Øª":11155,"ÚĺÛĮÙħ":11156,"ĠKe":11157,"Ġseek":11158,"ĠØ±ÙĪØ³ØªØ§":11159,"Ġestablish":11160,"ĠÙĪØ§Ø³Ø·Ùĩ":11161,"Ġextraordinary":11162,"Sp":11163,"Ġing":11164,"Ġcod":11165,"ĠÚ©ÙĨØ§ÙĨ":11166,"ĠØ·Ø±Ø§ØŃ":11167,"ĠÙ¾ÛĮØªØ±":11168,"ĠØ¨Ø®ÙĪ":11169,"ivered":11170,"place":11171,"ipment":11172,"Ġsetting":11173,"ĠJews":11174,"Û²Û°Û°Û":11175,"ĠØªÙĢ":11176,"ĠÚ©Ø§Ø±ÙĦ":11177,"ÙĪÙĦÛĮÚ©":11178,"Ġbusy":11179,"Ġtechnologies":11180,"Ġexchange":11181,"Ġben":11182,"Ø§ÙĦØ¨Ø§":11183,"ÙĪØ±Ú¯ÛĮØ³":11184,"apter":11185,"ĠØ§Ø³Ø§Ø³Ø§":11186,"ĠØ³Ø§ÙħØ§ÙĨÙĩ":11187,"iform":11188,"ĠÙģÚ©Ø±Ø´":11189,"ĠØªÙĤÙĦ":11190,"ĠSea":11191,"ĠØ³Ø§ÙĦØ§ÙĨÙĩ":11192,"ĠØªØ¬Ø±Ø¨ÛĮ":11193,"Ġpassage":11194,"ĠØ³Ù¾Ø±ÛĮ":11195,"SI":11196,"ĠØŃØ³Ø§Ø³":11197,"ÙĦÛĮÚ©ÙĨ":11198,"Ø´Ø§ÙĨØ¯Ùĩ":11199,"aks":11200,"ĠØ§ÙĨØ¯Ø§Ø²":11201,"ĠÚ©ÙħÙĪÙĨ":11202,"Ġengaged":11203,"Ø´Ø±":11204,"ĠÙĪØ¹Ø¯Ùĩ":11205,"Ġseized":11206,"ĠNob":11207,"ÙĤØ§ÛĮÙĤ":11208,"ĠÙħÛĮØ²Ø¨Ø§ÙĨ":11209,"ĠÙģØ±ØµØªÛĮ":11210,"ĠÙĨØ§Ø¯ÛĮØ¯Ùĩ":11211,"Ù¾ÙĨØ¯Ø§Ø´Øª":11212,"ĠÙĨÙĪØ¬ÙĪØ§ÙĨ":11213,"Ġexamples":11214,"ĠGeorg":11215,"Ø¢ÙħÛĮØ²ÛĮ":11216,"ĠTex":11217,"ĠØ¨ÙĨØ§Ùħ":11218,"Ġanxious":11219,"Ġtail":11220,"ĠØªÙĨÙĩ":11221,"ĠØ¢Ø²ÙħÙĪÙĨ":11222,"Ġdiagn":11223,"da":11224,"Ø¬Ø¯":11225,"Ø§ÙĦÙĦÙĩ":11226,"ÙĨÚ¯Ø§Ø±ÛĮ":11227,"ÙĨØ´ÛĮÙĨÛĮ":11228,"ydgate":11229,"ĠØ¨ØµÙĪØ±Øª":11230,"ĠÙģÙĨÛĮ":11231,"ima":11232,"Ġwithd":11233,"ĠFound":11234,"liver":11235,"Ġcycle":11236,"Ġdefend":11237,"ĠØ¢ÙģØ±ÛĮÙĤØ§ÛĮÛĮ":11238,"ĠÅ":11239,"Ġreck":11240,"riff":11241,"Ġchain":11242,"ĠVoices":11243,"ĠØ¯Ø³ØªÙĪØ±Ø§ÙĦØ¹ÙħÙĦ":11244,"Ġhurried":11245,"ĠØ§Ø´Ú©Ø§ÙĦ":11246,"Ġsongs":11247,"Ġdrugs":11248,"even":11249,"Ġfancy":11250,"Ø®ØªÙĨ":11251,"ĠØ³Ø±ÙĪØ±":11252,"ÙģØ±Ùħ":11253,"Ġstarts":11254,"Ġdecide":11255,"Ġnetworks":11256,"ĠÙĩÙħÛĮØ´Ú¯ÛĮ":11257,"iat":11258,"ÚĺØ§ÙĨØ³":11259,"avy":11260,"Ġhumanity":11261,"ĠÙĪØ¶Ø¹ÛĮ":11262,"Ġcharacters":11263,"Ġsinging":11264,"ĠØ§Ø±Ø²Ø§ÙĨ":11265,"Ġhealthy":11266,"Ġbrothers":11267,"ĠØ§ÙĦÚ©ØªØ±ÙĪÙĨÛĮÚ©ÛĮ":11268,"ĠØ¨ÙĨÚ¯":11269,"ĠØ´Ú©Ø§Ùģ":11270,"ĠØŃØ³ÙĨ":11271,"Ø¢ÙĪØ±ÙĨØ¯":11272,"En":11273,"Ø§ÛĮÙģ":11274,"ÙħØ§ÛĮØ²":11275,"ĠØ¯Ø§ÙĨØ´Ú©Ø¯Ùĩ":11276,"ĠØ¬ÙħÙĩÙĪØ±":11277,"ĠØ¸Ø±ÙģÛĮØª":11278,"ĠAcademy":11279,"Ġax":11280,"Ġwet":11281,"Ġcro":11282,"ĠÚ¯ÙĪØ¯":11283,"ĠÛ±Û¶Û":11284,"Ġmetal":11285,"ĠØ±ÙĩØ¨Ø±Ø§ÙĨ":11286,"ĠØŃÙĪØ§Ø¯Ø«":11287,"ĠQuix":11288,"ĠÛĮÙĩÙĪØ¯ÛĮØ§ÙĨ":11289,"ÙĴ":11290,"ĠØ§ÙħØ±ÛĮÚ©":11291,"Ġblow":11292,"ĠÙ¾Ø§ÙĩØ§ÛĮ":11293,"ĠÙĥØ±Ø¯":11294,"Ġadvance":11295,"Ġstructures":11296,"Ġembarrass":11297,"Ġestimated":11298,"arl":11299,"Ġeffic":11300,"ĠÙĩÙħØ¯":11301,"Ġneur":11302,"ĠÚ©ÙĪØ¨":11303,"ÚĨØ´ÙħØ§ÙĨ":11304,"equ":11305,"ãģ":11306,"Ġtum":11307,"Ġtort":11308,"Ú©ÙĢ":11309,"ĠØ§Ø¹ØªØ¨Ø§Ø±":11310,"ĠÚ¯ÛĮØ±ÙĨØ¯Ùĩ":11311,"ĠÙģÙĦØ³Ø·":11312,"Ø§Ø³Ùħ":11313,"Ġbless":11314,"Ġworldwide":11315,"ÙħÙĨØ¸ÙĪØ±Ùħ":11316,"Ġwaves":11317,"ĠØ¯Ø±Ú¯ÛĮØ±ÛĮ":11318,"ĠØ¬Ø±Ø§ØŃÛĮ":11319,"Ġconclud":11320,"Ġmyster":11321,"Ġfigures":11322,"Ġrecorded":11323,"Ġsympt":11324,"Ag":11325,"oma":11326,"ĠÚĨØ§Ø¯Ø±":11327,"ÚĺØ§ÙĨ":11328,"ultural":11329,"ĠArk":11330,"ĠÙħÙĨØ·ÙĤ":11331,"ĠTurkey":11332,"Ù¾Ø±Ø¯Ø§Ø®Øª":11333,"sey":11334,"ĠØ¨Ø§Ø²ÙĪÛĮ":11335,"ĠØ¹ÙħÙĤ":11336,"Ġsets":11337,"ttp":11338,"ĠÙ¾ÛĮÙħØ§ÙĨ":11339,"onic":11340,"Ġcrazy":11341,"ĠØ¬Ø³Ùħ":11342,"ĠØºØ§ÙĦØ¨Ø§":11343,"ĠQuixote":11344,"AD":11345,"Would":11346,"inent":11347,"isp":11348,"Ġfond":11349,"arge":11350,"ĠAre":11351,"ĠMen":11352,"Ġswim":11353,"Ġforever":11354,"ĠØ¹ÙħØ¯ØªØ§":11355,"ĠÙ¾ÙĪÙĨØ¯":11356,"Ø§Ø·Ø¹":11357,"ĠÙĨÛĮØ´":11358,"iency":11359,"ĠØ¢Ø´ÙĨØ§ÛĮÛĮ":11360,"nic":11361,"Ú¯ÛĮÙħ":11362,"Ġfet":11363,"Ġpushed":11364,"ila":11365,"ĠLake":11366,"ĠÚ©Ø§ÙħÙ¾ÛĮÙĪØªØ±ÛĮ":11367,"ĠØ¯ÙħÙĪÚ©Ø±Ø§Ø³ÛĮ":11368,"Ø¯Ø±Ø®Ø´ÛĮØ¯":11369,"ÙħØ±ÛĮ":11370,"ĠØ§ÙħØ§ÙĨ":11371,"ĠÚ¯Ø´":11372,"adian":11373,"Ġstrate":11374,"Ġreplaced":11375,"Ø¬ÙħÙĩÙĪØ±":11376,"ĠØªØ§Ø²Ú¯ÛĮ":11377,"Us":11378,"ĠBor":11379,"ĠÙģØ±Ø§ÙĪØ§ÙĨÛĮ":11380,"Ġpurch":11381,"Ġbasically":11382,"ĠØªØ¬ÙĩÛĮØ²Ø§Øª":11383,"Ġstrategy":11384,"ican":11385,"ĠØ¨Ø±ÛĮÙħ":11386,"ĠØ¬Ú©":11387,"acks":11388,"ĠØ¨Ø®Ø´ÛĮØ¯":11389,"Ġtreated":11390,"ĠØ§Ø¶Ø§ÙģÛĮ":11391,"ĠKorea":11392,"erves":11393,"ellect":11394,"aved":11395,"ĠÙħØ±Ø§Øª":11396,"some":11397,"Ġtal":11398,"ĠØ¯ÙħØ§ÛĮ":11399,"Ġgather":11400,"ĠCap":11401,"ĠØ±ÙĪØª":11402,"ivodes":11403,"ĠÙħØ¯ÙĨÛĮ":11404,"ĠØŃÙħÙĦØ§Øª":11405,"ivodeship":11406,"ĠÙĨÙħØ§ÙĨØ¯Ùĩ":11407,"ĠØ´ÙĦ":11408,"ĠØ¨Ø±Ø§ÛĮØ´Ø§ÙĨ":11409,"ÙħØ§ÙĤ":11410,"ĠBay":11411,"ĠBig":11412,"ĠØ²ÙĨØ´":11413,"ĠÙĤØ·Ø¹Ø§":11414,"ĠÙģÙĦØ²":11415,"ĠÙħØ¬Ø§Ø²Ø§Øª":11416,"ĠØ¨ÙģØ±Ø³Øª":11417,"ĠØ±ÙģÛĮÙĤ":11418,"Ø¯ÙĩÛĮØ¯":11419,"ĠAv":11420,"ÙĨÙħØ§ÛĮØ¯":11421,"Ġfrag":11422,"Ġhorri":11423,"Ġsupported":11424,"ĠÙħØ¬Ø§":11425,"ĠÚ©Ø±ÛĮØ³Øª":11426,"ĠÚ©ÙĨÙĪÙĨÛĮ":11427,"ĠØ³Ø±ÙħØ§":11428,"Ġuncom":11429,"Ġnumerous":11430,"Ġadditional":11431,"Ø¨Ø±ÛĮÙħ":11432,"Ġequival":11433,"Ġfaint":11434,"ĠService":11435,"ĠØ¹Ø±ÙĪØ³":11436,"ĠØ§Ø³Ø¨Ø§Ø¨":11437,"ÙĤÙĦØ¨":11438,"ĠØ¨ÙĩÙħ":11439,"ĠØªÙģØ³ÛĮØ±":11440,"ÙĨÛĮÙħ":11441,"only":11442,"Ġwheel":11443,"Ġsaved":11444,"pective":11445,"ĠØ³ÙĨÚ¯ÛĮÙĨÛĮ":11446,"ĠÙħÚ©Ø²ÛĮÚ©":11447,"Ġ1950":11448,"ĠØ§ÙĤØ¯Ø§ÙħØ§Øª":11449,"Ġlat":11450,"otion":11451,"Ġexhib":11452,"ÙĪØ±ÛĮØ³Ùħ":11453,"Ġclosely":11454,"ĠÙĤÙĦØ¨Ø´":11455,"Ġcandid":11456,"CC":11457,"ÛĮÙĨØ²":11458,"Ø¬ÙĪÛĮÛĮ":11459,"chief":11460,"ĠÛ²Û°Û°Û²":11461,"Ġ1995":11462,"Ġdevil":11463,"ĠÚ©Ø«ÛĮÙģ":11464,"ØªØ§Ø²Ùĩ":11465,"ĠCup":11466,"Ø¨ÙĩÙĩ":11467,"ĠÙħØªØ±ÛĮ":11468,"Ġservant":11469,"ĠBrown":11470,"Ġauthority":11471,"isher":11472,"ĠFace":11473,"ĠÙħØ¹Ø§ÙħÙĦÙĩ":11474,"ĠÚ©ÙĪÚĨÙĪÙĦÙĪ":11475,"mbly":11476,"ĠÙħÙħÙĨÙĪØ¹":11477,"ĠØ¯Ø§ÙĨØ´Ø¬ÙĪÛĮØ§ÙĨ":11478,"ĠÙĪØ¸":11479,"imp":11480,"ĠProject":11481,"ĠSecurity":11482,"ĠØ¨ØºÙĦ":11483,"ÙĪÙĦÛĮØ¯":11484,"Ġunits":11485,"ĠÛ²Û°Û°Û±":11486,"Ġmagazine":11487,"ĠØ¬ÛĮØº":11488,"ĠØªÙĤØ§Ø¶Ø§ÛĮ":11489,"Ġdisappeared":11490,"case":11491,"ĠÚ©ÙĨÙģØ±Ø§ÙĨØ³":11492,"ĠØ±Ø³ØªÙĪØ±Ø§ÙĨ":11493,"Ġeating":11494,"ĠJournal":11495,"Ø´ÛĮÙĨØ¯":11496,"Ġmotor":11497,"zing":11498,"ĠØ¯ÙĪÙĨÛĮ":11499,"inging":11500,"ĠØ¨Ø±Ø§Øª":11501,"ĠØ¬ÙĪØ´":11502,"ota":11503,"ette":11504,"ĠSur":11505,"ĠCP":11506,"soft":11507,"Ġ186":11508,"Ġtraffic":11509,"Ġjudge":11510,"ĠSunday":11511,"Ø§ÛĮÙĦÛĮ":11512,"ĠØ®ÙĪØ¯Ú©Ø§Ø±":11513,"ĠOfficial":11514,"Ġfever":11515,"ĠÙĨØ§Ù¾Ø°ÛĮØ±":11516,"Ġhurry":11517,"Ġcrossed":11518,"ĠVoivodeship":11519,"Bes":11520,"ĠØ¨Ø®ÙĪØ±Ø¯":11521,"ĠØ¯Ú©":11522,"Ø¨Ø³Øª":11523,"Ġwww":11524,"Ġrum":11525,"Ø§Ø´ÛĮÙĩ":11526,"Ġcurious":11527,"ĠÙĪØ±ÙĤ":11528,"ĠWeb":11529,"ampionship":11530,"Ġcig":11531,"ĠØ³Ú©Ùĩ":11532,"ĠÚ©Ø´ÙĪØ±ÛĮ":11533,"ĠØ´ÙĨØ§":11534,"ĠPersian":11535,"OL":11536,"atre":11537,"ĠØ¨ÙĩØ§ÙĨÙĩ":11538,"ĠÙħÙĤØ§Ø¨ÙĦÙĩ":11539,"ĠØªÙĦÙĤÛĮ":11540,"Ġaffairs":11541,"Ġchalleng":11542,"ĠÚ©ÙĪØ´Ø´":11543,"ÙĪÚĨ":11544,"ÙĪÙĤÛĮ":11545,"ĠMic":11546,"akh":11547,"ĠØ¨Ø¯ÙĦ":11548,"osette":11549,"ĠÙħÙĨØ¸Ùħ":11550,"Ġillness":11551,"ĠÙħÙĩØ§Ø¬Ø±":11552,"Ġmedicine":11553,"Ġpowers":11554,"ĠØ¨Ø±ÙĪÛĮ":11555,"ĠØ±ÙģØªØ§Ø±ÛĮ":11556,"Ġacad":11557,"ĠØ¸Ø±ÛĮÙģ":11558,"ĠØ±ÙĪØŃØ§ÙĨÛĮ":11559,"Ġhonour":11560,"Ġcow":11561,"Ġsoil":11562,"ĠØ®Ø§ÙĨÚ¯ÛĮ":11563,"Ġ1997":11564,"Ġsigns":11565,"ĠEmperor":11566,"Ð¾Ð":11567,"Ġminds":11568,"ĠÙħØ±Ø§ÙĤØ¨":11569,"Ġarrested":11570,"Ø®Ø¯ÙħØª":11571,"ĠØ§Ø±Ú¯":11572,"ĠÚ©ÙĪÙĦ":11573,"Ú©Ø§ÙĨØ³":11574,"Ġregret":11575,"ĠCarl":11576,"Ġmissing":11577,"Ø§ÙħÛĮØ¯ÙĪØ§Ø±":11578,"yet":11579,"ĠØ¨ÛĮØ²":11580,"ĠØ§ÛĮÙĢÙĨ":11581,"ĠÙĨØ§Ù¾ÙĦØ¦ÙĪÙĨ":11582,"ÚĨØ§Ø±Ø¯":11583,"urance":11584,"ĠSum":11585,"Ġdespair":11586,"ÙĦØ§ÙĨ":11587,"Ġfasc":11588,"igr":11589,"Ġdecre":11590,"Ġinvited":11591,"ĠMexico":11592,"othea":11593,"vis":11594,"ÙĨÙħØ§":11595,"ØŃØ§Øª":11596,"ĠOld":11597,"ĠØ¨Ø®Ø§Ø±":11598,"ĠØŃØ¯Ø§Ú©Ø«Ø±":11599,"ĠÙ¾ÙĨØ¬Ùħ":11600,"ĠClub":11601,"Ġhistorical":11602,"ĠØ¨Ø·Ø±ÛĮ":11603,"tical":11604,"ÙĦØª":11605,"ĠÙĨÚ¯ÙģØª":11606,"Ġwel":11607,"ĠRights":11608,"ĠØ¢ÙģØ±ÛĮÙĤØ§ÛĮ":11609,"Ġelder":11610,"part":11611,"ĠÙĨØµÛĮ":11612,"ÚĨÙĩØ±Ùĩ":11613,"thur":11614,"Ġkm":11615,"osa":11616,"Ġdozen":11617,"ĠØ¢Ø³Ø§ÙĨÛĮ":11618,"Ġprofound":11619,"Ġburied":11620,"Ġinstitutions":11621,"ĠØŃØ¬Ùħ":11622,"amma":11623,"ĠGood":11624,"log":11625,"ĠØ§ÙĦÙħÙ¾":11626,"ĠØ´Ú©Ùħ":11627,"ĠØ±Ø³ÛĮØ¯ÛĮÙħ":11628,"Ġcurt":11629,"ĠØ§Ø±ÙħÙĨØ³ØªØ§ÙĨ":11630,"ÙģÙĩÙħÛĮØ¯":11631,"Ġreduced":11632,"Ġmistake":11633,"BM":11634,"Ġupper":11635,"Ġconver":11636,"Ġmanage":11637,"Ø§Ø±ØªÙħØ§ÙĨ":11638,"ĠGovernment":11639,"24":11640,"sky":11641,"Ġmurd":11642,"Ġinhab":11643,"Ø¶Ùĩ":11644,"Ġintention":11645,"udge":11646,"ĠÙĨÙħÙĪØ¯Ø§Ø±":11647,"ĠÙħØ§ÙĦÛĮØ§Øª":11648,"Ġmountains":11649,"ĠPalest":11650,"ĠÙħØ¨ÙĩÙħ":11651,"ĠTexas":11652,"³Û°":11653,"Ø§Ø¯ÙħÛĮ":11654,"ĠØ§ÛĮÙĨØ¬Ø§Ø³Øª":11655,"ĠCD":11656,"Ø¢Ø¯Ùħ":11657,"Ġdecades":11658,"culiar":11659,"ĠØ¨Ø¬Ø§ÛĮ":11660,"Ġscri":11661,"ĠØªÙĪØ§ÙĨØ³ØªÙĩ":11662,"Ġembr":11663,"Ġinstinct":11664,"asked":11665,"ĠØ¬Ø³Ø¯":11666,"33":11667,"from":11668,"Ġlit":11669,"ĠElect":11670,"ÙĬØª":11671,"ĠØ¨Ø¯ÛĮÙħ":11672,"Ú¯Ø±Ø¯Ø§ÙĨÛĮ":11673,"ĠÚĨÙĨØ§ÙĨÚ©Ùĩ":11674,"ographic":11675,"Ġhorror":11676,"Ġsequence":11677,"ĠÙĨØ§ÙĤ":11678,"Ġgar":11679,"ØµØ¨ØŃ":11680,"ĠØ±ÙģØªÛĮÙħ":11681,"ĠÙĤÙĦÙħØ±ÙĪ":11682,"ÙĪÛĮØ²":11683,"ĠCivil":11684,"ĠØ·ÙĦØ¨":11685,"ĠØ¨Ø¯ÙĨØ´":11686,"ĠØ´ÙĩØ±Ø¯":11687,"Ġfundamental":11688,"CP":11689,"ĠØ¯Ø´Øª":11690,"ĠÙĦÙħØ³":11691,"ÚĨÙĩØ§Ø±":11692,"Ø°ÛĮØ±Ø¯":11693,"ĠØ§Ú©Ø«":11694,"Ġmic":11695,"Ġgay":11696,"ØµØª":11697,"ĠØ§Ø¬Ø±Ø§ÛĮÛĮ":11698,"Ġcrying":11699,"Ġviolent":11700,"Ġrepresented":11701,"ĠÙĨÙĪØ²Ø§Ø¯":11702,"oration":11703,"ĠSar":11704,"Ġproved":11705,"ĠÛ²Û°Û°":11706,"bey":11707,"Ġ500":11708,"upp":11709,"ĠØ¢Ø¯Ø±Ø³":11710,"Ġstorm":11711,"gend":11712,"ĠÛĮØ§Ø¯Ùħ":11713,"Ġprinciple":11714,"ĠArmenia":11715,"ĠØ³Ø±ØªØ§Ø³Ø±":11716,"Ġye":11717,"ĠPublic":11718,"ĠLet":11719,"Ġcomposed":11720,"Ġcoach":11721,"ĠÙħØ±Ø§ØŃÙĦ":11722,"ĠÙĨØ¯Ø§Ø±ÛĮØ¯":11723,"Ġrevealed":11724,"ÙħÙĪØ±":11725,"Ġfaced":11726,"Ġdign":11727,"ĠÙ¾ÙĪØ±Øª":11728,"Ġunhapp":11729,"Ġstandards":11730,"Ú¯Ø±ÙģØªÙĨØ¯":11731,"ĠÚĺÙĨØªÛĮÚ©ÛĮ":11732,"ĠÙ¾Ø§Ú©Ø³ØªØ§ÙĨ":11733,"Ġreference":11734,"ostov":11735,"Ġpeculiar":11736,"force":11737,"Ġthrown":11738,"Ø¯ÙĪØ´ÛĮØ²Ùĩ":11739,"ÙħØ§Øª":11740,"ÙĦÚ©ÙĨ":11741,"ĠÙĤØ¨Ø±":11742,"udden":11743,"ĠØ¨Ú¯Ø°Ø§Ø±Ùħ":11744,"Ġdamage":11745,"ĠÚ¯Ø´ØªÙĩ":11746,"ĠØ¨ÙĪØ¯ÛĮØ¯":11747,"ÙĪÛĮØ§":11748,"ĠØ¨Ø§Ø²Ø¯Ø§Ø´Øª":11749,"Ø´ÙĨØ§ÙħÙĩ":11750,"ĠVict":11751,"Ġequipment":11752,"Ġstranger":11753,"Ġphenomen":11754,"Ġded":11755,"Ġsection":11756,"ĠØ¯ÛĮÙĪØ§ÙĨ":11757,"Ġremaining":11758,"ĠØ¬Ø²Ø§ÛĮØ±":11759,"ĠÙħØºØ²ÛĮ":11760,"Ø¬Ø±Ø§ÛĮ":11761,"ĠØ´ÙģØ§Ùģ":11762,"ĠØ§Ø³ØªÙĤØ¨Ø§ÙĦ":11763,"ĠÙĩØ´Ø¯Ø§Ø±":11764,"ĠØ§ÙĬ":11765,"Ġshoes":11766,"ĠNapoleon":11767,"Ġimpl":11768,"Ø¢ÙĨØ¬Ø§":11769,"Ġ35":11770,"Ġdecisions":11771,"ĠLeague":11772,"Ġetc":11773,"ĠØ§Ø±ÙħÙĨÛĮ":11774,"Ġpill":11775,"umph":11776,"orders":11777,"ĠÙ¾Ø°ÛĮØ±Ø´":11778,"ĠØªØµØ§Ø¯Ùģ":11779,"ĠØŃÚ©Ø§ÛĮØª":11780,"Ġnations":11781,"Ġstring":11782,"nie":11783,"ÙĨÙĪÙĨ":11784,"Ø³Ø¹ÛĮ":11785,"ĠTor":11786,"lessly":11787,"Ġcontrary":11788,"Ġfrequently":11789,"ronsky":11790,"²Û°":11791,"ĠÙħØ±Ùħ":11792,"ĠØ±ÚĺÛĮÙħ":11793,"Ġpressed":11794,"ÛĮØ¯Ø§ÙĨ":11795,"agrid":11796,"ĠÚ©ÙĪÚĨÚ©ØªØ±":11797,"ĠÙĨÛĮÙħÚ©Øª":11798,"Ġbiggest":11799,"ĠEmma":11800,"cop":11801,"Ø§Ø±Ø³ØªØ§ÙĨ":11802,"Ø§ÙħØ§ÙĨ":11803,"ĠOK":11804,"Ġresistance":11805,"ĠØ¯ÙĪØ³ØªØ§ÙĨÙĩ":11806,"ĠInformation":11807,"Ġclasses":11808,"ĠCommittee":11809,"Br":11810,"Ø«Ùĩ":11811,"ĠLove":11812,"ĠÙĪØ§ÙĤØ¹Ùĩ":11813,"ĠØ³ÙģØ§Ø±Ø´":11814,"ĠPeople":11815,"Ġcamera":11816,"Ġweapons":11817,"vard":11818,"athered":11819,"ØŃØ±Ùģ":11820,"Ġwhale":11821,"ĠÚ¯ÙĪÚ¯ÙĦ":11822,"Ġtrial":11823,"Ġadopted":11824,"Ġtiss":11825,"ĠØ¨Ø¨ÙĨØ¯":11826,"Ġsought":11827,"Ġque":11828,"Ġwrit":11829,"Ġdelay":11830,"ĠÙ¾ÙĩÙĦÙĪØ§ÙĨ":11831,"ÙĪÙĩØ§":11832,"essel":11833,"ĠØ¯Ø§Ø±Ø§ÛĮÛĮ":11834,"Ø¨ÙĩØªØ±":11835,"ĠOpen":11836,"ĠØ±Ø³Ø¯":11837,"Ġoccurs":11838,"ĠØ¨ÙĢØ§":11839,"ĠØ±ÛĮØ§Ø¶ÛĮØ§Øª":11840,"ĠÙĨØ±Ø³":11841,"ĠØ¬Ø§Ø³":11842,"Ġbeings":11843,"Ø±ÛĮØ³":11844,"iders":11845,"ĠØ¨Ø§Ø²Ú¯":11846,"Ø´ÙĨØ§Ø³Ùħ":11847,"ĠØ¢ÙħÛĮØ®ØªÙĩ":11848,"Ġpil":11849,"Ġdynam":11850,"lets":11851,"Ġstress":11852,"ĠÛ²Û·":11853,"Ġpossibility":11854,"ĠÛ²Û°Û±Û¶":11855,"ĠØ¯ÛĮØ±ÙĪØ²":11856,"ĠØªØ®ØªØ®ÙĪØ§Ø¨":11857,"ĠØ®ÙĦÛĮØ¬":11858,"ĠÙħÙĪØ§Ø¸":11859,"ĠØ¯Ø§ÙĨÙħ":11860,"ĠØ¬ØºØ±Ø§ÙģÛĮ":11861,"TS":11862,"mal":11863,"ØªÛĮÙĨ":11864,"ania":11865,"ÙĨÚ¯Ø§Ø±":11866,"ĠÙ¾Ø§Ù¾":11867,"Ġmorrow":11868,"ĠØ¯Ø§Ø³ØªØ§ÙĨÛĮ":11869,"cried":11870,"sm":11871,"ĠØ¬Ø§Ø¨":11872,"Ġarmed":11873,"Ġpersons":11874,"ÙģÙĩÙħÙħ":11875,"Ġaffair":11876,"Ġborder":11877,"oting":11878,"Ġconvent":11879,"ĠØ±Ø§ÙĩØ±ÙĪ":11880,"Ġ31":11881,"Ġproperties":11882,"ĠØ®Ø§ÙĪØ±":11883,"ado":11884,"ĠDervish":11885,"ĠEst":11886,"ĠWood":11887,"ĠØ¨Ø¹Ø¯Ø§Ø²":11888,"Ġdistant":11889,"Ġexperienced":11890,");":11891,"BA":11892,"Ø²Ø±":11893,"Ġmood":11894,"Ø¹Ø§Ø±":11895,"Ġgest":11896,"ĠØ¹Ø¨Ø¯":11897,"ĠÚ¯Ø±ÙħØ§":11898,"Ø®ÙĪØ§Ø³ØªÙĩ":11899,"Ġplayers":11900,"Ġgovernments":11901,"ĠØ³ÙĪÙħÛĮÙĨ":11902,"Ú©Ø§ØªØ±ÛĮÙĨ":11903,"Ġfavorite":11904,"Ġbenefit":11905,"rete":11906,"ĠØ³Ø¯Ùĩ":11907,"Ø§Ø¯ÛĮØ±":11908,"amie":11909,"Ġanyway":11910,"ĠÚ©ÙĦÛĮØ¯ÛĮ":11911,"ĠSyria":11912,"IM":11913,"ÙĪÚ¯Ø±":11914,"Ø³ÙħÛĮ":11915,"ato":11916,"ĠÚ¯Ø°Ø§Ø´ØªÙĨ":11917,"Ġdomestic":11918,"Up":11919,"ĠÙĩÙħØ±Ø§ÙĩÛĮ":11920,"ĠChicago":11921,"Ġbegins":11922,"Ġpreviously":11923,"Ġinstructions":11924,"mother":11925,"ĠØ¯Ø±Ø¢ÙħØ¯Ùĩ":11926,"Ġlunch":11927,"ĠÚ¯Ø§ÙĦ":11928,"ØªÙĪØ¬Ùĩ":11929,"Ġ1992":11930,"ĠØ±Ø§Ø³ØªØ´":11931,"stitution":11932,"ĠCastile":11933,"Ġwestern":11934,"ĠØ®Ø±Ø¯Ùĩ":11935,"Ø§ÙħØ±ÙĪØ²Ùĩ":11936,"ØŃØ±Ú©Øª":11937,"seless":11938,"ĠÙħØ¯Ø§Ùħ":11939,"Ġexpensive":11940,"uilding":11941,"Was":11942,"iated":11943,"Ġcateg":11944,"stone":11945,"ĠIr":11946,"ĠRel":11947,"ĠWork":11948,"ĠÙħØ³Ø§ÙĦÙĩ":11949,"ĠÙĤØ·Ø¹Ø§Øª":11950,"Ġà¤":11951,"ĠØ§ÙĦÙħÙ¾ÛĮÚ©":11952,"23":11953,"ÚĨÚ¯ÙĪÙĨÙĩ":11954,"Ġentrance":11955,"Ø¨ÙĨØ§ÛĮ":11956,"Ġepis":11957,"Ġpounds":11958,"alu":11959,"ĠÚ¯ÙĦÛĮ":11960,"ĠÙħÙĪØ´Ú©":11961,"Ġroll":11962,"ildren":11963,"ĠØ®ÙĦØ§Øµ":11964,"ĠØ¯Ø¨ÛĮØ±Ø³ØªØ§ÙĨ":11965,"Fin":11966,"cont":11967,"ÙĤØ¯":11968,"Ġbrill":11969,"ĠØ¢ÛĮÙĨÙĩ":11970,"ĠPan":11971,"Ġcompetition":11972,"iosity":11973,"45":11974,"riet":11975,"Ø§ÙĤÛĮ":11976,"cycl":11977,"Ġplanning":11978,"ĠØ§Ø¨ØªØ¯Ø§ÛĮÛĮ":11979,"ĠØ¨Ø±Ø®ÙĦØ§Ùģ":11980,"Ġrelatively":11981,"ĠÚ©Ø§Ø³":11982,"ĠØ³ÙĪÙĦ":11983,"Ġimpat":11984,"ĠÙħØ§ÙĩÙĪØ§Ø±Ùĩ":11985,"Ġsubs":11986,"Ø®ÙĨØ¯ÛĮØ¯":11987,"Ġcircu":11988,"Ġliterature":11989,"Tell":11990,"ÙģØµÙĦ":11991,"ĠØ´ÛĮÚ©":11992,"Ġdial":11993,"Ġgain":11994,"Ø¢ÙĨØ§ÙĨ":11995,"throp":11996,"ĠâĻª":11997,"Û´":11998,"Ø§Ø±Ø¯ÛĮ":11999,"ĠÙ¾Ø§ÛĮØªØ®Øª":12000,"ĠØ§ÙĨÚ¯ÙĦÛĮØ³":12001,"Ġgenetic":12002,"ĠÙħØºÙĨ":12003,"ĠÙħÙĨØ¸ÙĪØ±Ùħ":12004,"ÙĨØ®Ø³ØªÛĮÙĨ":12005,"olit":12006,"ĠBa":12007,"ĠJes":12008,"ĠÙħØ¹ÙĨØ§":12009,"Ġstatement":12010,"Ġfavour":12011,"ĠÙħØªÙĤØ§Ø¹Ø¯":12012,"Mad":12013,"ÛĮÙĨØª":12014,"ĠÙĩÙĦÙĨØ¯":12015,"Ø®ØªÙĨØ¯":12016,"ĠÚ©Ø§Ø±Ú©ÙĨØ§ÙĨ":12017,"ĠLady":12018,"ĠØŃØ§ÙĦØ´":12019,"ÙħØ³ÛĮ":12020,"Ġyield":12021,"ĠØ¨ÛĮÚ¯Ø§ÙĨÙĩ":12022,"Ø¯ÛĮÙĤ":12023,"Ġrode":12024,"Ġ45":12025,"Ġrecords":12026,"Ġfifteen":12027,"Ġmathematics":12028,"uddenly":12029,"ĠØ¨Ú©ÙĨÛĮØ¯":12030,"ĠØ¨Ø±Ø¯ÙĨØ¯":12031,"ĠØ´ÙħØ¹":12032,"ĠØªÚ©ÙħÛĮÙĦ":12033,"ĠPot":12034,"ĠÙħØŃØªØ±":12035,"ĠVir":12036,"Ġbringing":12037,"ĠBritain":12038,"ĠCharl":12039,"Ġdawn":12040,"Ø³Ø±Ùĩ":12041,"ĠØ¨ÙĩØ§Ø±":12042,"ĠØ¨ÙĩÛĮÙĨÙĩ":12043,"Ġconcl":12044,"ĠÙħØ§ÛĮØ¹":12045,"Ġwhisper":12046,"nikov":12047,"ĠÚ©ÙĪÛĮ":12048,"iveness":12049,"ĠÙĨØ¸Ùħ":12050,"Ġcompos":12051,"Ġmulti":12052,"ĠSweden":12053,"ĠÙĨÛĮØ§ÙħØ¯Ùĩ":12054,"Te":12055,"Ġhal":12056,"Ø¨Ø§ØŃ":12057,"ooth":12058,"ĠØŃØ§Ø´ÛĮÙĩ":12059,"ĠSing":12060,"ĠMicro":12061,"ĠCons":12062,"ĠÚ©ÙĨÙĪÙĨ":12063,"Ġseriously":12064,"ĠÙħÙĦØ§ÛĮÙħ":12065,"ĠÛ²Û¸":12066,"Ġcenturies":12067,"ĠØ¨Ø²ÙĨÙĨØ¯":12068,"hi":12069,"Ġrom":12070,"ÙĨÙĦ":12071,"ÙĤÙĪÙĦ":12072,"Ġfuel":12073,"Ġlic":12074,"Ġsomewhat":12075,"ĠÙħØ§Ø¯Ø±Ø¨Ø²Ø±Ú¯":12076,"Ġtechniques":12077,"ĠWho":12078,"Ġjobs":12079,"ĠØ¯ÙĪØ±ÛĮ":12080,"Ġfought":12081,"Ġbrand":12082,"Ø®ÛĮØ§ÙĦ":12083,"ĠØ±ÛĮØ³Ú©":12084,"Ġguys":12085,"ĠNews":12086,"ĠTracy":12087,"ĠØ¬Ø±ÛĮ":12088,"Ġservants":12089,"ammad":12090,"ĠElizabeth":12091,"ĠØ´ÙĦÙĪØ§Ø±":12092,"Ġmobile":12093,"Ø§ÙħÛĮÙĨ":12094,"Ġchildhood":12095,"Ø±ÙģØªÙħ":12096,"ipping":12097,"21":12098,"sect":12099,"ĠØ¹Ø·":12100,"Ø¨Ø±Ø§Ø¯Ø±":12101,"Ġagric":12102,"Ġsoftly":12103,"ĠArmenian":12104,"Ġquantum":12105,"About":12106,"Ġmeat":12107,"Ġride":12108,"raham":12109,"Three":12110,"Ġuncertain":12111,"Ġbond":12112,"asp":12113,"ĠØ¯ÛĮÙħÛĮØªØ±ÛĮ":12114,"ĠÙħØ¹Ø¬":12115,"Ġfoc":12116,"ĠÙĨÙģØ¹":12117,"Ġelected":12118,"Ġdriven":12119,"ĠSuper":12120,"ĠØ¨ÙĨØ´ÛĮÙĨ":12121,"ÙĪÙĨÚ¯":12122,"ĠÙĦÚ©Ùĩ":12123,"ØºÙĦÛĮ":12124,"Ġrelationships":12125,"Ġurban":12126,"Later":12127,"water":12128,"ÙĨØªÛĮØ¬Ùĩ":12129,"Ø¨Ú©":12130,"eling":12131,"Ġjump":12132,"ĠØ¹ÙħØ§Ø±Øª":12133,"Ġpron":12134,"ĠÙ¾Ø§ÙĨØ²Ø¯Ùĩ":12135,"Ġfruit":12136,"Dr":12137,"Ġsatell":12138,"ĠÙĩØ±Ø§Ø³":12139,"lend":12140,"ensions":12141,"Ġconserv":12142,"ĠØ®ÙĪØ§Ø³ØªÙħ":12143,"Ġargument":12144,"Ġsisters":12145,"Ġwounded":12146,"ĠØ§Ø³ØªØ¹":12147,"ĠJim":12148,"Ġgrat":12149,"ĠÙħØ§ÙĨØ¯ÙĨ":12150,"ĠØ¬Ø¯Ø§Ú¯Ø§ÙĨÙĩ":12151,"Ú¯ÙģØªÙĩ":12152,"ĠØ´Ø¨Ø§ÙĨÙĩ":12153,"ĠØ¢Ø´ÙģØªÙĩ":12154,"Ġflood":12155,"ĠØ¨Ø§ÙĩÙĪØ´":12156,"Take":12157,"ĠØ§Ú©Ø³ÛĮ":12158,"ÙĩØ§Øª":12159,"ĠÙħÙĨØ§ÙģØ¹":12160,"Ġfeature":12161,"Ġenvironmental":12162,"Ġcomfortable":12163,"AF":12164,"ĠÚ©ÙĩÚ©Ø´Ø§ÙĨ":12165,"Ġvote":12166,"ĠØ¨Ø§Ø²ÙħÛĮ":12167,"Ġclin":12168,"ĠÙĨÙħØ§ÛĮÙĨØ¯":12169,"ĠÙħØ±ÙĪØ±":12170,"ĠØ¯ÙĨØ¨Ø§ÙĦØ´":12171,"Ġclever":12172,"Ġhandsome":12173,"ĠÚ¯ÛĮØ±ÙĨØ¯":12174,"ĠØ²ÛĮØ³ØªÛĮ":12175,"CR":12176,"Ġshel":12177,"Ġsail":12178,"ĠØ§ÙħØ±ÙĪØ²ÛĮ":12179,"Ġsorts":12180,"cules":12181,"Ġsoldier":12182,"ĠÙħØ§ÛĮÚ©":12183,"ĠØ®ÙĨÚ©":12184,"ĠØ¨ÛĮÙĩÙĪØ¯Ùĩ":12185,"ĠØ§ÙĨÙģØ¬Ø§Ø±":12186,"Ġow":12187,"ĠÛ±Û¹Û¶Û°":12188,"Ġconsists":12189,"Ġartists":12190,"Ġsolutions":12191,"Ġcomment":12192,"Ø¦ÙĦ":12193,"Ú©Ø±Ø¯ÛĮ":12194,"ĠNik":12195,"ĠØ§ÙĨØªÙĤØ§Ùħ":12196,"Ġsatisfied":12197,"ĠÙħÚ¯ÛĮ":12198,"ĠÙĩÙħØ¬ÙĨØ³":12199,"Ġ\"*":12200,"Ġcolon":12201,"Ġrefers":12202,"ĠHealth":12203,"Ġtrip":12204,"Ġindependence":12205,"ÚĨÙĤØ¯Ø±":12206,"ĠÙģØ§Ø¬":12207,"ØªØ±ÙĪ":12208,"Ġsyn":12209,"ĠÙħÙĪØ¶ÙĪØ¹ÛĮ":12210,"Ġbigger":12211,"ĠØ´ÙĪØ±Ø´":12212,"ĠÙ¾ÙĩÙĦÙĪÛĮ":12213,"jan":12214,"such":12215,"ĠØ¯ÙĬ":12216,"ĠÚ¯ÙĪØ¦ÛĮ":12217,"ĠØŃØ§Ú©Ùħ":12218,"ĠJoseph":12219,"Americ":12220,"inem":12221,"inating":12222,"itement":12223,"Ġfant":12224,"arly":12225,"Ġpin":12226,"Ø¹ÙĦÛĮ":12227,"ĠÙĤØµÙĩ":12228,"ĠÚ©Ø§Ø±Ùĩ":12229,"Ġexha":12230,"Ú¯Ø²ÛĮØ±":12231,"Ġsubsequ":12232,"Ġminor":12233,"Ġbehavi":12234,"ĠØ¬Ø§ÙĦØ¨ÛĮ":12235,"Ġlod":12236,"Ø¸Ùħ":12237,"opher":12238,"ĠØ¢ÙĤØ§ÛĮØ§ÙĨ":12239,"Ġbottle":12240,"ĠØ¢Ø³ØªØ§ÙĨÙĩ":12241,"Ú©ÙĪÙĨ":12242,"ĠØ¨ØªÙĪØ§ÙĨ":12243,"Ø®Ø¯Ø§ÛĮ":12244,"rix":12245,"ĠEv":12246,"Ġglanced":12247,"Ġedition":12248,"Ġmarked":12249,"Ġprobability":12250,"ishes":12251,"ĠØ¢ÙĨØ¬":12252,"Ġrates":12253,"Ġ188":12254,"ØªÙĨØ§Ø¨":12255,"Ġrestrict":12256,"Ġstronger":12257,"Ġyard":12258,"Ø¢ÙĨØ§":12259,"ĠMarius":12260,"Ġdetermine":12261,"Ge":12262,"Ûµ":12263,"ÙħÙĨØ¯ÛĮ":12264,"cel":12265,"ĠØ¨Ø±Ø§ÛĮØªØ§ÙĨ":12266,"ĠÙħØ¬Ø§Ø²ÛĮ":12267,"Ġemph":12268,"ĠSecret":12269,"Bl":12270,"ĠØ´Ø±ÛĮÚ©":12271,"Ġvessel":12272,"Ġintellect":12273,"ĠØ®ÙĪØ´Ø¨Ø®ØªÛĮ":12274,"Ġpurs":12275,"ĠØºÙĦØ·":12276,"ĠØ¢ÙĪÛĮØ²Ø§ÙĨ":12277,"Besides":12278,"ĠØ¨Ø§ÛĮØ³ØªÛĮ":12279,"alph":12280,"ĠAwards":12281,"Ġmyst":12282,"ĠÚ¯Ø±ÚĨÙĩ":12283,"Ġyours":12284,"Ġimpression":12285,"ĠØ¹ÙĤØ§ÛĮØ¯":12286,"ounce":12287,"ĠÙĨÙģØ±ÛĮ":12288,"Ġtrave":12289,"ĠØ¬Ø´ÙĨÙĪØ§Ø±Ùĩ":12290,"ĠÙħØ³Ø§ÙģØ±Øª":12291,"Ġsucceeded":12292,"ĠCourt":12293,"Ġnative":12294,"ĠØ¸ÙĩÙĪØ±":12295,"asket":12296,"ĠØ¨Ø±Ú¯Ø´ØªÙĩ":12297,"ĠAngeles":12298,"Ġunexpected":12299,"ĠÚ©ÙĨØ¯Ùĩ":12300,"Ø²ÛĮØ³Øª":12301,"ĠÛĮØ§Ø±ÛĮ":12302,"ĠGand":12303,"ĠRob":12304,"ishop":12305,"azz":12306,"Ġinspired":12307,"ĠØªÙĦØ®":12308,"ĠMusic":12309,"Ġclaimed":12310,"ĠÙĪÛĮØ¯Ø¦ÙĪ":12311,"ĠØªØ¶ÙħÛĮÙĨ":12312,"ĠØ®Ø¬Ø§ÙĦØª":12313,"Ġashamed":12314,"Ø§Ø±Ú¯Ø§ÙĨ":12315,"Ġbath":12316,"ĠÙħØ¬Ø³Ùħ":12317,"ĠØ¯ÙĪØ±ØªØ±":12318,"Ø¨ÙĦØ¯ÙĪØ±":12319,"ĠØ®ÛĮØ³":12320,"ĠØªÙģØ±ÛĮØŃ":12321,"ĠPhilos":12322,"Ġobvious":12323,"ĠØªÙĨØ¯ÛĮ":12324,"Ġreform":12325,"ĠØ·Ø±":12326,"ÙĩØ±ÙħÛĮÙĪÙĨ":12327,"rene":12328,"ĠIslands":12329,"ĠØµØ¨ØŃØ§ÙĨÙĩ":12330,"Ġregarded":12331,"Ġprinciples":12332,"Ø·Ø¨ÙĤ":12333,"ĠÚ©Ù¾ÛĮ":12334,"ĠØ±ÙĪÙħÛĮ":12335,"ĠØ¯ÛĮØ¯ÙĨØ¯":12336,"ĠYour":12337,"Ú¯ÛĮØ±Ùħ":12338,"ĠÙĪØ±Ø§ÙĨØ³Ú©ÛĮ":12339,"ĠØ§Ø³ÙħØ´":12340,"ĠÙħØ±ÛĮØ¶":12341,"Ġkissed":12342,"Ú¯Ø²Ø§Ø±Ùħ":12343,"ĠØ·ÙĨØ§Ø¨":12344,"ĠØ±Ú¯":12345,"ĠØ®Ø§Øª":12346,"ĠMunicipality":12347,"orted":12348,"ĠÙĨÙĪØ¨Øª":12349,"Ġforehead":12350,"ĠØ¹ÙħÛĮÙĤÛĮ":12351,"ĠØªØ¯Ø±ÛĮØ¬":12352,"Ġprotein":12353,"ĠØ¨ÚĨ":12354,"Ġisol":12355,"Ġacquaint":12356,"ĠCy":12357,"ĠÙĦØ±Ø¯":12358,"rav":12359,"ĠÙĨØ¯Ø§Ø±ÛĮ":12360,"ĠØªØ§Ø¨ÙĦÙĪ":12361,"tr":12362,"ÙĦÙĨØ¯ÛĮ":12363,"Ø´ÙĪÛĮÙħ":12364,"iffe":12365,"Ġdece":12366,"ĠFamily":12367,"Ġunw":12368,"icking":12369,"Ġfollows":12370,"theless":12371,"Ġbackground":12372,"ĠØ®Ø±ÙĪØ¬":12373,"Music":12374,"ĠØ¬Ø¨ÙĩÙĩ":12375,"ĠØŃØ§Ú©ÛĮ":12376,"ĠSub":12377,"Ġrou":12378,"ĠWhy":12379,"Ġreports":12380,"ĠÙħØ¨ÙĦØº":12381,"livier":12382,"Ġmarch":12383,"ĠØ®ÙĪÚ©":12384,"ĠÙ¾ÛĮØ§ÙĨÙĪ":12385,"velopment":12386,"ĠÙĨØŃÙĪ":12387,"Ġlogic":12388,"ĠØ¯Ø§ÙĨØ´ÙħÙĨØ¯":12389,"Ø¢Ø®Ø±ÛĮÙĨ":12390,"PS":12391,"ØªÙĪÛĮ":12392,"ĠÙĩØ±Ø¯ÙĪ":12393,"ĠÙħÙĪÙĤØª":12394,"Ġapproached":12395,"Ġrequest":12396,"Ġteachers":12397,"Ġresponsibility":12398,"ĠÙĪÛĮØ¯Ø¦":12399,"fall":12400,"ÙħÙĪØ¯":12401,"ĠØ§Ø¯Ùħ":12402,"Ø´Ø±Ú©Øª":12403,"ĠÙĦÚ¯":12404,"ĠØ¨Ø§Ø²ÙĨØ´":12405,"cipl":12406,"ĠÙ¾Ø±ÙĨØ¯Ú¯Ø§ÙĨ":12407,"ĠÚ¯Ø±ÙģØªÛĮÙħ":12408,"Ġbrains":12409,"Ġactor":12410,"Ġgoods":12411,"ĠØªØ£Ú©ÛĮØ¯":12412,"ĠØ¢Ø³ÙĪØ¯Ùĩ":12413,"ĠÙħØ§Ø±ÛĮÙĪØ³":12414,"Ġliterally":12415,"Ø³Ø®":12416,"ĠÚ©Ø±Ùħ":12417,"Ġfate":12418,"ĠÙĩØ±Ú¯ÙĪÙĨÙĩ":12419,"ĠÙħØ·ÙĦÙĤ":12420,"Ġstudio":12421,"ĠÚ©ÙĦÙħØ¨ÛĮØ§":12422,"ĠØ²Ø®ÙħÛĮ":12423,"cest":12424,"ĠØ®ÙĢ":12425,"ĠØ²Ø§ÙĨ":12426,"ĠØ¹Ø¨Ø§Ø±ØªÙĨØ¯":12427,"Ġnodded":12428,"pal":12429,"Ġtear":12430,"âĢĮ:âĢĮ":12431,"ĠØ®Ø±Ø§":12432,"ÙģØªÚ¯ÛĮ":12433,"Ø±Ø³Ø§ÙĨØ¯":12434,"ĠÙ¾ÛĮØ±ÙĪØ²":12435,"ĠØ±Ø§ÙĨÙĨØ¯Ú¯ÛĮ":12436,"Ġdeliver":12437,"ĠLibrary":12438,"ØªØ¹Ø¯Ø§Ø¯":12439,"Ġgathered":12440,"urse":12441,"ĠØ¨ÛĮØ³ØªÙħ":12442,"ĠØ±Ø³Ùħ":12443,"Ġconfused":12444,"ĠÙ¾Ø±Ø³ÛĮØ¯Ùħ":12445,"ĠÙĪØ±Ø²Ø´ÛĮ":12446,"ĠØ¹ØµØ¨Ø§ÙĨÛĮØª":12447,"ĠØ²Ø§ÙĪÛĮÙĩ":12448,"otic":12449,"ĠØ¹Ø¸ÛĮÙħÛĮ":12450,"Ġshaking":12451,"ĠÙħØŃÙĪØ·Ùĩ":12452,"ova":12453,"Ġappointed":12454,"Ġcolumn":12455,"ĠÙħØŃÛĮØ·ÛĮ":12456,"Ġhoped":12457,"Ġoccupied":12458,"Ġsymptoms":12459,"adium":12460,"ĠLin":12461,"ĠNich":12462,"Ġdiscovery":12463,"Ġï»":12464,"Gen":12465,"Ø§ÚĨ":12466,"term":12467,"unction":12468,"Ġgoals":12469,"ĠØ¯Ø§ÙħÙĨ":12470,"ĠÛ¹Û°":12471,"ĠØ±Ø§Ø¯ÛĮÙĪ":12472,"aul":12473,"awn":12474,"Ø§Ø®ØªÛĮØ§Ø±":12475,"Ġhanded":12476,"ĠØ¬ÙĪØ§Ø¨ÛĮ":12477,"ĠComput":12478,"ĠÙĨÚ©Ø±Ø¯Ùħ":12479,"Ġdriver":12480,"ĠMinistry":12481,"ĠÙħØ£ÙħÙĪØ±ÛĮØª":12482,"Sim":12483,"orial":12484,"ĠØ´ÙĪÙĤ":12485,"Ġnoted":12486,"Ø§ÙĪØ§":12487,"Ġdegrees":12488,"ĠØ¢ÙĪÛĮØ®ØªÙĩ":12489,"ĠÚ©Ø±Ø§":12490,"ĠAk":12491,"Ġperman":12492,"ĠStu":12493,"Ø±Ø§ÙģØ±Ø¯":12494,"ĠÙĪØ¶ÙĪØŃ":12495,"Ġinfinite":12496,"ĠCanadian":12497,"ĠØ±Ø§ÙĨÙĨØ¯Ùĩ":12498,"Ġastron":12499,"ĠÙ¾ÛĮÚĨÛĮØ¯Ú¯ÛĮ":12500,"Ġwedd":12501,"Ġcas":12502,"Ġpush":12503,"ĠBas":12504,"Ġworn":12505,"Ġflower":12506,"Ġ978":12507,"Ġnaturally":12508,"DA":12509,"ÛĮÙĪ":12510,"Ø¨Ø§ÙĨÙĩ":12511,"Ø®Ø·":12512,"irmed":12513,"amin":12514,"emen":12515,"ÙĬÙĩ":12516,"ĠØ¨Ø¯Ø¨Ø®Øª":12517,"Ġcommitted":12518,"ĠÚ©ÙĨØ§Ø±Ø´":12519,"Ú¯Ø°Ø§Ø±ÙĨØ¯":12520,"Ġbreaking":12521,"Ġclock":12522,"Ġsteel":12523,"US":12524,"hand":12525,"mond":12526,"Ġsan":12527,"ĠÙĩÙĪØ³":12528,"icing":12529,"ĠLittle":12530,"Ġhousehold":12531,"Ġkilling":12532,"Ġlayer":12533,"ĠÙĨÙĪÛĮØ³ÙĨØ¯Ú¯Ø§ÙĨ":12534,"Ġstrike":12535,"point":12536,"Ø¯ÙĩØ§ÛĮ":12537,"hett":12538,"stro":12539,"Ġunp":12540,"Ġunlike":12541,"Ġapply":12542,"ĠÛ²Û¶":12543,"Ġcrew":12544,"ĠÙĦØ±Ø²Ø§ÙĨ":12545,"Ġalternative":12546,"cyclop":12547,"Ø¨ÙĪÙĨ":12548,"ĠÙħØ¹ÙĦ":12549,"Ġagreement":12550,"ÙĨÙĪØ§Ø®Øª":12551,"Ġdrunk":12552,"Ġillust":12553,"Ġexcitement":12554,"ĠGenus":12555,"ĠØªØŃØµÛĮÙĦØ§Øª":12556,"ĠØªØ¯Ø±ÛĮØ³":12557,"ÙħØªØ±":12558,"Ġproced":12559,"ĠFr":12560,"ĠØªÙĨØ´":12561,"ĠÙĨÛĮÙĪ":12562,"Ġadmit":12563,"Ġexcellent":12564,"ãĤ":12565,"Ġlosing":12566,"Ġrelief":12567,"Û±Û³Û":12568,"Ġvolume":12569,"ĠÛ·Û°":12570,"Ġtradition":12571,"ĠØ¨ÙĪØªÙĩ":12572,"ef":12573,"ĠØ¨Ø®Øª":12574,"ĠÙ¾ÙĦÛĮ":12575,"icks":12576,"Ġdifferences":12577,"Ġincor":12578,"ĠØ¹Ø°Ø§Ø¨":12579,"Ġoxy":12580,"Ġneighborhood":12581,"Ø²Ø§Ùħ":12582,"ĠØ±ØŃÙħ":12583,"Ġgri":12584,"ĠMother":12585,"ĠRue":12586,"ĠØ³ÙĪØ§Ø±ÛĮ":12587,"Û±Û¸Û":12588,"Ġmassive":12589,"Ġheavily":12590,"Ġwire":12591,"ĠØ±ÙĪØ¨ÙĦ":12592,"agues":12593,"Ġexists":12594,"ĠâĢİ.":12595,"Ġskills":12596,"ĠØ§ÙĦÙĩÛĮ":12597,"Ġcruel":12598,"ĠØªØ®Øµ":12599,"Ġgiant":12600,"ÙĩØ§ÛĮÙħØ§ÙĨ":12601,"ĠØªÙĪÙĩ":12602,"Ġvague":12603,"ĠØ¨Ø¯Ø§ÙĨÙħ":12604,"Ġplane":12605,"ĠØ³ÙĪØ³ÛĮ":12606,"ĠØ¬ÙĨØ¨":12607,"ĠÙĥØ§Ø±":12608,"Ġgrandfather":12609,"ĠÚ©ÙħÙ¾Ø§ÙĨÛĮ":12610,"ÅĤ":12611,"ĠÙĨÙĪÙħ":12612,"Ġdull":12613,"acles":12614,"Ø®ÙĪØ§Ø±":12615,"ĠÙħÙĤØ§Ø¯ÛĮØ±":12616,"ĠØ´ÙĩØ±ÙĩØ§":12617,"Ġnewspaper":12618,"anie":12619,"ĠØ¹Ø§ÙĤÙĦ":12620,"Ġplate":12621,"ĠÙĨÙħØ§ÛĮÙĨØ¯Ú¯Ø§ÙĨ":12622,"Ġfacts":12623,"ĠØ·ÛĮÙģ":12624,"Ġdiseases":12625,"Ġalgorithms":12626,"EL":12627,"writ":12628,"ÙĨÛĮØ±":12629,"ĠØŃØ±ÙĪÙģ":12630,"ĠÙħØ·Ø§ÙĦØ¨":12631,"Ġships":12632,"ĠÙħÙĨØŃØµØ±":12633,"Ġignor":12634,"OK":12635,"Ø®Ø§ÙĨ":12636,"ĠÚ¯ÛĮÙĦ":12637,"Ġstones":12638,"ĠÙĦØ§Ø±ÛĮ":12639,"ĠÙħÙĪØ«Ø±":12640,"ĠÙĪØ¬ÙĪØ¯Ø´":12641,"ĠØ¨Ø±Ø¯Ø§Ø±Ø¯":12642,"Ġowned":12643,"Ġattribut":12644,"Ġphase":12645,"ĠÙ¾Ø¯Ø±Ø¨Ø²Ø±Ú¯":12646,"ĠÚ©Ø§ØªÙĪÙĦÛĮÚ©":12647,"Ġportra":12648,"ĠIntelligence":12649,"ĠÙħÙĨØ§Ø³Ø¨ÛĮ":12650,"ÙĪØ§Øª":12651,"ØªØ§Ø±ÛĮ":12652,"Ġinner":12653,"ĠÙĪÛĮÙĨØ¯":12654,"Ġflesh":12655,"Ġobst":12656,"ĠØªØŃÙĤÛĮÙĤØ§ØªÛĮ":12657,"Ġbranch":12658,"iy":12659,"ĠÙħÛĮÚ©Ø±Ø¯":12660,"ĠØ§ÙĨÚ©Ø§Ø±":12661,"ĠØ´Ú©Ø§ÛĮØª":12662,"Ġsustain":12663,"ĠÙĪÚ©ÛĮÙĦ":12664,"ĠØŃØ¨Ø³":12665,"ĠOb":12666,"Ġelectrical":12667,"ĠØµØ±ÙģÙĩ":12668,"Ġabsence":12669,"Everything":12670,"Ġfrequency":12671,"ØªÚ©":12672,"ÛĮÙħÙĨ":12673,"Ġintellig":12674,"Ġspin":12675,"ĠØ´Ø®ØµØ§":12676,"Ġcuriosity":12677,"Ã³w":12678,"ĠÚ©Ø´ØªÙĨ":12679,"ĠNatasha":12680,"ÙĤÙĪÙĩ":12681,"ĠØ§ÙģØªØ¯":12682,"ÙħØ¹ÙĦÙĪÙħ":12683,"Ġprisoners":12684,"Ġdrinking":12685,"Ġanxiety":12686,"Ġpaused":12687,"Ġscarcely":12688,"Ġcousin":12689,"nor":12690,"ĠÙ¾Ø´ÛĮÙħ":12691,"Ġstiff":12692,"Ø¢ÙģØ±":12693,"ĠØ¢ÙħØ¯Ùħ":12694,"ĠÙħØ±Ø¯ÙĩØ§":12695,"ĠÙĨÛĮØ³ØªÛĮ":12696,"ĠØ§Ø´ÙĦÛĮ":12697,"Ġcreatures":12698,"ĠØ´Ú¯ÙģØªÛĮ":12699,"ĠÙĨØ§Ø²Ú©":12700,"ĠÙĨØ¨":12701,"ĠØ¨Ø§Ø²Ø±Ú¯":12702,"Ġacting":12703,"ologist":12704,"Ġsimpl":12705,"Ġfriendly":12706,"Ġlifted":12707,"Ġelectricity":12708,"ĠÙħØ±Ø§ØªØ¨":12709,"ĠØ®ÙĪØ§Ùħ":12710,"cknow":12711,"ĠØªØ±ÙĪØ±ÛĮØ³Ùħ":12712,"ĠThen":12713,"ĠØ®Ø·Ø§":12714,"Ġdemon":12715,"Ġstepped":12716,"ĠScot":12717,"Ġprimarily":12718,"ĠÙĨØ§Ø´ÙĨØ§Ø®ØªÙĩ":12719,"Ġexplanation":12720,"hus":12721,"occ":12722,"ĠDu":12723,"ĠUr":12724,"Ġbedroom":12725,"ĠØªØ®Ø±ÛĮØ¨":12726,"Ú©ÙĦÛĮÙģ":12727,"Ġsatisfaction":12728,"Ġvictory":12729,"ĠØ¨Ø®ÙĪØ§Ø¨":12730,"ÙĦØ°Ø§":12731,"ĠÙħÛĮØ¯ÙĪÙĨ":12732,"Ġpuzz":12733,"ĠØ§ÙĦÙħØ§Ø³":12734,"Ú©ÙĦØ§ÛĮØ¯":12735,"Ú¯Ø±Ø¯ÛĮØ¯":12736,"ĠØ³Ø§Ø¨ÙĤÙĩ":12737,"ĠØ¢Ø±Ø²ÙĪÛĮ":12738,"ĠFoundation":12739,"bitt":12740,"ĠÚ©ÛĮØ³Øª":12741,"ØµÙĪØ¯":12742,"ĠPo":12743,"ĠÙħØ¹Ø°":12744,"ĠØ§Ø¬ØªÙĨØ§Ø¨":12745,"ĠØ¨Ø³Ø§Ø²ÛĮÙħ":12746,"Ġinterests":12747,"ĠÙĦØ§ØºØ±":12748,"Ġhoriz":12749,"Ġsons":12750,"Ġkil":12751,"ĠÙģØ±Ú©Ø§ÙĨØ³":12752,"Ġfeels":12753,"ĠÙ¾Ø±ØªÙĪ":12754,"ĠØ¨Ú¯Ø°Ø§Ø±ÙĨØ¯":12755,"ÙģØ±ÙĪØ´":12756,"28":12757,"host":12758,"ype":12759,"ĠØ¨Ø§Ø±Ø¯":12760,"ĠØ´Ø´Ùħ":12761,"Ø¢Ú¯Ø§Ùĩ":12762,"Ġworried":12763,"ĠJeff":12764,"ĠÙĨÙĪØ§Ø²Ø´":12765,"ĠÙĨÙĪØ§ØŃÛĮ":12766,"ificial":12767,"Ġsword":12768,"Ġsentence":12769,"ĠØ¨Ø¯Ø§ÙĨÛĮØ¯":12770,"Ġbalance":12771,"Ġequivalent":12772,"ĠÙħÛĮØ±Ø§":12773,"Ġfart":12774,"Ġstor":12775,"osha":12776,"Ġresolution":12777,"Ø§Ø¹Ø¯Ùĩ":12778,"Ġfinish":12779,"anguage":12780,"ĠÙħØ±ØªÚ©Ø¨":12781,"Û²Û°Û":12782,"Ġidentified":12783,"Ġdemocracy":12784,"Ġatmosphere":12785,"IR":12786,"ĠÙħÚ¯":12787,"Ġbits":12788,"ĠÙħÛĮØ¯Ùĩ":12789,"Ø§ÙĩÙĪ":12790,"ĠØªØ±Ø¨ÛĮØª":12791,"ĠÙ¾Ø±ÙĪÙģØ³":12792,"ĠØ³Ø·ÙĪØŃ":12793,"Ġpriest":12794,"Ġtrembling":12795,"ĠØ¯Ø±ÙħÙĪØ±Ø¯":12796,"ario":12797,"Ġchose":12798,"Ġprem":12799,"ĠÙģØ§Ø±Ø³ÛĮ":12800,"ĠØºØ±ÛĮØ¨Ùĩ":12801,"27":12802,"orter":12803,"ĠHT":12804,"ĠØ¬Ø²Ø¡":12805,"ĠÚ¯Ø°Ø§Ø´ØªÙĨØ¯":12806,"ĠØµÙĨØ§ÛĮØ¹":12807,"Ġcomponents":12808,"ĠÚ¯Ø²ÛĮÙĨÙĩ":12809,"Ġloose":12810,"Ġcompassion":12811,"Ġstudying":12812,"Ġideal":12813,"ĠØ¨Ø´ÙĪÙħ":12814,"Ġcorpor":12815,"ĠÙ¾ÙĦÚ©Ø§ÙĨ":12816,"Ġsuperior":12817,"Ġgalax":12818,"ĠØ¬Ø§Ø¯ÙĪÛĮÛĮ":12819,"Jean":12820,"Ø³ÙĪØ²ÛĮ":12821,"Ø³ÛĮØ§":12822,"ĠØ¯ÙĩÛĮ":12823,"Ġresist":12824,"Ġcoord":12825,"Ġgrin":12826,"ĠÛĮØ§Ø¯Ø¢ÙĪØ±ÛĮ":12827,"ØªØ±ÛĮØ³ÛĮ":12828,"ĠLeÃ³n":12829,"ĠØ¬ÙĦØ¯":12830,"ĠØ®ÙĪÙĨØ³":12831,"Ġsurrounded":12832,"erk":12833,"ĠØµØ¯Ùħ":12834,"elly":12835,"Ġgene":12836,"othy":12837,"apping":12838,"ĠÙħØªØ¹Ø¬Ø¨":12839,"ĠCatholic":12840,"Ġfocused":12841,"Ġcore":12842,"ĠØ¯ÙĪØ®Øª":12843,"ĠØŁ...":12844,"Ġmyth":12845,"ĠØ§Ø¹ØµØ§Ø¨":12846,"ĠIII":12847,"ĠÙħØ¹Ø¯ÙĨ":12848,"Ø¯ÙĦÛĮÙĦ":12849,"Ġindu":12850,"olm":12851,"Ġrow":12852,"ĠØ³Ø±ÙĪØ¯":12853,"ĠÙĨØ¯Ø±Øª":12854,"Ġgreatly":12855,"ĠAmericans":12856,"Ġexperiences":12857,"Val":12858,"ĠÙĪÙĤØ§ÛĮ":12859,"Ġreven":12860,"olve":12861,"aine":12862,"ĠFar":12863,"Ġremote":12864,"ĠÙħÙħ":12865,"ĠÙĪØ§ÙĨÙħ":12866,"ela":12867,"akers":12868,"ÛĮØªØ§ÙĨ":12869,"Ġpractical":12870,"ÙħØ§Ùĩ":12871,"Ġacknow":12872,"Ġmuseum":12873,"ĠÙħØ¯Ø§ÙĦ":12874,"Ġdepartment":12875,"Ġawful":12876,"Ġteams":12877,"Ġbanks":12878,"Ġauthorities":12879,"Ġprofessor":12880,"ĠØ®ÙĪÛĮØ´ØªÙĨ":12881,"ĠØ´ÛĮØ·Ø§ÙĨÛĮ":12882,"ĠØ¨Ø¹Ø¯Ø§Ø²Ø¸ÙĩØ±":12883,"eding":12884,"Ø®Ø§ÙĨÙĪ":12885,"ĠÙħÙĨÙĩ":12886,"Ø¨ÛĮÙĦÙĩ":12887,"Ġnegot":12888,"Ø§ÛĮÙĨÚ©":12889,"itya":12890,"ĠØºØ§Ø±":12891,"ĠÙĨÙĪØ§Ø®Øª":12892,"Ġrolled":12893,"Ø¨Ø§ÙĦÙĩ":12894,"Ġpolitic":12895,"Ġspirits":12896,"ĠSecond":12897,"29":12898,"ĠÙĨÚ¯Ø§Ø±":12899,"ĠØ³Ø±Ø¯Ùĩ":12900,"ĠÙĤØ±Ø¢ÙĨ":12901,"Ġgrate":12902,"Ġ1930":12903,"ĠØ¨Ø²ÙĨÛĮØ¯":12904,"Ġnode":12905,"standing":12906,"ĠØ·ÙĪÙģØ§ÙĨ":12907,"ĠPhys":12908,"Ġarrival":12909,"Ġhanging":12910,"ĠØªØ¯":12911,"Ġselected":12912,"oping":12913,"ĠBon":12914,"Ġconqu":12915,"ĠOxford":12916,"ĠØ³Ø§Ø¹ØªÛĮ":12917,"ealous":12918,"isation":12919,"Ġweren":12920,"Ġsecure":12921,"Ø§Ø¬Ø§Ø²Ùĩ":12922,"Ø§ØºÙĦØ¨":12923,"ĠÙĨÙħØ§ÛĮØ´Ú¯Ø§Ùĩ":12924,"ĠØªØ±ÛĮØ³ÛĮ":12925,"Ġobviously":12926,"umbledore":12927,"Ø²Ùħ":12928,"ĠØ±Ø§Ú©":12929,"ĠÙ¾Ø§Øª":12930,"Ġbeast":12931,"utation":12932,"ÙģØ±ÙħØ§":12933,"Ġthinks":12934,"duc":12935,"Ú¯Ø±Ø¯ÙĨØ¯":12936,"ĠØ±ÙĤÙħ":12937,"Ġgolden":12938,"Ú©Ø²ÛĮÙħ":12939,"ĠÙ¾Ø¯ÛĮØ¯Ø§Ø±":12940,"ĠØ²ÙĪØ¬":12941,"Ġtonight":12942,"48":12943,"ĠÙĨÙĪØ´ÛĮØ¯":12944,"ĠØ¨Ø§ÙĩÙħ":12945,"Ø§Ø¨ÙĩÛĮ":12946,"illing":12947,"Ġshru":12948,"ĠEastern":12949,"Ġlock":12950,"ÙĢØ§ÙĨ":12951,"range":12952,"Ġbold":12953,"Ġblame":12954,"Ġ187":12955,"ĠÙĦÛĮÚ¯":12956,"ĠChristmas":12957,"Ġviews":12958,"every":12959,"Ø´ÙĪÛĮØ¯":12960,"ĠØ¯Ø±Ø¯ÙĨ":12961,"ĠÚĨÙħ":12962,"Ú©ÙĨØ§Ø±":12963,"Ġproport":12964,"Ġcook":12965,"ĠØ¯Ø®ØªØ±ÙĩØ§":12966,"Ġhearts":12967,"Ú©Ø´ÛĮØ¯ÙĨØ¯":12968,"ĠØ¨ÙĨØ¯Ø±":12969,"ĠØ¨ÙĨÛĮØ§Ø¯ÛĮ":12970,"ĠØ¢ÙħÛĮØ²ÛĮ":12971,"ĠØ¨ÙĩØ¯Ø§Ø´ØªÛĮ":12972,"55":12973,"Col":12974,"Ġwake":12975,"ĠÙĪØ§Øª":12976,"ulse":12977,"ĠRock":12978,"ĠNorthern":12979,"ĠØ´ÙĨØ§ÙĪØ±":12980,"Ø³Ø±Ø´":12981,"ÙħÙĪØ³ÛĮÙĤÛĮ":12982,"ĠØ´ÙĪØ§ÙĩØ¯":12983,"ĠÚ©ÛĮØªÛĮ":12984,"Ġslept":12985,"box":12986,"agnan":12987,"ĠØ¨Ø®ÙĪØ§ÙĨØ¯":12988,"ĠPrincess":12989,"ĠÙĪØ§ÙĨÙħÙĪØ¯":12990,"ĠÙĩØ§ÙĨ":12991,"ĠMem":12992,"ĠBol":12993,"Ġworship":12994,"ĠViet":12995,"Ġfunny":12996,"ĠÙĨØ§ØªØ§Ø´Ø§":12997,"ĠQueen":12998,"ĠÚ©ÙĨØ³Ø±Øª":12999,"cope":13000,"Ġq":13001,"Ø§Ø±ÛĮØ¯":13002,"agger":13003,"ĠÚ©Ø§ÙħÙ¾":13004,"Ġdiamond":13005,"ĠCommission":13006,"ĠØ¢Ú©Ø§Ø¯ÙħÛĮ":13007,"List":13008,"PC":13009,"tle":13010,"Ú©Ø§ÙĪ":13011,"Ġshirt":13012,"Ġallowing":13013,"Ø¨Ø±ÙĨØ§ÙħÙĩ":13014,"Ø§ÙĨØ¯Ø§Ø²Ø¯":13015,"ĠWal":13016,"Ġunus":13017,"ĠÙ¾Ø±ÙĪØªÚ©ÙĦ":13018,"Ġresearchers":13019,"ĠØªØ§ÛĮÛĮØ¯":13020,"icit":13021,"Ø§ÛĮÙĨÚ©Ùĩ":13022,"ĠPlan":13023,"Artagnan":13024,"ĠØ§Ø±Ø¯ÙĪÚ¯Ø§Ùĩ":13025,"life":13026,"iture":13027,"uted":13028,"ĠØ²Ø¨Ø§ÙĨÛĮ":13029,"ĠAzer":13030,"ĠTown":13031,"ØªÙĪØ§ÙĨØ³ØªÙĩ":13032,"ÙĬÙĥ":13033,"Ġstrateg":13034,"Ø´ÙĨØ§Ø³Ø§ÙĨ":13035,"Ġimagination":13036,"Ġincredible":13037,"pass":13038,"Ðº":13039,"ĠÙĩØ§ÙĪ":13040,"also":13041,"str":13042,"ĠÚĨÙĬØ²":13043,"ĠCatherine":13044,"ĠJoe":13045,"ĠÙĨØ§Ø®ÙĪØ´":13046,"ĠÚ¯Ø°Ø§Ø´ØªÙħ":13047,"Ġelections":13048,"Ġmanufacture":13049,"ĠØ§ÙħØªØ¯Ø§Ø¯":13050,"Ġscript":13051,"rors":13052,"ĠØªØ§ÛĮÙħ":13053,"Ġgained":13054,"ĠÛĮÚ©Ù¾Ø§Ø±":13055,"ĠMill":13056,"ĠLiber":13057,"Ġuns":13058,"ĠØªÙĨÙĪØ¹":13059,"ĠÙĨØ´Ø§Ø·":13060,"Ġtechnical":13061,"ograp":13062,"Ġprofession":13063,"Ġarranged":13064,"EM":13065,"Ġcert":13066,"oria":13067,"ĠÙĦØ³":13068,"ĠÙĨØ§Ú¯Ø²ÛĮØ±":13069,"ĠÙħØ³ØªÙĨØ¯":13070,"ĠØ®Ø§Ø±ÙĤ":13071,"ĠÙĤÙĩØ±ÙħØ§ÙĨÛĮ":13072,"ko":13073,"Ã¸":13074,"Ø¹ÛĮØ¯":13075,"lyosha":13076,"ĠØ®ÙĪØ¯Ø±ÙĪÛĮÛĮ":13077,"Ġnoble":13078,"ĠØªÙħØ³":13079,"Ġsports":13080,"ĠØ¯Ø±Ø®Ø´":13081,"Ġmac":13082,"ĠØ³ØŃØ±":13083,"umed":13084,"apy":13085,"ĠØ¨Ø¯ØªØ±ÛĮÙĨ":13086,"ÙĪØ¨ÙĪØ³":13087,"ĠØªØºÛĮÛĮØ±ÛĮ":13088,"ĠØ¹ÙĦØ§Ø¦Ùħ":13089,"Ġcomplicated":13090,"´Û°":13091,"ĠØ±Ø¨Ø·":13092,"ĠSouthern":13093,"ĠPop":13094,"Ġdoctors":13095,"ĠØºØ§ÙģÙĦ":13096,"ĠÚ¯Ø°Ø±Ø§ÙĨ":13097,"ĠØ²ÛĮØ±Ø²ÙħÛĮÙĨ":13098,"Ġsmooth":13099,"ĠØ§Ø³ØªØ®Ø±Ø§Ø¬":13100,"Ġvisited":13101,"Ġevidently":13102,"ĠÙĪØµÙģ":13103,"ĠØªÛĮÙĦ":13104,"ĠØ§ÛĮÙĨÙĪ":13105,"Ġpartner":13106,"ĠInc":13107,"ĠØ§ÙģØ³Ø±Ø¯Ú¯ÛĮ":13108,"ĠÙħØªØ¹Ø¯Ø¯ÛĮ":13109,"ĠÙħØ¯Ø§ÙĪÙħ":13110,"west":13111,"Ġgle":13112,"ĠDis":13113,"ĠÙĨØ´Ø§ÙĨÛĮ":13114,"mann":13115,"Ġmaintain":13116,"Ġexercise":13117,"ĠØ±Ø§ÙĨØ¯":13118,"oped":13119,"ĠØ³Ø±Ú¯Ø±ÙħÛĮ":13120,"Ġ''":13121,"Ġcontempt":13122,"ĠÚĨØ´ÙħÙĩ":13123,"ĠÛ±Û°Û":13124,"ĠØªÙĪÙĨÛĮÙħ":13125,"Ġtesting":13126,"ĠØ°ÙĩÙĨÙħ":13127,"ĠÙħØªØ£Ø³Ùģ":13128,"Ġdancing":13129,"omach":13130,"ĠØ¨Ø±ÙĨØ¯":13131,"ĠÚĨØ§Ø±Ùĩ":13132,"Ġstuck":13133,"ĠBy":13134,"ĠRose":13135,"ĠLy":13136,"Ġlocked":13137,"ĠÚ©ÙħØªØ±ÛĮÙĨ":13138,"ĠØ³ÙĦÙĪÙĦÛĮ":13139,"Ġswift":13140,"ĠÛµÛ°Û°":13141,"Ġliquid":13142,"asters":13143,"ĠØŃØ¬":13144,"ilty":13145,"ĠRog":13146,"ĠEve":13147,"Ġplays":13148,"ØªÙĦØ±":13149,"Ġcombined":13150,"Ġaltogether":13151,"ĠØ±Ø®ØªØ®ÙĪØ§Ø¨":13152,"ĠÙ¾Ø±ÙĪÙģØ³ÙĪØ±":13153,"IL":13154,"Ġfier":13155,"etime":13156,"ĠPre":13157,"ĠPost":13158,"Ġextended":13159,"ĠØ§ÙĦÚ¯ÙĪÛĮ":13160,"Ø¯ÛĮØ¯ÙĨØ¯":13161,"ĠØ¨Ú¯ÙĪÛĮÙĨØ¯":13162,"ĠØ³ØªØ§Ø±Ú¯Ø§ÙĨ":13163,"Ġwondering":13164,"ĠFacebook":13165,"Under":13166,"ÙĪØ¶":13167,"igen":13168,"ĠØ§Ø¬Ø§Ø±Ùĩ":13169,"ĠØ³ØªØ§ÛĮØ´":13170,"ĠØ²ÙĨØ¬ÛĮØ±Ùĩ":13171,"Ġbacteria":13172,"Sec":13173,"ĠÙħÛĮØ¯ÙĩØ¯":13174,"ĠØ¨Ø±Ø§ÛĮØª":13175,"ĠVan":13176,"ĠØ³Ù¾Ø±Ø¯Ùĩ":13177,"Ġconstantly":13178,"Ġresem":13179,"Ġfriendship":13180,"Ġmainly":13181,"ĠØ®Ø´Ú©ÛĮ":13182,"Bet":13183,"ÙĨÙĩØ§ÛĮØª":13184,"ÙĪÙħØ§":13185,"oral":13186,"Ġforb":13187,"Ġsees":13188,"ĠBella":13189,"ĠØ³Ø±Ø´Ø§Ø±":13190,"aping":13191,"Ø®ÙĪØ§ÙĨÛĮ":13192,"ĠØ¨ÙĢÙĪØ¯":13193,"Ġsleeping":13194,"Ġcombination":13195,"ĠAustralian":13196,"Ø¸Ø§ÙĩØ±Ø§":13197,"ĠØ²ÙĨØ¬ÛĮØ±":13198,"inter":13199,"ader":13200,"ĠÙģÛĮØ±":13201,"ĠÚ¯ÙĪØ´ÛĮ":13202,"ĠÚ¯ÙĪÛĮÙĨØ¯":13203,"!\"":13204,"TV":13205,"Ù¾Ø±Ø³":13206,"Ġpause":13207,"ĠLydgate":13208,"Ġroot":13209,"ĠØ´Ú©ÙĪÙĩ":13210,"ĠÛĮÙĪÙĨØ§ÙĨ":13211,"ÙĨØ²Ø¯ÛĮÚ©":13212,"Ġfrancs":13213,"ĠØ¯Ø±Ø¯ÙĨØ§Ú©":13214,"Ø§ÛĮØ§":13215,"Ø§ÙĦØ¯":13216,"ĠÙĤØ´ÙĪÙĨ":13217,"Ġvary":13218,"ĠStand":13219,"ĠÙģÙĩÙħÛĮØ¯Ùĩ":13220,"Ġemotions":13221,"65":13222,"CM":13223,"ĠÚ¯ÙĪØ³Ùģ":13224,"ÙģØªÛĮ":13225,"ante":13226,"ĠØŃØ³Ø¨":13227,"Ġ1989":13228,"ÙħØ§Ø¯Ø§Ùħ":13229,"100":13230,"Ø³Ø§Øª":13231,"itar":13232,"ĠØ¨Ø±Ø¹Ú©Ø³":13233,"Ġseated":13234,"ĠTime":13235,"ĠØ¢ÙĪØ±Ø¯Ùħ":13236,"Ġconcert":13237,"Ġclouds":13238,"Ġmathematical":13239,"ĠØ®Ø¯Ø§ØŃØ§ÙģØ¸ÛĮ":13240,"Ø®Ø§ÙĨÙĪØ§Ø¯Ùĩ":13241,"47":13242,"Ġfer":13243,"ĠØ¬Ø¨Ø±Ø§ÙĨ":13244,"Ġrh":13245,"loc":13246,"pless":13247,"ĠStan":13248,"Ġrelation":13249,"ocal":13250,"ĠÙħÙĪØ¶ÙĪØ¹Ø§Øª":13251,"ĠØ±Ø§Ø¯ÛĮÙĪÛĮÛĮ":13252,"Ġpatterns":13253,"ĠØ¯Ø®Ø§ÙĦØª":13254,"Ġhint":13255,"ĠØ®ÙĦÙĪØª":13256,"rog":13257,"ĠJurgis":13258,"ĠØ¹ÙħÙĪÙħ":13259,"ĠÙħØ¯Ø±Ú©":13260,"Ġhungry":13261,")}":13262,"ĠÚ©ÙĪØ²Øª":13263,"Ġreward":13264,"ÙĪÛĮØ±":13265,"Through":13266,"ĠÙħØ´Ø§Ø¨ÙĩÛĮ":13267,"aws":13268,"Ġentertain":13269,"ĠPeters":13270,"Ġessential":13271,"ĠÙĤØ§Ø¶ÛĮ":13272,"ĠØ´Ø§Ú¯Ø±Ø¯":13273,"Ġgently":13274,"Ġstret":13275,"elf":13276,"Ø®ÙĪÙģ":13277,"ĠÙħØ¹ÛĮÙĨ":13278,"Ġuniform":13279,"Ġexisting":13280,"ĠØ®ÙĪØ´ØŃØ§ÙĦÙħ":13281,"ĠØ¹Ø§Ø´ÙĤØ§ÙĨÙĩ":13282,"ÙģÛĮÙĦÙħ":13283,"Sever":13284,"Ġthee":13285,"inger":13286,"Ġancest":13287,"ession":13288,"ĠÙħÙĨØªÙĩÛĮ":13289,"ĠØ²ÛĮØ¨Ø§ÛĮ":13290,"Ġwoods":13291,"ÙģØ±ÙħØ§ÛĮÛĮØ¯":13292,"Ø±ÛĮØ¯":13293,"Ġexternal":13294,"ĠOliver":13295,"ĠØªØµØ¯ÛĮÙĤ":13296,"Ø¦ÙĪØ±ÙĦÛĮ":13297,"Ġappreci":13298,"ĠÙħØºÙĨØ§Ø·ÛĮØ³ÛĮ":13299,"Ġtorn":13300,"Ġcards":13301,"ĠIMDb":13302,"ĠÙħÙĪØ§ÙĤØ¹":13303,"ĠÙħØŃÙĪØ±":13304,"Ġoldest":13305,"Ġdram":13306,"ĠEngine":13307,"Ġlargely":13308,"evin":13309,"Ġprisoner":13310,"ĠAlexander":13311,"OT":13312,"ĠØ§ÙĦØ§":13313,"ali":13314,"Ø§Ø²ÛĮØ¯":13315,"emies":13316,"ĠÙ¾ÛĮØ±ÙĪÛĮ":13317,"Ġdepends":13318,"ĠØ¨Ø±ÙĩÙĨÙĩ":13319,"itors":13320,"ĠÙĨÙĬ":13321,"ĠØ®ÙĦØ§ÙĦ":13322,"ĠMonsieur":13323,"ules":13324,"ĠØ³Ø±ÙĩÙĨÚ¯":13325,"ĠRa":13326,"Ġcompre":13327,"Ġindex":13328,"ĠØ³ÛĮÙĨÙħØ§":13329,"ĠÙħØ§Ø¯ÛĮ":13330,"Ġsales":13331,"ĠØ¢ÙĨØªÛĮ":13332,"acific":13333,"uments":13334,"osm":13335,"ĠØ§Ø³ÛĮØ±":13336,"ĠØ±ÙĪØ²Ùĩ":13337,"Ġ300":13338,"ĠØ§Ø®ÛĮØ±Ø§":13339,"ĠÙħØ°ÙĩØ¨":13340,"ĠÙĪØ¸Ø§ÛĮÙģ":13341,"Ø®ÙĦØ§":13342,"ĠMars":13343,"iler":13344,"ĠHaw":13345,"ĠØ§Ø®Ø±Ø§Ø¬":13346,"Ġburned":13347,"ĠØ®Ø§ØªÙħÙĩ":13348,"ĠØ¨Ø±ÛĮØ¯Ùĩ":13349,"ĠÙĤØ¨ÛĮÙĦÙĩ":13350,"ĠMoon":13351,"ĠÚ©ÙħØ¨ÙĪØ¯":13352,"ĠProgram":13353,"Ġtechnique":13354,"Ġguns":13355,"Ġperceived":13356,"bra":13357,"ĠØ¨Ú©ÙĨÛĮ":13358,"ication":13359,"Ø·Ø§Ùģ":13360,"idel":13361,"iths":13362,"ĠAli":13363,"Ġadvert":13364,"ĠÙĪÛĮØªÙĨ":13365,"ĠStar":13366,"ĠÙĨÙħÚ©":13367,"ĠØ§Ø¯Ø¨":13368,"ĠØŃØ±ÙģØ´":13369,"ĠØªÙĦÚ¯Ø±":13370,"ĠScott":13371,"Ġdaughters":13372,"ĠBerlin":13373,"Ġapparently":13374,"ÙĨØ´Ø§ÙĨ":13375,"heast":13376,"ĠØ§Ø¯Ø§":13377,"ĠÙĪØªÛĮ":13378,"arse":13379,"ĠØ®Ø²":13380,"ĠDan":13381,"ĠÛ±ÛµÛ":13382,"Ø§ØµØ±Ùĩ":13383,"onsense":13384,"Ġshouldn":13385,"Ġunhappy":13386,"OC":13387,"Ġtick":13388,"ĠÙĪØ§Ø¯":13389,"itzer":13390,"ØŃÙĤÛĮ":13391,"Ġease":13392,"iry":13393,"uration":13394,"ĠØ¯ÛĮÚ¯":13395,"ĠLab":13396,"ĠÙĤØ±Ø¶":13397,"Ġpartners":13398,"ĠØ´ÙĨØ¨Ùĩ":13399,"ĠØ±Ø³ÛĮØ¯Ùħ":13400,"ĠØ§Ø¨Ø±ÛĮ":13401,"ĠPrime":13402,"Ġhomes":13403,"05":13404,"ÙħØ±Ùĩ":13405,"ĠÙĩÙĨØ¯ÛĮ":13406,"Ø¹Ø¨":13407,"ĠØ¯Ø³ØªÙħØ§ÙĦ":13408,"Ġsheep":13409,"Ġclaims":13410,",;":13411,"bai":13412,"Ġstim":13413,"quis":13414,"ĠDutch":13415,"ĠØ§ÙĨØ¯Ø§Ø²ÛĮ":13416,"ĠØ§ÙģØ±Ø§":13417,"Ġarticles":13418,"Ġparam":13419,"Ġadmir":13420,"ĠØ¬Ø¯Ø§ÛĮÛĮ":13421,"Ġsorrow":13422,"ÙĨÙĪØ±":13423,"ÙĨÚ©Ø§":13424,"Ø³ÙĦÙĩ":13425,"Ù¾Øª":13426,"usal":13427,"Ġshif":13428,"ĠEnd":13429,"ĠÙħØªØ§Ø³Ùģ":13430,"ĠÙĨÙĤØ¯":13431,"Ġattached":13432,"ĠSpace":13433,"ĠØ¯Ø§Ø¦ÙħÛĮ":13434,"ĠOrganization":13435,"bar":13436,"ĠÛĮØ§Ø²Ø¯Ùĩ":13437,"ĠAut":13438,"Ø¢ÙĩÙĨÚ¯":13439,"ĠÙĦÚ©":13440,"ĠEll":13441,"ÙĪØ·ÛĮ":13442,"Ù¾Ø±Ø³ØªÛĮ":13443,"Ù¾Ø±Ø¯Ø§Ø²Ø¯":13444,"ĠÙħØ£ÙħÙĪØ±":13445,"Rum":13446,"Ġbatter":13447,"Ġmaid":13448,"ĠØ¬Ø§Ø³Øª":13449,"ĠOri":13450,"Ġconsult":13451,"ĠÙĤØ·Ø¨":13452,"ikip":13453,"Ġparticles":13454,"Ġprocessing":13455,"ĠÙ¾Ø§Ø¯Ø§Ø´":13456,"Ġtotally":13457,"ĠØ¨Ø¨Ø±ÙĨØ¯":13458,"ĠÙħÙĪØ³Ø³Ùĩ":13459,"Ġmixed":13460,"John":13461,"ÙĩØ±ÚĨÙĩ":13462,"Ġknife":13463,
[...]
