! 49995
" 49994
# 49993
$ 49992
% 49991
& 49990
' 49989
( 49988
) 49987
* 49986
+ 49985
, 49984
- 49983
. 49982
/ 49981
0 49980
1 49979
2 49978
3 49977
4 49976
5 49975
6 49974
7 49973
8 49972
9 49971
: 49970
; 49969
< 49968
= 49967
> 49966
? 49965
@ 49964
[ 49963
\ 49962
] 49961
^ 49960
_ 49959
` 49958
a 49957
b 49956
c 49955
d 49954
e 49953
f 49952
g 49951
h 49950
i 49949
j 49948
k 49947
l 49946
m 49945
n 49944
o 49943
p 49942
q 49941
r 49940
s 49939
t 49938
u 49937
v 49936
w 49935
x 49934
y 49933
z 49932
{ 49931
| 49930
} 49929
~ 49928
¡ 49927
¢ 49926
£ 49925
¤ 49924
¥ 49923
¦ 49922
§ 49921
¨ 49920
© 49919
ª 49918
« 49917
¬ 49916
® 49915
¯ 49914
° 49913
± 49912
² 49911
³ 49910
´ 49909
µ 49908
¶ 49907
· 49906
¸ 49905
¹ 49904
º 49903
» 49902
¼ 49901
½ 49900
¾ 49899
¿ 49898
× 49897
ß 49896
æ 49895
ð 49894
÷ 49893
ø 49892
þ 49891
đ 49890
ħ 49889
ı 49888
ł 49887
ŋ 49886
œ 49885
ƒ 49884
ə 49883
ʻ 49882
ʼ 49881
ʾ 49880
ʿ 49879
ˆ 49878
ˈ 49877
ː 49876
˚ 49875
˜ 49874
ͼ 49873
α 49872
β 49871
γ 49870
δ 49869
ε 49868
ζ 49867
η 49866
θ 49865
ι 49864
κ 49863
λ 49862
μ 49861
ν 49860
ξ 49859
ο 49858
π 49857
ρ 49856
ς 49855
σ 49854
τ 49853
υ 49852
φ 49851
χ 49850
ψ 49849
ω 49848
а 49847
б 49846
в 49845
г 49844
д 49843
е 49842
ж 49841
з 49840
и 49839
к 49838
л 49837
м 49836
н 49835
о 49834
п 49833
р 49832
с 49831
т 49830
у 49829
ф 49828
х 49827
ц 49826
ч 49825
ш 49824
щ 49823
ъ 49822
ы 49821
ь 49820
э 49819
ю 49818
я 49817
ђ 49816
є 49815
ѕ 49814
і 49813
ј 49812
ћ 49811
һ 49810
ա 49809
ե 49808
ի 49807
կ 49806
մ 49805
յ 49804
ն 49803
ո 49802
ս 49801
տ 49800
ր 49799
ւ 49798
א 49797
ב 49796
ג 49795
ד 49794
ה 49793
ו 49792
ז 49791
ח 49790
ט 49789
י 49788
כ 49787
ל 49786
ם 49785
מ 49784
ן 49783
נ 49782
ס 49781
ע 49780
פ 49779
צ 49778
ק 49777
ר 49776
ש 49775
ת 49774
، 49773
؛ 49772
؟ 49771
ء 49770
ا 49769
ب 49768
ة 49767
ت 49766
ث 49765
ج 49764
ح 49763
خ 49762
د 49761
ذ 49760
ر 49759
ز 49758
س 49757
ش 49756
ص 49755
ض 49754
ط 49753
ظ 49752
ع 49751
غ 49750
ػ 49749
ـ 49748
ف 49747
ق 49746
ك 49745
ل 49744
م 49743
ن 49742
ه 49741
و 49740
ى 49739
ي 49738
٠ 49737
١ 49736
٢ 49735
٣ 49734
٤ 49733
٥ 49732
٦ 49731
٧ 49730
٨ 49729
٩ 49728
٪ 49727
٫ 49726
٬ 49725
٭ 49724
ٱ 49723
ٲ 49722
ٳ 49721
ٹ 49720
ٺ 49719
پ 49718
چ 49717
ڈ 49716
ڑ 49715
ژ 49714
ڛ 49713
ڠ 49712
ڤ 49711
ڨ 49710
ک 49709
ڪ 49708
ڬ 49707
ڭ 49706
گ 49705
ڵ 49704
ڷ 49703
ں 49702
ھ 49701
ہ 49700
ۃ 49699
ۆ 49698
ۈ 49697
ۋ 49696
ی 49695
ێ 49694
ے 49693
۔ 49692
ە 49691
۞ 49690
۩ 49689
۰ 49688
۱ 49687
۲ 49686
۳ 49685
۴ 49684
۵ 49683
۶ 49682
۷ 49681
۸ 49680
۹ 49679
ܐ 49678
ܝ 49677
क 49676
ग 49675
च 49674
ज 49673
ड 49672
ण 49671
त 49670
द 49669
न 49668
प 49667
ब 49666
भ 49665
म 49664
य 49663
र 49662
ल 49661
व 49660
श 49659
स 49658
ह 49657
ा 49656
ि 49655
ी 49654
ो 49653
। 49652
ক 49651
ত 49650
ন 49649
ব 49648
ম 49647
য 49646
র 49645
ল 49644
স 49643
া 49642
ি 49641
ে 49640
ஐ 49639
க 49638
ச 49637
ட 49636
த 49635
ன 49634
ப 49633
ம 49632
ய 49631
ர 49630
ல 49629
வ 49628
ா 49627
ி 49626
ு 49625
ை 49624
ക 49623
ാ 49622
ി 49621
ก 49620
ข 49619
ค 49618
ง 49617
จ 49616
ช 49615
ด 49614
ต 49613
ท 49612
น 49611
บ 49610
ป 49609
พ 49608
ม 49607
ย 49606
ร 49605
ล 49604
ว 49603
ส 49602
ห 49601
อ 49600
ะ 49599
า 49598
เ 49597
แ 49596
โ 49595
ไ 49594
๑ 49593
༄ 49592
་ 49591
ა 49590
ე 49589
ი 49588
ღ 49587
ᄀ 49586
ᄂ 49585
ᄃ 49584
ᄅ 49583
ᄆ 49582
ᄇ 49581
ᄉ 49580
ᄋ 49579
ᄌ 49578
ᄎ 49577
ᄏ 49576
ᄐ 49575
ᄑ 49574
ᄒ 49573
ᅡ 49572
ᅢ 49571
ᅥ 49570
ᅦ 49569
ᅧ 49568
ᅩ 49567
ᅪ 49566
ᅭ 49565
ᅮ 49564
ᅳ 49563
ᅴ 49562
ᅵ 49561
ᆨ 49560
ᆫ 49559
ᆯ 49558
ᆷ 49557
ᆸ 49556
ᆼ 49555
‐ 49554
‑ 49553
– 49552
— 49551
‗ 49550
‘ 49549
’ 49548
‚ 49547
“ 49546
” 49545
„ 49544
† 49543
‡ 49542
• 49541
… 49540
‰ 49539
′ 49538
″ 49537
‹ 49536
› 49535
₪ 49534
€ 49533
₹ 49532
℃ 49531
ℓ 49530
№ 49529
™ 49528
← 49527
↑ 49526
→ 49525
∈ 49524
− 49523
√ 49522
∞ 49521
≈ 49520
≤ 49519
≥ 49518
│ 49517
═ 49516
█ 49515
░ 49514
▒ 49513
▓ 49512
■ 49511
□ 49510
▪ 49509
▬ 49508
▶ 49507
► 49506
◀ 49505
◄ 49504
◊ 49503
● 49502
◘ 49501
◦ 49500
★ 49499
☆ 49498
☎ 49497
☺ 49496
☼ 49495
♠ 49494
♡ 49493
♣ 49492
♥ 49491
♦ 49490
♪ 49489
♫ 49488
✅ 49487
✓ 49486
✔ 49485
✨ 49484
✿ 49483
❊ 49482
❑ 49481
❒ 49480
❤ 49479
➖ 49478
⠀ 49477
⭐ 49476
、 49475
。 49474
《 49473
》 49472
「 49471
」 49470
【 49469
】 49468
あ 49467
い 49466
う 49465
え 49464
お 49463
か 49462
き 49461
く 49460
け 49459
こ 49458
さ 49457
し 49456
す 49455
せ 49454
そ 49453
た 49452
ち 49451
っ 49450
つ 49449
て 49448
と 49447
な 49446
に 49445
の 49444
は 49443
ま 49442
み 49441
め 49440
も 49439
や 49438
よ 49437
ら 49436
り 49435
る 49434
れ 49433
わ 49432
を 49431
ん 49430
ア 49429
ィ 49428
イ 49427
ウ 49426
エ 49425
オ 49424
カ 49423
キ 49422
ク 49421
ケ 49420
コ 49419
サ 49418
シ 49417
ス 49416
タ 49415
チ 49414
ッ 49413
ツ 49412
テ 49411
ト 49410
ナ 49409
ニ 49408
ハ 49407
ヒ 49406
フ 49405
ヘ 49404
ホ 49403
マ 49402
ミ 49401
ム 49400
メ 49399
ャ 49398
ュ 49397
ラ 49396
リ 49395
ル 49394
レ 49393
ロ 49392
ン 49391
・ 49390
ー 49389
ㅤ 49388
一 49387
万 49386
三 49385
上 49384
下 49383
不 49382
与 49381
世 49380
业 49379
东 49378
个 49377
中 49376
为 49375
主 49374
么 49373
之 49372
乐 49371
九 49370
也 49369
买 49368
了 49367
争 49366
事 49365
二 49364
于 49363
五 49362
交 49361
产 49360
京 49359
人 49358
什 49357
今 49356
他 49355
代 49354
以 49353
件 49352
会 49351
体 49350
作 49349
使 49348
保 49347
信 49346
元 49345
光 49344
免 49343
入 49342
全 49341
公 49340
六 49339
内 49338
出 49337
分 49336
利 49335
到 49334
前 49333
力 49332
加 49331
动 49330
化 49329
北 49328
区 49327
十 49326
单 49325
南 49324
博 49323
原 49322
县 49321
发 49320
取 49319
口 49318
可 49317
台 49316
史 49315
号 49314
司 49313
合 49312
同 49311
名 49310
后 49309
吗 49308
和 49307
品 49306
商 49305
四 49304
国 49303
图 49302
國 49301
在 49300
地 49299
场 49298
坛 49297
城 49296
士 49295
外 49294
多 49293
大 49292
天 49291
太 49290
奖 49289
女 49288
好 49287
如 49286
娱 49285
子 49284
学 49283
安 49282
官 49281
定 49280
宝 49279
实 49278
客 49277
家 49276
对 49275
小 49274
少 49273
就 49272
展 49271
山 49270
川 49269
州 49268
工 49267
市 49266
平 49265
年 49264
库 49263
度 49262
建 49261
开 49260
式 49259
当 49258
彩 49257
得 49256
微 49255
德 49254
心 49253
快 49252
怎 49251
性 49250
情 49249
愛 49248
成 49247
我 49246
所 49245
手 49244
技 49243
投 49242
报 49241
提 49240
教 49239
数 49238
文 49237
料 49236
新 49235
方 49234
日 49233
时 49232
明 49231
星 49230
是 49229
時 49228
書 49227
最 49226
月 49225
有 49224
服 49223
期 49222
本 49221
机 49220
李 49219
村 49218
来 49217
東 49216
林 49215
果 49214
校 49213
正 49212
武 49211
民 49210
水 49209
江 49208
河 49207
法 49206
注 49205
流 49204
海 49203
港 49202
澳 49201
点 49200
爱 49199
版 49198
物 49197
特 49196
王 49195
玩 49194
现 49193
球 49192
理 49191
生 49190
用 49189
田 49188
电 49187
白 49186
百 49185
的 49184
目 49183
直 49182
相 49181
看 49180
真 49179
知 49178
石 49177
码 49176
社 49175
神 49174
票 49173
福 49172
科 49171
立 49170
站 49169
第 49168
等 49167
管 49166
精 49165
系 49164
红 49163
线 49162
经 49161
结 49160
网 49159
美 49158
老 49157
者 49156
肖 49155
能 49154
自 49153
色 49152
花 49151
行 49150
表 49149
西 49148
要 49147
规 49146
视 49145
解 49144
计 49143
论 49142
设 49141
资 49140
赌 49139
赛 49138
路 49137
车 49136
软 49135
载 49134
这 49133
通 49132
道 49131
郎 49130
部 49129
都 49128
里 49127
重 49126
金 49125
钱 49124
長 49123
长 49122
门 49121
际 49120
限 49119
院 49118
集 49117
霸 49116
面 49115
香 49114
马 49113
高 49112
龙 49111
ﮧ 49110
ﮯ 49109
ﯾ 49108
ﯿ 49107
﴾ 49106
﴿ 49105
ﷺ 49104
ﺃ 49103
ﺇ 49102
ﺋ 49101
ﺍ 49100
ﺎ 49099
ﺏ 49098
ﺐ 49097
ﺑ 49096
ﺒ 49095
ﺓ 49094
ﺔ 49093
ﺕ 49092
ﺖ 49091
ﺗ 49090
ﺘ 49089
ﺟ 49088
ﺠ 49087
ﺣ 49086
ﺤ 49085
ﺧ 49084
ﺨ 49083
ﺩ 49082
ﺪ 49081
ﺬ 49080
ﺭ 49079
ﺮ 49078
ﺯ 49077
ﺰ 49076
ﺲ 49075
ﺳ 49074
ﺴ 49073
ﺷ 49072
ﺸ 49071
ﺻ 49070
ﺼ 49069
ﻃ 49068
ﻄ 49067
ﻊ 49066
ﻋ 49065
ﻌ 49064
ﻐ 49063
ﻓ 49062
ﻔ 49061
ﻗ 49060
ﻘ 49059
ﻙ 49058
ﻚ 49057
ﻛ 49056
ﻜ 49055
ﻝ 49054
ﻞ 49053
ﻟ 49052
ﻠ 49051
ﻡ 49050
ﻢ 49049
ﻣ 49048
ﻤ 49047
ﻥ 49046
ﻦ 49045
ﻧ 49044
ﻨ 49043
ﻪ 49042
ﻫ 49041
ﻬ 49040
ﻭ 49039
ﻮ 49038
ﻰ 49037
ﻱ 49036
ﻲ 49035
ﻳ 49034
ﻴ 49033
ﻵ 49032
ﻷ 49031
ﻹ 49030
ﻻ 49029
ﻼ 49028
！ 49027
（ 49026
） 49025
， 49024
： 49023
￼ 49022
🇦 49021
🇸 49020
🌷 49019
🌸 49018
🌹 49017
🍃 49016
🏻 49015
👇 49014
👈 49013
👌 49012
👍 49011
💔 49010
💕 49009
💙 49008
💚 49007
💜 49006
🔥 49005
🔴 49004
🕔 49003
😀 49002
😂 49001
😍 49000
😘 48999
😭 48998
😱 48997
🙂 48996
##س 48995
##ا 48994
##ل 48993
##ن 48992
##ج 48991
##و 48990
##ي 48989
##ت 48988
##ر 48987
##ف 48986
##ع 48985
##ى 48984
##ب 48983
##ه 48982
##ة 48981
##י 48980
##ב 48979
##ל 48978
##l 48977
##y 48976
##r 48975
##i 48974
##t 48973
##e 48972
##n 48971
##c 48970
##5 48969
##7 48968
##0 48967
##3 48966
##غ 48965
##h 48964
##o 48963
##p 48962
##a 48961
##6 48960
##4 48959
##م 48958
##ط 48957
##ق 48956
##d 48955
##b 48954
##د 48953
##ص 48952
##u 48951
##g 48950
##s 48949
##ز 48948
##ش 48947
##f 48946
##m 48945
##9 48944
##2 48943
##1 48942
##w 48941
##ـ 48940
##k 48939
##j 48938
##خ 48937
##x 48936
##ح 48935
##v 48934
##ك 48933
##ث 48932
##ظ 48931
##ذ 48930
##ی 48929
##¸ 48928
##ר 48927
##כ 48926
##ו 48925
##れ 48924
##は 48923
##も 48922
##う 48921
##q 48920
##😘 48919
##گ 48918
##て 48917
##か 48916
##ら 48915
##ء 48914
##ض 48913
##8 48912
##ס 48911
##א 48910
##ה 48909
##z 48908
##ो 48907
##क 48906
##ह 48905
##ि 48904
##त 48903
##व 48902
##ा 48901
##द 48900
##ी 48899
##च 48898
##ڪ 48897
##в 48896
##у 48895
##к 48894
##о 48893
##и 48892
##з 48891
##л 48890
##я 48889
##ц 48888
##т 48887
##а 48886
##р 48885
##ы 48884
##н 48883
##є 48882
##ь 48881
##с 48880
##ﻟ 48879
##ﻨ 48878
##ﺤ 48877
##ﻮ 48876
##ﺻ 48875
##ﺎ 48874
##٣ 48873
##٦ 48872
##٠ 48871
##ł 48870
##ー 48869
##リ 48868
##オ 48867
##ヘ 48866
##ス 48865
##ト 48864
##θ 48863
##ᅦ 48862
##ᄌ 48861
##ᅩ 48860
##ᆼ 48859
##ᄑ 48858
##ᄎ 48857
##ᅥ 48856
##ᆫ 48855
##ᄀ 48854
##ᄉ 48853
##ᆨ 48852
##ᄃ 48851
##ᄅ 48850
##ھ 48849
##😭 48848
##💜 48847
##٥ 48846
##ᅵ 48845
##ᆯ 48844
##ᄒ 48843
##ᅢ 48842
##ᅡ 48841
##æ 48840
##ø 48839
##ち 48838
##の 48837
##エ 48836
##ン 48835
##シ 48834
##に 48833
##٧ 48832
##भ 48831
##र 48830
##ק 48829
##υ 48828
##ν 48827
##η 48826
##κ 48825
##ε 48824
##α 48823
##μ 48822
##м 48821
##і 48820
##ш 48819
##っ 48818
##い 48817
##た 48816
##り 48815
##ˈ 48814
##д 48813
##е 48812
##ט 48811
##ן 48810
##ﻣ 48809
##ﻌ 48808
##פ 48807
##נ 48806
##پ 48805
##ﺠ 48804
##ﻥ 48803
##ת 48802
##ア 48801
##ρ 48800
##ο 48799
##σ 48798
##ι 48797
##ς 48796
##چ 48795
##٢ 48794
##♥ 48793
##п 48792
##б 48791
##ด 48790
##ก 48789
##เ 48788
##ล 48787
##ۈ 48786
##😂 48785
##ാ 48784
##ە 48783
##ᅪ 48782
##ч 48781
##ڤ 48780
##ᄋ 48779
##ᄇ 48778
##þ 48777
##な 48776
##き 48775
##ﺼ 48774
##ﻓ 48773
##ﻴ 48772
##ﺔ 48771
##ﻹ 48770
##வ 48769
##ி 48768
##ச 48767
##ா 48766
##ை 48765
##ﻻ 48764
##х 48763
##ۃ 48762
##ʿ 48761
##β 48760
##ร 48759
##ะ 48758
##พ 48757
##ท 48756
##ต 48755
##น 48754
##ส 48753
##า 48752
##ı 48751
##ड 48750
##य 48749
##म 48748
##🏻 48747
##ж 48746
##γ 48745
##ﻤ 48744
##ﺩ 48743
##€ 48742
##¬ 48741
##φ 48740
##ہ 48739
##г 48738
##¤ 48737
##τ 48736
##ک 48735
##ə 48734
##ﺮ 48733
##ﺍ 48732
##ﺣ 48731
##チ 48730
##ª 48729
##ˆ 48728
##۱ 48727
##۲ 48726
##ע 48725
##ד 48724
##½ 48723
##œ 48722
##ᅮ 48721
##ש 48720
##ם 48719
##щ 48718
##ി 48717
##ﺘ 48716
##ﺒ 48715
##ﻝ 48714
##ػ 48713
##💔 48712
##ի 48711
##ո 48710
##ր 48709
##ա 48708
##お 48707
##さ 48706
##ん 48705
##ß 48704
##ク 48703
##ホ 48702
##イ 48701
##♫ 48700
##█ 48699
##◘ 48698
##▒ 48697
##โ 48696
##ช 48695
##ค 48694
##ю 48693
##া 48692
##ি 48691
##র 48690
##¦ 48689
##ٹ 48688
##ڈ 48687
##ڑ 48686
##☺ 48685
##ω 48684
##ڵ 48683
##ڛ 48682
##ﺯ 48681
##ﻭ 48680
##ф 48679
##る 48678
##١ 48677
##° 48676
##ﻷ 48675
##ј 48674
##จ 48673
##ม 48672
##ว 48671
##ไ 48670
##ป 48669
##ᆷ 48668
##ᅧ 48667
##♠ 48666
##ﻧ 48665
##ﺳ 48664
##ﺑ 48663
##ﻬ 48662
##٩ 48661
##٤ 48660
##ᅭ 48659
##ﺪ 48658
##│ 48657
##ﻼ 48656
##ﻘ 48655
##ﻰ 48654
##± 48653
##© 48652
##し 48651
##ラ 48650
##レ 48649
##😍 48648
##ﮯ 48647
##ﺴ 48646
##¼ 48645
##อ 48644
##ː 48643
##ﻜ 48642
##ம 48641
##ᄂ 48640
##ण 48639
##ი 48638
##● 48637
##ღ 48636
##ﻦ 48635
##ז 48634
##ח 48633
##แ 48632
##ﺷ 48631
##צ 48630
##ハ 48629
##ナ 48628
##ψ 48627
##→ 48626
##ミ 48625
##ャ 48624
##◄ 48623
##と 48622
##ۆ 48621
##ۋ 48620
##💕 48619
##² 48618
##¨ 48617
##¯ 48616
##サ 48615
##マ 48614
##ル 48613
##ζ 48612
##ব 48611
##ন 48610
##ง 48609
##ܝ 48608
##ܐ 48607
##ა 48606
##ﻐ 48605
##せ 48604
##ュ 48603
##ロ 48602
##ム 48601
##® 48600
##× 48599
##こ 48598
##ま 48597
##す 48596
##מ 48595
##▪ 48594
##э 48593
##タ 48592
##ƒ 48591
##ʼ 48590
##λ 48589
##π 48588
##ன 48587
##🌹 48586
##❤ 48585
##く 48584
##ژ 48583
##テ 48582
##を 48581
##つ 48580
##™ 48579
##ٱ 48578
##ィ 48577
##ڷ 48576
##տ 48575
##ւ 48574
##յ 48573
##ն 48572
##ե 48571
##コ 48570
##メ 48569
##あ 48568
##ﻫ 48567
##ﺏ 48566
##ٺ 48565
##ﺨ 48564
##ﻳ 48563
##ﺐ 48562
##ᄐ 48561
##ᅳ 48560
##ێ 48559
##ल 48558
##ﻠ 48557
##ﯿ 48556
##🌸 48555
##☆ 48554
##ে 48553
##ڭ 48552
##ﻔ 48551
##ﻲ 48550
##´ 48549
##۞ 48548
##ڨ 48547
##մ 48546
##フ 48545
##บ 48544
##ᆸ 48543
##ﺗ 48542
##ッ 48541
##ﻗ 48540
##χ 48539
##£ 48538
##۵ 48537
##٨ 48536
##◦ 48535
##👌 48534
##प 48533
##ক 48532
##স 48531
##ג 48530
##ð 48529
##ﺭ 48528
##ヒ 48527
##ъ 48526
##♡ 48525
##わ 48524
##۸ 48523
##カ 48522
##ക 48521
##δ 48520
##ڠ 48519
##ﻢ 48518
##ு 48517
##ட 48516
##ﻋ 48515
##¢ 48514
##ﻄ 48513
##み 48512
##や 48511
##য 48510
##ս 48509
##ე 48508
##ے 48507
##ﺕ 48506
##ͼ 48505
##► 48504
##स 48503
##☎ 48502
##ﺖ 48501
##よ 48500
##ห 48499
##ξ 48498
##✅ 48497
##÷ 48496
##ŋ 48495
##ﺟ 48494
##ﺲ 48493
##˚ 48492
##۷ 48491
##۴ 48490
##श 48489
##め 48488
##ʻ 48487
##け 48486
##そ 48485
##۹ 48484
##ﺸ 48483
##۶ 48482
##ツ 48481
##һ 48480
##ज 48479
##न 48478
##த 48477
##ர 48476
##ﻙ 48475
##⭐ 48474
##ٳ 48473
##ய 48472
##ケ 48471
##− 48470
##ᄆ 48469
##ல 48468
##կ 48467
##๑ 48466
##ђ 48465
##ﺧ 48464
##👍 48463
##ڬ 48462
##ﻡ 48461
##キ 48460
##۳ 48459
##◊ 48458
##▓ 48457
##³ 48456
##ﻛ 48455
##▬ 48454
##۩ 48453
##ข 48452
##ﻞ 48451
##ย 48450
##ں 48449
##✓ 48448
##✔ 48447
##🇸 48446
##🇦 48445
##🔥 48444
##₪ 48443
##ﺓ 48442
##え 48441
##ﺰ 48440
##க 48439
##🍃 48438
##➖ 48437
##ﺬ 48436
##ウ 48435
##º 48434
##¹ 48433
##۰ 48432
##ᄏ 48431
##ᅴ 48430
##ニ 48429
##ﮧ 48428
##đ 48427
##💙 48426
##ﯾ 48425
##¥ 48424
##ﻚ 48423
##ħ 48422
##ত 48421
##ﻵ 48420
##µ 48419
##ப 48418
##ٲ 48417
##˜ 48416
##ћ 48415
##✨ 48414
##ﻱ 48413
##ﻪ 48412
##👇 48411
##💚 48410
##ﷺ 48409
##ﻊ 48408
##░ 48407
##ℓ 48406
##ग 48405
##♪ 48404
##ল 48403
##ﺃ 48402
##¾ 48401
##ㅤ 48400
##⠀ 48399
##🙂 48398
##￼ 48397
##★ 48396
##═ 48395
##← 48394
##ম 48393
##👈 48392
##ʾ 48391
##ѕ 48390
##ﻃ 48389
##♦ 48388
##😱 48387
##ﺇ 48386
##ब 48385
##√ 48384
##🔴 48383
##😀 48382
##ﺋ 48381
##№ 48380
##▶ 48379
##🌷 48378
##■ 48377
##↑ 48376
##℃ 48375
##✿ 48374
##♣ 48373
##∞ 48372
##☼ 48371
##ஐ 48370
##◀ 48369
##≤ 48368
##❊ 48367
##≈ 48366
##≥ 48365
##□ 48364
##∈ 48363
##🕔 48362
##❒ 48361
##₹ 48360
##❑ 48359
ال 48358
th 48357
##er 48356
the 48355
##in 48354
##on 48353
##ed 48352
##en 48351
##es 48350
##or 48349
##ال 48348
##an 48347
##at 48346
in 48345
##ar 48344
an 48343
##al 48342
##ية 48341
of 48340
##ing 48339
##it 48338
##ان 48337
الم 48336
to 48335
##is 48334
##as 48333
##ات 48332
##ou 48331
and 48330
##ic 48329
في 48328
الا 48327
##ion 48326
##ار 48325
من 48324
##ين 48323
##om 48322
##il 48321
##re 48320
##ent 48319
##ام 48318
##el 48317
##ها 48316
ان 48315
##id 48314
##ec 48313
##ير 48312
##ول 48311
##et 48310
عل 48309
وال 48308
##st 48307
##ol 48306
الت 48305
##را 48304
##ur 48303
##ad 48302
for 48301
##am 48300
on 48299
##ay 48298
##ري 48297
st 48296
##ون 48295
##ro 48294
##ac 48293
##th 48292
##ما 48291
wh 48290
الع 48289
##اد 48288
##ut 48287
##le 48286
is 48285
##ست 48284
##ir 48283
##ig 48282
##ter 48281
على 48280
##ve 48279
##اب 48278
re 48277
##ly 48276
##نا 48275
##ation 48274
was 48273
be 48272
##لا 48271
##ver 48270
##ow 48269
as 48268
it 48267
##ور 48266
##ot 48265
##وا 48264
he 48263
that 48262
##يل 48261
##ch 48260
##يا 48259
##ith 48258
##im 48257
##يد 48256
الس 48255
al 48254
with 48253
fr 48252
##us 48251
##ers 48250
لل 48249
at 48248
ch 48247
sa 48246
##ill 48245
الح 48244
con 48243
##em 48242
##os 48241
##هم 48240
##ce 48239
##وم 48238
##est 48237
الى 48236
sh 48235
##ere 48234
com 48233
20 48232
##ul 48231
##nd 48230
##يم 48229
بال 48228
by 48227
وا 48226
said 48225
##عد 48224
عن 48223
الق 48222
##and 48221
##ist 48220
##رب 48219
##اء 48218
19 48217
##op 48216
##ld 48215
pro 48214
ne 48213
##ag 48212
##ri 48211
##ain 48210
الج 48209
الب 48208
الد 48207
##عل 48206
##ess 48205
##لك 48204
##ذا 48203
su 48202
الش 48201
de 48200
##ود 48199
مع 48198
##اي 48197
##اف 48196
from 48195
الف 48194
##ect 48193
##ak 48192
pr 48191
##حد 48190
##oc 48189
##ate 48188
##igh 48187
##عة 48186
##ment 48185
##ear 48184
##un 48183
##يس 48182
##ap 48181
لا 48180
his 48179
##رة 48178
الن 48177
##قد 48176
##رك 48175
##مل 48174
se 48173
le 48172
ex 48171
un 48170
الل 48169
##ts 48168
##ity 48167
##ies 48166
##ab 48165
وت 48164
##um 48163
are 48162
##od 48161
##iv 48160
or 48159
##قة 48158
##ct 48157
##art 48156
##من 48155
pl 48154
sp 48153
ha 48152
##وق 48151
cou 48150
##all 48149
##pp 48148
##ore 48147
##ian 48146
tr 48145
##بي 48144
الخ 48143
التي 48142
ar 48141
##if 48140
##ast 48139
##وس 48138
الك 48137
الذ 48136
##ud 48135
##ial 48134
##se 48133
##بر 48132
##ia 48131
##ort 48130
we 48129
##ich 48128
##سل 48127
has 48126
او 48125
ما 48124
الص 48123
##ard 48122
##ive 48121
af 48120
go 48119
##سب 48118
##مة 48117
##يت 48116
not 48115
##يه 48114
but 48113
##كن 48112
wor 48111
##gh 48110
have 48109
##ber 48108
##رو 48107
##ust 48106
##ra 48105
##يف 48104
##ther 48103
##تم 48102
ag 48101
##00 48100
were 48099
year 48098
##ant 48097
##ack 48096
##بل 48095
en 48094
ab 48093
##ost 48092
كان 48091
##ell 48090
##ong 48089
##اع 48088
ام 48087
##اس 48086
new 48085
##حت 48084
cl 48083
##ish 48082
الان 48081
##ie 48080
##رف 48079
لم 48078
comp 48077
##يات 48076
##ذه 48075
##end 48074
##كل 48073
201 48072
off 48071
this 48070
##ated 48069
ad 48068
##our 48067
per 48066
##ary 48065
had 48064
##جل 48063
الام 48062
##ight 48061
الو 48060
##ip 48059
am 48058
##ge 48057
who 48056
##ome 48055
they 48054
##هد 48053
##رت 48052
##قي 48051
which 48050
##يع 48049
##ound 48048
##قل 48047
##ارة 48046
##out 48045
اخ 48044
كل 48043
اي 48042
##صل 48041
##day 48040
##با 48039
هذا 48038
will 48037
##عت 48036
##ine 48035
##ice 48034
##ok 48033
##دا 48032
##ions 48031
ac 48030
##قت 48029
rep 48028
##ue 48027
res 48026
##في 48025
وم 48024
الذي 48023
##ame 48022
اس 48021
##ould 48020
مح 48019
##ني 48018
mar 48017
its 48016
##ry 48015
200 48014
inc 48013
الط 48012
##ub 48011
their 48010
##oll 48009
است 48008
##اني 48007
##سي 48006
rec 48005
وه 48004
##ough 48003
after 48002
gr 48001
all 48000
##so 47999
##اص 47998
المت 47997
tw 47996
fir 47995
man 47994
##pt 47993
##حة 47992
##بة 47991
##جم 47990
bo 47989
الث 47988
الله 47987
one 47986
بين 47985
##nt 47984
##ous 47983
cont 47982
##ته 47981
##كر 47980
##وج 47979
##ach 47978
##ign 47977
##لي 47976
هذه 47975
الي 47974
mon 47973
##ord 47972
##رض 47971
##ical 47970
out 47969
اب 47968
also 47967
us 47966
##فا 47965
##دي 47964
br 47963
##ans 47962
##av 47961
بن 47960
##لال 47959
##ure 47958
int 47957
الر 47956
##يرة 47955
up 47954
no 47953
comm 47952
بعد 47951
me 47950
ind 47949
##ــ 47948
##كت 47947
##qu 47946
exp 47945
been 47944
##iz 47943
pe 47942
part 47941
##سا 47940
##ime 47939
ول 47938
two 47937
##age 47936
##mp 47935
ser 47934
##كان 47933
##uc 47932
##كون 47931
co 47930
first 47929
##ence 47928
##نة 47927
##ations 47926
##man 47925
##عب 47924
inter 47923
##وب 47922
over 47921
can 47920
##مد 47919
##وع 47918
وق 47917
##شر 47916
would 47915
##وف 47914
##ide 47913
##نت 47912
##هر 47911
##دم 47910
وب 47909
##صر 47908
##اج 47907
##ass 47906
##og 47905
sec 47904
##ks 47903
##ke 47902
##ree 47901
##ff 47900
##ace 47899
##ose 47898
مت 47897
##قا 47896
##ire 47895
##ديد 47894
more 47893
her 47892
والم 47891
pol 47890
min 47889
##ond 47888
##الم 47887
##لة 47886
sc 47885
she 47884
dis 47883
##عم 47882
##راء 47881
##سم 47880
##ath 47879
علي 47878
##وض 47877
##كم 47876
والت 47875
##يز 47874
هو 47873
##خل 47872
car 47871
fin 47870
يت 47869
##طة 47868
##وي 47867
pres 47866
##own 47865
##اض 47864
##سة 47863
##ادة 47862
##act 47861
##ang 47860
app 47859
##ru 47858
##ational 47857
##ates 47856
تم 47855
##ib 47854
##دة 47853
##ail 47852
when 47851
##عا 47850
##يب 47849
el 47848
mo 47847
bec 47846
about 47845
##ition 47844
##رج 47843
##ors 47842
te 47841
##وت 47840
rel 47839
there 47838
##ولة 47837
##ident 47836
##انية 47835
##اري 47834
##ens 47833
الاس 47832
##ile 47831
so 47830
تح 47829
##ade 47828
dec 47827
play 47826
199 47825
##wn 47824
##amp 47823
تع 47822
لت 47821
##عض 47820
اك 47819
you 47818
cr 47817
qu 47816
##ict 47815
مش 47814
##oin 47813
##ance 47812
##ثر 47811
##ake 47810
ev 47809
count 47808
##ارات 47807
##illion 47806
##vern 47805
##ely 47804
انه 47803
##طل 47802
وان 47801
##فس 47800
##جا 47799
fe 47798
الاخ 47797
ذلك 47796
##در 47795
##ally 47794
##يث 47793
govern 47792
bl 47791
##ater 47790
other 47789
18 47788
##وات 47787
##جه 47786
##per 47785
acc 47784
la 47783
##بد 47782
##فت 47781
att 47780
فى 47779
##old 47778
li 47777
##ورة 47776
do 47775
##ite 47774
##الة 47773
some 47772
بل 47771
##ved 47770
par 47769
##cent 47768
##gr 47767
##وز 47766
than 47765
##ited 47764
ro 47763
##خص 47762
الري 47761
##ركة 47760
##lud 47759
خلال 47758
##ase 47757
##رق 47756
pre 47755
peop 47754
##رد 47753
##one 47752
##رى 47751
##urn 47750
العام 47749
##الي 47748
##ubl 47747
مد 47746
people 47745
##بار 47744
عام 47743
sch 47742
##ays 47741
##لم 47740
time 47739
##لف 47738
بم 47737
fl 47736
10 47735
كما 47734
الغ 47733
form 47732
##ult 47731
##مر 47730
##ory 47729
##ريق 47728
und 47727
cent 47726
into 47725
##ild 47724
المن 47723
##وري 47722
له 47721
nor 47720
با 47719
work 47718
##ings 47717
##راي 47716
offic 47715
##ick 47714
##iss 47713
government 47712
##وك 47711
المح 47710
##ep 47709
##وية 47708
##طن 47707
includ 47706
percent 47705
##رح 47704
يم 47703
##itt 47702
##we 47701
يع 47700
ass 47699
وي 47698
قد 47697
##orn 47696
inv 47695
اح 47694
##ied 47693
##able 47692
reg 47691
##رن 47690
last 47689
##iver 47688
##ذلك 47687
##ey 47686
##ند 47685
##ican 47684
##vel 47683
##سط 47682
imp 47681
again 47680
##land 47679
##enc 47678
تت 47677
bet 47676
##fer 47675
العرب 47674
kn 47673
##use 47672
war 47671
##for 47670
##ثل 47669
cons 47668
##anc 47667
##ah 47666
##uring 47665
##شار 47664
##اح 47663
under 47662
ولا 47661
##ents 47660
ear 47659
world 47658
اليوم 47657
##بن 47656
##حدة 47655
act 47654
تن 47653
des 47652
years 47651
##ينة 47650
sou 47649
الاول 47648
high 47647
قال 47646
bu 47645
اله 47644
اف 47643
بت 47642
ري 47641
##قر 47640
##وى 47639
president 47638
##تها 47637
##ضا 47636
lead 47635
ات 47634
الز 47633
may 47632
hel 47631
him 47630
##ince 47629
##خت 47628
الاست 47627
##يين 47626
##افة 47625
اد 47624
##ton 47623
جم 47622
lo 47621
اص 47620
them 47619
للم 47618
عليه 47617
if 47616
وز 47615
three 47614
##ft 47613
هي 47612
##الية 47611
##عية 47610
##ased 47609
ph 47608
مس 47607
amer 47606
##ock 47605
##ters 47604
حت 47603
اج 47602
most 47601
المع 47600
gen 47599
##ek 47598
قبل 47597
only 47596
حيث 47595
##ons 47594
##ank 47593
ومن 47592
الدول 47591
بد 47590
عند 47589
win 47588
بح 47587
يق 47586
col 47585
وج 47584
##ious 47583
jo 47582
بان 47581
def 47580
##يلة 47579
غير 47578
##ومة 47577
##eth 47576
##ood 47575
ون 47574
##يش 47573
لان 47572
str 47571
##وان 47570
##دد 47569
how 47568
state 47567
##lo 47566
مست 47565
mil 47564
##وة 47563
##als 47562
##يان 47561
##les 47560
به 47559
##ember 47558
##ues 47557
##ected 47556
##hn 47555
end 47554
compan 47553
حتى 47552
المد 47551
##reat 47550
##لب 47549
##gan 47548
12 47547
sy 47546
##لام 47545
احد 47544
العالم 47543
##ina 47542
15 47541
##صف 47540
وح 47539
سي 47538
##كي 47537
ma 47536
##صاد 47535
add 47534
during 47533
official 47532
##سية 47531
bro 47530
##قط 47529
##ities 47528
انت 47527
bus 47526
##oup 47525
call 47524
المست 47523
gu 47522
عمل 47521
والا 47520
##عي 47519
##قات 47518
##راييل 47517
##ثير 47516
بش 47515
##ool 47514
000 47513
ter 47512
##ement 47511
million 47510
##fore 47509
##سلام 47508
##راق 47507
rem 47506
11 47505
رييس 47504
dep 47503
##ناء 47502
##ier 47501
could 47500
عبد 47499
كانت 47498
وقال 47497
ret 47496
##تي 47495
publ 47494
تق 47493
against 47492
just 47491
##ause 47490
where 47489
##ward 47488
group 47487
au 47486
اش 47485
team 47484
بعض 47483
any 47482
هنا 47481
وفي 47480
char 47479
thr 47478
##امل 47477
##cc 47476
##ix 47475
النا 47474
back 47473
dem 47472
##اه 47471
four 47470
united 47469
ed 47468
##جلس 47467
air 47466
cap 47465
##بت 47464
##hip 47463
ست 47462
##وقع 47461
##are 47460
##ope 47459
before 47458
الاج 47457
prod 47456
الجم 47455
while 47454
فان 47453
تش 47452
##io 47451
##uss 47450
المش 47449
supp 47448
mark 47447
med 47446
national 47445
وع 47444
second 47443
##eral 47442
وك 47441
##اط 47440
##pen 47439
##con 47438
##ets 47437
##ating 47436
##ween 47435
what 47434
يمكن 47433
##rib 47432
وهو 47431
ثم 47430
##air 47429
south 47428
between 47427
للا 47426
##ision 47425
##رات 47424
وف 47423
اع 47422
since 47421
##form 47420
sm 47419
##ason 47418
intern 47417
made 47416
وكان 47415
many 47414
##ett 47413
prov 47412
##بح 47411
##نية 47410
states 47409
السيا 47408
##قدم 47407
##ics 47406
الات 47405
##به 47404
through 47403
الرييس 47402
city 47401
يوم 47400
##ered 47399
لي 47398
##ery 47397
العمل 47396
##يمة 47395
elect 47394
##mm 47393
يج 47392
##اك 47391
##ابة 47390
loc 47389
##تما 47388
now 47387
مو 47386
sur 47385
198 47384
لكن 47383
eur 47382
##ral 47381
##عود 47380
##سطين 47379
##ister 47378
##طقة 47377
##ouse 47376
##ning 47375
##زة 47374
##لسطين 47373
##ثة 47372
مج 47371
day 47370
bel 47369
##سلم 47368
##فة 47367
##ily 47366
المص 47365
##oss 47364
month 47363
##ines 47362
##فع 47361
##هل 47360
##row 47359
school 47358
##ادي 47357
##ork 47356
اذا 47355
للت 47354
stud 47353
##سبة 47352
##ction 47351
##يك 47350
poin 47349
##ضع 47348
يح 47347
اكثر 47346
because 47345
محمد 47344
like 47343
law 47342
sub 47341
ann 47340
14 47339
##ارج 47338
fil 47337
##واق 47336
وقد 47335
##istr 47334
##sp 47333
cour 47332
##nc 47331
##ars 47330
fam 47329
ever 47328
##فر 47327
##ind 47326
then 47325
eng 47324
##way 47323
serv 47322
did 47321
17 47320
long 47319
found 47318
ولك 47317
الانت 47316
اول 47315
show 47314
ين 47313
##ven 47312
##يية 47311
report 47310
##und 47309
##led 47308
##كة 47307
##ضل 47306
16 47305
المس 47304
##ash 47303
##ivers 47302
such 47301
down 47300
##وال 47299
lar 47298
اق 47297
week 47296
##ower 47295
الحك 47294
##atch 47293
كب 47292
##urs 47291
مص 47290
##au 47289
##ual 47288
##وار 47287
north 47286
وس 47285
well 47284
##az 47283
##رية 47282
تص 47281
##ms 47280
##اريخ 47279
##ollow 47278
##up 47277
##ورية 47276
inst 47275
##اصة 47274
اعل 47273
sl 47272
##ists 47271
say 47270
##ise 47269
econ 47268
##رم 47267
##iel 47266
فيها 47265
econom 47264
dire 47263
##atur 47262
follow 47261
run 47260
##ink 47259
wr 47258
country 47257
##ركز 47256
##رام 47255
##از 47254
13 47253
فت 47252
##son 47251
contr 47250
ob 47249
em 47248
spec 47247
ولكن 47246
ايضا 47245
##ert 47244
##ديدة 47243
##uch 47242
##orts 47241
mus 47240
being 47239
own 47238
my 47237
##لاح 47236
##ative 47235
##ular 47234
##emb 47233
american 47232
مق 47231
plan 47230
##سان 47229
الض 47228
##ينا 47227
##ames 47226
دول 47225
##its 47224
company 47223
##urr 47222
bar 47221
invest 47220
##عات 47219
##بية 47218
بها 47217
##غير 47216
30 47215
##ph 47214
نفس 47213
نظ 47212
open 47211
old 47210
##جة 47209
##aking 47208
فيه 47207
##حي 47206
##ss 47205
##olog 47204
##ution 47203
يكون 47202
house 47201
المج 47200
البل 47199
sign 47198
المق 47197
##tern 47196
##ving 47195
##صول 47194
##بات 47193
##ai 47192
##ished 47191
including 47190
##ress 47189
milit 47188
##سات 47187
المتحدة 47186
##دى 47185
##ife 47184
##كية 47183
##بع 47182
trans 47181
##حا 47180
num 47179
##iew 47178
##قيق 47177
##ments 47176
polit 47175
##xt 47174
##يدة 47173
##ged 47172
sen 47171
مثل 47170
197 47169
##ern 47168
تج 47167
##يو 47166
##طر 47165
بالم 47164
كت 47163
even 47162
both 47161
##صة 47160
##ev 47159
##انون 47158
##ــــ 47157
tal 47156
direct 47155
##velop 47154
##pr 47153
cor 47152
25 47151
##fl 47150
##ces 47149
##كس 47148
العربية 47147
##att 47146
نح 47145
international 47144
##ful 47143
الاسلام 47142
head 47141
##ital 47140
##وعة 47139
##ov 47138
progr 47137
##الات 47136
الرا 47135
later 47134
develop 47133
##رار 47132
public 47131
oper 47130
##ee 47129
##ange 47128
##امة 47127
eff 47126
##طا 47125
##res 47124
##ica 47123
لن 47122
season 47121
est 47120
##ble 47119
record 47118
##قتصاد 47117
لح 47116
arm 47115
main 47114
##iam 47113
الال 47112
اط 47111
حول 47110
##nes 47109
##ained 47108
التح 47107
##imes 47106
##زل 47105
##ency 47104
##ull 47103
these 47102
near 47101
جن 47100
former 47099
هناك 47098
دا 47097
##يط 47096
تد 47095
##ريد 47094
##ساعد 47093
##ives 47092
انها 47091
اعت 47090
##سن 47089
##oci 47088
##ices 47087
gre 47086
del 47085
rele 47084
##ific 47083
##يرا 47082
##يفة 47081
اث 47080
maj 47079
منذ 47078
sw 47077
##عر 47076
عدد 47075
##ضاف 47074
tri 47073
univers 47072
##te 47071
home 47070
minister 47069
##ield 47068
##اة 47067
##elf 47066
لها 47065
disc 47064
start 47063
sever 47062
يد 47061
يست 47060
##شف 47059
##ted 47058
الذين 47057
art 47056
sal 47055
سب 47054
##هما 47053
##وص 47052
الاد 47051
ملي 47050
pop 47049
##ject 47048
##min 47047
det 47046
اخر 47045
##ird 47044
kill 47043
leg 47042
##ently 47041
still 47040
camp 47039
##فل 47038
##gest 47037
dr 47036
sing 47035
don 47034
##ather 47033
سن 47032
conc 47031
##ik 47030
المو 47029
##ole 47028
عم 47027
##ابات 47026
pri 47025
دون 47024
##osed 47023
##til 47022
##eng 47021
الماض 47020
بع 47019
##حدث 47018
بالت 47017
##جد 47016
police 47015
china 47014
##يون 47013
used 47012
contin 47011
help 47010
الوز 47009
resp 47008
make 47007
those 47006
##خد 47005
تحت 47004
##زا 47003
##ount 47002
game 47001
الاف 47000
wom 46999
europe 46998
far 46997
جميع 46996
##ختلف 46995
##other 46994
dif 46993
commun 46992
##ized 46991
##rael 46990
##اش 46989
##ty 46988
##oot 46987
##enn 46986
israel 46985
##ene 46984
##ربية 46983
party 46982
##رس 46981
196 46980
##مت 46979
##راف 46978
حق 46977
ger 46976
##ism 46975
accord 46974
##ys 46973
major 46972
pers 46971
مصر 46970
called 46969
ra 46968
##ury 46967
المنا 46966
red 46965
الامير 46964
every 46963
##عمال 46962
ins 46961
##افظ 46960
ir 46959
secur 46958
iss 46957
pal 46956
شي 46955
##ether 46954
##ضي 46953
##ودة 46952
##let 46951
تط 46950
five 46949
told 46948
##ants 46947
ext 46946
##لت 46945
##ever 46944
حد 46943
way 46942
attack 46941
##ible 46940
officials 46939
child 46938
خط 46937
ira 46936
##ظر 46935
##ional 46934
opp 46933
won 46932
##ave 46931
السل 46930
doll 46929
meet 46928
##زب 46927
brit 46926
tel 46925
##فاق 46924
الاح 46923
اما 46922
prof 46921
##ارية 46920
##ظم 46919
الفلسطين 46918
billion 46917
another 46916
اخرى 46915
##iness 46914
russ 46913
##ner 46912
##واء 46911
prot 46910
stat 46909
##els 46908
met 46907
##رش 46906
يتم 46905
ود 46904
##ماء 46903
##قاء 46902
good 46901
jun 46900
البح 46899
امام 46898
##ians 46897
##der 46896
const 46895
سل 46894
sim 46893
six 46892
john 46891
##سبب 46890
الجن 46889
##ying 46888
##ought 46887
##يج 46886
##ility 46885
##يران 46884
تس 46883
our 46882
iraq 46881
وهي 46880
وش 46879
need 46878
والع 46877
##ret 46876
vis 46875
wed 46874
##لاق 46873
##stem 46872
##مال 46871
##علم 46870
adv 46869
##له 46868
hand 46867
##وح 46866
take 46865
##ries 46864
get 46863
vi 46862
الاش 46861
##iday 46860
should 46859
التن 46858
##lear 46857
##ross 46856
university 46855
build 46854
##ission 46853
news 46852
##اخ 46851
##حاد 46850
next 46849
##ures 46848
##وه 46847
until 46846
##لاث 46845
bank 46844
##رين 46843
##وول 46842
much 46841
program 46840
id 46839
organ 46838
##راج 46837
##ute 46836
york 46835
several 46834
system 46833
aust 46832
الصح 46831
العراق 46830
pass 46829
الامن 46828
السعود 46827
اغ 46826
##خدم 46825
##فاع 46824
cre 46823
##لى 46822
##ont 46821
منها 46820
يش 46819
##ves 46818
##ug 46817
##امج 46816
mod 46815
##طاع 46814
return 46813
##طال 46812
##ارس 46811
military 46810
##ball 46809
عليها 46808
top 46807
بشكل 46806
مجلس 46805
منت 46804
very 46803
known 46802
##غم 46801
##over 46800
support 46799
##app 46798
according 46797
auth 46796
اذ 46795
set 46794
hist 46793
##لق 46792
family 46791
however 46790
market 46789
##ief 46788
business 46787
##erg 46786
##ior 46785
##ايات 46784
##ضة 46783
##ised 46782
ge 46781
##يي 46780
##انب 46779
cond 46778
fore 46777
##ins 46776
left 46775
##قال 46774
الحكومة 46773
general 46772
##ax 46771
ste 46770
prom 46769
تلك 46768
mid 46767
here 46766
court 46765
##ned 46764
##روع 46763
الوق 46762
west 46761
rece 46760
same 46759
want 46758
##ived 46757
##ويت 46756
##ling 46755
number 46754
ve 46753
##سين 46752
around 46751
tues 46750
الاعل 46749
tuesday 46748
early 46747
##وضوع 46746
لك 46745
champ 46744
##مان 46743
hal 46742
##بط 46741
##رون 46740
##ark 46739
24 46738
wednes 46737
لبن 46736
##red 46735
wednesday 46734
film 46733
ke 46732
conf 46731
based 46730
موس 46729
##ats 46728
cal 46727
21 46726
spe 46725
jan 46724
##thern 46723
bre 46722
##اما 46721
##جموعة 46720
##apan 46719
##embers 46718
##ains 46717
##ady 46716
##ren 46715
monday 46714
##ياة 46713
الموا 46712
##ection 46711
prev 46710
har 46709
power 46708
##طف 46707
thurs 46706
##ually 46705
appear 46704
##وقف 46703
فه 46702
thursday 46701
rev 46700
##ومات 46699
big 46698
##ley 46697
##قب 46696
friday 46695
japan 46694
ليس 46693
pat 46692
political 46691
curr 46690
##غة 46689
german 46688
incre 46687
rest 46686
##عليم 46685
ju 46684
تكون 46683
والح 46682
fed 46681
المنت 46680
تست 46679
تف 46678
manag 46677
عبر 46676
members 46675
##اهد 46674
##ocr 46673
22 46672
100 46671
موا 46670
##ecut 46669
ابو 46668
security 46667
press 46666
coll 46665
turn 46664
produc 46663
##مار 46662
الشي 46661
##ague 46660
##جنة 46659
الساب 46658
foreign 46657
##اته 46656
shar 46655
use 46654
##صد 46653
الول 46652
##زيد 46651
##ظام 46650
##يادة 46649
author 46648
##used 46647
فر 46646
town 46645
##ale 46644
##عار 46643
وعل 46642
##urch 46641
##ights 46640
emp 46639
##alth 46638
50 46637
##ued 46636
نت 46635
##par 46634
third 46633
##يق 46632
place 46631
##osition 46630
each 46629
##نين 46628
land 46627
trad 46626
alb 46625
##aw 46624
اسراييل 46623
area 46622
hum 46621
##وط 46620
شركة 46619
##ided 46618
##earch 46617
stand 46616
شخص 46615
##تمع 46614
##وسط 46613
put 46612
join 46611
##غي 46610
##فق 46609
care 46608
وخ 46607
##نى 46606
##اث 46605
chr 46604
##ظيم 46603
##مية 46602
194 46601
best 46600
val 46599
appro 46598
terr 46597
الاولى 46596
local 46595
democr 46594
post 46593
##الح 46592
التج 46591
وما 46590
الاسراييل 46589
2018 46588
الموس 46587
وذلك 46586
فقط 46585
##رها 46584
الاجتما 46583
look 46582
المغ 46581
الدولة 46580
see 46579
الوطن 46578
##bs 46577
##كا 46576
vict 46575
stre 46574
div 46573
av 46572
اض 46571
##atic 46570
##خدام 46569
took 46568
##ربع 46567
bas 46566
##ounc 46565
195 46564
سيا 46563
الخارج 46562
##ورو 46561
##ench 46560
##ium 46559
sk 46558
##ركات 46557
##amed 46556
march 46555
##قول 46554
among 46553
القد 46552
##ead 46551
ref 46550
life 46549
##كري 46548
##ذكر 46547
##رفة 46546
##شرة 46545
spok 46544
##انيا 46543
know 46542
##وما 46541
اجل 46540
##inc 46539
##aly 46538
became 46537
##ott 46536
produ 46535
held 46534
tec 46533
following 46532
##راد 46531
##الت 46530
##وير 46529
foot 46528
والد 46527
فقد 46526
##طي 46525
series 46524
right 46523
##cept 46522
##ويل 46521
الدين 46520
##اذ 46519
men 46518
##زم 46517
##ابل 46516
##واقع 46515
امس 46514
agre 46513
##خب 46512
##ington 46511
##هدف 46510
##aining 46509
لبنان 46508
small 46507
associ 46506
##ياء 46505
##gin 46504
points 46503
distr 46502
احت 46501
##ony 46500
##رنامج 46499
##pl 46498
الاقتصاد 46497
##0s 46496
times 46495
عندما 46494
women 46493
الماضي 46492
##lin 46491
indust 46490
republ 46489
book 46488
sept 46487
رس 46486
صح 46485
##يار 46484
##ric 46483
going 46482
##امعة 46481
الامري 46480
vot 46479
حال 46478
لد 46477
line 46476
final 46475
23 46474
##ages 46473
مما 46472
واضاف 46471
fac 46470
##باب 46469
تب 46468
##ked 46467
##ides 46466
واست 46465
اليه 46464
som 46463
partic 46462
وزير 46461
tro 46460
الامر 46459
الشر 46458
##ger 46457
##ew 46456
allow 46455
sund 46454
##ليل 46453
باس 46452
grow 46451
المم 46450
test 46449
##ended 46448
move 46447
deb 46446
الكت 46445
person 46444
##aim 46443
league 46442
الناس 46441
born 46440
depart 46439
port 46438
##ired 46437
##loy 46436
##ody 46435
عب 46434
days 46433
##ient 46432
##قيقة 46431
الثاني 46430
للح 46429
والتي 46428
great 46427
##ese 46426
net 46425
think 46424
##ored 46423
منه 46422
##ذي 46421
ولم 46420
differ 46419
##istan 46418
##واب 46417
##يدا 46416
اخت 46415
السلام 46414
real 46413
east 46412
لع 46411
came 46410
##ison 46409
##ama 46408
fund 46407
##ضر 46406
class 46405
موقع 46404
##ضم 46403
مدينة 46402
الانسان 46401
##ush 46400
ضد 46399
بما 46398
##ipp 46397
##ظمة 46396
الشعب 46395
##اية 46394
requ 46393
واحد 46392
reported 46391
##عاون 46390
##ense 46389
العامة 46388
proc 46387
اللا 46386
austral 46385
##bo 46384
compet 46383
##ops 46382
aff 46381
led 46380
##يام 46379
حين 46378
played 46377
san 46376
ant 46375
##ايل 46374
##زيز 46373
music 46372
death 46371
وقت 46370
imm 46369
design 46368
poss 46367
service 46366
##اعة 46365
miss 46364
##ضاء 46363
star 46362
نق 46361
games 46360
##by 46359
began 46358
40 46357
##rug 46356
afr 46355
tak 46354
pa 46353
ca 46352
children 46351
dollars 46350
##ention 46349
داخل 46348
سنة 46347
countries 46346
الوقت 46345
##ulation 46344
##رير 46343
الاث 46342
says 46341
club 46340
يا 46339
##عتبر 46338
name 46337
##uck 46336
sold 46335
chief 46334
##قم 46333
along 46332
white 46331
مم 46330
بس 46329
##yp 46328
released 46327
##ator 46326
##وريا 46325
sunday 46324
does 46323
##ically 46322
##iving 46321
##thing 46320
ang 46319
dri 46318
few 46317
ابن 46316
##iting 46315
##ately 46314
##aph 46313
announc 46312
peace 46311
repres 46310
اللبن 46309
##ety 46308
##دت 46307
##وث 46306
##thers 46305
بط 46304
##بلغ 46303
wash 46302
##فض 46301
##راه 46300
##port 46299
والس 46298
جدا 46297
حل 46296
الاسب 46295
oct 46294
june 46293
ارت 46292
##ann 46291
sol 46290
26 46289
##ially 46288
27 46287
economic 46286
list 46285
يس 46284
يجب 46283
consid 46282
office 46281
لو 46280
##قبل 46279
crit 46278
aug 46277
##راة 46276
##vers 46275
التع 46274
الفت 46273
وص 46272
بق 46271
il 46270
##طني 46269
##omb 46268
##الى 46267
months 46266
##ech 46265
##ارت 46264
##ones 46263
##ريب 46262
techn 46261
ent 46260
##ending 46259
##اتي 46258
##عيد 46257
late 46256
deal 46255
reach 46254
match 46253
##aff 46252
احمد 46251
british 46250
فا 46249
28 46248
##line 46247
مليون 46246
##ering 46245
##ting 46244
##ديث 46243
فيما 46242
short 46241
المنطقة 46240
occ 46239
##ابع 46238
eas 46237
##estin 46236
rad 46235
والن 46234
##br 46233
expl 46232
##ize 46231
##co 46230
hold 46229
مخ 46228
##عداد 46227
soc 46226
committ 46225
var 46224
youn 46223
orig 46222
بالن 46221
health 46220
نحو 46219
##ured 46218
colle 46217
##داد 46216
center 46215
##get 46214
without 46213
killed 46212
##مو 46211
po 46210
wal 46209
leaders 46208
##ards 46207
level 46206
##لاف 46205
وهذا 46204
admin 46203
member 46202
doc 46201
بدا 46200
interest 46199
bill 46198
##هة 46197
summ 46196
المخ 46195
belie 46194
##ness 46193
##ology 46192
half 46191
اهم 46190
past 46189
العلا 46188
july 46187
sent 46186
##واصل 46185
بسبب 46184
succ 46183
نها 46182
##راض 46181
الدا 46180
fact 46179
vill 46178
##راك 46177
sus 46176
مل 46175
##روف 46174
black 46173
dist 46172
ah 46171
لما 46170
cost 46169
دولار 46168
##طار 46167
central 46166
apr 46165
##inal 46164
beh 46163
european 46162
import 46161
##ified 46160
عدم 46159
earl 46158
##ريط 46157
##كتب 46156
بك 46155
water 46154
طريق 46153
added 46152
##ience 46151
never 46150
##قى 46149
##حل 46148
proble 46147
##sc 46146
##ham 46145
free 46144
reb 46143
pay 46142
منطقة 46141
بج 46140
صلى 46139
##uary 46138
##حات 46137
satur 46136
افضل 46135
champions 46134
financ 46133
ترك 46132
الولايات 46131
##نان 46130
success 46129
##طق 46128
inform 46127
الاحت 46126
راي 46125
mal 46124
district 46123
sit 46122
##هور 46121
lab 46120
##lish 46119
case 46118
##كتور 46117
april 46116
equ 46115
prop 46114
bush 46113
السعودية 46112
night 46111
##قاط 46110
تخ 46109
##ruct 46108
##ising 46107
فل 46106
washington 46105
tit 46104
arr 46103
قا 46102
geor 46101
##augh 46100
##طب 46099
##كو 46098
army 46097
##علومات 46096
song 46095
العربي 46094
tot 46093
saturday 46092
exper 46091
##زمة 46090
hour 46089
##ريقة 46088
corp 46087
gl 46086
الاتحاد 46085
##ياه 46084
خاصة 46083
counc 46082
##ten 46081
award 46080
spokes 46079
##ference 46078
العم 46077
##aign 46076
مب 46075
##جر 46074
secret 46073
##gress 46072
come 46071
cut 46070
too 46069
polic 46068
انا 46067
##ايية 46066
french 46065
hard 46064
represent 46063
##ريف 46062
وزارة 46061
عملية 46060
viol 46059
##med 46058
campaign 46057
meeting 46056
county 46055
quar 46054
##sh 46053
mag 46052
##سكر 46051
2010 46050
ban 46049
##emp 46048
##ature 46047
round 46046
##ex 46045
union 46044
fre 46043
administr 46042
litt 46041
civ 46040
##وء 46039
event 46038
september 46037
الشيخ 46036
##ارك 46035
strong 46034
director 46033
expected 46032
قام 46031
##bert 46030
claim 46029
##جمع 46028
فال 46027
##ization 46026
##طية 46025
وجود 46024
193 46023
وسلم 46022
الملك 46021
##unch 46020
نش 46019
human 46018
january 46017
council 46016
money 46015
capital 46014
العل 46013
كبير 46012
point 46011
##ges 46010
road 46009
pet 46008
##تمر 46007
kore 46006
album 46005
##حية 46004
العلم 46003
##ضية 46002
##فيذ 46001
##نع 46000
find 45999
little 45998
جديدة 45997
2017 45996
##ظهر 45995
enter 45994
stri 45993
##itions 45992
dom 45991
rul 45990
سم 45989
research 45988
29 45987
complet 45986
##قديم 45985
مختلف 45984
##شي 45983
august 45982
less 45981
عشر 45980
##دية 45979
##غل 45978
القانون 45977
side 45976
##اول 45975
church 45974
department 45973
للع 45972
##ots 45971
##eration 45970
alth 45969
cup 45968
special 45967
##ourn 45966
##لاثة 45965
يقول 45964
##ايق 45963
حك 45962
ذات 45961
وعلى 45960
force 45959
##يارة 45958
##خابات 45957
جديد 45956
بي 45955
although 45954
christ 45953
##side 45952
##همة 45951
##جهة 45950
election 45949
واك 45948
fell 45947
التى 45946
island 45945
hit 45944
الرياض 45943
oil 45942
##ملة 45941
king 45940
phil 45939
vo 45938
region 45937
##اق 45936
المركز 45935
##ron 45934
fur 45933
##erv 45932
forces 45931
##ried 45930
dav 45929
tur 45928
project 45927
ابي 45926
desc 45925
##iter 45924
نس 45923
##الف 45922
fire 45921
الخط 45920
الخارجية 45919
control 45918
صف 45917
trade 45916
dra 45915
sett 45914
clin 45913
##جز 45912
##erc 45911
الدولية 45910
within 45909
palestin 45908
jud 45907
##كرة 45906
##ربي 45905
##لاء 45904
##يني 45903
federal 45902
##صار 45901
الوطني 45900
##حق 45899
##wh 45898
development 45897
chang 45896
اسم 45895
lat 45894
##af 45893
##aced 45892
مجموعة 45891
##ober 45890
##مس 45889
ur 45888
profess 45887
##ators 45886
##ural 45885
كثير 45884
went 45883
must 45882
let 45881
##عى 45880
##وبة 45879
least 45878
واس 45877
den 45876
##be 45875
october 45874
عنه 45873
invol 45872
2008 45871
companies 45870
الكثير 45869
##iven 45868
##ادل 45867
##mber 45866
##باراة 45865
ويت 45864
اليم 45863
fall 45862
civil 45861
##inese 45860
##طات 45859
prime 45858
fri 45857
ور 45856
نفسه 45855
31 45854
جز 45853
الارض 45852
neg 45851
due 45850
##اهرة 45849
##que 45848
december 45847
الدولي 45846
leader 45845
dou 45844
feb 45843
بص 45842
tour 45841
دور 45840
##ends 45839
fail 45838
##ases 45837
اكت 45836
large 45835
field 45834
##itch 45833
quest 45832
عبدال 45831
##حم 45830
حس 45829
الاعلام 45828
hol 45827
النظام 45826
building 45825
your 45824
investig 45823
nove 45822
chinese 45821
##وجه 45820
##ects 45819
saying 45818
low 45817
##حاب 45816
تاريخ 45815
كبيرة 45814
november 45813
educ 45812
##افظة 45811
السود 45810
earlier 45809
fight 45808
##ربة 45807
canad 45806
##زال 45805
ap 45804
order 45803
##ابعة 45802
died 45801
المه 45800
batt 45799
الاك 45798
##جن 45797
الخاصة 45796
##ung 45795
لهم 45794
كيف 45793
execut 45792
المقبل 45791
though 45790
##ودي 45789
##جب 45788
station 45787
وغير 45786
يف 45785
mor 45784
##دين 45783
##ival 45782
##طلق 45781
جاء 45780
2011 45779
park 45778
susp 45777
##ilt 45776
2016 45775
بار 45774
الاص 45773
process 45772
والش 45771
##وجد 45770
commission 45769
ball 45768
mass 45767
super 45766
activ 45765
##لية 45764
الشرق 45763
lost 45762
##uct 45761
become 45760
##estern 45759
وضع 45758
مك 45757
vol 45756
بو 45755
conv 45754
mich 45753
tax 45752
2009 45751
##لكة 45750
الوا 45749
35 45748
##aper 45747
ومع 45746
مبا 45745
inj 45744
##عدة 45743
هل 45742
##تين 45741
القا 45740
##طلب 45739
estab 45738
##itor 45737
نف 45736
##int 45735
telev 45734
##الب 45733
##iod 45732
الحياة 45731
stor 45730
clear 45729
##صوص 45728
##ands 45727
##20 45726
التص 45725
announced 45724
lim 45723
##ler 45722
بر 45721
coach 45720
##يرات 45719
broad 45718
ago 45717
##رحلة 45716
france 45715
السياسية 45714
##قاف 45713
##osp 45712
##lex 45711
##ogr 45710
total 45709
football 45708
today 45707
quarter 45706
received 45705
2000 45704
الاحد 45703
ضمن 45702
gold 45701
##rop 45700
##بير 45699
2006 45698
##acy 45697
##اقة 45696
##وله 45695
2015 45694
stock 45693
arg 45692
hom 45691
##eal 45690
priv 45689
got 45688
##lement 45687
العق 45686
##رجة 45685
##ane 45684
2014 45683
العديد 45682
making 45681
الثلاث 45680
##صرية 45679
##utes 45678
keep 45677
non 45676
تجا 45675
young 45674
##ida 45673
infl 45672
los 45671
##ارب 45670
##rem 45669
previous 45668
##ماية 45667
برنامج 45666
الجيش 45665
عمر 45664
away 45663
والف 45662
##go 45661
الوزراء 45660
الحد 45659
تو 45658
الوطنية 45657
##يته 45656
instit 45655
hot 45654
2012 45653
الفرن 45652
close 45651
##ضح 45650
rich 45649
##فظ 45648
يص 45647
##راسة 45646
##ring 45645
النف 45644
college 45643
result 45642
history 45641
others 45640
##ively 45639
##ef 45638
الحل 45637
اكبر 45636
son 45635
period 45634
الدكتور 45633
##ايج 45632
im 45631
seven 45630
##يدي 45629
aut 45628
##ريم 45627
different 45626
مرة 45625
##idence 45624
الخم 45623
##سايل 45622
2013 45621
age 45620
لدى 45619
mc 45618
financial 45617
##ump 45616
##ران 45615
العد 45614
واخ 45613
statement 45612
##جي 45611
كم 45610
inf 45609
##iers 45608
مكان 45607
شر 45606
might 45605
##oman 45604
##امين 45603
social 45602
الثال 45601
nation 45600
##بيق 45599
##عضاء 45598
الاسلامية 45597
الطبي 45596
بيان 45595
##ساعدة 45594
##ready 45593
present 45592
often 45591
rights 45590
##ption 45589
##uel 45588
congress 45587
once 45586
story 45585
##ij 45584
terror 45583
المشار 45582
already 45581
information 45580
addition 45579
full 45578
championship 45577
relations 45576
##verage 45575
500 45574
##akes 45573
whether 45572
##نف 45571
كنت 45570
squ 45569
bur 45568
##جات 45567
mean 45566
##ds 45565
##tain 45564
arch 45563
##ably 45562
الظ 45561
##ences 45560
given 45559
##ادر 45558
وجه 45557
further 45556
صور 45555
##aster 45554
recent 45553
host 45552
##ament 45551
2007 45550
موضوع 45549
street 45548
tar 45547
ham 45546
المجتمع 45545
include 45544
committee 45543
ep 45542
الصين 45541
chair 45540
##هاز 45539
شيء 45538
iran 45537
##epend 45536
television 45535
المصري 45534
60 45533
##ادرة 45532
glo 45531
قت 45530
مركز 45529
ادارة 45528
##yn 45527
century 45526
named 45525
independ 45524
exc 45523
##ana 45522
كتاب 45521
eight 45520
step 45519
191 45518
population 45517
america 45516
repl 45515
rock 45514
الجديد 45513
##باح 45512
conference 45511
نقل 45510
##ways 45509
##طيع 45508
troops 45507
الاخيرة 45506
عاما 45505
spokesman 45504
يخ 45503
تل 45502
دولة 45501
المجلس 45500
التش 45499
##ره 45498
##ساء 45497
##ared 45496
##جال 45495
##ruary 45494
agency 45493
mot 45492
february 45491
trav 45490
امن 45489
##less 45488
اسب 45487
##هتم 45486
##جيل 45485
single 45484
وكانت 45483
تحد 45482
board 45481
better 45480
view 45479
##gy 45478
fut 45477
باست 45476
concern 45475
السابق 45474
عد 45473
باسم 45472
##طع 45471
اهل 45470
التد 45469
journ 45468
##انت 45467
##كمة 45466
visit 45465
parl 45464
قدم 45463
init 45462
والص 45461
التعليم 45460
##يارات 45459
##كار 45458
##ومية 45457
##علق 45456
استخدام 45455
sug 45454
russia 45453
مث 45452
الحق 45451
##برا 45450
##شة 45449
##صال 45448
##اتف 45447
talks 45446
community 45445
important 45444
vir 45443
192 45442
##self 45441
##انا 45440
##اسية 45439
##اتب 45438
##ograph 45437
having 45436
##املة 45435
sn 45434
##ده 45433
typ 45432
##انة 45431
base 45430
##work 45429
سنوات 45428
dev 45427
dam 45426
رب 45425
southern 45424
desp 45423
mat 45422
river 45421
employ 45420
##وبية 45419
william 45418
##oy 45417
للش 45416
حزب 45415
المدينة 45414
##قليم 45413
المسلم 45412
الاربع 45411
##اتها 45410
الشخص 45409
share 45408
البلاد 45407
والق 45406
واش 45405
moved 45404
bomb 45403
فريق 45402
conn 45401
الحرب 45400
parliam 45399
يب 45398
التط 45397
decision 45396
mount 45395
المب 45394
##قرار 45393
لقد 45392
للد 45391
##سكرية 45390
command 45389
##يح 45388
2004 45387
begin 45386
working 45385
45 45384
players 45383
lond 45382
israeli 45381
##تهم 45380
western 45379
##زاير 45378
##ruction 45377
الجديدة 45376
##esh 45375
##تيجة 45374
الارها 45373
اعمال 45372
band 45371
cult 45370
describ 45369
threat 45368
واحدة 45367
بغ 45366
##icans 45365
industry 45364
parliament 45363
الاعت 45362
impro 45361
حالة 45360
give 45359
##ky 45358
قر 45357
##lam 45356
##امن 45355
started 45354
london 45353
لش 45352
##istry 45351
refer 45350
cand 45349
bal 45348
dead 45347
stop 45346
role 45345
2005 45344
التاريخ 45343
##ances 45342
##سلحة 45341
##ribut 45340
economy 45339
india 45338
السياسي 45337
qual 45336
اجتما 45335
##aged 45334
##ونة 45333
عدة 45332
hosp 45331
فعل 45330
sour 45329
##ata 45328
##ze 45327
بف 45326
مسوول 45325
عرض 45324
media 45323
ru 45322
##جاز 45321
الثانية 45320
lik 45319
front 45318
الجز 45317
##ظيف 45316
seem 45315
تقدم 45314
واب 45313
##ايف 45312
الفلسطينية 45311
##مي 45310
يحت 45309
##اضافة 45308
##ابية 45307
alm 45306
مض 45305
عقد 45304
taken 45303
bud 45302
key 45301
الارد 45300
##داء 45299
##دمة 45298
بير 45297
تنا 45296
##yl 45295
##رع 45294
##ensive 45293
##ادث 45292
##صادر 45291
##مبر 45290
cross 45289
bord 45288
##ened 45287
مف 45286
ذكر 45285
فلسطين 45284
administration 45283
بكل 45282
شهر 45281
env 45280
russian 45279
لكل 45278
وبعد 45277
calif 45276
والذي 45275
grand 45274
built 45273
clinton 45272
##كلة 45271
وعد 45270
##ادات 45269
food 45268
##الد 45267
ord 45266
ايام 45265
##حن 45264
saf 45263
common 45262
حسب 45261
وتع 45260
lot 45259
##جان 45258
نوع 45257
read 45256
##اهر 45255
##bal 45254
pak 45253
fig 45252
northern 45251
از 45250
charac 45249
##هداف 45248
ايران 45247
##سلسل 45246
despite 45245
services 45244
نظام 45243
rose 45242
##aker 45241
##ara 45240
nations 45239
asked 45238
الداخل 45237
##ايب 45236
##ban 45235
vers 45234
قرار 45233
tre 45232
##فاء 45231
##هن 45230
site 45229
##هب 45228
##طفال 45227
across 45226
ii 45225
الرسم 45224
##ced 45223
هم 45222
father 45221
##iet 45220
##avy 45219
نهاية 45218
اللجنة 45217
gener 45216
##orters 45215
الترك 45214
##ضمن 45213
secretary 45212
groups 45211
comb 45210
treat 45209
largest 45208
career 45207
##ستان 45206
الاخرى 45205
##هود 45204
change 45203
وث 45202
##راب 45201
##ادية 45200
مدير 45199
ground 45198
قل 45197
goal 45196
قص 45195
arrest 45194
term 45193
##rod 45192
sil 45191
##راع 45190
arri 45189
##ميل 45188
histor 45187
##uk 45186
defense 45185
interv 45184
tog 45183
included 45182
wee 45181
##urg 45180
drug 45179
whose 45178
bra 45177
cert 45176
issue 45175
pan 45174
students 45173
##ids 45172
kh 45171
##جوم 45170
##dle 45169
##ne 45168
##ico 45167
arab 45166
cam 45165
مجال 45164
الامريكية 45163
fun 45162
مستوى 45161
جانب 45160
germany 45159
##وبر 45158
الاميركية 45157
oly 45156
analy 45155
ماي 45154
##شاء 45153
race 45152
##عادة 45151
راس 45150
policy 45149
nuc 45148
هول 45147
طلب 45146
السن 45145
constit 45144
##صب 45143
hu 45142
##itive 45141
player 45140
##غط 45139
##isl 45138
##هورية 45137
##وفر 45136
لق 45135
فع 45134
served 45133
##oph 45132
##ination 45131
عالم 45130
بـ 45129
الشركة 45128
##اصمة 45127
جل 45126
##ولوج 45125
قانون 45124
##قرير 45123
track 45122
رم 45121
##شرين 45120
وصل 45119
loss 45118
##oun 45117
السوري 45116
pot 45115
##امي 45114
##ورا 45113
خارج 45112
##aces 45111
##جهزة 45110
ار 45109
تعد 45108
sell 45107
together 45106
england 45105
enc 45104
##قه 45103
mill 45102
##خول 45101
الشع 45100
weeks 45099
hop 45098
سوريا 45097
##رييس 45096
olymp 45095
##ple 45094
##edi 45093
روس 45092
gun 45091
meas 45090
الرو 45089
##وضع 45088
##ming 45087
الاب 45086
newsp 45085
village 45084
يون 45083
using 45082
##قرا 45081
suff 45080
##خر 45079
##يمان 45078
##uation 45077
الخاص 45076
الاير 45075
2003 45074
##ماع 45073
pakistan 45072
lang 45071
##ike 45070
##ــــــــ 45069
located 45068
تعالى 45067
##leg 45066
منهم 45065
##ilar 45064
division 45063
exch 45062
تك 45061
launch 45060
##بيع 45059
سا 45058
sales 45057
صد 45056
##دمات 45055
mex 45054
sun 45053
وام 45052
لدي 45051
##wan 45050
behind 45049
##خاص 45048
وليس 45047
الجمعة 45046
current 45045
seen 45044
##off 45043
indian 45042
مر 45041
##irc 45040
association 45039
الاثنين 45038
er 45037
مشروع 45036
cast 45035
palestinian 45034
##ength 45033
pain 45032
##bor 45031
rail 45030
##اجة 45029
##rew 45028
face 45027
discuss 45026
32 45025
wall 45024
##ضور 45023
production 45022
##umb 45021
بالاضافة 45020
effect 45019
##ults 45018
رقم 45017
السيد 45016
##yle 45015
##king 45014
islam 45013
light 45012
##ode 45011
ident 45010
##راءات 45009
##ya 45008
mart 45007
ويع 45006
##قق 45005
لمن 45004
##باط 45003
##key 45002
ثلاثة 45001
##ورات 45000
##fic 44999
##ذك 44998
يكن 44997
الاسراييلي 44996
##lim 44995
بلغ 44994
ministry 44993
تحقيق 44992
مرت 44991
مه 44990
رسول 44989
للن 44988
##ille 44987
senior 44986
position 44985
cover 44984
australia 44983
##ows 44982
كون 44981
published 44980
##ergy 44979
فقال 44978
pract 44977
##oti 44976
2001 44975
nuclear 44974
فلا 44973
prices 44972
حقوق 44971
possible 44970
radio 44969
##ato 44968
رغم 44967
ساب 44966
english 44965
##ael 44964
امري 44963
candid 44962
je 44961
##yal 44960
green 44959
clos 44958
workers 44957
taking 44956
الفريق 44955
##igr 44954
##ape 44953
attacks 44952
##yc 44951
##راقي 44950
الخميس 44949
break 44948
californ 44947
اعلن 44946
الديم 44945
title 44944
areas 44943
action 44942
العالمية 44941
##وضح 44940
journal 44939
لس 44938
yet 44937
##خذ 44936
sel 44935
الاربعاء 44934
هد 44933
vote 44932
بناء 44931
live 44930
نحن 44929
mur 44928
agreement 44927
pos 44926
##غيير 44925
perform 44924
##ney 44923
esp 44922
almost 44921
foc 44920
##ويات 44919
outside 44918
##اده 44917
express 44916
##ential 44915
اكد 44914
future 44913
gave 44912
سوف 44911
##oo 44910
george 44909
تا 44908
##ither 44907
##رز 44906
اثناء 44905
similar 44904
toward 44903
يقوم 44902
الـ 44901
##na 44900
بالع 44899
##رص 44898
circ 44897
وتح 44896
##ارع 44895
bad 44894
pen 44893
المسي 44892
education 44891
coun 44890
prem 44889
بيت 44888
##سكري 44887
##ula 44886
##ees 44885
enough 44884
poll 44883
ris 44882
david 44881
باب 44880
##هات 44879
anti 44878
cred 44877
rate 44876
separ 44875
والخ 44874
الصف 44873
عق 44872
##رعة 44871
الانس 44870
2002 44869
nearly 44868
assist 44867
الاق 44866
##olution 44865
suggest 44864
democratic 44863
##omm 44862
للس 44861
minutes 44860
mer 44859
شع 44858
والج 44857
franc 44856
##زام 44855
المواطن 44854
california 44853
رد 44852
##tt 44851
legisl 44850
حم 44849
البن 44848
اساس 44847
average 44846
باع 44845
##empt 44844
##طاء 44843
بالنسبة 44842
سيت 44841
##كيل 44840
cro 44839
لنا 44838
growth 44837
##ined 44836
ship 44835
##لمان 44834
##اسة 44833
اضافة 44832
##ob 44831
##anch 44830
33 44829
والث 44828
##بحث 44827
##اهدة 44826
plans 44825
القوات 44824
امير 44823
negoti 44822
hours 44821
popular 44820
##str 44819
didn 44818
حدث 44817
##هرب 44816
##forman 44815
##ners 44814
##فاوض 44813
##لاة 44812
prison 44811
fav 44810
authorities 44809
##اعات 44808
دم 44807
particular 44806
لذلك 44805
shot 44804
فرن 44803
leading 44802
فن 44801
prim 44800
hon 44799
##احب 44798
الروس 44797
executive 44796
##وني 44795
opt 44794
واق 44793
demand 44792
المسوول 44791
promot 44790
##جميع 44789
soci 44788
بينما 44787
hospital 44786
##لاب 44785
36 44784
##الك 44783
##aps 44782
##حيح 44781
لـ 44780
عنها 44779
##ele 44778
امر 44777
contract 44776
##atives 44775
body 44774
performan 44773
bri 44772
##خة 44771
##uty 44770
اقت 44769
لانه 44768
index 44767
قوات 44766
province 44765
##ادت 44764
fourth 44763
middle 44762
review 44761
النها 44760
neigh 44759
mem 44758
engine 44757
##lic 44756
##oon 44755
afgh 44754
وكل 44753
الكويت 44752
يعني 44751
جنوب 44750
vide 44749
mos 44748
respons 44747
himself 44746
الجزاير 44745
able 44744
hill 44743
comput 44742
المملكة 44741
##ino 44740
التف 44739
##ايي 44738
التق 44737
analyst 44736
job 44735
علم 44734
##iding 44733
proper 44732
##واج 44731
##ومي 44730
really 44729
طب 44728
الانتخابات 44727
issues 44726
##هار 44725
private 44724
البر 44723
الدفاع 44722
وض 44721
زوج 44720
كث 44719
را 44718
لاي 44717
المصرية 44716
فهو 44715
##شا 44714
خل 44713
المحت 44712
worked 44711
الامم 44710
japanese 44709
حسن 44708
نص 44707
##eter 44706
##ession 44705
دين 44704
higher 44703
travel 44702
##idge 44701
playing 44700
energy 44699
wife 44698
اللبناني 44697
tex 44696
السف 44695
##ظة 44694
coop 44693
signed 44692
رسم 44691
wind 44690
توا 44689
grad 44688
angel 44687
والان 44686
elections 44685
ثلاث 44684
korea 44683
70 44682
منا 44681
ide 44680
trying 44679
##كترون 44678
80 44677
المزيد 44676
lower 44675
##ولي 44674
##asing 44673
المف 44672
opposition 44671
تقوم 44670
ber 44669
##راتيج 44668
feel 44667
قطاع 44666
victory 44665
summer 44664
بات 44663
cust 44662
works 44661
المراة 44660
##جاج 44659
##هير 44658
الاعمال 44657
لب 44656
التس 44655
africa 44654
pros 44653
الوس 44652
##يتها 44651
##زن 44650
##طالب 44649
weap 44648
وكذلك 44647
وتم 44646
dro 44645
wood 44644
وسط 44643
eth 44642
الثلاثاء 44641
langu 44640
المالية 44639
rout 44638
والاست 44637
emb 44636
##ايما 44635
price 44634
##ething 44633
وات 44632
hous 44631
african 44630
دع 44629
##حب 44628
ارض 44627
mater 44626
##قتل 44625
##راز 44624
كذلك 44623
soon 44622
afghan 44621
الاط 44620
##den 44619
watch 44618
الاسبوع 44617
##رامج 44616
##iron 44615
##قافة 44614
particip 44613
السنة 44612
السبت 44611
room 44610
##يلي 44609
mad 44608
الحكم 44607
##صور 44606
الشباب 44605
##وجود 44604
حركة 44603
##ford 44602
السلطة 44601
##eg 44600
ني 44599
##ارد 44598
##ove 44597
interview 44596
shares 44595
##وون 44594
consum 44593
continued 44592
something 44591
##طان 44590
##rote 44589
tai 44588
kar 44587
mov 44586
dest 44585
##وغ 44584
##raft 44583
likely 44582
##sel 44581
kil 44580
##lant 44579
lu 44578
##irl 44577
##هه 44576
الحديث 44575
di 44574
phot 44573
##ibility 44572
##رنت 44571
tv 44570
طبي 44569
ارب 44568
##هاب 44567
gas 44566
##جار 44565
عض 44564
دي 44563
hall 44562
chall 44561
deter 44560
وبين 44559
##50 44558
cho 44557
##field 44556
##itz 44555
famil 44554
ليست 44553
1998 44552
sex 44551
##واع 44550
chairman 44549
question 44548
مساء 44547
الجما 44546
coast 44545
paul 44544
gar 44543
immedi 44542
examp 44541
##والي 44540
انهم 44539
opened 44538
things 44537
##روج 44536
الامارات 44535
اطار 44534
defe 44533
tell 44532
release 44531
34 44530
بلا 44529
global 44528
اليها 44527
00 44526
##انات 44525
teach 44524
featur 44523
##ivid 44522
##فال 44521
resident 44520
continue 44519
##ocks 44518
واشار 44517
##ناصر 44516
disp 44515
wrote 44514
الاميركي 44513
jack 44512
مز 44511
مقابل 44510
tradition 44509
##pped 44508
staff 44507
bring 44506
##جاح 44505
mult 44504
الاع 44503
المال 44502
الاغ 44501
##hold 44500
190 44499
##ابت 44498
##ريح 44497
اصد 44496
##مرار 44495
##isc 44494
sat 44493
mother 44492
لجنة 44491
protest 44490
كتب 44489
avail 44488
المشت 44487
غزة 44486
cop 44485
problems 44484
ويم 44483
##amb 44482
##اصيل 44481
##ker 44480
increase 44479
##ميم 44478
البلد 44477
1996 44476
بري 44475
##ماد 44474
##ناة 44473
always 44472
living 44471
sem 44470
##ماس 44469
##ability 44468
العب 44467
لص 44466
environ 44465
rob 44464
jew 44463
الموضوع 44462
الفترة 44461
##akers 44460
##stand 44459
##ثم 44458
flor 44457
القدم 44456
lou 44455
tom 44454
وحد 44453
wa 44452
##oming 44451
##inated 44450
##كات 44449
الشرطة 44448
mun 44447
teams 44446
بخ 44445
##امات 44444
kind 44443
1999 44442
##وكد 44441
beat 44440
ll 44439
critic 44438
جد 44437
returned 44436
cit 44435
ينا 44434
soldiers 44433
اتفاق 44432
efforts 44431
miles 44430
حيات 44429
الرح 44428
lear 44427
يل 44426
##ضايا 44425
الالكترون 44424
قب 44423
estim 44422
الذى 44421
الفلسطيني 44420
fif 44419
تقديم 44418
جامعة 44417
##غيرة 44416
##هاد 44415
امت 44414
ظل 44413
docu 44412
exchange 44411
##ateg 44410
##خصص 44409
نتيجة 44408
مغ 44407
فترة 44406
stra 44405
الداخلية 44404
taiwan 44403
واكد 44402
ath 44401
##يزة 44400
##ha 44399
thom 44398
حديث 44397
appoin 44396
##ولا 44395
##ولات 44394
##ude 44393
closed 44392
reform 44391
##يص 44390
##شق 44389
تتم 44388
saw 44387
نع 44386
##لات 44385
nine 44384
سواء 44383
ريا 44382
cris 44381
الرس 44380
##سر 44379
individ 44378
النبي 44377
appeared 44376
aud 44375
300 44374
liber 44373
المعلومات 44372
insp 44371
وتن 44370
##ناعة 44369
##ounds 44368
##جلة 44367
stay 44366
##mer 44365
كافة 44364
وين 44363
الحزب 44362
cle 44361
organization 44360
##طلع 44359
الخلي 44358
certain 44357
atlant 44356
شمال 44355
متر 44354
medical 44353
sched 44352
instead 44351
المسلمين 44350
hope 44349
accept 44348
reached 44347
مشار 44346
##ذر 44345
##ena 44344
##adem 44343
يسم 44342
hus 44341
##كين 44340
dan 44339
amb 44338
original 44337
##ox 44336
leav 44335
ver 44334
نسبة 44333
بالف 44332
##ceed 44331
بالح 44330
##ياب 44329
الاسراييلية 44328
البحث 44327
تنظيم 44326
37 44325
القطاع 44324
technology 44323
adm 44322
##itten 44321
bene 44320
للق 44319
فتح 44318
لتح 44317
##back 44316
##بكة 44315
##افي 44314
love 44313
لاست 44312
90 44311
طا 44310
##ams 44309
border 44308
##واد 44307
38 44306
شكل 44305
الخام 44304
بانه 44303
environment 44302
البي 44301
مسا 44300
للف 44299
species 44298
eu 44297
##ago 44296
britain 44295
المعار 44294
##uce 44293
الشم 44292
##men 44291
التعاون 44290
##ipl 44289
يك 44288
العراقي 44287
op 44286
material 44285
described 44284
training 44283
##ipal 44282
network 44281
##راضي 44280
diffic 44279
هولاء 44278
1994 44277
بالا 44276
الرب 44275
محا 44274
difficult 44273
##انه 44272
canada 44271
الاوسط 44270
##اله 44269
نقطة 44268
##ma 44267
sect 44266
reports 44265
##قية 44264
2019 44263
العلاقات 44262
eastern 44261
hap 44260
يعرف 44259
que 44258
tim 44257
girl 44256
##وروبي 44255
signific 44254
bi 44253
##وها 44252
تغ 44251
prob 44250
course 44249
hy 44248
available 44247
##امية 44246
اعادة 44245
considered 44244
واد 44243
الاقتصادية 44242
hear 44241
##uced 44240
لهذا 44239
pred 44238
##درسة 44237
الساعة 44236
provide 44235
##read 44234
various 44233
decl 44232
##ka 44231
القاهرة 44230
wanted 44229
space 44228
robert 44227
involved 44226
قتل 44225
woman 44224
created 44223
serious 44222
##val 44221
fear 44220
##icle 44219
##etting 44218
battle 44217
quick 44216
واص 44215
وقالت 44214
##وام 44213
agreed 44212
academ 44211
##راهيم 44210
bag 44209
done 44208
1997 44207
##زي 44206
attempt 44205
##lished 44204
##ugh 44203
##عين 44202
hor 44201
القاد 44200
princ 44199
michael 44198
عليهم 44197
brown 44196
الجل 44195
##غب 44194
##لين 44193
قسم 44192
44 44191
##ps 44190
القرار 44189
##رته 44188
problem 44187
character 44186
republican 44185
capt 44184
معه 44183
texas 44182
tourn 44181
1995 44180
study 44179
unc 44178
##بدو 44177
##eck 44176
influ 44175
##ايد 44174
##yr 44173
اثر 44172
james 44171
bay 44170
seek 44169
cur 44168
##uf 44167
morn 44166
والب 44165
pack 44164
##ورد 44163
اللبنانية 44162
established 44161
joined 44160
##ogn 44159
الالم 44158
##رفع 44157
حاليا 44156
جعل 44155
doct 44154
relig 44153
معد 44152
البيان 44151
dail 44150
ahead 44149
buy 44148
ach 44147
uk 44146
legal 44145
span 44144
محم 44143
labor 44142
society 44141
حصل 44140
##ades 44139
خلف 44138
واح 44137
thous 44136
يعمل 44135
personal 44134
مليار 44133
اقل 44132
الكتاب 44131
running 44130
australian 44129
##cer 44128
ten 44127
fem 44126
dollar 44125
##روض 44124
##icted 44123
##عبة 44122
thought 44121
دار 44120
violence 44119
البريط 44118
bow 44117
شك 44116
fa 44115
دعم 44114
euro 44113
وط 44112
##ذهب 44111
why 44110
42 44109
الدم 44108
صحيفة 44107
access 44106
##ster 44105
##تمد 44104
##ises 44103
##ester 44102
القران 44101
لاب 44100
pm 44099
decided 44098
يعد 44097
فض 44096
بداية 44095
الثالث 44094
winning 44093
##ortun 44092
دايما 44091
والام 44090
الاطفال 44089
believe 44088
روا 44087
##باء 44086
تر 44085
##يري 44084
نج 44083
##فين 44082
quot 44081
##hib 44080
##ذب 44079
فوق 44078
نشر 44077
كانوا 44076
roman 44075
##ald 44074
واذا 44073
##uit 44072
المل 44071
##istic 44070
daugh 44069
happen 44068
الاجتماعي 44067
ital 44066
ملا 44065
##علن 44064
manager 44063
##زع 44062
##تنا 44061
tor 44060
خاص 44059
inn 44058
results 44057
تعرض 44056
##itted 44055
الموقع 44054
بدون 44053
##ify 44052
daily 44051
##elt 44050
ended 44049
mess 44048
القدس 44047
surv 44046
prepar 44045
hong 44044
لله 44043
muse 44042
recently 44041
كن 44040
##حين 44039
morning 44038
واف 44037
senate 44036
produced 44035
scored 44034
conserv 44033
##جاه 44032
mcc 44031
##ae 44030
introd 44029
##وتر 44028
##كال 44027
الادارة 44026
##وفير 44025
##نيا 44024
nom 44023
المث 44022
recogn 44021
coming 44020
كثيرا 44019
weapons 44018
poor 44017
جهة 44016
##ounded 44015
##mar 44014
جما 44013
##ونس 44012
##فتت 44011
sports 44010
بالق 44009
##وش 44008
##ening 44007
pur 44006
mom 44005
##راس 44004
indic 44003
خصوص 44002
الاخر 44001
ele 44000
plant 43999
اشهر 43998
origin 43997
video 43996
obs 43995
written 43994
performance 43993
pick 43992
ضر 43991
##قدر 43990
wid 43989
example 43988
189 43987
iraqi 43986
crisis 43985
du 43984
##ريبا 43983
##ecess 43982
48 43981
75 43980
account 43979
##برى 43978
والك 43977
اننا 43976
السودان 43975
حي 43974
##عه 43973
##تا 43972
صاحب 43971
brought 43970
##imb 43969
ill 43968
مط 43967
العسكرية 43966
cath 43965
kong 43964
vice 43963
عرف 43962
39 43961
rank 43960
مبار 43959
followed 43958
construction 43957
بالس 43956
عمليات 43955
ولد 43954
الاوروبي 43953
##ease 43952
operations 43951
##ari 43950
##راءة 43949
custom 43948
constitution 43947
##ware 43946
lawy 43945
وتش 43944
شهد 43943
##airs 43942
##قاومة 43941
##عام 43940
يوجد 43939
lif 43938
اخبار 43937
##cast 43936
##فاظ 43935
presidential 43934
gra 43933
احدى 43932
رفض 43931
cab 43930
rather 43929
stage 43928
اعضاء 43927
الوضع 43926
##ological 43925
management 43924
espec 43923
dipl 43922
ul 43921
##ضان 43920
##ails 43919
اعلنت 43918
وظ 43917
##ging 43916
fish 43915
card 43914
veh 43913
كال 43912
##ract 43911
##ياس 43910
muslim 43909
sea 43908
conduct 43907
##rel 43906
##wood 43905
##ender 43904
especially 43903
تنفيذ 43902
##هتمام 43901
coal 43900
##ندق 43899
##هي 43898
fort 43897
##iation 43896
diplom 43895
اللي 43894
وغ 43893
كاس 43892
وهنا 43891
الاتفاق 43890
بام 43889
السوق 43888
65 43887
نوف 43886
exist 43885
##xim 43884
الطريق 43883
ey 43882
elected 43881
المناطق 43880
pow 43879
royal 43878
mic 43877
بب 43876
confir 43875
41 43874
البط 43873
expect 43872
newspaper 43871
تحميل 43870
modern 43869
jose 43868
comment 43867
situation 43866
opening 43865
failed 43864
الاجتماعية 43863
##ites 43862
وتت 43861
republic 43860
حكومة 43859
investors 43858
##وروبا 43857
significant 43856
الشهر 43855
المرحلة 43854
either 43853
اصبح 43852
schools 43851
lib 43850
رح 43849
##اكل 43848
الشركات 43847
natur 43846
trib 43845
##ements 43844
deg 43843
temp 43842
investment 43841
العاصمة 43840
heart 43839
hund 43838
remain 43837
##ania 43836
phys 43835
يريد 43834
fighting 43833
allowed 43832
##ona 43831
cell 43830
السورية 43829
##تر 43828
##شارك 43827
style 43826
currently 43825
##ادق 43824
##bc 43823
##rs 43822
شعب 43821
anim 43820
وار 43819
الاخير 43818
turned 43817
رجل 43816
الانترنت 43815
##arian 43814
der 43813
try 43812
حكم 43811
ben 43810
الرجل 43809
##wa 43808
##ims 43807
data 43806
حرب 43805
تطبيق 43804
##تد 43803
fle 43802
acqu 43801
لمدة 43800
movement 43799
مساعدة 43798
الاسلامي 43797
language 43796
##iec 43795
##oor 43794
##of 43793
sam 43792
corpor 43791
مباراة 43790
intell 43789
يعتبر 43788
##omet 43787
الحي 43786
independent 43785
friends 43784
carry 43783
جزء 43782
الفن 43781
cases 43780
معظم 43779
ran 43778
الحصول 43777
events 43776
##ta 43775
ابراهيم 43774
لف 43773
mexico 43772
push 43771
مصادر 43770
##عرض 43769
##ـــ 43768
friend 43767
الحالي 43766
##hood 43765
families 43764
pressure 43763
##uses 43762
زيادة 43761
##he 43760
واوضح 43759
mission 43758
##يرية 43757
hundred 43756
مباشرة 43755
المر 43754
finished 43753
وهم 43752
##ثمار 43751
الجميع 43750
سير 43749
##berg 43748
##ساب 43747
justice 43746
##اعر 43745
##ki 43744
##برز 43743
rac 43742
العن 43741
55 43740
##نايية 43739
museum 43738
##ظاهر 43737
sad 43736
esc 43735
يمكنك 43734
بهذا 43733
النق 43732
وكالة 43731
لكم 43730
##تيار 43729
americans 43728
##ريقيا 43727
##جموع 43726
##راح 43725
deliver 43724
##ذة 43723
deep 43722
ايج 43721
##ria 43720
trial 43719
مصدر 43718
##تك 43717
الموتمر 43716
القرن 43715
##iff 43714
obama 43713
serb 43712
regional 43711
web 43710
عز 43709
ترت 43708
##فتح 43707
47 43706
braz 43705
المط 43704
##ume 43703
الجامعة 43702
##يفا 43701
اكتوبر 43700
discover 43699
الطب 43698
##erve 43697
majority 43696
offer 43695
للص 43694
tournament 43693
قدر 43692
الهند 43691
hun 43690
##حو 43689
اند 43688
الطا 43687
اسعار 43686
الحدود 43685
العملية 43684
##la 43683
الغربية 43682
الجمهورية 43681
البد 43680
achie 43679
##atory 43678
draw 43677
مختلفة 43676
##كام 43675
البرنامج 43674
##زيون 43673
##راجع 43672
bos 43671
successful 43670
means 43669
annual 43668
corn 43667
block 43666
##داول 43665
officer 43664
سكس 43663
evidence 43662
المياه 43661
budget 43660
بذلك 43659
للج 43658
##خط 43657
soft 43656
##ilities 43655
cele 43654
فيلم 43653
اللغة 43652
تعمل 43651
range 43650
خم 43649
ple 43648
وبالت 43647
asia 43646
بلد 43645
##ابه 43644
##iment 43643
##عاية 43642
contribut 43641
##الا 43640
regular 43639
##روب 43638
alle 43637
الواقع 43636
بدات 43635
competition 43634
##sequ 43633
ww 43632
##ويا 43631
43 43630
##وبات 43629
abd 43628
##ريل 43627
emerg 43626
forward 43625
بشان 43624
التم 43623
الاور 43622
##اكيد 43621
##عو 43620
داع 43619
makes 43618
الكبير 43617
##iger 43616
1992 43615
##يها 43614
version 43613
طالب 43612
الدرا 43611
##كب 43610
looking 43609
cas 43608
aid 43607
pac 43606
leave 43605
firm 43604
##ويلة 43603
عين 43602
الوح 43601
operation 43600
واض 43599
مسلسل 43598
400 43597
recover 43596
##rupt 43595
الامام 43594
##زين 43593
وانت 43592
##يره 43591
السعودي 43590
scient 43589
mac 43588
##جرة 43587
وصف 43586
angeles 43585
اطلاق 43584
علا 43583
spent 43582
تكن 43581
العاب 43580
abs 43579
##سام 43578
اصل 43577
##شفى 43576
respect 43575
celebr 43574
cann 43573
اه 43572
54 43571
البعض 43570
ولي 43569
اهمية 43568
##ابي 43567
188 43566
showed 43565
##aries 43564
address 43563
bir 43562
##ville 43561
laws 43560
الامور 43559
وعن 43558
blood 43557
mas 43556
يول 43555
remained 43554
governor 43553
fair 43552
المغرب 43551
الثقاف 43550
كلمة 43549
##ايه 43548
##افية 43547
##erous 43546
##mark 43545
##وسف 43544
throughout 43543
che 43542
معا 43541
الاه 43540
##لبية 43539
يو 43538
روسيا 43537
المشروع 43536
scre 43535
married 43534
computer 43533
للغ 43532
scor 43531
البيت 43530
##ston 43529
49 43528
color 43527
1993 43526
الجانب 43525
professional 43524
لاعب 43523
##نطن 43522
needed 43521
واج 43520
transport 43519
runs 43518
mel 43517
joint 43516
charges 43515
thing 43514
##enced 43513
البشر 43512
includes 43511
##to 43510
##عاد 43509
موك 43508
getting 43507
الاصل 43506
وسايل 43505
الحم 43504
somet 43503
blue 43502
debut 43501
تسم 43500
##ories 43499
shows 43498
nar 43497
ند 43496
commerc 43495
products 43494
airport 43493
صورة 43492
##خلص 43491
benef 43490
نفسها 43489
markets 43488
magaz 43487
46 43486
##ients 43485
fest 43484
##قوق 43483
النار 43482
brazil 43481
farm 43480
mont 43479
الاز 43478
##down 43477
##روس 43476
##sw 43475
سيكون 43474
approach 43473
institute 43472
##band 43471
italy 43470
اصحاب 43469
##عون 43468
##لاع 43467
ps 43466
##يانة 43465
god 43464
helped 43463
ينت 43462
الدور 43461
heavy 43460
المسا 43459
bond 43458
product 43457
##شل 43456
brother 43455
##lus 43454
المقد 43453
المباراة 43452
ol 43451
##رفض 43450
entire 43449
خدمة 43448
trading 43447
propos 43446
كامل 43445
والاج 43444
comes 43443
##vey 43442
##ريا 43441
تقل 43440
target 43439
اللاعب 43438
egy 43437
accused 43436
السلطات 43435
للاست 43434
paris 43433
##وبي 43432
##gn 43431
records 43430
بث 43429
bor 43428
##kn 43427
biggest 43426
1991 43425
##ارق 43424
العراقية 43423
خصوصا 43422
confl 43421
##olic 43420
وفق 43419
##جليز 43418
الفرنسي 43417
remains 43416
reporters 43415
##قرر 43414
thousands 43413
##asons 43412
##غيل 43411
##uled 43410
الامريكي 43409
##افحة 43408
##rial 43407
##انس 43406
ren 43405
associated 43404
slow 43403
mah 43402
52 43401
##تمبر 43400
doing 43399
بمن 43398
الدع 43397
##ريمة 43396
وست 43395
speed 43394
##ترا 43393
internet 43392
كلم 43391
florida 43390
الحركة 43389
##erson 43388
قالت 43387
بول 43386
assemb 43385
prevent 43384
reason 43383
الامنية 43382
مرا 43381
gro 43380
وير 43379
mix 43378
وحت 43377
##rain 43376
##ufact 43375
هيية 43374
المية 43373
##نيين 43372
محت 43371
المختلف 43370
judge 43369
guard 43368
تماما 43367
manufact 43366
بنفس 43365
##ension 43364
##جية 43363
search 43362
مارس 43361
##ريات 43360
الجام 43359
##اطق 43358
##اا 43357
italian 43356
jer 43355
cub 43354
alex 43353
سبيل 43352
van 43351
##iance 43350
ارتفاع 43349
دخل 43348
##احة 43347
النساء 43346
##roy 43345
finish 43344
minor 43343
لاح 43342
##ba 43341
fly 43340
egypt 43339
ومت 43338
بنسبة 43337
السب 43336
وسي 43335
science 43334
organiz 43333
اوروبا 43332
smith 43331
parties 43330
رفع 43329
compl 43328
سبتمبر 43327
##فاوضات 43326
التواصل 43325
درجة 43324
##bi 43323
##olf 43322
movie 43321
انواع 43320
nothing 43319
##10 43318
الارهاب 43317
ميل 43316
حسين 43315
##وحة 43314
نتايج 43313
بالد 43312
arrested 43311
pil 43310
developed 43309
##وين 43308
سيد 43307
richard 43306
lack 43305
doub 43304
##روح 43303
سكان 43302
نوفمبر 43301
##واس 43300
demon 43299
itself 43298
doesn 43297
natural 43296
##reek 43295
##craft 43294
##اسي 43293
above 43292
##ique 43291
probably 43290
النو 43289
box 43288
lives 43287
مشيرا 43286
عليك 43285
الديمقرا 43284
رجال 43283
frank 43282
تز 43281
افريقيا 43280
الدست 43279
forced 43278
محد 43277
##ification 43276
##me 43275
daughter 43274
##يلات 43273
##لاك 43272
improve 43271
##selves 43270
hen 43269
المحلية 43268
www 43267
##venue 43266
وفقا 43265
creat 43264
قوله 43263
effort 43262
لج 43261
bid 43260
citiz 43259
##burg 43258
ens 43257
النفط 43256
##صالات 43255
موقف 43254
محمود 43253
الفا 43252
parts 43251
المرت 43250
الفنان 43249
islamic 43248
link 43247
sound 43246
قوة 43245
mach 43244
increased 43243
##وصل 43242
afghanistan 43241
الموسم 43240
themselves 43239
surr 43238
النظر 43237
زيارة 43236
##عتقد 43235
انس 43234
سجل 43233
فانه 43232
progress 43231
rates 43230
earth 43229
##فية 43228
##omp 43227
العالمي 43226
ec 43225
neighbor 43224
worth 43223
##فه 43222
commercial 43221
186 43220
##عال 43219
struct 43218
lin 43217
موتمر 43216
منتدى 43215
size 43214
محافظة 43213
counter 43212
related 43211
opportun 43210
القص 43209
لانها 43208
للام 43207
الاحتلال 43206
اليمن 43205
##ca 43204
champion 43203
المز 43202
طريقة 43201
purch 43200
##روط 43199
norm 43198
##han 43197
tried 43196
المنتخب 43195
prior 43194
يصل 43193
self 43192
protect 43191
beginning 43190
منظمة 43189
عا 43188
##iction 43187
كي 43186
1990 43185
المحكمة 43184
dig 43183
سين 43182
واع 43181
##ريع 43180
minute 43179
growing 43178
##itting 43177
وغيرها 43176
بيروت 43175
##west 43174
تركيا 43173
##كرت 43172
لهذه 43171
sud 43170
بغداد 43169
واله 43168
wild 43167
founded 43166
صوت 43165
اللقاء 43164
designed 43163
##ris 43162
bit 43161
حجم 43160
shoot 43159
increasing 43158
بز 43157
programs 43156
لقاء 43155
##imate 43154
القت 43153
investigation 43152
المجال 43151
chic 43150
نايب 43149
##icles 43148
##ريبة 43147
مواقع 43146
المطل 43145
swe 43144
ساعة 43143
##سون 43142
انتاج 43141
مي 43140
##يقة 43139
الرييسية 43138
البحر 43137
مكت 43136
thomas 43135
asian 43134
##body 43133
eventually 43132
قضية 43131
الاقل 43130
##wor 43129
unit 43128
مار 43127
##ايع 43126
فهي 43125
فرنسا 43124
inside 43123
##خصوص 43122
##raw 43121
##reg 43120
##شرات 43119
##صى 43118
بعدما 43117
##ايزة 43116
##ريك 43115
مول 43114
الماضية 43113
crow 43112
##ulf 43111
بحسب 43110
focus 43109
upon 43108
سف 43107
##قلة 43106
owned 43105
##اند 43104
raised 43103
sometimes 43102
كرة 43101
##ثلة 43100
##enth 43099
رمضان 43098
المختلفة 43097
##11 43096
الفر 43095
واي 43094
##while 43093
الخبر 43092
hur 43091
##orney 43090
##يلم 43089
##uing 43088
favor 43087
##ador 43086
earn 43085
##ped 43084
اخذ 43083
aircraft 43082
المك 43081
##lined 43080
immediately 43079
believed 43078
pun 43077
##rugg 43076
##za 43075
##uan 43074
##reme 43073
officers 43072
attorney 43071
عبدالله 43070
happ 43069
وبال 43068
athlet 43067
noted 43066
187 43065
gaz 43064
rap 43063
الاقليم 43062
نادي 43061
consider 43060
establish 43059
##صلحة 43058
مناطق 43057
communic 43056
المواطنين 43055
lake 43054
pitch 43053
قطر 43052
##اكم 43051
##كذا 43050
occup 43049
income 43048
dut 43047
الشعر 43046
##east 43045
ولو 43044
النص 43043
حب 43042
يقدم 43041
المستقبل 43040
اقتصاد 43039
sides 43038
لكرة 43037
وحتى 43036
strugg 43035
تطوير 43034
يناير 43033
ملف 43032
epis 43031
سلام 43030
request 43029
لاف 43028
يونيو 43027
واشنطن 43026
الهيية 43025
##وانين 43024
كثيرة 43023
demonstr 43022
تمت 43021
longer 43020
##قلت 43019
##وجيه 43018
aim 43017
books 43016
يجعل 43015
##hd 43014
cer 43013
banks 43012
terms 43011
standard 43010
الايام 43009
##wide 43008
beij 43007
recorded 43006
##ورت 43005
وعند 43004
##ولوجيا 43003
bosn 43002
##ano 43001
##icket 43000
##vert 42999
##اليا 42998
##هرجان 42997
والغ 42996
condition 42995
strength 42994
جهاز 42993
##ناق 42992
بالك 42991
indones 42990
53 42989
##سلة 42988
sure 42987
provided 42986
##زاب 42985
beijing 42984
الطاقة 42983
شه 42982
changes 42981
ابناء 42980
موج 42979
العمر 42978
residents 42977
wil 42976
الراي 42975
caused 42974
##ريعة 42973
analysts 42972
##ويد 42971
spain 42970
lee 42969
الصحة 42968
##ايلا 42967
beg 42966
##فى 42965
##aj 42964
الحر 42963
grant 42962
cooperation 42961
gian 42960
##ويس 42959
الوصول 42958
##راث 42957
adding 42956
باك 42955
##طلاق 42954
appointed 42953
مشت 42952
##ينية 42951
##شاركة 42950
ho 42949
chann 42948
brief 42947
planned 42946
##اسم 42945
بهذه 42944
##aded 42943
المشاركة 42942
deputy 42941
##عيم 42940
السابقة 42939
تناول 42938
##ناه 42937
prosecut 42936
louis 42935
mary 42934
parents 42933
dow 42932
الكريم 42931
الخدمات 42930
بهدف 42929
الاخت 42928
ديس 42927
kilomet 42926
عالية 42925
scheduled 42924
##سد 42923
claimed 42922
bat 42921
relationship 42920
##راتيجية 42919
معلومات 42918
وانا 42917
المجموعة 42916
spanish 42915
alleged 42914
تقرير 42913
usually 42912
immigr 42911
fast 42910
حمل 42909
##tered 42908
regard 42907
particularly 42906
chance 42905
trip 42904
yen 42903
rule 42902
date 42901
issued 42900
الصنا 42899
expand 42898
##isters 42897
withd 42896
شان 42895
micro 42894
##لفزيون 42893
launched 42892
##ych 42891
##estic 42890
سعر 42889
اجتماع 42888
الايراني 42887
##انى 42886
##aur 42885
##ولى 42884
ومح 42883
صباح 42882
francis 42881
خالد 42880
51 42879
##uff 42878
بالش 42877
christian 42876
##isions 42875
nato 42874
يتعلق 42873
systems 42872
جان 42871
النواب 42870
##مدينة 42869
اولا 42868
lay 42867
gm 42866
هاتف 42865
munic 42864
انف 42863
بني 42862
امكان 42861
##oth 42860
##arily 42859
##فات 42858
الاردن 42857
industrial 42856
حص 42855
meth 42854
touch 42853
necess 42852
meanwhile 42851
chicago 42850
دفع 42849
64 42848
تصل 42847
##ua 42846
swed 42845
##edy 42844
يذكر 42843
##dom 42842
formed 42841
##قوم 42840
offered 42839
latest 42838
changed 42837
municipal 42836
##تهاء 42835
else 42834
completed 42833
عشرة 42832
##ply 42831
profit 42830
ريال 42829
rh 42828
whole 42827
باي 42826
##isted 42825
##صلة 42824
توق 42823
ضرورة 42822
pict 42821
##ومن 42820
##ga 42819
تعرف 42818
##onse 42817
intellig 42816
##bers 42815
تحدث 42814
الاخبار 42813
##خاذ 42812
goals 42811
wide 42810
يغ 42809
عص 42808
##بهة 42807
##encies 42806
talk 42805
قايمة 42804
##uge 42803
لكنه 42802
magazine 42801
georg 42800
##itness 42799
الدوري 42798
bost 42797
##اخذ 42796
##ota 42795
##وره 42794
برامج 42793
injured 42792
charge 42791
علينا 42790
create 42789
##aught 42788
الاقتصادي 42787
قط 42786
المصدر 42785
starting 42784
##بلوما 42783
traff 42782
professor 42781
scott 42780
regul 42779
المكان 42778
model 42777
الفرنسية 42776
##يسي 42775
##jected 42774
credit 42773
##egr 42772
sup 42771
تعتبر 42770
square 42769
##وفي 42768
compared 42767
المعارضة 42766
train 42765
##وزيع 42764
قامت 42763
لات 42762
الموج 42761
الشه 42760
cat 42759
الحب 42758
##ونا 42757
understand 42756
authority 42755
killing 42754
الكهرب 42753
spring 42752
العسكري 42751
56 42750
##ضيف 42749
شركات 42748
canadian 42747
displ 42746
##راكز 42745
ظهر 42744
conditions 42743
highest 42742
مشاهدة 42741
##ريحات 42740
sand 42739
cause 42738
سوى 42737
arrived 42736
##inary 42735
##ريض 42734
source 42733
##يبة 42732
##aled 42731
وانما 42730
subst 42729
وهذه 42728
crim 42727
##ties 42726
القي 42725
burn 42724
formula 42723
stad 42722
اربعة 42721
بحث 42720
transfer 42719
##ندوق 42718
hotel 42717
ربما 42716
risk 42715
النفس 42714
boston 42713
d8 42712
fifth 42711
safety 42710
شرق 42709
##ظار 42708
##جاوز 42707
calls 42706
##inet 42705
حياة 42704
##ift 42703
armed 42702
اضاف 42701
##iled 42700
oh 42699
boy 42698
عش 42697
bab 42696
##اتهم 42695
editor 42694
ram 42693
الاكثر 42692
05 42691
sources 42690
##يسة 42689
##oud 42688
##جع 42687
##cel 42686
bird 42685
الزرا 42684
sov 42683
value 42682
potential 42681
اختيار 42680
##وقرا 42679
##هله 42678
whom 42677
الكل 42676
htt 42675
تحمل 42674
premier 42673
##oid 42672
95 42671
اجراء 42670
ليب 42669
react 42668
needs 42667
##ندي 42666
##رياض 42665
58 42664
olympic 42663
اعداد 42662
##30 42661
ويمكن 42660
##عمل 42659
jones 42658
penn 42657
idea 42656
والمت 42655
wants 42654
اهداف 42653
مدى 42652
drive 42651
gradu 42650
والمن 42649
مفت 42648
liter 42647
الساد 42646
الحوار 42645
صالح 42644
letter 42643
freed 42642
except 42641
sant 42640
##دون 42639
paid 42638
فهم 42637
novel 42636
double 42635
charles 42634
##anced 42633
response 42632
نصف 42631
roll 42630
fer 42629
##ريس 42628
rise 42627
peter 42626
##apers 42625
subject 42624
jobs 42623
النس 42622
قيمة 42621
rules 42620
adop 42619
##نب 42618
##ipped 42617
passeng 42616
##ارنة 42615
##ius 42614
مكتب 42613
overall 42612
##igned 42611
التربية 42610
##الغ 42609
يوليو 42608
zeal 42607
##har 42606
##ensus 42605
##hi 42604
speech 42603
كار 42602
##izing 42601
religious 42600
##وو 42599
الازمة 42598
##شات 42597
patr 42596
فح 42595
disapp 42594
وصول 42593
طال 42592
يبدو 42591
matter 42590
partners 42589
##utions 42588
150 42587
##بيض 42586
لتن 42585
فمن 42584
##بحت 42583
جنيه 42582
المادة 42581
57 42580
cannot 42579
##ينات 42578
سوق 42577
##افع 42576
الماء 42575
paper 42574
##ayed 42573
نب 42572
حز 42571
traditional 42570
##ارض 42569
القب 42568
حساب 42567
autom 42566
##ورك 42565
leaving 42564
korean 42563
appar 42562
يوسف 42561
broadcast 42560
##oke 42559
anything 42558
ضع 42557
route 42556
##ani 42555
رسالة 42554
##ket 42553
experience 42552
piec 42551
خص 42550
appeal 42549
limited 42548
word 42547
leban 42546
ملك 42545
##ship 42544
##امر 42543
atlanta 42542
strike 42541
القط 42540
object 42539
##ada 42538
القضية 42537
democrats 42536
سعيد 42535
medic 42534
document 42533
بينهم 42532
quickly 42531
موسسة 42530
kid 42529
##واقف 42528
##aging 42527
اعلى 42526
funds 42525
اشت 42524
challen 42523
doz 42522
dang 42521
finally 42520
dar 42519
mail 42518
العليا 42517
طويلة 42516
##قته 42515
domestic 42514
gall 42513
انما 42512
studies 42511
مقر 42510
mob 42509
النايب 42508
rang 42507
مقد 42506
##ctions 42505
repe 42504
##ado 42503
##هج 42502
تشرين 42501
trou 42500
hands 42499
##مع 42498
##ذج 42497
rebels 42496
passed 42495
##ander 42494
centre 42493
proposed 42492
ire 42491
##واف 42490
وعدم 42489
##ذين 42488
الفق 42487
##اديم 42486
spir 42485
الوزير 42484
مرحلة 42483
affairs 42482
##ولية 42481
##واجه 42480
online 42479
forest 42478
الصورة 42477
##orm 42476
bul 42475
حوالي 42474
##ny 42473
شييا 42472
surpr 42471
incident 42470
انح 42469
مايو 42468
carried 42467
mostly 42466
##apped 42465
##ko 42464
##ريدة 42463
below 42462
##her 42461
##عاب 42460
##agon 42459
##سيق 42458
ورد 42457
virgin 42456
iv 42455
انك 42454
illeg 42453
property 42452
##شد 42451
يوما 42450
##خرا 42449
##oul 42448
الملا 42447
##ires 42446
km 42445
originally 42444
فما 42443
ruling 42442
##اربة 42441
قلب 42440
تمكن 42439
insur 42438
stocks 42437
البحرين 42436
مهمة 42435
الياب 42434
التجارية 42433
تحديد 42432
electric 42431
وانه 42430
بالج 42429
انشاء 42428
takes 42427
المقبلة 42426
philipp 42425
##صاص 42424
تريد 42423
المعت 42422
وطن 42421
politic 42420
85 42419
##رر 42418
##ili 42417
festival 42416
stadium 42415
##طور 42414
collect 42413
لعبة 42412
practice 42411
moving 42410
chem 42409
##يديو 42408
student 42407
##واعد 42406
فرض 42405
##غان 42404
كيل 42403
جو 42402
العا 42401
وراء 42400
summit 42399
محاولة 42398
الرسمية 42397
spending 42396
الكبرى 42395
معت 42394
المواد 42393
carol 42392
الموسسات 42391
كبيرا 42390
##طاقة 42389
costs 42388
refuge 42387
##ources 42386
soviet 42385
سعد 42384
قناة 42383
##ental 42382
الثالثة 42381
ابريل 42380
type 42379
reve 42378
اين 42377
##ابا 42376
destroy 42375
##سك 42374
سورية 42373
songs 42372
martin 42371
##فيف 42370
لكي 42369
الفلسطينيين 42368
giving 42367
cities 42366
ويس 42365
والاس 42364
المض 42363
قاد 42362
flight 42361
previously 42360
mis 42359
draft 42358
placed 42357
cents 42356
##هادة 42355
اية 42354
coalition 42353
ireland 42352
وبالتالي 42351
السيارات 42350
الملف 42349
##بيب 42348
##anda 42347
##asion 42346
##مارسة 42345
candidate 42344
الها 42343
activities 42342
حدود 42341
المفت 42340
everything 42339
moment 42338
assembly 42337
الاستاذ 42336
سر 42335
اون 42334
قض 42333
zealand 42332
الخليج 42331
##19 42330
مباشر 42329
section 42328
amount 42327
المخت 42326
اصبحت 42325
fans 42324
nov 42323
الاساسية 42322
الكب 42321
tun 42320
additional 42319
المنزل 42318
dropped 42317
حماس 42316
fuel 42315
الاجتماع 42314
mayor 42313
gard 42312
##برة 42311
##ورج 42310
ult 42309
##orary 42308
##فاعل 42307
ياتي 42306
الانسانية 42305
ko 42304
عضو 42303
unl 42302
die 42301
rom 42300
bull 42299
##ساد 42298
##nic 42297
##umn 42296
lines 42295
اسبوع 42294
##ao 42293
دراسة 42292
العزيز 42291
درا 42290
##era 42289
conflict 42288
ها 42287
علاقة 42286
##nel 42285
##where 42284
فاذا 42283
##ken 42282
railway 42281
explos 42280
##quar 42279
##ديثة 42278
wing 42277
trust 42276
##قطع 42275
انته 42274
##رفين 42273
يحدث 42272
##elled 42271
الاراضي 42270
صلاح 42269
الحلقة 42268
fat 42267
السياسة 42266
سياسية 42265
husband 42264
beach 42263
pacific 42262
##hr 42261
attract 42260
hundreds 42259
##طرة 42258
mountain 42257
##itory 42256
##rian 42255
wel 42254
culture 42253
features 42252
##ream 42251
weekend 42250
الوزارة 42249
الامين 42248
##بنى 42247
require 42246
الطعام 42245
##nam 42244
agric 42243
attention 42242
##eless 42241
rod 42240
1989 42239
عناصر 42238
turkey 42237
feet 42236
##ناول 42235
القضاء 42234
fill 42233
log 42232
##فسير 42231
نمو 42230
finance 42229
البرلمان 42228
الرغم 42227
cars 42226
measures 42225
squad 42224
exhib 42223
شبكة 42222
##سطس 42221
قايلا 42220
figures 42219
colon 42218
الوسيط 42217
الطفل 42216
التابعة 42215
frequ 42214
مواجهة 42213
##طوير 42212
intelligence 42211
estimated 42210
الصلاة 42209
##etic 42208
##شاف 42207
respond 42206
mind 42205
straight 42204
##يانا 42203
seat 42202
complete 42201
##شت 42200
المنتدى 42199
بحيث 42198
os 42197
ابت 42196
##ips 42195
medal 42194
ali 42193
##lad 42192
williams 42191
individual 42190
sport 42189
يمن 42188
والتن 42187
##hen 42186
nav 42185
figure 42184
##alled 42183
##علي 42182
ordered 42181
اعلان 42180
jim 42179
mu 42178
complex 42177
dl 42176
سعود 42175
required 42174
##ola 42173
jewish 42172
##zy 42171
ديسمبر 42170
الوسط 42169
ارد 42168
agricult 42167
viet 42166
فرصة 42165
تاثير 42164
جمع 42163
الجسم 42162
يحمل 42161
دمشق 42160
##اير 42159
primary 42158
refl 42157
##وخ 42156
shop 42155
voters 42154
##هرت 42153
ven 42152
تغيير 42151
dism 42150
##any 42149
weak 42148
هدف 42147
الانتاج 42146
rat 42145
66 42144
apart 42143
##da 42142
تقول 42141
##ابلة 42140
##lands 42139
يستطيع 42138
##using 42137
التعامل 42136
##براير 42135
bang 42134
الثورة 42133
##12 42132
##واز 42131
وحدة 42130
منزل 42129
crew 42128
اغسطس 42127
دبي 42126
والل 42125
##عامل 42124
spot 42123
advis 42122
##ونه 42121
##ظل 42120
نز 42119
الصور 42118
captain 42117
##رجع 42116
والله 42115
##غر 42114
plays 42113
##خرج 42112
positive 42111
##عزيز 42110
##oles 42109
negotiations 42108
crime 42107
archit 42106
باعت 42105
##عبير 42104
##road 42103
المرض 42102
##ented 42101
59 42100
murder 42099
800 42098
تشكيل 42097
surf 42096
ابرز 42095
sym 42094
##بيت 42093
##ودية 42092
citizens 42091
employees 42090
spread 42089
الجهاز 42088
اثار 42087
##acts 42086
disease 42085
الاشخاص 42084
ready 42083
gh 42082
kept 42081
##رشح 42080
scr 42079
##شاط 42078
خمسة 42077
questions 42076
غال 42075
refused 42074
##بيه 42073
directed 42072
bob 42071
##ette 42070
method 42069
separate 42068
johnson 42067
resc 42066
محل 42065
##علقة 42064
بطولة 42063
publish 42062
كشف 42061
##ini 42060
الراب 42059
##قص 42058
كس 42057
master 42056
99 42055
ير 42054
vari 42053
الشعبية 42052
sens 42051
felt 42050
لغ 42049
الجنوب 42048
وجد 42047
اسلام 42046
ken 42045
confirmed 42044
فبراير 42043
valley 42042
الشخصية 42041
text 42040
مشكلة 42039
theat 42038
وقع 42037
##ابر 42036
بريط 42035
vac 42034
62 42033
الجمعية 42032
##سه 42031
tas 42030
tough 42029
##قاد 42028
قي 42027
ونحن 42026
homes 42025
رضي 42024
##ظمات 42023
shut 42022
deleg 42021
كام 42020
72 42019
anc 42018
bol 42017
##ih 42016
##ندا 42015
ari 42014
غرب 42013
motor 42012
##قبال 42011
mand 42010
الامة 42009
الروا 42008
الانجليز 42007
phone 42006
الزوج 42005
02 42004
بانها 42003
##ريت 42002
84 42001
ايل 42000
##وطن 41999
##yan 41998
##gar 41997
extra 41996
numbers 41995
foundation 41994
psych 41993
store 41992
لعب 41991
##ذل 41990
buildings 41989
##ديو 41988
##iles 41987
اجهزة 41986
معها 41985
##pper 41984
##uries 41983
##ستر 41982
sector 41981
والط 41980
rain 41979
household 41978
##قيقي 41977
mut 41976
اربع 41975
nas 41974
serve 41973
##نبية 41972
witness 41971
crash 41970
وهناك 41969
lived 41968
النوع 41967
القيام 41966
victims 41965
بالل 41964
bridge 41963
اني 41962
اوب 41961
speaking 41960
warned 41959
wear 41958
penal 41957
bott 41956
عباس 41955
بدء 41954
winner 41953
ess 41952
couple 41951
##خصصة 41950
catholic 41949
encour 41948
et 41947
##bed 41946
##icts 41945
بقي 41944
ينب 41943
mir 41942
degree 41941
وقف 41940
wat 41939
ce 41938
خير 41937
المدير 41936
places 41935
انفس 41934
active 41933
##بين 41932
##رتها 41931
academy 41930
##oned 41929
67 41928
films 41927
brand 41926
مرض 41925
##ounts 41924
متن 41923
controll 41922
words 41921
sar 41920
الابيض 41919
كانون 41918
equip 41917
نيك 41916
##شطة 41915
النز 41914
register 41913
خلق 41912
الجد 41911
##كومة 41910
الجاري 41909
تنت 41908
الهدف 41907
التنمية 41906
attended 41905
##dam 41904
التقل 41903
##سلوب 41902
##فاة 41901
treatment 41900
القوى 41899
arts 41898
ادى 41897
tenn 41896
رف 41895
quoted 41894
مترجم 41893
الحكومية 41892
مخت 41891
impact 41890
##امه 41889
600 41888
اعد 41887
details 41886
answ 41885
##abor 41884
المستوى 41883
##احية 41882
الدورة 41881
ويب 41880
##ارا 41879
youth 41878
unf 41877
spr 41876
arms 41875
levels 41874
claims 41873
الحقيقة 41872
بسي 41871
طرف 41870
##كير 41869
##ريري 41868
sense 41867
للان 41866
charged 41865
برو 41864
birth 41863
##ita 41862
##اسيس 41861
##ider 41860
##رايم 41859
صار 41858
صحيح 41857
leadership 41856
حماية 41855
tan 41854
عهد 41853
المحلي 41852
اير 41851
لط 41850
domin 41849
حض 41848
##war 41847
ورب 41846
pul 41845
##eph 41844
experts 41843
##راحة 41842
basket 41841
افتت 41840
##هديد 41839
concerns 41838
electron 41837
dark 41836
thus 41835
bey 41834
bell 41833
chap 41832
names 41831
headquar 41830
الاض 41829
score 41828
للغاية 41827
palestinians 41826
determin 41825
قول 41824
female 41823
كلا 41822
الست 41821
consult 41820
##ero 41819
survey 41818
بواس 41817
##قيقية 41816
##وجب 41815
gaza 41814
ok 41813
##انيين 41812
lt 41811
gal 41810
projects 41809
88 41808
##ez 41807
09 41806
##come 41805
overse 41804
الدراسة 41803
replaced 41802
##ذية 41801
##مين 41800
greater 41799
الكاتب 41798
writing 41797
protection 41796
channel 41795
ros 41794
historic 41793
status 41792
الرسمي 41791
68 41790
##اضي 41789
افراد 41788
fresh 41787
stars 41786
tem 41785
accident 41784
يحتاج 41783
mort 41782
فك 41781
##صح 41780
##ضيع 41779
الحج 41778
length 41777
جميعا 41776
attend 41775
رج 41774
نسب 41773
jump 41772
التجارة 41771
mosc 41770
الطرق 41769
matches 41768
صغيرة 41767
##غال 41766
az 41765
listed 41764
الاهلي 41763
championships 41762
someone 41761
units 41760
territory 41759
##فو 41758
مهم 41757
perm 41756
da 41755
performed 41754
يعيش 41753
المسلحة 41752
d9 41751
ku 41750
responsible 41749
##orter 41748
malays 41747
فوز 41746
writer 41745
independence 41744
لز 41743
08 41742
01 41741
##يوب 41740
##mad 41739
نعم 41738
connect 41737
185 41736
tow 41735
الايط 41734
دخول 41733
كش 41732
سبب 41731
بينها 41730
06 41729
seed 41728
1988 41727
عمان 41726
##ابط 41725
##icks 41724
##رامب 41723
سيتم 41722
الطلاب 41721
adj 41720
true 41719
ethnic 41718
##lav 41717
od 41716
بور 41715
mr 41714
مات 41713
الشرقية 41712
مسي 41711
##ribution 41710
broke 41709
olympics 41708
photograph 41707
cash 41706
تجاهله 41705
bod 41704
turk 41703
seeking 41702
##نه 41701
القوة 41700
قرب 41699
07 41698
ته 41697
approved 41696
بهم 41695
خدمات 41694
مان 41693
holding 41692
فكان 41691
bed 41690
يودي 41689
coup 41688
كنا 41687
lie 41686
##اكد 41685
##سى 41684
الصحية 41683
الاسد 41682
##ردد 41681
##حديد 41680
##oms 41679
flow 41678
equipment 41677
والاد 41676
حاول 41675
قيام 41674
##ضب 41673
navy 41672
وبح 41671
kenn 41670
crowd 41669
afp 41668
altern 41667
ليت 41666
فضلا 41665
baghd 41664
73 41663
argent 41662
المقاومة 41661
seems 41660
expressed 41659
عاد 41658
carl 41657
dlrs 41656
moscow 41655
contest 41654
revolution 41653
القول 41652
remaining 41651
winter 41650
الاخرين 41649
boost 41648
cerem 41647
##arm 41646
بيع 41645
احدث 41644
يمثل 41643
supreme 41642
##يال 41641
##iro 41640
موكدا 41639
النادي 41638
##يدية 41637
pret 41636
dog 41635
##uals 41634
introduced 41633
##iple 41632
لدينا 41631
subsequ 41630
##apt 41629
امل 41628
suppl 41627
##uts 41626
مال 41625
awards 41624
##اطر 41623
ash 41622
بواسطة 41621
النت 41620
nearby 41619
##تهي 41618
declined 41617
##يده 41616
##ously 41615
##tained 41614
ta 41613
لماذا 41612
din 41611
##راقبة 41610
##apore 41609
سق 41608
drop 41607
##ste 41606
خرج 41605
##كلم 41604
للبيع 41603
اشار 41602
##اره 41601
##عته 41600
##well 41599
يعود 41598
bure 41597
##ordan 41596
تعزيز 41595
##fully 41594
##تع 41593
ولن 41592
تحتاج 41591
##بيوتر 41590
diss 41589
branch 41588
session 41587
cook 41586
baghdad 41585
التنظيم 41584
http 41583
plat 41582
contact 41581
baseball 41580
huge 41579
تونس 41578
floor 41577
عقب 41576
اقامة 41575
singapore 41574
وو 41573
بلاد 41572
generally 41571
المانيا 41570
ways 41569
spl 41568
actually 41567
نست 41566
بمع 41565
جمال 41564
63 41563
تقد 41562
باستخدام 41561
quality 41560
احداث 41559
اى 41558
##ground 41557
تسل 41556
الدنيا 41555
الثقافة 41554
kilometers 41553
اراد 41552
يزيد 41551
commander 41550
##aud 41549
04 41548
##اصر 41547
initi 41546
مثلا 41545
##erate 41544
candidates 41543
ولاية 41542
vent 41541
السم 41540
تعلم 41539
سيارة 41538
occurr 41537
العنف 41536
##عمار 41535
المنظمة 41534
sev 41533
##اعي 41532
تعليم 41531
ميد 41530
##حرك 41529
cabinet 41528
##ندس 41527
sale 41526
damage 41525
collection 41524
البريطانية 41523
الاوروبية 41522
terrorism 41521
الانتخ 41520
silver 41519
##رجمة 41518
##ems 41517
دقيقة 41516
##ios 41515
hung 41514
الابت 41513
76 41512
marri 41511
emergency 41510
decades 41509
توفير 41508
عنوان 41507
مناف 41506
المتم 41505
##odes 41504
scene 41503
##com 41502
amp 41501
##خدمة 41500
خلالها 41499
الالكتروني 41498
row 41497
bil 41496
لاد 41495
heav 41494
82 41493
لذا 41492
##خم 41491
##حول 41490
الغرب 41489
##ales 41488
##lines 41487
##وقات 41486
وتد 41485
cyc 41484
recon 41483
الني 41482
يز 41481
##ارير 41480
التقرير 41479
وجاء 41478
operating 41477
الرابع 41476
kingdom 41475
politics 41474
تدخل 41473
strateg 41472
الحض 41471
flag 41470
##iy 41469
تقع 41468
bea 41467
بنا 41466
whe 41465
المول 41464
implement 41463
السين 41462
##uction 41461
ful 41460
نشاط 41459
republicans 41458
owners 41457
##وزارة 41456
ترامب 41455
الاعلى 41454
##امت 41453
##ulated 41452
entered 41451
تنظيف 41450
##كوين 41449
##ustr 41448
##حف 41447
plane 41446
##ندن 41445
native 41444
##ques 41443
categ 41442
##ura 41441
##itation 41440
فكرة 41439
مساعد 41438
settlement 41437
challenge 41436
اعتبر 41435
lawyer 41434
##طفى 41433
##حديث 41432
##gen 41431
موعد 41430
الكون 41429
ساعات 41428
everyone 41427
era 41426
victor 41425
74 41424
السكان 41423
كلها 41422
##rec 41421
conservative 41420
موسى 41419
studio 41418
twice 41417
##ault 41416
كا 41415
##wards 41414
kos 41413
الاتصال 41412
denied 41411
housing 41410
purs 41409
goes 41408
##وافق 41407
##جمات 41406
زمن 41405
##قاطعة 41404
rival 41403
العودة 41402
##عددة 41401
الجزء 41400
debt 41399
insurance 41398
المسيح 41397
##فاض 41396
الاجراءات 41395
##غبة 41394
##فيد 41393
سه 41392
الور 41391
libr 41390
##zz 41389
basis 41388
##يمن 41387
heard 41386
##15 41385
السنوات 41384
النقد 41383
##iring 41382
cd 41381
##باق 41380
للخ 41379
exam 41378
##gl 41377
البنك 41376
criminal 41375
becoming 41374
figh 41373
##جين 41372
wrong 41371
alone 41370
purp 41369
الجنوبية 41368
القلب 41367
extrem 41366
03 41365
ويست 41364
##عاء 41363
ممن 41362
الاحمر 41361
architect 41360
صنع 41359
talib 41358
لوك 41357
77 41356
خطة 41355
الاجهزة 41354
ومد 41353
veter 41352
fired 41351
اور 41350
##يلية 41349
zone 41348
##icide 41347
اقليم 41346
clean 41345
الحس 41344
francisco 41343
ستكون 41342
selling 41341
مطل 41340
recomm 41339
القر 41338
wasn 41337
voice 41336
داعش 41335
jordan 41334
##ايها 41333
##asts 41332
شار 41331
الشريف 41330
##fect 41329
سبق 41328
تلق 41327
fal 41326
filed 41325
losing 41324
دعا 41323
cultural 41322
bon 41321
suc 41320
النمو 41319
communist 41318
ممت 41317
184 41316
##ois 41315
ابدا 41314
تقريبا 41313
##اشة 41312
مرات 41311
page 41310
واث 41309
وله 41308
##وقت 41307
suffered 41306
initially 41305
مجرد 41304
الدعم 41303
بطريقة 41302
والمع 41301
environmental 41300
البلدين 41299
integr 41298
##itude 41297
يط 41296
simply 41295
serving 41294
المعد 41293
beyond 41292
النظ 41291
##حافظة 41290
##بال 41289
بصورة 41288
enj 41287
##kyo 41286
##essed 41285
العلمية 41284
منع 41283
الكلام 41282
memor 41281
##house 41280
##lor 41279
retired 41278
##eman 41277
ice 41276
stories 41275
applic 41274
##وسع 41273
الخدمة 41272
عرب 41271
votes 41270
##igan 41269
##ols 41268
والاخ 41267
larg 41266
العقل 41265
##براء 41264
obser 41263
assistant 41262
wounded 41261
در 41260
69 41259
lic 41258
##ديق 41257
الفني 41256
##هـ 41255
الفكر 41254
##قلال 41253
جيدا 41252
taliban 41251
abb 41250
باريس 41249
declared 41248
##شية 41247
##rich 41246
الموت 41245
##سجيل 41244
##وارد 41243
قطع 41242
##جيين 41241
عيد 41240
يزال 41239
towards 41238
جهود 41237
المدني 41236
المبار 41235
الخل 41234
episode 41233
86 41232
prec 41231
supply 41230
message 41229
قن 41228
##قتها 41227
defend 41226
census 41225
flood 41224
للمن 41223
henry 41222
ast 41221
reserve 41220
##خيص 41219
##eld 41218
علاج 41217
necessary 41216
awarded 41215
terrorist 41214
tokyo 41213
##فاف 41212
niger 41211
suggested 41210
houses 41209
ray 41208
مهما 41207
measure 41206
الحريري 41205
يرت 41204
##منى 41203
restr 41202
##board 41201
older 41200
الرحمن 41199
كلية 41198
##unt 41197
##hl 41196
المدرسة 41195
عربية 41194
طل 41193
سلم 41192
resources 41191
spons 41190
##اليات 41189
zh 41188
path 41187
اليس 41186
شباب 41185
##صبح 41184
استمرار 41183
تصميم 41182
appl 41181
amid 41180
injury 41179
fellow 41178
الاصلاح 41177
والى 41176
##hab 41175
luc 41174
روح 41173
##atively 41172
##ali 41171
78 41170
software 41169
##جموعات 41168
القديمة 41167
##mon 41166
teleph 41165
kur 41164
يبلغ 41163
kr 41162
مسلم 41161
rural 41160
headquarters 41159
specific 41158
تحرير 41157
##لاحظ 41156
doctor 41155
sav 41154
وذكر 41153
التون 41152
مقتل 41151
illegal 41150
perh 41149
resol 41148
##iences 41147
##ersey 41146
لاس 41145
قرية 41144
supporters 41143
perhaps 41142
##ipe 41141
proposal 41140
jackson 41139
##ابقة 41138
الروسية 41137
ينبغي 41136
جيد 41135
largely 41134
سلسلة 41133
georgia 41132
##inent 41131
العلاقة 41130
بالط 41129
##قطاع 41128
الزمن 41127
الروسي 41126
ministers 41125
##داية 41124
##eed 41123
greek 41122
seats 41121
dutch 41120
alliance 41119
virginia 41118
basketball 41117
مكافحة 41116
تمثل 41115
يوميا 41114
ليبيا 41113
تض 41112
التنفيذ 41111
via 41110
hopes 41109
earned 41108
ورييس 41107
avoid 41106
##ويض 41105
gained 41104
debate 41103
slight 41102
rub 41101
##ule 41100
nature 41099
supported 41098
anth 41097
قيادة 41096
featured 41095
سياسة 41094
عامة 41093
##enty 41092
calling 41091
sites 41090
##orp 41089
kim 41088
دوري 41087
##حر 41086
screen 41085
##onym 41084
##rovers 41083
والاع 41082
العلماء 41081
##ملية 41080
##rect 41079
schol 41078
سيارات 41077
جورج 41076
powerful 41075
cru 41074
##wr 41073
achieve 41072
منح 41071
yards 41070
##ضى 41069
restaur 41068
الحسين 41067
##اهل 41066
merc 41065
قيم 41064
فق 41063
shown 41062
رحم 41061
##bur 41060
mainly 41059
##inn 41058
سليمان 41057
fix 41056
اداء 41055
advert 41054
##udi 41053
250 41052
##ping 41051
kick 41050
الوحيد 41049
opportunity 41048
ممكن 41047
##يتي 41046
defeated 41045
83 41044
الكبيرة 41043
الوحدة 41042
الفنية 41041
##طاق 41040
##قاذ 41039
commit 41038
controvers 41037
raise 41036
##ript 41035
mike 41034
planning 41033
##outh 41032
##قايق 41031
##ati 41030
##رجات 41029
##ثمر 41028
الار 41027
##ifying 41026
larger 41025
منتخب 41024
##لالة 41023
القاعدة 41022
وتق 41021
cox 41020
##ailed 41019
aftern 41018
##ogue 41017
محافظ 41016
تجاه 41015
افلام 41014
لخ 41013
##rid 41012
##نون 41011
##حدد 41010
##ليب 41009
compos 41008
anal 41007
موخرا 41006
القيادة 41005
##بول 41004
الايرانية 41003
##anged 41002
fine 41001
الحالية 41000
الاقت 40999
والات 40998
غرفة 40997
96 40996
militants 40995
الشمالية 40994
سابق 40993
##16 40992
جون 40991
الباح 40990
برس 40989
##woman 40988
##رافق 40987
عبارة 40986
ماذا 40985
sle 40984
send 40983
##ounding 40982
جيدة 40981
الاعضاء 40980
##asc 40979
cancer 40978
##نيف 40977
article 40976
باعتبار 40975
traffic 40974
subs 40973
##زاء 40972
##ansas 40971
الحال 40970
knew 40969
والسيا 40968
repeated 40967
initial 40966
oppon 40965
1986 40964
ability 40963
##طح 40962
##istics 40961
##هرة 40960
haw 40959
mention 40958
##iced 40957
الموسسة 40956
tru 40955
defin 40954
المبا 40953
appears 40952
consumer 40951
##وامل 40950
urged 40949
انط 40948
##ala 40947
##ocked 40946
بتاريخ 40945
بدلا 40944
representatives 40943
الكرة 40942
نظرا 40941
الجزيرة 40940
ويل 40939
##une 40938
gone 40937
شارك 40936
jersey 40935
يقع 40934
نقاط 40933
##مرة 40932
ak 40931
المواقع 40930
##يتين 40929
withdraw 40928
الرق 40927
bron 40926
##ددا 40925
##هيون 40924
##aks 40923
developing 40922
gain 40921
rene 40920
بنت 40919
ts 40918
##usal 40917
جمعية 40916
stations 40915
managed 40914
المفاوضات 40913
##iang 40912
resolution 40911
##ثمان 40910
شخصية 40909
المحافظة 40908
consist 40907
بالخ 40906
ملايين 40905
ذكرت 40904
produce 40903
##ارف 40902
grew 40901
##ding 40900
artist 40899
امريكا 40898
عسكرية 40897
##ruption 40896
1987 40895
##هدي 40894
freedom 40893
stone 40892
المشكلة 40891
critics 40890
الدينية 40889
##ovo 40888
التحقيق 40887
##ym 40886
سياسي 40885
سوال 40884
afternoon 40883
التحالف 40882
الرجال 40881
98 40880
##ni 40879
اعتبار 40878
الانف 40877
اسباب 40876
ويقول 40875
rising 40874
ففي 40873
compr 40872
يعلم 40871
prince 40870
الكم 40869
note 40868
bish 40867
تشكل 40866
وخاصة 40865
كيفية 40864
##قاعد 40863
يرى 40862
كله 40861
##نايي 40860
كلام 40859
##va 40858
الديمقراطية 40857
اتحاد 40856
anyone 40855
receive 40854
##attle 40853
ukrain 40852
ib 40851
irish 40850
كاملة 40849
##طى 40848
democracy 40847
##ناع 40846
joseph 40845
ton 40844
1980 40843
patients 40842
شخصا 40841
uns 40840
remo 40839
واما 40838
alleg 40837
famous 40836
صدر 40835
influence 40834
critical 40833
table 40832
scot 40831
الفيديو 40830
اشخاص 40829
ضرب 40828
فس 40827
choice 40826
مدرسة 40825
التركية 40824
bah 40823
##ويه 40822
##اعد 40821
normal 40820
الوج 40819
indonesia 40818
##aped 40817
dial 40816
happened 40815
capac 40814
الحالة 40813
الفيلم 40812
ties 40811
مقت 40810
croat 40809
temper 40808
vehicles 40807
محكمة 40806
##كلفة 40805
transl 40804
خلا 40803
لندن 40802
door 40801
قايد 40800
تستخدم 40799
الدقيقة 40798
انخ 40797
weather 40796
ox 40795
تسجيل 40794
الاحداث 40793
owner 40792
##illa 40791
##ici 40790
قلت 40789
##ناسبة 40788
انحاء 40787
columb 40786
##ote 40785
missing 40784
tab 40783
##itors 40782
challeng 40781
##amm 40780
##رقام 40779
##تون 40778
النقل 40777
اوا 40776
حملة 40775
القضايا 40774
##ادثات 40773
التاس 40772
لكنها 40771
enfor 40770
ambass 40769
الالكترونية 40768
بلاده 40767
retail 40766
##know 40765
اللح 40764
##astic 40763
identified 40762
approxim 40761
الموقف 40760
1967 40759
اظ 40758
treas 40757
القن 40756
presence 40755
العلوم 40754
confidence 40753
##حمل 40752
##حث 40751
##ناس 40750
##قييم 40749
function 40748
##يله 40747
##inh 40746
earnings 40745
bowl 40744
spirit 40743
بوش 40742
طرح 40741
المتحدث 40740
##وضاع 40739
seconds 40738
pu 40737
قم 40736
خبر 40735
مون 40734
highway 40733
الغذا 40732
اجراءات 40731
مبارك 40730
تضم 40729
للك 40728
العلمي 40727
businesses 40726
##يذ 40725
jac 40724
وكيف 40723
belong 40722
##روة 40721
smaller 40720
appearance 40719
امين 40718
اطفال 40717
stan 40716
cold 40715
pull 40714
خمس 40713
تظهر 40712
الاخوان 40711
##makers 40710
##ديات 40709
شراء 40708
حضور 40707
stated 40706
معرفة 40705
انني 40704
sac 40703
علاقات 40702
jeff 40701
advant 40700
##حايا 40699
##kes 40698
highly 40697
qa 40696
فيديو 40695
الحسن 40694
ms 40693
##ror 40692
easy 40691
قصة 40690
##حقق 40689
والر 40688
تصريح 40687
##ياد 40686
يشكل 40685
sir 40684
العص 40683
##ills 40682
##الج 40681
السبب 40680
##iling 40679
latin 40678
فلم 40677
entertain 40676
الاطراف 40675
##isation 40674
امراة 40673
##ils 40672
تحول 40671
رك 40670
الخامس 40669
decade 40668
احب 40667
حاجة 40666
##هران 40665
represented 40664
gri 40663
##ancy 40662
حقيقة 40661
suicide 40660
##elling 40659
تصريحات 40658
##عليق 40657
مقارنة 40656
organizations 40655
الطلب 40654
##رتيب 40653
الدستور 40652
عليكم 40651
##علام 40650
elim 40649
##عبد 40648
لديه 40647
presented 40646
resist 40645
ويش 40644
##عتها 40643
##فذ 40642
1984 40641
##واة 40640
87 40639
بلغت 40638
directly 40637
check 40636
steel 40635
ياس 40634
النهايي 40633
180 40632
البشرية 40631
الثان 40630
مشاركة 40629
acknow 40628
مدريد 40627
القل 40626
اذار 40625
carolina 40624
نور 40623
throw 40622
الوف 40621
ليلة 40620
بنات 40619
rush 40618
##time 40617
windows 40616
##de 40615
acknowled 40614
المسوولين 40613
producer 40612
سبح 40611
لتحقيق 40610
standing 40609
sister 40608
estate 40607
##نتين 40606
streets 40605
islands 40604
شاهد 40603
portug 40602
فاز 40601
##باك 40600
##icit 40599
الهاتف 40598
وبر 40597
والتعليم 40596
السر 40595
##iest 40594
طول 40593
##inals 40592
الطبية 40591
poland 40590
العمليات 40589
gulf 40588
عربي 40587
المصادر 40586
hamas 40585
تفاصيل 40584
##sen 40583
nick 40582
storm 40581
lord 40580
fox 40579
الخلا 40578
shortly 40577
inch 40576
استعداد 40575
##ylv 40574
structure 40573
##ريقية 40572
##كيين 40571
قوية 40570
لين 40569
worst 40568
##طلقت 40567
الفصل 40566
النتايج 40565
retire 40564
##الث 40563
##شن 40562
فار 40561
دورة 40560
##ولين 40559
ask 40558
اتخاذ 40557
الشمس 40556
aimed 40555
cz 40554
##ective 40553
##هاجم 40552
وبعض 40551
##افر 40550
##idel 40549
forec 40548
vietnam 40547
تزال 40546
fred 40545
reduce 40544
defeat 40543
61 40542
الماية 40541
ذاته 40540
هام 40539
اخرين 40538
inflation 40537
120 40536
علما 40535
mech 40534
المدن 40533
##oes 40532
asp 40531
##فعة 40530
concerned 40529
slo 40528
meaning 40527
##ja 40526
البرامج 40525
المحافظ 40524
##ibly 40523
revenue 40522
telephone 40521
الجهات 40520
meant 40519
1985 40518
الباحث 40517
الجوية 40516
##بادل 40515
##ايير 40514
طف 40513
##ايز 40512
bought 40511
ut 40510
##نيات 40509
losses 40508
##ila 40507
pra 40506
ign 40505
hab 40504
##uted 40503
drugs 40502
نم 40501
الساح 40500
snow 40499
rid 40498
مشاكل 40497
##mine 40496
##omes 40495
##زية 40494
##oma 40493
للحصول 40492
activity 40491
جه 40490
ded 40489
quite 40488
لحقوق 40487
ستة 40486
##واريخ 40485
catch 40484
روية 40483
يظهر 40482
widely 40481
تجاوز 40480
التفاصيل 40479
samp 40478
dim 40477
##كى 40476
ring 40475
لض 40474
والز 40473
##ياتي 40472
جام 40471
ومست 40470
##mas 40469
cra 40468
##حه 40467
sought 40466
##ias 40465
97 40464
والار 40463
##bre 40462
عسكري 40461
اجمل 40460
##شى 40459
mist 40458
##ظف 40457
belg 40456
marriage 40455
##لس 40454
currency 40453
cy 40452
##iber 40451
ارس 40450
الكن 40449
دايرة 40448
##ylvania 40447
artists 40446
##يوم 40445
ker 40444
##oral 40443
ارها 40442
لام 40441
##وذ 40440
لعد 40439
يساعد 40438
rejected 40437
##عرف 40436
هن 40435
save 40434
succeed 40433
singer 40432
perman 40431
ازمة 40430
ruled 40429
isn 40428
interior 40427
التركي 40426
##وسسات 40425
الرك 40424
bern 40423
evening 40422
واخت 40421
ثانية 40420
##bon 40419
##وعية 40418
##ونها 40417
responsibility 40416
باد 40415
customers 40414
الاكبر 40413
القادمة 40412
##فيق 40411
الديموقرا 40410
1979 40409
ty 40408
opin 40407
رش 40406
wond 40405
المتعلقة 40404
musical 40403
العلاج 40402
##ros 40401
liberal 40400
معهم 40399
turkish 40398
##gu 40397
واعت 40396
عددا 40395
##ضرورة 40394
conclud 40393
##فادة 40392
مسل 40391
guy 40390
فرص 40389
وايضا 40388
ويد 40387
cart 40386
prepared 40385
magn 40384
1982 40383
الصحي 40382
virt 40381
##اكمة 40380
coord 40379
nic 40378
الحديثة 40377
column 40376
##has 40375
الميل 40374
##درات 40373
غدا 40372
tam 40371
##ورها 40370
occurred 40369
مادة 40368
البناء 40367
##tr 40366
##كندر 40365
prize 40364
saudi 40363
وعندما 40362
اسماء 40361
##ويورك 40360
dun 40359
واحت 40358
numerous 40357
عما 40356
girls 40355
sixth 40354
##وته 40353
ly 40352
المهم 40351
##itzer 40350
##oslav 40349
rebel 40348
بكر 40347
للات 40346
hearing 40345
700 40344
feature 40343
##كلات 40342
نن 40341
contributed 40340
follows 40339
flu 40338
legislation 40337
saint 40336
التحرير 40335
البار 40334
lad 40333
##cher 40332
المدارس 40331
حفل 40330
يحصل 40329
تستطيع 40328
الاسعار 40327
الارت 40326
قاعدة 40325
رويت 40324
الصغيرة 40323
ظهور 40322
فم 40321
##غا 40320
corporate 40319
لفت 40318
واضافت 40317
construct 40316
offers 40315
غياب 40314
حفظ 40313
##كنولوجيا 40312
##وبا 40311
##جمة 40310
معرض 40309
توجد 40308
مسالة 40307
mile 40306
##night 40305
chec 40304
brothers 40303
bound 40302
النب 40301
penns 40300
##سف 40299
##جاب 40298
happy 40297
81 40296
capacity 40295
التخ 40294
اعتقد 40293
انتخابات 40292
##جون 40291
policies 40290
الفوز 40289
بالفعل 40288
جماعة 40287
اطلق 40286
chemical 40285
##فقة 40284
الثلاثة 40283
jul 40282
الغاز 40281
lebanon 40280
termin 40279
القايمة 40278
عادة 40277
الدخول 40276
71 40275
queen 40274
الاستثمار 40273
bodies 40272
بوت 40271
##ياز 40270
ومنها 40269
الرييسي 40268
treaty 40267
eg 40266
يقل 40265
##ategy 40264
bear 40263
79 40262
الاسرة 40261
اللازمة 40260
##خدمات 40259
يستخدم 40258
partner 40257
conducted 40256
chen 40255
##kin 40254
carri 40253
واسعة 40252
##غانستان 40251
الحقوق 40250
الاعلان 40249
جاءت 40248
الرياضية 40247
covered 40246
وجل 40245
##light 40244
94 40243
shooting 40242
strategy 40241
##واجهة 40240
headed 40239
##iana 40238
يلت 40237
embass 40236
الواق 40235
الالت 40234
التعد 40233
math 40232
fully 40231
##صاب 40230
kids 40229
##ادرات 40228
##rison 40227
تفسير 40226
الطريقة 40225
##ailand 40224
weight 40223
voc 40222
fol 40221
##اثير 40220
seemed 40219
تجربة 40218
neighborhood 40217
##loyment 40216
backed 40215
##هام 40214
العين 40213
carrying 40212
combat 40211
scen 40210
الباب 40209
neighb 40208
thailand 40207
discovered 40206
##book 40205
مدة 40204
حر 40203
لديها 40202
شعر 40201
rein 40200
mechan 40199
image 40198
pennsylvania 40197
بحق 40196
##ساير 40195
##شط 40194
governments 40193
##بيقات 40192
ron 40191
العرض 40190
crimes 40189
##ova 40188
الصوت 40187
behav 40186
تدري 40185
inspect 40184
##وارع 40183
البش 40182
وصلت 40181
الطبيعية 40180
الرابعة 40179
ba 40178
##صرة 40177
##صرف 40176
oce 40175
##غرب 40174
advoc 40173
securities 40172
##يمين 40171
الهجوم 40170
eld 40169
##هههه 40168
ارج 40167
حالات 40166
الرقم 40165
##rd 40164
honor 40163
guest 40162
swiss 40161
##arch 40160
##fort 40159
##حته 40158
تغير 40157
صناعة 40156
##ليلا 40155
شم 40154
الشرعية 40153
##ression 40152
الداخ 40151
حتي 40150
البيية 40149
مواطن 40148
تث 40147
advanced 40146
es 40145
طرق 40144
1983 40143
السفير 40142
مصطفى 40141
نظر 40140
##ضاع 40139
actor 40138
##اليف 40137
الوث 40136
السادس 40135
الشمال 40134
vs 40133
##kee 40132
bureau 40131
نجد 40130
##ييات 40129
moham 40128
committed 40127
seasons 40126
القسم 40125
suspected 40124
willing 40123
البيانات 40122
##وانات 40121
بريطانيا 40120
للب 40119
##ضايية 40118
##اجر 40117
newspapers 40116
موض 40115
iron 40114
equal 40113
bench 40112
eye 40111
ترتيب 40110
##فز 40109
تجد 40108
heat 40107
pounds 40106
##الجة 40105
pled 40104
##adel 40103
برم 40102
##rey 40101
مطار 40100
scale 40099
##aming 40098
بالان 40097
وتابع 40096
واعتبر 40095
الموجودة 40094
##ونات 40093
##جارة 40092
مسب 40091
##يقى 40090
##stein 40089
دليل 40088
library 40087
للعمل 40086
العهد 40085
الاهل 40084
continues 40083
بتن 40082
##جتمع 40081
yug 40080
بشر 40079
extended 40078
fu 40077
characters 40076
##جاة 40075
89 40074
ford 40073
yard 40072
rug 40071
البراز 40070
التالي 40069
##درس 40068
##ثيل 40067
approximately 40066
upper 40065
dismiss 40064
##room 40063
توجه 40062
##لاج 40061
spoke 40060
انجاز 40059
السيارة 40058
اللهم 40057
hou 40056
##قين 40055
lew 40054
suit 40053
##ذن 40052
المسرح 40051
ceremony 40050
##itar 40049
ensure 40048
##works 40047
الصد 40046
location 40045
stopped 40044
documents 40043
##gs 40042
urban 40041
المسجد 40040
clash 40039
provides 40038
فصل 40037
digital 40036
1980s 40035
نا 40034
اجم 40033
##جح 40032
انق 40031
المشترك 40030
##غو 40029
gets 40028
##طط 40027
##يتش 40026
المقرر 40025
تساعد 40024
##ريقي 40023
سيما 40022
الاما 40021
sexual 40020
قضايا 40019
ولكنه 40018
tens 40017
##hol 40016
##اخر 40015
الواحد 40014
بعدها 40013
##inger 40012
ورا 40011
حاج 40010
والعمل 40009
safe 40008
destroyed 40007
بينهما 40006
giant 40005
rally 40004
dress 40003
intended 40002
##غلال 40001
fash 40000
##gets 39999
##dy 39998
والمد 39997
standards 39996
##يطان 39995
اليون 39994
##ياجات 39993
male 39992
##set 39991
individuals 39990
المركزي 39989
anton 39988
bes 39987
القادم 39986
technical 39985
يجري 39984
shr 39983
relief 39982
الرسول 39981
92 39980
dyn 39979
وربما 39978
driver 39977
lawyers 39976
البع 39975
direction 39974
المغربية 39973
امكانية 39972
بعيدا 39971
معينة 39970
الدراسات 39969
ending 39968
##سته 39967
183 39966
ايلول 39965
##ذيب 39964
ambassador 39963
مباريات 39962
selected 39961
##سيم 39960
crack 39959
brig 39958
فرانس 39957
##وفا 39956
gives 39955
interests 39954
na 39953
##ملت 39952
المكتب 39951
##هوم 39950
للتن 39949
##بيين 39948
##ella 39947
##يمون 39946
تاتي 39945
##iny 39944
looked 39943
##فور 39942
##ومنين 39941
rapid 39940
shan 39939
اسمه 39938
وخصوص 39937
vehicle 39936
##نوان 39935
##فن 39934
مستقبل 39933
وبد 39932
facilities 39931
pit 39930
##soft 39929
الظروف 39928
agent 39927
الذهب 39926
برا 39925
اكدت 39924
الالعاب 39923
المتهم 39922
المجا 39921
نجاح 39920
tight 39919
combined 39918
##كمال 39917
##oe 39916
southeast 39915
المناسب 39914
الاسواق 39913
##وايد 39912
والاجتما 39911
برياسة 39910
العمال 39909
##iters 39908
##يسى 39907
saddam 39906
بض 39905
المتوسط 39904
##علوم 39903
صل 39902
سيل 39901
يجوز 39900
تجعل 39899
ترا 39898
aband 39897
optional 39896
##chester 39895
##ثمارات 39894
البطولة 39893
صع 39892
ولذلك 39891
1975 39890
doctors 39889
الفرد 39888
yugoslav 39887
الصيف 39886
rough 39885
##تح 39884
panel 39883
##ثال 39882
setting 39881
الصينية 39880
daniel 39879
plants 39878
acting 39877
tay 39876
minim 39875
##oses 39874
فندق 39873
كبار 39872
صحة 39871
##راجعة 39870
positions 39869
سلمان 39868
##بايل 39867
enem 39866
نسخة 39865
jean 39864
plus 39863
سابقا 39862
بالص 39861
##صاء 39860
برج 39859
##يى 39858
sust 39857
ممثل 39856
عودة 39855
charl 39854
downt 39853
faced 39852
قمة 39851
steve 39850
rice 39849
##ذاء 39848
variety 39847
القومي 39846
وفى 39845
joe 39844
اللواء 39843
##ockey 39842
ليل 39841
اقرا 39840
##mo 39839
dance 39838
sri 39837
proceed 39836
##ربين 39835
tests 39834
المستخدم 39833
##kins 39832
نصر 39831
teen 39830
##مرت 39829
##يزات 39828
عديدة 39827
failure 39826
theatre 39825
##ll 39824
الجولة 39823
controlled 39822
cuts 39821
##ناية 39820
generation 39819
##ويق 39818
ohio 39817
##سيا 39816
convention 39815
showing 39814
struck 39813
##تمال 39812
##صدر 39811
الحرية 39810
الصهيون 39809
entertainment 39808
allowing 39807
##icient 39806
export 39805
##جهات 39804
gang 39803
تجمع 39802
بعضهم 39801
##زوج 39800
walk 39799
surface 39798
الاحزاب 39797
##azz 39796
اسيا 39795
climate 39794
ther 39793
organized 39792
passengers 39791
سام 39790
civilians 39789
المشتركة 39788
الكتب 39787
##ography 39786
symb 39785
مصالح 39784
##mond 39783
actions 39782
convers 39781
communications 39780
الليل 39779
التقدم 39778
las 39777
##بان 39776
jr 39775
edition 39774
exerc 39773
المكت 39772
نيويورك 39771
للط 39770
الاموال 39769
##يسان 39768
اصدار 39767
الفور 39766
القانونية 39765
spect 39764
##ماعيل 39763
guar 39762
yuan 39761
soccer 39760
##ien 39759
القمة 39758
captured 39757
##ساهم 39756
المغربي 39755
##خال 39754
كري 39753
cow 39752
يقت 39751
hind 39750
##18 39749
السينما 39748
complain 39747
##action 39746
rand 39745
اوباما 39744
اليهود 39743
بسرعة 39742
fashion 39741
solid 39740
volume 39739
davis 39738
##head 39737
##صفات 39736
1981 39735
exact 39734
انتخ 39733
effective 39732
effects 39731
junior 39730
basic 39729
والاح 39728
yan 39727
penalty 39726
كف 39725
finals 39724
platform 39723
##che 39722
صغير 39721
الشارع 39720
##ابيع 39719
##emen 39718
kosovo 39717
شرح 39716
code 39715
uses 39714
strip 39713
معنى 39712
ones 39711
instru 39710
regime 39709
1990s 39708
agencies 39707
السلم 39706
advantage 39705
الاسلحة 39704
representative 39703
وترك 39702
انتهاء 39701
##14 39700
goods 39699
pair 39698
الداخلي 39697
يدخل 39696
enjoy 39695
federation 39694
caught 39693
صيانة 39692
prosecutors 39691
##ela 39690
microsoft 39689
الصراع 39688
احيانا 39687
اقول 39686
##روفة 39685
فب 39684
طوال 39683
##رمين 39682
ny 39681
الاتصالات 39680
شبه 39679
جلسة 39678
##ysis 39677
تبدا 39676
alt 39675
انتشار 39674
##طالبة 39673
اللعبة 39672
threatened 39671
audience 39670
البداية 39669
93 39668
##ument 39667
voted 39666
scoring 39665
مساحة 39664
رو 39663
سك 39662
reasons 39661
##واه 39660
فلما 39659
طن 39658
malaysia 39657
trail 39656
providing 39655
##aked 39654
historical 39653
الخامسة 39652
الوك 39651
maxim 39650
czech 39649
النووي 39648
##دخل 39647
physical 39646
التعريف 39645
orch 39644
وخصوصا 39643
##resp 39642
فهذا 39641
shel 39640
يملك 39639
loan 39638
ariz 39637
##داخل 39636
barrel 39635
الشعبي 39634
accepted 39633
ملعب 39632
مشاريع 39631
##lig 39630
اموال 39629
##زق 39628
ترب 39627
##دو 39626
الفساد 39625
##باه 39624
الضفة 39623
التلفزيون 39622
resign 39621
##واطن 39620
الارب 39619
الضغط 39618
فات 39617
العدل 39616
stores 39615
eag 39614
بالغ 39613
الذات 39612
عاش 39611
الاجنبية 39610
bombing 39609
##تمعات 39608
عمرو 39607
الفندق 39606
insurg 39605
corruption 39604
والمست 39603
قرر 39602
##ظفين 39601
بيد 39600
المشاريع 39599
##ributed 39598
توفر 39597
الطبيعي 39596
جيش 39595
dram 39594
rog 39593
ابطال 39592
opposed 39591
webs 39590
syn 39589
lev 39588
rab 39587
##icop 39586
الممكن 39585
وتج 39584
الهد 39583
بمدينة 39582
remember 39581
رايعة 39580
شاء 39579
المذك 39578
مياه 39577
التطبيق 39576
الالمانية 39575
نه 39574
تعود 39573
المري 39572
انسان 39571
##همية 39570
spokeswoman 39569
corner 39568
حزيران 39567
متم 39566
##aya 39565
prosp 39564
##eping 39563
worldwide 39562
dub 39561
##uated 39560
ناحية 39559
##هولة 39558
diplomatic 39557
boys 39556
apparently 39555
اذن 39554
1974 39553
##فاه 39552
prompt 39551
##قام 39550
صفوف 39549
##pan 39548
reduced 39547
sanctions 39546
##owed 39545
للامم 39544
rescue 39543
##umed 39542
barb 39541
distance 39540
##acing 39539
clar 39538
agree 39537
تحقق 39536
institutions 39535
غرف 39534
yell 39533
mexican 39532
1976 39531
ذاك 39530
label 39529
kir 39528
السما 39527
الخير 39526
##رط 39525
##pson 39524
##afat 39523
lose 39522
cool 39521
slightly 39520
##wise 39519
بنك 39518
الرد 39517
ويعت 39516
hang 39515
شن 39514
مستشفى 39513
bc 39512
talking 39511
unp 39510
colomb 39509
##يهم 39508
حمد 39507
iranian 39506
الممت 39505
والاقتصاد 39504
outp 39503
subsid 39502
dur 39501
cry 39500
telec 39499
1978 39498
##ecution 39497
##rig 39496
scand 39495
التالية 39494
refugees 39493
لاج 39492
الابد 39491
الاسباني 39490
الثقافية 39489
houston 39488
يلي 39487
##ذكرت 39486
حياته 39485
##قيام 39484
andrew 39483
benefits 39482
1972 39481
##تان 39480
والاف 39479
الحقيقي 39478
ومش 39477
les 39476
bom 39475
بالله 39474
##ايح 39473
chris 39472
golf 39471
##روعات 39470
برش 39469
تمن 39468
##يطرة 39467
##ictions 39466
emer 39465
الفرق 39464
bosnia 39463
##باع 39462
ranked 39461
ونت 39460
##ario 39459
##ched 39458
##17 39457
mixed 39456
هكذا 39455
##كرر 39454
subur 39453
##ece 39452
واضحة 39451
##ولايات 39450
embassy 39449
##inct 39448
##iously 39447
metal 39446
driving 39445
conver 39444
##والى 39443
##انع 39442
لمع 39441
removed 39440
##كندرية 39439
##ovic 39438
arafat 39437
brook 39436
يسمح 39435
الخلاف 39434
##enez 39433
اللاعبين 39432
##لو 39431
##ارقة 39430
تحويل 39429
السفر 39428
##يكا 39427
involve 39426
##ateral 39425
pretty 39424
البلدان 39423
edge 39422
visited 39421
بعيد 39420
approval 39419
adopted 39418
guarant 39417
المرة 39416
انفسهم 39415
chart 39414
##ingu 39413
collabor 39412
##going 39411
offensive 39410
assistance 39409
وعم 39408
immediate 39407
كلمات 39406
السوال 39405
faith 39404
harv 39403
##سوول 39402
توزيع 39401
playoff 39400
perfect 39399
##ادى 39398
linked 39397
studied 39396
mol 39395
reading 39394
##lywood 39393
يوكد 39392
orders 39391
##icated 39390
divided 39389
wales 39388
helicop 39387
sweden 39386
##etts 39385
السيطرة 39384
##isf 39383
الحديد 39382
##inate 39381
بعنوان 39380
##outs 39379
expans 39378
استخدم 39377
admitted 39376
meters 39375
##ulate 39374
الارج 39373
الجهود 39372
لاع 39371
المدنية 39370
singles 39369
##onia 39368
none 39367
tony 39366
منتصف 39365
##ييا 39364
وزراء 39363
الزواج 39362
maybe 39361
المعلم 39360
heads 39359
lob 39358
نسمة 39357
feed 39356
races 39355
##وزير 39354
##ادم 39353
therefore 39352
narrow 39351
rum 39350
##aves 39349
affected 39348
lawmakers 39347
##ينه 39346
learn 39345
content 39344
الاوضاع 39343
عبدالعزيز 39342
##ighth 39341
شديد 39340
باج 39339
خلاف 39338
المرا 39337
guer 39336
1973 39335
millions 39334
##achus 39333
##22 39332
##ledge 39331
##ونية 39330
المتط 39329
موسسات 39328
meetings 39327
شرك 39326
##aka 39325
السلاح 39324
فرق 39323
هى 39322
اوس 39321
جي 39320
materials 39319
اليد 39318
airlines 39317
##قف 39316
gay 39315
##13 39314
اصلاح 39313
constant 39312
المساعد 39311
sudan 39310
واضح 39309
jon 39308
concent 39307
advance 39306
decline 39305
المسل 39304
المهمة 39303
تواجه 39302
glass 39301
massive 39300
accomp 39299
marine 39298
المركزية 39297
ارسل 39296
internal 39295
الاسم 39294
عصر 39293
attacked 39292
والتح 39291
simple 39290
offices 39289
##زمات 39288
عايل 39287
yield 39286
فور 39285
shi 39284
ويتم 39283
الهلال 39282
المثال 39281
النهار 39280
##فعت 39279
سقوط 39278
##صري 39277
##phia 39276
theory 39275
##idae 39274
polls 39273
##جيع 39272
signs 39271
##لاقة 39270
الصحفي 39269
racing 39268
##don 39267
القدرة 39266
deaths 39265
بالب 39264
returning 39263
##ram 39262
اخيرا 39261
مكة 39260
ped 39259
marc 39258
marked 39257
##دمير 39256
محطة 39255
##طم 39254
البريطاني 39253
1970 39252
الحمل 39251
التاريخية 39250
prin 39249
machine 39248
##ودا 39247
الثنايية 39246
##ابس 39245
ships 39244
مصلحة 39243
تموز 39242
##جير 39241
المهندس 39240
##ــــــــــــــــ 39239
holds 39238
compar 39237
prominent 39236
##تمي 39235
وعدد 39234
الاهتمام 39233
##gers 39232
التل 39231
emot 39230
michigan 39229
المطلوب 39228
##بلوماسية 39227
theater 39226
determined 39225
الدعوة 39224
nether 39223
##كلف 39222
##ديقة 39221
stood 39220
notes 39219
criticism 39218
thin 39217
##كره 39216
##ابين 39215
##امنة 39214
##وست 39213
طهران 39212
##xx 39211
##izes 39210
communities 39209
بالمن 39208
ocean 39207
بتح 39206
شرطة 39205
بلدة 39204
##ادلة 39203
pier 39202
لصالح 39201
النهاية 39200
وتس 39199
sher 39198
cricket 39197
assets 39196
##eing 39195
الصناعية 39194
picture 39193
officially 39192
##ront 39191
##ادا 39190
##rim 39189
spend 39188
##aling 39187
##الحة 39186
المناسبة 39185
##وده 39184
مجتمع 39183
massachus 39182
يعتقد 39181
revealed 39180
split 39179
concentr 39178
philadel 39177
northwest 39176
الانباء 39175
regions 39174
ترى 39173
piece 39172
monitor 39171
تصف 39170
##iot 39169
util 39168
##iano 39167
وارت 39166
الادارية 39165
climb 39164
تخل 39163
##ira 39162
الثقافي 39161
##اعية 39160
massachusetts 39159
الصحيفة 39158
##ثرة 39157
لاول 39156
##صي 39155
استر 39154
##fe 39153
انع 39152
facing 39151
cham 39150
جبل 39149
وهل 39148
خطوة 39147
المتوقع 39146
الاساس 39145
protests 39144
سان 39143
contains 39142
بالاس 39141
forms 39140
boat 39139
memorial 39138
lank 39137
onto 39136
surg 39135
disappoin 39134
لغة 39133
task 39132
naz 39131
albert 39130
comments 39129
الجماعة 39128
renew 39127
##ثور 39126
ancient 39125
##هو 39124
empire 39123
##24 39122
##غوط 39121
philadelphia 39120
##تيال 39119
افغانستان 39118
امريكي 39117
يعت 39116
الالماني 39115
كوم 39114
استطاع 39113
النشاط 39112
##roll 39111
افتتاح 39110
defence 39109
dream 39108
بالام 39107
تبلغ 39106
مرو 39105
##يكية 39104
limit 39103
العدد 39102
لاين 39101
مرور 39100
الارهابية 39099
##osh 39098
existing 39097
لديهم 39096
golden 39095
الافضل 39094
فيت 39093
مسرح 39092
hd 39091
completely 39090
تراجع 39089
الاو 39088
steps 39087
syd 39086
bin 39085
abu 39084
النات 39083
ليف 39082
permanent 39081
##ucks 39080
##زيل 39079
##mann 39078
personnel 39077
الكهرباء 39076
توقع 39075
##ارى 39074
لجميع 39073
1968 39072
alexander 39071
warning 39070
العالي 39069
sab 39068
powers 39067
فعلا 39066
##sa 39065
##اليب 39064
unable 39063
engineering 39062
syria 39061
شهادة 39060
settle 39059
قراءة 39058
##يغ 39057
operated 39056
ولما 39055
الصحف 39054
الفعل 39053
tracks 39052
anonym 39051
##osph 39050
aw 39049
ori 39048
##حاق 39047
##رال 39046
الحوث 39045
corps 39044
تشهد 39043
بالتعاون 39042
increasingly 39041
يصبح 39040
recovery 39039
تشمل 39038
بوك 39037
leaves 39036
core 39035
بعضها 39034
clearly 39033
الجنسية 39032
##رابل 39031
focused 39030
وقعت 39029
relatively 39028
مجلة 39027
البرت 39026
خطا 39025
##يدات 39024
aggress 39023
اغلب 39022
البا 39021
exports 39020
##onom 39019
yellow 39018
الطل 39017
offering 39016
##صيل 39015
اولى 39014
promised 39013
اشكال 39012
مجه 39011
موق 39010
يبدا 39009
##ii 39008
##صفة 39007
subm 39006
##ading 39005
اللاجيين 39004
ow 39003
للانت 39002
horse 39001
##ذاك 39000
##طنة 38999
##iate 38998
##more 38997
faces 38996
bh 38995
##usted 38994
bonds 38993
parliamentary 38992
institution 38991
municipality 38990
##iar 38989
حوار 38988
helping 38987
ايار 38986
multiple 38985
التعليمية 38984
ايجاد 38983
143 38982
##رفية 38981
wealth 38980
الايج 38979
صلاة 38978
محاول 38977
argentina 38976
##ياط 38975
يمت 38974
concept 38973
يحب 38972
الذه 38971
يحاول 38970
##usalem 38969
garden 38968
السياحة 38967
واقع 38966
##يفه 38965
ell 38964
drama 38963
referred 38962
##ube 38961
certainly 38960
euros 38959
المشاكل 38958
استش 38957
jerusalem 38956
##عله 38955
##agn 38954
اسماعيل 38953
funding 38952
##ذات 38951
injuries 38950
بعمل 38949
christmas 38948
##ياته 38947
poet 38946
الحاكم 38945
hers 38944
tend 38943
مكون 38942
الاشياء 38941
##orated 38940
##phy 38939
الحفاظ 38938
mobile 38937
العقد 38936
concert 38935
promote 38934
جرى 38933
ديم 38932
agents 38931
للمرة 38930
missed 38929
netherlands 38928
mp 38927
البحرية 38926
##حتها 38925
##iami 38924
##قلاب 38923
legislative 38922
العصر 38921
الحاجة 38920
interp 38919
younger 38918
guitar 38917
##cy 38916
نيسان 38915
رياسة 38914
السماء 38913
arizona 38912
senator 38911
والسلام 38910
##عاقد 38909
tank 38908
حدوث 38907
consumers 38906
يجد 38905
fought 38904
##burgh 38903
wars 38902
كول 38901
opinion 38900
transm 38899
تبقى 38898
1945 38897
وهكذا 38896
##oration 38895
شهدت 38894
اللون 38893
prefer 38892
صندوق 38891
patri 38890
solution 38889
##25 38888
##80 38887
views 38886
##ucky 38885
الصحيح 38884
waiting 38883
camer 38882
towns 38881
مراكز 38880
عثمان 38879
hockey 38878
##واجد 38877
miami 38876
contain 38875
berlin 38874
overseas 38873
voting 38872
الخض 38871
newly 38870
1970s 38869
parish 38868
الاصابة 38867
الصحافة 38866
maintain 38865
##eas 38864
bottom 38863
يبقى 38862
medicine 38861
bishop 38860
العدو 38859
atlantic 38858
baby 38857
وتف 38856
##طباء 38855
فهل 38854
couldn 38853
ممارسة 38852
شيخ 38851
sydney 38850
dozen 38849
sequ 38848
announcement 38847
##اطي 38846
hurt 38845
ذه 38844
قرارات 38843
رام 38842
rot 38841
creating 38840
الاسود 38839
مزيد 38838
الثقة 38837
الهواء 38836
loans 38835
knowledge 38834
اتخذ 38833
1977 38832
marsh 38831
scotland 38830
##ريحة 38829
المعروف 38828
kidn 38827
دعوة 38826
الحاج 38825
موجود 38824
##سارة 38823
##40 38822
متعددة 38821
wish 38820
رايع 38819
ضبط 38818
hits 38817
civilian 38816
مطلع 38815
المالي 38814
avenue 38813
##aki 38812
robin 38811
ky 38810
يخت 38809
يتحدث 38808
بالر 38807
prisoners 38806
صبا 38805
##مه 38804
temple 38803
scientific 38802
obv 38801
##بنان 38800
عشرات 38799
##قاش 38798
recru 38797
صفحة 38796
guil 38795
##زز 38794
symp 38793
recording 38792
elements 38791
fields 38790
التزام 38789
acquired 38788
##ليون 38787
##ancing 38786
fan 38785
bosnian 38784
sor 38783
##وحيد 38782
##my 38781
##essions 38780
##osoph 38779
flat 38778
benefit 38777
journalists 38776
لتش 38775
decide 38774
crown 38773
الوجه 38772
جايزة 38771
administrative 38770
weekly 38769
الشاعر 38768
يقال 38767
greece 38766
pad 38765
العاملين 38764
راى 38763
##هدد 38762
hay 38761
eyes 38760
##sl 38759
kent 38758
##oster 38757
ايه 38756
handed 38755
لعام 38754
innings 38753
rome 38752
البق 38751
heavily 38750
##zb 38749
seventh 38748
expansion 38747
الجنس 38746
##roc 38745
1948 38744
سبحانه 38743
الصفحة 38742
السويس 38741
وظايف 38740
تشغيل 38739
كوريا 38738
accounts 38737
جذ 38736
package 38735
##bl 38734
باص 38733
شب 38732
##صدق 38731
##قيب 38730
jur 38729
imag 38728
##واتف 38727
lies 38726
##شرق 38725
الطايرة 38724
sort 38723
gather 38722
##اديمية 38721
الانتخابية 38720
ثقاف 38719
##ذكرة 38718
##فعيل 38717
stret 38716
##unte 38715
موسكو 38714
ذهب 38713
وتست 38712
الرابط 38711
##ضمام 38710
columbia 38709
founder 38708
##ايت 38707
لابد 38706
mine 38705
يسمى 38704
dangerous 38703
switzer 38702
##خطيط 38701
التغيير 38700
flying 38699
ultim 38698
kansas 38697
متابعة 38696
raising 38695
##apping 38694
fab 38693
اعرف 38692
teacher 38691
manufactur 38690
possibility 38689
غيره 38688
ايدي 38687
broken 38686
##ويتر 38685
commer 38684
##هاج 38683
ويح 38682
الميد 38681
##وهم 38680
جميل 38679
##وسطة 38678
##onto 38677
classic 38676
speak 38675
unless 38674
مواد 38673
توجيه 38672
استن 38671
الاردنية 38670
تحسين 38669
pope 38668
han 38667
pilot 38666
برشل 38665
بقوة 38664
brad 38663
النوم 38662
##bury 38661
##enses 38660
unemp 38659
دقايق 38658
tie 38657
fro 38656
اقام 38655
switch 38654
وقبل 38653
frame 38652
قرا 38651
##tery 38650
قوى 38649
الوكالة 38648
الشاب 38647
grade 38646
begins 38645
clubs 38644
حلم 38643
بعدم 38642
الحالات 38641
مالك 38640
الغذايية 38639
فالم 38638
taxes 38637
seg 38636
العض 38635
مستويات 38634
holy 38633
##ابد 38632
dispute 38631
##ivity 38630
مهرجان 38629
partnership 38628
تسبب 38627
hair 38626
التك 38625
edward 38624
rare 38623
1969 38622
volunte 38621
write 38620
التشري 38619
ضمان 38618
lock 38617
pin 38616
صحي 38615
##مالك 38614
مناق 38613
provinc 38612
##ارته 38611
condem 38610
consecut 38609
##ثناء 38608
القديم 38607
philosoph 38606
learned 38605
اهتمام 38604
commissioner 38603
اقيم 38602
الكترون 38601
banking 38600
trouble 38599
العقوبات 38598
المومنين 38597
الاساسي 38596
قررت 38595
الافريقية 38594
##كتاب 38593
answer 38592
##طبيق 38591
##inth 38590
اعلام 38589
neither 38588
بالمية 38587
##pri 38586
##rad 38585
trim 38584
##لون 38583
سيع 38582
improved 38581
mm 38580
##ركان 38579
مين 38578
sky 38577
##عن 38576
##itarian 38575
بالرياض 38574
##iti 38573
##وعي 38572
##ندية 38571
ضوء 38570
ادم 38569
الروم 38568
واحدا 38567
الرج 38566
##pping 38565
reaching 38564
التض 38563
ولل 38562
marketing 38561
jam 38560
argued 38559
افت 38558
معدل 38557
##och 38556
scientists 38555
subsequently 38554
##صم 38553
##wart 38552
الذكر 38551
انش 38550
##empts 38549
##عودة 38548
متوسط 38547
##اضر 38546
اللبنانيين 38545
1971 38544
dv 38543
agriculture 38542
كاف 38541
##awa 38540
continuing 38539
الامراض 38538
kab 38537
facility 38536
enforc 38535
missile 38534
##نيع 38533
lit 38532
ايا 38531
pent 38530
##رويج 38529
sets 38528
criticized 38527
##طاليا 38526
fled 38525
ارسال 38524
##رجال 38523
finding 38522
##راكة 38521
hurr 38520
allies 38519
حظ 38518
polish 38517
مضيفا 38516
##لاط 38515
بامكان 38514
##واح 38513
##لول 38512
enterpr 38511
##ivals 38510
##eline 38509
philippines 38508
usa 38507
مدرب 38506
يه 38505
لوكالة 38504
دولية 38503
##ears 38502
allows 38501
##ورين 38500
ltd 38499
الجمهور 38498
##ارها 38497
transform 38496
venez 38495
العظيم 38494
ووضع 38493
##eme 38492
tu 38491
واكثر 38490
الاند 38489
##زايد 38488
##ضير 38487
##entially 38486
##osing 38485
بطل 38484
بيانات 38483
##ores 38482
تاسيس 38481
convicted 38480
tree 38479
expert 38478
تضمن 38477
hurrican 38476
semi 38475
تداول 38474
استراتيجية 38473
ايها 38472
gmt 38471
blast 38470
superv 38469
نطاق 38468
animals 38467
attempts 38466
جع 38465
لاحد 38464
hollywood 38463
executives 38462
تشير 38461
لانت 38460
tall 38459
برشلونة 38458
وبا 38457
يفت 38456
وفد 38455
calc 38454
mccain 38453
##osen 38452
kel 38451
##نامج 38450
دينار 38449
tech 38448
website 38447
راف 38446
consecutive 38445
feat 38444
emphas 38443
الايطالي 38442
proced 38441
الحا 38440
##agues 38439
annivers 38438
تحتوي 38437
graph 38436
taylor 38435
##lers 38434
جب 38433
نو 38432
##سباب 38431
drew 38430
##الق 38429
sharp 38428
drink 38427
hyd 38426
courts 38425
##ذف 38424
ابا 38423
الاصد 38422
المجالات 38421
ووف 38420
حما 38419
cable 38418
switzerland 38417
المنتجات 38416
عايلة 38415
satell 38414
knows 38413
analysis 38412
التحد 38411
الترب 38410
##akh 38409
politician 38408
##فسة 38407
##kh 38406
بقيادة 38405
التجاري 38404
##oking 38403
keeping 38402
gov 38401
becomes 38400
نفسي 38399
provincial 38398
عنهم 38397
map 38396
formal 38395
difference 38394
wins 38393
##arks 38392
التغ 38391
assess 38390
##يميا 38389
##ologist 38388
الحرارة 38387
casual 38386
19th 38385
vess 38384
closely 38383
الايمان 38382
حرية 38381
الروح 38380
المعا 38379
farmers 38378
مجالات 38377
##ami 38376
supporting 38375
miller 38374
jail 38373
##لمات 38372
troub 38371
الاعلامي 38370
جراء 38369
##bit 38368
الشوون 38367
##رفي 38366
الفنادق 38365
looks 38364
##عدام 38363
forum 38362
##ickets 38361
guilty 38360
رسمية 38359
والمح 38358
diam 38357
شارع 38356
سما 38355
بلدية 38354
يخرج 38353
تعديل 38352
kennedy 38351
عزيز 38350
pool 38349
pulled 38348
commerce 38347
زيار 38346
##idency 38345
امنية 38344
توقيع 38343
رواية 38342
declar 38341
##ription 38340
purpose 38339
pap 38338
رسميا 38337
assault 38336
lind 38335
truck 38334
democrat 38333
اصابة 38332
typically 38331
تول 38330
putting 38329
السيدة 38328
##illing 38327
نيوز 38326
القوانين 38325
##قلب 38324
toronto 38323
والض 38322
deficit 38321
التوصل 38320
##صيد 38319
وذكرت 38318
الصباح 38317
anniversary 38316
palace 38315
تتعلق 38314
determine 38313
suspended 38312
الاستراتيجية 38311
اريد 38310
##roit 38309
اتصال 38308
اللغ 38307
accompan 38306
##يدر 38305
المشاهد 38304
##رافية 38303
قادة 38302
ولكنها 38301
منظ 38300
##بطة 38299
allegations 38298
ورغم 38297
##oring 38296
وجدت 38295
visitors 38294
مقدم 38293
تاج 38292
ظروف 38291
fleet 38290
hotels 38289
granted 38288
المعنية 38287
يض 38286
##فيذي 38285
castle 38284
display 38283
township 38282
campus 38281
ده 38280
الغربي 38279
السابع 38278
ott 38277
علماء 38276
سع 38275
ضم 38274
##خمة 38273
الاسباب 38272
actress 38271
حدثنا 38270
ايف 38269
##نبي 38268
corporation 38267
بدر 38266
مجددا 38265
##shire 38264
##اريا 38263
shir 38262
##قوله 38261
للو 38260
supplies 38259
kat 38258
الجو 38257
starts 38256
سيف 38255
haven 38254
قريبا 38253
##علان 38252
خطر 38251
notable 38250
هجوم 38249
مناسبة 38248
transportation 38247
اماكن 38246
فج 38245
##فاءة 38244
قدرة 38243
husse 38242
comedy 38241
substant 38240
alternative 38239
يضم 38238
##ضعف 38237
congressional 38236
مبر 38235
##يتهم 38234
السير 38233
زيد 38232
ميش 38231
##بلة 38230
##can 38229
بفضل 38228
وفاة 38227
##رابلس 38226
حصلت 38225
involving 38224
كشفت 38223
التنا 38222
المرش 38221
زم 38220
latter 38219
negative 38218
northeast 38217
##يما 38216
وسوف 38215
##oked 38214
اشارة 38213
venezuel 38212
اقرب 38211
##ويم 38210
زال 38209
##itan 38208
##هاء 38207
pover 38206
##قامة 38205
buying 38204
صرح 38203
dod 38202
بالقرب 38201
colorado 38200
believes 38199
الوفد 38198
##erves 38197
صفر 38196
gore 38195
falling 38194
تعيين 38193
فاي 38192
##وقيت 38191
electronic 38190
##usion 38189
cooper 38188
coverage 38187
الخطاب 38186
andre 38185
##ولوجية 38184
اتجاه 38183
stake 38182
cuba 38181
للمست 38180
leon 38179
alongside 38178
gains 38177
poverty 38176
قليلا 38175
easily 38174
##win 38173
والبر 38172
طويل 38171
entry 38170
buff 38169
element 38168
لمش 38167
##ghai 38166
الاهداف 38165
معل 38164
bringing 38163
العدالة 38162
تعيش 38161
خيار 38160
مالية 38159
##كنية 38158
##واك 38157
corresp 38156
بحضور 38155
عقل 38154
scholars 38153
ناس 38152
detroit 38151
الاشارة 38150
contemp 38149
drum 38148
##ipping 38147
حرص 38146
nik 38145
immigration 38144
infant 38143
##رافي 38142
##خلق 38141
ثابت 38140
اخبر 38139
المحم 38138
##طلاع 38137
##طبق 38136
الحادث 38135
creation 38134
coc 38133
correspond 38132
وتص 38131
replace 38130
supposed 38129
##وسيع 38128
wait 38127
الاشت 38126
شروط 38125
زين 38124
ونا 38123
holiday 38122
retirement 38121
##فير 38120
الحملة 38119
paint 38118
وسب 38117
##بيا 38116
minority 38115
matt 38114
guerr 38113
ثالث 38112
##اغ 38111
هـ 38110
1964 38109
##laim 38108
ويف 38107
الاسهم 38106
النووية 38105
رحمه 38104
titles 38103
الدي 38102
مسوولية 38101
يشعر 38100
fears 38099
optim 38098
الرياسة 38097
##abeth 38096
##صايل 38095
coff 38094
brain 38093
##vic 38092
##جرد 38091
tower 38090
الجلسة 38089
جزءا 38088
المدر 38087
zimb 38086
##واري 38085
عادل 38084
rugby 38083
orchest 38082
wilson 38081
connection 38080
##وادث 38079
appropri 38078
labour 38077
##رويد 38076
سلاح 38075
الجنة 38074
قليلة 38073
waters 38072
amend 38071
bail 38070
##هوري 38069
margin 38068
sudden 38067
##ora 38066
النجاح 38065
حقق 38064
##قيقات 38063
##فاهم 38062
جمهورية 38061
shots 38060
principal 38059
ذي 38058
opera 38057
حصول 38056
decisions 38055
الاردني 38054
academic 38053
اصيب 38052
gross 38051
الاستقرار 38050
##ناها 38049
lady 38048
الرسالة 38047
خليفة 38046
##قلين 38045
الكنيسة 38044
المساعدة 38043
بمناسبة 38042
##نها 38041
acts 38040
##بارات 38039
##يناف 38038
##abwe 38037
الاقليمية 38036
الشكل 38035
20th 38034
توقف 38033
##كرم 38032
tennis 38031
fighters 38030
shanghai 38029
1960 38028
فرد 38027
الضوء 38026
##مدة 38025
zimbabwe 38024
فشل 38023
dozens 38022
تعب 38021
santa 38020
##راعة 38019
النهايية 38018
البخ 38017
territor 38016
الانجليزية 38015
##رايب 38014
##ذاب 38013
primarily 38012
اميركا 38011
category 38010
##ucc 38009
##ذى 38008
impress 38007
اعلم 38006
يحتوي 38005
affect 38004
consequ 38003
aer 38002
reforms 38001
والعد 38000
ثورة 37999
##ورى 37998
سنويا 37997
نشرت 37996
lewis 37995
purchase 37994
cells 37993
arrang 37992
##زيمة 37991
طلاب 37990
الده 37989
الكرد 37988
الكمبيوتر 37987
اوضح 37986
بنفسك 37985
wouldn 37984
##طلبات 37983
prote 37982
tack 37981
pictures 37980
##هداء 37979
cease 37978
طفل 37977
باش 37976
swim 37975
التيار 37974
shared 37973
الترتيب 37972
مدار 37971
تخص 37970
strategic 37969
المقابل 37968
dall 37967
بحاجة 37966
اليومية 37965
comfort 37964
reality 37963
منتديات 37962
aids 37961
قصر 37960
visiting 37959
الملكي 37958
##rees 37957
##iant 37956
ug 37955
firms 37954
writers 37953
##حص 37952
الخروج 37951
##itals 37950
لبعض 37949
سقط 37948
مجانا 37947
roads 37946
iii 37945
models 37944
imper 37943
wonder 37942
احترام 37941
flights 37940
تودي 37939
howard 37938
drawn 37937
الوظ 37936
كلما 37935
الزيارة 37934
tied 37933
##zh 37932
posted 37931
guys 37930
فية 37929
receiving 37928
##iful 37927
##bod 37926
رحلة 37925
##cl 37924
priest 37923
الواقعة 37922
merg 37921
الثانوية 37920
chron 37919
##قدمة 37918
نار 37917
سلطة 37916
learning 37915
greg 37914
##teen 37913
thinking 37912
##ساس 37911
قواعد 37910
wheel 37909
##real 37908
ends 37907
ga 37906
letters 37905
doubt 37904
mountains 37903
dry 37902
اراضي 37901
لقب 37900
موشر 37899
demands 37898
اصاب 37897
ايت 37896
##لاقا 37895
promoted 37894
##لاقات 37893
unlike 37892
truth 37891
reven 37890
jury 37889
unus 37888
الاعلامية 37887
occasion 37886
elev 37885
واعلن 37884
movies 37883
naval 37882
مير 37881
speaker 37880
satisf 37879
villages 37878
اتفاقية 37877
##ugg 37876
ناج 37875
investigators 37874
##اريو 37873
رييسا 37872
ورو 37871
القاضي 37870
الغرفة 37869
##iscal 37868
اسهم 37867
179 37866
المستشفى 37865
appoint 37864
##aine 37863
memory 37862
pir 37861
المستشار 37860
closer 37859
الفرصة 37858
transferred 37857
الطايف 37856
restaurant 37855
##قاق 37854
percentage 37853
التابع 37852
لسنة 37851
surrounding 37850
##حميل 37849
المعرفة 37848
راب 37847
gon 37846
downtown 37845
pray 37844
##water 37843
المحد 37842
العلام 37841
الجامعات 37840
##حاول 37839
spark 37838
سال 37837
politicians 37836
items 37835
eliz 37834
##ضون 37833
الحمد 37832
##hire 37831
crude 37830
expanded 37829
##ازل 37828
##enda 37827
lux 37826
##وسي 37825
confident 37824
ukraine 37823
1960s 37822
سلطان 37821
رحل 37820
respectively 37819
اصدر 37818
قليل 37817
وتب 37816
نجم 37815
##لث 37814
حقا 37813
##ours 37812
الكشف 37811
اثنين 37810
##غت 37809
اعتقال 37808
يدفع 37807
بقيمة 37806
الزيت 37805
فضل 37804
##صير 37803
##حتاج 37802
الجماهير 37801
interested 37800
surgery 37799
يشت 37798
##stone 37797
صن 37796
ضعف 37795
شين 37794
users 37793
##ستاني 37792
##ras 37791
مفهوم 37790
لحظة 37789
trig 37788
الطيران 37787
##روات 37786
##pts 37785
insisted 37784
raf 37783
duty 37782
الطبيب 37781
الاية 37780
بالض 37779
التفكير 37778
##زنة 37777
##eland 37776
فري 37775
greatest 37774
ذو 37773
الدكت 37772
احكام 37771
airline 37770
guns 37769
##uous 37768
stability 37767
ميز 37766
##بلوماسي 37765
wire 37764
اعط 37763
possibly 37762
pace 37761
closing 37760
animal 37759
##200 37758
profits 37757
migr 37756
السي 37755
##زاز 37754
بانت 37753
جميلة 37752
teachers 37751
العايل 37750
1965 37749
##راقب 37748
الشام 37747
المصريين 37746
thir 37745
لون 37744
ابنا 37743
pattern 37742
factory 37741
##جري 37740
severe 37739
nfl 37738
جديدا 37737
stephen 37736
install 37735
كر 37734
الطرف 37733
##ji 37732
معين 37731
بذ 37730
الاصلي 37729
التدخل 37728
الساحة 37727
شوون 37726
مقاطعة 37725
wave 37724
استاذ 37723
##راغ 37722
الفي 37721
maria 37720
gil 37719
distribution 37718
wrest 37717
وحده 37716
resistance 37715
##rie 37714
khan 37713
تطور 37712
om 37711
sharehold 37710
##طبخ 37709
##وايية 37708
التعبير 37707
عمله 37706
وبلغ 37705
##ايفة 37704
registered 37703
statistics 37702
القبض 37701
##standing 37700
##فيض 37699
فخ 37698
السفارة 37697
##تام 37696
nigeria 37695
auto 37694
cruc 37693
##زو 37692
balt 37691
افكار 37690
southwest 37689
importance 37688
tons 37687
طايرة 37686
الشان 37685
shell 37684
##uten 37683
##ياتها 37682
ضغط 37681
التنفيذي 37680
sentence 37679
سورة 37678
##bar 37677
130 37676
depend 37675
سري 37674
الدولار 37673
ثاني 37672
hussein 37671
bbc 37670
التداول 37669
constitutional 37668
باف 37667
ultimately 37666
كريم 37665
opponents 37664
جدة 37663
sons 37662
الانتق 37661
appearances 37660
##ns 37659
austria 37658
##وحات 37657
السجن 37656
abuse 37655
دورا 37654
twenty 37653
turning 37652
recognized 37651
##وانب 37650
رق 37649
جاه 37648
حلقة 37647
##agan 37646
assass 37645
blamed 37644
##abad 37643
1966 37642
##jan 37641
##amin 37640
tra 37639
hoped 37638
##coming 37637
عال 37636
##وفة 37635
مواقف 37634
eighth 37633
disaster 37632
##خبارات 37631
عرفات 37630
##شرطة 37629
##لل 37628
behavior 37627
picked 37626
madrid 37625
infr 37624
liver 37623
التونسي 37622
##يتم 37621
##ربت 37620
الشيء 37619
ميات 37618
##عليقات 37617
وبن 37616
friendly 37615
شت 37614
pieces 37613
##reh 37612
rig 37611
applied 37610
##ullah 37609
##غار 37608
الاسي 37607
ظاهرة 37606
تخرج 37605
كيلوم 37604
يث 37603
chamber 37602
الكامل 37601
##الله 37600
fraud 37599
delay 37598
balance 37597
##مح 37596
##كثر 37595
muslims 37594
##issions 37593
secure 37592
عاي 37591
seattle 37590
chosen 37589
منصب 37588
##pa 37587
الاماكن 37586
dj 37585
filled 37584
feeling 37583
fundament 37582
enforcement 37581
##عوة 37580
discl 37579
swedish 37578
شعار 37577
egyptian 37576
شباط 37575
illin 37574
نظم 37573
ideas 37572
abroad 37571
الطالب 37570
thanks 37569
لمح 37568
##fall 37567
الشعوب 37566
tourism 37565
لمعا 37564
serbs 37563
cin 37562
violent 37561
ايد 37560
hero 37559
trees 37558
experiment 37557
org 37556
سليم 37555
مناسب 37554
invasion 37553
serbia 37552
نقول 37551
ايطاليا 37550
enh 37549
pip 37548
##ema 37547
##ويلا 37546
كتابه 37545
ونقل 37544
marks 37543
##ريبية 37542
woods 37541
entr 37540
treasury 37539
##صلت 37538
ble 37537
اليمنية 37536
##رامة 37535
الاعداد 37534
ارقام 37533
resort 37532
موت 37531
buried 37530
##ـة 37529
الكر 37528
القايم 37527
rebu 37526
قدمت 37525
##اوية 37524
fbi 37523
##سلطة 37522
passing 37521
الخيارات 37520
reportedly 37519
types 37518
serves 37517
##itage 37516
sha 37515
سبع 37514
110 37513
جودة 37512
قالوا 37511
##ached 37510
والمش 37509
dialogue 37508
1962 37507
fiscal 37506
الابتد 37505
النه 37504
##يروس 37503
##bel 37502
##فتيش 37501
بالكامل 37500
hills 37499
stands 37498
deploy 37497
cav 37496
seized 37495
pakistani 37494
salt 37493
delegation 37492
التسجيل 37491
رواه 37490
ويجب 37489
الرواية 37488
phase 37487
معركة 37486
استعمال 37485
العشرين 37484
composed 37483
##esters 37482
طبيعة 37481
##ilit 37480
تويتر 37479
##erved 37478
testing 37477
##شفيات 37476
السوداني 37475
##مم 37474
المسوولية 37473
competed 37472
خلي 37471
##ومه 37470
blow 37469
jews 37468
traded 37467
التدريب 37466
experi 37465
##ructure 37464
##وضحت 37463
reflect 37462
##ناطق 37461
invited 37460
ومحمد 37459
البيضاء 37458
المحتلة 37457
##vin 37456
النتيجة 37455
للتسجيل 37454
##iat 37453
الجمع 37452
##oted 37451
فعاليات 37450
اقدم 37449
##يريا 37448
تاي 37447
كمية 37446
witnesses 37445
isol 37444
اتباع 37443
indicated 37442
تعت 37441
manufacturing 37440
##اهيل 37439
transition 37438
concluded 37437
##abil 37436
passenger 37435
خارجية 37434
creek 37433
tob 37432
##ables 37431
البلا 37430
وكيل 37429
تهدف 37428
manh 37427
تسعى 37426
اسبانيا 37425
reaction 37424
الرياضة 37423
ross 37422
##bridge 37421
صدام 37420
وهى 37419
settled 37418
spin 37417
advertising 37416
##عاة 37415
##elson 37414
الملكية 37413
circum 37412
شاب 37411
venture 37410
districts 37409
اسرة 37408
##وسيا 37407
وطنية 37406
##etary 37405
kev 37404
##ashed 37403
illinois 37402
ويق 37401
##ابق 37400
تعاون 37399
العناصر 37398
زعيم 37397
compete 37396
cn 37395
proved 37394
1963 37393
الاحيان 37392
##هلك 37391
##قاطع 37390
المهرجان 37389
##شين 37388
وعمل 37387
##load 37386
ومل 37385
resulted 37384
##ensity 37383
الجبهة 37382
مفا 37381
##ikh 37380
يواجه 37379
مبلغ 37378
اليابان 37377
minnes 37376
##قدام 37375
160 37374
harm 37373
غالبا 37372
##رسوم 37371
سنت 37370
زوجته 37369
shah 37368
العاملة 37367
plot 37366
researchers 37365
140 37364
##مارسات 37363
bronze 37362
absol 37361
للتح 37360
sr 37359
industries 37358
expectations 37357
السودانية 37356
سطح 37355
dominated 37354
النصر 37353
alban 37352
suffering 37351
nich 37350
المسلسل 37349
##يوخ 37348
damaged 37347
toy 37346
الصوم 37345
الطف 37344
زوجها 37343
##صات 37342
##poin 37341
##كنت 37340
الطرفين 37339
سبعة 37338
py 37337
منك 37336
bass 37335
leads 37334
##known 37333
commitment 37332
##aug 37331
incorp 37330
2nd 37329
الملفات 37328
solo 37327
soldier 37326
الدرجة 37325
##acement 37324
agricultural 37323
banned 37322
تصبح 37321
اخرج 37320
rating 37319
توص 37318
لمواجهة 37317
مني 37316
الغاء 37315
هما 37314
sin 37313
delivered 37312
##بيعة 37311
##apse 37310
compens 37309
حقيقية 37308
##يغة 37307
واكدت 37306
##23 37305
البلدية 37304
occupied 37303
blair 37302
##كور 37301
##ucing 37300
##athered 37299
suspects 37298
حوالى 37297
falls 37296
زيت 37295
##طاقات 37294
advent 37293
##جابة 37292
brian 37291
fern 37290
seeing 37289
طبعا 37288
وشدد 37287
بموجب 37286
seriously 37285
##western 37284
واوضحت 37283
يلعب 37282
غيرها 37281
unknown 37280
cutting 37279
##نيك 37278
عروض 37277
minnesota 37276
referring 37275
oak 37274
المتن 37273
##60 37272
##هلاك 37271
تواصل 37270
purchased 37269
inspired 37268
##افات 37267
##رادة 37266
الثامنة 37265
warm 37264
raid 37263
المدرب 37262
formerly 37261
height 37260
مشترك 37259
tag 37258
ثمة 37257
ورش 37256
المبادرة 37255
frequently 37254
اللعب 37253
اعتماد 37252
يضع 37251
kl 37250
rever 37249
bright 37248
exhibition 37247
العايلة 37246
maximum 37245
contemporary 37244
موسم 37243
يبحث 37242
المسالة 37241
thai 37240
##بري 37239
صعيد 37238
portion 37237
tib 37236
91 37235
##mates 37234
##ilton 37233
حضر 37232
theme 37231
tort 37230
##سليم 37229
##فتاء 37228
احتجاج 37227
##arr 37226
تعتمد 37225
استد 37224
laid 37223
الحص 37222
acknowledged 37221
بمث 37220
منصور 37219
تمر 37218
الامني 37217
considering 37216
option 37215
presidency 37214
exclus 37213
ملت 37212
punish 37211
التقليدية 37210
fel 37209
##نوب 37208
##olis 37207
##شكل 37206
cited 37205
يعتمد 37204
evac 37203
##وند 37202
mainland 37201
##غرق 37200
chain 37199
الرياضي 37198
وجهة 37197
households 37196
##fire 37195
خطاب 37194
الموارد 37193
defensive 37192
circuit 37191
احياء 37190
اليمني 37189
herself 37188
##fur 37187
causing 37186
البرو 37185
بالاست 37184
otherwise 37183
dallas 37182
ذوي 37181
##كافحة 37180
السياق 37179
صرف 37178
gor 37177
النيابة 37176
##كريم 37175
discussed 37174
جس 37173
##خي 37172
والاص 37171
##افيين 37170
moves 37169
طرابلس 37168
2020 37167
##ladesh 37166
يفعل 37165
cos 37164
treated 37163
نقدم 37162
bangladesh 37161
القرارات 37160
##ذار 37159
الحصار 37158
##تهما 37157
تزيد 37156
##رمى 37155
معالجة 37154
toll 37153
المقت 37152
النبات 37151
constitu 37150
electricity 37149
نقص 37148
quiet 37147
تكت 37146
1st 37145
##greg 37144
contained 37143
elizabeth 37142
##خلف 37141
بيل 37140
represents 37139
defending 37138
الافكار 37137
elsewhere 37136
clients 37135
كتابة 37134
graduated 37133
apple 37132
تقت 37131
wine 37130
نريد 37129
القيم 37128
حادث 37127
achieved 37126
##di 37125
ثقافة 37124
ودعا 37123
واشارت 37122
السياحية 37121
chile 37120
قصص 37119
differences 37118
asking 37117
eat 37116
compon 37115
تخت 37114
تور 37113
##jo 37112
الافريقي 37111
extremely 37110
لدعم 37109
##الفة 37108
صباحا 37107
حلول 37106
##ounced 37105
contrast 37104
pushed 37103
destin 37102
والانت 37101
understanding 37100
ناصر 37099
veteran 37098
driven 37097
immigrants 37096
الحقيقية 37095
##weight 37094
programme 37093
lyn 37092
مدن 37091
forecast 37090
roof 37089
diego 37088
##رقية 37087
تملك 37086
فانها 37085
##iser 37084
مطالب 37083
consists 37082
##ione 37081
القراءة 37080
الاداء 37079
يعاني 37078
##elle 37077
kal 37076
الرم 37075
امور 37074
##روري 37073
featuring 37072
تلا 37071
##ito 37070
تصوير 37069
file 37068
mentioned 37067
escape 37066
electoral 37065
peaceke 37064
##ادثة 37063
الكلمة 37062
كفر 37061
struggle 37060
الصعيد 37059
والعالم 37058
سمع 37057
ward 37056
درجات 37055
ثان 37054
##21 37053
##راوح 37052
وقوع 37051
##ناك 37050
##ـي 37049
الراس 37048
الموجود 37047
brazilian 37046
sentenced 37045
##خلي 37044
##eh 37043
dal 37042
##eda 37041
##باحث 37040
ديك 37039
زايد 37038
لنفس 37037
سوء 37036
المنش 37035
بقية 37034
المنظمات 37033
max 37032
توكد 37031
stro 37030
بكثير 37029
##وقيع 37028
الاثار 37027
افاد 37026
المرك 37025
enemy 37024
unemployment 37023
الصغير 37022
ظهرت 37021
اكس 37020
specif 37019
pound 37018
##ogle 37017
##حدات 37016
يطلق 37015
ديف 37014
inqu 37013
##grade 37012
obtained 37011
مسيرة 37010
تقارير 37009
جسم 37008
وعا 37007
الفضاء 37006
strongly 37005
##icial 37004
apply 37003
hamp 37002
illustr 37001
unique 37000
##يحة 36999
##aire 36998
عاصمة 36997
drag 36996
regiment 36995
##unk 36994
سود 36993
tells 36992
liqu 36991
الاشترا 36990
##ahu 36989
repeatedly 36988
##وريت 36987
للرييس 36986
watching 36985
motion 36984
عيسى 36983
##enna 36982
ياخذ 36981
explosion 36980
##ابرات 36979
تبحث 36978
##sk 36977
الزراعة 36976
kuwa 36975
portr 36974
منتجات 36973
نزل 36972
التجربة 36971
النم 36970
شكرا 36969
destruction 36968
##66 36967
##enz 36966
identity 36965
وكما 36964
membership 36963
والتنمية 36962
الكلمات 36961
استقبل 36960
vic 36959
pav 36958
arth 36957
عط 36956
عامل 36955
بمثابة 36954
نفذ 36953
overs 36952
قصيرة 36951
abort 36950
الاعتداء 36949
##eastern 36948
images 36947
باقي 36946
جانبه 36945
allegedly 36944
manchester 36943
religion 36942
المعرض 36941
cler 36940
نفسك 36939
الاقصى 36938
patrick 36937
المرج 36936
loyal 36935
moon 36934
##شاب 36933
wake 36932
upd 36931
ابر 36930
يدل 36929
bou 36928
الجنوبي 36927
hat 36926
medium 36925
antonio 36924
الاصول 36923
ينتظر 36922
##stan 36921
##واني 36920
secondary 36919
باح 36918
اقتصادية 36917
changing 36916
delivery 36915
hole 36914
تاكيد 36913
dedicated 36912
vast 36911
##rical 36910
##ناح 36909
ساح 36908
mall 36907
مراحل 36906
يقبل 36905
##كليز 36904
المحيط 36903
##رطوم 36902
##ima 36901
centers 36900
الجزايري 36899
norway 36898
##ظاهرات 36897
grass 36896
الاطلاق 36895
##attan 36894
فاج 36893
genus 36892
shape 36891
ماء 36890
قلوب 36889
جزيرة 36888
وبم 36887
##واير 36886
bac 36885
kevin 36884
yes 36883
wearing 36882
##mans 36881
التقنية 36880
النيل 36879
نهايي 36878
##uster 36877
##بيعات 36876
##owa 36875
ابل 36874
roles 36873
hired 36872
##ran 36871
1956 36870
رايت 36869
networks 36868
stick 36867
الشهيد 36866
everybody 36865
##راوي 36864
wolf 36863
virus 36862
منهما 36861
values 36860
vision 36859
خلفية 36858
##erb 36857
##rant 36856
begun 36855
##وازن 36854
مرك 36853
##بس 36852
##يبية 36851
الجريمة 36850
قريب 36849
lam 36848
complic 36847
##27 36846
milan 36845
schedule 36844
grown 36843
##atically 36842
##athan 36841
representing 36840
dealers 36839
surprise 36838
الزراعية 36837
##اءة 36836
##tle 36835
##زت 36834
roy 36833
instruct 36832
protesters 36831
favorite 36830
##ouri 36829
murd 36828
##illed 36827
participated 36826
للصح 36825
##روي 36824
لاحقا 36823
bankrupt 36822
options 36821
gord 36820
المطلوبة 36819
الخطوة 36818
rah 36817
##وقة 36816
correct 36815
signing 36814
يورو 36813
1950 36812
الشديد 36811
##ينغ 36810
satellite 36809
vin 36808
##ذاعة 36807
sending 36806
صاح 36805
qaida 36804
peak 36803
فرع 36802
connected 36801
##iki 36800
##بو 36799
المدنيين 36798
المكون 36797
##ui 36796
factor 36795
##ello 36794
trained 36793
contracts 36792
opportunities 36791
skin 36790
breaking 36789
الرف 36788
##وايز 36787
assigned 36786
beaut 36785
الشاي 36784
الموافق 36783
##قاب 36782
التراث 36781
لديك 36780
تسمح 36779
christoph 36778
زالت 36777
paying 36776
##alf 36775
initiative 36774
ابد 36773
indeed 36772
الوزن 36771
##ياج 36770
الة 36769
judges 36768
الشوط 36767
##eted 36766
المحا 36765
activists 36764
##berts 36763
##فار 36762
سلامة 36761
خطوات 36760
reference 36759
recommend 36758
teaching 36757
##taining 36756
##وسة 36755
تجم 36754
قيل 36753
autonom 36752
باخت 36751
بالاع 36750
remarks 36749
overnight 36748
##متع 36747
##ثمرين 36746
##rif 36745
900 36744
detained 36743
موضحا 36742
hosted 36741
بمد 36740
##dp 36739
kash 36738
مقات 36737
amaz 36736
##ining 36735
prep 36734
##itter 36733
خيارات 36732
links 36731
lieuten 36730
##ريه 36729
touchdown 36728
##osure 36727
performances 36726
باللغة 36725
دفاع 36724
stretch 36723
taught 36722
counsel 36721
##aska 36720
اليهم 36719
وسم 36718
arabia 36717
##رفيه 36716
maker 36715
ay 36714
whate 36713
##لقى 36712
##ori 36711
1961 36710
حرم 36709
jazz 36708
pc 36707
التو 36706
whatever 36705
telling 36704
اته 36703
##صرى 36702
##اااا 36701
ولهذا 36700
بشار 36699
جرايم 36698
##يزا 36697
##ىء 36696
الاطباء 36695
##ماعة 36694
diver 36693
كلين 36692
اسس 36691
المقر 36690
المسار 36689
تبين 36688
reviews 36687
والاجتماعية 36686
flo 36685
##rupted 36684
##افلة 36683
targets 36682
infrast 36681
تسليم 36680
scandal 36679
لتم 36678
producing 36677
##طه 36676
وجم 36675
مجموع 36674
الافراد 36673
disappear 36672
##عوك 36671
google 36670
gi 36669
nam 36668
literature 36667
mrs 36666
1958 36665
انتهت 36664
establishment 36663
عون 36662
نهر 36661
favour 36660
##اناة 36659
اكتشاف 36658
##oen 36657
##هدا 36656
سالم 36655
تتضمن 36654
حلب 36653
ستت 36652
الخصوص 36651
##ماك 36650
الهجرة 36649
فيهم 36648
فش 36647
stuff 36646
demanded 36645
الالتزام 36644
ذاتها 36643
اسلحة 36642
##بيان 36641
##يمات 36640
الاكت 36639
وقدم 36638
##atures 36637
unif 36636
##بلاد 36635
##جوء 36634
##اليد 36633
bry 36632
تحصل 36631
rav 36630
lanka 36629
##alia 36628
تصدر 36627
imposed 36626
anonymity 36625
aren 36624
ax 36623
abc 36622
##طرا 36621
لعدم 36620
rif 36619
اقوى 36618
moh 36617
photos 36616
هش 36615
jes 36614
sharon 36613
تابعة 36612
heritage 36611
nep 36610
ادت 36609
الخرطوم 36608
##agu 36607
وادي 36606
orange 36605
formation 36604
الاولم 36603
##ooth 36602
تابع 36601
background 36600
ولقد 36599
##eller 36598
الجهة 36597
الاسكندرية 36596
##ايص 36595
وجعل 36594
controversial 36593
واسع 36592
ليكون 36591
##uits 36590
output 36589
متى 36588
ic 36587
الكتابة 36586
اضافية 36585
citing 36584
اود 36583
التاسع 36582
emper 36581
##pool 36580
##otic 36579
حف 36578
محددة 36577
انتها 36576
تسي 36575
wides 36574
classes 36573
elder 36572
انخفاض 36571
scottish 36570
radical 36569
اري 36568
dismissed 36567
الراحل 36566
suspect 36565
##iary 36564
sugar 36563
##وقوف 36562
سلوك 36561
اولاد 36560
attempted 36559
المباشر 36558
1947 36557
disney 36556
queens 36555
pointed 36554
involvement 36553
albums 36552
احسن 36551
railroad 36550
hurricane 36549
fit 36548
اسلوب 36547
##ازي 36546
alco 36545
##شيخ 36544
maintained 36543
الجودة 36542
##راسات 36541
الناطق 36540
inaug 36539
competitive 36538
وبه 36537
اثبت 36536
synd 36535
##يمي 36534
rud 36533
##kel 36532
joining 36531
محادثات 36530
البرلم 36529
##طاعم 36528
##olas 36527
مظ 36526
انتهى 36525
يتبع 36524
##99 36523
الجنود 36522
##uls 36521
انباء 36520
الاسر 36519
surviv 36518
salv 36517
horn 36516
exactly 36515
##utation 36514
##una 36513
1949 36512
##entions 36511
beating 36510
اجمالي 36509
winners 36508
كرد 36507
returns 36506
العثور 36505
##sey 36504
bach 36503
resigned 36502
confirm 36501
يشارك 36500
الافلام 36499
nba 36498
##برنامج 36497
بسهولة 36496
مشتركة 36495
لمجلس 36494
merch 36493
بتقديم 36492
dir 36491
اليك 36490
earthqu 36489
ونقلت 36488
ومم 36487
alf 36486
petr 36485
دست 36484
ــ 36483
1944 36482
الشت 36481
##زلة 36480
adam 36479
الخز 36478
صدي 36477
cards 36476
بمنطقة 36475
hoping 36474
wang 36473
خلاله 36472
دير 36471
عقود 36470
##خف 36469
مشارك 36468
##ولد 36467
يكت 36466
nap 36465
والتى 36464
بمعنى 36463
dvd 36462
legislature 36461
كهرب 36460
نعرف 36459
survived 36458
للث 36457
trop 36456
soul 36455
الاحوال 36454
يقف 36453
##كرا 36452
يمنع 36451
المصالح 36450
constructed 36449
خال 36448
fame 36447
males 36446
##فتاح 36445
##ean 36444
للدولة 36443
الخلف 36442
##ollah 36441
تي 36440
كاب 36439
scul 36438
##ذاكرة 36437
humanitarian 36436
تبدو 36435
sed 36434
ابواب 36433
##ounce 36432
##سع 36431
##ertain 36430
نرى 36429
ninth 36428
concer 36427
thro 36426
desert 36425
170 36424
تنمية 36423
البول 36422
الزمالك 36421
##ourne 36420
palm 36419
##حام 36418
تعليق 36417
stress 36416
المقدمة 36415
shiite 36414
observ 36413
ببعض 36412
##ompl 36411
ناش 36410
القومية 36409
##وجة 36408
وبحسب 36407
خفض 36406
turns 36405
##antly 36404
لافتا 36403
##oto 36402
prove 36401
##خفض 36400
##ساطة 36399
##eb 36398
الاطار 36397
##زه 36396
فاعل 36395
performing 36394
القرية 36393
القمر 36392
معهد 36391
##din 36390
تصرف 36389
واول 36388
يشير 36387
requires 36386
##umes 36385
الموظفين 36384
للمشاركة 36383
smart 36382
الاقامة 36381
participate 36380
conce 36379
جبهة 36378
البريد 36377
روم 36376
قبول 36375
trains 36374
يقدر 36373
##ندات 36372
##ستها 36371
##isa 36370
manhattan 36369
##قدير 36368
ahmed 36367
1959 36366
الطلبة 36365
juan 36364
##apes 36363
ranking 36362
##جهود 36361
surge 36360
خليل 36359
cem 36358
skills 36357
worse 36356
##خيل 36355
القناة 36354
##ux 36353
منازل 36352
xinh 36351
kaz 36350
تعريف 36349
walls 36348
##ribute 36347
##امرة 36346
جرت 36345
##rete 36344
employment 36343
امرا 36342
السادسة 36341
collapse 36340
abandoned 36339
adult 36338
تدريب 36337
allen 36336
الديمقراطي 36335
##acle 36334
##gas 36333
تامين 36332
حج 36331
##char 36330
مسار 36329
ملفات 36328
kenya 36327
سفر 36326
tact 36325
midfield 36324
##stream 36323
plain 36322
الفار 36321
##يجار 36320
titled 36319
tourists 36318
تعامل 36317
وخلال 36316
لتقديم 36315
winds 36314
atm 36313
##خين 36312
##pread 36311
belgium 36310
computers 36309
orth 36308
القيمة 36307
publicly 36306
oblig 36305
وليد 36304
تحليل 36303
بوجود 36302
لاعادة 36301
sweet 36300
الته 36299
##صالح 36298
وسيلة 36297
كبرى 36296
يتطلب 36295
##بك 36294
nominated 36293
prosecutor 36292
يتعرض 36291
explained 36290
widespread 36289
بخصوص 36288
اعوام 36287
##acks 36286
metrop 36285
affili 36284
beautiful 36283
تصد 36282
directors 36281
لمعاينة 36280
حينما 36279
عنده 36278
journalist 36277
وانها 36276
بوابة 36275
العملات 36274
myan 36273
ناف 36272
apartment 36271
##otten 36270
الصالح 36269
قوي 36268
دارفور 36267
powell 36266
سرعة 36265
athletes 36264
ويعتبر 36263
جاك 36262
الكلية 36261
chances 36260
بالتاكيد 36259
eric 36258
reject 36257
ثمن 36256
##ثلا 36255
franch 36254
xinhua 36253
الشبكة 36252
الرض 36251
blo 36250
designated 36249
انتظار 36248
الالوان 36247
degrees 36246
الفقر 36245
application 36244
infrastructure 36243
ينظر 36242
encoun 36241
##ادته 36240
سيب 36239
القصة 36238
accompl 36237
##طلاب 36236
يحيى 36235
الذهاب 36234
استمر 36233
dean 36232
الصادر 36231
simon 36230
##ومين 36229
فاس 36228
param 36227
الاثر 36226
dor 36225
واغ 36224
##rah 36223
كريست 36222
العثم 36221
موجودة 36220
soph 36219
التب 36218
educational 36217
مبادرة 36216
##rog 36215
boss 36214
##كاء 36213
لسان 36212
fant 36211
احدا 36210
##26 36209
ياسر 36208
jet 36207
التنفيذية 36206
duke 36205
الاتجاه 36204
expensive 36203
القايد 36202
signal 36201
lieutenant 36200
myanmar 36199
منف 36198
ميت 36197
يطلب 36196
##صرح 36195
التركيز 36194
عالمية 36193
princip 36192
aver 36191
المريض 36190
تحديث 36189
##cing 36188
harry 36187
تجري 36186
##لاص 36185
thor 36184
الرش 36183
##vere 36182
operate 36181
النور 36180
##اصرة 36179
السبع 36178
bills 36177
الحرة 36176
جريدة 36175
morgan 36174
colombia 36173
وتطوير 36172
fisher 36171
##zen 36170
التشغيل 36169
symbol 36168
الصحراء 36167
borders 36166
المقال 36165
frustr 36164
##bing 36163
resulting 36162
##mir 36161
##وتي 36160
النجم 36159
##iop 36158
للجم 36157
زي 36156
ورح 36155
التامين 36154
##وسايل 36153
لاص 36152
##راما 36151
prohib 36150
neighboring 36149
mental 36148
ربع 36147
cha 36146
terrorists 36145
##fol 36144
consp 36143
ادوات 36142
ثقة 36141
الرياسية 36140
السعر 36139
gathered 36138
select 36137
regarding 36136
hyp 36135
sitting 36134
afford 36133
fc 36132
string 36131
rick 36130
##born 36129
recall 36128
صدور 36127
##شرح 36126
nationwide 36125
للسي 36124
planes 36123
##do 36122
تكر 36121
guards 36120
كمال 36119
indonesian 36118
ويكون 36117
اسابيع 36116
nbc 36115
ورفع 36114
inhab 36113
350 36112
instrument 36111
سياق 36110
##شب 36109
خروج 36108
مصنع 36107
الصدر 36106
yel 36105
depos 36104
stayed 36103
multi 36102
scar 36101
giants 36100
جريمة 36099
##وضية 36098
الصهيوني 36097
praised 36096
aged 36095
باتجاه 36094
choose 36093
معنا 36092
temporary 36091
peaceful 36090
convinc 36089
grounds 36088
لانهم 36087
الخطة 36086
المساعدات 36085
ملاح 36084
خبراء 36083
painting 36082
##emat 36081
البالغ 36080
الصناعة 36079
الايت 36078
الخص 36077
tast 36076
لر 36075
remove 36074
tibet 36073
legend 36072
ساهم 36071
المتب 36070
تبادل 36069
abbas 36068
##بدا 36067
والاش 36066
الشيع 36065
السوريين 36064
##قدة 36063
تذكر 36062
جوز 36061
استع 36060
ونظ 36059
##inations 36058
profile 36057
croatia 36056
حجر 36055
gate 36054
المعارض 36053
المكر 36052
##ناسب 36051
victim 36050
promotion 36049
الحدث 36048
ندعوك 36047
roberts 36046
yester 36045
##ايط 36044
و6 36043
exercise 36042
يسعى 36041
والده 36040
##worth 36039
رسايل 36038
ip 36037
##قاهرة 36036
ازالة 36035
وحسب 36034
mining 36033
relatives 36032
الدار 36031
جنب 36030
budd 36029
##داة 36028
حدد 36027
##oli 36026
camps 36025
whit 36024
125 36023
organisation 36022
الشمالي 36021
يات 36020
uncertain 36019
##ربات 36018
عف 36017
الكاملة 36016
يومين 36015
مبدا 36014
تقنية 36013
writes 36012
##ريج 36011
##اخرة 36010
عود 36009
تسا 36008
##يرها 36007
drivers 36006
يحقق 36005
ودعم 36004
comprom 36003
خام 36002
متنوعة 36001
decre 36000
window 35999
خدم 35998
كات 35997
##فاضة 35996
threats 35995
اخي 35994
اغنية 35993
bath 35992
scenes 35991
alive 35990
##oa 35989
##oh 35988
مفاوضات 35987
antic 35986
format 35985
##35 35984
##emic 35983
birds 35982
aviation 35981
يرد 35980
صحفي 35979
##28 35978
emperor 35977
anderson 35976
##شرت 35975
hart 35974
pentagon 35973
##اوي 35972
fernand 35971
##وغان 35970
rw 35969
الادب 35968
reserv 35967
gab 35966
فلسطينية 35965
##ظبي 35964
welf 35963
producers 35962
رويترز 35961
estimates 35960
##نز 35959
##اديث 35958
##حاث 35957
aside 35956
lag 35955
##على 35954
اقصى 35953
زع 35952
matters 35951
الحماية 35950
لرييس 35949
ka 35948
covers 35947
جدول 35946
entit 35945
اصول 35944
lap 35943
التوجه 35942
المدى 35941
adopt 35940
الاعتبار 35939
regulations 35938
emerged 35937
parent 35936
crucial 35935
poly 35934
rocket 35933
##طورة 35932
البنوك 35931
##خوا 35930
##وتيوب 35929
conclus 35928
remark 35927
##feld 35926
portugal 35925
عج 35924
نجوم 35923
وسل 35922
engaged 35921
dick 35920
واعادة 35919
ولعل 35918
crop 35917
الاخضر 35916
1952 35915
تعاني 35914
females 35913
احتمال 35912
1946 35911
##anes 35910
##airo 35909
##ياهو 35908
##كيم 35907
##يرو 35906
1957 35905
belief 35904
yesterday 35903
الجمهوري 35902
باراك 35901
طيب 35900
acquis 35899
shif 35898
##ملكة 35897
برن 35896
causes 35895
عندي 35894
فيصل 35893
lebanese 35892
الامل 35891
المشاركين 35890
extensive 35889
رسمي 35888
divers 35887
قادرة 35886
prol 35885
لفترة 35884
المرح 35883
clark 35882
reporter 35881
##eva 35880
للاطفال 35879
##اوف 35878
##li 35877
welfare 35876
##olitan 35875
carlos 35874
nomination 35873
فكر 35872
rooms 35871
borrow 35870
الغير 35869
افادت 35868
الصل 35867
المقا 35866
بقل 35865
##ينيا 35864
##ايهم 35863
التوالي 35862
carter 35861
نموذج 35860
##ماغ 35859
plate 35858
العالية 35857
وتعد 35856
militant 35855
فحسب 35854
يدعو 35853
##بعد 35852
distinct 35851
راج 35850
الظهر 35849
الخبراء 35848
لشركة 35847
alan 35846
roughly 35845
الديموقراطية 35844
عملا 35843
##weg 35842
putin 35841
الاربعة 35840
pes 35839
reconst 35838
battal 35837
mutual 35836
median 35835
cloth 35834
commonly 35833
لمت 35832
يمر 35831
imposs 35830
buck 35829
ساحة 35828
graduate 35827
المشهد 35826
persu 35825
##endum 35824
##mes 35823
الانساني 35822
clo 35821
ونصف 35820
innoc 35819
جيل 35818
الجزايرية 35817
كوب 35816
اطراف 35815
يستحق 35814
انتقل 35813
لمد 35812
1954 35811
deals 35810
##inces 35809
وقام 35808
يتمكن 35807
shopping 35806
mortg 35805
بتص 35804
challenges 35803
cad 35802
laugh 35801
sculpt 35800
الديني 35799
باكستان 35798
ماك 35797
المنافسة 35796
موظ 35795
##pton 35794
##ظى 35793
statements 35792
##قيم 35791
rivals 35790
فد 35789
##ologies 35788
تقبل 35787
##een 35786
اجزاء 35785
##enko 35784
si 35783
gib 35782
excell 35781
ايمان 35780
الشخصيات 35779
##inder 35778
##راها 35777
proposals 35776
jay 35775
lowest 35774
##ardo 35773
##سلمين 35772
السكر 35771
قيد 35770
popul 35769
gordon 35768
##اتم 35767
نساء 35766
بجانب 35765
habit 35764
ناد 35763
##بلد 35762
distingu 35761
victoria 35760
jav 35759
universal 35758
شرف 35757
##قتين 35756
empt 35755
الكث 35754
mohammed 35753
kings 35752
الفنانة 35751
مصري 35750
predicted 35749
##قس 35748
ticket 35747
يتضمن 35746
قطعة 35745
العيد 35744
توفي 35743
العملاء 35742
appe 35741
وسجل 35740
فهد 35739
device 35738
stem 35737
الاستقلال 35736
experienced 35735
recalled 35734
##ودها 35733
مديرية 35732
بشدة 35731
مرش 35730
languages 35729
وذ 35728
منش 35727
##نات 35726
##oz 35725
##منة 35724
gap 35723
rear 35722
الفكرة 35721
publication 35720
hans 35719
profession 35718
danger 35717
frag 35716
canc 35715
oldest 35714
##lah 35713
cant 35712
broadcasting 35711
##ولاء 35710
chick 35709
##29 35708
للجميع 35707
بالعمل 35706
reputation 35705
recognition 35704
لحماية 35703
اجتماعية 35702
vul 35701
nice 35700
peru 35699
العمومية 35698
الطبيعة 35697
##يكة 35696
suspic 35695
اغتيال 35694
الحفل 35693
practices 35692
##ايدة 35691
##دريب 35690
وابن 35689
سيس 35688
للحكومة 35687
الاستفادة 35686
responded 35685
agenda 35684
ريف 35683
لحل 35682
increases 35681
surve 35680
strikes 35679
stressed 35678
referendum 35677
tang 35676
مسجد 35675
##وعا 35674
##iner 35673
bilateral 35672
ryan 35671
arrival 35670
يخص 35669
von 35668
yugoslavia 35667
fishing 35666
قلق 35665
innov 35664
photo 35663
##osis 35662
ويج 35661
##وايل 35660
وضعت 35659
##hran 35658
##oir 35657
pump 35656
##اتل 35655
الخطا 35654
##هادات 35653
discussions 35652
رياض 35651
استح 35650
نقد 35649
osc 35648
ry 35647
##itely 35646
نجح 35645
sciences 35644
articles 35643
##bell 35642
##هنة 35641
confront 35640
الاثاث 35639
بسيطة 35638
##اضرة 35637
dict 35636
stim 35635
##uri 35634
الوحيدة 35633
منس 35632
فكل 35631
رون 35630
##70 35629
غاية 35628
178 35627
scores 35626
التحكم 35625
مرف 35624
تتبع 35623
hospitals 35622
##eds 35621
##نج 35620
درهم 35619
##لاس 35618
الطايرات 35617
instance 35616
passes 35615
infantry 35614
وبناء 35613
##aro 35612
stronger 35611
وتقديم 35610
طارق 35609
الاهلية 35608
##وضى 35607
التاثير 35606
##عارض 35605
##bourne 35604
##etr 35603
دخلت 35602
##وضيح 35601
الفض 35600
1941 35599
physic 35598
##equ 35597
الضر 35596
##sky 35595
##tv 35594
combination 35593
1940 35592
1942 35591
اهتم 35590
circumst 35589
سابقة 35588
##وابط 35587
مود 35586
monetary 35585
trend 35584
1955 35583
##جنب 35582
flash 35581
##فاهيم 35580
arena 35579
copies 35578
ثانيا 35577
walked 35576
##هى 35575
انذاك 35574
##usc 35573
sum 35572
##elli 35571
##حلة 35570
defined 35569
chose 35568
التصويت 35567
##ingly 35566
journey 35565
##veland 35564
guide 35563
##اثر 35562
1939 35561
shift 35560
nad 35559
محلية 35558
##lyn 35557
السلطان 35556
rio 35555
cul 35554
الانب 35553
##ints 35552
##ews 35551
وزيرة 35550
وكذا 35549
stable 35548
factors 35547
ongoing 35546
##وزع 35545
##ommun 35544
الصندوق 35543
رغ 35542
##عدل 35541
recip 35540
الترا 35539
والاسلام 35538
رغبة 35537
##nest 35536
raj 35535
الجلد 35534
iowa 35533
yah 35532
selection 35531
##eness 35530
kerry 35529
appeals 35528
ثمانية 35527
العدوان 35526
##حاولة 35525
collected 35524
tamp 35523
##يء 35522
dat 35521
##يرك 35520
ماد 35519
وبدا 35518
##ulty 35517
withdrawal 35516
القضايية 35515
تحرك 35514
تاخذ 35513
تعني 35512
consc 35511
قري 35510
liberation 35509
عكس 35508
cbs 35507
استقبال 35506
الاسيلة 35505
الجبل 35504
للز 35503
laden 35502
entering 35501
تحاول 35500
1953 35499
لضمان 35498
النفسية 35497
chanc 35496
unlik 35495
specifically 35494
rivers 35493
finishing 35492
harvard 35491
equival 35490
اوراق 35489
جولة 35488
##fri 35487
##olved 35486
##agen 35485
الصيني 35484
سمعت 35483
limits 35482
مشرو 35481
يجمع 35480
الحضور 35479
للاس 35478
unusual 35477
الحكومي 35476
##جهيز 35475
##pass 35474
##uma 35473
patient 35472
يوفر 35471
minimum 35470
worried 35469
##يلا 35468
ومنذ 35467
##ريطة 35466
##ality 35465
تمويل 35464
entirely 35463
um 35462
للاتحاد 35461
##mont 35460
sponsored 35459
النصف 35458
تختلف 35457
papers 35456
استغلال 35455
سكانها 35454
##bean 35453
watched 35452
اعطاء 35451
الاداري 35450
##تخب 35449
الحيوانات 35448
##لاه 35447
ech 35446
الادوية 35445
interf 35444
##erto 35443
##45 35442
rangers 35441
اغلاق 35440
##ika 35439
كوك 35438
properties 35437
توف 35436
المبارك 35435
##hs 35434
الباك 35433
briefly 35432
بالرغم 35431
المخدرات 35430
kurd 35429
الشريعة 35428
hut 35427
##enders 35426
forg 35425
tehran 35424
##نام 35423
gallery 35422
##سيما 35421
باخ 35420
عموما 35419
التحت 35418
وعبد 35417
contributions 35416
المطار 35415
lawsuit 35414
##وضة 35413
atmosph 35412
pledged 35411
رعاية 35410
aware 35409
tries 35408
اكل 35407
struggling 35406
##vi 35405
اختلاف 35404
وعرض 35403
succeeded 35402
المعم 35401
حام 35400
الوسطى 35399
تلقى 35398
methods 35397
##هاجرين 35396
strict 35395
خادم 35394
unlikely 35393
الانظمة 35392
hitting 35391
##ايك 35390
يهم 35389
غد 35388
##osa 35387
مجانية 35386
والعشرين 35385
##زون 35384
##كك 35383
تقييم 35382
##رشيح 35381
sovere 35380
hid 35379
globe 35378
انجل 35377
بعث 35376
يتوقع 35375
##خبة 35374
وعلي 35373
خطيرة 35372
بالذكر 35371
quarterback 35370
مشاهد 35369
qualified 35368
drove 35367
impossible 35366
بمحافظة 35365
cleveland 35364
testim 35363
حلف 35362
يشمل 35361
الكهربايية 35360
السيسي 35359
documentary 35358
معروف 35357
مراقبة 35356
meg 35355
socialist 35354
bombs 35353
nag 35352
##icate 35351
##ديان 35350
capture 35349
كور 35348
athletic 35347
الازهر 35346
##uate 35345
هند 35344
penins 35343
sty 35342
##alo 35341
successfully 35340
recovered 35339
الكام 35338
mouth 35337
shock 35336
magic 35335
نوم 35334
camera 35333
الاجانب 35332
script 35331
الجميلة 35330
بكم 35329
dol 35328
##نياهو 35327
##kees 35326
مسابقة 35325
فرح 35324
rar 35323
expects 35322
المعركة 35321
شا 35320
كلينتون 35319
##ارضة 35318
اطلقت 35317
##break 35316
اختبار 35315
finds 35314
ride 35313
norweg 35312
##غيرات 35311
##يرون 35310
المولف 35309
investments 35308
الحرمين 35307
pas 35306
التكنولوجيا 35305
باحد 35304
##rett 35303
pitts 35302
وظيفة 35301
تعرضت 35300
##برية 35299
fixed 35298
المصرى 35297
ميشال 35296
##aken 35295
الجميل 35294
residence 35293
جعفر 35292
سحب 35291
##the 35290
qualifying 35289
لعمل 35288
communication 35287
payments 35286
##heim 35285
cod 35284
الجنرال 35283
##ضافة 35282
اهالي 35281
fewer 35280
##ديال 35279
discovery 35278
advice 35277
##حك 35276
يكفي 35275
tenness 35274
ولان 35273
1943 35272
benchmark 35271
carbon 35270
##يور 35269
hasn 35268
starring 35267
worker 35266
انصار 35265
اوليك 35264
ahmad 35263
الصعب 35262
casualties 35261
recession 35260
حبيب 35259
christopher 35258
formally 35257
##بعث 35256
يعرض 35255
تحالف 35254
الخارجي 35253
fundamental 35252
بالمع 35251
monthly 35250
الشامل 35249
occupation 35248
استقرار 35247
veget 35246
rounds 35245
episodes 35244
المنتج 35243
cambod 35242
donald 35241
renamed 35240
الشروط 35239
exped 35238
##باين 35237
##ضاة 35236
##acco 35235
consol 35234
gray 35233
عمره 35232
netany 35231
1000 35230
واصبح 35229
quant 35228
انتخاب 35227
يرغب 35226
nurs 35225
meter 35224
موضع 35223
مرح 35222
austin 35221
ye 35220
الثامن 35219
اللحظة 35218
مبنى 35217
الوجود 35216
regularly 35215
netanyahu 35214
##سبوك 35213
##ضال 35212
الانشطة 35211
الثق 35210
اصلا 35209
العنوان 35208
##منت 35207
الصادرة 35206
وتط 35205
provision 35204
خطط 35203
##raf 35202
وقل 35201
##وظ 35200
##كنة 35199
crossing 35198
اوت 35197
slam 35196
بدعم 35195
##واصلة 35194
concrete 35193
اخري 35192
kam 35191
##asty 35190
discip 35189
landing 35188
occas 35187
المجتمعات 35186
##هوة 35185
capable 35184
versions 35183
يشهد 35182
##عودية 35181
eval 35180
تلفزيون 35179
catal 35178
ابوظبي 35177
##ocol 35176
matth 35175
##ares 35174
اواخر 35173
قوانين 35172
imperial 35171
unch 35170
بدور 35169
kuwait 35168
تضع 35167
vlad 35166
warner 35165
السابعة 35164
شعبية 35163
السلع 35162
familiar 35161
بزيارة 35160
الشرقي 35159
الية 35158
للمت 35157
##acked 35156
##oln 35155
endors 35154
##illery 35153
الاطل 35152
الفية 35151
outstanding 35150
invent 35149
##rane 35148
للبن 35147
الممثل 35146
sie 35145
يتجاوز 35144
النسخة 35143
بدل 35142
##iques 35141
##روية 35140
سمير 35139
lect 35138
طايرات 35137
tennessee 35136
فواد 35135
bases 35134
ايجابية 35133
inches 35132
torn 35131
merger 35130
يوثر 35129
الاقليمي 35128
collaps 35127
الانجليزي 35126
الاعتماد 35125
bigger 35124
applications 35123
reun 35122
وطالب 35121
ترم 35120
خز 35119
فاط 35118
الخطوط 35117
انهاء 35116
worry 35115
السج 35114
subsequent 35113
بارت 35112
القوم 35111
مجموعات 35110
اسواق 35109
arsen 35108
##vak 35107
الانتهاء 35106
##جت 35105
venezuela 35104
بلدان 35103
اتهم 35102
العراقيين 35101
السلوك 35100
##صا 35099
المواقف 35098
يكتب 35097
سيدي 35096
mitch 35095
waste 35094
##صت 35093
المسيحية 35092
تسلم 35091
anticip 35090
denmark 35089
devices 35088
##net 35087
##ظات 35086
cu 35085
yang 35084
الزعيم 35083
لاخ 35082
طبيعية 35081
publishing 35080
الوسايل 35079
colonial 35078
بطاقة 35077
##oney 35076
apprec 35075
coastal 35074
repair 35073
participants 35072
والذين 35071
محاولات 35070
yankees 35069
نقوم 35068
والثقاف 35067
provinces 35066
wer 35065
الليبي 35064
##ثق 35063
رصد 35062
##خصة 35061
ورفض 35060
devast 35059
pear 35058
##يهما 35057
suggests 35056
البخاري 35055
pharm 35054
المور 35053
متك 35052
تلت 35051
phill 35050
##inity 35049
يريدون 35048
##tsin 35047
يعطي 35046
الاشهر 35045
##الته 35044
significantly 35043
bombings 35042
unions 35041
philippine 35040
oppos 35039
##بعاد 35038
مستخدم 35037
انتق 35036
##umber 35035
##44 35034
false 35033
##77 35032
سعادة 35031
جملة 35030
السريع 35029
sick 35028
الند 35027
مراجعة 35026
failing 35025
##لط 35024
زاد 35023
اصوات 35022
الجماعات 35021
tamil 35020
jak 35019
وفا 35018
actual 35017
yeltsin 35016
الدوحة 35015
مقابلة 35014
الاسنان 35013
هات 35012
##cia 35011
discussion 35010
cape 35009
musc 35008
ذا 35007
sees 35006
anthony 35005
النزاع 35004
دوما 35003
الاخلاق 35002
##عوا 35001
##حان 35000
التنسيق 34999
protected 34998
##نتها 34997
##وسوف 34996
المجموعات 34995
##كاب 34994
الماضى 34993
##كتابة 34992
اللجوء 34991
welcome 34990
tail 34989
الاعتراف 34988
الاصوات 34987
منص 34986
ازاء 34985
##mate 34984
##df 34983
barri 34982
kashmir 34981
الشيطان 34980
fiction 34979
ومس 34978
ربط 34977
الشهداء 34976
fruit 34975
tig 34974
##rest 34973
##tering 34972
التحتية 34971
tensions 34970
colleagues 34969
##no 34968
شينخوا 34967
dynam 34966
accompanied 34965
##vent 34964
ولفت 34963
واز 34962
انظمة 34961
والبح 34960
##قها 34959
مدارس 34958
الدراسي 34957
##wich 34956
##away 34955
الجيل 34954
hunt 34953
تكوين 34952
gates 34951
الصيد 34950
arthur 34949
شرط 34948
nat 34947
##uh 34946
الدستورية 34945
الاستخبارات 34944
fighter 34943
اوضاع 34942
ادنى 34941
harris 34940
architecture 34939
انظر 34938
fallen 34937
moderate 34936
talent 34935
chel 34934
carib 34933
##كسر 34932
dole 34931
تهديد 34930
inquir 34929
تاس 34928
بوضع 34927
tobacco 34926
agreements 34925
الوعي 34924
##bro 34923
بمشاركة 34922
managing 34921
##eto 34920
raw 34919
الجغ 34918
##ارين 34917
portugues 34916
diamond 34915
compreh 34914
indiana 34913
cancel 34912
1950s 34911
vocal 34910
serbian 34909
underst 34908
البشرة 34907
دونالد 34906
للمد 34905
distributed 34904
##عدد 34903
واخيرا 34902
outr 34901
helicopter 34900
الذكية 34899
##oard 34898
threw 34897
والتعاون 34896
outl 34895
المجاورة 34894
va 34893
gonz 34892
الشهير 34891
sid 34890
المحافظات 34889
بمست 34888
##inating 34887
الجهاد 34886
اشد 34885
الشيعة 34884
##وسسة 34883
قضاء 34882
heading 34881
syrian 34880
ski 34879
obst 34878
coffee 34877
المواضيع 34876
##gb 34875
effectively 34874
ballot 34873
entitled 34872
التخلص 34871
الملاب 34870
بجروح 34869
astron 34868
الليلة 34867
هج 34866
سيناء 34865
الروية 34864
##يبه 34863
مطعم 34862
نظيره 34861
اجت 34860
tropical 34859
التطور 34858
##whel 34857
##ports 34856
economist 34855
التمويل 34854
##جلات 34853
داود 34852
containing 34851
حرف 34850
مربع 34849
##lar 34848
المتح 34847
##33 34846
لعل 34845
لتكون 34844
الكا 34843
يترك 34842
اسراييلية 34841
maryland 34840
##tha 34839
القتل 34838
kah 34837
المفا 34836
exceed 34835
بحر 34834
cemet 34833
ark 34832
earthquake 34831
بتش 34830
##وولة 34829
القنوات 34828
cemetery 34827
يدرك 34826
الاستر 34825
ضحايا 34824
emerging 34823
sleep 34822
employed 34821
##عها 34820
للض 34819
amendment 34818
reign 34817
desire 34816
الامكان 34815
فتاة 34814
adults 34813
صعوبة 34812
lor 34811
التهديد 34810
gary 34809
##keeper 34808
##فاقات 34807
oklah 34806
التصميم 34805
notice 34804
المنازل 34803
traders 34802
ethiop 34801
العاش 34800
مدر 34799
المحادثات 34798
الايطالية 34797
الاسراييليين 34796
##ommunic 34795
##واطنين 34794
الحبيب 34793
تعا 34792
##يطة 34791
lane 34790
اردوغان 34789
norwegian 34788
##الها 34787
للوصول 34786
التخطيط 34785
reporting 34784
linc 34783
folk 34782
appropriate 34781
lift 34780
##كيك 34779
##sea 34778
mans 34777
واجه 34776
lav 34775
##شستر 34774
عنا 34773
بقدر 34772
gamb 34771
البتر 34770
israelis 34769
يدي 34768
ابلغ 34767
والتش 34766
ادخل 34765
باول 34764
اخرون 34763
##osevic 34762
واقت 34761
لمس 34760
handle 34759
extension 34758
adviser 34757
طالبان 34756
والتق 34755
هامش 34754
##rit 34753
##سيط 34752
العيش 34751
##ses 34750
##قالة 34749
divor 34748
accur 34747
##فرت 34746
اعمار 34745
brid 34744
المهنية 34743
القتال 34742
jane 34741
تردد 34740
##cont 34739
restrictions 34738
##ture 34737
الياس 34736
لار 34735
الاستثمارات 34734
diplomats 34733
hors 34732
مقدمة 34731
مور 34730
18th 34729
##lan 34728
deployed 34727
طبيعي 34726
اسلامية 34725
shall 34724
prest 34723
امراض 34722
##سمى 34721
locations 34720
المصن 34719
worlds 34718
engineer 34717
1951 34716
converted 34715
landsc 34714
typical 34713
استراليا 34712
stewart 34711
controls 34710
footballer 34709
cia 34708
walking 34707
brigade 34706
فورا 34705
ترح 34704
milosevic 34703
dramatic 34702
racial 34701
يختلف 34700
الامتح 34699
للمش 34698
##point 34697
missouri 34696
الاولي 34695
##arta 34694
sang 34693
مند 34692
shad 34691
##صين 34690
orle 34689
missiles 34688
اليمين 34687
phoen 34686
احتياجات 34685
يصدر 34684
شديدة 34683
excess 34682
oklahoma 34681
للشعب 34680
تاريخية 34679
175 34678
المعنى 34677
resolve 34676
laur 34675
jets 34674
وتعالى 34673
##iah 34672
governing 34671
ivan 34670
اتم 34669
والتم 34668
fier 34667
##ولون 34666
imports 34665
الاسماء 34664
روساء 34663
dinner 34662
##تة 34661
اشرف 34660
سهل 34659
overwhel 34658
intention 34657
delayed 34656
الخوف 34655
portuguese 34654
مستح 34653
لاغ 34652
المعهد 34651
myself 34650
tiny 34649
peninsula 34648
استراتيج 34647
boeing 34646
وغيرهم 34645
توثر 34644
nelson 34643
المقدسة 34642
##ظيمة 34641
فنحن 34640
healthy 34639
regarded 34638
الشك 34637
stepped 34636
resume 34635
gran 34634
##لندا 34633
فكيف 34632
explain 34631
admir 34630
essential 34629
ont 34628
نتنياهو 34627
كرم 34626
##نتي 34625
semif 34624
جول 34623
reduction 34622
سهم 34621
churches 34620
عاص 34619
##الون 34618
الاولية 34617
singh 34616
قوم 34615
lunch 34614
جهته 34613
شانه 34612
opposite 34611
مستشار 34610
futures 34609
تشت 34608
athens 34607
##واي 34606
للر 34605
preparing 34604
وحول 34603
العبد 34602
وتخ 34601
10th 34600
grab 34599
targeted 34598
الميز 34597
##قش 34596
يمتلك 34595
باستمرار 34594
metropolitan 34593
اسرع 34592
المرور 34591
##dd 34590
راش 34589
الجوي 34588
##هدية 34587
##sters 34586
حا 34585
الاوراق 34584
resignation 34583
##look 34582
##imore 34581
pione 34580
gam 34579
sustain 34578
الموصل 34577
participation 34576
البيع 34575
##قراطية 34574
فول 34573
existence 34572
خطوط 34571
عدا 34570
تبر 34569
##uz 34568
unity 34567
##ياف 34566
sharing 34565
##ستير 34564
brew 34563
denver 34562
patrol 34561
لمست 34560
gene 34559
##ياح 34558
dre 34557
يهدف 34556
باله 34555
vel 34554
founding 34553
بغير 34552
سياسات 34551
hezb 34550
مرس 34549
فين 34548
التوتر 34547
temperature 34546
الجانبين 34545
فريقه 34544
ceo 34543
barr 34542
واخذ 34541
welcom 34540
تعلن 34539
البور 34538
easier 34537
الملابس 34536
enth 34535
occur 34534
##exp 34533
artillery 34532
الحجم 34531
orleans 34530
استمرت 34529
##يزيا 34528
testimony 34527
controversy 34526
reserves 34525
insist 34524
##ـن 34523
phen 34522
hugh 34521
والسل 34520
ملم 34519
رضا 34518
السويد 34517
installed 34516
##ager 34515
pushing 34514
prepare 34513
##طنا 34512
كيلو 34511
لتنفيذ 34510
الفلس 34509
##itable 34508
##place 34507
moore 34506
ناي 34505
apparent 34504
الخيار 34503
النقاط 34502
تيم 34501
##ادها 34500
ملابس 34499
dee 34498
drawing 34497
substit 34496
شير 34495
##ياسي 34494
حافظ 34493
نكون 34492
identify 34491
دام 34490
weigh 34489
##ربون 34488
عزل 34487
uc 34486
##ml 34485
neut 34484
nut 34483
underground 34482
الدفع 34481
##box 34480
سجن 34479
الدايرة 34478
discrim 34477
knee 34476
striker 34475
##شفت 34474
القذا 34473
##iri 34472
partly 34471
ذكره 34470
##vo 34469
الشعور 34468
علامة 34467
dougl 34466
pod 34465
##ربا 34464
الانكليز 34463
vital 34462
شف 34461
scheme 34460
##regon 34459
الربيع 34458
##oning 34457
##encing 34456
hell 34455
ri 34454
بدوره 34453
illness 34452
##ads 34451
قنوات 34450
dealing 34449
خاض 34448
مرتين 34447
breath 34446
ليع 34445
circumstances 34444
صنعاء 34443
التحديات 34442
hond 34441
separat 34440
المستمر 34439
وليست 34438
هون 34437
زيارته 34436
ناق 34435
##طلح 34434
weapon 34433
الملت 34432
اسفل 34431
liv 34430
nobody 34429
promise 34428
اميركي 34427
meat 34426
##ete 34425
deadly 34424
hip 34423
prelim 34422
بالتن 34421
##طنبول 34420
بجامعة 34419
الاسبانية 34418
remote 34417
equity 34416
الحجر 34415
##برت 34414
virtually 34413
ردا 34412
قبيل 34411
المعروفة 34410
اجواء 34409
serge 34408
clashes 34407
vig 34406
يشار 34405
##play 34404
ورقة 34403
##isan 34402
يوف 34401
البقاء 34400
clay 34399
والرياض 34398
مقعد 34397
pittsburgh 34396
carrier 34395
##oline 34394
runner 34393
notably 34392
equivalent 34391
##imir 34390
ساعد 34389
##awi 34388
##بطولة 34387
##antic 34386
boom 34385
##ناقشة 34384
##ياسة 34383
liquid 34382
##بور 34381
##caa 34380
behalf 34379
##die 34378
ليلا 34377
يتمتع 34376
تستمر 34375
علمية 34374
واعل 34373
والاقتصادية 34372
hamilton 34371
normally 34370
squadron 34369
##90 34368
manufacturers 34367
بصفة 34366
الاجم 34365
##طيات 34364
tested 34363
##ules 34362
##ويين 34361
شقق 34360
الشوارع 34359
pregn 34358
##ماذج 34357
stream 34356
romania 34355
tribun 34354
السوف 34353
##قوب 34352
المطر 34351
visits 34350
jenn 34349
shareholders 34348
##omin 34347
العظم 34346
المشرو 34345
##رنسا 34344
masters 34343
هشام 34342
والمل 34341
##صفح 34340
##وقعة 34339
والجم 34338
kelly 34337
zero 34336
actors 34335
كتبت 34334
التقى 34333
##igen 34332
orchestra 34331
المرضى 34330
thick 34329
centuries 34328
chip 34327
hud 34326
aboard 34325
happens 34324
مليارات 34323
pages 34322
forb 34321
associate 34320
##oured 34319
اقر 34318
وبذلك 34317
##zer 34316
gop 34315
covering 34314
sox 34313
por 34312
تمكنت 34311
للمح 34310
furn 34309
##fast 34308
زوجة 34307
##قوا 34306
جوجل 34305
atom 34304
انفجار 34303
lincoln 34302
alger 34301
معدات 34300
roger 34299
##ابير 34298
cord 34297
تقدير 34296
##illas 34295
التونسية 34294
elig 34293
مواصلة 34292
##قان 34291
fm 34290
lyr 34289
oregon 34288
usual 34287
المهدي 34286
وقتل 34285
##وووو 34284
الملعب 34283
##odox 34282
extend 34281
##راعات 34280
adapt 34279
لوحة 34278
وهما 34277
##وكس 34276
deadline 34275
inher 34274
المثل 34273
entrance 34272
chapter 34271
العش 34270
##وطة 34269
##فيفة 34268
1936 34267
الاستخدام 34266
questioned 34265
##eding 34264
motiv 34263
butter 34262
صحافي 34261
angry 34260
لايحة 34259
بضرورة 34258
demanding 34257
الخلايا 34256
حسابات 34255
والاب 34254
وتعتبر 34253
barack 34252
وسن 34251
قس 34250
للايجار 34249
pleas 34248
wu 34247
##لاميذ 34246
سياسيا 34245
الزمان 34244
##ويف 34243
joy 34242
abdul 34241
##000 34240
claiming 34239
economics 34238
knock 34237
trillion 34236
conven 34235
شانها 34234
تدور 34233
##لاين 34232
alcohol 34231
revolutionary 34230
universities 34229
##يقية 34228
قبر 34227
studios 34226
الواحدة 34225
##ودان 34224
thompson 34223
صفقة 34222
lith 34221
اجتماعات 34220
rook 34219
انطلاق 34218
reinfor 34217
مصير 34216
##يشيات 34215
walter 34214
freder 34213
##فاح 34212
##اردن 34211
##orate 34210
##iveness 34209
الناحية 34208
competing 34207
##وفية 34206
hezbollah 34205
اللقب 34204
لاسباب 34203
baltimore 34202
cuban 34201
cher 34200
ni 34199
وحدات 34198
bankruptcy 34197
بعده 34196
##ommod 34195
تفعيل 34194
accus 34193
##car 34192
حذ 34191
الالاف 34190
##dr 34189
stanley 34188
نواب 34187
denn 34186
##part 34185
بزيادة 34184
اخراج 34183
اسيلة 34182
الهم 34181
humans 34180
##هدت 34179
وحل 34178
مميزة 34177
awa 34176
الاميركيين 34175
القطري 34174
phoenix 34173
##ظاهرة 34172
المناخ 34171
backing 34170
requirements 34169
owns 34168
##بوط 34167
علوم 34166
oxford 34165
gathering 34164
معي 34163
##ـا 34162
الليبية 34161
موافقة 34160
absence 34159
chancell 34158
##رحى 34157
besides 34156
liverpool 34155
narr 34154
ورس 34153
risks 34152
##oded 34151
license 34150
substantial 34149
priority 34148
القطاعات 34147
##abled 34146
لمنع 34145
جنيف 34144
berg 34143
##حون 34142
##75 34141
feder 34140
عالميا 34139
hiv 34138
##غالي 34137
popularity 34136
وتعزيز 34135
وزيادة 34134
accommod 34133
راح 34132
الموسيقى 34131
legit 34130
فاع 34129
##icking 34128
مستمرة 34127
##icut 34126
حكوم 34125
عبيد 34124
##pe 34123
التطورات 34122
زار 34121
gill 34120
##life 34119
وتحدث 34118
##ternal 34117
نوعية 34116
الهي 34115
depth 34114
تواجد 34113
كونه 34112
##yer 34111
tiger 34110
بيوت 34109
الرسايل 34108
a7 34107
المحر 34106
triple 34105
اتصالات 34104
سبا 34103
soil 34102
الصرف 34101
charter 34100
defender 34099
مناقشة 34098
##طعمة 34097
##abe 34096
accel 34095
tourist 34094
##طيل 34093
sensitive 34092
hosts 34091
صحية 34090
بنحو 34089
والتص 34088
وفيما 34087
interim 34086
sail 34085
prompted 34084
##fa 34083
للاد 34082
تتميز 34081
##دوز 34080
الهول 34079
##باس 34078
ncaa 34077
الاهم 34076
interact 34075
cargo 34074
وتقدم 34073
الربع 34072
المنورة 34071
ارهابية 34070
مسافة 34069
##vis 34068
الدايم 34067
اساسية 34066
abortion 34065
لست 34064
امريكية 34063
دايم 34062
ale 34061
باتت 34060
وبما 34059
فارس 34058
##rys 34057
ساع 34056
مقاومة 34055
##yth 34054
caribbean 34053
managers 34052
##iments 34051
##قبة 34050
يعلن 34049
والاحت 34048
##وعات 34047
القيامة 34046
صديق 34045
صعبة 34044
وثيقة 34043
walker 34042
يحدد 34041
steam 34040
نك 34039
robinson 34038
تشعر 34037
allied 34036
lod 34035
improvement 34034
كندا 34033
روما 34032
الشخصي 34031
تجارة 34030
bund 34029
diet 34028
الطويل 34027
viewers 34026
مغل 34025
1920 34024
##فرد 34023
telecommunic 34022
barcel 34021
aggressive 34020
exclud 34019
nepal 34018
streak 34017
كه 34016
محيط 34015
الاحكام 34014
وها 34013
jason 34012
dates 34011
philip 34010
##iliation 34009
##ربه 34008
classical 34007
جنود 34006
##kar 34005
والعراق 34004
attending 34003
delta 34002
lands 34001
gear 34000
##فرقة 33999
الطيب 33998
##asser 33997
abdullah 33996
colonel 33995
listen 33994
estimate 33993
##esis 33992
rodrig 33991
##لاعب 33990
راسه 33989
الكوم 33988
طالما 33987
dish 33986
الهجمات 33985
programming 33984
departure 33983
البرازيل 33982
الفاعل 33981
##iders 33980
تدعم 33979
creative 33978
يقولون 33977
highlight 33976
pure 33975
حري 33974
للاخ 33973
فاست 33972
verd 33971
##avez 33970
mud 33969
commonwe 33968
##lying 33967
105 33966
metres 33965
plastic 33964
complained 33963
##wal 33962
conservation 33961
فجر 33960
##هلة 33959
تنظم 33958
hug 33957
سيتي 33956
rated 33955
##دل 33954
والموسسات 33953
##otyp 33952
وصح 33951
الاحتفال 33950
##idelines 33949
التحقيقات 33948
المقدس 33947
fee 33946
##هية 33945
فيل 33944
wings 33943
##agre 33942
##pay 33941
تركيب 33940
##وفيق 33939
للعام 33938
لتص 33937
diagn 33936
عجز 33935
hub 33934
درس 33933
##رجي 33932
##ماج 33931
الفقه 33930
بالطبع 33929
فنية 33928
وكم 33927
والمس 33926
mississ 33925
##uations 33924
aired 33923
intense 33922
##طول 33921
commonwealth 33920
1938 33919
التخصص 33918
vacc 33917
الحكومات 33916
اصدق 33915
hispan 33914
broadc 33913
##asp 33912
chavez 33911
لوزارة 33910
annually 33909
##ايش 33908
##وبين 33907
##bul 33906
3rd 33905
maur 33904
ank 33903
##مات 33902
##48 33901
لتطوير 33900
jesus 33899
investigating 33898
حديثة 33897
##رمان 33896
##ثار 33895
##onsin 33894
وجميع 33893
manner 33892
obviously 33891
الحشرات 33890
الهر 33889
لمعرفة 33888
##رنا 33887
المباريات 33886
التجمع 33885
الوحدات 33884
##نافس 33883
##مني 33882
##anna 33881
##هان 33880
والبي 33879
دولارا 33878
مكتبة 33877
##urray 33876
gren 33875
literary 33874
وافق 33873
هنالك 33872
hungary 33871
شامل 33870
##what 33869
encourage 33868
wisc 33867
التجم 33866
deeply 33865
##لالات 33864
observers 33863
##ski 33862
preliminary 33861
andy 33860
الذاتية 33859
recommended 33858
cot 33857
##iller 33856
تدفع 33855
الرعاية 33854
##apolis 33853
##ربط 33852
عبدالرح 33851
carp 33850
هيل 33849
philosophy 33848
speculation 33847
رجلا 33846
ولت 33845
myst 33844
##یة 33843
الانسحاب 33842
faculty 33841
الوظايف 33840
jumped 33839
nur 33838
السياسات 33837
ronald 33836
##ls 33835
##صية 33834
مستمر 33833
كسارة 33832
predict 33831
المختصة 33830
##aux 33829
مواليد 33828
kentucky 33827
delegates 33826
##state 33825
اعرب 33824
dave 33823
neighbour 33822
improving 33821
الماس 33820
الحلول 33819
ادخال 33818
douglas 33817
طويلا 33816
كاتب 33815
الارش 33814
arabic 33813
صفحات 33812
shield 33811
assert 33810
compensation 33809
والتع 33808
عضوا 33807
##pc 33806
somewhat 33805
clock 33804
احدهم 33803
##صورة 33802
alert 33801
encouraged 33800
connecticut 33799
قاعة 33798
monitoring 33797
custody 33796
melbourne 33795
franchise 33794
rall 33793
سد 33792
stamp 33791
مريم 33790
barcelona 33789
تتجاوز 33788
1918 33787
montreal 33786
هار 33785
البو 33784
تهم 33783
المنظ 33782
ownership 33781
##مييز 33780
opponent 33779
inning 33778
duties 33777
للتنمية 33776
المباشرة 33775
هر 33774
bapt 33773
wisconsin 33772
الرقابة 33771
المرتبة 33770
الهوية 33769
هجمات 33768
##ثلي 33767
ارتفع 33766
سباق 33765
الاتفاقية 33764
##eded 33763
declaration 33762
تقدر 33761
المراه 33760
portra 33759
replacement 33758
الجرايم 33757
##سيل 33756
vowed 33755
##mouth 33754
ورق 33753
##uez 33752
بالات 33751
##ارتها 33750
ختام 33749
المستح 33748
overt 33747
holl 33746
حسبما 33745
desper 33744
employee 33743
ontario 33742
المومن 33741
situated 33740
stages 33739
##يفي 33738
بنفسه 33737
صنا 33736
المخابرات 33735
spiritual 33734
##igar 33733
وتحد 33732
تخصص 33731
202 33730
لحزب 33729
حينها 33728
متف 33727
##اتذة 33726
coaches 33725
جهد 33724
مجا 33723
shore 33722
sara 33721
يمارس 33720
singing 33719
##oria 33718
calm 33717
##enh 33716
traveling 33715
##estyle 33714
##وزي 33713
fees 33712
##حى 33711
حن 33710
وتكون 33709
نسم 33708
faster 33707
##agers 33706
kan 33705
veterans 33704
شاملة 33703
الشرك 33702
##جو 33701
سانت 33700
جلال 33699
##بدء 33698
واضحا 33697
consolid 33696
الغد 33695
يرفض 33694
بالانت 33693
القليلة 33692
extreme 33691
##باكات 33690
ليرة 33689
ابتداء 33688
الانجاز 33687
الناتج 33686
اكتشف 33685
سراح 33684
قرارا 33683
accounting 33682
interviews 33681
##ippi 33680
بقوله 33679
visual 33678
الاخوة 33677
err 33676
خض 33675
طرد 33674
flew 33673
##je 33672
ترجمة 33671
##اييات 33670
surprised 33669
##aco 33668
##الغة 33667
cycle 33666
الاحياء 33665
بحلول 33664
boats 33663
battalion 33662
جابر 33661
machines 33660
لقي 33659
hydro 33658
صم 33657
trucks 33656
bog 33655
وطني 33654
##بز 33653
##عاف 33652
blocked 33651
dna 33650
سويس 33649
النيابية 33648
##رضى 33647
بطر 33646
وطلب 33645
استخدامها 33644
##burn 33643
rapidly 33642
counties 33641
القرى 33640
aqu 33639
successor 33638
للقوات 33637
vik 33636
##دران 33635
##باعة 33634
##ista 33633
##قون 33632
alab 33631
بتع 33630
الظاهرة 33629
density 33628
nazi 33627
##انك 33626
لاسراييل 33625
النفسي 33624
planet 33623
smooth 33622
suddenly 33621
unfortun 33620
##وتا 33619
##ابعت 33618
ally 33617
مجمع 33616
تصنيف 33615
trophy 33614
adjust 33613
##beat 33612
الملي 33611
turnover 33610
الميلاد 33609
neur 33608
insurgents 33607
##etta 33606
danish 33605
circle 33604
المسلمون 33603
warn 33602
##واحي 33601
الدخل 33600
upset 33599
وتحت 33598
الفتاة 33597
قادر 33596
الكبار 33595
landed 33594
gym 33593
##بقى 33592
anch 33591
wy 33590
اسامة 33589
القاري 33588
bart 33587
##maker 33586
editorial 33585
سيطرة 33584
##rell 33583
اقرار 33582
midfielder 33581
تعداد 33580
فلسطيني 33579
تلم 33578
المراكز 33577
intellect 33576
##met 33575
citizen 33574
ووا 33573
##بعوث 33572
##تمرات 33571
##xi 33570
doors 33569
اساسي 33568
الهواتف 33567
دراسات 33566
##ded 33565
عت 33564
jar 33563
dies 33562
educated 33561
seoul 33560
##yang 33559
حامل 33558
والمسا 33557
ages 33556
مثلما 33555
restore 33554
فانت 33553
المعل 33552
العوامل 33551
peters 33550
الذاتي 33549
##ازة 33548
طبية 33547
اساسا 33546
اعظم 33545
sharply 33544
يذهب 33543
finland 33542
لاش 33541
وعليه 33540
hs 33539
تري 33538
##لاغ 33537
برميل 33536
الجه 33535
##ولوجي 33534
تنتهي 33533
التصوير 33532
للاش 33531
##يسر 33530
المخرج 33529
خان 33528
##جازة 33527
تعم 33526
louisiana 33525
bruce 33524
مراسل 33523
chancellor 33522
ترغب 33521
parall 33520
جماهير 33519
##jev 33518
##ographic 33517
##يراد 33516
fax 33515
neck 33514
informed 33513
السماح 33512
لاحظ 33511
الاستراتيج 33510
##لقي 33509
##سيك 33508
ranging 33507
comic 33506
رفيق 33505
##طرابات 33504
##سو 33503
الكيميا 33502
شمس 33501
هاش 33500
الانتقال 33499
احلام 33498
معسكر 33497
استعادة 33496
surrounded 33495
militia 33494
رمز 33493
outcome 33492
##etime 33491
tanks 33490
ارى 33489
orthodox 33488
عراق 33487
للبر 33486
engines 33485
fate 33484
ثبت 33483
cypr 33482
relative 33481
القصر 33480
المتظاهر 33479
meets 33478
البنية 33477
الغرف 33476
يرج 33475
tickets 33474
crush 33473
بالقاهرة 33472
moroc 33471
cycl 33470
جير 33469
بوتين 33468
تمتلك 33467
complaints 33466
وتحقيق 33465
لاخت 33464
السوداء 33463
التقارير 33462
haz 33461
pig 33460
العروض 33459
الحمراء 33458
unclear 33457
helps 33456
flowers 33455
ذكرى 33454
العلامة 33453
لنقل 33452
والتج 33451
##تمكن 33450
مخالف 33449
##under 33448
##anny 33447
##ناد 33446
ويا 33445
inner 33444
##apy 33443
##جيب 33442
territories 33441
ment 33440
مارك 33439
preced 33438
عامين 33437
المذكورة 33436
##rence 33435
الشهيرة 33434
##adi 33433
neighbors 33432
pel 33431
الناخب 33430
arc 33429
##رارا 33428
medals 33427
يعبر 33426
residential 33425
routes 33424
jiang 33423
فهناك 33422
وتقول 33421
مستقلة 33420
للحزب 33419
beaten 33418
فص 33417
##ركم 33416
مذكرة 33415
tigers 33414
والنا 33413
comprehensive 33412
شاشة 33411
##bec 33410
بالمدينة 33409
فوايد 33408
ونشر 33407
لتع 33406
##نيها 33405
##اديق 33404
talked 33403
ranks 33402
##ishing 33401
##كاس 33400
##ologists 33399
handling 33398
noting 33397
مشيرة 33396
والامن 33395
زمان 33394
المستوطن 33393
انتقال 33392
اسطنبول 33391
الابح 33390
armen 33389
وقيل 33388
يتكون 33387
ferr 33386
المواجهة 33385
benj 33384
##طين 33383
survivors 33382
restaurants 33381
الشريفين 33380
الاذاعة 33379
فاطمة 33378
غالبية 33377
lig 33376
حيال 33375
##eder 33374
شريك 33373
vulner 33372
supports 33371
واسراييل 33370
مخل 33369
enthus 33368
اصدرت 33367
amate 33366
broadway 33365
الاستع 33364
الخطوات 33363
appointment 33362
الفرص 33361
##ريان 33360
promoting 33359
1937 33358
جمهور 33357
تميز 33356
blues 33355
المالكي 33354
بمش 33353
mississippi 33352
morris 33351
persons 33350
لث 33349
broader 33348
organis 33347
mi 33346
بجميع 33345
arsenal 33344
canal 33343
العادية 33342
تشارك 33341
##utely 33340
تام 33339
بيك 33338
واخر 33337
الواضح 33336
##سس 33335
يطالب 33334
campbell 33333
رحمة 33332
لحم 33331
ranch 33330
indians 33329
##يتا 33328
انسانية 33327
judicial 33326
electronics 33325
##cr 33324
الحروب 33323
دو 33322
التمييز 33321
jess 33320
##attered 33319
##rov 33318
1930 33317
بعين 33316
barrels 33315
اغت 33314
delhi 33313
##ثى 33312
البابا 33311
murray 33310
وحين 33309
unchanged 33308
تستهدف 33307
deport 33306
conte 33305
postp 33304
لاننا 33303
العايلات 33302
halt 33301
##kers 33300
القادة 33299
reducing 33298
courses 33297
##atri 33296
austrian 33295
يشبه 33294
ske 33293
وتك 33292
حسني 33291
##شاريع 33290
##جام 33289
واحمد 33288
principles 33287
اجمع 33286
تجديد 33285
revenues 33284
##illo 33283
condemned 33282
shaped 33281
ot 33280
##iffs 33279
##nie 33278
emotional 33277
ease 33276
طبقا 33275
vert 33274
ratings 33273
الغذاء 33272
structures 33271
واهم 33270
##بيات 33269
اظهرت 33268
bak 33267
كافية 33266
trials 33265
moral 33264
##ريكا 33263
التعرف 33262
مانشستر 33261
##icing 33260
enterprises 33259
examples 33258
firing 33257
blind 33256
##وفرة 33255
الجمال 33254
تقف 33253
savings 33252
princess 33251
ووفقا 33250
##يشة 33249
parks 33248
intercept 33247
greens 33246
##aga 33245
protein 33244
mahm 33243
pilots 33242
pursue 33241
بكين 33240
funeral 33239
حقي 33238
gent 33237
client 33236
twin 33235
معتبرا 33234
diplomat 33233
سريع 33232
لمكافحة 33231
simpson 33230
الضحايا 33229
stal 33228
متح 33227
القطرية 33226
##نس 33225
بوس 33224
عايشة 33223
##ذان 33222
##رتب 33221
نجا 33220
capit 33219
##oleum 33218
hawai 33217
thousand 33216
unh 33215
معدلات 33214
pock 33213
كتلة 33212
imprison 33211
شخصيا 33210
شو 33209
modest 33208
يهود 33207
cyprus 33206
الكويتية 33205
passage 33204
يده 33203
strengthen 33202
##uments 33201
##ussels 33200
##icul 33199
سريعة 33198
playoffs 33197
عشرين 33196
prix 33195
نوعا 33194
فرا 33193
dil 33192
convent 33191
##55 33190
عوامل 33189
commissioned 33188
لبناء 33187
بمح 33186
مترا 33185
traveled 33184
affair 33183
كميات 33182
principle 33181
nomine 33180
الارهابي 33179
arrive 33178
انسحاب 33177
brun 33176
اميركية 33175
##ضيق 33174
فيسبوك 33173
التاسعة 33172
التاريخي 33171
تلعب 33170
تجارية 33169
الارقام 33168
dogs 33167
##شرون 33166
##iciency 33165
جلب 33164
##عبية 33163
##افل 33162
فريد 33161
iraqis 33160
##pro 33159
يومي 33158
للاسف 33157
الجاه 33156
tribunal 33155
ووزير 33154
puerto 33153
[...]
