[CLS]
[PAD]
[SEP]
[UNK]
!
"
#
$
%
&
'
(
)
*
+
,
-
.
/
0
1
2
3
4
5
6
7
8
9
:
;
<
=
>
?
@
A
B
C
D
E
F
G
H
I
J
K
L
M
N
O
P
Q
R
S
T
U
V
W
X
Y
Z
[
\
]
^
_
`
a
b
c
d
e
f
g
h
i
j
k
l
m
n
o
p
q
r
s
t
u
v
w
x
y
z
{
|
}
~
¡
£
§
©
«
¬
®
¯
°
±
²
³
´
µ
·
º
»
½
¿
À
Á
Â
Ä
Å
Æ
Ç
É
Í
Î
Ó
Ö
×
Ø
Ú
Ü
ß
à
á
â
ã
ä
å
æ
ç
è
é
ê
ë
ì
í
î
ï
ð
ñ
ò
ó
ô
õ
ö
÷
ø
ù
ú
û
ü
ý
Ā
ā
ă
ą
ć
Č
č
Đ
đ
ē
ė
ę
ě
ğ
ħ
ī
İ
ı
Ł
ł
ń
ň
ŋ
Ō
ō
ő
œ
ř
Ś
ś
Ş
ş
Š
š
ţ
ū
ů
ų
ź
Ż
ż
Ž
ž
Ə
ƒ
ơ
ư
ǎ
ǐ
ǒ
ș
ț
ɑ
ɒ
ɔ
ə
ɛ
ɡ
ɪ
ʃ
ʊ
ʌ
ʰ
ʲ
ʷ
ʻ
ʼ
ʾ
ʿ
ˈ
ˌ
ː
́
̯
̲
͡
Α
Γ
Δ
Ε
Θ
Λ
Μ
Ξ
Π
Σ
Τ
Φ
Ω
ά
έ
ή
ί
α
β
γ
δ
ε
ζ
η
θ
ι
κ
λ
μ
ν
ξ
ο
π
ρ
ς
σ
τ
υ
φ
χ
ψ
ω
ό
ύ
ϕ
ϵ
А
Б
В
Г
Д
Е
З
И
К
Л
М
Н
О
П
Р
С
Т
У
Ф
Х
Ц
Ч
Ш
Э
Я
а
б
в
г
д
е
ж
з
и
й
к
л
м
н
о
п
р
с
т
у
ф
х
ц
ч
ш
щ
ъ
ы
ь
э
ю
я
ё
і
ї
ј
қ
ҳ
ә
ө
Ա
Հ
Մ
Ս
Վ
ա
բ
գ
դ
ե
զ
թ
ի
լ
կ
հ
ղ
մ
յ
ն
շ
ո
պ
ջ
ռ
ս
վ
տ
ր
ց
ւ
ք
ְ
ִ
ַ
ָ
ֹ
ּ
א
ב
ג
ד
ה
ו
ח
ט
י
כ
ל
ם
מ
ן
נ
ס
ע
פ
צ
ק
ר
ש
ת
،
؛
؟
ء
آ
أ
ؤ
إ
ئ
ا
ب
ة
ت
ث
ج
ح
خ
د
ذ
ر
ز
س
ش
ص
ض
ط
ظ
ع
غ
ـ
ف
ق
ك
ل
م
ن
ه
و
ى
ي
ً
ٌ
ٍ
َ
ُ
ِ
ّ
ْ
ٔ
٠
١
٢
٣
٤
٥
٦
٧
٨
٩
٪
٫
٬
ٰ
پ
چ
ڕ
ژ
ک
گ
ھ
ۀ
ہ
ۆ
ی
ێ
ە
۰
۱
۲
۳
۴
۵
۶
۷
۸
۹
ܝ
ܡ
ܪ
ܲ
ނ
ރ
އ
މ
ަ
ާ
ި
ު
ެ
ް
ं
ः
क
ख
ग
च
ज
ट
ड
त
थ
द
ध
न
प
ब
भ
म
य
र
ल
व
श
ष
स
ह
ा
ि
ी
ु
ू
े
ै
ो
्
।
জ
ত
দ
ন
ব
র
ল
স
া
ি
ে
্
அ
க
ச
ட
ண
த
ந
ன
ப
ம
ய
ர
ற
ல
ள
ழ
வ
ஹ
ா
ி
ு
ே
ை
ோ
்
ం
త
న
ప
మ
ర
వ
ా
ి
ో
్
ಂ
ನ
ಮ
ರ
ವ
ಾ
ಿ
ೋ
್
ം
ക
ച
ത
ദ
ന
പ
മ
യ
ര
വ
ഹ
ാ
ി
ു
ോ
്
්
ා
ි
ก
ง
ท
น
พ
ม
ย
ร
ว
ส
อ
ะ
ั
า
ิ
เ
แ
่
้
ა
ი
ს
Ḥ
ḥ
Ḫ
ḫ
ṇ
Ṣ
ṣ
Ṭ
ṭ
ạ
ả
ầ
ắ
ế
ệ
ị
ồ
ộ
Ἀ
–
—
‖
‘
’
“
”
„
†
•
…
′
″
‹
›
⁄
€
ℏ
ℓ
™
←
→
⇒
∀
∂
∇
∈
∑
−
∗
∘
√
∞
∣
∧
∨
∩
∪
∫
≈
≠
≡
≤
≥
⊆
⊕
⊗
⋅
⋯
─
━
□
◊
◻
♠
♣
♥
♦
♪
♫
⟨
⟩
、
。
《
》
「
」
あ
い
う
か
が
き
こ
し
す
た
っ
で
と
な
に
の
は
ま
も
ら
り
る
れ
を
ん
ア
ィ
イ
オ
キ
ク
シ
ジ
ス
ッ
デ
ト
ド
ニ
ビ
フ
ブ
マ
ラ
リ
ル
レ
ロ
ン
・
ー
一
三
上
下
不
世
东
中
主
之
也
乡
事
二
于
五
京
人
仁
今
代
以
会
你
信
元
先
光
入
八
公
共
兵
其
出
別
利
前
北
區
十
千
南
原
古
史
合
名
命
和
四
国
國
土
地
城
基
場
士
夜
大
天
太
夫
女
如
子
学
守
安
定
家
小
山
島
川
州
市
平
年
建
式
張
後
志
成
我
戦
所
手
政
文
新
方
於
日
明
是
時
曰
書
月
有
本
李
村
来
東
松
林
正
武
民
水
江
治
法
海
漢
為
無
焼
王
生
田
白
百
的
皇
相
石
社
神
空
第
美
義
者
而
臣
自
航
行
術
街
西
要
言
賞
路
通
道
部
都
里
野
镇
長
門
陽
馬
高
고
구
국
기
김
다
대
도
로
부
빈
사
성
수
씨
안
왕
의
이
인
자
정
주
지
하
현
화
후
ﯽ
ﯾ
ﯿ
ﺍ
ﺎ
ﺑ
ﺗ
ﺘ
ﺪ
ﺮ
ﺳ
ﺴ
ﻋ
ﻌ
ﻞ
ﻟ
ﻠ
ﻣ
ﻤ
ﻧ
ﻪ
ﻮ
ﻵ
！
（
）
，
：
？
##خ
##ش
##ا
##ی
##و
##۸
##۶
##۵
##د
##ئ
##a
##n
##j
##b
##i
##م
##ه
##f
##L
##y
##c
##u
##r
##g
##s
##P
##6
##8
##ز
##ب
##ن
##چ
##ر
##ک
##d
##l
##ت
##ل
##ف
##e
##ـ
##س
##k
##1
##5
##0
##o
##ج
##ع
##گ
##F
##D
##m
##t
##p
##h
##z
##v
##ء
##9
##í
##A
##M
##ح
##۱
##ص
##ì
##w
##ق
##ي
##ذ
##I
##N
##î
##া
##স
##ি
##ে
##ল
##ন
##ّ
##ث
##ِ
##ɑ
##ŋ
##ɡ
##Z
##O
##C
##E
##S
##7
##4
##á
##ض
##R
##B
##پ
##x
##а
##м
##і
##н
##۲
##۹
##۷
##é
##T
##ط
##َ
##3
##ً
##ā
##ḫ
##G
##H
##ژ
##е
##к
##ظ
##ة
##2
##у
##ч
##я
##۴
##غ
##े
##त
##ी
##ラ
##ク
##ル
##è
##ě
##š
##X
##ä
##۳
##۰
##ô
##آ
##व
##ा
##स
##ﻟ
##ﺍ
##ُ
##ร
##น
##ิ
##ท
##ว
##ó
##ר
##ע
##ú
##ْ
##ø
##ç
##q
##Q
##ٔ
##ո
##թ
##ե
##լ
##U
##ː
##ˈ
##ü
##أ
##ḥ
##ك
##О
##Ц
##И
##А
##Л
##С
##Т
##Ч
##Е
##К
##Х
##ö
##ð
##ง
##พ
##ั
##ى
##V
##ʷ
##č
##ê
##À
##ֹ
##ה
##ו
##ּ
##ı
##K
##Y
##성
##Я
##Б
##Р
##х
##р
##ə
##ş
##ğ
##и
##л
##й
##з
##J
##ؤ
##W
##ω
##ν
##ς
##д
##ж
##б
##о
##т
##ь
##ы
##٩
##١
##ۀ
##ﺴ
##ц
##ִ
##ד
##ְ
##ן
##à
##ạ
##É
##ą
##כ
##в
##ō
##ã
##с
##ё
##দ
##র
##த
##ா
##ல
##α
##٦
##ū
##ї
##щ
##ि
##ٰ
##û
##る
##ɒ
##ɪ
##ē
##ɛ
##ﻤ
##ﻪ
##ò
##र
##٠
##λ
##τ
##ι
##ަ
##ް
##ǎ
##إ
##٨
##ա
##ն
##ր
##գ
##ի
##տ
##י
##도
##å
##ī
##म
##य
##ज
##न
##ш
##ù
##ग
##ल
##σ
##ε
##ί
##ф
##ρ
##μ
##ά
##ड
##э
##п
##٤
##ă
##ł
##г
##ಾ
##ವ
##ό
##ο
##ි
##ñ
##ﺘ
##ﺪ
##ジ
##レ
##ビ
##ή
##η
##ś
##ל
##ー
##と
##オ
##た
##श
##ன
##ం
##ʃ
##な
##い
##で
##ி
##ர
##க
##կ
##ﻮ
##ﻣ
##ﻞ
##מ
##ύ
##β
##イ
##ٍ
##æ
##ა
##ი
##ܝ
##υ
##κ
##ý
##δ
##٥
##ę
##φ
##â
##ッ
##の
##ъ
##ю
##յ
##ք
##ﯽ
##ź
##ാ
##ރ
##ު
##ා
##ř
##א
##ַ
##צ
##ג
##ʻ
##ž
##정
##자
##부
##ٌ
##ć
##シ
##ィ
##ை
##ப
##ʊ
##ஹ
##ﯿ
##ﺮ
##ﺑ
##भ
##क
##ǒ
##נ
##ס
##ﯾ
##ﺎ
##ﺳ
##ರ
##의
##이
##ח
##ु
##ध
##ս
##մ
##õ
##π
##ह
##द
##º
##դ
##ż
##ʌ
##ೋ
##ో
##మ
##Ə
##ദ
##γ
##ψ
##ं
##ಿ
##ả
##ï
##٧
##வ
##ղ
##ン
##ﻧ
##प
##ു
##ര
##ന
##വ
##ব
##ק
##ש
##ە
##ț
##ů
##ș
##ő
##ہ
##ṣ
##ോ
##ി
##ക
##ϵ
##χ
##ア
##ू
##ɔ
##ロ
##ス
##മ
##ë
##ә
##ј
##ட
##ம
##ே
##ः
##Ω
##ニ
##ۆ
##ւ
##ా
##थ
##έ
##국
##ҳ
##च
##고
##ʿ
##Š
##ﻠ
##す
##త
##ެ
##ư
##빈
##씨
##٢
##ָ
##ם
##ξ
##ర
##현
##М
##В
##ێ
##ṭ
##デ
##ト
##Վ
##Ա
##ந
##٣
##ʰ
##왕
##후
##շ
##զ
##ţ
##ய
##ß
##ो
##đ
##ʲ
##ב
##안
##지
##ะ
##ก
##ส
##Հ
##ブ
##Н
##り
##주
##ん
##う
##ө
##ʼ
##ń
##구
##ट
##ನ
##ಂ
##վ
##հ
##İ
##ழ
##ま
##ண
##қ
##ռ
##Ü
##ு
##ầ
##ब
##า
##ย
##に
##อ
##ม
##ら
##대
##こ
##ோ
##き
##し
##も
##ܲ
##ܪ
##ﻌ
##ާ
##ނ
##Ö
##θ
##պ
##ց
##ﻋ
##ộ
##ǐ
##Ā
##ം
##މ
##っ
##ഹ
##ջ
##ত
##ė
##ள
##բ
##פ
##ồ
##ത
##フ
##Г
##ற
##사
##ṇ
##പ
##Ú
##인
##ს
##か
##れ
##ת
##ơ
##ै
##화
##ų
##수
##ި
##യ
##ச
##Í
##Ç
##Ḫ
##ष
##เ
##ド
##を
##ख
##ζ
##が
##ħ
##ച
##œ
##ệ
##로
##다
##Á
##マ
##އ
##ị
##ℓ
##ڕ
##ప
##ˌ
##김
##하
##ి
##জ
##ט
##న
##ň
##แ
##Ó
##Γ
##Δ
##Ε
##Θ
##Λ
##Μ
##Ξ
##Π
##Σ
##Τ
##기
##µ
##Ş
##Č
##ھ
##ế
##Э
##П
##Ä
##ʾ
##キ
##リ
##Д
##వ
##ܡ
##あ
##Î
##З
##У
##ﺗ
##ﻵ
##Ø
##Ф
##ಮ
##Ḥ
##Ս
##Ž
##は
##Â
##Å
##♪
##ắ
##Α
##Ш
##Φ
##he
the
##ان
##er
##in
##ای
##nd
##at
##ار
##ست
##ed
##ین
##on
##or
##ou
در
##ند
##es
##en
می
به
##ود
##an
##ing
of
##ar
که
to
##is
##it
##رد
and
in
##al
را
th
از
##as
##re
با
##ید
##اد
##ic
##om
این
##ال
##های
##le
بر
##ام
##el
##ور
##ion
##ها
است
بود
##فت
##il
##ون
آن
##ot
##ad
be
##ent
##شت
##اه
##ow
##یر
##st
##ut
هم
##یم
##ly
##et
that
##id
##لی
##ac
##ری
on
was
##ve
یک
##im
##ur
او
شد
is
##gh
he
##اب
it
##وی
##ir
##ay
for
من
##ol
wh
re
you
##se
##ات
##am
کرد
st
##ver
The
##ith
##وان
##ter
##ld
##ct
as
##سی
with
##ro
##می
##ما
##ce
al
##از
##ch
برای
میک
an
##گر
##تی
##تر
ha
##her
خود
##ation
کن
his
##ul
##ول
##رو
at
##اشت
ان
##ess
##اری
##ده
her
رو
##ght
##ri
##را
##یز
خو
##انی
##لا
not
بی
##خت
##od
مو
had
##ould
##op
se
##ain
##اده
دار
##us
##ag
دو
##em
li
##ke
##ill
تا
تو
we
com
##est
##مان
##شد
##ist
fr
con
دی
##th
سر
##um
##نگ
de
ما
##and
##pp
or
by
کار
##یش
sh
##ab
##os
##ers
are
##یا
##ant
##un
##ell
have
ne
me
##اس
ex
him
گفت
##اق
##ایی
this
##ore
##انه
فر
su
شده
from
یا
##که
##گی
داشت
so
do
##ight
##گاه
##ig
##کن
##ity
هر
she
all
pro
دست
##ap
سال
##ard
##art
##یت
##یست
##ort
##out
##ust
lo
##all
they
##ok
ab
sa
##ere
go
ch
##بی
whe
##if
##ate
but
##ich
##اند
wor
اما
##اید
##ear
##ome
##au
##خو
He
##توان
چه
باز
حال
نمی
##کی
گر
میش
sp
مت
were
##ally
my
##ect
##عد
آنها
##له
##نی
##our
##اره
##قی
one
##iv
##rou
##ies
##ak
can
آم
##nt
مح
up
هست
kn
##ast
##در
pr
##دی
which
And
##ive
It
19
##ame
##یده
##ous
##فر
مع
##شان
##رف
##اخت
##ry
##وم
اس
##ong
##ge
In
ام
##ind
##ci
Th
##کر
چیز
##ack
##ie
out
who
میکرد
##بت
شما
بد
##نده
##بر
##رک
داد
##وش
##ment
int
us
پس
ای
would
them
said
همه
le
##ra
روی
##وز
دیگر
##one
##جا
20
there
##ost
man
##عی
##ure
##ther
مرد
نم
pl
وق
about
##ud
##ep
what
##هر
their
میکن
##ine
##یچ
##وری
##qu
en
##own
پیش
پر
مید
ند
##است
##فته
##ber
##ace
قر
کش
##با
نو
##ارد
no
تر
##یل
ده
ال
نظ
been
خی
##ادی
##جه
tim
##ence
##ated
##ia
##ff
کند
##ran
بعد
##ck
##sel
more
##og
اگر
##وت
##mp
خواه
when
مش
##دا
##ههای
بز
un
##شم
##ip
تن
like
##ide
دارد
کرده
##ake
##ond
##ian
میگ
comp
cl
ag
##رگ
مس
##act
اند
##age
##ink
میتوان
میشود
ar
اح
##itt
نام
##نا
if
##هی
##ass
روز
could
pe
کم
##ice
تم
نه
##ven
##اف
##iz
other
##ions
dis
##ery
##hing
##end
باشد
##الی
##جود
##hed
ات
ار
##شی
نا
some
##ound
has
##ru
##مین
##ary
But
into
##pt
##سید
##ose
##چه
بسی
bec
##ورد
time
qu
واق
tw
##cc
۱۹
##ely
مق
your
بودند
##عت
##هم
##دم
any
##reat
##ble
نیست
مد
##able
know
ever
##ical
##per
##ew
باید
look
عم
will
هیچ
St
کل
##ite
##نین
مث
##وند
وی
did
##به
##ause
##so
##self
res
کو
زند
##ople
میکند
ad
##ish
##ره
##av
رفت
##pl
##ount
##هایی
over
##عه
Ch
##ang
##ree
بگ
بین
##سته
So
##ays
##ire
than
Wh
فکر
گذ
خیلی
fir
##fer
زیر
per
##نج
ولی
پای
استف
##ستان
چند
##ile
مج
##اط
cont
see
people
thou
##هاست
##ings
very
تص
مر
پی
۲۰
بل
##کل
##fter
استفاده
##other
##وا
راه
نظر
وقتی
##وس
year
##ach
بیشت
then
##ild
چیزی
##lo
##urn
##ادر
ro
واقع
##ved
##جام
##نان
##nder
دور
وجود
##شن
بار
یکی
part
##ade
only
قرار
##ign
##بین
##ورت
میخو
##نوان
##ult
##ory
نیز
##ress
نق
انگ
##ord
##امی
خان
زی
She
میر
نی
##کار
تح
You
first
just
اج
##ایش
##باره
##زی
##ations
now
##ance
our
##bl
انت
##are
##بود
هستند
##orm
جه
##زار
two
##قه
##اک
gr
جم
am
work
##ick
##خص
دل
ساخت
##wn
مورد
##بان
how
میشد
think
##oll
نش
##امه
We
اف
##ue
توس
##ونه
عنوان
##cl
##ازه
##old
br
بسیار
app
دان
همان
##ft
imp
Al
##ater
##ترین
گرفت
چون
اص
بزرگ
also
every
200
##قت
##ens
te
اط
##ark
شود
میز
##گه
bo
فق
بخ
باش
##طور
again
des
تمام
انجام
bet
مان
اول
get
##یری
##اً
off
fe
##ئی
##سم
زندگی
under
اینکه
##لو
بیشتر
صد
these
act
sm
ها
back
دید
##رکت
##شته
همین
po
نگاه
داده
##ec
inter
##ial
سی
##ful
##mer
##رده
شن
##ood
##اص
سو
after
##alk
##fore
شهر
This
tr
They
hand
اون
تنها
its
##کان
همچ
##ict
میده
want
##ase
##گری
اد
##ریک
##omet
اش
کنند
sc
where
##ons
##ather
##ied
مثل
هن
##ونی
pre
کردن
##vel
##uch
##orn
Ar
##ward
##fe
##00
down
##ious
##لب
##فی
even
##اح
##امل
##iver
مط
##ents
##ittle
##ng
مم
##سان
دن
say
way
##ov
bl
##ors
##وب
##دید
خوب
##int
کنم
##du
Un
فقط
های
جن
##erm
most
##ضی
##ition
##فا
co
##ارت
##ces
##iss
##lect
شب
because
##وه
##ath
fl
##تاب
##ily
##سه
بن
##we
خانه
##کس
##ابر
##ازی
صورت
تع
such
new
little
اع
long
sy
مرا
##اخ
##مانی
جای
##اهی
comm
##rough
نز
##port
قب
حرف
##round
##نه
زمین
don
##کت
rem
world
made
much
تش
##اتی
ind
going
##اش
##وع
آر
##way
سه
تق
right
##ren
سپ
داشته
before
call
form
کوچ
نبود
توسط
##ced
##گان
##ates
dif
##hen
برد
##مد
کنیم
through
On
201
لب
##oss
##خی
نس
##gan
میآ
##ty
wr
لح
##ail
##amp
years
somet
افت
should
thought
یاد
##قای
##tern
##تش
شر
ser
ve
may
##ابل
day
##ys
آب
att
میکنند
##وید
good
##ving
حد
here
##حی
بازی
##غی
##red
زن
احس
بیر
rec
آز
cons
##ans
حتی
##ert
میان
##ince
old
جو
##کرد
##oc
##form
Mr
دوست
There
life
ey
car
مردم
##ited
نشان
As
توان
make
خوش
زمان
##ایت
آنجا
کنید
##جی
##ational
##هاش
##air
##بال
##ave
کسی
##ough
عل
ممکن
##ویی
never
##ختر
##ness
own
کشور
##augh
##igh
##olog
##ves
##گز
rel
gen
well
آورد
جنگ
##ual
mo
بالا
acc
count
خط
##ually
ph
اینجا
گرد
چشم
many
##اطر
نداشت
##aw
hel
شم
احساس
exp
##ise
نفر
خواهد
آمریک
سا
حس
درباره
رس
great
آل
What
##ib
come
sec
چنین
##ower
مانند
میدان
bu
##ible
those
##ject
دارند
زد
پرو
##یشه
##وق
صح
##یدا
##این
گرو
کردم
same
بیرون
ask
cr
##ction
being
bel
used
##وار
##ouse
غیر
آمد
happ
حالا
شک
##مل
کام
##led
جا
wom
تغی
چرا
##aking
##ried
یه
##سر
##ندی
turn
##ank
میکنم
قدر
end
هنگ
گرفته
##بار
too
آه
شدهاست
بیم
##az
##ody
ob
##ix
##مه
دیگری
##رین
فیل
##روع
طور
##برد
طرف
spe
##اض
مین
let
آقای
##les
##let
went
id
پا
sl
##stem
must
دانش
ساز
##hes
ear
رسید
No
##thing
im
کتاب
درست
تغییر
بده
need
##تم
##زه
سل
##ics
دختر
ac
##ظه
بال
##oth
شه
##ینی
شروع
پشت
پیدا
##ubl
##۰۰
کردند
مادر
برگ
پدر
##ont
came
head
##جر
طول
three
##نامه
کس
##ope
hum
child
تاری
##کو
خودش
پنج
##مت
گوش
differ
##ween
خاطر
still
##ating
##ered
بودم
ور
##یمی
مه
##ایل
An
پیر
زبان
found
##تون
##زش
take
بیش
something
##خواه
op
وقت
بدون
himself
##لف
##ثر
##ened
نزدی
##gin
نمیتوان
ll
got
صدای
همچنین
dist
فرو
معم
inc
For
##cial
That
##ss
between
##land
ev
تب
انگلی
##ady
seem
##یره
reg
کوچک
##ars
##ting
sur
##ning
ماه
##رم
last
##cess
اتاق
##get
##ier
pers
inst
##aughter
##ودی
##فه
things
tell
away
eyes
##rans
افر
Re
##شید
##pe
هنوز
##pr
جز
##xt
set
##ژی
تول
خانم
##ular
might
start
word
use
##ased
##رب
میدهد
##دار
سخ
talk
جمع
##uring
##ool
##ever
really
میداد
شاید
##عات
without
col
system
کنار
جان
مص
کاری
##ific
انگلیسی
If
قط
شرکت
feel
ret
inv
##cept
##ows
۲۰۰
##ric
مل
##هٔ
##und
ببین
18
فران
pass
##ob
Pr
fam
اخ
اطلا
مست
put
##ently
pol
اولین
At
##gg
supp
##پر
##من
##گذ
mat
بش
##rib
Is
##ities
۲۰۱
رنگ
##ویم
dec
##gr
gl
##صد
تأ
##تان
##اپ
room
میتواند
pres
حق
##ub
دریا
آخ
Le
fri
##ah
##als
##ution
sub
سن
##وص
Air
##لیل
شخص
##ism
##ork
##ph
each
##any
199
شدن
##ابی
##وط
آیا
How
num
جدید
face
##ished
سیست
جهان
چهار
called
##man
stud
##cy
When
کمک
اه
عق
while
sim
میل
##ways
کمی
men
نزدیک
around
##ولی
##ey
##ret
##ull
##clud
زیرا
گذاشت
جوان
lar
##arm
فیلم
gener
gu
ins
##ale
produ
اب
مخ
دارم
کلی
ایال
##ember
ساعت
میخواه
##قیق
left
موض
met
شی
##ivers
##گیری
نیر
بوده
does
thing
mon
real
##ters
شاه
another
##هایش
##ures
##oy
Com
trans
خنده
سیستم
##its
شدند
##نش
str
##owing
mod
##بور
##ومی
خار
هی
##لاً
add
بلند
##ten
مغ
cour
cent
کی
looked
صحبت
play
##نم
میشوند
موق
Mar
Sh
توجه
find
زمانی
خر
##ستی
ارت
##یند
نمید
متح
mom
##گو
took
همیشه
مهم
che
min
house
زیادی
##خانه
##ذیر
##تما
##ange
آمریکا
##up
though
تولید
خانو
##elt
##io
light
##ility
##der
Now
##کنون
##ینه
Br
فع
De
میکردند
##ner
##فاق
گروه
different
انتخ
دوباره
آش
belie
قبل
place
شو
air
nothing
eff
افراد
##hip
##iel
always
fin
night
##owed
fact
##alf
سب
point
حالی
سپس
Har
arm
##ایه
kind
##velop
دول
##over
##راه
فرد
Amer
##te
بخش
cur
##جاد
##iness
includ
help
اتفاق
Americ
##ized
علا
وارد
بع
حرکت
نیاز
mar
##ek
##دام
##پی
##ists
##den
##ross
##ock
saw
گل
##میم
حض
cap
##گونه
انسان
upon
##ریق
مخت
ایست
friend
##مو
دنبال
##ern
young
##ative
ایجاد
##ll
انتخاب
شکل
حم
##ina
آدم
##سد
poss
foll
small
کشت
بچه
underst
person
##ger
موضوع
یافت
پول
known
ide
disc
giv
کشید
چنان
عمل
کود
##کند
beh
نسبت
نقش
##ained
##ik
##ined
##ائ
love
نخ
بهتر
##oun
##ments
سنگ
داخ
آنچه
publ
art
ری
منظ
##iet
##ندان
##ched
##باشد
منط
امرو
##کتر
##gy
##اخته
##ata
##ages
دهد
human
My
##ote
ext
high
##pect
New
دیده
بسیاری
##قل
cre
contr
against
سف
داست
##less
##ستم
few
سوی
par
##ple
بنابر
خدا
##uss
##گرد
began
Pro
once
ass
روش
ندارد
##عداد
سیا
نف
ادامه
##chool
mind
##بانی
four
stand
فری
power
همراه
dr
Well
conf
##کا
فرود
قد
##ax
##rist
##بط
باشند
ندار
##ology
میخواست
##aph
sign
##ines
##roup
خودم
##لس
inf
##oice
better
both
مار
قابل
نیم
جلو
سری
Ph
moment
##chn
دلیل
develop
All
dep
##وده
نتی
def
حاض
تج
میلی
##aint
میگفت
##irl
##ee
His
sw
##here
##ared
hard
##رخ
##ically
افز
##outh
##ash
##ula
asked
ایر
el
کری
dire
em
هوا
##ield
برنامه
##خته
##osed
home
water
##ویش
second
هد
##وجه
Airport
##بته
خوان
##ention
وا
##رش
##ense
##ality
وح
معمول
##uth
البته
افتاد
fil
give
##ron
برابر
name
آغ
آنکه
مدت
##ices
##عنی
قان
red
heart
بنابراین
Sp
##rew
جواب
prov
mean
read
##iew
Laughter
##قدر
##فق
##ann
##con
##ural
مدر
##ژه
rest
اشت
10
سط
پرد
گو
آمده
خواب
داریم
وض
مک
منت
حل
##day
book
##ug
هرگز
##sw
quest
گی
seemed
198
بلکه
told
##ضا
elect
try
near
ke
Ind
##گیرد
اندازه
father
mother
felt
پایین
Then
##یدی
داستان
خب
باع
##ute
knew
پار
##ene
##ets
بگذ
##وست
نتیجه
تک
unt
didn
number
##راف
##be
##ازم
فی
##تا
sil
یعنی
##ook
باعث
sk
میخ
det
حی
looking
sat
اصلی
loc
##ریف
تاب
ref
walk
پاس
##اور
cle
bus
##افی
نگه
##ement
مرگ
sol
جام
##ertain
رفته
partic
##جب
بتوان
مشت
راست
تصمیم
care
women
فعال
##app
##aps
تل
side
شامل
##شار
United
گذشته
##رسی
##قات
##angu
##ised
vis
##مز
مشکل
برخی
##یزی
خانواده
since
##ason
##wards
##ins
نور
##iting
میرفت
##akes
موقع
اطلاعات
طب
درآ
##ither
##لاح
med
mem
##erv
##oh
##vern
##ature
Christ
میگذ
del
حقی
نوع
##oney
##یدن
God
شوند
##blem
دنیا
##ird
return
زنان
char
actually
##att
ره
wind
خدم
حدود
هری
half
ent
understand
طبی
##most
##ired
expl
##ung
خاص
##iversity
اکنون
import
جایی
Be
##alth
لی
war
##ants
غذ
بو
تقری
open
family
##پا
##ately
exper
##ize
hands
occ
سخت
ساخته
##atch
hour
اثر
##رکز
bre
list
less
##ains
sing
##oot
done
run
گری
گفته
Eng
seen
door
later
##ley
##ابت
why
داشتند
آرام
enough
غر
adv
لا
##cle
اسپ
build
children
فرا
##ندگان
##orr
group
##ral
لو
مسئ
احتم
ایالات
tre
عص
girl
##vers
جهانی
##tered
بس
heard
##انس
answ
##باط
Fran
پرسید
govern
##imes
##ویس
اجازه
##ولو
متحده
toget
سازمان
##ream
##illion
تاریخ
far
together
appear
##ident
often
next
##ury
##شین
##aj
لباس
problem
##ling
دولت
##گران
##ين
##lex
##صل
lear
صدا
وال
حالت
mus
ty
##br
دانشگاه
days
anything
سمت
خوبی
##رز
ناگه
اعت
##ضای
dem
##ruct
##ott
متوجه
##امت
lead
##ries
during
میزد
دادن
آزم
قسم
روشن
نخست
##نت
طرا
لحظه
تقریبا
##ided
turned
##ample
##خورد
##ept
اقت
پایان
##ایر
پسر
نار
contin
##amm
woman
blo
هنگامی
##ital
interest
##orth
wa
until
مب
design
school
خواست
##unic
yet
توی
آموز
##body
نمای
تما
##ife
spec
aff
keep
بان
langu
techn
var
##امبر
##صی
ple
##لاف
pat
##ex
##ove
##وف
country
هزار
##ames
##ences
##ime
##ably
دوم
##دیل
##na
##تری
##فاوت
##els
آس
##ues
سرا
خش
میباشد
voice
ter
سیاه
pop
val
bro
One
lot
چی
##formation
move
کوت
##کم
احتمال
##ides
course
process
##افت
197
خص
حاضر
##ثیر
##ering
best
##aken
##اموش
تحت
ارتباط
آغاز
تبدیل
بـ
چطور
cond
##cent
five
نمود
قدرت
##لیه
stop
words
ست
ظاه
تصور
direct
مرت
Oh
almost
داخل
درد
آنان
equ
اجتما
خبر
##رائ
موجود
whole
##ویر
000
بودن
چش
state
organ
هستم
##گیر
رفتار
هو
##واج
##aut
App
کال
مطال
formula
fun
عش
having
##بیه
موسی
وضع
##لم
۱۹۹
بح
گست
تعداد
emp
##raw
سخن
حقیقت
تف
##هن
##زد
##sc
نر
زیاد
اق
sever
##ogr
اقتص
money
ملی
##کاری
تلا
مرب
هنگام
certain
ارو
Eur
pur
##aring
serv
۱۸
##ریان
پوش
موفق
sci
##ged
film
زده
##لق
شور
چگونه
دریافت
##ying
##ety
became
دارای
##ظر
##ured
change
appro
فریاد
example
##ps
##رات
tru
##نو
##بح
quite
مختلف
consid
tra
امروز
پیچ
واقعا
prot
##selves
##دیگر
chang
##aces
large
بگیر
##ium
##bers
term
خارج
##انیا
##uck
##اله
times
اینها
Sc
خور
##طی
##بات
hist
##سازی
گونه
وس
law
بله
##used
##لام
##conom
سرعت
پاسخ
Af
##نگی
کان
##داری
shall
##une
wanted
کردیم
Germ
صف
پل
pri
##گفت
دم
سطح
گفتم
کشتی
خون
##بخ
big
##یشان
States
Or
within
rep
خصوص
death
##ئن
month
امید
able
To
Cl
بعضی
plan
dark
##ویق
عو
خورد
##yle
بیمار
const
##ected
bit
کر
##ستند
important
جل
Am
##حال
dri
باور
body
عر
##ode
صبح
black
##ision
polit
##aster
##گرفت
Mrs
mil
مال
sound
##میت
est
##orld
##زاده
eas
Intern
Harry
##اتر
University
ازد
##میز
اسم
مثال
Do
فرودگاه
class
##انم
doing
along
##ipp
درخت
American
رق
میبین
ترکی
میکنیم
##اهش
land
##کیل
##ister
منطقه
kill
ناگهان
رود
everything
طراحی
##رار
ترک
##تن
result
عز
Ex
سعی
gave
##ینگ
اض
ماند
mark
اغ
Con
Yes
##ived
##ape
##reen
بیماری
##اصله
##وهای
سرم
نخواه
ed
میس
data
تشویق
##یدم
توسعه
درون
imm
##work
Par
##oke
میلیون
افزایش
##کش
opp
میرسید
requ
Why
##ourn
بست
##الت
##ts
cell
order
others
public
idea
city
چشمان
Tr
طریق
Europe
وحشت
oper
میپ
begin
انتظ
ون
believe
پذیر
##ats
بسته
##اسی
##ison
displ
##مند
eng
##وانی
pos
##انت
Her
fell
آتش
##ks
##dden
قانون
##rom
دری
##bs
##ases
World
given
##ization
##ulation
##رژی
میکردم
prof
soon
کامل
هدف
15
درصد
After
سرش
sent
ته
complet
کجا
شدم
present
six
##گار
سفید
sudden
انداخت
##ناک
رای
اشاره
short
196
effect
تازه
##ned
##hem
ابت
Not
عب
##رح
لازم
##orning
کنتر
become
sort
##ورم
بدن
##ped
sn
موسیقی
myself
started
ترس
##iter
فل
##anc
making
Gr
rece
فرمان
شبیه
جمعیت
تلاش
common
##هایم
offic
herself
مدیر
resp
##itch
##ton
##ینده
week
نوشت
زود
government
ژن
town
##هها
question
sure
la
behind
aw
طی
انرژی
جور
انتظار
##ively
دقیق
##ories
sit
##men
برق
اسب
##ony
مقابل
leg
کلم
میآمد
white
ایم
live
repl
remember
عشق
برداشت
show
progr
ازدواج
dev
bed
خواهم
sle
among
hold
##idd
business
##ued
مشخص
##ient
comput
برادر
کمتر
هفته
Ad
##ience
کریست
تون
پن
##انش
##ready
full
morning
##قا
آزاد
incre
ساده
جی
اجتماعی
story
##لاس
Me
دع
rather
##ane
##ior
اساس
آزمایش
اک
وسی
##ونت
possible
شاهزاده
##ograph
##حه
##ابد
Col
مربوط
نک
##گشت
##رت
fre
##شا
بهترین
کنترل
واقعی
محد
display
prom
کا
سرد
همچنان
میشن
شناخته
##ابان
information
##use
فهم
##ایند
##eng
بهطور
کنه
میگوید
##acy
##ئیس
taken
##ماند
صند
##ناسی
##ccess
جهت
case
بکن
adm
won
جمله
least
These
ori
##وبی
راح
خطر
##بری
##fort
##olution
بیشتری
Bl
دکتر
##eth
ماشین
قسمت
Miss
using
نمایش
Don
مغز
##سا
says
##ازد
several
##haps
##ians
econom
##lish
امکان
صرف
exc
already
mag
##amed
آینده
عجی
##یدند
انتق
Appl
bar
##ole
##rench
ناراح
##جان
آخر
else
express
نوشته
کاهش
Can
##que
av
##ted
لبخ
دیگران
كه
ste
##ency
##ection
##atic
خاک
کافی
##ards
مز
مسی
hear
round
منتش
means
گون
داشتم
Russ
سفر
اغلب
12
##vent
tri
ener
آخرین
گرم
support
ژان
۱۳
##aced
speak
##داشت
early
وب
##li
کسانی
##fic
##خواست
مطم
##طه
across
جدا
عمومی
زنده
نب
##هایت
منتشر
آسی
phys
##side
fall
##فهم
matter
Comm
##elf
لذ
fear
##انگ
##read
حمله
نمیکن
##par
افتاده
بگذار
##اج
##fully
Ed
French
##rought
##oph
based
##الب
##ended
##undred
دا
نخستین
##بل
Ab
نکرد
##ze
تشکیل
##ارهای
language
دقی
##rict
##ousand
##ober
##صر
درو
wond
Sy
May
له
##تل
تعریف
عقب
مشغ
ele
##unity
Phil
شبکه
خیال
شع
##0s
فعالیت
##ctor
شدهاند
##aining
IS
گاهی
past
reason
##ابه
باشید
Joh
cir
نشسته
##سون
lik
particular
سوم
##خره
rele
درک
tem
هفت
free
تجر
یکدیگر
اخت
##earch
##uff
##واره
health
دستور
لحظ
مدرسه
million
##وک
نج
قلب
عد
##قیم
ناپ
تحقیق
sun
table
بیان
ین
باد
جریان
lay
تخ
##mber
hundred
##ams
پاک
##arr
suff
نشده
رد
thr
محل
جامعه
alone
##سیم
عض
meet
flo
##rop
coming
social
With
##ives
##ush
پزش
Applause
##oud
نیروی
top
##aim
##not
Iran
گیر
##ination
##آن
میتوانست
رفتن
جمه
Some
strong
nat
ra
energy
کنی
ترتی
age
قطع
desc
مشغول
single
##یزه
thousand
میدهند
##eral
##ask
deep
quick
cor
وز
17
تیم
success
friends
music
fire
##iously
برخ
اطراف
کننده
pain
مدل
دنی
##ached
##انهای
##ots
میتوانند
ابر
##اسب
بینال
محی
کات
Ge
جر
۱۹۸
thinking
قدم
داره
طبیعی
whether
creat
##مللی
##ne
##ening
رشد
ایران
Se
تصویر
object
abs
##ویت
held
##ایست
##سل
دارید
##acter
حضور
اگه
prob
level
گاه
##ional
ایده
ارائ
سلول
gone
عالی
بیا
مجبور
either
ضر
Pl
ris
##reet
##lic
##ids
ساختمان
low
dou
شهرستان
بزر
حقوق
brought
##aper
دقیقه
##asure
سیاسی
معل
نظری
foot
##ogn
step
boy
today
##utes
##itting
باقی
countries
War
##ified
anim
bad
beaut
##خصوص
field
ill
front
##ومت
ann
مواد
فره
ول
میآید
Pe
دیدن
فروش
##اع
مشاه
۱۰
##duc
##ae
دام
بالای
John
soft
##گذاری
Gen
شرای
یافته
##دای
##oul
Car
مردی
شکست
wall
##چار
194
son
brother
poor
leave
##کننده
اعلام
کف
##سال
maj
##گون
dead
perform
ارائه
pret
فرانسه
##موعه
main
##باز
معمولاً
مهر
origin
سک
##شود
mer
net
بید
فرز
Pol
چقدر
نمیکرد
##نام
##de
stood
##ches
##ones
conn
پرداخت
##ادت
##ording
##ract
##itions
themselves
جست
میبرد
ریا
قرن
imag
trying
دون
general
##ولوژی
کریستف
بک
brain
ماد
##سانی
whom
including
##lu
##یاش
##وتی
mov
##نای
##oon
##ciety
space
رابط
##ead
##cer
سرخ
تلف
پیشنه
ago
obs
ماری
هستیم
working
true
عکس
##ران
باشم
دلار
هند
rev
میب
wife
company
clear
stran
16
خشم
روح
##ویه
شش
##لیس
##ilt
##ai
sum
شوهر
##جو
news
##ator
Afric
خدمت
11
مرکز
حک
مذ
born
##very
##تور
تکان
مالی
غذا
رئیس
مای
##ابق
شیر
کوتاه
گزار
برمی
بررسی
دیوار
برگشت
El
توضی
مجموعه
ca
##iddle
شخصی
##esh
۱۹۷
##ror
cal
برگرد
اين
prop
hope
معنی
Ne
##style
sometimes
##aged
گه
خویش
##ief
دراز
##ances
By
نکن
intern
مینم
Te
ترتیب
بینالمللی
195
##دن
##ظیم
##چی
عزیز
193
##ky
##تو
##of
##airs
saying
دهند
exist
control
Count
هز
report
بزرگی
hor
چرخ
کاملاً
##arch
percent
vill
خیابان
آماده
برخورد
attack
##iol
##الیا
خواهند
##جع
Man
ایشان
میکنید
##ored
چندین
پیشر
fur
##bal
##ivid
displaystyle
##son
دوش
line
test
##where
##ma
##though
Let
##ental
فرص
fut
پاد
آموزش
##انو
ground
lost
نفس
cult
suddenly
discover
living
##osp
##ission
Per
ارزش
view
##سک
عملی
##فاع
##بش
English
##rie
##urg
##yd
سریع
محدود
##bed
##ius
However
##cum
project
##ster
##me
stay
Will
hon
داری
##itary
برود
##وزی
watch
میخواهم
cannot
press
متر
طوری
##اقل
نشد
feeling
##ean
##سوی
##وریت
ایستاده
توضیح
تکن
دیر
اروپا
مسل
واقعاً
خلا
میرود
آورده
##ficult
قادر
##by
##اشی
نسخ
##ler
متفاوت
آمریکایی
بقی
Min
##غذ
Thank
کشیده
بند
چین
lab
longer
win
کد
towards
گم
difficult
##oint
مسئله
ژو
آف
رنج
زیست
history
itself
برایش
اجرا
blood
bas
pay
##اران
بدهد
پیشنهاد
##ption
##soci
مشاهده
US
National
13
##رس
هوش
میگرفت
repr
الان
bring
self
passed
major
بحث
Ag
مردان
بچ
century
بازگشت
Brit
منظور
میگیرد
توصی
گذشت
نامه
feet
میدانست
Char
perhaps
هنر
میلادی
دستش
خورشید
pie
محص
bi
نویس
اور
##aught
Pet
##گین
Christop
ویر
political
Tur
شدت
نشست
hur
تشخی
زدن
محیط
رخ
تأثیر
گزارش
##ایم
##سب
answer
hair
##ابع
##يم
همسر
قل
نکرده
اشتب
happened
##unicip
International
سیاست
خم
aut
##شناس
months
cut
lim
فشار
میآورد
مکان
ten
سرز
close
activ
talking
sour
##يد
typ
systems
##unt
mot
##لیپ
##فظ
دوره
di
##ude
گذاشته
sense
div
future
##irt
glo
##cul
York
rad
فرست
sold
##مال
ملا
کدام
بگویم
مسیر
squ
اینتر
دادند
لبخند
##اهم
شرایط
مؤ
بدین
Cent
food
sleep
آنگاه
##افه
taking
حضار
cost
فهر
conc
##pped
cover
hours
conv
مگر
طولانی
حساب
South
مخصوص
##خش
##bo
##ilar
road
##idence
grow
مقدار
کلمه
جمهوری
##itive
proper
##رفی
Gu
دف
##NA
##aly
##ادل
اث
۱۹۶
fig
following
mass
describ
ترا
نمیتوانست
##esent
تماشا
استخ
تشخیص
above
Qu
##apan
بریت
۱۵
##iod
##itten
آهسته
Alex
##cious
تور
tried
زیب
قیا
##ressed
بپ
فیزی
##empt
نگاهی
##جوی
Fl
##ability
getting
##urs
third
مانده
بدان
دستگاه
##ادهای
pract
کشورهای
فاصله
اشک
non
##cially
##sy
dear
عوض
dream
متن
نمیدان
##بیل
بخشی
صندلی
##اشق
سالهای
Ear
برده
14
building
##tain
ساله
##iled
خوشحال
100
##rit
ang
ident
Rep
auth
آزادی
حمل
##mb
##bled
Japan
حیوان
معلوم
##الع
Mus
دوران
vers
gent
آلمان
cried
سراسر
##ههایی
##ana
دسته
پنجره
##co
30
dest
##گن
cold
game
مدتی
##por
##حالی
##شون
##iful
فراموش
pict
##edi
دهه
کودکان
ایت
ندارم
نباید
مف
Tw
پوست
Bar
Christophe
post
تری
میشدند
نهایت
##روف
هشت
پنه
##band
##افظ
Go
##right
رسیده
entire
stat
روسی
however
میافت
##gest
چهره
perf
port
##af
Aust
##rodu
relations
حو
حز
آهنگ
super
recogn
except
##put
late
درمان
##enn
مطالعه
Sw
##لال
بانک
stru
whose
نظامی
دوستان
اطلاع
Lond
##تیار
بم
draw
env
چهر
فهرست
##دان
##قف
میرو
ord
ظاهر
فیلیپ
##hern
##پیم
##رای
میخورد
الی
مـ
بگیرد
##eed
II
بزرگترین
چپ
mater
##صیل
link
ant
London
##یافت
Every
En
عجیب
##لند
بنی
پدرش
##ایید
iss
باشیم
educ
collect
##ivil
##ادا
قدیمی
##شناسی
break
mis
##iron
##مرد
individ
رسمی
راجع
##ested
doesn
بعدی
په
##طان
فوق
معت
کارهای
تقریباً
fail
چیزهایی
hig
اقتصادی
bur
اسل
evening
deal
arri
##آورد
Mad
enc
wrong
برج
hus
گن
##ublic
##enty
استان
کشف
آبی
##غل
Bec
محصول
study
dro
##ales
moved
##ولد
منتظر
هستید
درآمد
cry
حفظ
پیاده
Fe
sens
نزد
##وتر
##ha
mach
گرفتن
سوال
subject
##سیس
ذهن
سین
period
secret
##کتری
meth
بیست
مرح
comes
##او
happy
natural
وسیله
محلی
انگار
breat
led
قیم
minutes
eight
##BN
network
میکشید
vol
##het
model
حمایت
##آوری
es
fight
خیره
جنوب
curr
kept
prin
ناب
##ining
اشتباه
کامپی
فرانسوی
میخواهد
##ستر
طرح
refer
Just
##ائل
نت
داشتن
مصرف
##ially
viol
##gor
treat
##itted
Em
عاشق
##ival
##اظ
میگیر
slow
##وین
ژاپ
exact
area
Val
سگ
invol
نخواهد
eye
##uge
character
کردهاند
انگشت
سران
##طر
##ese
research
میرسد
mult
##انیایی
trou
##yn
inside
سرمایه
##action
علت
individual
میزان
##ought
بقیه
outside
window
Ju
Art
##ledge
gentle
تام
record
earth
Tom
الگ
نوعی
فوت
تجربه
جایزه
respect
account
died
##atter
دیدم
مطمئن
شان
سرباز
متع
priv
hot
Here
##hel
جنوبی
##نتی
##unicipality
زیبا
ارتش
جذ
camp
شگفت
##ایق
همهی
##aid
ap
تکر
daughter
25
مستقیم
ماهی
product
روست
##aving
##idge
Because
event
##ارم
Arab
عین
مادرش
##ply
اهمیت
tou
مری
makes
struct
عبارت
روان
usually
German
شام
##urity
اضافه
لات
ابتدا
گویی
job
کودک
شیمی
##bit
material
مرک
192
تمامی
باری
مور
##sh
##ump
تی
village
##ino
husband
احتی
جاده
صن
نقطه
##وله
لحظهای
عمی
nor
offer
Dr
بودیم
##ella
جنسی
Geor
##هاید
##gen
relig
ISBN
surpr
نجات
مراق
necess
technology
##iding
##ceed
##زا
##line
انسانی
میدید
نگر
##وال
فرار
##فس
##راک
phot
letter
2010
بدست
journ
##ential
arms
##ges
##آمد
written
##aves
##ئین
فرصت
yourself
سام
قصد
##ising
شدید
Part
آی
cross
##bt
##گریست
علاقه
King
##جم
##ule
آلب
##ware
##urch
##inary
population
مجم
##زل
میاند
گردید
##ستانی
North
سایر
مبار
کلاید
##واند
۱۹۴
convers
instead
فض
returned
pretty
##ellig
الکتر
##ring
##ادگی
شناس
بخواه
lives
##head
##oms
unc
probably
##epend
منابع
##stit
روزی
##attle
چار
##باش
mess
مسا
متش
میکنی
##ological
نیستند
##gn
شمال
Sec
تیر
represent
##ـه
میگرد
##odes
comb
##ples
مي
##riage
scient
bank
bene
engine
سوار
##گاهی
اتح
Hist
Li
دیوان
ناراحت
علمی
نتوان
سرانجام
arch
اعضای
پو
بیت
##فتر
دادم
جاد
cou
##ili
fore
اعتر
ملاقات
تد
walked
درس
##antly
tele
accept
Res
افس
پروژه
laugh
method
##uct
computer
باغ
##ishing
کلاس
##زده
##van
yes
روزنامه
simple
سان
انگل
آری
someone
forg
From
author
song
sex
corn
arg
##ration
decided
نح
علاوه
received
##ویند
tot
##ورک
af
دهیم
تهی
position
##illed
نمیشد
عرض
##ops
Su
اندکی
اکت
##ille
ثابت
##ien
##ken
fa
بازار
pick
رون
trad
هرچه
##to
خرید
نات
جدی
similar
عضو
wasn
opened
غری
دین
لذت
##istic
بالاخره
truth
##نس
خالی
spir
بگوید
حتما
مساب
فصل
ویژ
##لهای
##imate
##oman
key
استر
ساح
هیجان
market
smile
special
##pecially
heav
صاح
خودشان
امر
خاموش
##ارش
پرواز
۱۲
couldn
دقت
Co
national
nature
series
La
built
استاند
paper
امن
۱۷
##uc
انج
یون
امیدوار
quickly
آوری
ذه
##قد
طبق
دستی
پنهان
function
added
بتواند
ایالت
determ
members
انتقال
وظ
گمان
clos
191
رابطه
واح
society
زنی
مینمود
gra
forward
indust
جد
نیمه
development
ترکیب
force
##هور
دنیای
jo
تخت
قوی
##ocr
Ah
##ously
Of
##ideo
چیست
آرز
آسمان
Paris
اولیه
کلاه
##ada
influ
##ols
##ament
grand
considered
##rel
درجه
##iling
theory
چیزها
اونها
service
همانطور
##hers
##orrow
till
موارد
##lement
مخال
prev
America
replied
wish
طبقه
##بندی
نکت
##ستگی
##omes
##ویزی
##ژن
نمونه
ship
enter
##گانه
چیزهای
کنت
local
کیل
##ford
mist
##بران
بدی
##gs
هایی
میتوانیم
sitting
##یک
مدار
##ندگی
ce
##ests
گشت
ببر
قوان
team
green
کور
خودت
##ironment
##صه
مناسب
created
اقتصاد
military
##unch
شنیده
خدای
##رانی
عبور
امت
memory
موفقیت
access
sir
##دهی
dise
science
صفحه
changed
pot
##باب
beginning
خواهیم
اطمین
بزرگتر
books
ابزار
آد
ثرو
party
compan
چوب
sus
ویل
species
perfect
soul
##anger
سبز
wonder
especially
آث
هواپیم
beautiful
##وریه
former
Cal
mur
##انههای
swe
حزب
ران
lived
فراهم
زمینه
کسب
دوشیزه
##ears
ببینم
تکرار
gold
اسکار
command
British
##ونا
impro
آفریق
doll
50
mount
انگلستان
Dav
تند
##ثی
##آمیز
ایستاد
##اکت
رها
اسک
##hood
فرم
##کنان
تئ
##res
followed
##inal
County
##ox
چاپ
سکوت
located
ready
France
ut
مناط
زندگ
bes
عه
تلویزی
profess
برخاست
پلیس
estab
##ندن
prison
miss
منجر
##icro
اولی
##مق
sugg
obser
##asc
بزن
۱۹۵
توانایی
stri
create
##بز
send
ویژه
اقدام
##oly
##ingly
ran
کاغذ
Med
##وشید
due
March
##ighb
##dom
attention
##عتی
tree
آند
##face
مدیریت
##جمه
پیشرفت
##ffic
پشتی
اعتم
اظه
کشته
##etic
اخلا
Ber
دشم
پست
##ills
خصوصی
West
##iction
further
##view
##agn
##che
##anced
value
وین
invest
worked
2012
اختیار
شخصیت
##سای
seven
راحت
قیمت
مفه
wrote
##ume
##bon
coll
teac
##ternal
آفت
دلش
مرحله
dom
کوچکی
اطمینان
##ging
##ights
چندان
جلوی
##ithm
مقام
2008
فار
bott
احتر
##yl
type
developed
دچار
continued
فرهنگ
##raft
Jan
wood
fing
##iment
معرفی
cause
separ
Sm
پرس
همچون
ways
بچهها
بریتانیا
اظهار
##بیر
اخیر
مارت
Pres
San
##شهای
Philip
شاد
نیروهای
occur
لط
لاتین
##ورتی
quiet
زح
fav
واحد
میدانم
June
تعی
نص
crit
لت
2011
standing
پاری
2009
specific
chem
ندارند
situ
حر
ماده
میتوانید
قبول
پیچیده
##uz
##estern
اِ
##سیون
inn
##ruction
##ushed
استاندارد
##istan
stopped
تعجب
fast
شمالی
expect
##لیت
simply
تعیین
##eness
##کلی
rob
behav
cells
پرت
انداز
##artment
experience
تحمل
##خواب
موجب
##پذیر
##itude
India
مبت
fif
repe
appeared
فرایند
seeing
maybe
consider
نمیشود
واقعیت
named
پایه
##غال
کلمات
سبک
۱۶
احساسات
کیف
##oe
میشه
Pa
reached
نقاشی
دش
##raid
attempt
##فل
immedi
همکاری
##آور
esc
پادش
کشیش
##owers
various
قوانین
##شه
##ضیه
خاصی
مها
##cient
انقل
پیام
rock
دفتر
##شده
movement
نگران
blue
هرچ
2006
glass
سود
##زان
##lam
##raz
##افظه
بنا
##ئو
رقص
purp
disapp
زندان
neg
نمیتواند
فلس
##بع
تفاوت
killed
Sept
##سین
##ball
##اصل
قه
مقای
Earth
##irst
شاخ
ir
##utions
تپ
##uses
هزینه
سابق
##uted
##ending
فضای
انتشار
sea
community
middle
دهم
hop
##iff
##val
کردهاست
girls
##یمان
published
foc
##sequ
کاربرد
##سند
بیاید
manag
##rupt
Who
افرادی
دربارهٔ
jud
مجموع
Sam
Russian
اعتماد
جالب
##ته
district
گسترش
##uel
نسخه
##omb
decl
##دین
##emy
نقل
سور
program
آلبوم
street
واکن
ستاره
##icle
آلمانی
##ED
اوه
mouth
##رهای
die
##vin
نیوی
##ama
##itect
سای
meant
##ibility
۰۰۰
بوی
خند
neighb
Africa
##rem
داخلی
فنا
دعوت
پزشکی
اسپانیا
اسپانیایی
Ant
غربی
تلفن
Acc
##بینی
##inct
##usion
قول
پان
تقسیم
path
##ara
##ique
##omen
ببیند
##کری
میتون
fix
##ented
City
carry
##isf
اداره
مشکلات
exam
مایل
bab
##ولا
fine
اصل
2013
فرانک
European
works
خارجی
اوقات
وضعیت
خیر
introdu
everyone
حرفهای
afraid
##الم
redu
Oct
##aven
write
bey
اطاق
اتفاقی
avail
##ica
بزند
learn
##انوس
Jew
ثبت
##ادث
##owd
temper
floor
Mary
knowledge
modern
beyond
Comp
fund
سازی
عمر
##uk
civil
environment
قهر
whis
Press
علیه
##شب
افکار
desp
نداشته
تکنولوژی
din
مقایسه
ast
rights
##eless
نمیر
2007
sett
problems
خل
لندن
موقعیت
کاترین
##uary
2005
فور
twenty
سنت
رز
مشابه
##gress
##سو
Lord
##تمند
wat
شهری
نیک
indeed
learned
September
ممن
##وارد
peace
##gar
هستی
complex
respons
office
سم
دریایی
پروت
مناطق
علم
بیدار
lower
sister
آثار
متم
released
associ
Ser
##chie
باشه
include
norm
answered
fac
پخش
pred
July
رشته
##بخت
size
##ounced
فرزند
خرو
exactly
اصلا
پاریس
dig
##ya
۱۹۳
شماره
سیم
##oices
طبیعت
بشود
غل
پناه
نکته
##زن
##chan
برنام
trees
آسیب
Pal
هوایی
قایق
مرده
official
anyone
خسته
visit
کامپیوتر
claim
effort
fort
##omp
قرمز
addition
Germany
master
تحصیل
مشترک
##ades
##add
حداقل
spoke
Aug
ورود
##ette
اصط
اصلاً
21
توانست
China
توصیف
میپر
Cr
##oes
##ites
##ators
دسترسی
محب
independ
انوا
regard
strange
انجمن
##سف
although
cast
##ویچ
مقا
آشکار
easy
doctor
largest
fair
مذه
مهند
نبرد
راهی
ببینید
meaning
king
برو
نیویورک
hy
میتر
##راح
خدمات
##ength
شیمیایی
تهیه
##inist
Great
worth
صاحب
doubt
طل
اهل
needed
waiting
##ography
toward
خشک
##ift
بهبود
Mor
نیستم
happen
er
wouldn
stra
box
##ویل
Mer
کوه
pack
جع
spent
درحالی
married
رسیدن
برگزار
expression
Mart
##AS
##arily
prim
تغییرات
جشن
##ازده
international
مشار
ترد
تکه
drink
questions
رواب
communic
Alexand
##ny
##gorithm
sal
##reed
بشر
eat
ur
##aff
تصاد
tend
##elling
مقد
share
کاملا
coun
##iverse
England
running
Ron
نرم
##ald
بط
روسیه
دندان
مرکزی
ideas
مام
##irth
Austral
انواع
بفهم
نظریه
اینه
applic
سرزمین
October
Mc
##uit
Rober
شنید
##light
piece
phil
cop
میتوانم
بج
سؤ
Where
سپت
Ol
جیم
اساسی
danger
##iant
بودهاست
polic
وسط
مسافر
##cil
##لح
تعد
سخنان
آشنا
شا
علاق
فناوری
یخ
##ett
میگویم
Apr
Int
Your
ظرف
اگرچه
wid
burn
host
##ript
Mos
municipality
آور
capital
band
##iers
chair
produced
اله
mid
تاثیر
گز
##وپ
سلام
ویژگی
##ban
loved
Emp
relationship
completely
fly
دربارهی
##ئون
##کز
بهش
horse
August
##reng
silence
terri
جدیدی
##ague
زیبایی
education
مارتین
بطور
نقشه
غم
عادی
##uf
##eal
warm
اتوم
هنری
mor
search
member
روب
خشونت
##ka
star
Are
concept
۱۱
تاریکی
amount
راستی
risk
موتور
##osoph
میگویند
سالگی
رت
##cing
region
محض
پژ
looks
fem
رودخانه
##ustom
ناخ
da
princi
روابط
ساختار
##ibly
conversation
فردا
students
##گل
ضد
گیاه
init
states
##ference
April
##کهای
goes
میزند
تجاری
نمیکنم
بلا
۱۰۰
##ev
sight
parents
##bsite
During
##وقت
آنقدر
##ازند
رادی
آقا
دفاع
۳۰
##ossible
##ero
خورده
فضا
emplo
shout
##bum
سپتامبر
##sych
برا
اندیش
ناشی
isn
عقیده
economic
source
##izing
East
ep
خواندن
##iny
deg
signific
available
رف
محکم
liter
rul
نامیده
dress
کلید
حرک
##ires
مدا
streng
code
گذر
گاز
کلیسا
##iced
جزیره
##lands
rate
##کشی
##orry
##bling
یهودی
Black
chance
الگوریت
خواهید
انگیز
nearly
نمیدانم
Sir
آو
##AT
physical
cy
acqu
figure
احترام
Cap
مبارزه
block
tit
توپ
مسائل
بگو
exec
Mont
rap
Dece
Fr
video
##go
ضعی
action
عملکرد
مفهوم
گفتگو
entered
dim
gard
تاریک
broad
ظاهرا
نویسنده
زحمت
##ify
دهید
personal
عزیزم
##my
##oid
moving
pul
افتخ
##افق
frequ
Nove
زم
شای
بدهم
parts
giving
##ification
weeks
December
November
##aud
##bert
##سکه
رفتم
demand
دروغ
##ching
سختی
##گردان
مجلس
۱۴
صدایی
هوای
emot
هرچند
فرض
wild
جنگل
crowd
##کسی
arr
travel
شنا
##iam
مأ
گفتن
جنبش
straight
##کرم
احمق
quar
فش
##oming
##omm
تهدید
mut
دلم
حیوانات
Des
اینطور
First
aud
address
groups
January
Spain
##elligence
satisf
##ghed
Islam
Most
دس
حاصل
24
clot
##رال
##لیک
version
##unk
lad
showed
clock
حکومت
slight
آفتاب
##umb
جایگز
picture
نمیکند
allow
مون
##سکی
role
کمال
likely
##aded
lady
takes
گوشت
remained
ساحل
reflect
achie
##وح
هار
رفتند
vict
کره
##چیز
اجرای
seems
algorithm
خواهر
نهاد
عملیات
واب
bound
درآورد
##لز
##atory
##ولیت
بـه
thus
##اجه
den
terror
40
##روم
closed
##isc
امور
feat
ذخ
##سن
##خاص
##atever
speed
standard
##med
2004
پیوند
played
ones
higher
صحنه
عمیق
Bab
hat
pen
موس
opport
##آم
##room
انب
police
Jean
State
لای
##lege
شانه
شادی
##ER
comfort
گسترده
raised
History
محاس
##عم
عصبانی
disp
While
Good
##elled
dam
جلب
##ises
##itor
بینی
صورتی
درخ
لحن
۲۵
شتاب
allowed
موقعی
##وران
موج
Mon
قضیه
compet
##ورش
concern
ریاضی
منح
##انگیز
مول
weak
places
machine
mad
عرو
کلا
پارک
Ang
ball
discuss
ساکت
دیگه
##ught
##ارند
##روب
color
##osition
سالم
believed
سبب
گریه
##ression
عن
##asant
##rum
total
##هایشان
موش
Republic
List
گرفتم
اعمال
##ensive
مشارکت
تاز
مکانی
et
grew
##rey
امروزه
David
President
##lim
##غان
##انیه
پهل
صبر
اقی
زا
##ـم
آنا
speaking
بهره
اصلاح
پیرمرد
اینترنت
زنگ
knows
همینطور
میدادند
discovered
spread
غرب
##ویید
slowly
employ
##rael
##بد
##اندن
Sch
terms
ژوئن
عج
##ilities
gas
disease
لحاظ
minute
lau
wait
Robert
ارد
##ئت
امنیت
حلقه
علوم
آمی
##ماف
متشکرم
threat
##کیه
شرقی
سع
##era
وظی
بیاور
دانشم
مجد
finally
##anish
##rect
22
People
##برت
میداشت
۲۰۱۰
سؤال
rose
##asion
log
changes
##ables
text
DNA
##راق
2000
General
immediately
عامل
##arlet
ادع
length
درخواست
impossible
قاب
کت
Israel
animals
##mit
##isted
production
##iety
الگوریتم
چال
##هات
آرامش
اکتبر
تسل
همهٔ
##ferences
stories
نماید
بالاتر
dru
خلق
areas
Prince
مارس
عدد
مراقبت
نگرانی
cases
اینک
مهمان
ژاپن
اهدا
##asing
سیستمهای
معروف
Party
خودمان
corner
##میر
Bel
مى
##itation
خوردن
cat
بلاف
prep
mention
##lict
شهرهای
کالسکه
##osing
chall
fellow
عادت
##وسته
Nat
##گاههای
manner
دومین
dinner
میت
##irty
مرتبط
##aled
ترین
نرماف
##hemat
خودتان
##گرم
حیر
##cia
##حیه
میدانید
distrib
شوم
تعدادی
##ione
##ux
writing
مخفی
architect
Was
Even
شرح
##بزرگ
درحالیکه
Many
Since
und
distance
سنگین
##گاری
۱۹۲
Charles
dollars
لین
popular
heat
numbers
میلیارد
تحقیقات
private
##ients
carried
##جرا
پرداز
cool
necessary
وید
2003
opt
کشاور
بای
دود
سوز
##ستن
منبع
thoughts
turning
##ویسی
glad
emer
خرد
عدم
##oles
amaz
وار
mechan
بلافاصله
##cience
cand
##ancy
دائ
پله
آشپ
منزل
According
gun
##ذی
See
##ham
حدس
final
معمولی
واس
trem
عظیم
particularly
der
hosp
زخ
conscious
James
##اتور
lips
##ریح
کانادا
excl
حالیکه
links
طرز
##ساند
Frank
George
کیلوم
##ucle
enj
جزئی
imagine
بور
docum
گروهی
ناه
##ارک
global
Feb
انقلاب
ge
shar
north
remark
Pier
نمیتوانم
Ac
سون
شنیدن
هنرم
##ari
ایوان
قلم
##ners
##ki
برایم
تیره
برم
سینه
تقاض
اشخاص
##یاط
##ails
mine
extra
بروم
cam
##رافی
##اخر
انتخابات
ایتالیا
قانونی
علی
نان
ماجرا
گران
Armen
roll
استاد
security
##ipped
خداوند
histor
رک
##اکی
معن
سلامت
##راس
نسل
difference
army
حافظه
##حان
##ـر
media
ژنرال
##lin
برسد
میدهم
دیوانه
##ایان
album
دهان
##ees
##key
depend
broken
لرز
##wh
کارها
طلا
مهاجر
ورزش
گرفتند
purpose
##چرخ
##بند
caught
باشی
complete
current
اختص
2014
عهده
Cor
wide
surface
##ایج
Two
Im
تنگ
متوق
stuff
مواجه
##باری
پوشیده
##مون
تحلیل
ورودی
پشتیبانی
قش
##iles
##yr
growing
kids
بعدها
افسر
belong
صلح
central
pp
سق
below
نشانه
##iation
عصر
##rief
oil
مطرح
##do
heavy
نوامبر
##onst
website
##field
##aries
##ماً
therefore
defin
narr
pal
breath
tar
رم
مرز
##بختی
har
میبر
expected
##امد
province
Prof
reading
##کف
##itiz
##ech
##lyde
image
filled
##ستری
strength
بکار
Roman
Bo
Fin
##زمان
##ctions
دهنده
گیری
Internet
couple
واکنش
##واری
##IS
بیل
بیمارستان
میخواند
زودتر
whisper
ful
surv
establ
بت
Paul
مستقل
اتحادی
billion
resour
پیوسته
emb
silent
spirit
kiss
نمیدانست
پری
forget
##داد
##istry
مادام
anx
trust
##teen
pleasure
بفر
opin
23
Vol
##فاظ
دسامبر
ضرب
چر
##astic
پژوه
Ma
محک
steps
آفریقا
اصطلاح
جین
کرب
##vision
consum
##اتیک
needs
مات
تمرکز
دولتی
birth
مهمی
هدایت
original
mill
##ria
اعتق
تجارت
ess
آوی
میخواستم
bear
##olf
software
##میون
ساختن
##erve
tears
دمو
directly
multip
متوقف
ضمن
##اشته
possess
##الهای
میگیرند
بشن
prevent
مراسم
related
magn
symp
##ivity
enjoy
خواهش
check
اپ
hous
شکار
Pers
بابا
talked
ارباب
School
عی
ought
##کده
##alys
##amb
Win
اواخر
مقاومت
joy
guess
##طوری
راحتی
##انسکی
افتخار
۱۹۱
##کنندگان
rich
ندیده
نوشتن
Come
shut
pock
فرستاد
##ellow
تواند
فوتبال
پدید
certainly
##امون
generally
جلوگیری
بدهید
جوانی
##وئ
دشمن
interesting
آسان
کمپ
culture
pray
aver
برنده
forces
خواند
sky
اقیانوس
##gypt
structure
Pri
##ether
Ste
محافظ
عصبی
Febru
صورتش
grad
##شنبه
نزدیکی
transl
learning
Kh
##هائی
greater
February
cho
strugg
ریش
محبت
چراغ
Ivan
skin
آگاه
##ادار
evidence
condition
ذخیره
fat
خال
۲۰۱۱
trouble
دارو
everybody
چشمانش
هواپیما
##وسی
باره
شلو
بره
select
##ounds
بیچ
described
سرطان
shad
freed
Pierre
Mel
نمیخواه
##قین
همواره
prince
bright
آمدن
مقدس
رمز
##گذشت
##roy
Reg
occup
##olly
designed
احتمالا
توزی
save
languages
##agr
rain
نباشد
##for
گردش
airport
##axim
Dem
##یاس
Canada
tradition
##فرو
##arc
Other
##ager
گناه
مختل
direction
مأم
##گذار
Egypt
##abor
قبلا
برآورد
مجله
##zer
##eration
میی
نداد
گردن
##بیت
Arch
بپر
نگ
##حیح
capt
##خر
Ital
forgot
Clyde
sick
ability
2002
متوس
پرچ
فردی
plant
پییر
bird
قا
Ros
center
امپر
iron
میماند
events
##inc
##ney
understood
whatever
غرق
companies
مض
پد
قهوه
Herm
##come
Kar
190
boys
powerful
##نوعی
station
حالتی
##udd
تس
حذ
##hest
##urd
leaving
وای
سوخت
شار
##ils
gaz
##ویا
hardly
معنای
شاهد
شوهرش
سایت
suppose
##ores
according
##pha
delight
firm
foreign
Port
زرد
reach
##خواهی
electric
measure
baby
Did
##سیل
نامهای
##MD
Our
راس
cancer
##inated
##rov
##aste
##وزه
سخنرانی
ناراحتی
summer
Jack
meeting
##oo
##aped
rid
بهداشت
results
##useum
Fil
##ios
situation
##حل
##bles
##یید
##now
Martin
##book
##za
معتقد
آوریل
arrived
سالن
اکثر
تار
##asons
deb
playing
شف
منطق
hall
ناد
درختان
توزیع
زندانی
particip
absol
اید
تدری
Dep
Somet
چشمهای
##iqu
نتایج
south
##king
گیرد
##ائی
داشتیم
سوئ
نیرو
##ping
telling
نوز
formed
وحشی
جادو
حفاظ
provide
Scarlet
نیا
##wise
ign
ناز
##شو
صنعت
huge
neck
##apers
انداخته
حکم
میکنه
آوردن
تاریخی
##مم
worse
Only
follow
معماری
conduct
گام
arran
track
paint
##imately
۲۰۱۲
drive
جایگزین
کردی
کنج
برقرار
##ـد
##chen
fright
Act
میبایست
Bu
2015
fool
لغ
تای
##ـن
اوایل
پرست
تأسیس
باران
##order
Mich
دادگاه
شغل
۵۰
راز
نمیده
قرارد
##وذ
##کها
گفتند
listen
سیل
page
شرق
استرالیا
laughed
happens
marriage
مبل
بماند
##hib
درهم
مدرن
نژ
شهرو
behavior
Dor
مشهور
Sim
dog
الکتری
شدیم
Hum
battle
اعتقاد
فیزیکی
میگردد
##oted
stage
روزهای
psych
ژانویه
تال
تنظیم
Union
clean
ضعیف
##ateg
تردید
توجهی
miles
کارت
desire
مخالف
ریز
##oring
Trans
garden
References
watching
Gree
site
##craft
2001
زاده
##vert
##هام
دسترس
ترجی
الع
announced
شمار
##آل
مجسم
اروپ
##راحت
autom
سایه
##ذیری
##oses
##orthern
Instit
walking
covered
چنگ
##شتی
##ماس
##aker
ادوارد
range
##ming
##tt
##ریت
placed
##alt
##لین
میداند
indic
اتم
مسابقه
names
##قان
##ancing
Japanese
بکند
سرو
##AR
##eter
protect
safe
سلولهای
buy
Scarlett
House
implement
happiness
تماس
مانع
medical
Red
custom
بری
thousands
faith
##غم
مطلب
گردد
میپرد
Bro
فن
قتل
کتابخانه
connect
mix
##رض
attract
court
##alysis
##bel
##aked
sad
##بهای
نگهداری
خُ
##een
thick
aftern
شیوه
قدری
احتیاج
universe
ارز
شناسایی
پیروزی
deliver
points
برن
farm
فانی
##outhern
smiled
loss
##یستی
وظیفه
citiz
planet
27
meas
cloud
require
انسانها
cities
sorry
سالها
board
برنامههای
Cont
##میل
##باشند
حتماً
gather
##زابت
##راج
van
reality
زنج
محت
harm
ایز
مذهبی
گرچه
خوانده
required
میشناس
آدمی
none
هرمیون
اندیشه
تنهایی
اونجا
remain
beg
##using
decision
روید
novel
زودی
بدتر
مادرم
ارتفاع
دشوار
ver
جرم
میزن
established
Look
آید
تکیه
آرامی
ماریا
تگز
نفت
Cast
Ira
##ونم
ژوئی
اتومبیل
روند
محق
holding
susp
هزاران
nice
بران
کردهام
آپ
quant
##فاوتی
circum
Indian
همسرش
##ray
prec
served
easily
میافتد
Bill
مطمئ
میگذشت
leaders
ترجیح
Hen
nucle
neither
Their
نمیخواست
Spanish
services
##oved
Although
External
##like
watched
قطعه
micro
هل
##ico
قیافه
##rated
##ورن
Christian
مرتب
hung
##cend
labor
نرمافزار
##cos
thin
increase
حیات
growth
##العاده
##ilies
کوچه
please
forced
الف
usual
letters
فرهنگی
محبوب
Er
lack
پلا
همزمان
shown
##apt
روشهای
Cam
##iot
##ورند
80
More
stre
presence
احتمالاً
struck
میکشد
fresh
دستهای
ملت
قیاف
مسئول
تگزاس
Gl
##عکس
##omy
##istics
Lu
##lt
ممکنه
رهبری
Russia
بگذارید
repeated
##ael
Edward
##ES
منظورم
fixed
##onse
نظام
##فش
understanding
virt
##گس
کارش
سیاره
آهن
نفوذ
types
Iraq
علامت
معد
سلط
##هیی
منو
chief
آشپز
آست
##set
##leg
Thom
interested
rapid
TV
ثانیه
نداشتند
اخلاقی
nine
normal
##رنگ
stone
محس
مجاز
میگذاشت
ourselves
forms
عقل
منتقل
##گانی
خودرو
marry
industry
حیرت
لکن
##ris
contrib
chemical
عمو
ریشه
##انده
شرم
regular
ناپدید
Glo
paid
lie
Stud
اِما
وجه
##reg
پوشش
##ایز
گذاری
ریخت
فیزیک
hun
ردی
##بو
inj
گرس
dut
تأیید
beside
empty
finished
organization
shot
pattern
programm
بندی
##ingu
uses
produce
administ
بول
##lier
shop
تولد
##AN
drew
resist
drawing
##oned
بدم
appl
شناخت
##och
humans
لطف
26
sequ
lock
پیشبینی
serious
رسان
##غیر
broke
اختر
##کول
##ena
scr
extrem
leading
##rons
benef
faces
##ider
##idden
##aching
involved
خُب
قهرمان
کاش
##ریب
maint
درمی
surround
بکنم
##ij
sweet
Lou
##ازیم
##anta
##خصص
##rian
spend
##rial
##الیایی
۲۰۰۹
خرج
متحد
Dist
river
##bing
اوت
White
##قابل
##ancial
نقاط
favor
##osophy
قبلی
insp
کنجکا
تض
مثبت
وزیر
کیت
قبلاً
Que
vir
فوریه
##ختی
اندوه
Park
conditions
وابسته
حذف
gets
ناحیه
legs
clothes
میری
میدانی
میبینید
CO
inqu
terrible
obl
##فع
##تیک
realized
بیند
۲۰۰۸
influence
opportunity
Italian
حادث
##overn
زو
ther
##rig
conflict
effic
Like
کیلومتر
lines
نگریست
note
دیدار
مهمترین
یافتن
afternoon
ستون
گوشه
bottom
average
fro
رض
##وشی
امیدوارم
pan
گور
##حم
##iving
Saint
دزد
freedom
##AC
improve
Book
اصول
##ندهای
برویم
Inter
پادشاه
Op
notice
بزنم
od
نوری
compl
نظرم
Rich
bal
##cher
##دهم
lean
pale
آندره
يك
متأ
speech
آواز
عذ
gentleman
thank
Afgh
گونا
Dar
inte
##کاران
189
ایستگاه
فهمید
الیزابت
بیچاره
progress
teeth
scale
##جایی
پیوست
bod
Coun
##گا
خاکستری
بص
کالی
##oking
ملل
آلی
بمان
##aign
approach
William
animal
##iforn
##شتر
افغان
##inese
sac
بیه
ویکی
پیچید
Rec
walls
Father
پاید
متصل
throughout
Day
عرب
##isions
train
Peter
target
خشن
Mil
دفعه
reve
تصا
ادبی
corr
کودکی
##ufact
##atin
دادیم
میساخت
pun
##شای
##viet
##vey
تاکنون
نظرش
مصر
mathemat
pressure
Ter
neur
امتی
غذایی
محصولات
observed
##wood
instit
نمیداد
religious
فضایی
High
hors
explain
ژوئیه
سراغ
فکری
مصنوعی
reported
TED
commer
church
content
اتحادیه
60
Western
کـه
متولد
commun
ended
African
جیمز
Mat
Mod
آنرا
blind
Rev
##ashion
ملاح
آزار
بومی
System
رمان
لم
##iber
##ola
symb
studies
fingers
message
##روس
شعر
conce
اوست
پدرم
28
fle
larger
advant
response
چاق
Australia
میرفتند
liber
##اقع
Levin
stars
رقابت
performance
##cean
Law
Mac
دلی
asking
caused
Je
cru
آشن
##onia
LF
##icles
Italy
knowing
beauty
practice
Chinese
boat
میگفتند
cred
mir
##odd
mole
print
active
vari
دیم
پاره
lift
##زارت
Californ
آمیز
weight
ببرد
مهارت
##EC
جفت
##edia
Soviet
trade
##اشا
چهارم
opinion
##ground
دربار
liked
##iano
families
یقین
آمدند
##how
مینگریست
destroy
online
##ago
laid
Ye
##uous
##رائیل
##well
حرفی
تابستان
مؤس
ren
Ben
Cong
مقر
بارها
##برداری
Govern
طن
feed
میفهم
موهای
passion
Flor
منص
بیفت
محمد
clim
رساند
میزدند
Sal
##ailed
دختران
increased
Nor
چسب
راضی
Afghan
زور
graph
دوستی
کشیدن
اضطر
چای
##ير
consequ
Swed
touch
luck
##تس
stick
plain
California
راهنم
included
treatment
Mal
##ریزی
شکلی
##night
##antic
##lor
درگیر
نداشتم
Muslim
Fred
obv
television
##osite
متوسط
hang
خلاف
گند
##وخت
پنجاه
medic
تصاویر
##ET
همگی
مهربان
activity
Kore
tall
##نیا
مقاله
Mo
##the
##آید
##agon
دخترک
بگیرید
##بخش
سربازان
##ـا
##kn
تحق
gives
حدی
##rate
##kay
choice
ترجمه
##ait
##ینو
noticed
تمایل
##زیک
اطلاعاتی
وص
بازیکن
پایگاه
coff
توانیم
youth
امشب
##onel
وام
Hermione
assum
degree
قابلیت
east
جستجو
##اوی
##ضاع
##هنگ
قربانی
خواهی
Turk
تلویزیون
bran
lying
##ساز
بافت
پیراه
پولی
##izations
ادعا
دخت
##لات
##zen
##لیام
relat
بگذارد
میبینم
فرزندان
عراق
shows
وزن
سوراخ
حفاظت
fit
کوش
##isters
توقف
##OS
remembered
صحیح
##ئه
دونم
نکند
پتر
synt
purs
##aur
beat
##ناکی
ریاست
تمرین
خوشبخت
president
management
Sun
نفرت
واض
نواز
کربن
tro
tone
tax
wit
wand
قضا
كن
##ارو
##cho
##anda
تابع
scientific
##ini
horses
جون
دوازده
laws
فرستاده
Madame
journal
Mu
manufact
##IN
پرتاب
Music
وزارت
##eles
##acing
CA
Po
gall
ظهر
Another
Mosc
seat
دخ
سالی
کشورها
disappear
Jo
older
Ro
rule
##اتوری
ancient
##ips
Den
چنانکه
الکتریکی
Its
شکسته
۲۰۱۳
includes
۲۴
exch
گفتی
successful
گروههای
defined
آرزو
الم
Wind
ru
##ón
هیچکس
turns
آت
shape
impact
اختصاص
باب
alive
میخند
نرخ
کنن
مالک
quality
لهستان
مردمی
supposed
equal
ببینیم
ox
##house
استد
lose
##roud
##برتا
عجیبی
اعتراف
شوروی
مختلفی
houses
500
گیت
##غر
نابود
Roy
catch
باند
##11
haven
دانشجوی
معمولا
journey
Fro
career
positive
##کید
##50
##ردی
kit
##ship
##مانه
##انداز
بردن
Grand
fashion
##ville
tea
خراب
الکترونی
card
##ms
##aimed
fal
آرا
##یشده
کوچکتر
pull
intelligence
سیر
رسیدند
stock
توانید
##gged
eventually
مهندسی
منفی
پرورش
تسلیم
Each
بیایید
wants
جورج
##gu
##کب
لحنی
ناهار
##جیت
##برگ
صدایش
صفح
برگز
spect
somebody
بهت
##reme
اسرائیل
##berg
##نوشت
Hel
##asy
libr
affect
pocket
##burg
بعنوان
اعتراض
محکوم
UN
hit
introduced
Profess
loud
ring
##itable
۲۰۰۶
occasion
##oured
potential
Jac
Bi
##olved
Women
appar
desert
فلور
base
##BC
جانب
فعالیتهای
تونی
forth
Church
circ
گونههای
##روز
##asha
rise
دقیقا
اسلامی
guard
بگیرند
aim
reasons
سپاس
وسایل
Poland
surprise
منف
wis
angry
##IV
گش
یور
##aging
تأمین
خبری
بکشد
##قیب
مثلا
policy
آک
عف
یو
##انا
موزه
interp
violence
bul
features
Inst
ضربه
Wil
نهایی
سنتی
associated
رأ
استی
##utely
helped
تریسی
vac
##arian
Cour
##umbled
سیگن
آلود
کلیسای
assist
property
hospital
park
Lar
##rain
Institute
##یتری
میلرز
بتوانند
صندوق
سقوط
Moscow
Sol
##روی
saf
افزود
محاسبه
wished
season
مسلمان
significant
##enge
اونا
Anna
محسوب
##ani
hurt
circumst
پرده
##ounded
گنج
##rawn
bag
rank
##یه
feelings
حاضرین
امتحان
Fed
##nes
##پار
shock
soldiers
نبودند
putting
earlier
تفکر
##خیر
thro
suc
گره
spite
اشتراک
entirely
۲۱
اشیا
جس
چینی
price
appearance
کشاورزی
Middle
##ابری
recover
قطار
Global
شویم
##وای
Prov
edge
##esp
listening
##acity
۲۰۰۰
Mark
شوید
dry
چهرهاش
##atab
finding
estim
##iliar
yellow
بذ
دستگیر
29
بدهند
جیب
pulled
رضایت
Over
eth
fish
کاپ
باشگاه
مطالعات
Iranian
دیجیت
##ension
economy
ضبط
aware
goal
زبانهای
elements
اهداف
west
دستم
famous
هتل
##pper
ترانه
##کوب
کارخانه
جذب
issue
##pected
succeed
Sil
store
دای
وج
##وایی
Spe
بازیهای
دعا
نشن
درم
روزها
solution
مییابد
becomes
رسانه
##lebr
پسرش
release
امتیاز
greatest
استخوان
فراوان
revolution
female
resources
##نداشت
##oken
سوء
flat
dropped
Emma
title
روشنایی
Mag
Offic
هج
شمش
ice
democr
آفر
رؤ
رست
##ashed
بپرد
##فیق
ملکه
Lib
ربرتا
##tering
مسکو
Associ
issues
carbon
silver
##under
##ـت
میاد
noise
ورز
connected
escape
alt
فرق
مصاح
متعلق
چارلز
آذ
Str
آمریکای
۲۰۰۷
player
Gm
##الو
۲۰۰۵
stret
##رایی
خلاصه
IMD
دما
Andrew
smiling
motion
rules
Ev
استق
سرت
ارزی
جمعی
بیشترین
objects
تماشاگران
Jer
جغ
##دیه
##ittee
Def
typically
##olic
لر
tom
prote
correct
دوربین
ایرانی
واژه
continue
##CA
Society
کیفیت
spot
مسک
apart
عجله
عرضه
##ithe
style
میروند
Ke
شباه
financial
تلویزیونی
race
##ste
grass
Prin
مسیحی
predict
streets
شرط
calm
##ydro
honor
religion
میکردیم
univers
adop
حسابی
##ID
مییافت
stream
wealth
دیدگاه
independent
افغانستان
Life
OK
##لیغ
sport
darkness
bell
میافتاد
محافظت
##مر
نگاهش
phone
Av
inform
Pat
Serv
صاف
گاو
web
فوقالعاده
Council
متعد
Any
دریاچه
legal
لیست
agree
##بورگ
electron
مثلاً
joined
آغوش
buildings
زمز
##back
نبوده
starting
میخواهید
اینترنتی
Center
ناس
##صاب
leaves
صنعتی
صفر
##گزار
بخاطر
۲۰۱۴
generation
یادداشت
صادر
اوضاع
incred
campaign
##erous
##aches
اندام
کالیفر
sand
یابد
##ih
##hold
Dan
سازد
images
تکامل
officer
ایمان
برجسته
جذاب
##oked
##ensis
Never
##ura
کارگر
معادل
جعبه
Hall
دیوید
fields
existence
کوتاهی
ایتالیایی
laughing
club
سیگار
breast
خن
instance
استرات
interview
خطرناک
encour
روحی
بچههای
Gmina
coat
article
فرمانده
honest
Men
date
سنج
مسابقات
مقداری
Army
patients
values
##دیا
##پرد
عمد
shoulder
opposite
radio
امپ
IMDb
شجا
##umn
1999
offered
##rance
انتهای
مسیح
uncle
بگیرم
dance
بهتری
بودی
Maybe
جستجوی
##mn
##zy
burst
Have
شاع
پید
##ulated
رنگی
approx
لبخندی
Best
island
مناس
Step
grown
sounds
Central
##ینز
dread
##دل
##دایی
kitchen
becoming
##منی
poet
pair
غی
##igned
امضا
founded
##upid
magic
taught
##cles
##arsh
آدمها
games
رخت
یادگیری
cheek
Off
مگی
##idae
برف
فقیر
##ike
##hab
ناچار
perm
چالش
match
##ords
پزشک
Bul
focus
حیاط
دبیر
سلاح
معلم
instant
Techn
نموده
twice
ویلیام
##aval
Island
ویکیپ
چک
Imp
du
شانس
صدها
اختلاف
uns
effects
##گویی
##ریش
onto
منطقی
بیماران
achieve
نادر
بخو
کارم
تبلیغ
خوی
##iana
contact
fighting
##ارا
Social
همانند
smaller
مسئولیت
avoid
##nam
واضح
##MS
evil
راستش
listened
۴۰
کارگران
spring
square
نع
##ارید
weap
shook
ابراز
fol
ye
nobody
happening
##gers
##پوش
Bank
##بههای
wear
pet
rub
نما
##اهیم
suggest
bodies
31
Met
فدر
بیاورد
موجودات
Cat
pa
##لر
##مانده
nose
models
determined
نده
##anned
مفید
award
غذای
Che
رام
training
perfectly
heaven
habit
somewhere
choose
dust
tiny
مرغ
ویت
نشون
دوستش
products
file
##aling
##راسی
میگشت
highest
احساسی
همدیگر
provided
windows
Jane
ult
حاک
sources
کوز
##ینا
مینش
شرکتهای
Mex
##کوپ
والدین
چیه
argum
Thomas
Old
Sat
عظ
##اریم
patient
اعداد
##گرایی
charge
اثبات
Green
Gold
بروند
عنا
heads
وم
##مده
##ستون
همس
Jul
هرد
##رافت
unf
##ros
shoulders
شورای
pieces
previous
Journ
task
خج
دوی
##IT
میدون
شیشه
Three
enemy
##ults
##صال
##anted
استقل
reaction
دارن
Once
Ap
##enced
tow
mob
oblig
Long
کاب
##ushing
##ours
##icide
recent
calcul
recognized
counter
پرچم
##غه
یکسان
analysis
ماست
آدمهای
basic
individuals
Up
##بیا
##خورده
تونم
ble
شبه
##حافظ
cars
Asia
کتابهای
##ube
student
gate
ساب
كرد
هول
tools
reb
بازبین
interact
slightly
خودکشی
scene
temperature
Department
Rome
eld
##ye
##sec
controll
طلایی
الهام
##iance
celebr
Human
mel
transform
levels
دانشمندان
kid
materials
sin
گرگ
Professor
Braz
جسم
##urb
##ویسد
advantage
rout
نظیر
جوانان
بحران
rough
tired
متغیر
depart
murder
integr
بازبینیشده
سادگی
##طیل
بگیریم
عربی
multiple
Cons
##eror
shoot
compon
نگفت
متخصص
ثروت
شکن
قالب
##ologies
خطوط
برادرش
حرارت
استقلال
proud
جنگی
##فور
میفر
##lying
fully
1991
Before
changing
ژاپنی
##leep
highly
نداریم
Minister
Nap
سرنوشت
Tracy
میتوانستم
mostly
amazing
ارزیابی
god
##ading
altern
limited
##board
concent
۲۰۱۵
##apped
نیمی
Eup
Jose
cart
سقف
بازیگر
چشمش
##بس
##rif
passing
منطقهٔ
محدودیت
methods
separate
ladies
##MA
میانه
##erc
دلایل
Perhaps
surprised
##اکر
ناپل
hundreds
متفاوتی
hom
بام
investig
Michael
استراتژی
nerv
##gent
##اکس
appoint
بخاری
ناتاشا
fed
دادههای
##hens
فریب
##icked
merely
##خود
##ads
une
نقط
carriage
Prot
حرکات
nation
معرض
agreed
ماریوس
روستا
afterwards
mal
پش
##گوی
##یدان
اصرار
flag
Atl
خداحافظ
خواسته
Yet
پهن
سرگرم
لذا
ذکر
showing
respond
نوک
diss
تصو
element
العاده
Science
snow
۲۲
extremely
currently
Louis
commercial
صاد
##أت
انع
##azine
occurred
متمرکز
Bor
قبیل
aspect
نشود
screen
گیاهان
استدلال
River
Under
جک
##اتل
مواف
ناگهانی
suffering
ordered
solar
قلعه
1998
transport
آزمایشگاه
wonderful
##cast
org
prefer
وحشتناک
Brazil
male
sole
پرنده
ترور
میآیند
useful
##انتین
پژوهش
rat
shared
نوج
خورشیدی
Frodo
Tod
درنگ
familiar
مبتلا
##78
##ulations
clearly
##بازی
##amond
##emic
##زیه
##کساند
شوخی
##IC
##آب
میباشند
کاربر
moon
اروپایی
دختری
Bet
Derv
Sen
زدم
##cies
user
drag
رهبر
newsp
مسکونی
Elect
خاطرات
هیئت
Est
##aming
روم
ارسال
##کام
hadn
adj
##داران
اینگونه
##ulate
allows
نمون
belief
kinds
receive
Award
هید
مقدم
احتیاط
دستهایش
ندا
##lov
188
transfer
پایش
پذیرفت
نای
lif
##لوب
evolution
winter
critic
dangerous
انف
forgotten
##زای
##isis
برز
##igr
subst
جلوه
حواس
تز
worry
##ogle
##ظاه
react
میشوم
مشتری
##elve
rooms
District
rail
دره
##ونها
stupid
##ems
سرویس
amb
excited
Us
کـ
##vely
Ash
درستی
آموزشی
citizens
##ias
هزین
خندید
##ona
کالیفرنیا
thirty
frame
۲۰۰۳
Smith
trib
شلیک
##ensus
constit
تالار
Gal
hate
##ties
##inate
هماه
vision
connection
زخم
دیمیتری
##known
cup
dressed
هویت
##ii
##ements
knock
flight
186
داغ
نـ
instruct
pictures
Dervish
gal
##ois
کارل
chest
ahead
mort
sell
##erson
تئوری
Islamic
opening
device
##وییم
forest
روغ
توافق
بگویید
contract
responsible
امپراتوری
##سیک
##pping
##ومه
ویروس
پروتئین
Latin
کول
##ription
ens
پیرامون
Association
Net
UK
آگاهی
شهرت
ساکن
income
اتحاد
آشپزخانه
##illing
پیتر
document
sides
##uing
##اهد
##iring
سرس
چهل
spl
نتوانست
accepted
sch
##IP
مخالفت
نصف
قرارداد
جال
##جار
##ache
پیشانی
فرودو
majority
بخواهد
روبرو
##urt
قدیم
میسازد
perce
برخلاف
Sund
اینکار
##عهد
Henry
spoken
roof
Second
##cel
خانهی
تفنگ
Film
coast
Group
drawn
پرونده
distinct
بمب
عالم
Kingdom
فلسفه
بوت
فایل
##ais
##سهای
weather
dism
remind
شراب
mental
##عف
تحسین
زمزمه
##lock
flu
failed
Official
pure
##جنس
##erable
charm
artist
schools
میانداخت
##يز
مقیاس
بنیاد
##andom
##العمل
scientists
دگر
##ga
intended
calling
تصادفی
administr
Ox
زانو
plants
##itty
guy
waited
رایج
scream
digital
##fl
##gate
ازش
users
نمایان
وبگاه
hast
Google
ثروتمند
##uls
##illa
anybody
##ext
هیچوقت
smart
پروفس
prior
sem
##ovna
experiment
programs
Research
نصب
ain
یونی
##mar
##abeth
ears
shouted
math
رید
operation
جزئیات
32
میروم
sexual
پال
##rees
hearing
بازسازی
بوس
##امید
tight
##agement
recently
اختراع
بروید
اسلام
2016
##ocol
demonst
College
نژاد
Richard
brief
کج
##امع
همون
Greek
IP
##off
##erella
##نجی
نیازی
directed
films
اختلال
۶۰
باکتری
کردید
Organ
ویژگیهای
استراحت
##uries
فهمیدم
victim
Royal
##ithecia
Mount
##غام
##ناطی
ورانسکی
تجزیه
خلاق
Eupithecia
کهنه
اتصال
beneath
موافقت
threw
هنرمند
duty
##نویسی
نخواهم
شـ
میج
double
حادثه
witness
hole
نرو
##met
Those
علف
explained
odd
Far
##ding
brown
referred
bill
##ئور
بروز
اوج
درخشان
Dire
TH
##حق
##کتور
ارتباطات
زمستان
drop
##میزی
عمده
میخواهی
یادم
پائین
بستگی
Sometimes
90
کامی
managed
plat
smell
چشمهایش
سهم
theor
##otes
observ
proposed
cultural
Acad
گوناگون
##enes
##othe
کاربران
آمار
۱۹۰
شیطان
refuge
neighbor
بدر
##بوع
fold
hell
تیز
درویش
##liament
رتبه
unless
تقویت
Marius
whispered
Out
cab
1996
میخواهند
pleased
Nothing
##ویب
انح
##اسف
climate
Rad
eager
hide
worst
شیط
##طرف
روس
consist
۲۰۰۴
##قب
##ریه
اسرار
unknown
shadow
Very
##ئید
##ef
##icious
##اما
##entially
زمینی
عوامل
##atabase
ترکیه
شمشیر
join
خواننده
پرسش
sen
سنگی
نماینده
##نایی
matters
studied
possibly
construct
نمیکنند
##وهی
ash
contains
Company
Windows
شباهت
پروفسور
wave
##terday
tong
فوری
stared
##estic
##alled
اندک
applications
veh
carefully
mentioned
interrupt
روستایی
هیت
alarm
parties
flow
organizations
تان
##مار
##wide
##izabeth
Also
leader
Afghanistan
لن
##ishment
##ception
اقامت
presented
bought
gar
Today
##more
روت
نماد
##یلد
مشاور
Micro
##یی
##لاند
درگذشت
خوشم
میترسید
##آموز
traditional
صادق
tour
##ida
خطی
واژ
بوسی
فرمول
سوریه
##لاین
همد
##جاوز
تصویب
ذهنش
ممنوع
لع
notes
تعلق
hyp
proceed
اراده
Sl
دانست
مخاط
settled
false
Py
نگذ
##atives
##اندازی
unit
##ampions
##ابند
pros
##cip
مشکلی
orders
picked
coffee
vast
۲۳
##rical
##نظر
accident
دریای
fifty
##ulous
دادهها
instrum
اهمی
اسن
##athy
حضرت
پردازش
exclaimed
حین
signal
##anding
غیرقابل
##گردد
Revolution
wine
بکش
stated
Journal
voices
تمیز
##گرفته
هرگاه
نهاده
بخوان
پیراهن
library
hidden
##II
##izes
1994
##نشین
اضطراب
Hell
##ita
Carl
Vo
##isl
##داً
نامزد
Mycos
مسلح
مهاجرت
##phaerella
بوسیله
Mycosphaerella
Thus
football
##ynam
map
حش
##nik
الگو
Street
ریخته
architecture
##ston
convin
Captain
prepared
##10
استعداد
مزر
absolutely
##کدام
##olid
##افل
moments
خانوادگی
millions
Cos
soci
##aza
پادشاهی
application
۸۰
استث
هما
##lymp
doors
fourth
۱۹۹۰
effective
دقیقاً
تئاتر
Es
Ty
##eds
بهم
نظارت
نیازمند
##anny
اجتماع
امپرا
Love
آگ
enorm
developing
شیرین
Del
lies
##kin
##یشوت
compar
جایگاه
sharp
##عده
##erved
متهم
دخترش
بنگ
کاز
remains
گیج
خوشش
لیکن
هوشمند
پایدار
rang
##DP
خوشی
glance
advent
##fortun
ناپلئون
70
Ham
Rel
بلندی
workers
construction
moral
dying
lin
لرد
##ّا
وقوع
پیکر
performed
سرمایهگذاری
suggested
##جویی
##estival
excell
ید
##ارها
aren
Bur
Sud
تجه
compared
##ulture
کمیته
confess
commonly
Rem
لاس
##ارن
##osh
برداشته
hes
##شک
میدهیم
director
operating
لایه
##fast
sust
میشناخت
مطل
1995
keeping
Olymp
تعطیل
مراج
bread
appears
flying
مؤسسه
##ba
امنی
functions
ضروری
اعد
##iration
مدتها
خشمگین
Cas
برگرداند
##تیکی
میزنم
Franc
##annel
قضاوت
Big
Such
نیش
##هران
فقر
کنندگان
causes
crack
About
Both
مذاکر
ریچ
انبار
crim
قدرتمند
1997
خز
shame
غریب
faster
##ورا
capacity
Pak
Tell
شکر
##rary
جناب
میدانند
اشتیا
gentlemen
##زاری
برتر
میخوام
earn
realize
فدرال
Fam
Museum
##ault
##omer
##لاق
بیح
نوش
##bre
##فکر
##۰۰۰
##espond
rot
quarter
Work
##AP
خطا
capable
پذیرایی
مخصوصا
خروجی
##stein
Econom
Little
unable
minim
سید
توم
lit
شتر
##سیر
trick
professional
##ta
##ava
تقد
devices
promise
creating
activities
تجهیز
بهع
recomm
نگهبان
مرتبه
توصیه
صلی
بالات
nuclear
##gely
یونانی
لز
serve
پدیده
##aria
هسته
crisis
کریس
tender
Natasha
کمتری
##مینی
justice
اخبار
رایانه
ton
##osen
تحریک
شنیدم
خوشحالی
پذیرفته
review
##ender
خلی
توانند
mission
باه
##ادله
gray
extraord
عاق
##rier
sav
بعداً
ویکیپدیا
##mark
کارهایی
میدانیم
همکار
quietly
Pre
latter
پین
یکه
##وشا
بستر
پورت
##chers
##ieur
رویش
پرید
otherwise
aircraft
Sn
چگون
##ایلی
##usted
بداند
مینو
1986
officers
ایمنی
communication
Camp
##ـی
Force
##EE
##ایشی
لباسهای
جلسه
نکنید
ظاهراً
بتون
teach
بتوانیم
Congress
روغن
##FA
##البا
waste
asleep
qual
experien
##bridge
اخلاق
carrying
##ker
Jewish
Free
Sur
poll
##کاس
حقیقی
پانزده
سیگنال
Pav
##urally
everywhere
زنها
جوامع
خطاب
جمعآوری
##isms
اندازهگیری
Ob
ow
درش
##acle
پروژ
بودهاند
مبادا
لهوین
mountain
رویداد
Sar
فول
کاست
##atus
پیشین
35
تهران
خواهرش
pointed
قسمتی
رع
##vest
##iform
removed
rising
ho
##نیکف
اسکن
میکنن
نوار
میخواهیم
##اتا
امواج
شکم
simpl
تخم
دیروز
##cript
میدانستم
##ارف
##ano
poly
Star
میآمدند
نحوی
Washing
circumstances
آدر
##وچ
somehow
بنیان
finger
تصویری
فرس
سرزنش
کنگر
wearing
shel
importance
Dis
HIV
Times
horr
باستان
موافق
audience
furn
دوچرخ
##ogether
willing
##angl
استخدام
اشکال
غالبا
لری
##alog
##ومند
laun
نحوه
acquaint
begun
وف
##کشان
##orter
اینست
distingu
1990
driving
applied
کثی
##itated
##onsieur
seconds
falling
dreams
متأسف
Lyd
یل
##ON
bridge
گوری
##ثا
مشتاق
drug
Washington
کیتی
suffer
Open
##20
suicide
متاسف
کوچکترین
attacks
فارغ
challenge
Turkish
رفیق
یکبار
flowers
گوشهای
##iar
عرق
باریک
مقامات
##vention
stro
بشه
بخشهای
Napole
##omys
آنهایی
##unn
نمیش
creature
variety
optim
CP
Sing
##ctors
افکند
پاپ
تکنیک
اردو
دادهاند
کفش
Province
Mother
Sub
bow
##iments
engineering
narrow
میدر
university
فکرش
داستانهای
بتوانم
قلبش
جرأت
distribution
بوجود
اثری
##چسب
##قر
##وسف
تحقیر
Napoleon
##خوان
input
##astern
اسید
brand
2017
refused
pleasant
گشود
context
wondered
primary
##گرا
##umped
persu
detect
drove
Ret
Wood
hydro
papers
سند
فیلمها
مجموعهای
##mas
##pet
استن
stir
asse
unh
تصادف
دلیلی
۲۷
##iently
##ظهر
فراتر
دهانش
دامن
originally
##olas
محو
##ipe
##lets
tells
tor
resear
descend
اسلحه
Los
##ulf
بازدید
Right
طاق
##ls
##omin
آسیا
touched
critical
تپه
تظاه
غول
##iest
فیلمهای
حوزه
##enth
appre
سهام
##porary
yesterday
zero
لیز
میمان
##umber
CD
Nations
pity
غروب
فاج
##نظ
##reement
##amber
stairs
Office
آیند
کاخ
sake
twelve
ends
signed
collection
closer
کلاسیک
bacter
وود
وقتیکه
crime
Ann
confir
غرور
۱۹۸۰
چگونگی
vent
##ادهاش
fallen
Elizabeth
utter
ردیف
سرور
accomp
III
##امله
dogs
constant
موی
##OR
##پل
contain
برزیل
36
##کراسی
روشی
##osis
تقاضا
platform
تماشای
بایست
##طبی
tool
##idents
میگذارد
AS
##onn
Time
بهر
امّا
##atherine
تعادل
دروازه
300
##eping
##يل
فعلی
philosophy
##bor
##yal
مقال
مطلق
expressed
فروشگاه
aston
گوید
administrative
##آیند
exerc
روزانه
widely
اهمیتی
##خدم
تعقیب
bitter
Democr
شهروندان
##la
##پس
incl
aband
##ههایش
painting
اعدام
باقیم
##یمن
##arts
##داک
##بخشید
reply
innov
جایش
Stu
اسمش
سوئد
correspond
cous
ادم
##bits
##rim
##هاي
aside
basis
ذهنی
murm
Empire
مجدد
##jean
##ua
مخلو
هیدرو
Jim
random
نیکل
projects
پلهها
کنجکاوی
سپاسگزار
45
روانی
##alls
chosen
anywhere
تجدید
ترکیبی
کجاست
مگ
##va
storm
بدبختی
##پیک
visual
advanced
سلامتی
بیفتد
##رویی
##omic
##لاک
News
Charl
قفل
##شمار
جنایت
بدهیم
##ولین
##منستان
Cy
##ala
بدهی
suffic
مهربانی
divided
cod
برعکس
##cks
programming
Ken
gro
طوف
مسخره
187
courage
solid
Megg
ادبیات
Would
amp
درونی
chap
1992
قلبی
hill
staring
پریده
faint
northern
##ریز
suit
pride
##وتری
جدول
Pakistan
Kate
تجاوز
##لان
college
سازمانهای
مؤثر
##hetic
مادربزرگ
##بتی
##rieved
fortune
اشیاء
via
رشت
طر
##زدی
روبه
younger
election
grave
throat
کوزت
تغذ
کهن
##ompl
##uzz
Ver
امان
استودی
conver
میتوانی
حسن
پاهای
Cur
ban
maxim
##زون
reduce
فوراً
efforts
۲۸
محله
گرفتار
تقل
promised
complic
affection
عدالت
##iques
عناصر
پراک
##gment
lights
اکث
movie
##تاً
##امین
##verty
معی
آوردند
depth
operations
negative
concerned
definition
safety
tomorrow
Fort
##دهای
تحویل
##ینیان
حرکتی
nodd
##rous
plans
بینید
actions
poverty
factor
computers
physic
دموکر
Public
bra
تست
جوری
واش
height
مدارس
Oliv
میزنند
Sum
codes
سـ
گال
##atically
##itz
##aya
##ifying
knees
explan
protection
difficulty
pit
southern
##oma
Inc
##اطع
زدند
آقایان
زنجیر
Bes
Ir
ضعف
تخمین
خودداری
describe
زنش
چوبی
##hesis
کتابی
کالج
Four
##ساد
میخوان
territ
##ردگی
##utch
Though
نیام
ورق
supply
Ari
##ador
گلوله
machines
شارل
frightened
خرم
##ریقای
همهچیز
actual
جامع
physics
##کلنیکف
##razy
Cath
Lin
##TP
آنلاین
۱۹۷۰
Jews
میتونه
enormous
Rost
ocean
رژ
##ارات
اینجاست
location
##apping
Georg
##فرانس
Francis
مطبوع
county
مهمانی
bent
وادار
##دور
##ander
Child
پایت
هاگ
birds
Yeah
Oxford
هشد
proof
##همند
Valjean
شاعر
##وعی
##inking
desper
confidence
despite
Catherine
میزبان
declared
copy
Ori
##father
anger
رهبران
Alexandrov
هـم
##ایده
بالایی
فشرده
##میکرد
سرما
egg
##amental
staff
Comput
Brown
سومین
burning
Ra
جیمی
##جز
سرهنگ
غیره
مبتنی
گرسنگی
Bas
اذ
##bus
##stairs
grav
industrial
عروسی
symbol
Take
wel
##inent
unw
نسبتاً
circle
breakfast
Ple
##mosp
حرفها
creation
lots
Sea
absor
identity
رأی
Jam
pages
رگ
زشت
کوان
##الد
بیخ
فراز
شدهام
قشنگ
defe
پدربزرگ
دستورالعمل
anti
##jo
##iger
##apes
Chic
انتقاد
یهودیان
Prize
درمانی
##olt
processes
کالا
daily
سلطنتی
اشتیاق
Get
Mic
ذرات
وصل
##حر
نبودم
acid
##ipping
درشت
##گیس
هستهای
تشکر
عجب
برساند
##idently
##راحی
captain
مولکول
Jeff
۲۶
sevent
میتوانستند
برنامهریزی
suffered
Pot
output
desk
calls
accompl
##کوس
##اساس
##owned
ظرفیت
میلرزید
حداک
##طن
دوید
##اسر
نقره
regions
عنصر
pig
گربه
##فاعی
photograph
##فورد
cler
کلام
##ovitch
##phone
requires
nervous
جسد
##elle
solve
ویدئو
Lady
##road
analy
Project
##AM
همیش
Web
smoke
تعامل
آلوده
نوجوان
Vict
ax
حاوی
##دهنده
ناشن
کانال
throw
مایک
communities
هردو
tail
##لیم
مغازه
hotel
cycle
gradu
امنیتی
Pan
شناسی
لبه
معذ
internal
stayed
initial
Du
ربات
قص
چمن
۲۰۰۱
عبد
Monsieur
aid
aunt
wore
hero
liqu
##خوش
۲۰۰۲
Persian
##inet
##itter
نمیآید
شهرد
راهنمایی
bomb
بیز
ناق
##iences
مواظ
increasing
teacher
دانشجویان
Jud
##zed
##BS
##ایع
##امپ
writer
جیغ
Commun
میدرخ
Face
تـ
##encies
دیگ
blank
troops
approximately
##iable
Information
##appy
دمای
سعادت
interpret
Jes
##گونی
##FC
جنبه
برداری
advice
ارتباطی
politics
Municipality
##ras
متقا
accur
hurried
ordinary
بابت
##املی
##اندند
contrast
Again
دیجیتال
Joseph
Found
PC
نزدیکتر
مزاح
حملات
Super
Ur
phen
صمیم
##EN
یکشنبه
هستن
##ensity
جنس
Tex
dare
seized
نداده
setting
مربع
Government
Mem
##راب
forty
حوادث
teaching
مجازات
Instead
tongue
عاقبت
حداکثر
western
بازوی
کمترین
نمیتوانند
provides
مراقب
بجای
consciousness
rapidly
convinced
Bay
##rang
بگم
##annon
driven
فرماندهی
Jurg
Rob
taste
درگیری
سریال
راسکلنیکف
##ایف
بریم
شکاف
اقدامات
میبرند
Civil
##میمی
##kins
دهکده
##assion
خانههای
Gar
bare
grey
جاری
##شور
علائ
infin
limit
##ناطیسی
گود
مناف
reject
##انهی
factors
اعتبار
فرصتی
Turkey
Security
launched
transm
خلاص
emotion
##isher
بودجه
گیرنده
collabor
robot
سول
کاره
ارشد
پرسیدم
آزمون
completed
fault
innoc
بي
##ww
##ench
فلز
Van
##جن
##ماق
ایـن
##شماری
contem
easier
raise
status
اسکات
credit
شکنجه
##همان
formal
truly
##arrass
laughter
##دست
##isp
برسان
unex
cheer
recognize
failure
establish
تغذیه
pushed
tum
##enger
##oty
phr
ببینند
##vant
شدیدی
wheel
seek
اشغال
مطمئنم
##پو
کمون
تجربی
deeply
Service
33
Nik
پیمان
مدام
فلسط
کنگره
Jurgis
##ردهای
منظره
شعله
exchange
تجهیزات
atmosp
details
affected
Conn
costs
انبوه
##آلود
Princess
رده
##acters
امریک
fet
visible
خفه
یار
section
chain
نمیفهم
اشلی
حلق
struggle
Ba
جاس
##ML
برایشان
irrit
Voices
wed
جاست
##ila
الت
##احی
equival
وسیع
cro
لوله
چادر
دوخته
شماست
unique
دامنه
Palest
هماکنون
extraordinary
fan
کنفرانس
کوب
کاربردی
تازگی
دموکراسی
بصورت
destroyed
##rome
##win
برخوردار
پیشرفته
recorded
آفریقایی
eating
##attered
پنجر
تفسیر
مشارکتکنندگان
vul
سلی
دانشکده
singing
نمودار
engaged
Academy
Bella
rare
##ighed
عمق
بنام
metal
movements
تازهای
Nich
بلی
شل
مبه
هان
##icated
برات
کنان
بدنش
بکنیم
گونهای
رئیسجمه
پهلوان
##esty
گوئی
busy
anxious
اسباب
ضم
یازده
withd
prove
بعداز
bless
decre
نمیخواهم
الکترونیکی
پراکنده
خستگی
##ipment
Ark
زان
گراف
##fa
نمیآمد
Canad
supported
err
منحصر
بهعنوان
Ha
##ولت
conclud
بخشید
جمهور
fancy
جوش
فنی
##کال
##پذیری
##icate
Phys
technologies
Rat
بعدا
بخور
diagn
cer
##rol
reck
##گرمی
ارمنی
passage
healthy
Armenian
جراحی
violent
examples
Mexico
tort
wet
مالیات
Chicago
mas
لاری
##کرده
##IA
rever
Sunday
##لت
##zing
##inating
decide
Pop
##جین
colle
brothers
حجم
فت
جزایر
starts
swim
گوگل
نادیده
estimated
Meggie
Lake
Maxim
ارزان
songs
تقاضای
embarrass
Aud
htt
سد
##۵۰
##ram
##SA
شمع
characters
networks
Lydgate
Hy
Later
ارمنستان
drugs
Korea
همسایه
پوند
##ایستی
##نگاری
حالش
##aks
blow
attend
sets
Conf
بطری
Land
cig
ندر
##DF
handed
humanity
advance
فراوانی
treated
waves
ارگ
##یتان
کمکم
strate
structures
crossed
نوزاد
Vir
##ژانس
سالانه
بـا
replaced
strategy
Ell
##آمیزی
دستها
myster
مراحل
نمیتوانستم
Emperor
disappeared
crazy
tal
##uts
بخار
۲۰۱۶
Armenia
fever
پنجم
figures
Quix
sympt
Gand
##وغ
hurry
##مید
##چوب
##illy
forever
worldwide
آفریقای
fond
faced
گرما
بهار
کامپیوتری
reference
despair
fasc
##احت
سپری
دشت
کاس
پسرک
مردها
purch
Club
Colonel
قلمرو
خاط
##sey
مرات
آشنایی
Quixote
Ak
درسته
##وریسم
Oliver
رژیم
HT
قبر
مقاب
پیرزن
Develop
closely
پایتخت
www
قی
##utive
ماجر
basically
Texas
دوخت
منظم
داستانی
##hett
مجا
گیل
##ima
میکوشید
Health
Albert
magazine
Cup
Dana
Hol
کله
##da
##anch
کشوری
اضافی
روحانی
مزرعه
Aut
Tor
##ellect
saved
##rav
رفتاری
سنگینی
traffic
پاکستان
Larry
همجنس
کنسر
##ivodes
##شانده
پارل
domestic
additional
##ivodeship
exhib
devil
شبکههای
buried
خودکار
##لاوه
سیب
numerous
lat
rum
string
مهمتر
afford
servant
مامان
candid
لش
کوچولو
minds
داوط
motor
judge
انفجار
مدی
کین
همر
##amma
encoun
جشنواره
Gri
powers
##erves
units
قطعات
##نما
##گیز
معنا
expand
obt
عقاید
##pective
Syria
authority
##what
Mill
بغل
دونی
inher
دارت
بازداشت
##acks
intention
نیمکت
ریاضیات
http
km
جبه
طلب
##oper
blog
وضعی
دوچرخه
Fre
متری
crying
represented
تختخواب
##ront
بیپ
##000
acad
ابدا
مبهم
##bur
##ota
invited
clever
میبیند
ناپذیر
CH
##وها
soil
curious
historical
sequence
regret
آلیوشا
Rights
سکه
غیرم
راننده
missing
arrested
challeng
End
SS
##pri
Stand
چهرهی
##while
بخورد
میچرخ
سفارش
پذیرش
مایکل
بایستی
Voivodeship
۷۰
##بهی
##سایت
embr
1989
affairs
حکایت
besides
##ampionship
بروی
##ویز
مینام
signs
illness
honour
pressed
متنفر
fundamental
تحصیلات
gay
مقاد
رفتیم
reduced
medicine
inhab
##لیا
مدنی
یورگیس
سرتاسر
راهرو
Arabic
Had
Joe
##omed
کارکنان
مقص
##aved
خوشبختی
رسیدیم
League
مقابله
##یزم
scarc
profound
حساس
mountains
Dorothe
Sever
جاب
لگ
##atre
بدل
بنشین
شلوار
elder
کوانت
جف
##ooth
##urance
کنون
dozen
##ناپذیر
##mbly
institutions
pil
##iency
composed
revealed
هشدار
تلقی
Everything
horror
border
##thur
owned
instinct
مأموریت
رئیسجمهور
##يت
##thus
pra
20th
##ارتمان
آسانی
mistake
Family
Ep
نصی
نمانده
##kes
uniform
شاخه
dimens
etc
بیهوده
لمس
حاشی
۹۰
##TS
اینو
##avy
decades
میریخت
گله
خواستم
Committee
Histor
previously
Cosette
خلیج
Dorothea
لابد
کرا
proved
anyway
Ass
میبینیم
vert
فرکان
نامگذاری
Shannon
principle
میدرخشید
Rock
Water
##ashing
استع
manage
##ultural
خانگی
دانم
عدهای
thrown
Cambridge
کثیف
Rose
ded
sought
هلند
##ادمی
schem
شواهد
frequently
Sweden
pecul
coach
remaining
##ographic
dign
پیم
armed
راستوف
میلیونها
Secret
disappoint
##ذیرد
استقبال
peculiar
dynam
##وقی
رابرت
##انهٔ
pron
نامش
standards
delay
بگذارم
فورا
Bob
##nic
اجرایی
##onscious
ندارید
trial
camera
Ill
cow
lamp
##گردانی
stranger
مریض
##gl
##onic
##ican
##akh
syn
equipment
وبسایت
مایع
damage
resistance
خجالت
pill
جوی
##زم
##oration
shoes
پرندگان
انتقام
جغرافی
Ly
Vrons
hal
ظهور
##eren
stress
بدبخت
writ
biggest
Britain
ملاحظه
phenomen
fuel
بودید
##riend
decisions
contrary
میاندیش
cruel
nations
خاله
classes
جرج
adopted
##iated
##ania
رالف
19th
bringing
نیاورد
نمیدهد
weapons
Hagr
ژنتیکی
trip
Rog
ببند
##alle
que
elected
نویسندگان
فارسی
Fanny
tiss
##سمی
کنونی
شفاف
Hu
خاور
وعده
##DA
whale
اکسی
پلاستی
حرفه
Vronsky
Hagrid
Bus
##چین
بدیم
کلیدی
بیاعت
Post
upper
رسم
1993
benefit
توده
وکیل
##نویس
beings
distant
موضوعی
affair
دبیرستان
lunch
##vard
##غلی
میرا
نظم
دخترها
persons
ریسک
Class
Spr
yield
##OL
رسد
possibility
مارک
کوشش
experienced
Rostov
Nick
Rum
categ
زین
##اعت
##sky
##زام
##باح
##ناً
مغزی
occurs
morrow
اي
##ado
منق
##orders
انگلیس
نفع
میگذرد
epis
rode
سلو
##اردی
معامله
پیروز
184
میخواستند
begins
۱۹۶۰
المپیک
gest
دنا
لکه
کهکشان
منم
expensive
players
planning
instructions
Chem
jump
آنج
##eps
عمارت
properties
favorite
molec
mood
قرض
انگیزه
governments
بیماریهای
convention
Canadian
dial
دک
##12
میکش
brill
ستار
خوشحالم
urban
ریچارد
متقاعد
##اون
Dec
somewhat
جوابی
گذاشتن
قاضی
حاکم
سده
##ato
برایتان
پرتو
entrance
competition
Castile
therm
lic
##sk
shaking
genetic
glanced
خویشت
cott
pounds
ظریف
##قاب
##inem
تکمیل
Edm
زیبای
fifteen
منافع
Cle
bond
کیست
میوه
بازنش
impat
##otted
Gh
gain
pin
##زید
میدانستند
مکزیک
mathematics
طناب
Da
MR
Stan
conserv
1985
satell
ابتدایی
مسافرت
literature
دال
شریک
سرود
محتر
محوط
نوبت
phase
دنبالش
favour
میپرسید
##iosity
relatively
ذره
##ردن
franc
هرگونه
سونیا
quantum
دوری
Through
تصدی
records
پروتکل
fought
##rich
##throp
servants
dawn
مبلغ
il
نباش
هـ
تابلو
اندازهای
کمپانی
dip
میاف
##ares
ناگز
مرور
friendly
lawy
کاتولی
statement
عط
##itely
unp
resolution
##نشینی
schol
00
kil
##خل
##lend
##agu
concl
extreme
softly
independence
پهلوی
cigar
ride
شیش
##ugg
##uits
comment
flower
seriously
trav
بکنید
شانون
پیچیدگی
mobile
آدرس
Wal
##ظم
دارایی
بردند
colon
breaking
volume
jobs
ویند
##طل
fruit
agric
کلمبیا
inspired
مقادیر
لاک
##rep
نشاط
Alice
سیاستمد
environmental
ویدئ
##nikov
بخت
نوم
پلی
##iveness
میدارد
centuries
edition
Alexander
frequency
شایسته
رستوران
الا
تخته
##ریم
##ودور
reform
رویکرد
guys
نمایند
شاخص
دي
عده
##row
##erial
توانسته
techniques
summ
بزنند
دانشمند
argument
هوس
وات
clin
مساله
grat
شهرها
marked
غلط
tear
##stone
meat
کامپ
childhood
##cycl
بعلاوه
eastern
ماندن
خروج
آمیخته
kissed
گویا
##has
##BA
##place
##ammad
بعدازظهر
##iy
##case
##soft
پیانو
183
Phot
۱۸۹
آرزوی
wounded
خرده
##osa
الماس
احمقانه
Besides
native
وانم
##oz
ملایم
تفریح
layer
flood
دارتینیان
vote
##نل
##صیر
بهینه
ine
##imp
##نگار
میشدم
minor
نمایندگان
relationships
satisfied
comfortable
sisters
بدترین
feature
دیدند
Ministry
Court
AR
قاره
restrict
solutions
occupied
Jacob
Library
گلی
##ora
sail
محور
مختص
جلد
گیرند
38
fant
wret
تندی
##hy
##chief
exha
##gend
artists
Jamie
۲۹
##otion
انکار
Progr
۱۳۸
##iat
##رید
##ایای
##osop
intellect
دورتر
probability
##stitution
protein
##ِن
براساس
آموخت
قرآن
refers
literally
Ast
Bal
Form
لئون
##sect
background
consists
sorts
##cules
باقیمانده
Awards
lod
##نون
##oting
انها
داشتهاست
تروریسم
compos
approached
bigger
grandfather
Ral
san
##rix
اسقف
subsequ
حروف
پات
##ca
prem
##کردن
Space
behavi
regarded
ناخدا
succeeded
yard
اقل
خات
مجازی
Plan
سانکو
bottle
صنای
##riet
resol
ساعتی
Scott
nodded
unexpected
هال
##ئل
##itement
##alu
alc
myst
تربیت
تأکید
Scot
stronger
رادیو
ashamed
400
##CC
frag
yours
Americans
امروزی
لاغر
هنگامیکه
دامبل
discovery
soldier
علائم
وانمود
Cop
Tim
ششم
نفری
شورش
wondering
زیستی
بدانید
portra
determine
ناگزیر
Maj
rates
زب
گشته
نمیبین
##raham
impression
acting
##تناب
خدمتکار
نحو
عصبانیت
gathered
vess
گلو
##سور
باهاش
تلخ
درآمده
بوسید
Sancho
نیکلای
Hill
##سیده
perman
شبها
indif
##rete
برنامهنویسی
درمورد
appointed
48
Azer
isol
پره
خیس
سوسی
##azz
Islands
Polit
uncertain
claimed
obvious
Data
Eastern
push
واک
موقت
دنباله
مطالب
##asket
principles
آویزان
نیامده
Coll
##LL
راک
##ازید
موثر
##aine
گرفتهاست
Doctor
request
hoped
Angeles
لرزان
خرا
##ishop
Arthur
##ologist
Intelligence
زخمی
آکادمی
bath
راههای
آمدم
##ilding
##شنامه
وقتها
کشتن
reports
بجز
logic
همراهی
Northern
rou
wing
تیل
column
naturally
cerem
رحم
##opes
قطر
severe
forehead
equivalent
Town
core
اچ
حاکی
خـ
##جد
##عل
بازرگ
Death
سریعتر
Liber
تدریج
عاقل
##mother
نداری
disci
impl
follows
1984
صنایع
Mir
##wr
##orough
##icy
shirt
تنوع
actor
سواری
headed
evidently
Play
teachers
oxy
Microsoft
rom
wire
##orous
##emen
لیگ
عمیقی
جالبی
امپراطور
tick
برند
همسای
##ova
رانندگی
##theless
fate
goods
confused
سطوح
وضوح
آسوده
responsibility
Queen
كار
یاری
##otic
driver
stepped
متعجب
astron
الهی
surrounded
Olivier
978
Die
Var
شوق
##isation
توه
دلس
brains
معدن
scarcely
Him
losing
##jan
##BM
##ارستان
بیستم
worn
Still
گرفتیم
مطابق
##ounce
priest
steel
محیطی
Ralph
##یداشت
dece
اعصاب
committed
کنارش
studio
killing
Aly
Hand
کنده
##cest
noted
نواحی
Chap
عبارتند
Ashley
excellent
symptoms
دامبلدور
Haw
نگار
##کین
نمیگذ
کتابها
lifted
عمدتاً
Div
Hot
Power
Tem
##AF
وجودش
تدریس
controlled
تخص
##فتگی
##ابهی
proced
goals
خانهای
شکایت
handsome
illust
strike
Australian
مأمور
democracy
99
Mass
Rue
##rible
relief
گویند
Genus
drinking
عذاب
Pac
Southern
Viet
cas
کرم
##adium
هرکس
تبع
drunk
Meg
massive
degrees
عظیمی
سپاسگزارم
node
تود
##مود
درخش
##amin
دستمال
نکردم
giant
بخواب
ویدی
کپی
##قدم
spin
coord
صحن
مذهب
SP
حفر
shr
قربان
##رافرد
ذهنم
focused
Catholic
Dam
Tri
باهم
intellig
جزء
household
crew
1980
Christmas
plane
identified
اولیور
زر
##پت
agreement
apply
Uncle
خانهٔ
##قایق
گرفتهاند
پلکان
excitement
مدلهای
ورزشی
##وکس
##ینش
plate
نواخت
اجتناب
incor
paused
Dutch
Eve
مگه
##دود
منه
نمیشن
##پرست
##وطی
تحقیقاتی
شگفتی
heavily
newspaper
neighborhood
##cyclop
Mas
1980s
admit
primarily
##ealous
ignor
همیشگی
Victor
Dou
پاش
چيز
exists
شبانه
کیسه
skills
trembling
branch
sustain
ES
Jun
ma
بارد
صدم
مایه
##نمی
##جهای
differences
invent
facts
تخریب
##orial
بدانم
rolled
Fer
##inging
##ishes
##eline
روبل
یادآوری
attrib
curiosity
خونس
Ville
حبس
##agues
bedroom
الگوی
ships
##force
مصاحبه
Max
##utation
stones
Ali
obst
sentence
طیف
horiz
algorithms
balance
Bert
Oper
##acles
electrical
diseases
Berlin
anxiety
کب
##مش
##cknow
demon
prisoners
شاگرد
cousin
Lab
bits
لس
هدیه
##war
##eler
##یچه
flesh
suspic
Sa
غار
##nding
stiff
معج
compassion
grin
نشانی
بردارد
##lete
محدوده
مناسبی
غافل
##ِر
حرفش
صداهای
absence
کاه
۵۰۰
##گرافی
اشع
creatures
electricity
Gall
Id
واد
##ela
بیگانه
##umph
185
interests
مرتکب
چرخه
hanging
مراتب
رب
نوشید
##ów
myth
نیستی
افتد
relative
ملانی
آشفته
رقم
صرفه
اولیویه
explanation
زبانی
##مندی
##IM
##agg
بعدش
گوشی
feels
victory
THE
64
Squ
fart
یکپار
##orted
الآن
کمبود
obviously
Foundation
Bol
puzz
زمینهای
finish
Alexey
satisfaction
آویخته
Kitty
Mars
cert
گوسف
##واس
##ـان
خوام
conqu
تمس
گذار
gene
subt
sword
میشنید
golden
row
sons
##can
کارآ
chose
کلمهای
corpor
بندر
شایع
Facebook
ستارگان
Bah
NAS
فیر
##پای
worried
##ploy
studying
بگذارند
muttered
atmosphere
تصدیق
Mur
آسم
قشون
##sp
##icing
گذاشتند
بسازیم
technical
چارلی
selected
شیطانی
Please
AC
Home
##inger
بازمی
index
ideal
Okay
##bitt
میدادم
##ificial
León
practical
negot
apparently
Moon
خام
هراس
shru
Inf
secure
مستند
میگذر
mainly
استخراج
princip
75
acknow
سرده
##اتش
##osha
برگشته
awful
سینما
اندازهی
locked
خنک
##eur
##anie
دهی
##وتا
میخواد
undert
دانشآموز
Const
components
Ca
##پان
##icit
greatly
بشوم
Engine
صبحانه
superior
sports
galax
##وو
نیو
thinks
##othy
گذاشتم
خدایا
formerly
Portug
کرو
reven
worship
اسیر
سوگ
آرتور
موضوعات
department
politic
رختخواب
اکثریت
fill
آژانس
##ario
برایت
بیام
ماکز
allowing
cook
تعمیر
Review
defend
Commission
##شناسان
spirits
قهرمانی
alternative
bold
weren
grate
script
experiences
واسطه
Nicholas
Dumbled
museum
wake
##isible
دیو
تنش
مدال
Add
professor
arranged
dull
torn
آلیس
سرگرمی
##وزد
عمه
teams
slept
مـی
tonight
مقصود
ربط
##يه
beast
forb
##ترو
زیرز
میانگین
شرکتها
Prime
elections
diamond
authorities
بزنید
جلس
1970
banks
نمیرسید
ندرت
ماکزیم
##asp
##روح
##ession
##itya
proport
blame
strateg
existing
Peters
ممنونم
بالاترین
ماجرای
Naz
Publ
Year
##شر
میبود
دههٔ
root
دلت
arrival
Supp
Roc
##سوف
وظایف
##fall
seated
نقد
خارق
hearts
دردسر
هنرمندان
liquid
Bre
سحر
##ثیری
آنتی
یونان
McG
پدیدار
Dumbledore
ادا
کپ
##مایید
##کتی
##ریس
##agger
گرین
unus
extended
گستردهای
Next
views
بنیادی
نازک
مسلمانان
altogether
ادموند
Ath
بخواند
funny
رؤیا
gained
اکس
##درا
سرشار
smooth
میدهید
میپنداشت
نمیکردم
افسردگی
دایره
گارد
stuck
appeal
Lee
##agnan
Last
gle
ناله
##بن
عموم
##icks
warn
طراح
ستایش
مینماید
نوازش
Fair
Ven
dancing
پند
##omfort
external
ادب
visited
خلوت
مداوم
بهداشتی
complicated
mere
vary
دانه
پرا
imagination
incredible
researchers
خاطره
##سیلی
##akers
resem
ابری
sleeping
Artagnan
profession
Master
چکار
##iture
خودرویی
اتوب
partner
مدرک
بانو
جادویی
امتداد
مینشست
باهوش
آرک
حج
##CO
sees
##ruption
swift
testing
##کلیف
ویندوز
Nic
doctors
whenever
contempt
دانتس
2018
combined
oh
##سیا
##یشن
neut
واقعه
param
مشتریان
##ograp
تضمین
exercise
پم
دوستانه
آمیزی
رکورد
hungry
interrupted
سلولی
Alyosha
Craw
Dick
Les
mac
clo
Which
عهد
essential
Network
درشکه
37
nom
##یس
thanks
constantly
maintain
طوفان
selling
اوم
کردهایم
plays
##ocal
پاول
Nobel
1988
processing
Cir
FI
Kn
ec
لک
هیل
ایل
بگویند
خشکی
friendship
ممنون
Desp
منطقهای
وصف
دخالت
متعددی
خداحافظی
رح
##پیچ
##etime
##oped
##apy
پیادهسازی
بفرست
آینه
جبران
۳۱
##omach
stim
تاج
بلوک
اثرات
تونیم
هزینههای
bacteria
gently
pause
تایید
##صت
الکساند
Argent
هیج
هیولا
Peace
Roberta
Development
Wik
امی
سینی
مادی
inner
##ader
بیلی
##وئل
Monte
محاسبات
clouds
efficient
mathematical
کنسرت
hint
ترو
هندی
##ونو
reward
##igen
oldest
اخراج
منتهی
combination
اندیشید
Az
ساق
بیس
channel
کیه
1970s
میخندید
perceived
Tony
رن
##hew
##aping
افرا
##اختیار
largely
بـود
جداگانه
وسیلهٔ
emotions
Mitya
gh
آئور
ancest
##خوار
معین
##گوست
concert
##86
##ونهای
shif
seeking
parent
پاداش
Jesus
CR
Gre
wra
##ّت
toler
دیک
##گیخت
محاک
نمیتوانیم
Modern
francs
tank
شکی
ني
##عش
##umed
جنب
relation
patterns
Video
حص
thee
اسمیت
##quar
خانهاش
آوردم
parad
میبایستی
woods
Dark
batter
homes
sales
##خور
##فین
##15
خانهها
جواه
حمام
رادیویی
appreci
##eding
##itar
میشویم
compre
تغییری
dram
prisoner
burned
guns
34
##خند
مواقع
##کنند
##rank
مشابهی
مغناطیسی
۱۸۸
fifth
Stepan
Loss
cards
لطی
advert
بنش
consult
facing
شناور
mixed
مالکیت
##bar
shell
پیروی
لااقل
Columb
قسمتهای
پزشکان
جدایی
depends
Organization
Virgin
IN
نجی
##یزد
##eph
attached
mode
Fore
piano
##پوست
sharing
chamber
Leg
Indeed
classical
صلیب
tas
خلال
مچ
شدهای
##emies
مقصد
۲۰۱۷
1987
افسران
آئورلی
گرا
##سله
desired
شنبه
ابزارهای
mirror
Muh
##عاد
##iler
تقصیر
ابراهیم
demanded
electronic
obliged
unhappy
IC
##inations
partners
مراکز
shouldn
دانشگاهی
protest
داوطلب
AN
Cro
jealous
سانت
##itors
articles
technique
thrust
totally
philosop
Babbitt
آلودگی
OS
ease
جما
##lom
##فرد
میهمان
stable
noble
حسب
رسیدم
قطعی
truck
بکنی
daughters
خوشبختانه
Several
##bai
##heast
Adm
biological
Laur
Educ
sorrow
آهی
##ses
##hi
##OC
##ante
محاص
##onsense
قطب
نیرومند
milk
forgive
claims
فشرد
پردازنده
stretched
Communist
Aure
گوی
##itzer
##iths
سراز
abst
محافظه
الن
کمکی
##فیک
پارچه
particles
appropri
grief
##born
##طاف
##usal
knife
گلهای
##lessly
اسبها
اکسید
rushed
ضخ
##سات
##eller
contained
ابد
Maria
leads
دائمی
measured
assumed
مواظب
por
rig
حسی
شرافت
وتی
##heim
اندازی
##icking
مستقر
زوج
flew
سابقه
##دراسیون
AP
yards
صخره
##crib
##ture
Think
پاهایش
factory
مکث
explos
musical
ببرند
انقلابی
Eug
rar
rib
##وود
##قوه
##ilty
##uration
##کنی
ظاهری
قطعا
مجسمه
sacrif
wedding
ازای
##urse
##ipedia
resc
Young
نمایشگاه
horrible
awarded
Bern
Jon
سوا
##rode
##اندا
##quis
زنبور
حقوقی
ابل
memories
error
consequence
عبار
##itan
##الله
آنی
##iry
بردار
##ویدا
بانوی
پنجه
painful
میگرفتند
براون
painted
مقررات
AT
##جور
##char
گذران
Tele
عفونت
poetry
اسناد
اکسیژن
44
dar
vain
رغم
پي
باستانی
##فتی
spell
محروم
چشمها
slipped
شهرک
restaur
returning
Abd
Without
Mot
Moh
las
ske
لنگ
##oster
تمدن
overall
boots
ماهیت
مجدداً
virus
خاتمه
اتوبوس
Foll
Ve
دینی
genes
جاهای
سازگار
ماهواره
answers
۱۹۹۴
universal
جاستین
کیم
##ساخت
کارگردان
سلسله
extract
signals
Colomb
میفرست
کمونیست
رج
rear
وقایع
centre
لحظات
princess
Mah
bud
شغلی
پوز
##ko
thread
##imental
میکرو
دیدیم
##mann
conducted
هجوم
Festival
mile
شطر
##bra
##rast
##چشم
##ules
فرآیند
planned
Stat
طرفدار
مصمم
guide
versions
میکشیدند
combat
Sudden
ناشناخته
Fire
tied
طفل
گولد
##ایتی
برت
رومی
میرساند
handle
ملک
شرایطی
discussion
خویشتن
##مای
##ردست
unfortun
attended
##ologists
میتونیم
achieved
خالص
criminal
##کـ
thy
helping
فهمیده
##ممکن
leaned
Five
Freed
Langu
Ram
آکس
##وخته
##iate
##حصیل
سپرده
organized
repro
triumph
کنتس
موسسه
cheeks
نماز
Villefort
Sand
##AL
##onna
##اهو
##iders
یکس
ناشناس
careful
درواقع
دیوارهای
broadcast
رعایت
bother
بریده
برپا
خیانت
احوال
grace
مبنای
holds
##itants
نمیتون
spr
##onym
breathing
موشک
Aunt
زار
استو
##eman
ندید
##فیث
بشری
1983
demons
علاقهمند
oxygen
Wr
##OT
اجباری
attitude
180
separated
مخلوط
lect
شصت
##آش
##اموند
کارمند
ابتدای
اساسا
مخصوصاً
accompan
Pacific
42
IV
Rhett
خس
##زند
نقص
علیر
سنگر
خوابیده
Order
ISO
هوشی
بریتانیایی
Azerbai
database
era
فنج
بهشت
بادی
##umes
enthus
مبنی
آسایش
##آنها
execution
delighted
ridic
AI
یان
مرم
##icken
invented
guests
detail
sites
cryst
بخواهید
ریزی
کاد
##edy
خانوادهاش
لیوان
گریفیث
۱۹۵۰
Technology
Way
joint
sighed
##ogen
روزگار
اجاره
سطحی
deliber
بیدرنگ
Federal
مجاور
brilliant
sam
stomach
##ums
نوآوری
نقاش
acts
فیلسوف
runs
division
emotional
Det
Eth
قفس
گاری
##گارت
splend
میدوید
کشیدم
افسانه
جبهه
Suddenly
Gran
Holy
##کیشوت
کلبه
جنون
حیاتی
1979
دردناک
Blue
دستیابی
محققان
hers
موزیک
##خوف
پیشخدم
تنه
pregn
owner
اهالی
extent
consumption
آذرب
obtained
کاتولیک
SI
Sem
تبر
۳۵
##لیف
intent
نیفت
strict
هریت
۱۹۹۹
identify
Melanie
hypot
Aurel
Mess
Sure
رل
میمون
##میرد
جاذ
فروشی
##پرستی
1982
لوک
Jos
riding
پت
برش
##eling
##abilities
lovely
##وزف
ایرلند
equally
creative
1945
investment
mysterious
bones
sigh
آتل
ثبات
سوس
نبا
notion
دوز
سرشان
##arks
commit
نمیداند
subjects
Dig
rag
لاید
##لن
render
رویا
هیپ
addressed
emphas
masses
Finally
federal
dirty
jack
##min
##itage
alle
خیالی
خرس
۱۹۹۱
Does
بکنند
جری
##water
آنجایی
disag
تشریف
##ikh
##ructure
Mean
cos
ذوق
مجه
##شاری
##AD
اعط
perspective
strongly
##چیان
photos
translation
هماهنگ
EN
Jones
Tal
##hester
##التی
برچسب
دادهاست
مساحت
##addy
possession
Egyptian
تقلید
قائل
متو
بزودی
##aws
۱۹۹۸
imagined
غریبه
repeat
castle
گرسنه
##اورد
##انورد
##anab
##oping
دنکیشوت
remote
1976
1968
ساختمانهای
Books
پارلمان
Griff
فایده
بیاختیار
سرگردان
افتت
##رارتی
profit
Studies
solemn
Gandalf
Fern
Hon
Yan
راند
##lik
درب
برهم
برابری
whist
مشروب
جزو
Att
نکنم
سیاستهای
گذراند
##ATA
Rask
طنین
لبان
##mes
نیستیم
grab
اطاعت
guilty
پایینتر
تلگر
renew
pink
von
ادی
تدا
پتان
##چستر
##30
##unction
نیامد
شکوه
Dev
Philipp
existed
cutting
farther
Despite
Qur
Tra
Wall
bore
gig
بب
##olnikov
##rovers
##کنم
##sely
صحرا
بالقوه
مهار
یافتند
entry
planets
دستگاههای
manager
molecules
ابلانسکی
Raskolnikov
Ire
bat
nurse
thorough
aloud
sheep
روزه
ملحق
editor
absolute
میپردازد
aspects
Bell
Santa
hills
##خوانی
##oj
کارایی
##کلار
surg
occas
sufficient
فرکانس
Fur
حوص
قوم
همگانی
اواس
Heaven
مردمان
##وبن
گوشش
لیبر
messages
جادوگر
Tay
holid
حامی
توماس
spo
queen
ایالتی
unconscious
fairly
derived
Crawford
lake
صلاح
قار
##uce
##جید
یکم
##ollect
pointing
leadership
قبی
توالی
نمک
زمانیکه
switch
experiments
پریشان
Something
متعدد
شجاع
MS
Nether
vel
فاش
فساد
##بلی
##ثه
برید
سپر
incident
colors
Parliament
description
roughly
کوانتومی
Ireland
شبی
##ندم
##idel
##وانه
align
غیرممکن
subm
infl
موجودی
avo
motiv
roads
ST
کاند
##OU
stair
مجروح
sched
providing
bind
##PS
##ureau
مسلم
adapt
##loyd
evalu
artificial
advoc
نخواهند
کاوش
terrif
Design
measures
اردوگاه
##allel
illeg
حرارتی
فدا
مکت
##PA
##یما
اتمی
1990s
میگفتم
کریسم
آپارتمان
branches
Road
split
NASA
Jord
gender
عام
نازی
excess
clust
betray
Beh
Put
##مره
کردهاید
##antes
##گیت
بازیافت
اتهام
اعراب
آرایش
stands
۱۹۹۵
ceased
ببرم
Belg
gradually
عذر
محاصره
jumped
قف
##باد
##جات
##ازل
کارگردانی
##ouring
اسنی
unn
disorder
آرژ
1975
resulting
Adam
collected
societ
Muhammad
نیافت
##gency
##pir
overw
مربی
1981
سازماندهی
۱۸۷
دفع
##tainment
distributed
نمیشوند
قض
کناره
##usive
میشوید
agent
روزاموند
مجوز
پیشتر
سیاهی
رسیدگی
قدمی
annual
میتونید
مداخ
gazed
lucky
Ja
Move
##bow
##occ
##يك
reaching
بازاری
elim
چارچوب
بزنیم
wooden
spiritual
vacc
انعطاف
هیتکلیف
maximum
Gard
IBM
Vin
تلی
##asper
محتو
معاون
##ques
disg
prepar
folks
Say
hated
wise
دفاعی
##bes
##atures
##یمه
##مداد
سردی
سامانه
vehicle
Hung
دالی
شدی
spending
telephone
remarkable
Democratic
dignity
تمسخر
PDF
جنین
حما
وگر
##ونزی
ate
sew
##anged
سوپ
trained
##گزاری
nights
نیازهای
elev
خریداری
Israeli
arrang
Aureliano
افتتاح
Age
تعهد
##oral
conference
ماش
##ogue
remov
obsc
##فهمی
supper
بهتره
سوزان
Swedish
آتلان
Os
پـ
آنچ
بدو
medium
USA
gift
mouse
ارک
زلی
load
محرک
flung
##nergy
جلوتر
raising
##انهاش
##ایا
##ication
##acher
##abet
میدیدم
impr
میآورند
میگذارند
launch
برگردد
##box
##elesc
linear
tasks
مکر
##رور
##atively
میله
loving
گرایش
غمگین
captured
lung
۳۰۰
##bour
##22
روایت
فرن
اعل
افزوده
##aneously
۱۳۹
moves
اکتش
Rumex
discipl
Di
Java
پستی
##rd
دیشب
نوبل
کمر
بینهایت
coal
##issions
آموزان
attacked
companion
sending
innocent
شطرنج
nurs
قله
##gly
اوژن
plastic
##کلین
flash
اعماق
ساکنان
retired
markets
زندگیش
abandoned
سوسیال
Hal
Sk
Six
bone
عاط
دوک
دوام
##asty
بلد
حسین
survey
شیکا
swall
قانع
1973
officially
دنیایی
انگشتان
gaze
variable
syntax
assem
اکو
استری
##یمتر
##ابوس
##eper
Asian
##ammed
valu
eleven
annoy
shadows
Card
Ten
۳۲
##west
ایام
هیچگاه
برهنه
confirmed
توهین
Games
Ku
rational
گول
##راری
##hin
##EG
توجی
Hey
containing
دانکلار
fled
veget
فیلتر
منظورت
Amaz
intelligent
Foot
رپ
قاتل
##SS
shift
##وریس
##enses
سازنده
admitted
صفحات
منفجر
Daniel
Hello
Norm
ham
##roll
##ارین
یکباره
##ازن
loose
پیشگیری
Arts
1978
ترسناک
properly
میاندازد
hopes
بشنود
informed
victims
mos
##EL
باک
باخت
آنت
##utor
خوک
##anting
##apse
##okes
نمیگ
spaces
بگوییم
poison
producing
kindness
Allah
depression
احتمالی
miserable
Francisco
##نکا
##چهای
##CP
فروخته
1960s
متشکل
mechanical
survive
Vietnam
batt
حامل
##عود
##wan
##طرب
##odor
##unte
داشتهاند
ترکها
Encyclop
میگیرم
کیلو
Georgia
holes
سوند
گفتار
نداره
ترن
invisible
Leban
بکشم
issued
بیاورم
شیکاگو
lan
شرک
##وشد
##awn
درام
##icity
beard
##فران
recollect
کشتار
ویرایش
Early
میاندیشید
39
nut
بشناس
خونه
##vis
##asia
موب
عمرش
بیرونی
بالغ
distur
lesson
1974
##ینگتن
روستای
جغرافیایی
Bag
Girl
##lines
##صورت
enemies
انجامش
طبع
singer
increases
عنکب
بیاورند
delivered
تعطیلات
کریسمس
Field
Mach
Tok
tent
##اجی
##کور
theories
commission
مخدر
monitor
harder
مدافع
علیرغم
Gil
sel
حوز
فاق
##ira
loves
احاط
بزرگسال
suppl
روشنی
Indust
excuse
linked
##فروش
آستین
شجاعت
overwhel
Back
آگوست
##ked
انز
داروهای
##ector
اولویت
یادش
owners
##ibilities
minister
افتادند
winning
missed
55
Crist
Rom
Vis
wolf
تنی
##14
abroad
مرخص
گردان
خواستار
legisl
doub
Carol
intellectual
##anabus
rab
##esents
##istered
##ولای
بازگرد
۱۹۹۶
ضرورت
چهرهای
necessarily
Beranabus
دشواری
normally
Dorothy
قبیله
Could
Gould
معاش
peasant
asks
instruction
نفهم
landsc
150
سلولها
دفن
waters
midst
phrase
Has
Ot
lord
زاد
##inction
shed
آبهای
badly
recognition
apartment
مبارز
طبقهبندی
Jordan
Gor
##worth
##inian
میچ
inev
stor
گفتگوی
sugar
نهفته
score
همچنانکه
merch
52
Kat
صریح
منز
##الیسم
بلندتر
confusion
فرمانرو
حوالی
بفهمد
رمزی
charming
Light
Vill
کروم
بیایند
##برای
instantly
کمیسیون
Harold
پارام
1960
represents
کاپیتان
ویتنام
65
##achel
##rose
exceed
Chris
خانمها
نمودند
Among
میبینی
propos
argue
غلبه
اصلاحات
documents
مضطرب
liberty
Blo
Hor
Night
dared
پتی
##dy
##standing
##umble
##iece
decade
۱۹۹۲
رایگان
شانزده
attempted
قاچ
محقق
Care
sadd
##فاده
بگرد
نرسیده
opposed
Philosophy
commander
immediate
capture
کازوبن
فاقد
tip
##اداری
##eton
prices
ایکس
میگویی
##liest
##ictionary
complexity
دائم
Ivanovna
acquaintance
Hind
Rod
قز
نیت
##oir
##پن
منع
adults
ابعاد
revol
مراجعه
ven
وان
یس
##rog
ادغام
differently
##ronic
بوئ
Turks
typical
dreadful
tissue
وگرنه
Ford
IATA
Ren
بغ
هاب
shaped
خارجه
1971
۱۹۹۷
وحشتناکی
Everyone
میپرداخت
محاکمه
Top
فین
درهای
##ito
##aki
خیاب
مسأ
Weas
whereas
بیمه
subs
کشیدند
مدیران
وسیعی
initially
Winter
grateful
Battle
Il
Sony
##uten
نامر
مینه
Leon
ارتقا
ماندند
tests
paying
biology
involve
روانشناسی
تسلی
برانابوس
Box
Whe
tu
##bird
##LA
##vy
##isely
##roc
serving
Report
terrorism
leaning
vulner
شتا
##zz
scar
صرفاً
specifically
نمیخواهد
اذیت
اسنیپ
Kr
vig
کون
##icip
##elli
کلان
جنگهای
Margar
march
خوراک
کشتیهای
شیرینی
sensitive
رفع
employed
عث
گرافی
##no
resolved
##بخشد
میبردند
fulf
نوزدهم
implementation
یکپارچه
47
hob
نیل
##acious
##umps
فرور
گذارد
اداری
condem
کاغذی
واسه
Alexandrovitch
Cross
Hay
holl
##فهای
##غالی
##asingly
##ادن
بروک
##cha
anymore
سوئیس
bub
valley
مفاهیم
عربستان
Down
Ext
Sci
bowed
ببخشید
##kward
##MP
##BI
##ویسم
کاروان
متفکر
plot
compound
بردم
سازمانی
defense
falls
بگذاریم
mounted
customers
سرازیر
اواسط
Give
mail
مند
##الا
محر
dish
نقض
provin
exciting
تیراندازی
##ucing
Korean
AD
خونی
##کشید
##13
میایست
کردهای
تعلیم
بازیکنان
tempt
اوراق
اثا
policies
magnetic
Aer
Hit
##ded
upset
##باسی
مسکن
تمجید
##rue
ساعات
files
Common
مادری
argued
entering
هواپیمای
debate
benefits
ultimately
مزار
##uting
Head
waist
تخیل
##enny
opportun
weakness
نادرست
diplom
Freedom
Griffiths
BBC
Ele
##ardon
قرص
یادت
##azar
جانور
ابله
لوسی
تایمز
بمانند
consequences
پیدایش
مینوشت
principal
Disc
Energy
IT
سار
قوا
##خانهای
بهکار
فرط
Twitter
Boy
bom
gri
##ولید
sheet
قرون
ناخوش
expans
finds
1972
جنسیت
سلطنت
مبهوت
Scient
Uk
pist
ورا
ناک
partly
impress
define
sounded
profile
towns
گرمای
convict
معتقدم
settle
officials
constitution
اسکاتلند
Petersburg
dining
wars
پور
##rid
معاص
##hess
Indones
Agency
Guard
dollar
Lad
Sher
Ta
cogn
کوی
##خوری
##آر
##ودا
مواردی
##عدی
upd
افق
brings
generated
نمیدانستم
essentially
ethnic
زبال
شست
##ّه
##یمت
بیف
نیوز
سوف
Harvard
nearer
پسران
شناختی
Ocean
Saud
هام
معادله
##avig
Therefore
helps
دیدهام
عضویت
absurd
اتمام
folk
fier
greet
پالت
چاه
۴۵
##80
تحول
silk
awkward
exception
escaped
blocks
##لاندو
##ati
##ویج
تنفس
teen
smoking
##کسون
آلن
generate
##ائو
تصمیمگیری
influenced
محتوی
concluded
Dol
سوت
مانی
پاتر
##erate
##asm
##igration
ناظر
مصی
امکانات
Switzer
نشنیده
لرزه
Arkady
حاشیه
سوگند
مسأله
Sab
سکو
چل
چاک
بهتون
توابع
میکرده
حساسی
Short
نمیدید
ویران
corrid
murmured
gravity
Half
MP
Vel
tables
##فوی
##time
##آهن
unb
##ports
##cerning
خیابانها
privile
استانداردهای
fortun
بفهمیم
بیندازد
دویست
hydrogen
Computer
rarely
Margaret
Switzerland
BC
برقی
بلژی
granted
wanting
جائی
insult
Spec
destruction
statistics
preferred
Children
fer
ment
##60
##roph
##aga
precious
conscience
surre
۲۰۱۸
نقشهای
میرفتم
۱۸۶
Sor
Tour
Zeal
naked
##وات
##rations
##سام
##urer
موز
##ناش
##pled
remove
causing
connections
Charlie
academic
Base
hiding
rac
##pless
افزار
فیلمی
colour
Brother
برگشتم
engineer
Khan
Special
Ry
jail
##ali
##adi
##osure
##اقب
plenty
Championship
دورهٔ
server
##کولی
economics
میرویم
efficiency
sacrifice
Bon
basket
اژ
عرش
منعکس
##obile
##کاسی
prominent
portion
تامین
judgment
worthy
علاقمند
candle
belonged
Florent
تبلیغات
هماهنگی
accompanied
cave
بهشون
بیاد
دیواری
Arc
parallel
warning
Muslims
##anglars
unusual
پیشخدمت
95
تلس
غبار
##arse
straw
upstairs
leaf
ناامید
##کوک
پرداخته
تابش
deeper
عاشقانه
communicate
براي
امپراتور
میراث
آئورلیانو
محتوای
Pap
wound
##VD
اتاقی
infect
##تاژ
continues
دوستانش
پهلو
آیین
acquired
circuit
permission
احاطه
Zealand
Tar
rural
##كن
##inter
برتری
استکه
##شدن
shore
نمیآورد
##فرم
overcome
میرسند
##صیلی
opposition
مشخصی
سگها
accounts
مهمانخانه
resource
virtual
permanent
Danglars
Luc
##rent
##greg
##یرو
##ولان
معکوس
Isab
چنانچه
domain
Education
پتانسیل
Further
Ker
sou
##عهای
thunder
##راض
دیپ
sup
simult
insisted
expert
Thanks
neurons
نمونههای
satellite
فاز
لیا
##طو
controvers
زنانه
توانستم
##پیوند
confident
Exc
ناتوان
punishment
مذاکره
Potter
census
mud
پذیری
##دها
##زبورگ
insect
##ulating
سرشماری
نمیخو
##امیک
lessons
Apple
Syrian
مریخ
gods
infinite
conclusion
قاچاق
Tre
cord
غالب
union
نامی
##ecess
drift
1967
هندو
Ukrain
maid
درحال
استوار
##aco
اوب
##vere
##leton
attempts
introduction
Snape
Arkadyev
وطن
##onely
توف
ایفا
##cked
رنگش
مختصر
explo
surely
hospit
recommend
امریکا
challenges
inhabitants
Foreign
Mason
MIT
rage
دانی
##ودر
sob
knee
دانشجو
Allen
Abraham
میخوردند
گشوده
territory
wretched
Pen
##17
##AA
formation
cheap
حیث
considerable
purposes
مرزهای
قیافهای
Irish
tur
ماز
##uri
stored
Real
تأخیر
transition
سنگهای
اندازهٔ
skill
فلزی
feared
Guide
describes
انتشارات
visitors
آورند
emerged
firmly
liberal
Nikol
نجیب
مداخله
Lo
##يا
##umin
آنهاست
##ideos
مرس
Sant
سیز
قوت
##مع
positions
sooner
چرخش
ساحلی
دندانهای
Imag
میشناسم
آستانه
hunger
راهنمای
ناست
##aver
##OM
##onom
inex
##ilib
نمیتوانید
##aints
misery
grandmother
glasses
neighbors
مکانیکی
Bulst
Golden
earnest
Business
abstract
opportunities
craw
sample
طع
##قص
خوزه
lip
هیچکدام
letting
estate
ایمیل
divor
hoping
salt
prayer
خاورمی
بنشیند
##inder
ادراک
تابستانی
نمیکردند
ماموریت
براى
wishes
cure
cash
wip
خرگ
رین
غنی
پیغام
مینویسد
refuse
عیسی
wisdom
tower
معذرت
##rence
##قول
##eters
##igan
##ourse
ویکتور
برادران
radiation
افسرده
observe
لطفا
council
concerns
possessed
تظاهر
محترم
Bulstrode
CE
Turn
##فون
منش
fired
پیامبر
ملای
متمایز
مکانیک
Building
Satur
غالباً
diet
غض
##fect
برسیم
##یرا
chairs
بشقاب
1969
ترافیک
birthday
Mit
##kh
ath
chin
اندر
Soft
pool
##inton
lasted
enjoyed
برگزاری
نقطهای
لایدگیت
سوندرا
CC
joke
##rot
stamp
امیدی
ارلاندو
##همه
پایانی
indign
رسانههای
obey
distract
receiving
وبلا
uncomfort
Baba
Jackson
Poor
CY
Cad
Corn
آره
کوم
خوار
موهایش
دوردست
کلفت
##awa
سبزی
هفتم
Polish
volunte
ماهیگیری
murd
کامیون
innovation
نپ
##rating
ارث
دلاری
Arm
##ansas
assert
نرفته
ماشینهای
چسبیده
Ariza
خودتون
perpet
fears
ریاض
اشکالی
Media
دشمنان
کمپین
ارزشم
precisely
ensure
Scotland
Saturday
Niger
nonsense
sank
##ja
##cr
##زنی
##کوه
rein
بیولوژی
outer
useless
##ناع
دانید
interface
Exp
انداختن
reflected
بفرمایید
##قانونی
مطلع
Casau
jew
هف
##گلی
##ودن
##ferent
اونو
preced
توانم
1977
angle
کوره
شاخههای
Corpor
railway
Taylor
Bad
DS
Mamm
لیدی
##رها
##vet
##ouri
##ادش
intense
peas
میپوش
مهندس
Olympic
پرهیز
Netherlands
Having
##اریا
بیاب
debt
prime
Station
equation
repair
suspect
هارولد
knocked
صادقانه
welcome
pace
##بستگی
##tes
##itate
##هاس
comr
هرکدام
بازتاب
راهش
YouT
سپید
generations
منتظ
reputation
##zech
معتبر
خدایان
بیحرکت
عاد
مفر
##sen
##گام
##ادو
##stan
##ولهای
امری
مارگارت
سکونت
ببریم
##going
translated
component
Casaubon
خیز
##زین
Third
تبعی
depending
##unicipal
بفهمم
پشم
##andal
abrupt
saving
roots
improved
بپردازد
Atlanta
محوطه
ghost
Ale
Bru
Czech
Hong
wings
شایست
##leys
توق
کارشان
##abled
##geon
winner
foolish
Saudi
بقای
##بول
##DE
##mmet
shake
##rypt
کشی
ترش
synd
جانبی
هیکل
arts
uttered
وجدان
Non
زه
سئ
شریف
##بای
باخ
bew
consent
keeps
تلاشهای
Medic
Florida
جسمی
shooting
لعنتی
kilomet
توجیه
YouTube
Kut
Near
تدار
##orus
##enz
اینچ
shining
##antry
unlike
aged
ناچیز
##bler
curt
افتادم
معنوی
climbed
instrument
دموکراتیک
colleagues
ویدئویی
Weasley
##isk
برسند
stations
##opic
سرکوب
بازگ
fee
##fulness
حدودی
آدمهایی
approaching
Grace
پاکت
creates
domin
association
ورزشگاه
Architect
refugees
Economic
Linux
Aff
rust
sed
##چههای
##hr
##TER
##یدهای
beach
دومی
گفتو
الله
Johnson
involves
appropriate
Following
فنجان
خاورمیانه
Labor
bunch
بتر
چیره
hem
روزمره
##angle
scared
Valer
هیدروژن
واشینگتن
آرژانتین
معاصر
Kim
fib
آبر
دزدی
##unning
پسرم
##واش
imper
Asse
بشوند
آزمایشی
Clar
Amy
امکانپذیر
employees
incorpor
Lor
تطبی
##RS
##المه
تصرف
actress
غیرقانونی
ماهر
photo
مفهومی
عموماً
furniture
متاسفانه
societies
Mum
Treat
bench
tact
##شانی
##com
##نها
##نائی
genius
گردیده
اخم
##inson
treasure
زندانیان
minimum
portrait
85
##اژ
beating
conven
parliament
silly
silently
بدانند
##attering
shouting
arrest
ابداع
CS
EG
Si
مباح
##ــ
سروان
امسال
کمدی
لبهای
fellows
Barbus
پوشانده
Language
Dmit
Mond
Ott
شرف
##64
bearing
islands
butter
ناام
چندی
زیبات
attent
##aze
charged
protected
میپیچ
antib
surprising
dependent
incredibly
پارامتر
43
Rh
ped
خاند
##hand
آنات
##aux
Ins
دهها
ادای
نسبی
install
adding
swear
حاضران
مجمع
expecting
Radio
Cub
اکر
##ونگ
محاسب
کشم
التما
unre
میگه
ایراد
lands
sne
mistress
کاترینا
mystery
Son
شلاق
##افته
##19
##انز
##inity
##anz
##ami
##una
sofa
spat
مدعی
earned
##منت
deaths
مقاوم
تسلط
لغو
فاجعه
آنجلس
Ferm
Number
Pass
زای
##atar
همة
همکاران
reign
دستمز
##کره
مسیری
مسافت
##اکو
دیوارها
internet
Enter
مستقیماً
آتوز
Retrieved
dedicated
ceremony
Yanke
tap
قومی
##uously
##ایجان
##irts
انق
اعضا
بانگ
برمیگرد
نتوانسته
searching
زاویه
prospect
آنچنان
Dantes
برلین
##ختند
##opter
بزنی
hasn
راهآهن
جهش
دیدی
committee
کلیه
سفیدی
افتادن
تابوت
##engers
نسخههای
لشکر
valuable
Cristo
pip
##rium
بیاند
abuse
chrom
button
royal
evolved
جانشین
hardware
گستاخ
prompt
barely
##archy
نشستن
ببرید
طاقت
Equ
##سکو
##pa
##iro
کوک
بنای
نزن
relie
آلکساند
بشریت
مارچ
حیوانی
1965
سینهاش
##osophical
jer
##onc
##arant
روبات
diff
##نمایی
اتفاقات
گواهی
keen
robots
کامپایل
budget
Gi
بیایم
##agin
ناگ
پیک
نشیمن
humili
gotten
keys
بخواهم
زندگیاش
citizen
آذربایجان
600
Hom
ابه
صوتی
کینه
##lan
##isle
نوسان
نامههای
غیرع
##ernel
engage
بخصوص
ساند
##icus
Andre
مردانی
میدیدند
##فیف
رسمیت
ابرو
assured
۱۹۹۳
stead
villages
نگفته
implemented
eggs
scheme
lawyer
ICA
Nad
Psych
haste
ugly
##oning
##seud
atoms
ماس
نامط
Univers
توانستند
shortly
touching
maintained
##روسافت
Mov
##ِی
##nds
stern
manif
producer
increasingly
##خواسته
hatred
کتک
مضح
proteins
کارهنین
Ein
##کـه
##lar
##لک
##صب
##inus
##arted
مرجع
گرداند
retreat
label
شتابان
دگرگون
desperate
3D
rush
tunn
جبر
لقب
orbit
##auc
##udes
سپاه
headquar
نمیتوانستند
مالفوی
نابودی
babies
eaten
inquired
framework
واکسن
Florentino
تدارک
Hard
Mult
حقایق
قاطع
##پیش
##olves
فرضی
متدا
legend
جانوران
رنگهای
خانوادهٔ
1964
شکستن
اورس
scientist
علاقهای
sympathy
نامرئی
Knight
Mans
zone
قصه
##Cl
##aration
##itis
التن
##وسه
بنت
helpless
mistaken
##یاطین
فلسطین
scholars
storage
Dad
hack
صمیمی
چطوری
##طلب
اندونزی
Chile
Harriet
Produ
هنرهای
reflection
departure
پمپ
ray
##وخ
##اردیه
##antine
روزنام
کوههای
implic
transpar
nearby
پاسخی
دعوا
آزمایشهای
significantly
انباشته
##kerchief
Low
Sul
تها
##جای
##ورها
atomic
دستکم
بازوان
پرش
##rub
نشستند
relax
smallest
اخیرا
reduction
نژادی
تروریستی
vehicles
Kal
##حت
##inth
champ
client
نظرات
offers
جنبههای
آهنی
فیودور
هلندی
تبعید
Arkadyevitch
نگرفت
میفش
بهانه
##ودگی
تاسیس
آماری
تناردیه
ages
##load
دانستن
prize
جوراب
steady
trigg
Valley
pulling
لنگر
بازرگانی
مزارع
Bat
dict
فو
قمار
##یای
##adesh
agency
##0000
buck
نرمی
approved
۱۳۷
Abb
chemistry
situations
assistance
Dear
fo
کابل
کوشید
##گال
concerning
گفتیم
spare
دلخواه
مطلوب
چشمانی
foundation
یافتهاست
گزینه
comparison
Columbia
Gene
tens
لفور
##مهای
##عامل
##گوش
درسی
منشی
##agen
spark
##عهده
handkerchief
depos
مبدل
مؤد
senses
##chest
dismiss
خلاقیت
Director
Fy
fiction
اُ
نابر
##bec
##زاب
sector
کندی
recall
accord
assess
گیاهی
لوازم
آریثا
copies
institution
Mathemat
اسکناس
Standard
Malf
okay
دوان
##rad
استرس
##ویک
پسری
##ipher
تشریح
incomp
۱۹۸۹
مدارک
surrounding
Between
Origin
wrapped
قزاق
تبعیض
Ray
##ّی
##iner
کارگاه
##akov
##وتو
##شنه
قطره
palace
مقالات
جلسات
surgery
ICAO
##ناس
کارد
مسن
adult
##شنام
grim
slave
Nobody
surve
تلخی
فلج
برگردیم
عیب
بپرسم
Rosamond
Hog
ذات
فورد
##خان
فرقی
offices
Anim
آمدهام
effectively
rocks
selection
پرستار
senior
Matt
echo
##اظر
##low
timid
Soon
##اکا
سیتی
##ikes
فیسب
فرانسویان
خصوصیات
journalist
Certain
Kir
Vas
bored
lonely
sink
خاکی
عطر
##ضه
##ضار
shade
آموخته
بسازد
organic
##اعده
troubled
occasionally
دماغ
arguments
##آباد
lifetime
تقدیر
alcoh
mild
جزی
زغال
##18
stack
تونستم
steam
floating
remarked
brave
پنجرههای
Know
Song
Unt
gap
raw
##ür
##elly
##olen
shy
داشتی
نقشی
kindly
terr
arrive
کوهستان
Natural
Transport
reminded
حشرات
adventure
مراجعت
cloak
Na
Nature
Sound
gang
خندان
عاج
پیا
##رفت
##ivina
احمد
کمرب
اتریش
هیچچیز
cared
distress
colored
muscle
valid
##مندانه
labour
suspected
رسانده
episode
دانشآموزان
طعم
##fly
##سری
##آگاه
برون
سرچشم
##یستها
knight
میکردی
مردانه
زیرد
Police
characteristics
مرکب
regarding
بولست
CPU
##خونه
##ژین
##ینت
##یدر
##الها
##aka
brows
اشعه
guarant
زندگیم
شلوغ
Iraqi
constructed
نوشیدنی
splendid
Meanwhile
خرگوش
RP
##uh
toss
infer
##stream
راهنما
crossing
شادمانی
##igrants
conventional
Edmund
تلسکوپ
Benn
Ga
hence
pipe
ختم
موان
##بانه
##ardier
افسون
تبسم
سفیر
considering
Silver
disgust
Dun
GS
جنا
##enance
##onder
##irect
Alf
##لوع
فیلمبرداری
Clivina
engagement
میآوردند
پنجرهها
##shire
Sex
bree
dies
قصر
##ni
##16
##RA
##TA
##ستهای
##تیو
##usions
فرشته
معبد
نیستید
سپرد
Prop
assure
writers
Fyodor
flex
فک
چمد
##DL
##40
Theory
##rod
cann
##کسل
exposed
crown
evident
Show
operate
خیابانهای
phenomenon
Kong
SC
Sign
fab
pump
مگس
نرد
اینقدر
همهاش
intim
اجزای
writes
Database
fishing
harsh
wiz
جراح
لیت
##کد
##۲۰
استح
##acco
frown
میگری
scan
mighty
confront
infection
گیلاس
##تاج
reprodu
offering
الکترون
hyper
utterly
التماس
Malfoy
NG
na
telesc
قاعده
۴۰۰
##يي
theater
##ایب
تاک
earliest
نمایندگی
limits
۱۹۳۰
پترزبورگ
route
cosm
اکتشاف
عثمانی
density
پیری
##net
##زیم
##zh
بیابان
توط
directions
promote
نجوا
mercy
authors
ceiling
penet
درختی
paintings
observation
Pavlov
Rou
lux
زهر
وست
چو
##kind
##pes
##EM
##32
##orf
##ods
مشه
format
##گذاران
مکانهای
anticip
طلاق
##ollywood
ratio
اشعار
Azerbaijan
حوصله
expansion
02
Hun
سیری
##صدی
begged
seats
meal
unple
##فیه
سخنی
خانوادههای
immune
examined
عروس
customer
فارغالت
staircase
Buck
۳۶
##اضی
##بک
##RI
lover
مجل
جهنم
خاطرش
meters
##نتینو
designs
##بخشی
جیکوب
هفتاد
practices
میگیریم
غریبی
tremend
مایکروسافت
##inema
##rastructure
Hass
tailed
غصه
مفت
##atched
میخانه
ازم
wash
نمیخورد
میشی
نقرهای
دانسته
برقراری
executed
اروپای
recovered
دیپلم
Burg
شوی
شیاطین
##کنده
بات
frank
معص
جمعه
اشراف
forming
طرفداران
صداها
awake
1950
نسخهٔ
اعلامی
Baker
Ho
##edge
##rive
##ختن
دادی
حسادت
آلبر
talks
فرانسیس
Shar
Bridge
contrad
Valent
نگرفته
Alexandra
Region
fluid
prosper
Eugene
uncomfortable
46
گا
##اوند
##ارتی
درازی
weary
choices
constr
amongst
throwing
Pegg
عملیاتی
عینک
companions
آشکارا
رفاه
میفهمید
weapon
uneasy
Athos
peasants
Bost
vague
##لندی
##آی
##ادری
##utt
روبر
cha
دادستان
##کلت
کشورهایی
guitar
stopping
virtue
وجد
dragged
آتلانتا
عاری
عکاسی
قرا
لخت
نماند
نخورده
##uin
##وانا
amuse
boats
Unlike
ریس
خانوادهی
elsewhere
خاموشی
برآورده
sacred
حباب
طلوع
##جوری
##پشت
میمیر
استا
neat
Dead
انتخابی
بعید
##anna
##نواخت
Arabs
بدیهی
suggests
Frid
Solar
Summer
dynamic
Ring
videos
جود
##verse
اتاقهای
جانش
continually
Constitution
میسازند
وابستگی
نروژ
transmission
میکشند
لوس
##ابتی
محال
composition
scenes
##enez
فیصل
زنجیره
##ancholy
restaurant
Valeriana
Walk
Wales
mic
rhy
ولو
پیت
گیره
##فری
میور
##itarian
##istical
مشرو
تنفر
بگویی
لبنان
دوستم
##ika
devoted
Community
1939
بمیر
چرچ
struggling
حشره
recommended
absorbed
صدمه
proportion
Virginia
##mond
دربر
کارکرد
همهجا
##inea
##افزار
کلاهش
سوخته
Beck
نکنیم
شادمان
میترسم
كنيم
800
Lloyd
Navy
honey
nerve
تسک
هاست
چاب
##then
بیتی
دارویی
امام
manners
gramm
obtain
تبادل
کیک
lighted
بتوانید
risks
staying
نشدهاست
mechanism
لغت
hunting
دیجیتالی
newspapers
بکشند
Movement
عادل
##bly
items
کنس
بیص
Stone
بلغ
##بودند
نشانههای
تعارف
خندهی
سنگها
mothers
پلک
Collect
شخصیتهای
ارزشی
قربانیان
Catal
##lı
##حش
##طوب
##rell
shiver
nois
دهندگان
nearest
Teh
ادعای
Upon
معجزه
Hitler
Hig
Pu
Poly
اهر
خیری
وستن
##aters
##ارج
میم
##otty
##irm
analog
##کنید
هیچی
آرنج
نزدیکترین
Independ
برگردم
difficulties
هشتاد
Austria
بمانم
Defense
همدردی
آسمانی
dad
pushing
دلا
قید
##vi
##په
##atoes
برانگیز
##ندهٔ
##وزوف
خواهان
##خیلی
بـر
رفتارهای
##اسیون
1966
attracted
Governor
Denis
Imagine
ric
inch
stare
stages
نمیشناس
محف
##سانس
اتاقش
glory
Marx
فیفا
particle
لهستانی
gazing
administration
کارمندان
تظاهرات
cotton
inequ
لطیف
Lie
pitch
بودکه
##میشد
دیواره
اعظم
##ocation
ریو
میسوخت
بپذیر
consideration
injury
apparent
Chapter
drank
option
##داز
هیچیک
بگیری
چندانی
انگیزی
everyday
trace
خریده
نمیکنی
نکردند
ایدههای
angel
پناهندگان
clothing
airports
تسخیر
دربارهاش
ربطی
متداول
تایل
عسل
##خین
براق
begg
بیوه
##ifies
الکل
##cca
ساختارهای
دانیم
extend
بسازند
عشقی
computing
کاربردهای
Military
دانمارک
یانکی
Make
Wait
سکس
##yo
##rin
##عب
frac
دیسک
##اقض
فرضیه
##range
مشورت
Myr
Centre
addressing
شهروند
requirements
Bos
Daza
lou
nodes
جارو
##مایی
##الیز
گرام
مسجد
resumed
اعلی
Anne
regional
Ref
##ographical
eleg
معناست
melancholy
مخاطب
فولاد
depths
accurate
gesture
اعطا
49
navig
فاید
اومده
##ولههای
##operation
بازو
نامهها
تحمیل
interaction
Online
بگذرد
sixty
successfully
خویشاوند
burden
طلسم
boxes
midnight
concepts
##ustomed
thermal
illegal
Bra
حافظ
##bin
##قام
##OD
##انید
engin
طرفی
retire
1962
تونل
supporting
performing
threatened
معتقدند
شهرداری
Census
Penn
Sav
diver
foss
pier
شیم
طری
##خا
داشتید
leather
زنانی
متحرک
reader
delicate
سرمای
مشخصات
freely
مزیت
Justice
necessity
جونز
برگزیده
Wilson
transferred
الگوهای
distinguished
Palestinian
ارکستر
surrender
Game
lap
##وههای
##پیر
##كه
ازاین
##tery
انص
prosec
جولیا
careless
matrix
شورشی
1948
breathe
##ascal
طنز
substant
Pyth
simultaneously
Lim
Ts
binary
فال
##پور
##TC
##organ
آمادگی
معامل
نامید
میلاد
موسیق
نرفت
نمیکنیم
1950s
تخصصی
تلگراف
میفشرد
فیسبوک
Point
##گور
##top
##hent
بیار
##keeper
##outs
ساختاری
Arag
نمیتوانی
##grad
فعلا
curren
واگذار
آمدهاند
explore
صرفا
1941
مستقیما
قفسه
Ger
vit
ward
یوتی
##نوع
##vol
##ینیا
toile
beer
موازی
##کردنی
##ighter
slip
خودشون
founder
اهب
movies
manufacturing
پروژههای
rejected
talent
غافلگیر
Colombia
Fact
hid
horn
کیشوت
##شایی
##یع
##mo
##itating
##گرهای
توهم
chim
احزاب
میرم
میزدم
ending
بعضیها
##hematic
identical
Darwin
Hosp
Snow
tourn
پرف
کاف
##nal
##يق
##str
enh
agents
ساختمانی
خوشگل
آمدهاست
آخه
locations
تلفظ
printed
##utenant
lun
roles
خد
##nie
راهپیم
خطری
گلها
نرسید
edges
slee
تونست
Serge
مهاجران
قیافهاش
عفو
سواحل
ridiculous
خاندان
66
Talk
لق
##شق
##anian
##roid
دوق
گرمی
اسمی
پسند
##وردی
آبجو
رساندن
##کوئ
182
##elta
listed
funeral
Within
نمیرفت
rolling
Broad
ruin
مذاکرات
تقدیم
خرمگس
مزاحم
Sciences
Fa
Grig
mart
لار
داروی
##unted
Chief
گردنش
مغزش
نمایم
۱۸۴
Edition
##ropol
painter
مسلط
##coat
موسسات
Brooke
رشتههای
withdraw
romantic
Ever
Live
rope
فاس
هوم
##after
##LS
##eav
##cling
acceler
شهادت
persist
سیستمی
مدرس
نمایید
نمایشنامه
meetings
چهرههای
۱۹۴۵
Front
quarters
برنمی
instruments
torment
Administ
SA
Venez
##point
##with
##orious
##icon
##الح
##owder
یکنواخت
shri
اسف
نمیم
ترویج
clut
quiver
guest
ابن
شیلی
کوتوزوف
likes
establishment
pronounced
نواختن
گوسفند
Ze
craft
hook
سنی
ستم
ماب
##irable
deck
میگویید
منظر
propag
Serb
Systems
منصوب
Corporation
Ay
Som
غمان
فاک
##aned
راد
##asted
امیر
پرسه
هایشان
##athan
guards
##orris
immense
squee
collective
functional
شنیدهام
Medical
geomet
##agram
سوئدی
فتح
Kurd
Tower
Vic
pardon
##iac
##rant
##ذل
##etical
recept
سرعتی
##igma
##asting
##udge
نوبه
cloth
مجزا
regime
register
produces
بعض
منتقد
replace
telegr
introduce
Terror
غضب
EC
##تز
##پزش
##itively
##otr
##لیون
##ulpt
متقابل
ساختگی
خوشایند
insist
کلماتی
مسلماً
پنهانی
منحنی
expanded
خونسردی
acknowled
Football
##چر
##oons
##صلی
##هاى
انیم
##oded
ناو
monster
اشتباهی
واحدهای
قشنگی
consumer
farmers
فلورنتینو
مطلبی
روبهرو
swimming
molecular
Grigory
PS
cort
يا
##zb
##US
بامداد
##adow
conj
##یلند
مرطوب
میراند
گریس
businesses
covering
Swiss
میگردید
مولکولی
گوناگونی
##oiselle
defeat
شهردار
suspicion
darling
غیرعادی
جزیی
Ban
Bey
pap
آدام
جانی
سفت
مزد
پنداشت
##nel
##cription
##uma
محم
بازیگران
exped
fewer
assume
مارش
##ucky
Expl
بخواهیم
جایگزینی
permitted
mathb
Remember
حساسیت
53
pound
۷۵
##iev
##avel
جوایز
##باران
ساعتها
##text
فهمیدن
داثا
قلبم
۱۹۸۴
مشاهد
conversations
sweat
dressing
gardens
distinguish
Saf
je
nig
##وام
##فیلد
##ریا
اومد
##see
وقتش
acted
معمار
موضع
protocol
1936
Petrov
طرحهای
Arabia
crowded
اشخاصی
injured
پایداری
تزریق
dimensional
imprison
محاسباتی
Koch
Mouse
ga
هدر
##بون
##ساری
##ادند
stores
##ands
##اندی
مردن
##استفاده
feather
نداشتیم
ریه
grounds
civilization
palm
Nevertheless
استودیو
battery
Hop
##bi
##orters
ازت
beam
##مینا
eyed
##grily
اشتبا
میبینند
resulted
بقیهی
##uzov
الکترونیک
ناسا
queer
category
اورسولا
مود
وند
دراین
##ista
##وتین
recalled
برگهای
##obi
گریز
muscles
alongside
barrier
engineers
gathering
duties
Major
corridor
Fund
Hold
Pict
جابه
نانو
##ساب
راش
##rection
##ghter
##ctic
کارآمد
##فرین
intr
Stop
Story
تحر
یادبود
بگذر
landing
physically
1940
cultures
شگفتانگیز
درآورده
vanished
میفهمم
آراسته
fantastic
مصیبت
NP
Sus
holy
مهی
هارت
##isal
ing
##asped
##ادور
برآمد
rejo
##emoiselle
ماکس
متنا
##rane
cock
returns
marks
multi
برخاسته
سرزمینهای
بیاورید
universities
آگهی
نوشیدن
landscape
Nikolay
Budd
DC
Falls
Mind
Made
arose
mamm
sale
غرش
مُ
##iams
##cers
میکشم
seed
##illo
کارولین
##وارهای
ستاد
پرداختند
روزنامهها
assistant
غیبت
جینی
ربود
##خاست
##uction
prol
کلک
brut
Alt
flour
depict
equality
موقعیتی
آفرین
مسیحیت
Direct
ol
ta
tale
##ashes
هیچگونه
بنویسد
بازیها
endeav
assass
infrastructure
operated
فرماندار
periods
شفقت
انحص
lists
pond
##ولند
خواص
نمیگفت
##mph
زمینههای
strangers
earthqu
initi
guessed
##فروشی
Senate
استثنا
photographs
Tehran
diversity
جنج
دایر
هیر
##vas
##wa
##انند
##هایمان
##ilation
##ument
پرسی
عمرم
مریم
رنگین
metaph
Notes
میتوانستیم
gloomy
radical
Everybody
communications
دموکرات
exhausted
جوزف
لاز
##شها
##سرا
##zes
orange
##abul
نمیزد
اموال
overt
پیپ
کوچول
personally
گیس
مجموعهٔ
۱۵۰
educated
souls
prepare
loudly
adopt
موبایل
زباله
wishing
سست
۳۳
##gon
##زنان
##تیم
##ذکر
##orph
دوب
usage
amid
scent
مرگش
کیلومتری
Moreover
کنجکاو
##IDS
encourage
متأسفانه
معیار
engines
Fle
Mike
Sel
nan
سبیل
شال
وه
یگانه
##عا
brow
attach
##uality
##uthor
conviction
discussed
۱۹۲۰
##نظامی
clerk
##repren
ویدیو
RNA
قند
پگ
Theatre
دستان
معش
quit
fires
newly
1930
secrets
collar
فرایندهای
مسافران
conceal
Call
SN
festival
ju
rs
##اگو
##lers
##70
##inates
سرپرست
manip
اره
ناحی
ساختند
brid
دادهام
matches
##اپور
personality
تاریخچه
مزخ
variables
Bulgar
concentration
cheerful
Secretary
behaviour
##ilibrium
سئوال
69
Fif
Log
WH
حقیق
tob
##alia
shapes
حالم
بدید
##venue
##افرو
بینایی
##گذشته
##iki
سفری
واگن
خوابگاه
پسرها
قدمهای
رانده
striking
Federation
proceeded
Relig
stroke
قیام
Argentina
Wikipedia
hollow
بلژیک
Einstein
Peggotty
##وفر
##فال
دارا
Thor
مجال
اطلاعی
##plex
درختها
مزایای
##انگیزی
ساختمانها
executive
pockets
contemporary
latest
procedure
Encyclopedia
Kutuzov
Venezuel
dio
poured
جامه
##down
##ذا
##acement
##rooms
##ulus
سرنگ
گرایی
هیچوجه
راهاندازی
متحیر
نتیجهٔ
governor
۱۹۸۵
نکنند
Management
concrete
representation
Small
خلبان
terrorist
زادهٔ
گیتار
deserted
ضمناً
Assembly
Until
unpleasant
Friday
74
700
Cre
بتن
##gence
##pent
برطرف
میشم
##باً
countenance
پوشیدن
Williams
featured
participants
قضایی
Boston
Cost
cust
woke
##uation
##hov
اوکر
نشین
دیدگان
شنل
اشتغال
##ippin
sixth
Anton
quarrel
لرزید
Atlantic
codice
Der
ED
Raz
mask
sang
آما
لام
##oding
abund
##ieval
مملو
پاولو
آشوب
curve
Thenardier
ترکیبات
1929
امتناع
سعاد
Records
تجربیات
میگذراند
یکسره
ly
فدراسیون
مظ
##اگ
##ئوس
##onal
Butler
dont
شخصاً
Amm
باورن
1963
ژنوم
قاعد
عرشه
syndrome
Las
melt
نویسی
##سار
##inn
دردی
##sters
stem
خوشت
##ارتز
##oca
خطای
##ribly
decor
discrim
assigned
گواه
مشکلاتی
لباسش
میرسیدند
برادرم
عددی
kingdom
array
preparing
لینوکس
sharply
بشنوم
fatal
مسیحیان
owl
Indonesia
آتی
ظل
##held
توالت
الجز
##print
تأسف
ابزاری
experts
رفتارش
Orland
Amb
Convention
عقبنشینی
absent
متناسب
فلسفی
mechanics
gratitude
Dro
Sup
##ملی
##medi
##aran
##ونیا
##ells
Heath
نشر
##کته
چهارمین
کمیت
##وستون
میگذارم
فلان
نوشتههای
دقیقهای
sunlight
tested
ویرجین
۱۹۴۰
Steven
disagree
مکرر
turb
هالی
##یکی
##high
##قدان
بیابد
sear
هرکسی
اتو
میآورم
widow
Board
وبلاگ
جناح
چرچیل
gown
vib
نوی
##فار
##vation
اینطوری
sovere
##کنار
دستاورد
##وتن
compr
مسدود
crash
drama
bloody
میتونم
counsel
Darcy
لگد
بزرگسالان
نابرابری
معشوق
56
Hart
cher
wides
قاه
##fare
##ystem
##isa
منج
sto
##اقت
1900
بدش
intimate
تنبیه
Stock
ممت
##وقع
ابدی
email
والانتین
organisms
۱۹۷۳
بپوش
ناخال
Listen
agreeable
bewild
damp
ذاتی
فون
##IG
##inence
##uty
sprang
##iven
بنظر
تعظیم
config
لوئی
عصب
expressions
Ahab
therapy
panic
لعنت
مجهز
occasions
شتافت
سرچشمه
فایدهای
Orlando
Bible
Pippin
Years
aer
pup
جاه
یی
##01
##pread
##vals
##ِل
##ُل
##لاط
##انداران
outcome
ترحم
agony
scandal
buying
pleas
1959
قیمتی
معدنی
beaten
reactions
cabin
philosopher
Hospital
فاکتور
Bil
ابی
دز
##تین
املاک
اطلس
recording
decent
مغرور
continuous
بستن
lowest
هشتم
مورچه
لینتون
قیافهی
encouraged
celebrated
##onomous
Valentine
Gab
Hans
Test
ming
حریف
لیم
مونت
##eem
##zi
##St
##ardo
outc
agencies
نامح
آرم
مادران
generous
جامد
عکسهای
کلاسهای
Volume
attractive
هلن
laboratory
##otype
candidate
Walter
thoroughly
Lew
borders
les
هلی
##uv
##rick
##urus
alter
خوبه
بیک
##osc
##ilda
نیس
ours
backed
همینکه
احساساتی
کمکهای
modified
آسیای
پرستاری
Hotel
Amazon
ارزشمند
یوتیوب
Bureau
Turing
Wolf
cub
chess
nic
شری
ژاور
##pers
ink
##adio
##acc
heating
خودی
bye
##ource
معط
ناش
مجذ
بازیابی
Trade
closing
situated
neglect
Luke
praise
بارداری
Dur
Rena
eh
وت
##avery
##نر
##سنجی
برنج
فراری
##assador
partial
grade
فیلد
cleared
برداشتن
ولز
پوستی
هاروارد
denied
opinions
لطفاً
EU
Hollywood
غلی
پچ
##زهای
##تایی
##án
##گرایان
##illes
Beaut
متنوع
اخیراً
Morrel
Simon
indicate
agriculture
horizon
Ce
draft
عوار
مزه
##نهای
##itled
##alis
##oples
##abil
نمره
مشا
آبشار
explicit
اعتباری
viewed
اختصار
hastily
متاسفم
sustainable
porch
headquarters
استحکام
GN
صوم
##زر
بهشمار
##ازهی
احضار
نیکو
##ifications
شیء
eleph
relevant
topic
ناتوانی
amounts
frozen
democratic
converted
torture
دلسوزی
الکساندر
جاذبه
Beth
bay
dw
##bul
##طب
##ulse
بیگ
القا
چیزیه
فقدان
poem
serves
قدرتی
سازند
چهارده
میخورم
advis
خوراکی
1961
portal
secretary
انجیل
neighbour
سعودی
لرزش
هیتلر
tremendous
Kent
MM
رقت
##IR
##ورهای
##ilton
نوین
compare
##active
فریادی
estimate
Conference
قطعاً
respectively
literary
##آمده
ایدز
Similar
folded
Carlisle
inclined
Political
آرکادی
58
Ent
Han
PR
Rio
rely
زل
لامپ
##upp
##99
##وریم
##uman
##اقعی
Isot
##اپیش
Env
آداب
hopeless
مهمانان
symbols
Mountain
comprehens
murdered
دستمزد
Crit
bars
cries
تویی
جاش
شین
##گرای
##usc
کلر
interior
اونوقت
secondary
reducing
دولتها
equations
پوشید
سانتی
collapse
funding
چربی
negoti
rescue
terrified
ماشینی
دمی
فانوس
##يار
##oni
بهای
آنست
##eting
مناظر
liver
skull
وسطی
awa
ایمن
marketing
util
emergency
participate
mixture
وفادار
حماقت
بازگشته
alcohol
Fried
Ok
اریک
براش
##ورید
اسکند
accustomed
extensive
کاناد
پیشروی
Series
Merry
clinical
tobacco
Ald
Bing
Mid
erect
nick
مرو
چاره
یقه
##ho
##han
##olk
angrily
روحیه
ماک
##ورتمه
sculpt
indul
goodness
شمرده
Marc
supports
ضرر
۱۹۷۴
قدیمیترین
dealing
افسوس
epid
نرمافزاری
تارا
psychology
تضاد
shocked
Michel
Division
بازاریابی
cognitive
Wild
bull
سمی
نود
اینان
ارب
regiment
admiration
pressing
sensation
بطوری
occupation
نمیخواستم
متأثر
holiday
Rain
Ruth
جکسون
##وظ
##iop
##lav
##ez
##ادف
##ورس
##راست
##uscript
loop
معما
نیج
کاملی
##تمن
ببینی
centers
۱۹۸۶
##جویان
settlement
automatically
کابوس
hesitated
isolated
فارغالتحصیل
تسکین
Note
وایت
##IL
##arn
deploy
نمیت
بارون
scattered
accused
landl
McC
Greece
Denmark
theorem
سیاستمدار
seldom
fert
tons
حول
رهایی
ناهم
پرک
گس
##wig
##itual
استار
آنتوان
##chi
##تره
کنیا
nep
##iva
معلق
aggress
بینیم
بینوا
کوچکش
##prise
شیب
furious
troubles
decline
مجددا
ماتریس
improvement
نصیب
موانع
widespread
Gib
Hur
None
Nov
cattle
rif
ائت
هدی
وخ
وبا
ژاک
##rm
##olm
تاجی
suitable
بارانی
distinction
##annels
##ervation
Beat
انداختم
ترسیم
نکشید
Seven
merc
مادمو
apolog
دیوانهوار
Julia
میدونید
blew
responded
assembly
defeated
accomplished
contempl
pilot
dimensions
vessel
نمیشناخت
Engineering
Software
##ão
recip
loyal
پیشاپیش
عموی
##iley
نسب
reluct
پاها
شیوع
Christians
بانکی
۱۳۶
reasonable
1938
تیغ
facilities
میبرم
ردیابی
ملاحظ
رسانهها
##ocolate
لزو
زیرزمینی
هابیت
2nd
88
Fall
Sv
قوطی
##دو
##کون
##po
##ایات
##uther
##uled
twisted
سیلی
تعبیر
Really
خواستند
بدنبال
راحل
corruption
غذاهای
دستیار
calculated
lantern
ناامیدی
کمربند
Bangl
Marsh
gates
بوم
زي
ظلم
هورم
برگرفته
##otte
heap
##riages
فرش
compounds
##ials
wherever
##ونیک
زمینهٔ
insurance
مخف
نقشههای
entrepren
Heritage
crypt
مساوی
representing
shares
climb
تکنیکهای
کشمکش
توطئه
tough
ورد
##uity
##pher
فرشت
امضای
plus
دهقان
تصمیمات
patience
approaches
جرئت
میروید
corners
بصری
passionate
عظمت
integrated
Pyotr
متأسفم
reverse
پلاستیکی
آنتونی
تبار
حقه
رقیب
##uced
##alus
باتری
##adel
##acent
weird
perception
جماه
##orney
covers
passes
lightly
assign
##ینگتون
1947
pretend
۱۹۷۵
gloom
embarrassed
گذرانده
03
Nast
rows
ربع
##سپ
##pro
##agan
معال
##issance
##خواهد
Shah
بچهای
فیلیپین
survival
پژوهشی
آسانتر
گندم
gallery
wealthy
ندهد
embrace
subsequently
Bird
MT
Naval
gam
##رکی
##iti
کاربری
مقت
دریافته
خانوادهای
حاضرم
1935
volt
وصیت
transformed
criticism
tenderness
Nazi
swiftly
hospitals
پگاتی
حت
قوه
لیزی
نگری
یاتا
##انها
##itched
##ادم
برافرو
کاردین
فرمینا
نمایی
زیاده
چونکه
منتقدان
دولتهای
footst
announce
پیشنهادی
divine
نتواند
funds
traveling
ruined
pollution
rsula
Bangladesh
GDP
Vern
ریت
صراحت
قوای
##bury
##sed
##سفر
interf
قبال
passengers
یافتم
infected
۱۸۳
درختهای
trif
۱۳۴
تلفنی
۱۹۶۸
تراش
مـن
##ironments
Mademoiselle
significance
trembled
برمیداشت
نوجوانان
گفتوگو
تطبیق
Fermina
عوارض
Cab
Pope
Ross
Rub
bos
دنده
لوی
##itudes
کاراک
flav
لبهایش
believes
charges
۱۸۵
##ancer
پنیر
گرمایی
1949
قهرمانان
Boris
Physics
syntaxhigh
currency
syntaxhighlight
DVD
تسه
تورم
##jud
##eenth
##eras
میکردید
دلایلی
##بردار
سلطان
Anat
ایرلندی
نوشتم
120
تیمهای
۱۹۸۸
عکسها
##eshold
آفتابی
briefly
Digital
wicked
لان
##ریایی
پشتش
نیرویی
swept
solved
شبیهسازی
Command
objective
1946
۱۹۷۶
eyebr
میگردند
میپرسم
precise
Norway
##ographer
Behind
nephew
gross
##گیاش
##ضر
میکروس
سرقت
##igm
نقلیه
impressed
دیدنش
شبح
crimes
puts
برنامهٔ
لوئ
##ettes
damn
آشپزی
معنایی
synthesis
substance
observations
دژ
##25
##atural
##ington
##لائه
فرانی
دهانه
مشکی
مشکوک
جملات
trap
پدرت
polar
inspect
مخزن
Airports
sket
walks
singular
نخستوز
1944
آراگ
beliefs
فرسوده
عنکبوت
Bishop
Sky
شانههای
##سایی
##inals
##ولف
convey
disgr
آشفتگی
تکلیف
designer
هفتهای
۱۹۸۳
مراقبتهای
regularly
##break
persuade
abruptly
جماهیر
Pont
vice
ساس
غوط
##sm
##IX
inward
##شتین
washed
انس
notable
scen
cooking
bund
مستعم
پنبه
##neath
separation
موتورهای
قشر
تحقق
documentary
سرسرا
shelter
جابجا
casual
Portugues
Key
Rab
خطور
فلا
مورت
گرده
##car
همگان
گفتید
بازارهای
حالات
##asses
apple
accum
اسبهای
اساساً
cultiv
trous
peaceful
اندیشههای
بپرسید
Control
محدودیتهای
Spring
Honey
Rot
gy
دفت
سازه
چن
##eli
داروین
##outheast
اسرا
کوهها
##anging
انجامید
underground
مثلث
flies
##مدت
countess
transformation
خرسند
##aneous
۱۹۸۲
زندگیشان
pursued
وفاداری
chapter
physician
masters
galaxy
saddle
خیابانی
Ec
Event
Porth
awards
##امتی
##agers
frust
##umbling
ماژ
export
Thou
enable
المللی
رسانی
بدانیم
صاحبان
deny
magnific
فنلاند
مناسبت
Socialist
پشیم
eagerly
قارچ
Dob
MD
حومه
##وویچ
##rates
میسر
##areness
prohib
کلند
##anks
بالینی
گروهها
landed
ابتکار
۱۹۸۷
controls
potentially
traveled
definitely
چنگال
motionless
fetch
Javert
AIDS
Tam
نبین
##زمه
##كر
##orse
##olph
##وانسیون
##روک
shops
بازرسی
##نیک
##وزید
##berry
peak
نیوم
grows
traged
نشانهای
mathematic
میپذیر
عالیه
Feisal
پرتغالی
میخواندند
checked
رویدادهای
خنثی
interactions
ignorance
پاولوویچ
باورنکردنی
Friend
GP
pile
آشتی
##فای
##EP
##2O
بلوط
میزنی
vex
دخترم
Being
1937
describing
نمیرسد
Moses
داروها
گامهای
descended
بازنشسته
Lebanon
disturbed
Gra
Nord
nit
كم
یال
اینرو
سرط
بدنی
daylight
counting
detailed
visits
پوسته
frequent
tracks
inspiration
astonished
astonishment
میافز
57
caut
maps
wives
اَ
نتر
نگو
##nut
##oli
توست
chip
نهم
عمویش
Alb
داستانها
تلاشی
temporary
اطرافش
منحرف
employment
دکمه
Laurie
مادموازل
68
Sond
کمان
##طع
##erg
##child
atom
دستگیری
theme
وقار
جاهایی
Anth
invasion
بودهام
تجسم
وحش
محدودی
dreamed
انسانیت
picking
زحم
irre
femin
کشاورزان
نمیدهند
محتاط
spectrum
بوسه
ناستازی
Gill
Yah
cu
##اوری
##آهنگ
##onies
##وانیا
میگوییم
quad
تحصیلی
smiles
##ملل
شکلات
نمایشی
equilibrium
وسوسه
##aska
drops
narrative
Strick
cigarette
راهپیمایی
hired
tran
بگی
سادهای
##پیشه
stolen
##rove
##ags
ترغی
comprom
Whit
Week
صحت
دخترهای
مخارج
protests
نخواهید
آهنگساز
Weston
survived
microsc
جمعیتی
rebu
categories
Porthos
67
Gad
Much
SH
civ
آرو
داش
ستی
##uum
##ِت
##amis
##ifer
جوجه
insert
solitary
Syd
179
prevented
اختصاصی
بنگل
واشنگ
Alexandrovna
inequality
mathbf
مجذوب
Cart
tie
ایا
##aton
استادی
هموار
دویدن
گفتههای
gover
امـا
بنویس
genome
buff
slaves
قطبی
populations
beds
indicated
rhyth
Due
Gulf
Lang
Meth
bin
boss
قم
هشی
پشته
پتو
##elia
deaf
##کیو
ارابه
عمودی
contents
lawn
remembering
۱۳۵
1933
مسلما
##العادهای
پرتغال
وحشیانه
فیزیکدان
wandering
adjust
Strickland
1st
AV
CF
jur
rape
tries
بشم
##rage
##باس
##يى
##انای
میانی
##ابلا
بدنم
unm
دورو
نشستم
recru
consisted
سازگاری
گلد
behalf
خودمون
Spir
سردرگ
Russell
تخلیه
selfish
authent
environments
influential
عروسک
آگلائه
Pavel
interpretation
subsequent
Band
Fal
nerves
تونه
تابل
ذوب
##bell
##OW
##CH
##پات
##isons
##ishers
##stand
##acon
کنوانسیون
سرکار
میگن
##بریج
نهایتاً
250
پانصد
camels
Olympics
Miller
Programm
Rochester
باخبر
pave
چارهای
##friend
##رع
##05
##SI
##etary
دستکش
معرو
پایهٔ
دورههای
flut
ملکی
عبوس
awareness
1942
1920
كردن
پشیمان
stirred
Ellen
vessels
AG
EP
gonna
بولی
روده
یاب
۴۸
##LC
##عن
##xide
##فترین
توت
butt
الح
نهادهای
humor
زبانش
cream
بحرانی
publication
شعار
سوالات
mistakes
ایوانونا
reveal
Imperial
tribes
Chemical
خراش
Belgium
Code
Lind
گریف
##۱۹
ماسا
کوپر
سوپر
##orship
جنازه
colonel
minded
magical
educational
تپههای
threats
Collins
متوالی
Sonya
Portuguese
AM
Author
Rand
dates
اپر
تفاوتی
زناش
۶۴
##és
##طار
درها
##usk
تاخت
channels
mock
drum
مشتق
visiting
سیاهچ
stops
purple
1958
یخچ
psychological
CN
Mom
diverse
vic
voy
رفق
بايد
کنف
بدنه
##عیان
##نجار
تصمیمی
Almost
بزرگتری
actors
حقیقتا
نمیکنید
concealed
##ING
qualities
Rahel
molecule
merchant
Lat
Liter
Wars
rivers
بمیرد
پاب
##نشان
##تای
##pat
##him
##ندیا
stadium
دستپا
دیگرش
وقفه
میدن
noon
مسایل
نفره
preserved
experimental
##unications
میبست
مونتان
delightful
Ern
كنند
Duke
decrease
jacket
divorce
tournament
نیجریه
Cru
Dictionary
males
rats
ببخش
تث
جویی
داور
ود
کافه
##eta
item
haz
chart
اسامی
شماها
plung
disaster
##الیه
یادآور
شمسی
##سرای
surf
مصری
18th
انتخاباتی
میخورند
entitled
مبادله
لهجه
threshold
majesty
۱۹۷۹
اثنا
افکارش
ریزش
میگذاشتند
مهارتهای
condemned
CM
Fang
Len
Ut
fury
عازم
چیده
##nis
##uish
##نب
##EA
inject
یکسانی
##hedral
Whatever
1956
نتوانستم
Baby
feedback
Singap
##usalem
Ottoman
کانادایی
Page
nest
اقای
عید
نال
##hend
آنهم
manuscript
##ranean
تمامتر
##itionally
expense
گلویش
charity
برمیگشت
۱۹۶۹
observing
quantity
revolutionary
tightly
ناقص
مینامند
Arcadio
ناخالص
Sin
eternal
faded
rent
sway
ادر
سانس
یواش
##45
##ouch
##aro
##هاب
##aman
##change
orchest
##گیخته
wheels
بازرس
مجرد
downstairs
زننده
شماری
Forest
behave
Barb
میپرسد
پدری
agricultural
politicians
ابریشم
Denisov
dil
gif
لید
##زاد
##mon
##RNA
alph
بیکاری
Things
adap
trag
invention
drivers
Conc
##atson
خاکستر
گذشتند
اظهارات
پناهگاه
options
Winston
reckon
پلاستیک
نومیدی
roubles
##onymous
Carolina
Monday
Nort
cens
mand
vital
ژرف
۳۷
##خاطر
##iary
##care
##ویض
##ayed
میکوب
##وزوم
مجارستان
پیکار
parted
صداقت
چشمم
assault
embed
warned
ولتاژ
1954
Justine
واکنشهای
رمزنگاری
relatives
recovery
uneas
conservative
hypothesis
Environment
Singapore
EM
Holl
Trib
rings
tub
صعود
کُ
##aire
habits
shield
Anderson
ترقی
بیرح
منظومه
صدائی
اعتصاب
برداشتم
##fortune
1951
Article
##vania
Cooper
presidential
##خاذ
Eric
kick
بق
##yan
##xic
##غد
دربان
##olia
desires
disturb
جانسون
رییس
محبوس
تردیدی
threatening
investigation
Publishing
pregnant
tunnel
SO
کتی
##fax
##گالی
##tr
راچستر
##riers
معینی
ارن
بخورند
صدور
پرورد
گروچ
غیرنظامی
##brid
عواط
##romagn
۱۹۷۱
1957
1953
فضانورد
determination
Intel
نیافته
ایزابلا
نفتی
CO2
میجنگ
Square
مزخرف
Supreme
Culture
Gav
Kem
Rams
بجا
##هاتی
سربازی
##uns
##نیه
اتخاذ
residents
underneath
هاگو
##ovo
صورتم
جنگلی
crushed
##apsed
شورا
Missouri
کدهای
۱۹۶۵
فلوریدا
semi
##cribed
Philippines
جار
لباسی
نخورد
پستان
گویم
##wing
##وره
استعم
##immer
shone
##antin
همینجا
زمانهای
##کوف
solving
آزادانه
ترتیبی
ابرها
1934
مترجم
1000
representative
الگوریتمهای
Profile
محبوبیت
جاسوسی
دوقلو
63
ON
Rest
waved
زوزه
کینگ
۹۹
##bn
کارشناسی
##iang
مرج
flame
بالش
Ancient
startled
lighting
extension
لیلی
انتظارش
عضلات
deadly
convince
دوستانم
نیکول
demands
Republican
Steve
Jerusalem
accompany
نمیفهمم
elderly
فداکاری
ترغیب
Cook
Cape
OF
##وژ
alien
##osph
##ouses
میگم
contest
میخواب
##aterina
screw
آزرده
یهود
##tenance
##ائیل
electrons
آسیایی
فروشنده
harvest
Mexican
جابجایی
indifference
Tokyo
WW
tack
تخصص
جهات
##sem
انش
##aba
##apor
nowhere
amused
##cliff
زبانها
مکالمه
publicly
steep
۱۹۷۸
Neg
sensible
entertainment
logical
delivery
برانگیخت
فاسد
Sydney
Magn
cant
marsh
##کرافرد
##mm
درج
درگذشته
##اندر
کمین
کولی
Website
deserve
##erman
تقلا
counted
endure
registered
شخصا
marble
هدفی
continent
خوردند
questioned
1943
divide
مهاج
فضاهای
شانههایش
belongs
Karl
پیوستن
معادلات
هولناک
purchase
نومید
laser
آکسفورد
Aragorn
تحریر
Sondra
Ess
IEE
Mme
Vers
Watson
rival
غارت
چتر
##ji
##omon
##فتن
didnt
ساختیم
Alger
Forces
lightning
پولش
تفصیل
بستری
ونز
barrel
1955
چهرهٔ
اپل
گشاد
صلیبی
شیشهای
ناخوشایند
59
Mell
Vien
lately
tore
vivid
لوب
هرا
کنین
کناری
رومانی
##نگها
chicken
بنفش
recy
belt
classified
کفشهای
نفسش
طلای
collaboration
license
Quran
discipline
بوئندیا
insects
غلیظ
##pherd
Fu
Sah
bark
۳۴
۶۵
##aus
##comm
##اینه
##oust
اینم
##گراه
دوشنبه
trunk
مهتاب
تبریک
بانوان
تونید
مایلی
misfortune
facult
belonging
##سیلوانیا
خشنود
safely
rebell
ریاضیدان
Jr
Less
kings
سارا
وش
کرسی
گیم
##forth
##uctor
##oto
heir
##agle
##هروی
ترسید
reserve
خطرات
چراکه
آهنگی
strings
parish
emissions
نگهدار
بـرای
چشمانداز
جیبش
ماشینها
1952
چرخید
characteristic
temperatures
جورجیا
Stephen
انعکاس
لزوم
Victoria
Motor
chromos
واشنگتن
Bart
Jasper
Mand
fence
سِ
##رون
##09
##icism
##نگاران
بزرگش
underlying
گوشهی
ملامت
تأثیری
presently
modest
patri
fearful
##erald
۱۹۸۱
creativity
payment
involving
fatig
debut
journalists
##iasm
consisting
parameters
عاطفی
vulnerable
Certainly
ویرجینیا
صومعه
Fau
Mood
cough
بخواهی
زرین
لانگ
##coming
##sing
##hire
##طح
آنزیم
##emb
الزام
مدیره
worlds
glow
Shall
classroom
privacy
دیوانگی
گزین
رکاب
اختلالات
fanci
encountered
exhaust
indifferent
proposal
هندوستان
Around
Dal
Eight
Fox
Od
hier
قدی
##tic
##ویان
prost
procl
loaded
##ften
##erto
پائ
Prob
sciences
Exper
ابتلا
laying
برنامهای
packed
slightest
balls
printing
screaming
پیاپی
رایت
##لها
##vo
##warts
revel
سرفه
exagger
متعهد
زیرساخت
intervention
طرفین
slavery
inches
تبسمی
تأثر
سیستمعامل
believing
دانشگاههای
Too
##تلر
ضربان
1930s
activists
paths
regardless
پهنای
graduate
Stanford
##warf
shrugged
strategies
Fernand
گروچنکا
Dream
trop
رضا
واین
##نات
##eke
##پایه
##illance
chances
##actions
میرقص
backward
explaining
خوره
داوری
##کنندهٔ
اقتصاددان
هواپیمایی
واسط
##وئلا
prayers
pursuit
HTTP
##forcement
inevitable
04
Bang
dow
vector
قور
لور
##alty
راجر
##urable
بینظ
##achi
possibilities
##apper
والا
طراحان
Agl
##inois
بهرهبرداری
spreading
كنيد
میمانند
crystal
سیزده
IEEE
Creat
pairs
##عهی
##لیق
##imb
##نگو
lob
##acking
encl
ارقام
کوبا
تغییراتی
عزیمت
توسعهٔ
تکههای
ایدئ
plainly
دگرگونی
ignorant
unfortunate
bust
horm
powder
tang
دب
لانه
لویی
##oln
گرفتاری
ملال
فرانس
شوک
delic
merry
theoretical
persuaded
Temple
افراطی
Heathcliff
89
AL
Hipp
Kansas
Liss
ninet
بوش
توری
فه
##یو
##لود
##ée
##ورانه
revers
comedy
##اقی
پیشرو
پاییز
نگاههای
اشارهای
flights
##cedes
##ullen
Decl
marched
filter
##ucked
وسیلهای
شخصیتی
destiny
روانه
titled
Confed
HTML
نيست
لبانش
Grey
Lam
Line
Vall
borr
dat
goss
hunt
خاست
كنم
theatre
alert
##opy
##tha
orph
##ects
مردگان
بخورم
نشانگر
ورشک
evol
جزیر
شیخ
youngest
rested
فیبر
گونهها
speaks
strangely
برمیگردد
مترو
activist
الکتروم
Server
دزدان
خـود
##igenous
محرمانه
relieved
نخستوزیر
Bumble
gre
قامت
۳۸
##زایی
##alie
stake
##rived
##مانهای
هرم
symmet
سپیده
جنگلهای
کسل
Brad
انسانهای
doorway
وسعت
classic
barric
circles
178
جنسیتی
غریزه
حریم
دائما
ضربات
اسرارآمیز
ampl
Population
neutral
Cant
Mi
session
دند
ویز
##uate
##ساله
##جت
##GS
##سترو
##اهه
##ceph
spons
Inn
تمایز
retrieved
preserve
cheese
برنامهها
processor
عزم
Grant
ارزشهای
autumn
Repr
مفصل
rocket
mutual
Using
##APTER
CHAPTER
##ِنِ
مکتب
غمانگیز
62
72
dirt
nam
چانه
##اگر
##rest
##زاس
##itory
خودخواه
چیزیست
مسرت
##angel
cooperation
flick
رسماً
پیروان
installed
خوابش
177
ولایت
##syl
examination
##سواری
ملایمت
Yankees
Hogwarts
Tenn
dried
mourn
بایر
نهای
##yll
##tm
reass
##راً
discl
باشکوه
نزده
زنم
carpet
گردند
اقلیت
steal
ولد
نکردهام
قویتر
trusted
شکارچی
Brook
targets
حواسش
consistent
بتونیم
disappointed
Fat
Lock
Nas
Ont
PM
dumb
فوا
نباشند
يک
##LE
##أم
weigh
اندرو
مقصر
invitation
presents
فیلمنامه
courts
legit
corp
musician
Coast
Medal
Introdu
Others
suspended
flee
reproach
عادلانه
Vienna
Ky
Katerina
Obs
tape
تخیلی
کبود
##چیزی
سرب
##یشی
سیصد
flows
detection
##تنها
بزرگراه
یورو
ranks
سلاحهای
نعره
corresponding
ارگانی
Illinois
نمیگذاشت
قواعد
spatial
معاملات
مشاهدات
51
Tob
شون
عال
چرب
##orable
##ayer
رومان
بیبی
proc
##assed
مرض
##ensed
intervals
سواره
flushed
بازیگری
شمارش
کرایه
پنسیلوانیا
Neither
۱۹۶۷
بپذیرد
eighteen
1918
lowered
شاگردان
ruled
نیروگاه
Michigan
آتشی
Biography
yeah
بتونم
galaxies
explosion
شرکتی
Dmitri
41
Gerald
Lup
دکان
سنین
نرده
هانی
چم
##dam
##سبان
##master
##hn
میگی
##aders
sty
cooper
اعزام
شهامت
glimp
سبد
ارواح
Trust
ژنتیک
##شاء
admired
irres
Anto
struggled
هواپیماهای
شرمنده
امضاء
بخوابد
soup
Pennsyl
آراگورن
glimpse
MA
Soph
Tai
fist
لف
لاش
##OP
درگاه
##اهام
wholly
##illery
sheets
abilities
##quer
مرزی
موردی
جوهر
accent
beloved
##grat
artistic
طبقات
##پاشی
technological
نخواهیم
دعای
trials
speaker
temple
نازنین
scratch
دربارة
مطبوعات
colonial
enthusiasm
##طوبت
Affairs
manifest
SD
Sonia
Ult
ling
بپیوند
ذرت
نمیبرد
متق
ارجا
دوستت
ماهها
خندهای
Antar
21st
مخفیانه
housing
فرستادن
Alfred
tranqu
Cree
Pascal
RFC
ben
gor
laz
patch
دق
گار
##eld
##etics
##اتو
تاجر
تاکسی
##کنه
دهلی
##endar
تحریم
دلفین
impulse
کردنش
بنزین
##پرس
oppon
انداختند
layers
بینالملل
۱۹۷۲
توضیحات
ignored
جسمانی
coward
اقلیم
مخفف
Bh
NT
bicy
خيل
عکسی
هورت
##بایی
##چهی
##RC
##طق
خوابی
کارگری
plates
peer
peoples
میآیم
زنهای
marvel
caps
رفتهاند
Donald
autonomous
industries
Greater
pursue
جسارت
Magazine
جاسوس
bathroom
attributed
Circle
ancestors
deliberately
arrangement
fierce
مضحک
shriek
نمیتونه
Pennsylvania
54
Bou
Ball
cable
رطوبت
##oa
##oen
##ía
tooth
##reated
##idance
spider
##ieu
پرنس
ناخواسته
زیان
pref
longed
consol
ملوان
مرگبار
نارنجی
تصورات
بخواهند
critics
توانستیم
پلههای
پرچین
contributed
Freder
##پرداز
accomplish
مارشال
dioxide
trousers
fancied
Fab
caval
lest
فلو
##ونده
##fish
##mates
##ثری
##encing
میتاب
thirst
convent
شدهبود
loft
intensity
##iph
اجداد
شبهای
آهنین
margin
elbow
Beach
##نتو
accessible
موسوم
Malays
صمیمانه
uncertainty
Gallery
Ammu
Find
lingu
ظرافت
کرافرد
##word
##33
##ونیم
bending
altered
##keys
##کیک
arbit
دورهای
میزیست
سهمی
phones
چشمگیری
subsc
operator
cooling
parking
evolutionary
وودهاس
halted
Medicine
Hassan
خیریه
بطوریکه
Final
Tu
wre
طال
عـ
کبیر
۴۲
##دامی
##رق
##رژ
##pan
forests
##سیستم
گرانش
معه
زیرک
نیزه
سوفی
Arn
جولی
hearted
detected
بسيار
Germans
importantly
immigrants
چشمانم
correl
##untary
secretly
emerging
participation
مشاوره
Portugal
شایستگی
Dom
tin
نخواهی
##اوت
##66
##wall
##ابهای
##osity
##play
Champ
grid
##ailing
invite
##ugs
بسا
Seg
respected
طبقهی
miracle
heavens
certific
تسهیل
alphabet
Born
Ka
Linc
Try
rous
rice
rays
نهی
##َن
##eries
بیای
exert
الل
##ewell
جاود
##arson
اطلاق
دلیلش
کرنل
تدوین
Mercedes
رکود
چراغهای
Actually
Buend
novels
سیدنی
Obama
بلیط
candidates
Roger
سیاستمداران
resolve
wiped
contradict
هاگوارتز
Aglaya
87
84
Cold
Slo
soph
tid
tube
فاض
قال
##رسانی
میفرو
باکس
##amation
webs
##یاکف
chocolate
رویه
##iza
ارم
بلور
grain
دیدید
prey
نسیم
happily
glancing
##ائلی
tempor
عضوی
illum
افتخاری
sequences
exchanged
Aviation
سنجش
graduated
ديگر
Scottish
Gilbert
Cass
Occ
Renes
banned
بوریس
تله
حـ
شاهی
##onian
##اریو
##employ
dischar
Stadium
مینگری
guilt
finite
fourteen
تکثیر
Color
روحش
digit
Merc
Model
transportation
sufficiently
فلسطینی
subtle
Fairfax
preparation
steadily
Fee
Iron
dense
صـ
فكر
قایم
##LD
##حد
میره
رادار
orb
resent
resident
بیشه
mining
گلن
پولدار
نفسی
شعاع
برگشتند
همسرم
radi
۱۹۴۸
warmth
Benj
bags
بذار
venture
Nigeria
fossil
Lewis
CT
IA
Pic
hind
jet
voc
عرف
##PD
bees
whales
سرحال
دستههای
همانگونه
Beau
مربوطه
displayed
facility
strengthen
satisfy
Ivanovitch
رمزگذاری
قراردادی
toilet
پشیمانی
Tit
Tot
Tara
عکاس
ناف
گانیا
##rine
##QL
##ete
alpha
قراره
compat
ناصر
اجزا
نشریه
exposure
slide
passenger
نتیجهای
تجار
restr
فعالان
لیکر
عواقب
positively
sixteen
نظریهٔ
Elton
هنرپیشه
روزنامهنگار
مناطقی
historic
suspicious
مقرر
demonstrated
rigid
hammer
provinces
کارولینای
Venezuela
ونزوئلا
BG
Bed
Full
Lau
padd
جـ
یأ
##cular
##mee
##ردیاکف
باتلر
برسم
استرو
##میتوان
دوگانه
فرید
##iege
clar
مسلس
ارس
ساختم
wrink
فردای
بخشیده
تکاملی
Russians
۱۹۶۴
پهنا
احتیاجی
1914
قهقه
visitor
Christianity
Glen
inquiry
چاقو
forbidden
بیولوژیکی
کاردینال
Dru
بهه
برعهده
##ollo
فرعی
##کنیم
بازخورد
وجودی
substit
transmit
نسبتا
جادوی
commanded
پرسیده
package
##uddy
encounter
سکوتی
Ukraine
athlet
انیمیشن
Cer
Ni
Roll
Woman
bon
bid
cents
zo
رئ
##تهای
##جاری
##۱۰
##UR
ongoing
##olar
##گراد
##agged
##نگری
ماف
بازده
بازگردد
intu
##udder
تصحیح
grant
افقی
endless
کیس
خاصیت
خوردم
ازدح
##arrow
بکشید
بچرخ
زیبائی
banking
فرمود
سوزن
منصف
##guard
بخوانم
pillow
behaviors
معاشرت
comrades
زیردریایی
یانکیها
Bingley
98
Dolly
Horn
lamb
pir
گنده
##ُر
##اتون
##rogen
##oda
##keley
هرز
بازگو
بلایی
brush
blowing
تشنج
##ouncing
سفارت
اقرار
Amar
اسمردیاکف
مسیو
مسیرهای
squad
independently
۱۰۰۰
گازهای
circumstance
بنیانگذار
samples
pistol
اوباما
footsteps
Food
Lear
Zh
شنی
##gas
##onze
tomb
##الین
##ریفی
wasted
##emet
##شدید
leap
عملاً
##اصد
##velope
indirect
nevertheless
بخشهایی
extens
منتها
نکات
physi
قیاس
1911
copper
damaged
Jacques
calmly
concentrated
امپراطوری
برسانند
disappointment
توقع
زایمان
سیریوس
tragedy
07
73
BM
Mun
Taj
Wed
صرب
ژنی
stout
##rific
##کنندهای
مردد
پیشگام
مسم
احیا
Channel
firing
Unix
##iversary
سیستمها
finance
##overed
خدمه
explains
milit
throne
۱۹۷۷
figured
trading
تفاوتهای
میداشتند
درمیآورد
یلدا
بيشتر
Astron
عبارات
avoided
Droghed
زناشویی
BS
Hir
Hug
YOU
bite
iP
mate
wages
مامی
چوپ
##sis
##hist
##پز
##GB
##arter
بریز
میکروب
خواد
##لاقی
weeping
سرخی
معاینه
enzy
uncon
ناخو
reconst
incon
strain
Brun
فعلاً
خوانندگان
سختتر
empire
republic
##elfare
animation
سینمای
1910
غلت
Angel
پرستش
Interview
Services
witnesses
diagnosis
پروردگار
TR
grie
##rust
##ندور
##urches
##سیته
نمین
نامن
Alan
##ئیلی
Aramis
آلبرت
##اضع
##onto
بشکه
واسیلی
dreaming
respectable
برمید
برانگیخته
خودروهای
hurriedly
Palestine
Whether
bombs
outcomes
Moody
Renesmee
82
Gry
Tol
fake
ربه
رِنِ
زلز
پخته
##دری
##مرب
##ui
##شترین
برایمان
##ومتی
##باک
ارغ
بارش
افکنده
##issa
میآم
Should
depressed
risen
میبندم
Baron
dropping
سایرین
##cosystem
contribute
رأس
نعمت
Estha
perceive
seventh
Urb
اندرسون
Daddy
cake
mm
pear
رول
##equ
##ینس
thumb
heels
##chin
داروس
comments
##thy
##نگام
آمر
mankind
##واکی
worker
سومی
مادرت
appearing
continuing
میشنوم
دستورات
آهنگهای
Madam
میتونن
surviv
savage
FIFA
grammar
Sergey
آمازون
معطوف
voltage
عواطف
Lincoln
زلزله
77
SM
Watch
دکل
فاکس
كند
##بست
##فن
##ín
stub
convert
Heb
##quet
ench
envelope
poems
curtain
گزارشهای
Berkeley
examine
urged
philosophical
disposed
amazement
wandered
مرموز
میپیچید
##avelength
magnificent
True
hut
ties
سما
کاشت
##ori
##ندد
برین
شدهاید
##irrel
ایی
disorders
##anges
نیکی
conspir
behold
empower
Team
structural
کشیشی
boundaries
optical
محتوا
refugee
حلقههای
fascinating
اعلامیه
لازمه
کوچولوی
Bir
Domin
Ey
Kaz
Rail
pione
خفا
سورتمه
##mary
##ثل
همبستگی
##irteen
##راکی
##rouch
##فره
percept
میروی
Unfortun
بنویسم
humble
خودشو
سنگفر
maintenance
تلفات
1932
camps
۱۹۴۷
##ascus
madness
##فعال
confirm
Kenya
politician
بفرستد
##bourg
منشأ
curtains
روبروی
eyebrows
Gord
Ped
cats
nost
roses
رلی
۵۵
##دت
##يش
##EF
##گرها
موت
همهشان
##iae
##osex
relate
گرفتهام
بسکت
جلال
Someone
percentage
poster
packet
camel
catching
##ulsion
Program
تیلور
diamonds
تشریفات
CEO
رِنِزمه
DM
Loc
Ted
mast
تیمی
ننگ
##کلا
##egr
##AB
##۳۰
washing
reception
تاکید
chains
twist
##اطی
پیگیری
انتها
باشین
خانمهای
resting
emperor
عرصه
فضاپ
Corps
استیو
Keep
Sudan
گودال
blessed
##burgh
سانتیمتر
Manc
gut
porter
ساک
هاک
##عان
##انوی
##isure
rect
موع
neural
enabled
##یلت
خواهرم
تناقض
##izz
اطفال
بخرد
اعتی
شرطی
علل
opens
Princ
metab
assets
1931
زیستگاه
Davis
اپرا
aimed
سیگنالهای
savings
زیرزمین
dramatic
مباحث
اوکراین
کاراکتر
سرطانی
الکترومغ
##emetery
Cond
Kur
Often
اگ
زشتی
نتون
۴۴
##PR
##di
##انان
موه
##unci
نوح
disk
سواران
recur
moist
رسوم
ماههای
گذاشتیم
restore
آموزگار
##افتاده
چشمی
۱۷۹
attempting
دندانهایش
زمستانی
اردن
گناهکار
faithful
##الوگ
Jersey
predicted
suggestion
روسها
linen
همسایگان
Industrial
surveillance
ریسمان
نمیماند
Vernon
Ti
gn
si
یابند
##ووا
##bage
##yg
##uan
درویدا
##ethe
##urers
##chron
wept
ماسک
##unken
داشتنی
##iga
آرت
سناتور
##nedy
snapped
۱۹۶۳
destination
ایستادند
##ylum
expectations
Palace
مهندسان
dimin
Luci
Hamilton
errors
نوزادان
استعفا
puzzled
زیباترین
Main
halt
ritual
بوستون
غن
##پایی
bend
توأم
##یافته
کلین
آنجاست
pharm
چشمه
##تمندی
گوشم
swung
answering
پلیم
گرمایش
pretended
مادلن
دشمنی
participated
ملتفت
درمیان
##rified
billions
Chemistry
intentions
alleged
Benjamin
Drogheda
بسکتبال
Must
Mann
wolves
۶۰۰
##rat
##rade
##پرو
بها
فرگشت
هرروز
محکو
پسانداز
##assy
بینه
میدهی
فروخت
##گذر
fathers
خبرنگار
snar
oriented
Place
فراموشی
Austrian
breaks
تیپ
##جمع
پیشرفتهای
##chell
راحتتر
harness
میزنیم
inherit
بهینهسازی
Lupin
Unfortunately
AB
Fut
Tro
شفا
##burn
دریچه
thief
##فتند
خوشن
بیانیه
متض
معتر
پسرب
پایینی
offensive
flames
Leo
تولیدی
Newton
defines
bush
designers
خواستگاری
بادبان
bias
تورینگ
انگشتانش
جایزهٔ
کامپیوترهای
females
candles
میریزد
همدلی
Kennedy
episodes
ecst
Architecture
ظلمت
06
86
سي
گتس
##bu
##ilis
stew
کنگو
سالخورده
##aku
اسکلت
leisure
وقف
دهههای
permit
interval
flashed
Noah
سنگاپور
درونش
سفرهای
رابطهای
wider
میخوانند
اشتباهات
ربهکا
Eye
IEC
Mes
SE
wavelength
دانههای
عامی
پوی
میبخشید
##هاشان
##اهدی
##ایدر
نورد
arc
twe
کنندهای
##ocity
##awed
incent
سازمانها
##کمههای
organs
classification
admin
برگشتن
قلاب
۱۹۶۶
سامان
judges
سایکس
audio
amazed
feeding
ناقوس
tumor
Juni
خارقالعاده
هفده
fabric
منجمد
gossip
Princeton
Bit
Dod
Mild
mu
vagu
کما
کورت
##uine
##الدین
آنژ
##میان
anch
##undo
سطل
topics
خدمتکاران
سینمایی
Mediter
Sirius
mechanisms
ریختن
conflicts
Congo
نوازنده
stretch
نقطهٔ
نمونهای
بازنشستگی
appreciate
unfortunately
rendered
battles
earthquake
اسرائیلی
05
Bran
Eu
Golf
Hi
Hem
Linton
MC
لیره
موری
ودر
##َر
##anes
##olis
کارا
exclud
chronic
نمیافت
Invest
##rup
grasp
boot
##weg
اعلان
ورای
polite
##lessness
بسازم
drives
مالزی
نشدند
breathed
تندر
ضعیفی
لایحه
##طبیعی
abandon
corporate
اژدها
93
Mord
ecosystem
sab
رند
##ns
##je
##mad
##aning
ascend
مواقعی
suited
شدهٔ
دستکاری
##ryption
##بره
intend
مردک
resign
reserved
happier
شیفته
##ومیخین
سردبیر
۱۹۴۱
Maur
desperately
purchased
گیلبرت
enthusi
نباشید
unnecess
Hungary
92
pall
tune
##just
##bro
##mill
خودمو
##راقی
outl
unse
coinc
longest
نزاع
نزاکت
نفرین
idiot
signature
لباسها
##خوردگی
certainty
وحشتزده
ولت
دونیا
بازگشتی
تأثیرات
collecting
1928
commands
strip
affects
آفرینش
متخصصان
دیگهای
Surely
ائتلاف
rhythm
01
Pitty
fitted
قاطر
ودا
چگالی
کرک
گـ
##yard
##ایس
##atisf
استون
##okhov
مردهای
clients
مسائلی
##bli
سوالی
incap
آخرش
Deep
crept
لوح
رابطهٔ
borne
Minnes
perfection
بتونه
ضربهای
magnitude
مییابند
Queens
Matilda
sincer
Statistics
Bruce
Lower
bills
فـ
قرائ
نین
##یص
##gal
##کاست
##etically
##ازهای
haired
دیکت
shorter
exquis
chat
residence
خیلیها
تعصب
##گانهای
مستی
courses
Brand
approval
ترسیده
Abu
خمیر
versus
زندگانی
بخوریم
strategic
supplies
Hus
Mong
Nost
aug
filling
hither
oath
puff
sque
سزا
##زمین
##lad
روا
chuck
brick
سیارات
##سانهای
##تانگیز
guidance
پلت
computation
سادهتر
دونید
sends
meantime
بجنگ
remarks
arrange
priority
alarmed
طرزی
Historical
میافکند
revenge
افراط
ضخیم
kilometers
cannon
تثبیت
Nep
cage
nort
آق
آرد
فای
##bat
##تولید
##ارض
##otis
shrew
spy
کشش
ترسی
unemploy
اندازد
مقالهای
خانمی
genus
نداشتن
criter
##گوژین
نگهبانی
protoc
محصور
##untarily
شناسه
سانتا
traditions
1915
warming
screamed
adventures
bitterly
نمیبینم
Dougl
##پیچی
betrayed
lungs
باط
##abl
Heart
رویای
agitation
overhead
wrath
##azines
نمیداشت
designated
۱۸۰
failing
بفهمند
pulse
ریشههای
ultimate
شترها
Connor
فاضل
Esc
Got
TCP
fans
fisher
تذکر
ضیافت
چرت
گچ
##rac
##power
##ایندی
##onomy
##adays
##agne
##اردو
pert
میرسیم
##فیس
##itional
مخابر
آشغال
کفایت
ویژهای
سیمای
pencil
وظیف
شهروندی
تومور
مرخصی
Treaty
wizard
Pavlovitch
Myrme
ازدحام
3rd
IM
بنده
پاف
##انچ
میبخشد
##eland
whip
بیکار
##ushes
میشوی
اسبی
leaped
##izer
##avan
بلوغ
##achus
نشری
coin
سهیم
followers
قدرد
openly
فراغ
چیکار
musicians
animated
محیطهای
مخصوصی
باغچه
ignore
aims
بپردازند
eldest
میمانست
براتون
Holmes
advertising
انقراض
elegant
Ramsay
Minnesota
09
96
Sit
cul
naval
جرات
داین
##nia
##پسند
##eted
##etts
##اندار
##ایدار
نمیگرفت
دادهای
پیشگویی
##hips
فراگیر
specified
operates
Century
specialized
measuring
panel
نگفتم
صمیمیت
exhibition
ارتقاء
privilege
Beyond
discrimination
الجزایر
08
Bri
Bush
Pant
Pra
Run
Tun
municipal
voted
بفرو
کشان
reaches
sections
میشمرد
##ources
ard
##کلند
تشویش
##کوپی
developers
خاصه
قدرتهای
بیماریها
edited
نمیدانید
civilian
کوهستانی
ناخود
Blackwell
##ommod
marrying
گورستان
bullet
compositions
lecture
Mammy
Knightley
champion
luxury
##ropolitan
tragic
گتسبی
Cultural
Tan
Tree
bald
paces
wax
سس
##فاکس
بهمان
##ims
##روش
اسما
bride
کشتیها
کاتال
زیستشناسی
Juan
پستانداران
جعلی
dispute
contributions
advantages
appointment
سرسخت
لیزر
خونسرد
disgrace
یأس
Set
Viol
##سوزی
میزی
باس
##ریحی
stif
##roe
روگوژین
فرمت
##یتو
##oker
##ifier
آمدی
نوسترو
مسابق
##ccer
مجلات
mayor
ورنون
خوابیدن
لوئیس
سخنران
opera
مرحلهٔ
۱۹۳۹
fortnight
indicates
آشنای
taxes
manufacturer
restricted
Cuba
Bennet
Serbia
Mediterranean
Hope
Pay
Rout
hay
mant
nu
##نز
##oi
##ın
درع
##enka
##encia
##اماس
آنگ
alike
توش
weeke
مثالی
کوهن
قبایل
##annah
solitude
آسودگی
فریادهای
Peru
Christopher
تورو
1922
ستارهها
consumed
بپرسد
viruses
coffin
Jerry
##III
challenging
dialogue
استوارت
assembled
Scientific
antibiot
searched
معالجه
juris
ایدئولوژی
لیکرگس
اعتیاد
نوسترومو
Ced
Nucle
Obl
Section
Search
آرگ
آجر
دله
صاب
لژ
گالی
##مندان
##cence
##rice
##GA
##alion
دوپ
lighter
fraction
Thought
##وزن
thereby
disgu
##arya
آلت
##بارید
slipp
سخاوت
Isn
courty
Harper
default
readily
restored
electromagn
دمشق
editing
orient
reporting
بچهی
۱۹۴۲
گمانم
1912
conception
بیاوریم
میشناسد
رسانید
clubs
seventy
ببندد
bonds
لیبرال
controversial
Burgos
plunged
Gent
پخت
##hev
##itations
##otus
رویم
championship
disrupt
dislike
offended
prejud
ممل
خوشه
حقیر
##گردی
defence
خوابید
farmer
Trump
reasoning
جرالد
Gener
##انوسی
limbs
زیباست
improving
##arca
استیون
تبلیغاتی
Conserv
distinctly
Garth
طریقی
قوربا
78
Lud
Lorry
Mort
Sally
Were
jaw
رش
صفت
##بق
##inny
درا
میکوش
noticing
##ومر
نوتر
blows
مستع
فردریک
تصورش
لحظاتی
منظورش
Madrid
1926
cameras
سقط
Apollo
simplicity
irritated
مدیتر
مختصری
horizont
مازارین
مرسوم
Gadfly
Gryff
Dog
Kam
##lv
##usively
بازویش
canvas
دادید
ناشر
##واک
نشوند
اصیل
جاوا
والتر
کریم
computational
برمیخاست
Twenty
violently
utility
سودمند
responses
hosts
historian
climbing
Better
territories
impatient
shifted
جواهرات
dominant
mingled
bosom
بنگلادش
embedded
Gryffind
dang
fog
godd
mi
vamp
تشدید
نویل
##cal
##چگی
##hal
##erving
##oro
##ouver
بهمن
stole
asp
سرن
##ortion
پروانه
##inked
appet
##azed
سنسور
Marie
drowned
نتیج
لیبی
مسئلهای
esteem
یافتهاند
تواناییهای
##وئید
vanity
مطمئناً
Milan
##igrant
نگذاشت
مولکولهای
Judge
Toronto
تخصیص
Ethiop
سیاهچاله
Sikes
duck
sinking
سوری
##MM
##eri
باخته
##odox
##oslav
گرامی
##ناختی
resigned
##anga
backwards
سیارک
precip
تعویض
genuine
needle
Dean
designing
اقدامی
بستههای
آزمایشگاهی
illusion
bottles
اِم
##yram
نوریس
bells
lawyers
Damascus
امیلی
نامناسب
Fem
Lyn
dorm
dwell
jury
هریک
##فورم
##zens
ingen
anat
seas
##ello
نمیب
spots
متکی
متفق
##رفه
##ieve
پرخ
نامهی
Album
backs
سیال
idle
founding
فروپاشی
##owski
مستح
ابریش
مغلوب
جوابش
winds
trend
Parad
awoke
devast
گنجه
شانسی
1921
cease
discussing
ذخیرهسازی
نمیدهم
Moz
مقدماتی
ادیان
pavement
هراسان
Gö
Hou
Vanc
bol
vot
طولی
پویا
seeds
chill
span
متون
تصاو
trillion
##ornis
بناب
آشام
extinct
مشترکی
medal
memb
پیادهروی
treaty
گذراندن
آگاهانه
Archive
بالاتری
عبدال
ownership
Movie
Petrovitch
Cair
Sports
hi
قـ
##حبت
موم
فربه
soot
Thurs
تنبل
##بینو
مانعی
blur
حرفهایش
مستق
نمیدون
شواهدی
highway
پارو
میرفتیم
##pson
خونریزی
نقاشیهای
Rosa
رازومیخین
مطمئنا
جذابیت
##پردازی
Brazilian
Object
کیلوگرم
bewildered
اسکندر
Mildred
ابریشمی
Bog
fiber
hyd
om
tun
شیل
##55
##عر
##پول
##isen
برام
استانهای
کنگ
اسکی
احم
##ometer
regul
publishing
advised
هفتهی
خمیده
۱۹۶۱
گنبد
چرمی
choosing
Contin
chemicals
Norweg
ناسزا
nervously
withdrew
Visual
Laboratory
breeze
فواصل
Local
SU
pic
اى
اشی
لاست
##خواند
##eous
##utors
##ceans
کنایه
##essed
رواج
loan
##cile
Alban
سوق
handful
scorn
blown
accommod
belly
slope
glit
##iolet
patent
مزبور
spacecraft
basin
نمیدانیم
1917
focuses
titles
disposition
madame
##incere
سیلور
میگذشتند
چاقی
scholar
diplomatic
Introduction
Boul
Et
Nam
SW
bio
danced
gran
greed
بشمار
نپذیر
بیایی
comune
deem
نمیتر
کشنده
##باع
twins
##وندو
overl
موردش
coarse
##غیان
آلفا
آهستگی
غرولند
آسف
terribly
نکردن
نمیدانند
destro
سگهای
پیامدهای
##لزم
precision
frost
اعتراضات
حاکمیت
tricks
Against
procedures
کبوتر
jealousy
کروموزوم
Vancouver
76
Fine
Wy
XX
dub
fu
آیت
ارا
بوق
دغد
قاشق
كرده
مبال
واپ
پنی
یارو
##si
باشن
##heres
##agall
##ersed
suck
lovers
بازه
تصوری
indigenous
##iban
میسوز
snake
لذتی
1927
نگرش
Area
پارکینگ
inquir
هجری
شبهه
نگهبانان
شارلوت
برسانم
بخشیدن
Hawai
جواهر
vaccine
Machine
نیوزیلند
Administration
voyage
پافشاری
Dif
Rachel
sized
خفته
##eff
##FS
##پید
شدهایم
shudder
معر
ندیدم
compact
cliff
dislik
overlo
##اکسید
اصابت
سیلیک
اعم
بردارید
##ighters
قطرات
مستلزم
Shakes
meanwhile
پارس
حیله
فراخوانی
دقیقی
1919
repeating
بهبودی
کلاغ
وارث
پژوهشهای
sadness
losses
manufactured
tribe
revenue
Razum
مشاغل
تابلوی
Represent
##مربع
97
Pur
ft
شرا
شکس
##away
##انیم
##ورو
##ige
churches
نهنگ
dishes
overse
اجبار
imposed
##weight
حرفم
شکو
##ieties
داستانهایی
immort
##idding
خطرناکی
magazines
barg
speakers
لحظهی
تصویربرداری
۱۹۶۲
references
definite
sadly
فهمیدیم
neuros
گونههایش
صادرات
Stuart
Charlotte
embarrassment
arrangements
ویکتوریا
chaos
گریفندور
ماساچ
سزاوار
Dub
Self
cipher
kin
تغ
زره
کاک
۹۵
##flu
bears
agitated
arise
نبودن
تکانی
##attan
Exam
ایدهآل
originated
statements
statistical
judged
morality
Magic
Lyc
acknowledge
تایلند
substantial
HP
Lt
Ru
Wick
تـا
##تنی
##07
##FI
##pear
##TR
stability
موف
معقول
intrig
##ressing
tech
مطاب
##inted
بیشک
اتاقها
رنگها
جورایی
Countess
جمهوریخواه
شدیداً
سیمون
ranked
##ihin
emphasis
expedition
برافروخته
sophistic
Doc
آهای
تازی
۸۰۰
##bourn
##گرید
athe
##abs
امد
پرم
کمبریج
صدق
بشوید
Shir
گلوی
discont
میخواستیم
تکآهنگ
Exec
Blanc
##uffled
imaging
تراکم
نمیدانستند
Emm
##ynasty
فرصتهای
۱۹۴۳
فارس
انبوهی
مواجهه
harmony
سالیانه
Evans
controlling
phrases
##writer
محتویات
Hydro
Seth
arous
vocal
waving
تط
رعد
سگی
پیل
پشه
##gments
##én
##َم
میهن
دیانای
doct
بدگ
میدونم
##onda
##actor
##احتی
longing
##اخوری
حرفهایی
veil
##کوبی
بشوی
infant
##anni
مکمل
نشدهاند
فاصلهی
posts
posted
بانکهای
sensors
volumes
expectation
مهاجم
examining
Capital
##yrics
میپردازند
routine
departed
##جنسی
obscure
jewel
جنجال
Balt
Fel
Gü
Mol
Map
Prem
wagon
ثمر
زاری
ضای
والی
درای
##esome
##asi
مناق
بیانی
##یاست
sperm
متاب
league
##هرفته
کوسه
##ollen
نشینی
همچین
##awl
acids
جاییکه
گریخت
cellular
مزمن
آسیاب
نکنی
مکانیزم
۱۹۴۶
آرزوهای
##etta
addresses
میزنید
حادثهای
panels
estimates
رؤیای
شیطنت
سندرم
بایستد
هوشیاری
cortex
GNU
Lissy
طالبان
Razumihin
ماساچوست
Eff
Til
Together
pix
تشی
##اعی
##رند
##صدا
بهدست
برنگ
segment
##emia
shower
##arded
##فرما
compiler
نهان
فکرم
##اکم
##رمن
کیفی
drown
patron
مطالبی
traff
Clark
کرام
##usha
بیداری
winners
بازگشتند
globe
برجای
robes
facil
urgent
compete
نوجوانی
یونیکس
Mountains
axis
سلیقه
vertical
جماعت
swallowed
Douglas
آسفالت
FA
NA
fount
بون
کوری
##لینگ
##eb
##oven
##جستان
##urrection
مناز
بیق
دارسی
upright
##rys
نوه
##cled
هاي
##ovich
سلطه
equipped
اقوام
trail
کانر
دریابد
سفره
##ficial
معلمان
Country
گمشده
##زلزل
۱۹۵۸
Samuel
نمیرود
Crus
محکمی
punish
renamed
اختلافات
بیخبر
کوبید
Edmond
Daily
نگارش
amusement
Taiwan
Shakespear
مطابقت
4th
Dane
DOS
Kl
هایش
##عق
برانداز
نمییافت
##ective
اسـت
##نجر
مرسی
برگها
نمیدانی
راستای
اقبال
میپذیرد
##romo
receiver
17th
ابرهای
رزم
فناوریهای
boundary
زاوی
historians
Finland
اربابش
ندیدهام
planted
libraries
بوتههای
باکتریها
انحراف
hideous
##پوستان
columns
##علوم
astronom
Massachus
فرناند
Similarly
ارغوانی
ناخودآگاه
Gem
Gate
عایق
غش
کسان
##لد
##گوس
##ilight
##ilian
Inside
##rah
تقویم
humour
passive
روشها
elabor
آتشین
coverage
گناهی
combine
کشاورز
بورس
enjoying
منصرف
اضطراری
ringing
adjacent
گوریو
Norman
doubts
بقایای
گواهین
ارجاع
Gam
Hence
ID
races
racing
جادهای
خمی
ریم
فوش
گوس
##خرهای
##وکار
##life
##eurs
##ـته
##گوری
##wich
##western
براند
موجی
lively
deleg
deeds
##اسازی
sphere
##acked
ترانز
دهستان
Sof
همچو
Universe
چشمگیر
numer
خودمخت
entreat
بسط
اعتنا
اعتنایی
ناراضی
##گیرند
فرستنده
صندلیهای
غلظ
dispos
میخندد
vulgar
phenomena
نباشه
Boliv
removal
کاروانسرا
transparent
vaguely
Gas
Ide
Rush
Virt
hedge
sarc
voting
ثانی
مکن
هذی
##وون
##ئان
##fit
##mat
##پوشی
##itational
##riel
بیو
fraud
##گیل
##orts
بازمانده
##فرادی
نیاید
میزبانی
نسبیت
آوردیم
childish
surgeon
Lebed
Howard
transf
defic
readers
کانزاس
آوردهاند
پناهنده
میشناسید
injust
##IPS
acquainted
crops
بیاعتنایی
فیرفاکس
##ephal
Hindu
dismissed
Massachusetts
Maz
Rather
آورم
ظروف
قح
##idia
conject
سرگذشت
exile
الز
نامزدی
hash
Start
خوششان
پنجمین
میلان
metres
شیوههای
Process
درآم
warfare
غذاخوری
##elson
ستارهای
امیدواری
sunk
summit
شانهاش
رونق
accessed
shopping
Lawrence
variations
##celand
تیلنی
fortunate
metaphor
دزدید
cavalry
Urbino
Burn
Carr
NO
Pret
Smer
mice
welfare
خفیف
صی
لول
نهر
##bons
##buck
##کانی
##leine
##imony
Stri
induced
مهتر
اخطار
Left
submit
metals
##نمای
مهمه
شوخ
مکزی
مکالم
مینمایند
آمریکاییها
اورش
campus
membership
compliment
journalism
فرماندهان
rubber
Typ
clergy
کیمیا
infections
نمیخوام
آلکساندرا
trigger
sovereign
ارنست
Bonn
Iceland
Pil
Zone
دالو
صید
##ti
##walk
##لیلی
##estion
##umm
sho
meals
##orting
ترمیم
عملا
اجساد
اطرافی
actively
سوابق
attorney
صحرایی
distances
guided
airpl
drunken
حکومتی
treating
religions
۱۹۴۴
1913
occurring
گذرگاه
دزدیده
بیهوش
kidn
impatiently
حفره
ابهام
Ontario
Doun
Kernel
Raj
UC
ذرهای
هه
هس
پون
پدی
گارت
یاس
##foot
whit
##انیان
بیگن
##کهام
تراز
جمجمه
descent
##اختی
expon
##کوور
armies
triv
Text
نشدم
##bye
کدوم
توربین
مینمودند
پشتیبان
واکنشی
توپخانه
دائماً
پریشانی
Transl
آکنده
ticket
صحنههای
ببوس
bubble
negotiations
roused
courtyard
Ny
Nancy
Qatar
Yemen
Zen
dwarf
lion
ros
sits
صخر
ضریب
فز
فزای
پایی
##برو
##itative
##eto
##وانش
##rik
سرپرستی
رفتهرفته
راهحل
formally
##aware
پدران
##پرسی
##ubb
تفکیک
origins
propose
entert
irreg
deriv
albums
مصاحبت
هولمز
پژوهشگران
physicist
پراکند
##achelor
گرافیکی
سانسور
Frederick
معهذا
Dounia
Wel
lem
pains
sul
sizes
بين
ژا
##LP
##پاره
##ودین
##imal
دستشان
دستانش
نوا
indef
تقلب
داشتهام
helic
regulations
Commer
خانواد
تجویز
حیف
advances
والد
variation
دریانورد
رایانهای
supern
بمباران
photography
joining
declare
اصطبل
آوریم
enjoyment
circuits
honestly
Protection
نگذشته
mythology
Taliban
Isabella
کامپایلر
tension
دیز
##inery
##amine
انی
congrat
##uster
آماران
##برادر
ندو
پیتی
نشاند
pole
سواد
##ailand
##ieth
unto
baron
divisions
فیزیولوژی
utmost
bands
بهرهوری
architectural
kissing
Priv
Regional
ایزابل
lifting
elementary
مدیون
grinned
کاندید
Mitchell
لزوماً
Nastasia
مونتانلی
سنگفرش
unnecessary
شکسپیر
Lebedeff
Fac
Rud
Word
cunning
wounds
بُ
لاد
لفظ
یخی
##dad
##har
استه
##oton
##estyle
سرسرای
##asts
تناس
aggreg
##pling
راهبرد
سیخ
traces
flowing
##oths
seeming
اهانت
Harris
شکلهای
فراخوان
آتشسوزی
economies
strongest
Ages
فاصلهٔ
treatments
۱۹۴۹
coup
hostile
measurements
complain
sticks
mortality
کارآفرین
McGon
legislation
ناگوار
هورتنس
Smerdy
fame
mit
vo
آیر
تایی
زائ
وانگ
پوس
##دف
##boy
thirteen
##idable
بیکر
معطل
Thailand
میدارند
خواهران
united
persec
دانند
اولش
Arist
موقر
curiously
personnel
خواندم
medieval
Except
دریک
sentences
شبکهٔ
بیانگر
Englishman
anguish
missions
Berg
robust
managing
consumers
psychiat
آپولو
نشنید
عاقلانه
Bilbo
توییتر
Tajik
Norwegian
Bates
Danish
Gania
Lith
Norris
kg
pour
##gage
یکای
نامفه
اجسام
همینه
##eches
آرایه
##henka
##odynam
##رینگ
##irling
مکعب
پارهای
engaging
admire
successor
قرنها
revolt
Manh
خندیدن
travels
penalty
forgetting
Rosalie
quantities
repeatedly
استقرار
ناساز
Protocol
استثنایی
Type
عذرخواهی
jurisd
Shakespeare
اورشلیم
دالوخوف
Smerdyakov
Bav
FD
Hills
Mazar
Source
بمو
سیت
شسته
فات
گوت
##uated
##جاب
##جمی
##FT
##BO
##ردم
stove
##ومتر
##uda
clay
worksh
دلشان
wrest
reliable
پروسه
غیرمنت
mustn
Deb
curse
##insula
تونس
promising
portray
شامپان
چوبدست
strikes
مایلم
ماجراهای
##طوریکه
محتمل
chiefly
correctly
نمیفهمید
Bernard
cluster
Mathematics
Terrorism
Din
Gond
Kos
Lag
TO
apr
nails
votes
هوان
۴۷
##liness
##tle
##NS
##HR
##٠٠
##oric
bee
خودخواهی
توکیو
weep
دستت
abol
ترامپ
کمرنگ
Alab
آرمان
eyel
مستخدم
##phia
insight
capabilities
بسازید
سراپا
نبوغ
خیالش
جامعهٔ
annually
Guinea
قهوهای
meaningful
نرمال
ladder
درخشید
attraction
assumption
Technical
strictly
Garden
Carey
چمدان
میشیگان
disagreeable
94
Action
Jess
Name
Ric
veter
waking
هوی
##pool
میبارید
##اهده
##roit
کارتون
prod
prox
سالگرد
اسپر
##acko
unl
##loqu
##ocy
acute
شهوت
##teenth
نخل
افزون
Percy
connecting
تمایلات
celebrate
Hugh
Operation
حصار
عبارتی
Honor
Lieutenant
Madeleine
انحصاری
Thursday
McGonagall
NZ
lur
تزی
سات
پلاس
##fire
ازل
آنالیز
##etition
نمیشه
quot
twin
مقطع
Chacko
reconc
نشاندهنده
ایستگاههای
##atted
severely
دریافتم
Adv
calendar
1925
closest
dominated
سودان
declined
پهلوانی
شناختن
Churchill
Electric
همونطور
##BSD
writings
travelling
binding
mosqu
subsid
میایستاد
توفان
Collection
نهایتا
ارمغان
مینگریستند
Hebrew
Avenue
Cry
Gy
Murd
Pole
cinema
wool
زیم
گلف
۸۵
##hma
##HS
##ester
##anim
##isia
راکت
beheld
اوگ
##oline
##odies
chlor
تناسب
مجتم
بلو
imperial
مینی
خاطرم
##gram
تولیدکننده
پردههای
Index
##bean
خونین
Neville
referring
فرزندش
cycl
documented
اصطلاحات
wander
##erousse
purely
hastened
ممنوعیت
طرحی
coachman
isolation
monitoring
عادات
convenient
مؤدبانه
بلغارستان
customs
آنتوانت
barricade
CL
Lost
Rah
bury
ion
jokes
سـر
هیزم
##lle
##فسی
##جره
##حات
##ов
میمرد
ایندی
##roche
##دهندگان
##ema
##eared
پرین
کوهی
پایم
اجاق
انتزا
دلب
scre
blushed
کمکش
سختگیر
Orth
تهویه
sniff
promoted
اينجا
##urgus
diam
recognised
مطالعهٔ
arriving
کودکانی
مساعد
۱۹۵۹
شایعات
texts
catast
anxiously
تایپ
conceived
شـما
Woodhouse
مبهمی
Autom
Caderousse
مروارید
gifts
Nostromo
SB
divers
dug
pseud
قریب
کای
##علی
##Script
##24
##ارشی
میمیرد
##irk
##raf
کشاند
تنسی
##actory
##لوک
artillery
تجمع
processors
خبرهای
Mechan
شعور
نکنه
Quite
بپوشد
۱۹۳۶
سؤالی
shouts
۲۵۰
میلیاردها
بایگانی
automatic
punct
Louisa
نگذاشته
pigs
پهلوانان
paradox
Entertainment
تهاجم
قدردانی
Crouch
Worm
rug
sincere
آجود
فحش
##ربا
##سیری
##mare
##oub
##alid
static
##ellers
soap
peril
جمل
beta
تعج
indo
##oby
شکلگیری
##annes
purse
sentenced
Advan
تأثیرگذار
تریلیون
فوقالعادهای
##وحش
Financial
مخالفان
contribution
improvements
کابین
dragging
##lovak
ambition
علفهای
transmitted
fascinated
کاسه
conservation
summoned
philosophers
submitted
Ladisl
acknowledged
میافزود
fatigue
Nuclear
تصاویری
Brian
Nash
Sport
UE
ratt
yawn
##bally
##hart
میطلب
رابین
comic
گرجستان
##دیای
placing
unst
مسطح
ارج
بیننده
perplex
##olded
scales
humming
simulation
شیعه
فعل
momentum
trapped
ونکوور
sentiment
Gray
مؤلف
angels
دستهبندی
1916
focusing
مکانیسم
Solomon
Works
گالری
accuracy
blessing
minority
pregnancy
neighbourhood
Fi
Mut
Table
Use
چروک
گویش
یابی
##atories
میامد
میوزید
همش
انفرادی
##akened
disple
yourselves
کلینی
زندگین
Chan
پیشت
grind
regulation
##ومیت
Problem
سختافزار
گفتهاند
حالتهای
بحر
داگ
healthcare
چرخاند
messenger
تپهها
essence
nucleus
towers
bleeding
cousins
کالاهای
overwhelmed
Dolokhov
Sulaco
محفوظ
ربوده
منصفانه
قرائت
فزاینده
انتزاعی
NS
hood
mare
##piece
asylum
##agging
exh
proven
trim
cares
Forel
curate
powered
confined
##ضایتی
نماییم
سیاهپوست
کرهای
floors
مجبورم
Byz
cuts
motive
radar
1923
representatives
پیامهای
مجموعههای
primitive
salary
communist
criticized
##flies
confession
بیزار
delayed
Photo
ragged
adapted
وداع
Advanced
Sid
Tow
Tues
bou
folly
tales
wik
سدر
شویی
چـ
یمن
۴۳
##دلی
##kers
##anelli
shaken
intently
##sels
click
##inks
phosph
ورم
اختی
بشیم
سراشی
فرزندی
Barcel
۱۷۸
tendency
measurement
Study
پادشاهان
##kaya
achievement
seventeen
Bagh
بیاعتنا
wireless
deceived
نیفتاده
velvet
supplied
retirement
موسیقیدان
Kochamma
هالیوود
##فارژ
Bour
Billy
Cu
LP
Mak
Site
htm
##امن
##میلی
##شدت
نمیآ
محتاج
intol
نامو
##ounted
مجانی
##احب
##ologically
رنگار
کالینز
۱۸۱
شدیدتر
McK
اقیانوسی
ماجراجویی
پترویچ
vacuum
آفریده
مقدمه
witnessed
معیارهای
کراوچ
commitment
بغداد
لیاقت
indignation
چابک
Eventually
orchestra
Gordon
موعظه
protocols
Gryffindor
83
Gun
HS
LC
جیر
نخواست
##یان
##دون
##page
asc
دوفارژ
comarca
shots
##abe
dozens
هرج
میشل
##دیگه
کوئین
##اهیان
thoughtful
رسوایی
slid
تأمل
صحبتهای
paras
گریخته
عبری
arguing
دفترچه
عیبی
1905
protecting
میشناسند
Moore
Large
متغیرهای
lamps
هوشیار
##stanbul
Puerto
مابین
nickn
Ernest
Manchester
incapable
Alabama
Access
Fagin
Kor
PL
Pad
RF
Vold
crop
تبه
تنگی
سکته
وهم
گد
گنگ
##مام
##eros
باطل
اوتی
recl
##cht
##لاحی
degr
فرنگی
knights
##عیف
##ondo
##ناپ
۱۹۰۰
زیرم
partially
میرسان
apples
جاها
کتابش
سلیم
Analysis
seemingly
مصون
میلر
سویش
varies
صفات
propriet
squirrel
misunder
پرتق
managers
ruling
Finn
Didn
زورق
مختصات
Additionally
AND
Cardinal
louder
##adelphia
exquisite
مملکت
Manhattan
Abs
dating
مخوف
##لای
##kov
##oys
##athetic
درنظر
میفهمی
میافته
##alo
استانی
##ریگ
##iral
##راين
alliance
theirs
نوکر
الو
مدیدی
Stay
adequ
##کلن
wrist
colony
monst
متحمل
helpful
marine
swarm
احتمالات
کسانیکه
Carib
Policy
diagram
Reserve
missile
##ija
relativity
Middlem
mortal
خلاقانه
علفها
tortured
feverish
Diego
Suppose
اثاثی
ingred
Antonio
rebellion
قهقهه
irregular
Emb
Sad
cited
dun
dazz
hits
lined
سزار
نویسد
ژنو
۳۹
##وقه
##gel
##ربی
##arge
استیل
ants
##essions
heroes
exasper
sober
بازگردان
spotted
##ormal
##olds
##وهری
بردگی
##ocide
تولیدات
پارتی
نورمان
Franz
سکوی
چرخهای
متراکم
verses
میگیرید
##shine
برافر
essay
verse
نرمافزارهای
fleet
Anyway
gravitational
diagnosed
##writing
macro
dramatically
namely
websites
Cairo
Cauc
Days
Huck
OR
Pseud
مکه
یورش
##صری
##ثار
درن
##eni
بهصورت
##acies
منس
##اتان
##تیل
##unting
##فراز
##endment
پایهای
مجری
میریم
scores
serge
retained
Isa
realm
stroll
Franco
خواستیم
circul
گیرم
descript
16th
مالیاتی
acceptance
درجهٔ
ویلسون
funded
متمایل
استادان
۱۹۱۸
##بوعی
virgin
زوبین
##پرداخت
مینواخت
satellites
Handbook
باردار
Bertram
API
کادروس
جابهجا
گسسته
Anthony
sophisticated
RS
aster
dy
بنج
فام
وتر
##ds
##عال
##ردام
همين
##گرک
notably
##osely
shepherd
allies
نمیگیرد
##ivals
اسطور
کلاری
poets
بنو
##amped
subset
سراسیم
گزارشی
bike
اوربینو
استخر
statue
ميك
استرالیایی
neighboring
Morgan
آورید
گردشگری
اندوهگین
##اتلندی
رگهای
varying
professionals
نمیگویم
Safety
هشیار
صابون
Bin
FS
LA
cows
fest
jun
x86
زیت
شگر
پودر
۴۶
##resh
استیر
##ویگ
frowned
##unned
میشک
whoever
ایلین
همهمه
whence
unlik
carries
گردهم
##lette
میپوشید
دریغ
receives
slender
آسیبی
Philadelphia
جرمی
anniversary
مهره
درمانده
Enj
تیرهای
popularity
##بوج
چکمه
پذیرفتن
cracked
Economics
qualified
درخشش
Abdull
annoyed
incorporated
geometry
کنفدراسیون
Gavroche
##unciation
مدیترانه
Bow
Lep
Sac
dual
ware
دهاتی
##mers
##zona
##GP
##nda
##eda
##advant
##ولن
##odrome
sealed
دیاکسید
سرنشین
##aug
plas
میکنین
میدم
مشرف
compelled
مقاصد
مداد
Staff
roar
هاپ
نگاهم
ادام
گردآوری
mines
treas
Ohio
##psy
terminal
corrupt
تراشه
۱۹۵۳
۱۹۳۳
Montanelli
مشهورترین
Castle
الفبای
سوءاستفاده
Princi
simplest
embraced
puzzle
Croat
whistle
removing
noisy
Wednes
Coss
XML
ah
daring
fict
fits
بقا
رصد
لاف
لاین
کبد
۵۲
##die
##oft
##heastern
shudd
ایسل
roared
ابو
دنیاست
warri
organism
corps
معلول
160
متروک
معلومه
سگوندو
##chele
reduces
wildly
checking
Indiana
كردم
Carlos
confessed
رشتهای
inherited
صلاحیت
prolong
Voldem
Lod
NY
borrow
icon
nasty
oceans
pi
yelled
هیم
کث
کشد
۴۱
##bows
##ré
##eor
##ثال
##HC
##HT
رازی
beef
##idal
stere
##قیقی
ایلی
تموم
بینش
میرسه
همانجا
اونی
insol
همراهش
نگهداشت
##گرفتن
killer
burnt
عاشقش
۱۹۵۲
موقعیتهای
فرستادند
ویلیامز
garage
فاجین
Historic
impatience
فیربرادر
الکساندرا
brutal
Malaysia
بنابراين
Ladislaw
Fav
Gaza
Kle
dolph
عریان
لپ
هي
پانت
##bish
##كل
درصدی
برآمده
تاپ
##اییها
dose
##ntown
اراب
##ptions
بگری
زیرین
افشا
دانستم
زندگیام
سیار
recurs
glances
خانوادهها
رقابتی
profits
ژنهای
شیروانی
catalog
##books
malaria
roofs
بخوانید
سولاکو
Labour
واداشت
advertis
میپوشاند
intimacy
یخچال
Yug
mes
osc
porn
##خم
##cz
##cont
##rently
##ـل
##ör
بهانهای
isot
##تیست
ماسه
exter
گفتهٔ
معادن
خواهرز
##acts
احدا
quote
تصفیه
نقاب
میشدیم
سیگاری
تعمیم
تعویق
بردارم
ماهه
Rele
مخرب
۱۸۲
devotion
دستورهای
practically
تکراری
اسکاتلندی
عمیقتر
آمیزش
بورژ
میساختند
سوءظ
flags
##ulsive
هوشمندانه
interpreted
فلزات
شفافیت
restrictions
##heimer
velocity
excessive
تنیس
inevit
Blood
hobbits
bundle
ادرار
Probably
##chelevent
Dud
hip
hats
بِ
ببخشد
ستوان
عری
##وج
##وجود
##iens
##hot
میچسب
راب
##lyn
fores
##ammer
ashes
##chair
##unks
نامع
اصالت
بزرگان
شنوند
##هاشون
ماهیچ
adds
capability
ندارن
طبیب
اقتدار
promotion
expressing
Genie
رنجش
gloves
تماشاچیان
پیچیدهتر
fastened
تپان
circular
murderer
بوته
Arizona
لکههای
portraits
Venice
grabbed
grip
guarantee
##تیوپی
elephant
Amaranta
Mazarin
Delta
Fare
Sri
Sax
fung
owe
سویی
صدر
طغیان
##sch
##was
راهم
آنه
یکجا
heal
منقب
##odore
##opp
هرچی
##onde
بارسل
دانلود
شبکهای
##ocated
obed
Forg
##ierra
monarch
گلول
##ohn
exploration
مرتفع
protested
مالاریا
Perl
کودکانه
hosted
competitive
magnet
برگزید
ethical
encouraging
odds
لیزا
Urban
favourite
دیوونه
rabbit
frowning
ناوگان
ممتاز
epidemic
اللّه
اسماعی
موفقی
injustice
شامپانزه
Darya
Farm
Wright
duration
kicked
vest
اتیوپی
فاح
نئ
نانت
##tail
##wick
##isi
alleg
haw
##antom
##arte
chase
##sole
Change
applying
سازندگان
retain
presum
درآید
بوک
فراگرفته
organisation
awfully
sunset
##سیسکو
productivity
عمیقا
پوچ
ابزارها
investors
chemist
mouths
fundament
blocking
featuring
Lucy
resistant
بمانید
Evolution
شاعران
dusty
Revolutionary
affectionate
jumping
اکوسیستم
مبارزات
bridges
Kemal
ABC
Hob
IL
Mü
Yellow
یگان
میاید
##rehens
##rift
بیع
داريم
##یاطی
enforcement
clen
twilight
پیامی
Along
زدیم
Rebe
coloured
gluc
مخمل
monkey
Beij
requested
Trad
stepping
Frenchman
کوتاهتر
حسابداری
۱۹۵۶
گرانشی
الکتریسیته
virtually
فرزندانش
bulk
stretching
ویکیپدیای
demonstrate
میجست
عبدالله
بخوابم
ضخامت
خسارت
scheduled
حوزههای
provincial
بیاندازه
Geneva
lofty
Caribbean
احداث
Rebecca
5th
ME
PA
Race
Wa
dusk
سنا
شایر
##culation
##ski
##lag
##تها
راسل
برس
##aca
##ویو
##agus
suite
##گیهای
sailing
##ateau
بازماند
##mented
تره
نامعلوم
وجودم
افسانهای
فقرا
expanding
آلوم
retail
Price
کلیک
##ocks
فیس
خبرگزاری
presentation
replacement
شوهرم
تراژ
accounting
acceptable
۱۹۵۷
میخندیدند
فایلهای
reviews
limitations
cottage
Mohammed
Hungarian
Yahoo
بیبیسی
Total
trivial
UEFA
Middlemarch
منقبض
Ko
Mobile
Pel
bonn
lang
mim
mig
جیل
خوری
فواره
لورن
##fs
##لوان
##سالی
##21
##orax
بیخود
##umer
اسارت
##ostic
کندن
نامم
Chair
دلوا
intermedi
شکاری
supporters
Leave
مهمات
solo
breeding
sunbird
probable
توضیحی
اينكه
گمراه
میگرفتم
Enc
eighth
dresses
میشناسیم
استراتژیک
Rosemary
nominated
Gregor
prosperity
Tuesday
MAC
cemetery
هک
##خب
##UT
منشور
بیوتی
seasons
##یشون
نمیز
Init
میدارم
disadvant
مجر
نیترو
##icket
بخشد
beforehand
کتابهایی
جانم
decay
هیس
Shadow
بخشش
##conn
delicious
تقریبی
گریبان
لوتر
##version
varied
نمودن
immigration
Advent
نبرده
مسئلهٔ
1924
۱۹۵۴
Anti
رزمی
۱۹۲۹
interpre
Julie
cabinet
بکشیم
Return
آیندهای
مزاحمت
##ojin
inflation
interfere
bicycle
Bud
Cephal
Ug
penny
قضی
یتیم
##عاتی
##mouth
##pic
##Hz
##atics
##isations
##itches
آنتن
stating
##ولار
دیل
فرقه
مشام
##oundrel
Stra
بلع
دیدگاههای
هایمان
جنایی
relating
بیمناک
colours
##بورن
تماش
##works
فهرستی
۱۹۵۵
hyster
whispering
maintaining
crucial
استخوانهای
campaigns
shelf
دستورالعملهای
Connect
هیجانی
Goriot
Species
Isabel
Universal
Renaissance
Fauchelevent
corpse
ژاکلین
Barcelona
Aero
PH
Pin
RE
awe
oak
دکتری
رآ
ضمنی
عراقی
مژ
چرک
##بعدی
##قهای
##ینهای
##امان
##ulum
deals
کارشناسان
moreover
نظرسنجی
باروت
لبریز
attending
##واران
##anka
matching
Shan
Shire
##brother
عشایر
کانون
Ord
سفیدپوست
مذکور
##sequently
prediction
tracking
Keith
concentrate
Protest
hesitation
experiencing
شعلههای
comprehend
حامیان
##rolled
Lucas
Andrea
میمیرند
معترض
غلظت
PET
Sorry
foul
los
خدایی
رغ
غوا
فیت
فانتین
کشانده
##ندر
##اداران
heated
fruits
##اسم
محرو
##ومد
میخوای
اونقدر
scor
heading
metric
بلندترین
کاناپ
عزت
Truth
weekly
Drust
جنبشهای
نگرانیهای
پروژهٔ
murmur
Rogojin
avoiding
nutri
دانیل
نردبان
borrowed
Segundo
بههیچ
تطابق
unlikely
Aw
BL
EL
GT
IG
Ily
Pent
Siber
boring
dre
fox
sins
siege
تزار
##icular
خودروی
##opl
توقی
ترم
quoted
##همانی
آباد
Pract
Airfield
strained
تابعی
patches
پلات
eds
وحشتی
Grim
Perry
coldly
characterized
فضیلت
disappro
نانسی
calculations
tissues
tearing
coordinates
عاجز
frankly
شورشیان
chimney
آرکادیو
Declaration
Ltd
Voldemort
Dall
Joy
Kan
sulf
tones
wins
جمی
داک
نگذار
چسبان
##رسان
inhib
##asse
براز
##idity
##aments
کنش
بدارد
lend
##ogy
مدارهای
parting
brass
شنیدند
چشمک
قدرها
##کوچ
بشویم
glowing
سنای
چهارشنبه
ارتع
اتفاقا
کشتزار
Proper
نتیجهی
empt
liking
175
ایدهها
ضربت
rises
eighty
##opsis
Crown
dimension
emerge
میبرید
Looking
synthetic
spectacles
Defarge
interactive
solely
##ناطیس
blanket
praised
Independence
انصاف
79
Ax
Dais
Fast
Nar
umb
جسی
حف
زوال
عاید
غفل
##на
##ظره
##ودهای
inh
##ilst
forcing
موظ
دیویس
subl
معاهده
mans
overth
Cha
بارت
bred
interference
trains
blade
cargo
lets
Alliance
بـی
priests
دکترای
ناپذیری
نشدنی
ساموئل
##IST
Prior
Studio
injuries
fashioned
calculate
ranging
apprehens
copyright
التحصیل
fragments
##occup
##abetes
mosque
telescope
مظنون
قاهره
دایناس
electromagnetic
Lycurgus
CB
Carm
Camb
DO
MY
Municipal
NET
Vik
تکل
شیری
فلی
قن
وع
گازی
##uer
##FF
##hill
##SR
toxic
بافته
پروان
پرشور
راهکار
هاى
آلات
lasting
instances
مکثی
organize
قدمت
footprint
Guy
پوستش
نابینا
##وینتر
آلبانی
Results
forgiveness
ستارههای
associate
۱۹۳۵
programme
##engeance
سنجاق
بنگاه
Sarah
bowl
پنداری
attachment
##ocaust
Beijing
GR
Gro
HD
rushing
tide
tatt
ایمی
داند
سخته
قوز
هانس
گپ
۵۱
##اها
##aa
##cat
##gie
##راز
##lie
##عالی
##HA
برادری
##utton
مناظ
##ازههای
##لاوی
موذی
##opol
##abad
##ourning
##gebra
##seless
unlock
تنومند
ambit
brisk
scal
##کردند
##کوفی
##لسون
خدمتی
##otto
تفریحی
خصوصاً
operational
تهوع
Graph
پاکسازی
attacking
گذشتن
Quick
conversion
۱۲۰
influences
##ascar
Compan
prayed
کارتهای
رسانهای
##oneliness
انفجاری
مخاطبان
بخوانند
furnished
Oriental
Audience
hurrying
داوطلبانه
exceedingly
greeted
Championships
feeble
بمیرم
Catalonia
سرنگون
لیدیا
معرکه
shuddered
Fun
File
dine
سندی
کوله
##mail
##ère
##asis
برآش
reapp
##sein
##یزلا
دیابت
exit
sheer
loads
Thr
دادلی
##bery
##iah
likewise
aging
##actic
نهتنها
استفادهٔ
##وسکی
##ونیسم
آلاب
مصالح
Prim
پرسیدن
Adams
گیریم
چیزهائی
civilians
بگوئید
denial
damned
assuming
جغد
مشتاقانه
زانوی
Decoud
cigarettes
Ident
vegetables
distracted
Examples
چوبدستیش
رنگارنگ
monstrous
Hud
Lux
Past
dot
lane
mol
rude
واه
گارا
##مول
##88
##گم
باله
ank
##istance
محمود
##astically
نظاره
مشرق
ویک
amusing
دلخور
مصرفی
جوانمرد
factories
میگذاریم
پوشاند
bittern
بستهبندی
barn
Perform
حزبی
نظامیان
Tomorrow
productive
##forced
پلاگه
Market
cartoon
platforms
unwilling
tanks
Express
tossed
Prophet
Fyodorovitch
پنداشتی
initiative
feminine
tropical
criteria
indefin
Murdstone
oscill
Based
Hort
gases
kernel
lace
lyrics
pose
فسیلی
چکش
##ст
درماند
##esy
میذ
##alan
برکلی
consec
بلک
صدف
interven
یادتان
consume
expenses
slower
مصد
##phy
insign
strand
provision
نرود
promises
economists
pretending
Charter
uncomm
۱۷۷
enterprise
مأی
شارژ
کیلومترمربع
affecting
suggesting
worrying
sustained
استودیوی
bombing
وضعیتی
Freud
reforms
conquered
انزجار
terrace
مافوق
فوشلوان
wikipedia
Wednesday
Bry
FBI
Opt
XV
آشی
ثان
قضای
لند
ژول
۷۰۰
##رغ
##رهی
##کاب
##mi
##pin
##حور
##isse
##olo
heritage
##ppe
##igious
الس
offs
پروس
صحرای
incons
skirt
bushes
ونیز
15th
triangle
Sylv
hopefully
biography
نویسندگی
مرحوم
رشتهٔ
##atabases
بخواد
جالبه
استثنای
travelled
tuber
ساندویچ
Nadine
begging
rifle
متفقین
Bavaria
مجتمع
Daisy
Bomb
NAT
apt
dots
pars
ripp
نیند
هاری
ژولی
##وض
##oos
##ensely
##inges
toy
##asian
##eled
آنف
همدیگه
seal
##اندیش
thereafter
partition
سلیمان
معماران
##rices
finishing
swore
delir
advancing
specim
##ساوی
merit
prophet
نکردهاند
جداسازی
حرام
drinks
ناخن
architects
۱۹۱۹
مبلغی
farms
Territ
Defence
میگشتند
bacterial
Publications
##otypes
میچرخید
بنشینید
استعاره
paradise
holidays
overwhelming
inferior
Pythium
comprehensive
deemed
disliked
گواهینامه
Gates
Mapper
pouring
فلاس
۶۶
##خون
##وگ
##ساط
##holm
##ابها
##ulin
دوئل
##مانند
##unts
##کنش
enables
clung
clasped
کلامی
##وندی
Whale
نشو
scoundrel
دوستداشت
Ask
فروند
incidents
مخرو
Sha
##ستیک
nightmare
گفتهام
broom
خبره
shallow
kills
barb
پاکیزه
natured
130
چپش
روانشناس
Dragon
##فسکی
روزنامهنگاری
غریزی
بشنوند
Steer
ریشخند
oxid
ethics
rubbed
heroic
gestures
چيزى
Publishers
shifting
schedule
basketball
مشروط
##پزشکی
entrepreneurs
کثافت
Aks
Sper
Tib
آئ
اتر
حری
دابی
کبری
##رود
##ele
##oard
##يده
براد
بودنش
خودمانی
meets
abbre
##aky
چندگانه
amiable
دلداری
Algorithm
deserved
underw
##intend
##سرعت
فروتنی
Airlines
##manuel
discour
ریک
parl
infantry
افتادیم
clearing
پرسیدند
روشنفکر
سراسری
وسواس
temples
Select
هزاره
رنجیده
دفاتر
encryption
شاخهای
districts
blocked
Boys
اتمسفر
demonstration
نصیحت
Politics
Vincent
volunteers
flexible
جزییات
configuration
##cephalus
CIA
NC
Riv
niece
بئ
زجر
ضل
غزه
مونی
هولو
واری
##کوت
##گیزی
##inarily
##یدگی
برسید
stained
spray
اسلو
##cio
Thy
ترام
عمهام
reserves
کوفته
خانوار
افریق
تقاطع
بردیم
secular
مینگرد
مادرید
خاطرنشان
##ahl
ساعتهای
##گواری
سبکی
سبزه
##anne
restless
باورم
بستنی
cellar
Trz
کریستین
ویراست
thirds
حوض
fastest
رزرو
سخنانش
بلاگر
cleaning
integer
Jacqu
مینشیند
Romeo
Memorial
نامشخص
sailor
رجوع
سوسیالیستی
فرورفته
Excuse
Spirit
رفقا
فراغت
diameter
ناموفق
Farebrother
ambitious
Bot
Cyr
Sue
nap
تات
پیست
۵۴
##اء
##list
##فشان
forec
##ully
انطب
##iller
سرشت
کارائی
##ourge
معانی
الب
Always
commod
accidents
پنجشنبه
##ggle
Progress
Indians
deter
refere
پلان
کاج
proposition
##رسمی
foods
مورخ
کامپیوترها
frequencies
demanding
discussions
firms
integration
##فورث
میشناختند
نیاورده
Township
طفلک
آکسینیا
Vincy
updated
بیفایده
مجلل
quivering
هیرتن
certificate
horizontal
appetite
تشییع
Steerforth
Fear
Hab
IR
V09
rod
tenth
تین
غوغ
گوار
یوسف
##شوی
##AX
##BP
##esar
##ido
##ریشی
heed
بیشماری
دستهی
kne
##ومیر
##برانگیز
میدیم
##aceae
الکس
##asser
##ultan
توانی
علتش
Reed
glac
realizing
switched
نورانی
فراک
Appro
questioning
objection
خشمناک
identification
Artem
##فسن
cyber
فشاری
farming
therap
افزودن
آذوقه
میدونین
ambassador
میترسیدم
Throughout
صرفهجویی
خرسندی
Furthermore
Production
imprisoned
Future
fuels
Yugoslav
تراژدی
Aar
Celia
Gats
Pear
View
وبه
۵۷
##خیز
##شمی
##بها
##eys
##ضم
##ра
##انشان
##ستقیم
اینا
##هایو
##lements
##usa
متنی
مردستون
##وتوپ
اتل
##resses
smugg
Armed
coins
caring
مینامید
##inae
electro
پارف
دانشگاهها
Grus
سانفران
قوانینی
sweep
considerably
declaration
##iami
لایههای
employee
دودویی
1908
Current
axe
schemes
romance
میفرستاد
renewed
کویکوئ
میورزید
کنسول
میکروسکوپ
Dobby
Literature
surfaces
Nepal
بگریزد
موظف
Eh
Iss
Opp
Pink
São
cate
lament
هاید
##cs
##آنج
درص
##esc
بهد
##ویسید
##ripp
تاسف
توئی
قراری
ترانههای
compens
کوین
bronze
Altern
انگلیسیها
##anya
کمیاب
مدرسهای
اسپانی
بسپ
کالبد
سادهترین
sunshine
محلول
ویروسی
Flight
1920s
تیکه
accepting
خروس
acquire
occupy
remainder
Wilkes
360
امریکایی
advocate
هورمون
mathematician
faculty
پهناور
Gatsby
Kabul
Mikh
NSA
Ow
Paddy
Side
etern
بایت
جنی
دپ
ریل
نگیر
هـر
وزش
۶۸
##وآ
##67
##ساس
##سپار
##يب
راشور
##یداد
##rocess
anthrop
##تیش
##abby
##قیه
بدانی
دادگ
##وشن
enters
unbel
##ناکتر
مدلی
Alpha
گردم
secured
صحبتی
کسالت
##obs
transpl
moderate
Phill
درآن
اسبش
میافتند
ماهیها
آیووا
preval
اسکله
احساساتش
سایههای
Morocc
chairman
surroundings
viral
سابقا
ساکنین
inclination
پنجرهی
اومدم
تهاجمی
sleeve
تاجیک
Sophie
Emmett
لادیزلا
Dudley
مأیوس
GC
Living
SQL
Toy
nod
زام
نفی
##yer
##ّل
##edo
##enh
##enne
##alism
##imir
##odium
سرهم
متص
معشو
manual
arist
ناگاه
twent
کوئ
اصفه
آبرو
مانندی
invested
passions
کلیپ
mini
##ashi
برابرش
warbler
farewell
continuously
##ogram
Exchange
ماندم
میپیم
##itching
ژنها
مقابلش
replacing
نکردنی
prophe
اسلح
نمیشدند
قیمتها
علاقهی
morph
چالشهای
Winthrop
##forward
ایدهای
COPD
گشاده
departments
تانک
Brothers
enhance
Bulgaria
buttons
محکومیت
Queensland
Cedric
هذیان
قحطی
Eld
FC
Gary
Istanbul
Mis
Southeast
Vlad
cm
pupp
هور
۵۶
۷۲
##dot
##maker
##orer
میای
##icol
یکن
دووینتر
##alling
##یچی
مشروع
unjust
nowadays
interse
scope
##oves
سهولت
رسوا
##لسازی
مارکسی
لباسهایش
musk
##unication
چطوره
prototype
releases
اتوماتیک
Franklin
نشانهی
آسانسور
تضعیف
بومیان
Physical
رحمت
Lebanese
humiliation
استعمار
استیرفورث
uncommon
71
Bov
Batt
Kings
Miami
dated
rav
som
فص
كل
هق
کورم
##rition
##ضاح
میست
##isive
رامی
##utable
##imeter
##سیو
روال
تاثیری
ماکو
کارتن
sha
##ellar
worm
بینیاش
تصنی
اجر
تنهائی
شکوف
Forum
عقد
ساعته
meter
##ائید
assisted
PhD
reads
نتیجهگیری
عباس
مشخصه
raft
##sterdam
طولانیتر
fails
روستائی
مبارک
بفهمید
exclusively
Armenians
میبریم
بفرما
۱۹۱۷
scram
ستونهای
frog
thanked
ویتامین
واژهٔ
colleague
مشهود
weekend
کویکوئگ
راشورث
Boe
Lan
Nag
Tat
crou
loneliness
جفسن
شق
مختر
۶۲
##iots
##65
##لانی
آنتون
sham
loans
prud
plac
##جهت
complement
anyhow
ویس
reson
بلای
##yss
آبشاری
مغول
فعالی
بگذاری
locally
خانوادهام
mush
آغازین
عوام
legacy
شعف
tennis
greenhouse
۱۹۳۸
جعل
urge
McD
گزاره
Melly
1902
نیروها
سروکار
balanced
قابلیتهای
سالیان
Help
obligation
commented
clinic
گذارده
skept
پوزش
renewable
unconsciously
Thorpe
بایرن
میتابید
Cephalotes
Citiz
Dest
Hait
Round
Sic
VI
dictionary
lust
void
دشنام
کانی
##cely
##ea
##erals
##ctive
##تیس
##rians
orth
themes
##asso
مجرم
##olding
اشباح
لبهی
##ochem
##formula
Leah
هیئ
هیاهو
highlight
پاسکال
Begin
بواس
خشمی
directors
empathy
صفوف
Amsterdam
##آنکه
massac
بانکها
خلنگ
شایعه
Babyl
جادوگری
frightful
automobile
گرگها
Galax
coastal
خوشمزه
بازمیگردد
نیوجر
gleam
میهمانان
Otto
Discover
controversy
Excell
سبزیجات
آلکساندر
Knowledge
میگریست
##zbek
Rotten
معروفترین
Hippoly
Dave
Money
Path
Sams
cyl
heter
بستند
سودی
غلام
##col
##var
##viously
##TM
بروس
fork
anten
موادی
##خوابی
گرای
##cible
##یلتون
کمد
resid
Alm
boost
##ailov
##awi
ساوت
مادرشان
کسری
Shark
خرابی
دیدهاند
نورون
entity
لیو
trucks
repent
فرودگاههای
succession
داماد
گشتند
##ithmetic
محبتی
casting
تهیهکننده
وارسی
پیراهنش
ایرانیان
نایب
Relations
pige
synchron
beasts
Girls
گرافیک
dishon
styles
متضاد
Baghdad
تپانچه
Grushenka
Aro
Bapt
HMS
Lem
pine
خفی
سکان
قفق
##bis
##feld
##rand
##gle
##باتی
##کینز
##leness
##قهی
##23
##reements
##adle
##sts
##utical
##ationally
##انیت
notions
chips
spur
outdo
ایب
##الیای
دانشنامه
شنوایی
handling
flashing
جایز
جنگنده
بلندش
cheaper
تولیدکنندگان
نیمکره
swing
موجوداتی
هفتهها
بریتانی
##iliation
ایستادم
Image
Camer
دخیل
##ugging
composer
sanct
unexpectedly
Jonathan
occasional
پتیا
racial
sobbing
اکراه
accordance
Religion
دلهره
مستعار
سراسیمه
Lion
Pul
Rita
bri
ram
آلاس
شـد
قس
نشت
##خط
##شاید
##rors
##had
##44
##UN
##anthrop
##iche
##owa
آمدید
upro
clad
advers
Youth
جمال
desirable
بردگان
decides
شونده
appearances
خوبیه
merged
صندلیها
fairy
مسافرخانه
cycles
praying
Henri
آشنایان
assumptions
غیاب
پروندههای
owing
Fourth
welc
Detroit
روزنامههای
arbitrary
orientation
سانفرانسیسکو
Cob
Emer
OP
RC
TD
bass
sullen
لایق
ویا
##سنگ
##UC
##oria
دربی
##inge
##ماع
##ulars
orn
chop
ایفای
میدونه
timber
تنا
تمایلی
disput
عمدی
adoles
شرمند
حسرت
پروتون
غیرطبیعی
غیررسمی
speeches
##atti
حدوداً
بسوی
##orthy
Grass
انتظارات
poorly
بچگی
نتوانستند
couples
##fficient
policeman
acquis
geography
Volk
مضر
مضمون
consequently
Helen
Kevin
predictions
petition
بیزاری
بیپایان
جنبشی
گستاخی
فرانسیسکو
Faith
لارنس
اپراتور
بیرحمانه
legitimate
Colorado
دادگستری
aristocr
Goll
Ign
Sly
Uzbek
bru
cere
mute
punch
فاص
نون
وفق
ژنده
کباب
گما
##rils
##gun
##eque
##گیش
##ستیم
اینشتین
بریزد
##ayan
stool
##لهٔ
بدلیل
mane
##avi
scrub
evenings
carrier
accus
ماهیچه
stricken
finest
بساط
valued
کالای
barriers
rounds
۱۹۵۱
سرزمینی
اندیشیدن
gasped
نوزده
targeted
کاپیت
unfair
IPv
التهاب
exhibit
households
فرمانروای
involvement
اثاث
Shortly
preceding
Animal
نامحدود
Friends
Authority
Holland
fundamentally
bitterness
Beng
Banda
Cole
FDA
Gim
Rast
Sz
Tanz
Voice
lens
mRNA
tab
wage
مباش
یـ
##bull
##gi
##gled
##نسیا
##dal
##95
##Br
##پش
##كت
toes
##otam
##acular
weighed
متان
##لهی
##astes
intro
##وتلو
بینم
تحقیقی
amm
##ateral
feast
اشرافی
remorse
تشک
servers
نفرتانگیز
مصادف
ابداً
شاهکار
کیپ
winding
##ructive
awesome
مغزم
Mayor
برخیزد
نظریههای
caution
دیرتر
Madag
determining
آلمانیها
علاقهاش
لینک
inquire
منفرد
electronics
همسری
بامزه
lifestyle
Survey
بهرهمند
طوفانی
Belgian
Kurdish
هلیکوپ
explicitly
فرشتگان
stubborn
unemployment
Executive
غیرمنتظره
Bear
Gott
Kon
NF
Pety
Ward
ere
fusion
آها
قائ
هویدا
کسر
یانگ
##هال
##ژان
##inety
##enged
##leans
##estone
ماگ
chimp
lever
righteous
ورقه
ورانداز
monaster
موقتی
نقشهی
draught
مدرکی
medi
memor
keeper
requests
Mission
نظریات
furiously
اسلای
sensor
sensit
couch
سانحه
ایالتهای
نکتهای
سایهای
applies
graphics
manufacture
altar
متخصصین
پیکربندی
optimization
زنجیرهای
concerts
recollection
مینهاد
اینچنین
Vasili
survivors
توقیف
آلاباما
Hippolyte
81
Bio
FM
Fig
MB
Tru
Term
eagle
gaining
hol
mourning
باین
قو
پک
پوتین
۹۶
##هان
##rt
##rics
##mler
##woman
##ثْ
##ضل
##27
##heard
##alin
##شتاین
بیارم
seiz
seize
شدهی
##igible
معده
##باف
دهن
دهانم
هاوایی
recre
گروگان
Aircraft
generator
##ائین
مکات
Gramm
##ایمر
تورنتو
machinery
judic
سایز
نیکلا
McM
Belle
اقیانوسها
credited
دربارۀ
ruins
oxide
rubbing
homeless
Starbuck
stirring
##میکردند
accurately
Holocaust
شیشههای
astronaut
میفرستد
fulfill
impressive
supreme
stamped
لنگرگاه
aggressive
Whitney
مسلسل
گاراژ
Petya
Given
Happy
Pitt
Row
Rap
Ul
lam
lump
ruff
sly
خلو
داس
صوت
عاملی
نپر
##خالی
##ّر
##VA
##ск
##ستین
میمال
استونی
##stru
##راغ
کارهایش
##oga
##ogl
unch
ارضا
مدخل
بینگلی
نظرشان
سوید
هایم
flowed
خانهشان
تقارن
نسلهای
carriages
##اپا
عقاب
insane
housekeeper
روشهایی
نارو
کالسک
Orleans
##ippi
Seattle
دونالد
dealt
سامانههای
۱۷۶
حرص
پایهگذاری
سیما
exclusive
vacation
امتیازات
هردوی
هزینهٔ
میانداختند
بوسنی
کالاها
infinitely
ارزانتر
alchem
implies
parameter
Television
عنکبوتی
زادگاه
طعنه
tactics
Mathematical
دیپلماتیک
حقیقتی
Kentucky
hierarchy
Graham
Maine
Oil
Oreg
Vau
ridge
اوری
حتم
خائ
عاش
۵۸
##وفی
##cond
##zo
##ık
درح
میهمانی
beet
##iri
##olras
##ulously
##لاو
shawl
بازم
##aceutical
نامنظ
پایههای
بلناپ
تحرک
veins
recon
پاور
##ایلف
centered
artic
extending
elbows
exploring
awakened
حملهٔ
هفتگی
envy
اسلاید
networking
banker
laughs
وینت
Desert
تایوان
behavioral
اندیشهٔ
Glass
Florence
graphs
streams
knocking
همکارانش
مینامیم
منقلب
کارآگاه
بیسرو
صخرهها
motivated
Manson
martial
squeezed
متناوب
landlord
سردرگمی
سِثْ
compatible
conspiracy
الکترومغناطیسی
سیلیکون
Enjolras
Cay
Dim
Haven
Mey
Orange
pad
vapor
wither
تیت
غنا
لنین
ژیو
##mate
healing
stammer
خودنمایی
##روزی
بیگان
سرپوش
ایک
##جامد
boards
registers
گروهبان
publish
dragon
وحدت
تلوتلو
رهسپار
entities
##ولوژ
بحرین
filmed
اورا
قلع
۱۶۰
##uki
اعتقادات
punished
Patrick
approxim
moonlight
Slow
dynamics
lodging
obstacles
سوسک
Devil
swallow
شانزدهم
آناتول
relaxed
NGO
Walker
papa
Mercury
inheritance
destroying
ترانزیست
Pretty
Slyther
61
Greg
Jup
Nan
Tab
Wat
cache
maker
rip
sore
هاد
یـا
##وشان
##ych
درز
##leon
##ilus
##uli
##oulder
میشیم
میشده
متانت
محافل
پرز
ناآر
اصولا
flank
چشمهایم
foundations
##oyle
findings
curled
assurance
واجد
خصومت
Concept
مایهی
Nev
discoveries
زیستم
کلمهٔ
drawer
Tomatoes
closet
لطفی
Roberts
تاثیرات
wilder
##آمدی
historically
Romania
irony
تدریجی
دوازدهم
اذعان
decreased
pilgr
گوسفندان
آناتومی
telegraph
Pictures
گیسوان
دستپاچه
ضایعات
تزیین
##ریگایلف
نیتروژن
Bund
Bull
Crypt
Lily
ecc
riot
اعیان
بلیت
فانت
ننه
۴۹
##ju
##حساب
##enorm
##rond
بیفته
shipping
shirts
##igo
##ateur
متلا
محج
outrage
##وتون
مشعل
مدفون
Chall
Soci
تصاحب
##loaded
interfer
آرای
serial
پروکوفی
slaughter
سازش
مهیا
آخری
ministers
خواستن
variant
میپند
promoting
110
گهگاه
angles
Barry
##نتیجه
argues
کلیدهای
northwest
هواپیماها
sacrific
medication
melting
dissatisf
Senor
cups
سدهٔ
محافظهکار
هیپولیت
نفهمید
Village
Beauty
Observ
lazy
wreck
داروساز
پسربچه
فاضلاب
antibiotics
membrane
bonnet
abbrev
نیوجرسی
اسلایترین
BR
Daw
Josh
NE
Soul
fuss
hire
jar
حلی
خست
##cut
##pus
##BL
token
##ردان
##الز
برفی
##ولراس
##that
abn
safer
cham
Hein
cane
knot
outward
##assing
##pton
کلرید
Chal
brute
attain
##حیطی
سخنگ
رنگپر
خریدن
شوالیه
paraly
پاسبان
مشتی
آرامگاه
learnt
هواداران
جلویی
##کشیده
operators
نکردیم
throng
##ducing
diabetes
معتاد
استانبول
مصرفکننده
موفقیتآمیز
observer
هرچیزی
روباه
مونتر
Karen
Studios
چمنزار
سولف
Rogers
MRI
Bahrain
سینیور
رنسانس
##idelines
سوسیالیست
mentally
طعمه
obeyed
comrade
implications
Marshall
orphan
دوستداشتنی
Oregon
Eli
Giles
Kra
darted
gear
wig
بوز
دیری
یوه
##gio
##رفته
بههر
##میشود
fract
shoe
Shel
interrog
commune
میانجی
آلفرد
طرفش
سازهای
شهود
شدنش
##upon
defining
هواگرد
سطر
لیک
نارضایتی
میسوزد
سادهلو
کاو
Mississ
هندسی
##irtier
squire
بدینسان
پانسیون
Marya
capitalism
bounded
##ذیب
ورزشکار
چراغها
harmful
لکنت
Queeque
Consider
irritation
vertices
پيش
preparations
##نگوئن
متابولی
فاصلهای
Madagascar
Queequeg
Liz
Nelson
aqu
lac
خیاطی
لود
چت
۵۳
##nings
##بده
##کات
##ـید
##28
بهوی
بهطوریکه
بابل
##ونش
##سیسی
توتون
معاف
outs
رویی
##ogs
تمنا
##isha
overfl
Chron
afterward
##ovie
blamed
Unit
carved
acres
regist
Present
##rett
monkeys
transist
منطبق
مارکی
breed
کانالهای
Clay
رقاص
بحثی
esp
gravely
investments
Maryland
Imm
۱۹۱۲
Thompson
وجهی
اصولاً
Libya
شباهتی
تروریست
Usually
citizenship
simpler
researcher
همجنسگرایان
premi
زبانه
Murray
earnestly
sleeves
fertil
sketch
cautiously
استهزا
Dock
Kurt
Mater
Pod
Sold
jazz
panting
sung
tires
ببری
حتا
عینی
قالی
قولی
پکن
##rus
##أن
##err
اوهایو
شدنی
anarch
haunted
##oso
spont
پیشکار
کلاهی
download
##ints
میانشان
moor
پیرو
subd
generating
ارتقای
filters
بتوانی
تقریب
انتقادی
barber
Agric
radiant
استخوانی
قایقها
breathless
lacking
##ESCO
manufacturers
میشناختم
astonishing
Micaw
Copper
partnership
skeleton
evaluation
Independent
غوطهور
uneasiness
ارگانیسم
aroused
نامفهوم
sergeant
درماندگی
ثانویه
Cou
DR
Marm
ber
bachelor
rating
wont
witch
نطق
##fol
##68
##گشایی
##حرف
##wait
##39
##uto
##ویهٔ
stab
stays
##andy
orch
##ellation
mend
گرات
##نجاری
دلنشین
دلبستگی
صدام
tray
پاشنه
Marine
treacher
purity
میسازیم
immun
کلمهی
گونگال
ولگرد
میبردم
هندسه
calculation
entertain
behaved
سایهی
فوران
۱۹۳۷
warmly
checks
Quebec
investigate
نمونههایی
پیشانیش
بمبگذاری
Working
استنباط
امانوئل
innocence
##isphere
Clear
attributes
Aerodrome
waistcoat
سعادتمند
loyalty
فضانوردان
نافذ
اجزاء
صربستان
آنژولراس
بنجامین
umbrell
آلاسکا
Ice
gly
tag
بفروش
تکت
جت
فیش
گسی
##35
##VC
میبال
بابی
stalk
anonymous
##انیوم
libert
frames
deed
##anti
prest
ویسکی
بارز
میزوری
preference
##renched
formidable
buz
crowned
مینشین
حقارت
insuff
توجهش
میخواستی
##وجهی
میخائیل
lesser
Franç
varieties
128
##neum
imagining
بحثهای
بانکداری
جادهی
similarly
Ahmad
احترامی
robbed
initiated
execute
translate
معدود
نمیدادند
dismay
owed
disturbing
مفرما
Aleks
mammals
nitrogen
evolve
فضاپیما
glucose
Jacqueline
معشوقه
زیستمحیطی
Micawber
Dri
Dance
FO
Upper
Won
بفه
دِر
##وفت
##afe
##nom
##ić
##viol
درباری
##itic
##asping
##rec
##esses
abbe
outbreak
ندان
##ipt
ولیعهد
میزنه
مطیع
شمرد
decomp
شوکه
humanitarian
creep
##arring
testimony
آوردهام
باغهای
فرهنگهای
tends
Integr
width
Frau
موشها
challenged
۱۹۱۴
scrut
رمانتیک
Campaign
colonies
permanently
کبک
corporations
قاعدگی
scenario
بولیوی
metabol
پرخاش
تعجبی
Block
FR
Hamp
Swe
Tah
cra
dys
گدا
##جری
##DB
##math
##ION
##TH
دردم
باف
##اهوی
##اهمیت
##ulates
##لاع
بیافت
conve
ماها
succ
نیستن
زیرش
rooted
boiling
prelim
induce
سهل
Lev
subdu
generosity
شیک
swinging
اسپرم
سیاهان
برادرزاده
ردای
painfully
Plat
doubled
limb
costume
identifying
##ennis
respects
##جمله
##lighten
definitions
harp
preventing
1907
indicating
UNESCO
دماغه
Saturn
constitu
accidentally
بوسیلهٔ
Workers
مواظبت
درگیریهای
تداخل
constitutional
معصوم
##organic
ماکرو
Gentle
7th
91
Kenn
Nine
Osc
bureau
cran
fighter
saint
vag
پنگوئن
چاله
##دستی
##hl
##غری
راههایی
##icable
بریدن
##ilia
##aci
منی
میکروف
سرگ
کارزار
متین
##ومندی
پیشه
نواخته
##ناپذیری
disbel
Stars
contented
دانمار
هائی
handled
ادگار
cooked
مینا
regen
systematic
Prison
discern
##iko
provisions
منتخب
لیسانس
Script
editors
بستگان
سفیدش
snatched
ژنرات
legally
عضلانی
coron
Guards
رسیدهاند
باریکی
negro
progressive
medications
dissolved
کمونیستی
rags
Industry
Nearly
transparency
tavern
governing
Version
هوانوردی
زندگینامه
clenched
سویدریگایلف
Jupiter
Hat
Lakes
Pomer
Sierra
bishop
lent
oct
جاز
##jani
##hard
##anth
toil
console
delet
نمیباشد
spoon
متصدی
محراب
##astics
twink
##امیکی
justify
سیبز
شرارت
carb
دانشجویی
surge
##retion
discrete
##otechn
گوینده
کوتوله
planes
snap
جریانهای
قطعیت
performances
mainstream
رخداد
گذاشتهاند
husbands
اکتفا
سوره
خلع
##عمول
brightly
متوسل
محسوس
سراغش
مؤسس
altitude
##holders
homosex
Electronic
اتصالات
Outside
مخاطره
بنگرد
correspondence
analyze
رباتها
بخورید
غیرمستقیم
yielded
##بلیو
clusters
پارامترهای
دیپلمات
##strong
clutching
Ethiopia
trafficking
ایلینوی
ارتعاش
متلاشی
Aur
Hed
Jem
NBA
Vice
آدا
راندن
فصلی
پز
##conscious
##کای
##EB
##onial
دریچ
##itus
reef
liv
سرایت
سرسب
wheat
نمیک
نمیزند
##وشیمی
الوار
کوفت
Chamber
##acht
desol
preacher
Noirtier
Pruss
بشکند
producers
ارتشی
discourse
developments
requiring
کریستال
شناختهشده
میباید
growled
encrypt
شناسان
combinations
determin
separately
یخب
achieving
عیار
بپرسیم
ایزوتوپ
odor
منصب
youthful
bullets
Silence
unsu
optimal
innovative
منقار
##ephson
پالتو
Ukrainian
هفدهم
Inspect
Vicar
neglected
براشون
WWE
unseen
نمیبایست
اختیاری
دانمارکی
Fisher
Kah
Pas
edu
fi
huss
pyram
til
جویا
رُ
زبر
لئو
کونت
##مرده
##uber
##rator
##gone
##DS
##his
راسته
##asive
##real
همۀ
##acional
برایان
##ulator
تاخیر
##مانت
congress
سرگی
##یتا
sauce
upward
##درصد
unint
بلوز
هاوس
توانمند
##گذاشت
سفارشی
providers
sideways
رایانههای
سردر
۱۳۰
نکردی
discovering
مرحلهای
Artist
متعادل
ناتمام
سابقاً
associations
عقیدهی
crowds
درآوردن
lacked
شرمساری
پیوستند
مینشستند
routes
استنفورد
ventured
Democracy
همجنسگرا
پیمود
ششمین
gigantic
convicted
navigation
Friedrich
ملاحظهای
Gillenorm
lobby
Tennes
fountain
بههیچوجه
Galaxy
شرمندگی
DA
Hub
Roh
cement
اگز
عامه
هاس
##تنه
##makers
##29
##ونین
alumin
##rious
بازوهای
متفر
##akin
اساط
اسبان
##استی
##ressive
Alz
بالاست
تباه
generic
مارو
##atts
waiter
organisations
governmental
floated
##شونو
sweeping
packing
زمخت
گناهان
inputs
faintly
Currently
Former
grinning
Venus
pupils
Algeria
hitherto
##bourne
##oubted
ایسلند
welcomed
Mississippi
Bae
Case
FP
GPS
Luz
Luther
Mlle
Sister
sor
sack
serm
لجن
##course
##CE
##öy
theat
##inette
##ستید
##anus
استریت
##ونال
##otive
همت
Theater
خواجه
بیخی
بیسیم
##ouss
چیزایی
میدونی
قرم
tramp
blast
coined
بدهکار
matt
mature
##phones
شیوهای
addict
AllM
depended
filed
halfway
processed
organiz
تفاهم
آزمایشها
جرقه
بکشی
پیادهرو
modeling
photographer
archive
بویژه
رفقای
ذخایر
پیرمردی
خداوندا
establishing
novelist
sticking
taxi
integrity
substances
nodding
Endean
cruelty
ساقه
bucket
feathers
مستعمره
##children
lambda
tubercul
سیبزمینی
900
Dynam
Gru
Mih
سونی
ژرژ
کاشته
##چن
##ío
##انگیخت
stumbled
انض
بیچار
مواضع
الکلی
مدلسازی
Stew
میخوایم
tram
scarlet
##ovsky
thoughtfully
##وقتی
غیرفعال
##تمام
میدادیم
Whenever
Marse
ideology
swollen
skilled
exploded
فهمیدند
جریمه
عکسالعمل
##رانند
mischief
Georges
اولیهٔ
reflecting
reflections
##آموزی
tremble
traditionally
requirement
Distrib
synthes
ranking
پیداست
نعل
مقدمات
ambig
کاسته
جامعهای
ribbon
nurses
بغض
Guardian
crawled
Ecu
inquiries
Rushworth
حفاری
هلیکوپتر
Gillenormand
Tennessee
Buff
Dh
Ian
NI
lakes
vend
هلاک
گینه
۷۴
##aunt
##jar
##bach
##چنین
##قاتی
##UI
##esity
stunned
##وانده
charts
Thousand
plague
پرتره
unity
نامت
##ounding
مثبتی
perse
##ordered
صدد
bloss
##wealth
##کتریک
خوشوقت
##azing
چهارچوب
##پیوست
روشنائی
نورث
##زدگی
اغراق
##ropri
فروشندگان
ویرانی
رهائی
۱۹۳۱
۱۹۳۲
packets
دودمان
بیمارستانها
surviving
سایتهای
برنز
reveals
بذر
Danvers
cupboard
eagerness
explanations
errant
conclude
profoundly
تابلوهای
منهتن
eliminate
فرناندا
Matthew
prosecutor
awaiting
tackle
revelation
fictional
Baptist
Jephson
Kind
Wol
lumin
آتن
بستم
فان
هانا
يه
##وسید
##rared
##گي
##wid
##47
##38
##ظار
##ادیم
##الش
rehe
##ctica
##ulent
کارو
##ellen
suic
بازبینی
upgr
knelt
امین
##cian
نمى
مدع
کلو
##ishi
##وسا
trump
Arctic
countless
bug
##تمندان
صدایم
submar
marching
conductor
پاسخهای
کرانه
publications
##idditch
##رتبه
Iranians
دونیم
Quidditch
وسیلهی
ماهیهای
طبقهٔ
ویلفور
predecess
کتب
Belkn
1901
Contem
impacts
غیظ
duke
achievements
petty
خزید
اقلیمی
unnatural
tempted
##abulary
##اگاس
Isotope
irresist
gorge
Learning
Orthodox
ER
Jay
KN
LT
jest
rud
tips
اود
بتا
طوطی
لگن
مظهر
هت
هات
۵۹
##نفس
##oan
##SE
##ни
##ndry
##امیر
##abwe
meg
envelop
پیشخوان
noises
disd
Soy
تحلیلی
grasped
impert
بنوش
تعاملی
میدانهای
کاریک
اخذ
##ولیس
insurg
transactions
ارتکاب
Brent
publisher
صداهایی
سیاهش
قانونگذاری
فلک
جیک
stealing
hearth
Carter
squares
انگشتش
Arabian
اعتراضی
هیجانزده
lowering
میپرید
ماما
حیران
Personal
guarded
bursting
والدینش
counterp
پروتئینها
لنز
واژگون
جنبهٔ
##rangement
reckoned
کرواسی
batteries
میدویدند
sewing
parliamentary
میمونه
Beautiful
نگریسته
anchor
Virtual
فاتح
مناظره
Belknap
DB
Oak
Raff
Yale
Zimb
cope
gains
hed
بپا
جلی
دایی
یاهو
##bility
##ugged
##ـرد
##سها
##سوتا
##vous
##پایان
##UP
##یرت
##aying
##amer
سرشناس
##خوت
بازدار
ایس
pla
arithmetic
##plus
نظرت
دورش
جهتی
شنود
traced
carn
ماهوارهای
Reich
جوانها
advise
گستره
travers
termed
monthly
politically
میشنیدم
energet
قطعنامه
Quant
مفصلی
##eseen
جذابی
suscept
آثاری
Schm
سؤالات
نگاشت
سوختن
نگریستن
رقابتهای
بافتهای
میدونیم
tumult
قبرستان
پارلمانی
بیپرو
Ghana
Stanley
suspicions
superiority
restaurants
elevated
میلههای
Kuwait
volunteer
pedest
constraints
announcement
فلاکت
Programming
Aristot
کارائیب
AES
Cut
Font
GM
Hannah
IDE
Pi
Pick
Tax
Zam
dashed
fighters
بفهمی
نگذشت
پلو
کیش
##خد
##چینی
##lah
##48
##49
##erated
##inel
##eno
بهخاطر
##aser
##asters
##icia
##urated
##اتید
سالش
معجز
نمادهای
نوید
میگیره
مدینه
##otherapy
Athens
parlor
Communications
تشکیلات
##uffs
بادهای
تخمم
1940s
بکوب
مکانها
globally
انگشتهای
افسار
whispers
despised
پروتستان
claiming
hybrid
۱۹۲۷
millenn
ندادند
##iquity
virtues
هجده
روستاییان
Basic
fantasy
همسایگی
منتظره
Multip
nigger
abundant
pleasures
civic
دوروبر
ارسطو
رشوه
اِمِت
glittering
فامیل
Cinema
Raw
Wes
ell
نگاری
وک
##ئینی
##rise
##gus
##قش
##ér
##anas
##اهت
بیاین
دوبر
ups
میگشود
clan
##fts
2019
مینوش
Answ
founders
Lex
Legend
میلیمتر
هیولای
گلخانه
swamp
101
آرامشی
demol
خواستههای
completion
عبادت
##venth
coral
motors
encomp
جذبه
collapsed
Ronald
terrorists
منحل
Otherwise
1904
lieutenant
complained
commerce
صفحهٔ
rubbish
railroad
descendants
میچرخد
fragment
کیهان
temptation
champagne
مجالس
Ambassador
##elihood
compromise
voters
پراکندگی
Eb
Kap
aven
luc
yell
خفت
طـ
ظن
هورا
ژورن
کراس
##دارد
##ذه
##inator
##atum
##tero
##گرام
##andr
shark
##igation
chick
##cium
Thirty
پیشامد
unim
واقف
resil
دورافتاده
میرن
amino
Alaska
اونچه
برداریم
expend
فیلاد
##ublin
distressed
##pring
##ificant
جوانک
بگذریم
حدودا
##ungle
پوشی
aviation
##بلند
imaginary
ماداگاس
برگردانده
رنجی
motives
بردهداری
##aida
جادههای
digging
مرزها
راسخ
microbes
streaming
رتبهبندی
crimson
rotation
Fortun
Popular
بنشینم
کراوات
نمیبیند
Liberation
José
coalition
inexp
adoption
hazard
Environmental
doctrine
اوتیسم
6th
Ach
LO
Pom
cad
makers
wires
حاد
دبی
چکمههای
کویت
گان
##وث
##وگرافی
##bone
##LI
##lights
##mal
##atra
راتن
راهروی
اینج
aspir
خودتو
##riger
دوتا
توفیق
degrad
ماورا
کارمان
shine
میشناسی
##یدهاند
##فرید
قرق
الدین
تنفسی
##کلاه
جملهای
نشوید
scow
##onski
Ona
phases
mustache
معمای
تبریز
##oba
میلغ
Brus
asset
inflict
غرغر
pleasing
انتظاری
Warren
recognizing
failures
privately
ماهیگیر
مورس
##umping
افسری
ایستادن
هزینهها
سنتز
برنامهی
تعدیل
competing
لینکلن
fools
صفحهی
زخمهای
نمایندهٔ
شکمش
هیجده
زیباتر
assessment
بگذراند
consolation
کلاریسا
انطباق
acquisition
Ecuador
Bent
Hamb
Late
Nova
Ost
bourge
icy
jam
vicious
زدی
شارک
موریس
چرم
##واز
##آنم
میار
ازبک
##lem
##owo
isomer
##irical
ster
##روند
بیث
دوتایی
##through
##uments
sobs
choked
مدد
boiled
تماماً
علنی
شمایل
Read
Reference
مصلح
invari
passport
Prom
drain
visions
sounding
میشنود
Edin
Elves
collections
Emir
سرمایهداری
مورل
photograp
آیه
archae
determines
specification
predomin
قایقهای
emerald
debts
بریتیش
Counter
خشنودی
رساندند
interviews
Cathedral
Atlas
خزانه
talents
tickets
Circ
shells
پوزخند
springs
deliberate
اتهامات
vigor
attentively
anticipated
imprisonment
rejoined
Anatole
downtown
Hawaii
bargain
خودمختار
شنوندگان
اسماعیل
رآکتور
NATO
parlour
توئیتر
نامنظم
Zimbabwe
BY
Cit
Cities
Happ
Lisp
Nom
Num
Pt
Wonder
dances
ego
شکننده
پود
##cin
##نژ
##عون
##42
##idi
منسو
##میک
بیشمار
موها
##aparte
##artz
متا
اسکان
الج
روزگاری
ارایه
Chart
##amph
##ینیوم
فروکش
شیوهی
مغذی
اتفاقاتی
موضوعاتی
مارکس
تکالی
trends
governed
procession
خبرنگاران
organizing
Ada
objectives
Plant
##osphere
دوشیزهکرافرد
تپش
تکنولوژیهای
۱۹۳۴
نمایانگر
excellency
پانزدهم
Arkansas
Nicole
threads
commissioned
shivering
دستاوردهای
chromosome
ایندیانا
Byzantine
رغبت
Alzheimer
Abe
Raf
Saw
Ton
bil
dart
mamma
omn
خیل
عودا
فستی
قوس
هرو
واتر
گامی
##ás
##orum
درنتیجه
بههم
اینجوری
##amas
##ازمان
میکشه
کارتان
sock
##apolis
knitting
##ieves
##باکو
##iaz
اندی
نامرت
کمرش
##angs
smelled
خوشامد
علایق
شمعد
آلز
رسیدهاست
Athel
##overing
swords
پاسخگویی
admir
triang
برمیآمد
sleepy
میافتم
حواست
درمانگاه
faults
functionality
موفقیتهای
سمف
ruler
Lawson
کارلوس
حضرتعالی
خطاهای
brandy
##borough
sailors
spinning
graceful
inflamm
doubted
bubbles
ملایمی
propaganda
abundance
Method
Creek
vampire
Typically
airplane
inevitably
Hudson
Aksin
Edinburgh
LE
جوید
زرا
کفر
۸۶
##fold
##dis
##lings
##haw
بهاری
آنطور
##etry
##ترا
خواری
بیاره
##abling
گفتهاست
##ighted
##blance
افکاری
بخوری
سوئی
scary
جنایات
تعبیه
آرن
آرشی
سهگانه
crum
چهاردهم
generals
monk
monetary
Sharm
cursed
یافتیم
restrain
خدماتی
understands
لیور
آسا
سخنانی
##زدن
هدفهای
کنترلی
بدنیا
Blog
شعری
creator
غذاها
biom
14th
Going
Gogh
امتح
cataly
struggles
سوختگی
inspire
efficiently
graphic
نوازندگان
stockings
unclear
Satan
senor
مسلحانه
جغرافیای
داراییهای
spells
motivation
مؤدب
Isotopic
enzyme
بیگناه
jurisdiction
کاناپه
خفیفی
فیلادلف
Delt
Hes
Kelly
Lect
MG
Math
Wade
Yu
bot
duel
gau
migration
تیری
خبردار
دقایق
زرنگ
مولد
نغ
کویید
۰۰
۹۸
##بوری
##ذب
##éd
##36
میپیوند
##enter
##amen
haught
##heric
دوا
دوس
spared
نوآور
unions
مدیری
کوست
باروری
##ignac
##igneur
scru
preoccup
مطلو
نبودیم
زمانبندی
وقتى
incess
glorious
ارتفا
طبل
ساختهاند
لوکاس
اجازهٔ
مبد
considers
Amendment
آزمایشات
##rophe
کنندهٔ
خلاء
متناهی
voluntary
نمونهٔ
stripped
Presently
انبساط
mechanically
Stein
Regulations
balcon
Grande
semic
لزومی
بنیانگذاران
Classical
میکشاند
##طلبی
Constantin
lectures
مینهسوتا
labeled
receptor
Stevens
inconven
nostrils
احمقی
درآمدی
html
سوءظن
Luxem
Boeing
wilderness
Bark
Diam
Sultan
aest
bip
mapping
py
tet
tents
tense
viv
بورد
ضمیر
طرد
گوجه
##شاه
##شناختی
##bishop
##نوی
##گـ
##يان
##ét
##WA
##atz
##ادگان
اینهمه
beams
##stri
##سیه
##میزد
خوکها
##opard
##osus
##unct
##orex
فرایندی
##earing
متریک
محفل
دادهایم
##uded
comparing
اندرز
##pert
دانورس
گرفتی
boom
فقره
بنز
لبش
carpent
رسوب
##gging
نمیدونم
10th
گوست
روشنتر
حقیقتاً
##طیلی
Cloud
باورند
economist
##جانبه
12th
deepest
شیرجه
بندرت
Flag
ماندهاند
collectively
طلبی
منحص
Greeks
فنآوری
اخلاقیات
1896
میفهمد
منفعت
Robin
instinctively
Susan
نبیند
Antarctica
خيلى
Hussein
منازعه
وانگهی
Jessica
Tibet
Bovary
##width
350
Bless
Cher
Piet
Porf
Tir
Um
Vil
hoc
شوری
طالب
۶۷
##iability
##words
##inement
##athed
##isy
##الان
##امو
شدیدا
##گرو
تومیت
سرپا
socially
Hend
upwards
احیای
##izoph
بگیم
گذاران
پیکسل
##look
smoot
trash
scored
مطبوعی
خوشق
گروههایی
##ixed
مهلت
##خواهم
مستعد
polished
suppressed
curved
پولها
elite
devote
likelihood
##قیمت
حزن
پرسنل
جنگلها
بفرستند
شکارچیان
conducting
آدمیان
Course
Providence
malicious
transported
پروتئینهای
criminals
coding
pitched
مجاورت
##oirs
##enzo
اعضاء
تدارکات
echoed
بیصدا
Python
tormented
deployed
ریتم
غوطه
زحمتی
اوگاندا
screens
حریص
تاجیکستان
بهویژه
Contemporary
Liver
Loth
az
cush
tire
vs
آلو
حوا
رژه
شوهری
ظال
۶۱
۷۳
##lace
بهات
باطن
##icola
همنوع
##irus
reun
##amir
روپوش
##igs
بازجویی
prisons
امثال
السا
ناکار
فکرمی
گذارند
بخند
bliss
خوبم
remn
بالهای
supposing
گلدان
میخواسته
##akening
##sche
فلکی
Mancha
نابغه
الگوریتمی
توپهای
نویسندهٔ
احمقانهای
oneself
Demon
نادانی
implementations
Bibli
فلورانس
عمدهای
پیدر
##ominations
میمانم
یازدهم
داوطل
مینامیدند
undertake
کیهانی
زنبورها
حوزهٔ
vigorous
fiercely
drifted
نپال
Refuge
Directory
Stockholm
MTV
##oenix
unsuccess
ماداگاسکار
degradation
BO
EX
IF
Lac
Mall
SL
Uru
Wow
golf
nail
sap
vow
wal
حب
رذل
زرت
شانگ
طوی
لابه
هکت
##مهی
##raged
##MI
##يس
##esters
##amy
##role
alley
##گرانه
##herent
نمیخ
leagues
رویار
##qual
unaware
کلنل
##avian
راهزن
سیارهای
تعاری
تعلیق
لحاف
endured
deciding
mineral
آغشته
میخکوب
نارنج
bestowed
دریافتند
فلگ
##ancers
##enguin
جداً
شعبه
Neur
##boards
exceptional
involuntarily
##shaw
ميكن
یونس
نازل
pursuing
Strider
جغراف
tourist
واژگان
نوشابه
wretch
تودههای
museums
Colombian
میکروبی
##brahim
bothered
terrifying
perpetual
installation
pipes
باتلاق
melted
Antoinette
##جمعیت
قورباغه
categor
Vladimir
preliminary
Ain
Bath
Dise
Koly
dent
ecl
gi
gru
naught
pel
صاع
عتی
ممان
وط
##وآمد
##باید
##din
##phe
toys
اینبار
##ghai
whim
socks
sailed
رویایی
##هره
gracious
شنونده
شبنشینی
بنویسید
پاکی
پنجرهای
جوانتر
##نمود
Marija
signing
meditation
بوف
مرتبا
##ucker
snakes
مزاج
خیالات
##ropy
برگردید
بچههایی
drawings
برجهای
##اوات
شادمانه
Morcer
Merwe
epoch
harbour
دهندهٔ
sympath
##فشانی
درمیآمد
بمانیم
Record
parks
حواسم
Disney
Robinson
بیاموز
Vegas
نباشم
promptly
browser
##communications
Sloven
Isaac
محرومیت
bourgeois
فیلادلفیا
ارتفاعات
DE
Jason
Mamma
Pack
au
aust
gulf
piled
وکل
چانهاش
##کیم
##don
##lest
##wright
##ön
استبد
##ente
##uta
همی
کردین
algebra
##گرند
seizing
lied
##umerable
aboard
canc
Inv
Inform
dispar
نافر
مداری
consensus
helium
طرفه
جانوری
Pray
##armed
Comrade
developer
refusal
tread
##otti
affirm
رقمی
fearing
obsessed
##mega
practition
draws
جادهها
journals
Resp
استرایدر
##ascular
شاداب
نهادند
۱۹۲۲
Seeing
Prix
##uddled
participating
اتمها
شیوهٔ
آپارت
فرزندانشان
میدونستم
Apart
adjut
متنفرم
ویدئوی
تودهای
چيزي
conquer
spoiled
adaptation
jerked
Picture
WHO
microscope
delicacy
چوپان
hiM
Tilney
Uganda
##oubtedly
تخممرغ
Gust
SR
biting
fain
fitting
ni
pneum
vom
ضمیم
واکس
کائ
##واب
##37
##ès
##erb
درنده
##ردید
##ilon
##ulu
بیابند
##emics
conform
هرزه
##allic
متد
ندم
##cker
اتلاف
##soever
خانة
blush
زمینشناسی
تشو
attitudes
expelled
obesity
سازم
فروغ
passages
artif
واج
تکذیب
darker
درونم
سردرد
فهمیدی
Agnes
autism
miser
شگفتزده
الکترونها
دندانها
۱۹۲۶
geographical
foreigners
کجای
باکتریایی
folding
تانز
polymer
##ogenic
مجهول
vaccines
Bagman
تخیلات
update
wiping
receptors
Religious
sculpture
Svid
Barbara
substitute
##etheless
elaborate
##lovakia
کورمال
Pomeranian
کوییدیچ
پیدرپی
BI
Fantine
Hav
Lamb
RA
Sadd
بکی
صفا
فس
لوت
ملب
نُ
کیر
##زبان
##eo
##mans
##آنش
برنم
##iden
داراست
##thal
سرکشی
دستتان
gov
پرندهای
عمداً
contam
##ignant
Ard
blushing
بردارند
helmet
شکافت
قدرتمندی
slipping
بدونم
persp
retrie
Atom
Marquis
Spider
refined
memorial
Edgar
دیروقت
اشکهای
Twelve
تامپ
##جمعی
میاندازند
trades
prevention
potatoes
##cheon
Crime
##etti
رادیکال
broader
protective
آزاردهنده
passionately
هجدهم
Defin
میافتادند
نروژی
folds
tourists
rotten
chapel
Conflict
منقرض
##aggered
rescued
فرمانروایی
Psychology
##embrance
resentment
iPh
مکزیکی
صخرههای
پرتقال
غفلت
هولوکاست
Aaron
مخترع
محجوب
Soyuz
فستیوال
Porfiry
##izophren
Gaz
Nu
Wang
fel
hub
pudd
tastes
بویی
جگر
مَ
هضم
گاندی
##چو
##گیره
##vory
##wer
##آسا
میا
##sex
کردستان
##ختگی
سرمان
فرمی
##ighty
##یتس
##فرینی
اساتید
ترانس
کوپ
مرمر
smelling
آبله
بیمعنی
##ixon
surp
Level
hardest
heartily
105
displays
دکترها
تخفیف
مکانهایی
sensory
درسهای
decidedly
ناتو
اتوموبی
ناخدای
گفتگوهای
شانهها
۱۹۱۵
1909
Humans
مطمئنی
غیرد
تزئین
واژههای
Auda
coordinate
رؤیاهای
مادیان
[...]
