<s>
<pad>
</s>
<unk>
.
,
▁the
▁to
▁و
▁and
▁of
▁a
▁در
▁به
▁in
▁از
،
▁I
s
▁is
▁you
▁for
▁that
▁که
▁می
’
▁it
▁را
-
'
▁با
▁این
:
▁است
▁on
▁with
▁های
▁be
▁are
▁your
▁have
▁(
▁this
▁as
t
▁The
)
▁or
▁was
▁can
▁at
▁برای
▁ها
!
▁not
▁will
▁from
▁we
▁an
▁but
▁by
▁my
?
▁all
▁“
▁they
▁آن
▁"
...
▁more
▁-
▁about
▁شده
▁one
▁has
▁so
▁یک
▁our
▁their
▁out
▁up
▁شود
▁he
▁It
▁خود
▁time
▁do
▁like
▁if
▁what
▁me
▁تا
/
▁
▁هم
▁بر
▁just
▁.
▁،
▁ای
▁who
▁there
▁been
▁his
▁would
▁...
▁شد
▁which
▁get
▁when
▁some
▁them
▁had
▁We
m
▁This
▁کرد
▁شما
ی
▁people
▁بود
▁–
▁ایران
▁other
▁سال
▁باشد
▁یا
▁You
▁also
▁«
▁any
▁how
▁ما
▁her
▁than
▁were
▁کند
re
▁know
▁make
▁A
▁If
▁کنید
▁new
▁no
؟
▁said
"
▁into
▁us
▁:
▁very
▁دارد
▁only
▁In
»
▁من
▁don
▁good
▁work
▁over
▁هر
▁استفاده
▁need
ve
▁see
▁way
▁she
▁may
▁much
▁these
”
▁well
▁باید
▁first
▁now
▁most
▁years
▁could
▁کار
▁ی
▁many
▁think
▁here
;
▁کرده
▁want
▁اما
▁use
▁سایت
▁back
▁should
▁مورد
▁نیز
▁قرار
ll
▁او
▁really
▁year
▁even
▁کشور
▁its
▁روز
▁دو
▁گفت
▁رو
▁help
▁day
▁کنند
▁because
▁take
▁then
▁two
▁And
d
▁go
▁دانلود
▁great
.”
▁But
▁نمی
▁اگر
▁where
▁نام
▁نظر
▁through
▁He
▁after
▁right
▁اند
▁him
▁those
▁being
▁going
؛
I
▁صورت
▁before
▁best
▁find
▁همه
▁too
▁كه
▁such
▁am
▁دیگر
▁2
▁چه
▁شرکت
▁There
▁برنامه
▁_
▁روی
▁پس
▁جدید
▁life
▁love
▁made
▁still
▁information
▁آنها
▁مردم
▁انجام
▁What
▁وجود
▁پیش
▁بین
▁look
▁دست
▁things
▁خواهد
▁مي
▁3
▁یکی
ه
(
▁home
▁off
▁They
▁عنوان
▁around
▁own
▁last
▁long
▁هستند
▁down
ي
▁few
▁little
▁something
▁So
▁داشته
▁بی
▁اين
."
▁did
▁world
▁راه
▁کردن
▁For
ش
▁نیست
▁بازی
▁گزارش
▁business
▁say
▁same
▁always
م
▁every
▁sure
▁1
▁used
▁come
▁بعد
▁وی
▁each
▁تهران
▁تو
▁while
▁استان
▁اینکه
▁lot
▁place
▁better
▁حال
▁As
▁داده
▁اسلامی
▁That
▁فیلم
▁داد
▁never
▁بخش
▁ماه
▁دهد
).
▁part
▁ادامه
▁got
▁,
▁10
▁different
▁5
▁زمان
▁دانشگاه
▁بیشتر
▁might
,”
▁توسط
▁هایی
▁i
▁next
▁شدن
▁بسیار
▁چند
▁must
▁توجه
▁When
▁does
▁4
▁بوده
▁سازمان
▁To
▁شهر
▁آموزش
▁آب
▁feel
▁سه
▁give
▁دولت
▁family
▁high
▁ترین
▁زندگی
▁thing
▁again
▁کنیم
▁both
▁without
ً
▁keep
▁another
▁دارند
▁experience
ـ
com
▁days
▁داشت
▁/
▁able
▁why
▁حقوق
▁تر
▁ثبت
th
▁افزایش
▁تولید
▁شوند
▁free
▁looking
▁گروه
▁week
▁found
▁between
▁My
▁end
ing
▁ولی
▁three
▁صفحه
▁قیمت
▁تمام
▁امام
▁She
▁post
▁ساعت
▁since
▁آمریکا
▁put
▁using
▁important
▁اطلاعات
▁available
▁service
▁اول
▁درباره
▁همین
▁didn
▁set
▁number
▁کتاب
▁site
▁company
S
▁start
ِ
▁امروز
]
▁هیچ
▁خانه
▁تواند
▁away
▁زیر
▁during
▁اجتماعی
▁گرفته
ها
▁How
▁read
▁today
▁نه
▁عکس
▁همراه
▁working
▁under
▁خیلی
▁ایجاد
▁حضور
­
▁money
▁خرید
▁support
a
های
▁team
▁ملی
▁جهت
▁بررسی
▁تنها
▁let
▁‘
▁done
▁همچنین
▁وارد
▁ever
▁making
▁system
▁نامه
▁سر
ت
▁بار
▁course
ى
▁طراحی
▁بدون
▁children
▁طرح
▁old
▁enough
▁اصلی
▁جهان
▁اعلام
▁توان
▁provide
▁doing
▁full
▁having
▁person
▁getting
▁تیم
▁show
▁»
▁change
▁هزار
▁website
▁small
▁افراد
▁school
▁موضوع
▁آهنگ
▁خبر
▁try
▁رئیس
▁doesn
▁6
▁point
,"
▁game
▁book
▁'
▁&
▁مختلف
▁care
▁order
▁انتخاب
▁هاي
▁پاسخ
▁روش
▁though
▁برخی
▁least
▁ارسال
▁#
▁including
_
▁services
▁گذشته
▁All
▁بزرگ
▁نشان
▁big
▁case
▁already
▁نرم
▁data
▁hard
ed
▁water
▁کنم
▁شبکه
▁بازار
▁تاریخ
▁thought
▁actually
▁فقط
▁New
▁پایان
▁process
َ
▁health
▁until
▁فروش
▁online
▁خدمات
▁[
▁far
▁قابل
▁No
▁following
▁job
▁مهم
▁کردند
▁times
و
▁real
▁within
▁سازی
▁area
▁possible
▁someone
▁needs
▁bit
▁—
▁easy
▁often
▁قبل
▁Your
▁اشاره
▁says
▁مدیریت
▁top
▁please
▁ارائه
▁together
▁کاهش
▁نیاز
▁man
▁Our
▁چرا
▁دلیل
▁*
▁زبان
▁باز
in
▁ام
▁less
▁نفر
▁بیان
▁food
e
▁کمک
▁anything
▁With
▁منطقه
▁دوره
▁One
▁)
▁call
▁20
The
▁دستگاه
▁سیستم
▁کننده
▁ایرانی
▁list
▁8
▁باشند
▁blog
▁name
▁بالا
▁مطالب
▁ندارد
▁جامعه
▁local
▁7
▁کم
▁نسبت
▁Here
▁یه
▁بیش
▁room
▁public
▁students
▁hope
▁حتی
▁fun
▁الله
▁open
▁نوشته
▁night
▁others
▁توسعه
▁means
▁باعث
▁become
▁everything
▁زمینه
▁once
▁makes
▁live
▁درصد
▁Do
▁kind
▁دوم
▁tell
▁چون
▁believe
▁state
▁offer
▁problem
▁These
and
▁against
▁بهترین
▁سنگ
▁play
▁ویژه
▁idea
▁friends
▁months
▁خوب
ن
▁car
▁left
▁طور
▁دارای
▁Thanks
ع
▁At
▁yet
▁مصرف
▁hours
▁came
▁هفته
▁جمهوری
ّ
▁سلام
ا
▁اقتصادی
▁غیر
▁مواد
▁انقلاب
▁ago
▁fact
▁باشید
▁story
▁دریافت
▁per
▁community
▁فعالیت
▁women
▁شرایط
▁everyone
▁country
▁won
▁mind
▁مجلس
▁علی
▁12
▁house
▁اخبار
▁share
▁comes
▁مطلب
▁past
▁توانید
▁group
▁مانند
▁On
▁خدا
▁market
▁وب
▁future
▁page
▁خانواده
▁وقتی
),
▁pretty
▁میان
▁quality
▁نوع
▁personal
▁However
▁side
▁products
▁God
▁social
▁started
▁check
▁دوست
▁البته
▁کامل
▁شورای
▁تغییر
▁بودن
▁حوزه
▁جهانی
▁learn
▁understand
▁seen
▁project
▁went
▁مقاله
ان
▁گفته
▁فایل
▁آخرین
▁second
or
▁هست
▁پیدا
▁Now
▁عمومی
▁trying
▁30
▁create
▁body
▁probably
▁ساخت
▁سیاسی
▁رنگ
▁آیا
▁ارتباط
▁large
▁اساس
▁whole
▁دانش
▁contact
▁quite
▁افزار
▁علوم
▁همان
▁plan
▁several
▁below
▁قانون
▁15
▁After
▁run
▁took
▁questions
▁زیادی
▁Please
▁Thank
—
▁program
▁taking
▁بانک
▁بندی
▁لینک
▁برگزار
▁yourself
▁along
▁گذاری
▁دنبال
▁isn
▁pay
▁hand
▁مدل
▁وزارت
▁فرهنگی
▁نمایش
▁تعداد
▁قسمت
▁تماس
▁لازم
▁آزاد
▁minutes
▁across
▁آغاز
▁اولین
▁منتشر
▁کسی
▁level
://
▁رشته
▁شب
▁else
▁بودند
▁کسب
▁happy
▁ممکن
▁اس
▁government
▁نقش
▁power
▁طریق
▁example
▁شماره
▁جمله
▁مناسب
▁video
▁email
▁پرداخت
▁million
▁انسان
▁دهند
▁عمل
▁درمان
▁research
▁کیفیت
▁event
▁گرفت
▁based
▁month
▁وزیر
▁question
▁مرکز
▁nothing
▁+
▁سرمایه
▁ورود
▁design
▁cost
▁called
▁anyone
▁مدت
▁told
the
▁head
▁نقل
ly
▁issues
▁زن
▁علمی
▁given
▁کل
▁میلیون
▁بسیاری
A
▁web
▁form
▁product
▁زنان
▁access
▁visit
▁ask
▁wanted
▁رسانه
▁معرفی
▁Not
to
▁فرهنگ
▁bad
▁child
▁nice
▁above
▁هزینه
▁soon
▁9
▁mean
▁تلاش
▁علیه
er
▁whether
▁later
▁matter
▁include
▁براي
▁فارسی
▁four
▁line
▁فکر
▁مشاهده
▁مثل
▁Just
▁حضرت
▁short
y
▁پروژه
▁seems
▁coming
▁almost
We
▁2018
▁development
▁stay
▁امکان
▁price
▁city
▁perfect
▁beautiful
▁اش
▁members
▁افزود
▁سطح
▁face
▁شنبه
▁early
▁شدند
▁برابر
▁reading
▁especially
▁هدف
▁جای
▁یعنی
▁special
▁enjoy
▁مشکل
▁reason
▁either
▁بهتر
▁دنیا
▁۲
در
▁young
▁چشم
▁پزشکی
▁پست
▁add
▁شهرستان
▁تومان
▁چگونه
▁writing
▁simple
▁مجموعه
▁بازدید
▁asked
▁content
▁مشکلات
▁تمامی
▁industry
▁forward
▁companies
▁دسته
▁season
▁kids
▁bring
▁سلامت
▁زمین
▁بیماری
▁پر
▁چنین
▁space
▁دهید
▁شکل
▁جنگ
▁media
▁گیرد
!!
▁کردم
▁سوی
▁المللی
▁میزان
▁کنار
▁ways
▁value
▁گیری
▁نتیجه
▁کاری
▁looks
D
▁آینده
▁نظام
▁امور
▁buy
▁رابطه
▁انواع
▁article
▁non
▁taken
▁رشد
▁close
▁پی
▁music
▁•
▁couple
▁words
▁issue
▁rather
▁خوبی
▁دیگری
▁problems
▁شروع
▁وقت
▁محمد
▁ب
▁زمانی
▁تازه
▁heart
▁likely
▁leave
It
▁simply
▁control
▁needed
▁weeks
▁building
▁current
▁دور
▁آقای
▁Some
▁اینجا
▁حمایت
▁move
▁محصولات
▁حدود
▁men
▁موجود
▁منابع
▁بدن
▁age
▁due
▁five
▁living
▁دادن
▁بهره
▁مهر
▁single
▁customers
▁دی
▁training
▁قدرت
▁phone
▁نشده
▁deal
ُ
▁خبری
▁گوشی
▁گونه
▁While
▁myself
▁مربوط
▁دکتر
▁talk
▁etc
▁حاضر
▁حق
▁light
▁اقدام
▁U
▁فصل
▁خارجی
▁صنعت
▁type
▁محل
▁دارم
▁۳
▁گردد
▁true
i
▁اجرای
▁law
▁staff
▁half
▁تحت
▁hear
▁low
▁خودرو
▁view
▁اثر
▁نفت
▁stop
▁Don
▁however
▁results
▁meet
▁office
▁insurance
▁واقع
▁known
▁اقتصاد
▁11
▁پیام
▁works
▁Well
▁حل
▁آموزشی
▁هنوز
▁سفر
▁متن
▁report
▁سی
▁خارج
▁amount
▁--
▁اسلام
▁خاطر
▁self
▁ready
▁amazing
▁friend
▁وضعیت
▁مى
▁energy
▁مالی
▁تهیه
▁professional
2
▁opportunity
▁clear
▁range
▁account
▁further
▁محیط
به
د
▁عالی
▁remember
▁complete
▁required
▁سایر
▁اضافه
▁طول
▁بسته
▁چیزی
▁continue
▁همکاری
▁!
▁human
▁longer
▁شامل
▁فرد
▁financial
▁study
▁کلیه
▁خصوص
▁An
▁write
▁turn
▁certain
▁شاید
▁روابط
▁نمونه
▁technology
▁interest
▁۱۳۹۷
▁history
▁ایمیل
▁0
▁United
▁morning
▁توانند
▁result
▁فناوری
▁پایگاه
▁انتخابات
▁property
▁آمده
▁نگاه
▁choose
▁areas
▁سیاست
▁wasn
▁اطلاع
▁درست
▁برچسب
?”
▁طی
▁usually
▁thinking
▁date
▁cannot
▁news
▁front
▁details
▁management
▁کنترل
▁اظهار
▁آنلاین
▁داخلی
▁رایگان
▁؟
▁Of
▁rest
▁major
▁لباس
▁طرف
▁follow
▁key
▁گل
▁آماده
▁جمع
year
▁wait
▁interesting
▁chance
▁wrong
▁Can
▁sense
▁کاربران
▁shall
▁risk
▁۱
▁seem
▁games
ر
▁شوید
▁همیشه
▁دار
▁دلار
▁ensure
▁takes
▁behind
▁moment
▁Let
▁worth
▁common
▁وبلاگ
▁فضای
▁outside
up
▁۵
▁Why
▁نسخه
▁party
▁added
▁اون
▁مقابل
▁running
▁wish
▁e
▁word
▁American
▁عضو
▁محصول
▁answer
▁ارزش
▁بینی
▁More
▁واحد
▁اندازه
▁خبرگزاری
▁قرآن
▁جلسه
▁18
▁stuff
▁فوتبال
▁۴
▁آنان
▁heard
▁learning
▁definitely
▁داخل
▁events
▁فوق
▁main
▁50
▁lives
▁حساب
▁difficult
▁24
▁build
▁changes
▁مشخص
▁خواهند
س
▁۱۰
▁step
▁انتشار
▁عدم
▁پوست
▁search
▁By
▁چهار
▁saw
▁class
▁داستان
▁various
▁حفظ
▁کودکان
▁موارد
▁16
C
▁specific
▁receive
▁Then
▁ideas
▁increase
▁favorite
▁زیبا
▁skills
▁ماشین
▁منبع
▁تصاویر
▁تجربه
▁زیاد
▁مراسم
▁offers
▁customer
▁ذکر
▁جمهور
▁100
▁percent
▁re
▁options
▁ساله
▁saying
▁دارید
▁[...]
▁series
▁25
▁جوان
▁education
▁یاد
▁cause
▁security
شان
▁air
▁تبدیل
▁wonderful
▁۱۳۹۶
▁سریال
▁مطرح
▁link
▁goes
▁آزمون
▁focus
▁14
▁provided
▁present
▁کلیک
▁strong
▁حالا
▁داریم
▁interested
▁هستید
▁سرعت
▁May
▁تصمیم
▁period
▁C
▁maybe
▁B
▁جا
▁parents
▁Yes
▁ازدواج
▁card
▁action
▁قوانین
▁ماده
▁مستقیم
▁رفت
▁marketing
▁consider
▁themselves
▁address
▁میشه
▁woman
▁knowledge
▁happen
▁نمایید
▁بچه
▁upon
▁کودک
▁quickly
▁books
▁جستجو
▁حرف
▁کشورهای
▁رود
▁سوم
▁متعلق
▁سمت
▁clients
▁مرحله
▁general
▁خط
▁خون
▁مدیر
▁His
▁send
▁attention
▁گوید
▁eyes
▁activities
▁allow
▁بحث
▁بلکه
▁lost
▁امنیت
▁among
▁خاص
▁potential
▁2017
▁policy
▁haven
▁داشتن
▁رسید
▁individual
▁US
▁دوستان
▁points
▁private
▁يا
▁recent
▁review
▁طبیعی
▁حرفه
▁دیدگاه
▁غذایی
▁منظور
▁دقیقه
?"
n
▁دل
▁ال
▁دختر
▁size
▁مرد
▁store
▁http
▁lead
▁according
▁مقام
▁treatment
▁مرکزی
▁فعال
▁سوال
▁ورزش
▁علاوه
▁تصویر
▁instead
▁انجمن
▁return
▁particular
▁application
▁subject
▁جان
▁اخیر
▁safe
▁روزنامه
▁summer
▁ساده
▁States
▁entire
on
▁دوران
▁ones
▁rate
▁unique
▁success
▁دیدار
▁سخت
▁Even
▁احساس
▁natural
▁13
▁exactly
▁choice
▁پشت
▁test
▁medical
▁جریان
▁From
▁تشکیل
▁روسیه
▁ساخته
▁watch
▁برگزاری
▁decided
▁نخواهد
▁necessary
▁written
▁environment
▁هنر
▁پنج
▁decision
▁چیست
▁نور
▁کن
▁انرژی
▁سوریه
▁Have
▁برد
▁نصب
▁worked
▁shows
▁inside
▁credit
▁save
▁third
▁similar
▁علت
▁دفاع
▁version
▁hands
▁addition
▁art
▁meeting
▁رسد
▁involved
▁field
g
▁white
▁مطالعه
▁عامل
▁spend
&
▁role
▁Also
▁late
▁Are
▁اداره
You
▁features
▁items
▁موفق
▁هنگام
▁رسانی
▁قالب
▁نزدیک
▁felt
▁حرکت
▁extra
ند
▁اجرا
▁ارشد
▁تاکید
▁performance
▁feeling
▁پول
▁tried
▁thanks
▁position
▁روند
ir
▁معاون
▁World
▁looked
▁Most
▁دیگه
▁practice
▁near
▁اینترنتی
▁جشنواره
▁اید
▁خواب
▁کاملا
▁projects
▁حالت
▁computer
▁received
▁اکنون
▁recently
▁کوچک
▁سپس
▁knew
▁situation
▁improve
▁huge
▁ایشان
▁چیز
▁easily
▁يك
▁Many
▁خودش
▁آید
▁giving
@
▁terms
▁drive
▁certainly
▁completely
▁حسین
▁costs
▁شهید
▁عراق
▁provides
▁sometimes
▁آنچه
▁currently
▁talking
▁رژیم
▁sales
▁click
▁مهندسی
▁software
▁playing
▁تن
▁win
▁ability
▁higher
▁اعضای
▁:)
▁بهداشت
3
▁دیده
▁پخش
▁couldn
▁S
▁users
▁کارت
▁موسیقی
▁میلیارد
▁داره
▁موجب
▁حمله
▁six
▁held
▁created
▁benefits
▁تعیین
▁امر
▁Be
▁walk
▁guys
▁trip
▁ساختمان
▁تاثیر
▁خانم
▁paper
▁death
▁خوش
▁کمتر
▁travel
▁tax
▁effective
▁تلفن
▁علم
▁انتقال
▁اروپا
▁designed
▁door
▁hold
▁حالی
▁hit
▁additional
▁countries
ل
▁option
▁هستیم
▁clean
▁ایم
▁throughout
▁عملکرد
▁member
▁City
▁تحقیق
▁sound
▁آمد
▁growth
▁نشست
▁حد
▁cover
▁خصوصی
▁advice
▁فشار
▁fast
▁گرفتن
▁systems
▁2016
▁بنابراین
▁علاقه
▁oil
▁جمعه
▁@
▁اشتراک
▁wouldn
▁اي
▁aren
▁excellent
▁رسمی
o
▁Mr
▁location
▁picture
▁approach
▁17
▁thank
▁40
▁cut
▁Google
▁برق
▁بعدی
▁>
▁York
▁پایین
▁گرم
▁ضمن
▁مناطق
▁Facebook
▁D
▁weekend
▁فارس
▁بهمن
▁girl
▁مسائل
▁impact
▁عرضه
▁ریزی
▁gets
▁message
▁section
▁weight
▁agree
▁مسیر
▁باشه
▁کد
▁planning
▁Or
▁starting
▁تامین
▁م
▁hour
▁black
▁sharing
▁turned
▁انسانی
▁related
▁total
▁بعضی
▁تان
▁recommend
ــ
▁انگلیسی
▁road
▁gave
▁cases
▁popular
▁career
▁piece
▁University
ٔ
▁fine
▁Christmas
▁لطفا
▁pain
▁درد
▁باشگاه
▁student
▁کوتاه
▁Day
▁نکته
▁صحبت
▁photos
▁ترکیه
▁comment
▁conditions
▁mother
▁resources
▁final
▁شان
▁town
▁comments
▁نبود
r
▁itself
▁loved
!!!
▁film
▁user
▁فراهم
▁hair
▁eat
▁آتش
▁ترامپ
▁مرگ
▁بیشتری
▁صنعتی
▁عشق
▁hot
▁نیروهای
▁دوباره
▁آسیب
▁break
▁legal
▁variety
▁difference
▁21
▁اصلاح
▁ارز
▁wide
▁original
▁اینترنت
▁درخواست
▁record
▁جام
▁code
▁brand
▁cool
▁happened
▁style
▁Once
▁چین
▁·
▁دهنده
▁آثار
▁مادر
▁اهمیت
▁finally
▁آورد
▁expect
▁relationship
▁ملت
▁America
▁قابلیت
▁Is
▁نتایج
▁۶
▁زیست
▁daily
▁مرتبط
▁مقالات
▁رفتن
▁skin
▁fall
▁فنی
▁شکن
▁صنایع
▁purchase
▁یافته
▁اهل
▁کمی
▁ویژگی
▁internet
▁تخصصی
▁plans
▁بیمه
▁خیابان
▁شخصی
▁positive
▁table
▁پیشنهاد
▁guy
▁goal
▁شناسی
▁فروشگاه
▁First
▁spent
▁sign
▁latest
▁موفقیت
▁Oh
▁هتل
▁State
▁quick
▁E
old
▁پرورش
▁اختیار
▁زیرا
▁مراجعه
▁السلام
▁دیگران
▁healthy
▁pick
▁صبح
▁Great
▁عزیز
▁کاربری
▁زیبایی
www
ای
▁خدمت
▁نرخ
▁National
▁safety
▁international
▁ان
▁چاپ
▁expected
▁نماینده
▁paid
▁ضد
▁programs
▁ورزشی
▁places
▁via
▁includes
▁تحریم
▁loss
▁بن
▁reach
▁file
▁Good
▁خرداد
▁رییس
B
▁نخستین
▁note
▁levels
▁THE
▁افغانستان
▁baby
▁رضا
▁ابتدا
▁کسانی
▁truly
▁اتاق
▁built
▁average
▁term
▁دانشجویان
▁رفته
▁اگه
▁highly
▁اتفاق
c
▁کلی
▁اصفهان
ْ
▁عوامل
▁تلگرام
▁providing
▁آیت
▁alone
از
ک
▁apply
▁نباید
▁هوا
▁رهبری
▁Read
▁اجازه
تان
▁برداری
p
▁easier
▁individuals
▁حذف
▁political
▁guess
▁lots
▁متر
▁groups
▁انتظار
▁آدرس
▁سبک
▁solution
▁متفاوت
▁gone
▁develop
▁fit
▁types
▁دچار
▁خواهید
▁players
▁national
▁patients
▁police
▁كند
▁پایه
▁سامانه
▁مو
▁کافی
▁هسته
▁stand
+
▁model
▁میشود
▁باشیم
▁organization
▁خداوند
▁tools
▁businesses
▁نیروی
▁stories
▁19
▁image
▁employees
▁بودم
▁blood
▁gives
▁successful
▁لیگ
▁reasons
▁استقلال
▁سوالات
time
▁Since
▁ـ
▁sent
▁سعی
▁movie
▁وزن
b
▁growing
▁روشن
▁wants
*
▁گوگل
▁require
▁sort
▁himself
▁دفتر
▁source
▁South
▁physical
▁طبق
▁جالب
▁considered
▁seeing
▁board
▁زنده
▁useful
▁effect
▁نظامی
▁حسن
▁روحانی
▁understanding
▁واقعا
T
▁حمل
▁پژوهش
▁کدام
▁فرصت
▁جلوگیری
)،
▁معمولا
▁دولتی
▁families
▁بخشی
▁UK
▁pictures
▁helps
▁دستور
▁hotel
▁مبارزه
▁regular
▁track
▁Get
▁serious
▁opportunities
▁towards
▁tips
▁حتما
▁box
▁Make
▁TV
▁included
▁1.
▁limited
▁مجازی
▁grow
▁parts
▁significant
▁directly
▁network
▁درس
▁located
▁نظرات
▁rights
▁eye
▁کشاورزی
▁موبایل
▁response
▁begin
▁red
k
▁fully
▁bed
▁info
▁۷
▁سریع
▁پرونده
▁بیرون
▁نماید
▁Because
▁پدر
▁سرویس
--
▁avoid
▁pre
▁ground
▁production
▁حداقل
▁March
▁app
▁T
▁fire
▁moving
▁رفتار
▁زده
▁بد
▁برتر
▁اهداف
▁join
▁گردشگری
▁nature
▁Friday
▁نمود
▁کره
▁نخست
▁dog
▁ساز
based
▁allows
▁دوربین
▁beginning
▁land
▁تجارت
▁شهری
4
▁ریاست
▁بهبود
1
▁22
▁جذب
▁نحوه
▁یافت
▁John
▁equipment
▁language
ات
▁wife
▁glad
▁امنیتی
▁photo
▁پا
▁global
▁استاد
▁brought
▁benefit
▁عملیات
▁began
▁sites
▁جوانان
▁economic
▁People
▁June
▁mobile
▁نمایشگاه
it
▁lower
▁www
با
▁feet
▁previous
▁goals
▁creating
▁requirements
▁posts
▁color
▁son
▁basis
▁effort
▁2015
▁خودم
▁changed
▁material
▁release
▁عربستان
▁۸
▁کارشناسی
▁آبان
▁helpful
–
▁sleep
▁الان
▁دسترسی
▁قصد
▁nearly
▁امید
▁مسئله
▁تجاری
▁ايران
▁p
▁قانونی
▁شاهد
▁مشهد
▁waiting
▁تبلیغات
▁رفع
▁college
▁توصیه
of
▁آزادی
▁غذا
▁نویسنده
▁ظرفیت
▁father
▁voice
▁touch
▁ahead
▁prices
هاي
▁جنوبی
▁برخورد
▁توی
▁۲۰
▁evidence
▁اعتماد
▁April
▁North
▁تاریخی
▁بودجه
▁husband
▁کانال
▁آخر
▁خراسان
▁سن
▁اصل
▁لیست
▁جز
es
▁جنسی
▁President
.»
▁wrote
▁steps
▁English
▁اندازی
▁investment
▁بلند
▁multiple
▁war
▁تحلیل
▁speak
▁House
▁نداشته
▁digital
▁تیر
▁fresh
▁happens
▁تحقیقات
▁چی
▁gift
....
▁September
▁طلا
▁sell
▁امسال
▁text
▁رسیده
▁خواهیم
▁جدی
▁تشخیص
▁Today
▁صدای
▁December
▁60
▁particularly
▁weather
▁standard
▁بروز
▁Love
▁لحظه
▁شهرداری
▁although
▁مدیران
▁آدم
▁rules
▁نژاد
▁صدا
▁جواب
▁October
▁دادند
▁میباشد
▁charge
▁modern
▁احتمال
▁حجم
▁هستم
▁helping
▁۱۲
pm
▁غرب
▁purpose
▁November
▁became
▁محفوظ
▁challenge
▁داشتند
▁کنندگان
▁كرد
x
▁Although
▁July
▁دهه
▁درجه
▁شکست
▁comfortable
▁floor
ص
▁perhaps
▁beyond
▁screen
▁extremely
▁P
P
▁Maybe
▁awesome
▁تصویری
▁ندارند
▁سفید
▁دین
▁learned
▁کالا
▁فاصله
▁واقعی
▁ترجمه
▁رهبر
▁افرادی
▁اولیه
این
▁whatever
▁Take
▁Hi
▁character
▁داری
▁solutions
▁cold
▁نیوز
▁چهارشنبه
▁figure
▁January
▁تجهیزات
ers
▁اساسی
▁اجرایی
▁sounds
▁پلیس
▁request
▁نماز
▁جایی
▁گاز
▁©
▁مجله
▁مفید
▁زدن
▁played
▁leading
▁سبز
▁آذر
▁ده
▁2.
ین
▁درآمد
▁activity
▁عبور
▁مثال
▁سید
▁helped
▁نموده
▁”
▁گزینه
▁پشتیبانی
org
K
▁forget
▁اصلا
▁basic
▁سری
▁نيز
▁نقشه
▁absolutely
▁client
▁سود
۱
▁واکنش
▁خطر
▁immediately
▁budget
▁disease
▁holiday
▁حکومت
▁court
▁thoughts
This
▁met
▁topic
▁شمالی
▁بالای
▁Click
▁allowed
▁کردیم
▁materials
▁طبقه
▁Who
▁yes
▁امکانات
▁(1)
▁notice
▁پیشرفت
»،
▁گوش
▁School
▁حزب
▁شدم
▁Internet
▁numbers
▁الکترونیک
▁Health
▁Sunday
▁مشترک
▁مدرسه
▁finding
▁مهدی
▁collection
▁deep
▁stage
▁effects
▁مشاوره
▁knows
▁shop
▁تلویزیون
▁act
▁normal
▁Dr
▁statement
ب
▁reduce
▁العاده
▁گاهی
▁vehicle
▁guide
▁رقابت
▁مسابقات
▁schools
▁released
▁آمریکایی
▁images
▁damage
▁rates
▁خارجه
▁درون
▁۱۵
▁green
▁excited
▁earlier
▁غربی
▁M
am
!"
▁middle
▁یابد
▁آمار
▁حاصل
▁culture
▁sale
▁method
▁مسکن
▁معروف
M
▁خبرنگار
▁published
▁income
▁مرا
▁welcome
▁رسیدن
▁برند
▁girls
▁protect
▁aware
▁device
st
▁ص
▁co
▁experienced
▁چهره
▁دید
▁appropriate
▁مسئولان
▁lose
▁تقویت
▁پسر
▁Saturday
▁دعوت
▁ایده
▁serve
▁friendly
▁هوشمند
▁feature
▁مثلا
▁کنه
▁عصر
▁فرانسه
▁شخصیت
▁بازگشت
▁پوشش
▁enjoyed
▁خاک
▁setting
▁توافق
▁kept
▁ه
▁23
▁song
▁Will
▁watching
▁دهیم
▁چقدر
▁بگیرید
term
▁claim
▁قبلی
▁creative
▁اقدامات
▁pressure
▁trust
▁اعمال
▁بلاگ
▁jobs
▁تک
▁kitchen
▁Like
man
▁سینما
▁مقدار
▁ک
▁دنیای
▁Monday
▁آهن
▁coffee
▁science
▁پرسش
▁بايد
▁جاری
▁daughter
▁center
▁آنجا
▁O
▁campaign
▁lovely
▁cancer
▁ارتش
▁lack
▁trade
▁driving
▁condition
▁achieve
G
▁اسفند
!”
▁کامپیوتر
▁میدان
▁pass
▁wonder
▁player
▁plenty
▁تنظیم
▁قبول
▁کمیسیون
▁responsible
▁Each
▁مرداد
▁مکان
▁Jesus
من
▁regarding
▁posted
▁Check
▁offered
▁تصریح
▁پرسپولیس
▁2014
▁هیات
▁بشر
▁نیمه
▁؛
".
▁bar
▁truth
▁shot
▁speed
▁۹
▁miles
▁روزانه
▁آشنا
▁صورتی
▁St
▁tool
▁cash
▁sex
▁تعریف
▁دقت
▁keeping
▁شعر
▁payment
▁round
▁strategy
▁شدید
▁مراکز
▁مقایسه
▁کلیدی
▁super
▁poor
▁Every
▁respect
▁گسترش
▁mentioned
▁ستاره
مان
▁اردیبهشت
▁آوری
▁billion
▁Department
▁appreciate
▁older
▁shown
▁copy
▁G
▁developed
▁آموزان
▁زاده
▁جامع
▁pages
▁reality
▁states
▁نو
▁نهایی
▁decide
▁معدن
▁journey
▁نظارت
▁نمایندگان
co
▁fight
▁روزهای
▁powerful
▁رعایت
▁همچنان
▁active
▁سرطان
▁Any
▁opinion
▁کی
▁moved
▁تفاوت
▁August
▁نهایت
▁ترک
▁x
▁warm
▁درمانی
▁bottom
۲
▁China
▁نشانه
▁doctor
▁بیمارستان
▁زندان
▁مقاومت
▁society
▁اندروید
▁نفس
▁race
▁Center
▁اصول
E
▁R
▁church
▁۱۳۹۵
▁totally
▁X
▁آلمان
What
▁قدیمی
▁موتور
▁کاربر
▁ا
▁هنری
▁worry
▁overall
▁بحران
▁carry
▁essential
▁دوشنبه
▁According
▁كار
▁حادثه
▁traditional
▁greater
▁unless
▁سالم
▁شدت
▁رتبه
▁appear
▁wedding
▁سبب
▁شهادت
▁former
▁نقطه
▁prevent
▁شناسایی
▁برجام
▁finished
▁bought
▁مقدس
▁فرم
▁degree
▁dinner
▁busy
▁asking
▁F
▁drop
▁فراموش
▁ثابت
▁قلب
▁machine
▁exercise
as
▁reports
▁enter
▁عمر
ره
▁بیت
▁shared
▁معنوی
▁روغن
▁۱۱
▁efforts
▁متوجه
▁See
▁audience
▁🙂
5
▁نقد
▁commercial
▁میکنم
▁manage
▁cards
▁باقی
▁download
▁remain
▁روزی
▁direct
▁fantastic
▁sit
▁کشته
▁evening
▁force
▁خاصی
▁biggest
▁فردی
▁بصورت
▁base
▁brain
▁لوازم
▁stock
▁آورده
▁heat
▁update
▁wear
If
▁seemed
▁معماری
▁Go
▁مردان
▁لذت
▁economy
▁آذربایجان
▁کلاس
▁مشتریان
▁کمیته
▁منجر
▁workers
▁Use
▁increased
▁discuss
▁patient
▁لغو
▁رخ
▁28
▁شهریور
▁eating
▁spending
▁وسیله
▁spot
▁راحتی
▁putting
▁offering
▁views
▁مواجه
▁توضیح
▁Where
▁annual
▁فهرست
▁advantage
▁Europe
▁جدا
▁construction
تون
▁correct
▁bank
▁جمعیت
▁بگذارید
▁straight
▁محسوب
▁90
▁links
▁reported
▁گسترده
▁passed
▁آشنایی
▁سیاه
▁ناشی
▁گویند
▁ارتباطات
▁عرصه
▁دقیق
▁مشخصات
▁miss
▁buying
▁sweet
▁letter
▁whose
day
▁challenges
▁Home
عکس
▁International
▁سخن
▁Trump
▁dead
▁صحنه
▁Life
▁زد
▁generally
▁هفت
▁dark
▁communication
▁prior
▁شمال
▁فردا
▁title
▁آبی
▁minute
▁اشتباه
▁سراسر
▁يک
▁partner
▁کنی
▁supply
▁عضویت
▁پای
▁گذاشته
▁۳۰
▁traffic
al
▁پاک
▁existing
▁camera
▁کلمه
▁experiences
▁ترتیب
▁رای
▁match
▁تایید
▁کشف
▁Her
▁doubt
▁2013
▁دیدن
▁چهارم
تر
▁applications
▁حس
▁ابزار
▁relevant
▁fear
▁مقابله
▁military
▁San
▁واژه
▁mine
▁London
▁actual
▁finish
▁de
▁بنا
▁window
▁نکرده
▁shopping
▁گفتم
▁produce
▁کارهای
▁Business
▁تغییرات
▁stress
▁sorry
▁خمینی
▁مقررات
▁complex
▁حکم
▁پیامبر
▁schedule
▁covered
▁تشکر
▁platform
▁26
▁clearly
▁شیوه
▁maintain
▁صرف
▁جایگاه
که
▁progress
▁شرح
▁delivery
”.
▁دشمن
▁همچون
▁otherwise
▁شیر
▁ارزیابی
▁شمار
▁معظم
▁حقوقی
▁3.
▁97
▁function
but
▁سپاه
▁lines
▁European
▁pieces
▁official
▁لحاظ
▁sun
▁مرغ
▁برخوردار
▁قرارداد
▁IT
▁مسئول
▁analysis
▁realize
▁موثر
▁پرشین
▁سنتی
▁walking
▁expensive
▁parties
▁teams
▁مانده
▁رد
▁بند
▁Last
▁مسئولیت
▁West
▁tour
▁جدیدی
▁gas
▁session
▁exciting
▁خانگی
▁همواره
▁۱۸
▁mental
▁عهده
▁pool
▁دندان
▁صادرات
▁تکنولوژی
▁club
▁winter
▁پیاده
▁button
▁آگهی
▁Over
▁امتیاز
▁27
▁balance
▁اسم
▁population
▁target
▁explain
▁Best
▁becoming
▁گذشت
▁جنوب
▁خلاصه
▁ten
▁نسل
▁شخص
▁completed
▁organizations
▁fair
▁بیست
▁led
▁مصاحبه
▁Whether
▁Q
▁leaders
▁characters
▁drink
▁فروردین
▁براساس
▁Service
▁boy
▁ديگر
▁anti
▁سفارش
▁جاده
for
▁double
▁نظیر
▁عرض
▁region
▁author
▁محتوای
▁devices
▁شش
▁دانست
▁fan
▁گاه
▁fans
▁۱۳
▁احمدی
▁sold
ست
▁Act
▁K
▁fill
▁1396
▁همایش
▁95
▁died
▁street
▁thousands
▁prepared
▁interview
▁February
▁seven
▁الکترونیکی
▁سابقه
▁خوردن
▁نشانی
▁Time
▁rooms
▁imagine
▁wall
▁California
▁مشارکت
▁technical
▁connection
▁مثبت
▁منزل
▁بازیگر
▁studies
▁تاکنون
▁developing
▁پیروزی
▁طولانی
▁firm
▁ادبیات
▁videos
▁plus
▁Another
▁قم
▁vote
▁protection
▁Keep
▁leaving
▁critical
▁گام
▁peace
▁meant
▁عبارت
▁associated
▁requires
▁sitting
▁نمایند
▁استخدام
▁همزمان
▁factors
▁willing
R
an
▁شاه
▁آی
▁میکند
▁باور
▁کپی
▁born
▁County
▁روان
▁همسر
▁blue
▁ویندوز
▁میوه
!)
▁Me
▁cars
▁dream
▁تور
▁decisions
▁articles
▁Before
▁کارخانه
▁standards
▁نوشت
▁changing
▁discussion
▁un
▁جراحی
▁federal
▁During
▁مشابه
▁آسیا
▁روزه
▁recipe
▁باره
▁followed
▁mention
▁اعتراض
▁ظاهر
▁owner
▁adding
ظ
▁selection
▁راحت
▁آنکه
▁::
▁كرده
no
▁gain
▁larger
▁ideal
▁جدول
▁accept
▁۱۴
▁teaching
▁خورد
▁methods
▁داعش
▁therefore
▁موسسه
▁راهنمای
▁Those
▁calls
▁بشه
▁مهارت
▁ملل
▁feels
▁شبیه
▁waste
▁park
▁96
▁اداری
▁worse
▁listen
▁sector
▁مراحل
▁handle
▁استاندارد
▁نمي
؟!
▁200
▁کاربردی
▁https
▁demand
▁attack
▁opening
▁appears
▁contract
▁کجا
▁garden
▁president
ال
▁خواست
▁تست
▁Park
▁چندین
▁facilities
▁مشتری
▁ourselves
▁owners
▁نویسی
▁homes
▁estate
▁هیئت
▁band
▁press
▁largest
▁determine
▁files
▁دهم
▁قطع
▁announced
▁بگیرد
▁Canada
▁توانایی
▁background
▁آقا
▁فرزند
▁گیرند
[
▁سکه
▁ي
▁scene
▁تغذیه
▁communities
▁خشک
▁highest
▁showing
▁هاست
▁لذا
▁caused
▁كنند
▁deliver
▁تحصیلی
▁beach
▁conference
▁شناخته
▁TO
▁بزرگترین
▁اتحادیه
▁2012
▁ممنون
▁classes
▁relationships
▁نظری
▁توزیع
▁ended
▁direction
▁محدود
▁compared
▁دینی
▁ویرایش
▁مدارس
▁جی
▁ذخیره
▁nation
▁نگه
▁suggest
▁ride
▁بورس
▁conversation
▁میتوانید
▁restaurant
▁دادگاه
▁select
en
▁رمز
▁majority
▁آباد
▁path
▁معنی
▁sports
▁treat
▁mission
▁عجیب
▁managed
▁درک
In
▁مادی
▁display
▁هوایی
▁High
▁خبرنگاران
▁Very
▁diet
▁listed
▁ج
▁hospital
▁drug
▁memory
▁status
▁باد
▁onto
▁Twitter
▁AND
ق
▁uses
▁entry
▁hearing
▁عدد
▁fee
▁served
▁toward
▁competition
▁except
F
▁تحویل
▁sea
▁trouble
▁خودتان
▁continued
▁Lord
▁ماند
▁یکدیگر
▁گردید
▁80
▁anywhere
▁متاسفانه
▁Which
▁نقاط
▁بارداری
▁مجاز
▁guests
▁۱۶
▁funds
able
▁luck
▁Free
▁remove
▁Council
▁War
▁پزشک
▁proper
▁proud
▁کلمات
▁minimum
▁professionals
▁صادر
هایی
▁جذاب
▁animals
▁assistance
▁selling
▁item
▁Two
▁Services
▁policies
▁جشن
▁موزیک
▁اغلب
▁opened
▁نیستند
▁بازاریابی
▁unit
▁capital
▁experts
▁Did
▁حاشیه
▁تقریبا
▁ذهن
▁tomorrow
▁واقعیت
one
ون
▁نگهداری
▁task
▁بنده
▁تحصیل
▁feedback
▁هوای
▁slow
▁29
▁مهمترین
▁قتل
▁مسابقه
▁تصویب
▁ستاد
یم
▁L
▁چطور
▁اختصاص
▁اسرائیل
ز
▁White
▁مطالعات
▁یکشنبه
▁داشتم
▁heavy
l
▁نکنید
▁شاخص
▁حقیقت
▁established
▁زلزله
▁names
▁glass
▁fish
▁wine
▁values
▁کشتی
▁meaning
▁قوی
▁بهینه
▁India
▁امیر
▁مسجد
▁آرامش
▁پیگیری
▁tree
▁ترکیب
▁Only
▁OF
▁possibly
▁paying
▁engine
▁Year
▁secure
▁reviews
▁جدیدترین
▁قرمز
▁موقعیت
▁missing
▁تربیت
▁described
▁2-
▁actions
▁تبریز
▁ق
▁visitors
▁yesterday
▁شرقی
▁birthday
▁structure
▁500
۳
There
▁mostly
▁مخصوص
▁وظیفه
▁مجوز
▁وجه
▁century
▁قادر
▁encourage
▁Street
▁Other
▁train
▁ساختار
free
▁تی
▁claims
▁کارگران
▁coverage
▁taste
▁گفتگو
شون
▁پور
▁خروج
▁lunch
▁sexual
▁پیشرفته
▁teacher
▁dry
▁خواسته
▁Their
▁movement
▁Sometimes
▁صحیح
▁ice
▁readers
▁anyway
▁album
▁70
▁ماهی
▁Tuesday
▁cross
▁اشتغال
▁N
ness
▁responsibility
▁mom
▁صاحب
▁laws
▁اعتبار
▁attempt
▁صندوق
▁زنی
▁تکمیل
▁concept
۵
▁بانکی
▁مغز
▁detail
▁1,
▁dedicated
▁بردن
▁filled
▁Thursday
▁ست
▁پرواز
He
▁صد
▁driver
▁forms
▁raise
▁primary
▁هرگز
mail
▁محترم
▁مذهبی
▁East
▁bill
▁shape
you
nd
ف
▁closed
▁perform
▁eight
▁foreign
▁سهم
▁پذیرش
▁telling
▁سابق
▁identify
▁Black
▁rule
▁teachers
▁residents
▁Office
▁۱۳۹۴
▁هند
▁موقع
▁bag
▁قرن
▁پیشگیری
6
▁نشود
▁happening
▁properly
▁discovered
▁نیم
▁killed
▁مشغول
▁becomes
▁concerns
▁supposed
▁manner
▁بزرگی
▁نوعی
▁print
▁عقب
▁سالن
▁نجات
▁Washington
▁۹۷
▁beauty
▁1-
▁دارو
▁احمد
▁folks
▁tend
▁امروزه
▁مد
▁Man
is
▁J
▁negative
▁متخصص
▁Apple
▁placed
▁explore
▁breakfast
▁assist
▁smile
▁plant
▁storage
▁strength
▁vision
▁host
h
▁dating
▁۱۷
▁documents
O
▁despite
▁fix
▁theme
▁sources
out
▁ن
▁faith
▁brother
▁starts
▁هاشمی
▁practices
▁separate
▁خالی
▁عدالت
▁knowing
▁Australia
▁surprised
▁محور
▁دانشکده
▁اطلاعاتی
▁Court
▁advance
▁کارشناسان
▁remains
▁calling
▁concerned
which
▁ت
▁honest
▁بالاتر
▁funding
▁عمده
▁حجت
▁دستی
▁dollars
▁raised
▁کس
▁caught
):
▁climate
▁techniques
▁catch
▁debt
▁multi
▁تولد
▁رضایت
▁adults
▁agency
▁agreement
▁?
▁die
▁funny
▁Social
if
like
▁smaller
▁seconds
▁symptoms
▁کلید
▁committed
▁محلی
▁وعده
▁expert
▁بخوانید
▁fees
▁Would
▁prefer
▁YOU
▁spring
▁cute
▁سنگین
▁۲۵
▁focused
7
▁۲۴
▁پژوهشی
▁loan
▁distance
▁(2)
▁testing
▁lived
▁Government
N
▁crazy
▁اکثر
▁V
▁نشد
ما
▁Wednesday
▁injury
▁recommended
▁elements
8
▁3-
▁4.
▁نهاد
▁منفی
▁ضروری
▁آل
▁independent
▁hate
▁alternative
▁eventually
▁stopped
▁کنکور
▁affect
▁تکرار
▁package
▁هرگونه
▁35
▁بدین
▁leader
▁انتقاد
▁بين
▁smart
by
▁discover
▁خودشان
▁reached
▁David
▁دومین
▁ریال
▁Does
▁100%
می
▁Next
▁sugar
▁نباشد
▁rich
▁mix
▁missed
▁خرد
▁مناسبت
▁gold
▁seek
▁رده
▁گرامی
▁دلایل
▁Web
▁websites
▁کارکنان
▁NOT
▁H
ة
▁fat
▁tough
▁علامت
▁ببینید
▁مبارک
▁آرام
▁اختلاف
▁considering
▁خوزستان
▁confidence
▁hoping
▁depending
▁British
▁married
▁سنت
▁colors
▁About
▁continues
▁شرق
▁صدور
▁متحده
No
▁صوتی
▁noticed
▁attend
▁تری
▁meal
▁جستجوی
▁خسته
▁شناخت
▁mouth
▁General
▁whom
▁گوشت
▁سرد
▁seriously
▁afternoon
▁menu
▁Find
we
▁tea
▁rise
▁حافظه
▁leadership
▁قدم
▁قدر
▁راستای
▁1397
▁معنای
▁بازیکن
▁desire
▁manager
▁راست
▁نيست
at
▁الهی
▁ش
▁۲۲
▁records
▁models
▁operations
▁رمضان
▁cleaning
▁آیین
▁corner
▁corporate
▁ندارم
▁بازداشت
▁increasing
▁earth
▁holding
▁گروهی
▁initial
▁ریشه
▁department
▁الملل
▁standing
▁Group
▁سوخت
▁قول
▁showed
▁valuable
▁پاورپوینت
▁31
▁visiting
▁dogs
▁واردات
▁چالش
▁برده
not
▁delicious
▁منتظر
▁هواپیما
▁maintenance
▁prepare
▁آگاهی
▁بافت
▁dress
▁خیر
line
▁ایمنی
▁سايت
▁emergency
▁ball
▁چربی
▁اندیشه
▁purposes
▁اسناد
▁environmental
▁Note
▁bigger
▁بتواند
▁kid
▁انگیز
▁slightly
▁importance
▁جزئیات
تا
▁ویتامین
▁Africa
▁spread
▁liked
▁بیمار
۴
▁obvious
▁تمرین
▁comfort
▁صادق
▁speaking
But
And
▁خنده
▁خواهم
▁مختلفی
▁پارک
▁هشت
▁بایگانی
▁boys
▁اطراف
▁document
▁عربی
▁Board
▁هدایت
▁director
▁توانست
▁somewhere
▁جنس
▁اختصاصی
rd
▁خواندن
▁usual
▁operating
▁جایزه
▁لوله
▁thus
▁Big
▁surprise
▁strategies
▁promote
▁mid
▁Instead
▁د
▁سخنرانی
▁sister
▁2010
▁مهمی
▁۱۹
▁تهدید
▁روح
▁رضوی
▁foot
▁Red
▁استقبال
▁کشی
L
▁حفاظت
▁efficient
▁آسان
▁طوری
▁capacity
▁presence
▁تأکید
▁French
▁احترام
▁پذیر
▁arrived
▁عاشقانه
▁راهی
▁Yeah
▁2011
▁بدانید
▁اپل
▁الی
▁س
▁pm
▁surface
▁marriage
▁Obama
▁آلبوم
▁نداشت
▁تئاتر
▁Christ
▁احتمالا
▁ولایت
▁plants
▁Having
▁birth
▁روایت
▁دانند
▁signs
▁درصدی
▁teach
▁station
▁کاربرد
▁زیبای
▁تأثیر
▁numerous
▁markets
▁رسول
▁rock
▁generation
That
▁گران
▁answers
▁cities
▁توضیحات
▁تقسیم
▁detailed
▁choices
▁سعودی
▁تعدادی
▁مجمع
▁ابعاد
یک
X
▁وسایل
▁Americans
▁wind
▁صلح
▁accident
▁معاونت
▁transfer
▁connect
▁بیشترین
▁pull
▁Hope
▁برسد
▁Right
▁گفتند
▁منتقل
▁آزمایش
▁خلق
▁مقامات
▁موضوعات
▁بیماران
▁محبوب
▁کنفرانس
▁aspects
▁presented
▁وابسته
▁familiar
▁سازد
▁رقم
▁45
▁روزها
▁سقوط
>
▁limit
▁روانی
▁parking
▁matters
▁approximately
▁cheap
▁بهار
▁مبلغ
▁returned
▁circumstances
▁Paul
▁کانون
v
▁تروریستی
▁مدرن
▁behavior
▁۲۱
▁میلادی
▁violence
▁personally
▁حسینی
▁قبلا
▁نکات
▁kill
▁ضربه
▁سیم
▁پيش
▁پ
▁officials
▁apartment
▁employee
▁مساله
▁twice
▁فرمانده
▁reference
▁solid
▁broken
▁exchange
▁پلی
▁آسمان
▁Look
▁partners
▁عید
▁perspective
▁accounts
▁مگر
▁processes
▁براى
▁fashion
▁Call
▁election
▁shouldn
▁مبتلا
▁connected
▁درج
▁concern
▁quiet
▁سهام
▁Windows
▁t
▁server
▁اخلاق
▁decades
▁nor
▁مشاور
▁معتبر
▁نفوذ
▁نا
▁مرز
▁سند
▁combination
▁پنجم
z
ۀ
▁عده
▁جمعی
▁شهرهای
▁clothes
▁قوه
▁songs
▁faster
▁brings
▁تصور
▁بقیه
▁الاسلام
▁آلات
▁cream
▁گذاشت
▁indeed
▁foods
▁contains
▁اطمینان
▁۹۶
▁influence
▁عین
▁pleased
▁Company
▁نگرانی
▁custom
▁جرم
▁شویم
▁block
▁Happy
▁ingredients
▁ابتدای
▁incredible
▁کتابخانه
▁مانع
▁bringing
▁دختران
us
▁Still
▁female
▁famous
▁updated
▁استرس
▁lucky
▁practical
▁adult
▁signed
▁afraid
▁ویکی
▁count
▁commitment
▁named
▁scale
▁trial
▁Management
▁هماهنگی
▁central
▁كشور
▁King
▁football
▁closer
▁قطعات
▁Research
▁شیشه
▁رسیدگی
so
▁soft
▁حاوی
▁draw
▁خویش
▁اپلیکیشن
▁کشورها
▁greatest
▁hundreds
▁wearing
▁produced
▁interests
▁core
▁hurt
▁stick
▁drugs
▁Unfortunately
▁دانشجویی
▁تأمین
▁متوسط
▁لایه
▁worst
.....
▁courses
=
▁تبریک
▁impossible
▁emotional
▁picked
▁بازیکنان
▁پنجشنبه
▁صفحات
▁kinds
▁movies
▁trees
▁cell
▁respond
▁برداشت
▁snow
▁باغ
▁جلو
▁none
▁مند
▁updates
▁امریکا
▁examples
ie
▁شغل
f
▁reasonable
▁bus
▁flat
▁operation
▁pair
▁وبسایت
▁فرودگاه
▁measures
▁مذاکره
▁یادگیری
▁wondering
▁submit
▁turns
▁cent
▁animal
▁مشکلی
▁advertising
▁pleasure
▁مان
▁stated
▁سینمایی
▁نشر
▁anymore
▁push
▁Education
▁specifically
▁star
▁surgery
▁نشریه
▁secret
▁ورودی
▁اینستاگرام
ید
▁منافع
▁Re
▁عادی
▁seeking
▁runs
▁فن
▁وگو
▁consumers
▁administration
▁herself
▁داند
▁Up
▁episode
▁gonna
▁Church
▁crime
▁نداره
▁Both
▁بودیم
▁آیفون
▁300
▁intended
▁notes
▁کشوری
▁مذاکرات
▁میکنه
▁freedom
▁dangerous
▁دیدم
▁دلم
▁News
▁leaves
▁sad
▁انداز
▁عاشق
▁profile
▁ran
▁هشدار
▁ship
▁شهروندان
▁آفتاب
▁نگاهی
▁repair
▁تابستان
▁سخنان
▁fell
▁educational
▁باران
▁راهنمایی
▁housing
▁Information
▁مجبور
▁بهداشتی
▁فرزندان
▁شیراز
▁عوض
▁محسن
▁selected
▁نبوده
▁removed
▁agreed
▁Law
▁قضایی
▁facility
▁writer
▁radio
▁كردن
▁regularly
▁senior
▁دریایی
▁England
▁error
▁posting
▁vehicles
برای
▁نیرو
▁تخم
▁جنبش
▁مازندران
▁اولویت
▁حوادث
▁قلم
▁entirely
▁مرجع
▁stores
▁اخلاقی
▁length
▁ضرورت
▁topics
▁نیازمند
▁فرمود
▁participate
▁constantly
▁افتاده
▁۲۳
▁سلامتی
that
▁properties
▁allowing
▁instance
▁گیلان
▁exist
▁map
▁artist
▁مجدد
▁suit
▁دیجیتال
▁روي
▁رادیو
▁علائم
▁قطعه
یه
▁applied
▁leads
▁Chinese
▁W
▁obtain
▁rain
▁مردمی
▁academic
▁دیروز
▁affordable
▁باشم
▁typically
▁flow
▁صفر
▁Michael
▁hasn
▁artists
▁carried
▁maximum
▁ایسنا
▁perfectly
▁failure
▁تحقق
▁advanced
▁quote
▁feed
▁عملی
▁centre
ين
▁پایتخت
▁auto
▁charges
▁بده
▁abuse
▁نزد
▁خامنه
▁forced
▁throw
▁aid
▁ترس
▁s
▁ابراز
▁bathroom
▁عباس
ـــ
▁privacy
▁cheese
▁Perhaps
▁واسه
▁متهم
▁افتاد
▁pop
▁کمبود
▁causes
▁monthly
▁Amazon
▁توانیم
▁فرا
▁مبنی
▁vacation
▁previously
▁بدست
They
▁failed
▁survey
▁library
H
▁آلودگی
▁هاى
▁حرم
▁گیاه
▁treated
▁تاپ
▁خاطرنشان
▁employment
▁expertise
▁طرز
▁temperature
▁planned
▁fixed
▁تخفیف
▁seat
▁College
▁mail
▁measure
▁flight
▁انگلیس
▁بالایی
▁messages
▁b
▁پرده
▁فعلی
▁internal
▁مطمئن
▁۲۰۱۸
▁سرزمین
▁توجهی
▁bike
▁پارس
▁Earth
▁ارزان
▁Public
▁نمایندگی
▁نگران
▁سینه
▁مفهوم
▁طبیعت
net
▁زمینی
▁restaurants
▁نوروز
▁شاد
▁inspired
▁سختی
▁رایانه
▁ایالات
▁facts
▁اروپایی
▁عوارض
▁Looking
all
▁کارگاه
▁Its
▁پنجره
▁university
▁effectively
▁فرمت
▁مسلمانان
▁moments
ج
▁Open
▁situations
▁passion
▁امیدوارم
▁مراقبت
▁Learn
▁wood
▁cultural
▁quarter
V
▁هوش
▁instructions
▁دانشگاهی
▁مناسبی
▁کیلومتر
▁پدیده
▁affected
▁متداول
▁shoes
▁شک
▁گرد
▁موزه
▁ضعف
less
▁agencies
▁شغلی
▁خ
off
▁تمرکز
▁خورده
▁کشورمان
▁score
▁beat
▁جهاد
▁rental
▁Add
▁قهوه
▁زند
▁participants
▁searching
▁hell
▁آوردن
▁obviously
▁walked
▁جلب
▁apart
▁spirit
▁Remember
▁بطور
▁انتظامی
▁fuel
▁محتوا
▁thread
▁m
▁ناحیه
▁وقوع
▁roll
▁Hey
▁Women
▁dance
▁tells
▁سازمانی
9
▁کرمانشاه
▁net
▁award
W
▁tonight
یا
▁competitive
▁Children
▁dealing
▁دم
▁massive
▁delivered
▁chicken
▁32
▁بازیگران
▁ممنوع
▁سامسونگ
▁خشونت
▁suggestions
▁مستقل
▁Development
▁وضع
▁turning
▁explained
▁technologies
▁شیرین
▁grown
تو
▁نوشتن
▁اخذ
▁سلول
▁فساد
▁گو
▁battle
▁آمادگی
▁دسترس
▁edge
▁follows
▁PM
▁launch
▁کفش
▁Association
▁accepted
▁بازرگانی
▁بي
▁افتخار
▁امتحان
My
▁Being
▁گیر
▁Plus
▁کارشناس
▁فولاد
▁install
▁اینها
▁شرایطی
▁میراث
▁forever
▁وردپرس
▁Florida
▁appointment
▁حداکثر
▁unable
▁Committee
▁milk
▁locations
▁جبهه
▁favourite
▁winning
▁plastic
▁Security
▁مبانی
▁چای
▁فاطمه
▁listening
▁arms
▁ثانیه
▁medium
▁register
▁چنان
▁خواننده
▁sick
▁بیانیه
▁fairly
▁factor
▁revenue
▁crisis
▁گذار
▁Art
▁bright
▁parent
▁weren
▁قطعا
▁speech
▁feelings
ام
▁ر
▁supporting
ك
▁Post
▁خلاف
▁context
w
▁روانشناسی
▁units
▁سرور
▁bunch
▁کابل
▁fund
▁bedroom
▁محکوم
▁Texas
▁serving
▁consumer
▁joy
▁برگ
▁سالگی
▁tickets
▁رستوران
مون
▁قلبی
▁Green
▁provider
▁Club
▁دیوار
▁ایرانیان
▁فدراسیون
apos
▁therapy
▁بزنید
▁description
▁classic
▁comprehensive
▁میل
▁شیمیایی
▁مربوطه
▁okay
▁خواص
▁James
▁exact
▁ages
▁master
▁cat
▁دشمنان
▁جو
▁agent
▁پل
▁شرط
▁realized
▁cooking
▁Air
▁expectations
▁Hello
▁صرفا
▁guest
▁Should
▁آرشیو
▁presentation
▁procedures
▁خودروهای
▁losing
▁فلسفه
▁awareness
▁رساند
▁جلوی
▁religious
▁Christian
▁قهرمانی
▁pet
▁مدتی
▁enjoying
▁مدیرعامل
▁prove
▁گوناگون
▁طب
▁سلاح
▁criminal
▁Everyone
▁approved
▁determined
▁mark
▁دکتری
▁buildings
▁Contact
۱۰
▁alcohol
▁هنگامی
▁اجاره
▁مشهور
uk
▁procedure
▁sessions
▁sets
▁gun
▁taught
▁آگاه
▁ششم
▁بله
▁rent
▁paint
▁c
▁محدودیت
▁Back
▁format
▁cup
▁providers
▁ماست
▁IN
▁tests
▁celebrate
▁sides
▁فضا
▁chosen
▁کشیده
▁خانوادگی
▁citizens
▁stuck
▁ظرف
▁male
▁منو
▁یزد
▁recovery
▁appeared
▁نوین
▁وحدت
▁هایش
▁فرار
▁resource
▁مجموع
▁گیاهان
▁protected
▁چپ
▁registration
▁Family
▁Science
▁boat
▁carefully
▁فجر
▁همانند
▁زود
▁relatively
▁فکری
▁chocolate
▁مخدر
▁Come
▁زهرا
▁دهان
▁بسیج
▁goods
▁دکمه
▁windows
▁shipping
▁اتصال
▁inspiration
▁رونمایی
▁=
▁doors
▁اختلال
▁tasks
▁مسلمان
▁suitable
▁دعا
▁۵۰
▁sat
▁occur
▁بنام
▁اعتقاد
▁authority
▁investigation
▁guarantee
▁promise
▁ع
▁محیطی
▁square
▁keeps
▁younger
▁installed
▁Mark
▁mass
▁accurate
▁مواردی
▁reliable
▁rare
▁یمن
▁orders
▁کرمان
▁everyday
▁دانشجو
▁aim
▁دروغ
▁نظریه
▁fruit
▁television
▁apps
▁بانوان
▁improved
▁ایمان
ism
▁اف
▁meetings
▁زودی
▁automatically
▁حسابداری
▁Data
▁بنیاد
▁OK
▁تسهیلات
▁coach
▁مسلح
▁کردید
▁regulations
▁informed
▁جزیره
▁charged
▁island
▁Bill
▁soul
▁خونه
▁meat
▁گویی
▁sub
▁مخالف
▁4-
▁ظهر
▁assets
▁assume
▁purchased
▁حجاب
▁teeth
▁یك
▁lifestyle
▁cake
▁Finally
▁Yet
▁عروس
▁فراوان
▁2008
▁اهواز
▁checking
▁Though
▁اعدام
▁contain
▁كنيد
▁Pro
▁tired
▁justice
▁millions
do
▁تحمل
▁species
▁کوه
▁Food
▁ماهه
▁پرداخته
▁slowly
▁salt
▁نقاشی
▁outdoor
▁proposed
▁infrastructure
▁سخنگوی
▁تولیدی
▁کردستان
▁theory
▁محمود
▁receiving
▁equal
▁frequently
▁chat
▁پیوند
me
▁describe
▁موج
▁زنانه
▁risks
▁memories
▁چک
▁هرچه
▁metal
▁آیه
▁loves
▁پاکستان
▁enable
۶
▁collect
▁شركت
▁basically
▁challenging
▁چینی
▁Commission
▁تمایل
▁noted
▁دارویی
▁talent
▁officer
▁دادم
▁pro
▁dad
▁قدس
▁گر
▁بتوانند
▁قاچاق
▁fellow
▁youth
▁برادر
▁taxes
▁scientific
▁drivers
▁افتتاح
▁watched
▁گرفتند
▁سعید
▁مذکور
▁میکنند
▁اوقات
▁processing
▁category
▁خب
▁سیما
▁appearance
▁هنرمندان
▁fighting
▁Japan
▁<
▁functions
▁سینمای
▁گالری
ترین
▁بنویسید
▁اندام
▁forum
▁lessons
یان
▁Union
▁نداریم
▁صبر
▁Star
▁قطر
▁payments
▁خورشید
▁Book
▁94
▁innovative
▁Times
▁improvement
▁۲۸
▁معلم
▁داغ
▁فرش
▁مال
▁settings
▁earn
▁ends
▁هویت
▁سئو
▁شه
▁وام
▁میز
▁careful
▁forces
▁solve
▁fields
▁novel
▁همون
▁Congress
▁performed
▁pattern
▁Wow
▁جایگزین
▁gotten
▁replace
▁ارشاد
▁EU
▁Market
▁افکار
▁ارتباطی
▁Try
▁possibility
▁مصر
▁recognize
▁civil
▁چندان
see
▁سرخ
▁object
▁Community
▁۱۰۰
▁license
▁hundred
▁خریداری
▁engage
▁institutions
▁grew
▁Sorry
▁registered
▁deals
▁2009
▁lights
▁تبلیغاتی
▁supported
▁بيشتر
▁tiny
▁nine
▁شیعه
▁افزوده
▁بارها
▁ایام
▁Out
",
▁suffering
▁بخاطر
▁جاذبه
▁Despite
▁drinking
▁بهانه
▁battery
▁شعار
▁امتیازات
▁cutting
▁Care
▁کف
▁combined
▁عالم
▁Co
▁iPhone
▁طلب
▁جناب
▁Bank
▁France
دی
▁معرض
▁حیات
▁ریاضی
▁pack
▁بسيار
▁مهاجرت
▁pulled
▁reduced
▁saved
▁Long
▁ظهور
▁officers
▁incredibly
▁درگیری
▁talked
▁کانادا
▁۱۳۹۳
▁gorgeous
▁انگیزه
▁introduced
▁Work
▁۹۵
▁تلویزیونی
▁حریم
▁crowd
▁confident
▁fail
▁آمیز
▁camp
▁hire
▁بدهد
▁judge
▁guidance
▁electronic
▁خواستار
▁دبیر
▁joined
▁sending
▁candidates
▁vital
▁afford
▁debate
u
▁5.
▁staying
▁flowers
▁گشت
▁هدیه
▁issued
▁لپ
▁سبد
▁فرض
▁admit
▁assessment
▁سنجش
▁George
▁مطابق
▁خلیج
▁facing
▁normally
▁مجازات
▁mode
▁درب
▁volume
▁48
▁400
▁Top
▁نفتی
▁متوقف
▁حاکم
▁depends
mm
▁jump
▁تنهایی
▁Things
▁suggested
▁investors
▁مسئولین
▁آرایش
▁دامنه
▁برطرف
▁حملات
▁installation
▁ticket
▁مرور
▁Instagram
▁domestic
▁Israel
▁چنانچه
▁brief
▁Police
▁باتری
▁تدوین
▁furniture
▁گیاهی
انه
▁خودت
▁skill
▁توپ
▁خبرنامه
▁مقطع
▁aside
▁load
▁رها
▁medicine
▁عادت
▁creation
▁والدین
▁spoke
▁پیشین
▁defined
▁decade
▁سیب
▁trading
▁طلاق
▁تخت
▁مستند
he
▁آنتی
▁adventure
▁planet
▁beer
▁upcoming
▁پنهان
▁cook
▁farm
▁همانطور
▁لب
▁identity
▁تحلیلی
▁Central
▁grade
▁begins
▁plays
▁frame
▁مالیات
▁کمپانی
▁programme
▁گذارد
▁فرآیند
▁switch
▁آمدن
▁معتقد
▁alive
▁کنونی
▁Party
▁entertainment
▁نوجوانان
▁expenses
▁فضایی
▁Everything
▁برجسته
▁نیازهای
▁Part
▁extensive
▁retail
▁برگشت
▁آور
▁اقامت
▁مدارک
▁150
▁روبرو
▁تخریب
▁شارژ
▁authorities
▁برقرار
▁chapter
▁gifts
▁بگیرند
▁fly
▁writers
▁ضعیف
▁رویکرد
▁atmosphere
▁strange
▁برترین
▁wild
▁ژاپن
▁سیر
▁افزاری
▁o
▁2)
▁دقیقا
Oh
▁remaining
▁۲۶
▁محاسبه
▁dreams
▁شن
▁دریا
related
▁engineering
▁executive
▁Again
▁Give
▁همين
▁چوب
▁capable
▁روستایی
▁نان
▁cast
«
▁shoot
▁Online
▁عزیزان
▁شیخ
▁essay
▁savings
How
▁wanting
دانلود
▁argument
▁panel
▁aspect
▁مخاطب
▁مدیرکل
▁جوش
▁ویدیو
▁browser
▁PC
▁meals
▁transport
▁محققان
▁defense
▁Such
را
▁لبنان
َّ
▁everybody
▁گلستان
▁جزو
▁improving
▁رنج
▁brands
▁ongoing
▁استاندار
▁محدوده
▁سالانه
▁سقف
▁holidays
▁گفتن
▁حساس
▁persons
▁shooting
▁Using
▁پذیرفته
▁struggle
▁route
▁جنبه
▁دانه
▁literally
▁launched
▁necessarily
▁پلاک
▁(3)
▁Project
▁hosting
▁choosing
▁recommendations
So
▁اى
with
▁سرپرست
▁شگفت
▁Students
▁مهندس
▁rid
ic
▁پایدار
▁ordered
▁باشی
▁healthcare
▁۲۷
▁studio
▁stars
▁شهرسازی
▁contribute
▁کاغذ
▁bottle
▁entered
▁injuries
▁bodies
▁degrees
▁saving
”,
▁typical
▁hadn
▁operate
▁باش
▁هرچند
▁shit
▁بلامانع
▁truck
▁attacks
▁dates
▁خواند
▁threat
▁everywhere
▁suddenly
▁کنگره
▁dining
▁significantly
▁انقلابی
▁قهرمانان
▁Germany
▁برود
▁ببرید
▁بابت
▁غذاهای
▁نوجوان
▁believed
▁discussed
▁grateful
▁breath
▁Program
▁immediate
▁components
▁database
ist
ار
▁واسطه
▁رمان
▁صهیونیستی
▁هيچ
▁passing
▁بهشت
▁harder
▁وظایف
J
▁researchers
▁افتد
▁arm
▁houses
▁laugh
▁dropped
▁خوانده
▁trained
▁d
▁mistake
▁scheduled
go
▁ایرنا
▁doctors
▁district
▁lady
▁audio
▁تفکر
▁→
▁conduct
▁دیدنی
▁تحول
▁2000
▁مخالفت
▁resolution
▁candidate
▁banks
▁discount
▁arrive
▁حاج
▁stood
▁دانم
▁درگیر
▁identified
▁profit
▁معدنی
▁میلی
▁مطلوب
▁ابتلا
▁منم
▁تورم
▁صدر
▁جلسات
my
▁1395
▁designs
▁whenever
▁till
▁خاطره
▁routine
▁anxiety
▁۲۹
▁humans
▁cycle
▁industrial
▁constant
▁v
▁واحدهای
▁عسل
▁somewhat
▁ترافیک
▁innovation
▁شبانه
▁Mary
▁لطف
▁خطوط
▁خودروی
▁sport
rs
▁دهی
▁USA
▁IS
▁cloud
▁مجهز
▁دوستی
▁برنده
▁بوشهر
▁bread
▁express
▁روستا
▁شهردار
▁مصنوعی
▁سو
▁La
▁ف
▁سایه
▁زنگ
▁Global
▁لزوم
▁قهرمان
▁ex
▁اعزام
▁گوشه
▁relief
▁Z
▁استخوان
▁politics
▁sustainable
▁magic
▁ترانه
▁regardless
▁ring
▁answered
be
▁severe
▁African
▁Under
▁کارها
▁fitness
Well
نه
When
▁cookies
▁Real
▁فرمان
▁Therefore
▁سوره
▁loving
▁reporting
▁گری
▁Design
▁chair
▁بلیط
▁appeal
▁Institute
▁Power
▁cells
▁gender
▁کوچه
▁اسلامي
▁chain
▁shower
▁Music
▁کارگر
▁1)
▁impressive
▁invest
▁closely
▁Think
▁south
▁colour
بر
▁Hotel
▁airport
▁فعالان
▁electric
▁desk
▁جانبی
▁سرگرمی
▁Los
▁زير
▁walls
▁Super
▁village
▁سراغ
▁efficiency
▁positions
است
▁consistent
▁Never
▁German
▁سردار
▁عمران
▁figures
▁حیوانات
▁Water
▁Director
اگر
▁فر
▁Hall
▁رفتم
▁stands
▁external
▁roof
▁membership
▁Bay
▁همکاران
▁covers
▁successfully
▁apparently
▁proven
ity
▁نت
▁احداث
▁accessible
▁empty
▁reader
▁بوک
▁revealed
▁principles
▁Russia
▁Human
▁lesson
▁هفتم
▁sight
▁represent
▁رنگی
▁میلاد
▁sizes
▁آژانس
▁چگونگی
▁extended
▁بوی
▁qualified
▁عکاسی
▁De
▁communicate
%
▁illegal
▁estimated
▁توليد
▁solar
▁پیچیده
▁painting
▁روستای
▁شکر
▁north
▁committee
نا
▁جبران
▁ارتفاع
▁۴۰
▁Tom
▁درخت
▁neighborhood
▁legs
▁visual
▁portion
▁بدهید
▁بگم
▁هستی
▁reputation
▁invited
▁legislation
▁خودکار
▁command
▁لایک
▁consideration
▁تفسیر
▁ease
▁clothing
▁نیازی
▁خان
▁pounds
▁گناه
▁historical
▁شوم
▁سازه
▁افسردگی
يم
▁reply
▁weird
▁implementation
▁linked
▁yeah
▁surrounding
▁complicated
▁کریم
▁سیستان
▁worried
▁فرو
▁diverse
۷
▁فیلتر
▁Enjoy
▁علیرضا
▁counter
▁enhance
▁Federal
▁conflict
▁موشک
▁Old
▁Island
▁استراتژی
▁زمستان
▁letters
▁اگرچه
▁honor
▁flexible
▁Team
▁]
#
▁سکوت
۳۰
▁شکایت
▁tech
▁agents
▁رفاه
▁سپرده
▁System
▁Beach
▁5-
▁نوزاد
▁visited
▁streets
▁n
▁رانندگی
▁proof
▁نمک
▁blogs
▁implement
▁برج
▁hopefully
▁اوج
▁خودمان
▁سرنوشت
▁.....
▁همدان
▁trend
▁increasingly
▁horse
▁twenty
▁Continue
▁فارغ
▁outstanding
▁chances
▁غذای
▁foundation
بی
▁films
ایران
▁شهدا
▁manufacturing
▁recipes
▁attorney
ح
▁بلوچستان
▁مدار
▁chose
▁ویروس
▁عفونت
▁permission
▁boost
▁destination
▁حلقه
▁بارش
▁حرارت
▁Without
▁Little
▁Peter
▁ظریف
▁incident
▁غنی
▁قدرتمند
▁priority
▁relax
▁توانسته
▁متحد
▁پذیری
▁loans
▁duty
▁Plan
▁shift
end
▁ابن
▁کلیپ
▁فقیه
▁فرایند
▁valid
▁بعنوان
▁sauce
▁Blue
▁recorded
▁decent
▁مدیره
▁transportation
▁emails
▁نزدیکی
▁قبیل
▁کاخ
▁Want
▁hang
▁crucial
▁prison
▁victims
▁expand
▁Media
▁Al
▁sample
▁evil
▁اثبات
▁impressed
▁guidelines
▁worldwide
▁religion
▁پیرامون
▁میاد
10
عج
▁Policy
▁چراغ
▁جديد
▁موهای
▁کردی
▁checked
▁رأی
سال
▁Foundation
▁قزوین
▁گردیده
▁موردنیاز
▁stayed
▁گریه
▁vast
▁منحصر
▁اطلاعیه
▁زودتر
▁Anyway
۱۲
▁regard
▁تمیز
▁معمول
▁آستانه
▁shops
▁fourth
▁مبتنی
▁Three
▁managing
▁trends
▁گردن
▁engagement
more
▁36
land
▁FOR
▁satisfied
▁Need
▁مخلوط
▁reflect
▁letting
Y
▁Was
▁عناصر
▁stupid
▁تالار
▁درستی
▁فلسطین
▁Nothing
▁معمولی
▁differences
▁depression
▁Chicago
▁dear
▁bear
▁falling
▁opposite
de
▁illness
▁stone
▁owned
▁تاريخ
▁League
▁monitor
▁minor
▁hidden
▁reaction
▁Indian
▁AM
▁تبلیغ
▁داروهای
▁فیزیکی
▁پدیا
▁سومین
▁مجتمع
▁ویدئو
▁sky
▁شیک
▁shut
▁استخراج
▁محقق
▁suppose
▁ورزشگاه
▁amounts
▁organic
▁سنی
▁ایتالیا
▁دخالت
▁generate
▁drawing
▁پزشکان
▁nuclear
▁اوضاع
▁ابتدایی
▁خطرناک
▁supplies
▁strategic
▁قطعی
▁ultimately
▁خروجی
وی
▁attitude
▁extent
▁کیف
▁wake
▁نوبت
▁convenient
▁باب
▁گرایش
▁somehow
▁log
▁کارگردانی
▁dumpster
▁داشتیم
▁سازنده
▁tip
▁organized
▁Show
▁suffer
▁distribution
▁خاطرات
▁curious
▁اربعین
▁eligible
▁عرب
▁somebody
▁crew
▁scheme
▁چرخ
▁بستر
▁عقل
▁تبلت
▁nearby
▁دانید
چه
شو
▁نمیشه
▁کنون
▁خاموش
le
▁ایستگاه
ton
هر
▁سؤال
▁magazine
▁spiritual
▁papers
▁Could
▁broke
▁campus
▁neck
▁ايجاد
▁conducted
▁establish
▁متناسب
▁exposure
▁drinks
Z
▁گم
▁carrying
▁Western
▁river
▁تعامل
▁دروازه
▁greatly
un
▁Bible
▁winner
▁remote
▁انگار
▁terrible
▁اتفاقی
▁لایحه
اس
▁Android
0
▁photography
▁lie
▁بهم
▁element
▁Mexico
▁Start
▁استخدامی
▁دغدغه
▁هیجان
▁referred
▁غم
▁فاز
▁organisation
▁intelligence
▁regional
▁Angeles
▁networks
▁کشت
▁معلوم
▁shots
▁colleagues
▁arts
▁permanent
▁swimming
▁شادی
house
`
▁الف
▁steel
ies
▁smooth
▁definition
▁pace
▁صرفه
▁channel
▁فراوانی
▁متولد
▁traveling
▁achieved
▁معنا
▁کنن
▁Microsoft
▁mountain
▁engaged
▁کرج
▁bowl
▁weapons
▁originally
▁جنگل
▁Japanese
▁household
▁WordPress
▁patterns
▁technique
▁heads
▁labor
▁نباشید
▁wealth
▁نهادهای
▁هشتم
▁mixed
▁default
▁Know
▁عروسی
▁lol
۱۱
▁برمی
▁محمدرضا
▁عمیق
▁Minister
▁بالاترین
▁فوت
▁دمای
ling
يد
▁البرز
▁workshop
▁clinical
▁برنج
▁هزاران
▁مهمان
▁Lake
▁lawyer
▁District
▁requests
▁butter
▁submitted
▁تکنیک
▁harm
▁Code
▁noise
▁finance
▁کرم
▁مخاطبان
▁۰
▁broad
▁suspect
▁extreme
▁managers
▁refer
▁mainly
▁Section
▁ارایه
▁سراسری
▁زندگي
▁احتمالی
▁تجاوز
▁شدیم
▁upper
▁accordance
▁Mike
▁ولي
▁Jack
▁attractive
▁weekly
▁ملک
▁آسیاب
▁password
▁sentence
▁machines
▁اشخاص
For
▁thousand
▁bags
▁communications
▁vary
▁عموم
▁retirement
▁understood
▁consequences
▁River
▁عليه
▁اوراق
▁موقت
٬
▁acting
▁continuing
▁recognized
▁Chris
▁kick
.[
▁آموز
▁nights
▁potentially
▁returns
▁نفع
▁تمدن
▁f
▁objects
▁گرفتم
▁75
▁random
▁Special
▁causing
▁سفارت
▁مراجع
▁سوء
▁پارچه
▁متنوع
▁victim
▁شیمی
▁2007
▁گرافیک
▁کالای
▁بازسازی
▁brown
۸
▁دستگیر
▁Asia
▁increases
▁آیند
▁YouTube
▁1394
▁کلام
▁خطاب
▁مدرک
▁inches
▁Technology
▁هیأت
▁shares
▁Road
▁Welcome
▁Society
▁opinions
▁ل
▁پاسخگویی
▁Car
▁کیش
یت
▁pregnant
▁پیشینه
▁مباحث
▁phase
▁تدریس
▁تجزیه
▁domain
▁یافتن
way
▁collected
▁mood
کار
▁Through
ور
▁mistakes
▁approval
▁ad
▁شماست
na
▁brilliant
▁پلاس
▁Really
▁نوری
▁زایمان
▁ابراهیم
▁سرانجام
▁ending
▁بدنه
▁lay
▁خوشحال
▁حج
▁neither
▁متعدد
▁دکوراسیون
▁monitoring
▁معادن
▁قند
وا
▁behalf
▁کمال
▁equipped
▁خودداری
▁tight
▁ok
▁تروریست
▁گذاشتن
▁سرمربی
▁زخم
▁Game
▁جلد
▁مدنی
▁کشیدن
▁vegetables
ایی
▁encouraged
▁اعتیاد
▁compare
Yes
▁پیامک
▁correctly
▁ساختن
▁scientists
▁categories
▁نهم
▁performing
▁ensuring
▁surely
▁grab
▁چارچوب
▁mini
▁برف
▁شفاف
▁قبال
▁تقدیر
▁personality
▁Second
▁معامله
▁يكي
▁دانشمندان
▁confirmed
▁امضا
▁$1
▁Watch
▁fishing
▁concerning
▁راستا
▁یارانه
▁اتوبوس
▁سوزی
▁false
▁suggests
▁lies
▁دام
▁طلایی
▁درسی
▁محرم
▁کارگردان
▁1381.
▁Middle
▁al
▁همراهی
▁بابا
▁صندلی
فیلم
site
▁consultation
▁Step
▁مسعود
▁holds
▁تحولات
▁outcome
▁percentage
▁قصه
▁Journal
▁اثرات
▁راجع
▁input
▁authors
▁اشکال
U
▁بس
▁پایانی
As
level
اما
▁انفجار
▁laid
▁سگ
▁Russian
▁attached
▁الگوی
▁applicable
▁capture
▁ads
▁نویسندگان
▁replacement
friendly
▁nobody
▁tested
▁آنرا
▁Rights
▁bonus
her
▁خاورمیانه
▁Sam
▁تلخ
▁expression
▁مردی
▁believes
▁mess
▁appreciated
▁Centre
▁معاملات
▁luxury
▁industries
▁عظیم
▁Inc
▁statements
▁Y
▁explains
▁Help
▁Steve
▁oh
▁متصل
▁میدهد
▁اتمام
▁proposal
▁جلوه
▁كتاب
▁یادداشت
▁افزايش
▁stunning
▁تعطیل
گل
▁developers
▁انتهای
▁محبت
▁همسرش
▁Mac
▁اینگونه
▁telephone
▁تاسیس
▁شکم
▁booking
▁ماجرای
▁protein
▁volunteers
▁اساتید
▁exclusive
▁muscle
▁مرحوم
▁محروم
▁stronger
▁treatments
▁حین
▁مه
▁filed
▁خام
▁chief
▁employer
▁spaces
▁Tell
▁میکنیم
em
▁flying
▁Sun
▁سطوح
▁ALL
رو
▁شاخه
▁Always
▁نی
▁اضطراب
▁yellow
▁hole
▁warning
▁50%
▁naturally
▁ادعا
▁1000
▁6.
▁دارن
▁sensitive
▁ضبط
▁تعهد
▁residential
▁enforcement
▁forth
▁Medical
▁golf
▁احکام
▁برقراری
▁motion
▁ميان
▁پنل
▁whilst
▁معادل
▁healing
▁منطقی
▁Manager
▁بالاخره
▁متخصصان
▁امیدواریم
▁رایج
▁edition
▁شورا
▁pregnancy
▁limits
▁توهین
▁دارایی
▁ملاقات
▁faces
▁consumption
▁کالاهای
خ
▁occasion
▁عملیاتی
▁عبارتند
▁کنيد
▁2019
▁بروید
▁33
▁رودخانه
▁تازگی
▁replaced
▁تعویض
▁bills
▁کودکی
▁talks
▁اظهارات
▁involves
ING
son
▁شنیده
▁rely
▁تنش
▁breaking
▁ماسه
▁تعمیر
▁publish
▁تسنیم
quality
▁راز
▁سرقت
▁اينكه
...”
▁مس
▁mortgage
▁آورند
▁Place
well
this
▁heading
▁blogging
▁اکبر
▁غير
▁league
▁Full
▁بومی
▁ریسک
▁partnership
▁حمید
▁تب
▁hardware
▁بدی
▁joint
▁ات
▁باند
▁landscape
▁pointed
▁نقض
▁Live
▁diseases
▁deserve
▁criteria
▁adds
▁تحریک
▁pride
▁تنظیمات
▁dollar
▁­
▁ِ
▁county
▁Spanish
▁occurred
▁calendar
▁موضوعی
▁firms
▁Smith
▁fabulous
▁طنز
▁zero
▁grant
▁phones
▁breast
▁Paris
▁boxes
▁موافقت
▁راضی
▁sufficient
▁نشسته
دار
▁joining
▁ابلاغ
▁Marketing
▁زنجان
▁توقف
▁فقر
▁computers
▁struggling
▁فرمایید
▁یادآور
▁دانشنامه
▁PDF
▁carbon
▁calm
▁بماند
Do
▁ترين
▁مدعی
▁مک
▁Insurance
▁ندارید
▁خیال
▁شهدای
▁SEO
▁جواد
▁thinks
▁escape
▁کنسرت
▁رشت
▁میتواند
▁guilty
▁recording
▁sheet
▁council
▁بهش
▁۱۳۹۲
▁65
▁غیره
▁کمترین
▁platforms
▁reducing
..."
▁gay
▁insight
▁II
▁ذیل
▁acts
▁افزارهای
▁پیشنهادی
▁hopes
▁نیستم
▁انگشت
▁همچنين
▁happiness
▁sleeping
▁birds
▁plane
▁ill
▁childhood
▁فال
▁تنوع
▁محله
▁گلکسی
▁existence
▁نویس
▁smoke
▁تبادل
▁مبنای
▁Bush
▁مؤثر
▁absolute
▁widely
▁ماهواره
▁فرنگی
▁شریف
▁virtual
ED
▁قاشق
▁یاری
▁تناسب
▁شوهر
▁2,
▁Joe
▁Valley
!!!!
▁محافظت
▁انیمیشن
including
▁تومانی
▁eggs
▁Ask
life
▁zone
▁نوار
To
▁طالبان
۹
▁شو
▁عطر
▁بنیان
▁دریاچه
▁کریمی
▁electricity
▁classroom
▁anniversary
▁SO
▁غلط
▁transition
▁Men
▁محمدی
▁بهتری
▁**
▁ancient
▁ثبات
▁باستان
▁نکند
▁attended
▁لرستان
▁dental
▁versions
▁storm
▁تشویق
▁هايي
▁اچ
▁belief
▁حساسیت
▁پروانه
20
▁featured
▁studying
men
▁driven
▁craft
▁Canadian
▁شهرها
▁وسط
▁دیابت
▁hanging
▁اتهام
▁احساسات
▁leg
▁survive
▁fault
▁lifetime
ley
▁bars
She
▁blame
▁زرد
▁55
▁garage
▁کاش
▁conclusion
▁علل
انی
▁سیگار
▁اتفاقات
▁جزء
مو
▁rice
▁اصلاحات
▁خسارت
▁120
hour
▁شور
▁lighting
▁diabetes
▁کلان
▁accommodation
▁anybody
▁urban
▁figured
▁strongly
▁fabric
▁beneficial
▁هواداران
▁آ
▁Okay
▁شهرک
▁deeply
▁راننده
▁graduate
▁انتشارات
▁زندانی
▁laptop
▁اسپانیا
گ
▁headed
▁طلبان
▁جور
▁تعرفه
▁کشید
▁بدنی
▁مردانه
▁compliance
▁emotions
▁dish
▁خوراکی
▁گذاران
▁gear
علیه
ment
▁بوجود
دو
▁killing
▁پتروشیمی
▁Energy
▁اردبیل
▁Search
▁پودر
▁raising
گی
▁satisfaction
▁۶۰
▁عصبی
▁Review
▁Has
back
▁pray
what
▁interior
▁اراده
▁motor
▁View
▁متری
▁preparing
▁preparation
▁شام
▁maintaining
▁explanation
▁بیاید
▁تجمع
▁بگو
▁مسکونی
▁purchasing
▁injured
▁مرتب
▁fingers
▁Brown
▁اصطلاح
▁10%
▁ریز
▁u
ish
▁compensation
▁میده
۰۰
▁offices
▁NO
▁desired
▁tone
▁earned
▁rising
▁Anyone
▁امداد
▁یورو
▁pleasant
▁اسب
▁مزایای
▁buyers
▁Fire
▁قسمتی
▁premium
▁invite
▁volunteer
▁hardly
▁replied
▁آزار
▁Master
▁yard
▁مسافران
▁employers
▁فروشی
▁Sea
▁Set
▁Way
▁claimed
▁والیبال
▁یو
▁moves
▁Sure
▁آشکار
▁clicking
▁improvements
▁shoulder
▁Conference
▁سوار
▁row
▁تضمین
▁گانه
▁lately
▁Ben
▁زخمی
▁Below
▁collaboration
▁favor
▁comparison
▁trips
▁جوانی
▁Summer
▁تزریق
▁سانتی
▁musical
▁organisations
▁فاضلاب
▁ستون
▁smell
▁فرق
▁chemical
▁اخیرا
▁subjects
▁مجری
▁participation
▁gym
▁مقدمه
®
▁دیوان
▁Him
▁Australian
▁danger
▁;
▁Ireland
▁Off
▁چنين
▁closing
▁ماندن
▁اتمی
▁wishes
▁$
▁آقایان
▁border
▁applying
ation
▁requirement
she
▁اواخر
▁پاییز
▁raw
▁تکلیف
▁میشم
▁هواپیمای
▁granted
▁reduction
▁چهل
کی
▁drawn
▁بلافاصله
▁فتنه
▁درگذشت
▁مجید
▁ارزشمند
▁Santa
▁رویداد
▁وکیل
▁خواهان
▁stored
▁موسوی
▁google
▁مربی
▁نماد
▁موضع
▁Join
▁قرص
▁bridge
▁رونق
▁Financial
ia
▁consent
▁Spring
▁rarely
▁upgrade
▁Report
▁افت
▁سایز
▁شایسته
▁oven
▁babies
▁festival
▁lets
▁loud
▁مقاومتی
▁era
▁مقصد
▁CD
▁بکار
▁موسسات
▁honestly
▁split
▁نگهبان
▁خلاقیت
▁ضرب
▁ترکیبی
▁فیس
▁بگیریم
▁Too
ry
️
▁faced
▁Rock
▁قربانی
▁Un
▁native
▁programming
▁deeper
▁بیدار
تی
down
age
j
▁reaching
▁بدهی
▁plate
▁murder
▁introduce
▁مهلت
▁تکه
▁expressed
▁Bar
▁اینه
▁پرچم
▁suffered
▁نمائید
▁resulting
▁حدیث
▁مایکروسافت
▁draft
▁کادر
▁ought
▁availability
▁largely
▁نياز
▁بایست
▁بستگی
▁معده
هم
▁تنگ
▁ارزی
▁لندن
▁pure
▁depth
▁designer
▁passionate
▁قلعه
۱۹
▁giant
▁Share
▁برداشته
▁lists
▁فاقد
▁riding
▁attending
▁دریای
▁ثروت
just
▁formal
▁contribution
▁Father
▁پولی
▁likes
▁HD
▁interface
▁بازارهای
▁Night
▁historic
▁میتوان
▁طعم
▁(1
ca
▁height
▁میانگین
▁entering
Why
▁deposit
▁کیک
▁entitled
▁roles
▁تلفنی
▁juice
▁37
▁صعود
▁odd
▁engaging
▁دستگیری
▁arrival
▁امارات
▁responses
▁portfolio
▁workplace
▁پرس
▁نقدی
▁برقی
▁سفیر
▁obtained
▁connections
▁زوج
▁ocean
▁merely
▁cable
▁بویراحمد
▁حقیقی
▁اکران
▁roads
▁hide
▁خواستم
▁93
▁بک
▁بدهند
▁250
▁شانس
▁FREE
▁serves
▁بنزین
▁Room
how
▁ادعای
▁ultimate
▁اوایل
▁امشب
▁سالهای
▁inform
▁coast
▁root
▁tag
▁hotels
▁exists
▁دستیابی
▁rural
▁importantly
▁picking
▁مشکلاتی
▁رسان
▁cheaper
▁بگویم
▁فوری
▁Wi
▁آلوده
▁dont
▁Robert
▁returning
▁Nice
▁تصفیه
▁دیر
▁34
▁covering
▁کهگیلویه
▁unusual
▁medication
▁introduction
▁ارتقای
▁زیارت
▁واشنگتن
▁قرآنی
▁38
▁inner
▁packed
▁وي
▁آلمانی
▁Network
▁minds
▁Grand
▁اسید
▁Italian
▁Martin
▁رحم
▁Play
▁تشریح
▁channels
▁شیرینی
▁silver
ری
▁concepts
▁بتن
▁تمدید
▁puts
▁Mother
▁اتحاد
▁Support
▁creativity
▁۲۰۱۷
▁arrested
▁Word
▁مالیاتی
▁گزارشی
▁pot
▁بررسي
▁همت
▁talented
▁مصوب
▁تقاضا
▁styles
▁ترویج
▁producing
▁2006
▁initiative
▁Digital
▁History
▁مشاغل
▁گردش
▁آرمان
▁bath
▁بندر
▁outcomes
▁بایستی
▁dynamic
▁وای
▁42
▁focusing
ء
▁scenes
▁printed
▁توصیف
use
▁editor
▁افزونه
30
▁گرایی
▁فرماندار
▁عقد
▁Stay
▁stomach
▁گارانتی
▁کش
▁difficulty
per
▁contest
▁رزرو
▁rose
▁92
▁requested
▁exploring
▁relations
▁تفریحی
▁primarily
▁عمق
▁بتوانیم
▁trail
▁بتوانید
▁temporary
▁قضاوت
▁confirm
▁متعددی
▁Hill
ده
▁rating
▁elsewhere
▁IP
▁%
▁یابی
▁thick
▁experiencing
▁مایل
▁pan
▁سد
▁tall
▁visible
▁creates
▁exposed
▁Justice
▁دلخواه
▁میخوام
▁Young
▁Personal
▁بختیاری
▁معاصر
▁انگلستان
▁habits
▁handling
▁spots
▁represents
▁chest
▁seats
▁بدم
▁نبرد
▁pink
▁پردازش
▁bird
▁استرالیا
▁چرب
▁objective
▁Museum
▁اسامی
▁ایکس
▁تأیید
▁Jan
▁attract
▁كردند
▁Getting
▁تند
▁قدیم
▁اعتباری
▁confused
▁دادگستری
▁آرزوی
▁دارا
▁تخصص
▁میزبان
▁ریزش
▁روحی
▁involving
▁سيستم
▁بهشتی
▁Britain
▁Control
▁Much
▁مرورگر
▁rapidly
▁exception
▁admin
▁ساختمانی
▁رغم
هزار
▁disaster
▁Actually
▁Francisco
▁رهبران
ne
▁خواهی
▁مندی
▁script
▁تروریسم
▁ارومیه
▁ادبی
▁commonly
html
▁Holy
▁angry
▁مخصوصا
▁Senate
▁paragraph
▁میگه
▁بازرسی
▁استراحت
▁tradition
▁پروتئین
▁امن
▁دليل
▁آیات
▁impression
▁تربیتی
▁Jim
▁dishes
▁ارتقاء
▁تبصره
▁charity
▁CEO
▁آپ
▁LOVE
▁آپارتمان
▁مدافع
▁پيدا
▁wise
▁demands
لی
▁gap
▁kit
▁فرانسوی
▁شعبه
▁Page
▁disappointed
▁ضرر
▁ساعات
▁Mom
▁یازدهم
▁توانم
▁2018.
▁prayer
▁Video
▁personnel
▁grand
▁قاضی
▁Press
▁تعبیر
▁ناراحت
▁Pre
▁component
▁pocket
▁Town
شما
▁formed
▁preferred
▁infection
▁جویی
▁تکیه
▁electrical
▁پاره
▁فرمودند
▁succeed
اب
▁Something
▁ignore
▁پاریس
▁کلا
▁stages
▁Local
▁سپتامبر
▁equally
▁venue
▁fewer
▁ذهنی
▁ز
▁امین
▁universe
▁Gold
▁gained
▁lift
▁mile
side
▁edit
▁نظم
▁usage
▁Cup
▁مصوبه
▁blocks
▁نفره
▁asset
▁institution
▁resort
▁farmers
▁نکرد
▁مربع
▁روم
گر
▁define
▁Chapter
▁thin
▁Create
▁label
▁صبحانه
▁statistics
▁شناختی
▁plot
▁Italy
▁پیمان
▁specialist
▁precious
▁Change
▁integrated
▁governments
making
“
▁تمرینات
▁~
▁مریم
▁مفاهیم
▁اعم
▁indicate
▁ladies
▁elected
▁unknown
▁poverty
▁۹۴
▁layer
▁Secretary
▁داوطلبان
▁quotes
▁chronic
▁extend
▁recognition
▁stopping
▁output
▁enemy
▁cuts
▁حمام
▁tears
▁nervous
▁عبدالله
▁بمب
▁tank
▁مدال
▁7.
▁fits
▁plain
▁نیویورک
▁framework
▁packages
۰۰۰
▁weak
▁فردوسی
▁relating
▁boss
▁approaches
Fi
▁زمينه
▁port
▁manual
▁iron
▁stable
▁نمره
▁involve
▁investing
▁investments
▁Money
▁برخلاف
▁tons
▁repeat
▁logo
▁Scott
▁Working
new
▁;)
▁smoking
▁زنند
▁بيش
Don
▁01
class
▁Zealand
▁bet
▁adopted
▁delay
▁pricing
▁crash
▁supports
they
▁stream
▁controlled
▁overcome
▁گندم
▁argue
▁newspaper
▁extension
▁Am
▁soil
▁ماجرا
▁Sales
▁بیکاری
▁barely
هاى
▁مکمل
▁sorts
Read
▁periods
▁Hopefully
▁evaluation
▁liability
▁طرفی
▁marks
▁بتوان
▁نظرم
▁رم
▁64
▁جست
▁hiring
▁20%
▁cry
▁findings
▁Thus
▁specified
▁Trust
▁لیزر
▁معتقدند
▁برام
▁3)
▁scope
▁پیکر
▁خوبه
▁occurs
▁خواهر
▁خدای
▁اموال
▁صلاحیت
▁ناخن
▁victory
▁objectives
▁کیلوگرم
▁informative
▁هنرمند
▁burn
▁g
-1
▁wisdom
▁visits
▁Iran
▁copies
▁chart
▁ظاهری
▁پیوست
▁انتخاباتی
▁hearts
▁equivalent
▁finds
▁هماهنگ
▁استانبول
▁هایشان
▁تحصیلات
▁Download
▁برم
پ
▁دلاری
▁اختلالات
over
art
▁cats
▁tables
▁relative
▁conversations
▁UN
▁تعادل
ter
ra
All
▁Small
▁trick
▁DC
▁دفاعی
▁حافظ
▁آر
▁گذرد
▁tracks
▁جعبه
▁دشوار
▁enterprise
▁المپیک
▁روبه
▁سادگی
▁vs
▁nose
▁certificate
▁چیه
▁prize
▁برش
▁حاکمیت
▁۹۰
fa
▁publication
▁بان
▁سواری
▁انبار
▁اوباما
▁فیزیک
▁املاک
▁w
▁languages
▁آشپزخانه
▁meaningful
▁Boston
▁ID
▁transaction
▁Week
▁signal
▁(4)
▁موانع
▁نعمت
▁excuse
▁falls
▁خراب
▁Executive
▁پاسداران
▁promotion
سی
▁remained
▁جنین
▁concrete
▁yards
▁fundamental
▁manufacturers
▁blow
▁گردشگران
▁نسبتا
▁forest
▁entrance
▁abilities
▁همگی
▁محض
▁OR
روز
▁کنین
▁Learning
▁دانسته
▁wheel
▁هستن
▁fiction
▁implemented
▁Building
▁DO
▁sand
▁strike
▁ابزارهای
▁Arts
▁expecting
12
▁heating
▁west
▁moral
▁engines
▁rear
▁lying
el
▁king
▁depend
▁عضلات
▁ح
▁تفاهم
▁44
▁pursue
▁$5
▁presents
▁اجتماعي
▁زمين
▁برایتان
▁discussions
▁relation
▁dust
▁شبه
▁advise
▁Korea
▁stretch
▁exceptional
▁مراتب
سه
▁bloggers
▁معلمان
▁array
▁powers
▁راهکار
ion
▁!!
▁نمودن
▁yoga
▁Iraq
minute
▁علمیه
▁filling
▁ear
▁displayed
▁مطلع
▁reveal
▁DVD
▁aged
▁setup
▁ترجیح
▁مسأله
▁600
▁بریتانیا
▁rough
▁capabilities
▁1393
Q
▁88
▁ادب
▁$10
▁رئال
▁safely
▁اعصاب
▁دانیم
profit
▁آنقدر
▁abroad
▁Wall
▁enjoyable
▁Training
▁iOS
۱۳
long
▁Lee
▁کشد
▁●
▁addressed
▁سونی
▁Safety
▁منظم
▁massage
▁نامزد
▁sections
▁جنایت
▁مغزی
▁جدایی
▁ساعته
▁تقدیم
▁Festival
▁خرج
▁بزرگتر
▁Guide
▁applies
▁برو
▁instant
▁promoting
▁YOUR
▁روحیه
▁اتخاذ
▁Customer
▁دبی
▁Academy
▁Article
▁awards
▁چاه
▁transactions
▁مورخ
▁بیا
▁طرفداران
▁تابع
▁پردازد
▁اشک
▁استراتژیک
▁بست
▁سالگرد
▁زندانیان
▁Put
▁فعاليت
▁مقاوم
▁nations
▁Catholic
▁asks
▁جم
▁announce
▁پاپ
▁shirt
▁2005
▁removal
▁تحقیقاتی
▁Republican
▁caring
▁مطالبات
▁اعضا
لا
▁راستی
la
▁opposed
▁participating
▁tracking
▁flexibility
▁محکم
▁physically
▁Army
▁experiment
▁تسلیت
علی
▁errors
▁مخفی
▁singing
۲۰
▁promised
▁مقرر
▁behaviour
▁hits
▁دادیم
▁6-
▁forgotten
▁architecture
▁downtown
▁کربلا
▁relaxing
▁intense
▁اسباب
▁ته
▁شنیدن
▁resolve
▁contracts
▁cameras
▁موی
▁exam
▁مقدم
au
▁demonstrate
▁لا
▁سمنان
▁Bob
▁خستگی
▁نوآوری
Our
▁vulnerable
▁Meanwhile
▁documentation
known
▁پارلمان
▁تداوم
پس
......
▁damaged
▁Dad
▁aims
▁substantial
▁pushed
▁الکتریکی
▁coaching
▁scenario
▁pushing
▁خوشبختانه
ally
▁گردند
▁finger
▁Carolina
▁Dec
da
▁complaint
▁encounter
▁نوشیدنی
▁ظاهرا
▁newly
▁بازیابی
▁کارمندان
▁قطار
▁damn
▁celebration
▁productivity
▁Feel
▁wave
▁agenda
▁توده
ization
▁لو
▁recall
▁نوامبر
▁جوامع
▁gather
▁Due
▁breaks
▁حبس
▁delivering
▁remind
▁essentially
▁Reading
▁ساحل
▁possibilities
▁wash
▁upload
▁نمى
▁آله
▁Whatever
▁aimed
▁regards
▁workshops
date
▁نوروزی
made
▁قضیه
▁عام
▁handy
▁بخصوص
▁interviews
▁El
▁وری
▁صحت
▁هلال
▁قد
▁۳۱
▁سران
▁accomplish
▁Store
▁ON
▁رفتند
▁hat
▁toys
▁Simply
▁unlikely
▁خونی
▁contributions
▁estimate
▁baking
▁advantages
▁unfortunately
▁fuck
▁Head
▁productive
▁لبخند
▁حرکات
▁convenience
▁Light
▁differently
▁تقاضای
▁متفاوتی
▁fascinating
▁Visit
▁diversity
▁loose
▁Thomas
▁journal
▁representative
▁Order
▁disorder
▁مقداری
▁زا
▁پايان
▁directed
بخش
▁خشم
▁یکم
▁احزاب
▁romantic
▁acid
▁تشدید
▁آمدید
▁maintained
▁campaigns
▁سالی
▁shame
▁deck
▁regions
▁sing
▁encouraging
ولی
▁گيرد
▁خودتون
▁فلزی
▁networking
▁داوری
▁بدان
▁contemporary
▁عزت
▁آپدیت
ac
▁marked
▁printing
▁Royal
▁دانشجوی
▁Spirit
▁permit
▁compete
▁وصل
▁فراتر
▁skilled
▁رفتاری
▁Save
▁مواقع
▁39
▁Ok
▁عاشورا
▁lawyers
▁interactive
▁ذوب
▁Mrs
▁forgot
▁موسی
▁accounting
▁gaming
▁فلش
▁guaranteed
▁قیمتی
▁Posted
▁مجلسی
▁2017,
▁کمتری
▁Choose
▁Richard
▁مخالفان
▁چراکه
ian
▁sharp
▁union
▁en
▁pets
▁موشکی
▁expansion
▁هادی
▁کارآفرینی
▁addresses
▁bug
??
▁ریخته
▁Library
▁THIS
led
▁فعلا
▁گرچه
▁سلمان
▁Dan
▁divorce
▁museum
▁بدید
▁شدگان
▁god
▁جانبه
▁زحمت
▁pics
ma
▁resistance
▁اکتبر
▁provision
▁بزرگان
▁Kingdom
▁هنرهای
▁lock
▁faculty
▁thoroughly
▁تماشای
▁Games
▁مجددا
▁استانی
▁دونالد
▁دستمزد
▁listing
سر
▁commission
اند
▁کارایی
▁summary
▁HTML
▁directions
▁heavily
▁نانو
▁reform
▁بزند
▁Queen
▁seasons
▁fraud
۰۲
▁میکنید
▁Based
▁workout
▁دادستان
▁structures
▁نفری
▁استقرار
▁خنک
▁egg
▁داراي
▁تردید
▁Besides
▁manufacturer
month
▁initially
▁$100
▁currency
▁نقره
▁generations
▁گ
▁Follow
▁trusted
▁دستورالعمل
▁نگرش
▁Website
▁expense
▁مرزی
▁attempts
▁Season
▁officially
▁army
تصاویر
▁دوبله
▁drama
▁prime
▁professor
▁روده
don
▁genuine
▁Four
▁clock
▁km
▁burning
▁پرنده
▁provisions
▁شاعر
▁کیلو
▁800
▁fucking
▁aircraft
▁insights
▁generated
▁آزمایشگاه
▁hall
▁Disney
▁PS
▁حدی
▁بگذارد
خانه
▁completion
▁excess
▁joke
▁photographs
▁باردار
▁بیاد
▁Mar
▁خورشیدی
▁خوشمزه
▁inspiring
▁نود
▁زنجیره
▁convinced
▁اتومبیل
▁Spain
▁صاف
▁Administration
▁duties
▁منطق
▁درخشان
ups
▁USB
▁میانه
▁math
▁Non
▁پیچ
▁Blog
▁مرتضی
▁Following
▁میگم
▁fake
▁decline
▁عقیده
▁مغازه
▁semi
▁خطا
▁(2
▁walks
▁ceremony
▁رفتارهای
▁filter
▁تصادف
▁Coast
▁resume
responsibilities
▁literature
▁layout
▁spare
▁جنگی
▁تعلق
▁مارس
▁ارجاع
▁فشرده
▁highlight
▁Living
▁قاب
▁سلیقه
▁چت
▁بالغ
▁مديريت
▁admitted
▁boring
▁گره
▁بيان
▁10-
▁east
▁ائتلاف
▁1392
▁85
▁Chief
being
▁شرايط
▁mountains
▁association
▁Jewish
▁برخي
▁بخواهد
▁زیرنویس
called
▁delighted
۰۹
▁تظاهرات
▁بخار
▁initiatives
▁اپ
▁consistently
▁strive
▁دسامبر
رد
▁آمدند
▁ربات
▁pepper
▁viewing
▁mixture
▁lake
▁Harry
▁طريق
▁inspire
▁latter
▁actively
ئی
▁combat
▁voters
▁اتوماتیک
▁Southern
۱۸
▁targeted
▁bankruptcy
▁matches
▁speaker
▁حامد
▁واگذار
۱۵
▁colours
▁قفل
▁philosophy
▁clubs
▁رویه
▁:-)
from
▁exercises
▁ورد
▁مستمر
۲۴
▁Virginia
▁اوست
▁نگارش
▁followers
▁substance
▁فيلم
▁complaints
▁فقه
▁پدرش
▁فروشنده
▁sought
▁elections
▁بال
▁unexpected
▁متقاضیان
▁combine
▁seeds
▁اهالی
▁جداگانه
▁speakers
▁refund
▁painful
▁تبیین
▁نصف
▁هرمزگان
▁زیباترین
▁کوتاهی
who
▁concert
▁voting
▁نابود
▁muscles
▁رکورد
▁کلاه
▁adjust
▁كم
▁moon
▁ordinary
▁publishing
▁كننده
▁مدیریتی
▁cap
▁disability
▁dozen
▁guitar
▁Looks
▁grass
▁آتی
▁جانب
ville
ized
te
▁گذر
▁تعطیلات
▁مسکو
▁عزیزم
▁مسافر
http
▁reserve
▁residence
▁اخراج
او
▁ownership
▁مدرس
▁قوت
▁2016,
▁anger
▁struck
▁Ms
hand
▁قطره
▁banking
▁editing
▁contained
▁blessed
▁couples
▁bone
▁surrounded
▁settle
▁همسایه
▁Given
▁نمای
▁$2
نی
▁meets
▁دوچرخه
▁میزبانی
▁مستقر
▁App
▁ایلنا
▁فهم
ch
▁Supreme
آن
▁Better
▁ایلام
▁نداده
▁End
▁Child
▁stations
▁ابر
▁quit
▁rolling
▁column
▁surprising
▁controls
▁awarded
▁Clinton
▁صف
▁shock
▁فی
۲۵
▁مصطفی
▁Space
▁زیرساخت
▁soldiers
▁tab
▁سفره
▁زائران
▁Nov
▁calories
▁فک
even
▁beliefs
▁شیطان
▁bother
▁proved
▁orange
▁کلاسیک
▁phrase
▁Prime
▁interaction
▁Talk
▁founded
▁liquid
▁میشوند
▁روایات
▁ساماندهی
ar
▁الهام
▁globe
▁accused
▁مصالح
▁flavor
▁الدین
▁recover
▁sum
▁profits
▁Easy
▁زدم
▁Kids
▁remarkable
▁2017.
▁contrast
▁Agency
▁فرستاده
▁خیانت
▁نما
▁صنفی
▁developer
);
▁Making
▁principle
▁interact
ta
▁signing
▁centers
▁پیر
▁کلیدواژه
▁تلقی
▁immigration
▁eliminate
▁!!!
▁دراز
▁جوی
▁announcement
▁۲۰۰
▁grounds
▁employed
▁Until
▁salary
▁Site
▁نگار
▁reward
▁وزارتخانه
▁designers
▁آيا
▁hesitate
▁دبیرستان
▁circle
▁مواضع
▁تاج
▁dying
▁Self
▁guard
▁تردد
▁Additionally
▁bound
▁titles
▁formula
▁حروف
▁string
▁sudden
▁powder
ود
▁روشهای
ط
▁salad
▁1990
▁حسب
▁یخ
▁diagnosis
▁enables
▁featuring
▁intelligent
▁adequate
php
▁فریاد
▁پیروان
▁تیپ
▁یکبار
▁هی
▁shortly
▁opt
▁شیعیان
▁شکسته
▁heaven
id
▁Thanksgiving
▁sake
▁Beautiful
▁consists
▁کمر
▁donation
est
One
read
▁commit
▁43
▁طراح
▁زباله
▁درمورد
▁wireless
▁pizza
▁alongside
▁certified
▁restrictions
▁پیروز
▁جون
▁پخت
▁سرشار
▁universities
▁tape
▁Travel
▁مرتبه
▁losses
▁هواپیمایی
▁درونی
▁کارگری
▁Mobile
▁assess
▁أ
▁''
▁l
book
▁deadline
▁outfit
▁accessories
▁رفسنجانی
▁timely
▁thrown
▁پیوسته
▁Class
▁روزگار
▁۲۰۱۶
▁voted
▁کاشت
▁protecting
▁narrow
▁excitement
▁Fund
▁استناد
▁مذهب
▁upset
▁دروس
▁crimes
▁نیک
▁opposition
▁Heart
▁intention
▁scared
▁temperatures
▁اومد
▁absence
▁contents
▁fancy
▁مصلحت
▁فاجعه
▁متون
▁آرزو
▁AT
▁مرده
law
▁Stop
▁scary
▁fallen
▁تعجب
ting
۰۳
▁characteristics
▁اصلي
▁Buy
▁functional
▁newsletter
▁بشود
▁باطل
?!
▁متمرکز
▁silence
▁gallery
▁عمرانی
▁THAT
▁graphic
▁Access
▁پله
▁اجتناب
▁assigned
▁evaluate
▁41
▁Had
▁fruits
▁Someone
▁تاریخچه
▁threats
▁قائم
▁observed
▁دائمی
▁مایع
▁pitch
▁y
▁كنيم
▁پردازنده
▁ببخشید
▁wondered
▁bond
▁gathered
▁اعتراضات
▁3,
▁جعفر
▁برتری
▁BE
▁resident
▁مکانی
▁gathering
▁بدانند
▁worker
▁destroyed
▁ban
▁pic
▁beans
▁دامن
▁کیفی
▁پرو
▁graphics
▁amongst
▁پوشاک
▁relate
▁HERE
▁acquire
▁Protection
▁مداوم
▁شانه
۰۷
▁امری
▁emphasis
▁sectors
گان
▁تدبیر
▁پیشنهادات
▁شایع
▁پهلوی
۰۴
▁چیزهایی
▁ears
▁functionality
▁واضح
▁thankful
▁قارچ
▁emissions
▁generous
▁peak
▁settled
▁Sounds
▁اکرم
style
...)
▁nutrition
▁reception
۱۷
▁dancing
▁Jones
▁intellectual
▁Northern
▁رحمت
▁اعتراف
▁شهرت
لو
▁dose
▁keys
▁نمایشگر
▁Several
▁اجتماع
▁سرباز
▁ری
▁tutorial
▁awful
▁دوش
▁رطوبت
▁ادارات
▁processed
▁keen
▁superior
▁comply
▁تولیدات
▁معین
▁تیره
▁sooner
▁Miss
▁نقص
▁rapid
▁صاحبان
▁تعمیرات
▁كاهش
▁1.5
۰۸
can
▁responded
▁vice
▁container
▁acceptable
▁dirty
▁گرفتار
▁۷۰
▁Daily
▁پناه
▁(+
▁Halloween
▁Force
▁grace
▁2015,
▁کارهایی
▁beds
▁soup
▁حرام
▁Ever
▁qualify
▁wider
▁desktop
▁عینک
▁ماموریت
▁حتي
▁2004
▁ارتقا
▁زدند
▁division
▁استعداد
▁lips
os
▁habit
▁Jersey
▁مالکیت
▁برون
▁تماشا
اش
▁تاخیر
▁tournament
▁trash
▁آماری
▁گویا
▁تجربی
▁فوریه
▁ایفا
▁Consider
▁suppliers
▁Matt
▁inch
▁آرایشی
▁suicide
▁Select
▁flash
▁درود
▁Johnson
▁mirror
▁venture
▁guns
▁index
▁focuses
▁49
▁emerging
▁tries
▁apple
▁افزودن
▁آشپزی
▁کامپیوتری
▁مهران
▁ماموران
▁administrative
▁98
▁ماهیت
▁كنم
▁reminder
▁اندکی
▁دفع
▁micro
▁frequent
▁مسایل
▁خبرهای
▁prevention
▁Especially
▁Pay
▁tie
▁defend
گاه
▁چهارمین
¬
▁توجیه
يه
q
▁delete
▁پکیج
▁Republic
▁سعادت
▁difficulties
▁Donald
▁ناراحتی
▁ببرد
▁Trade
▁1/2
▁2018,
▁گربه
▁سرو
24
▁reminded
ty
▁jail
▁اهنگ
▁lowest
▁secondary
سازی
▁containing
▁منظر
▁chemicals
▁motivated
▁LOL
▁Scotland
▁مندان
▁نکاتی
▁peaceful
▁ممكن
▁silly
▁۸۰
▁deaths
▁کیلومتری
▁Hollywood
▁minister
▁motivation
▁بخواهید
▁kinda
▁Award
▁virtually
▁anytime
▁repairs
▁ژوئن
▁integrity
▁refused
▁مخابرات
▁جغرافیایی
▁arrangements
▁locked
▁dialogue
▁یخچال
good
▁پوستی
▁overwhelming
▁golden
▁نمودند
home
▁neighbors
▁diagnosed
▁سبزیجات
▁courts
▁طیف
▁پادشاه
▁entertaining
▁Overall
▁indicated
▁جسمی
▁Unless
▁arrange
▁راهپیمایی
▁nursing
▁تغيير
▁اقدامی
▁پمپ
▁Vegas
▁William
▁بازي
▁لیتر
▁themes
▁زناشویی
▁1980
▁horrible
▁overnight
▁بینید
▁patience
▁نخواهند
▁ساکن
▁viewed
البته
▁occasionally
}
▁actor
▁واجب
▁Girl
▁blind
▁ظلم
▁خبرها
▁regulatory
▁Annual
▁rush
▁hitting
▁صدها
▁علامه
▁mystery
▁یکسان
▁عملا
۱۶
▁اضافی
▁h
▁تجدید
▁سیمان
▁نکنند
▁Sarah
▁مطبوعات
▁makeup
▁icon
▁منتخب
▁سامان
▁4,
wood
▁opens
▁drove
▁instantly
▁Card
▁ايشان
▁Hospital
▁تعاون
▁hunting
▁ردیف
▁قیام
▁exhibition
▁mg
▁spoken
▁لرزه
▁مشورت
▁پرتاب
▁immune
▁متأسفانه
▁۵۰۰
▁weapon
▁مادرید
▁Among
▁بسپار
▁targets
▁baseball
▁معارف
▁enabled
▁Land
▁نشون
▁annoying
▁automatic
▁pants
▁گواهی
▁politicians
▁roughly
▁affects
▁warranty
▁addiction
▁درحالی
▁شلوار
▁examine
▁عاطفی
▁worn
▁//
More
▁Price
▁crap
▁relaxed
▁Sign
▁تصاویری
▁Years
▁Kim
▁wherever
▁ایستاده
▁دیواری
▁پذیرد
▁breathing
▁hungry
▁witness
▁bite
ro
▁Age
▁گویم
▁Civil
▁mad
▁declared
▁LED
▁علنی
there
▁شکلی
▁tied
▁نتيجه
▁pilot
▁purchases
▁سرکوب
▁احسان
▁مصرفی
▁هستش
▁stops
▁قائل
▁ويژه
ists
▁regulation
▁Michigan
▁تخلیه
▁judgment
▁travelling
▁lens
▁Us
▁describes
▁تکمیلی
▁oral
▁امضای
▁medications
▁لوکس
▁Credit
۲۲
15
▁بینیم
▁HIV
▁بری
▁destroy
▁عناوین
▁فراز
▁برگرفته
▁casino
▁سینا
▁اصرار
▁Pacific
▁representatives
▁گفتار
▁assured
-3
▁subscription
▁Tim
▁overview
ful
▁{
▁بشری
▁donations
▁divided
▁entries
▁استانداری
▁جزوه
▁sin
▁خودکشی
▁loads
▁پوتین
▁cooperation
▁برگزیده
▁toilet
11
▁ملاحظه
▁pulling
▁drives
▁عراقی
▁Area
▁بو
▁Alex
▁im
▁tap
▁جعفری
▁disabled
TM
▁Private
▁تیمی
▁خيلي
۰۱
▁garlic
▁زغال
▁integration
▁glasses
▁کارنامه
▁Auto
▁نمایه
Not
▁زور
▁بگویید
▁کبد
▁cooked
▁2003
▁permitted
▁زیان
▁grocery
▁begun
▁نخبگان
▁horses
▁episodes
▁هندی
▁دوازدهم
▁brothers
▁ایالت
▁Series
▁46
▁مراقب
▁unlike
▁درحال
▁flights
▁اسد
▁writes
▁شتاب
▁كمك
يت
▁ناصر
▁assistant
▁اشغال
▁leather
▁competitors
▁روزمره
▁تفکیک
▁استخر
▁assault
▁ملي
▁discussing
▁نادرست
▁بارگذاری
▁نمیدونم
▁throwing
▁نادیده
▁settlement
▁ندهید
▁endless
▁wet
۰۵
▁curriculum
▁accommodate
▁راهبردی
▁boards
▁مادران
world
▁lasting
▁factory
▁tackle
▁coat
▁Type
▁Oct
۱۴
▁بدتر
▁ژانویه
▁sees
▁مکتب
▁photographer
▁نشینی
▁dramatic
▁کالری
▁spectacular
▁occasions
▁DNA
▁nuts
▁Key
▁راهکارهای
▁فرماید
▁Got
▁استانداردهای
▁magical
▁تيم
▁برا
▁boyfriend
▁Action
▁مزیت
▁parks
▁violent
▁Nations
▁decrease
▁accidents
point
▁Cross
▁enormous
▁آسیایی
▁samples
▁List
▁Winter
▁holes
أ
▁گفتنی
▁buyer
▁licensed
▁برایش
▁فراخوان
▁lab
▁خم
▁چاقی
▁CO
▁highlights
▁#1
bit
▁checks
▁Hot
فصل
▁ya
▁دوری
▁2016.
▁Five
?)
▁سازي
▁التهاب
▁template
foot
▁رسم
▁inventory
▁علي
work
▁72
▁operational
▁Indeed
▁پوش
▁hospitals
▁بنابر
▁Colorado
▁غرق
▁بگوید
▁survival
▁branch
▁پروفایل
▁instruction
▁Excellent
▁مهار
▁handful
۲۶
▁Ministry
▁دفترچه
▁میشد
fi
▁غبار
▁قضاییه
▁Leave
▁restore
▁passes
▁smartphone
▁inspection
▁imagination
▁flower
▁finishing
▁Studies
▁maps
▁سطحی
▁بگوییم
▁accomplished
▁پژوهشگران
▁Agreement
▁گمان
▁discovery
▁examination
▁advised
▁flag
۰۶
▁احمر
▁passengers
▁arguments
▁سحر
▁invention
▁دراین
▁adoption
▁dressed
▁لاریجانی
▁هک
▁کام
▁́
▁رسالت
▁Professional
▁bid
▁Adam
▁47
۲۸
▁تسهیل
▁😉
▁نبودن
▁packaging
▁trailer
▁reviewed
▁nicely
▁درختان
▁realistic
ier
▁فتح
▁مکانیک
▁Asian
‭
▁پاداش
▁Fair
▁هکتار
um
▁equity
▁uncomfortable
▁remembered
▁برساند
▁موافق
▁amenities
▁singer
▁developments
▁Taking
۲۳
▁‬
▁consult
▁virus
▁evolution
▁spacious
▁basketball
▁نداشتن
▁Rose
▁achieving
▁کیسه
cm
▁beef
▁mining
▁سلسله
▁شكل
▁بستن
▁continuous
▁(5)
-2
▁Number
▁profession
▁Within
▁Going
▁متعال
▁میکنن
▁57
▁Email
▁bands
▁Glad
▁کوچکی
▁امروزی
▁بازم
▁جریمه
▁خاصیت
▁نیروگاه
▁Student
▁پستی
field
▁vendors
▁financing
▁promises
▁hero
▁represented
▁appointed
▁تم
▁52
only
▁winners
▁subsequent
▁نیا
▁دیدگاهی
▁کتب
▁نگرفته
▁خدماتی
▁racing
▁achievement
▁extraordinary
▁تخلف
▁Point
gmail
▁locally
▁courage
▁Table
▁tomatoes
▁Must
▁Sports
▁شناس
▁physician
▁لاغری
▁مادرش
▁دما
▁wins
▁Le
▁ton
آ
▁مایه
▁کارکرد
▁suggestion
▁الگو
▁ridiculous
▁گذارند
▁میر
▁موظف
▁تموم
▁رئيس
▁Experience
▁محاسبات
▁مالزی
▁efficiently
۲۱
▁fifth
▁respective
▁studied
▁laughing
▁دخترانه
▁نادر
▁fired
▁Furthermore
▁باستانی
▁girlfriend
▁Natural
▁psychological
▁نویسد
▁Members
▁مسدود
▁مؤسسه
▁wrap
▁قبولی
▁Story
▁اشعار
▁folder
▁مترو
▁disorders
▁Tax
▁marijuana
▁گلوله
▁handled
▁debut
▁تعالی
▁مالک
▁بدانیم
▁واریز
▁prayers
▁دستاوردهای
▁پنجمین
▁comic
▁ببینم
ner
▁انعطاف
پور
▁واگذاری
▁armed
▁supporters
▁پرهیز
▁Ford
▁Garden
▁penalty
▁refuse
▁سوری
▁WE
▁ترم
▁نحوی
▁flour
▁adorable
▁fiscal
ول
▁balanced
▁Ohio
▁knowledgeable
:«
▁قرعه
▁فیسبوک
▁favorites
▁انتقادات
▁memorable
▁corn
▁موردی
▁Quality
▁Frank
▁پيامبر
▁fantasy
▁دفاتر
▁attempting
▁غزه
▁تشکل
▁RSS
▁iPad
▁قشنگ
▁et
star
۲۷
▁مشمول
▁Planning
▁hoped
▁Copyright
▁Democrats
▁knee
▁تقویم
▁صورتیکه
▁700
اد
▁برزیل
▁پرسشنامه
▁reminds
▁سبزی
▁داروی
چی
▁BBC
▁athletes
▁backup
▁Name
▁ائمه
▁ministry
▁نشین
▁fridge
sized
▁effectiveness
▁هورمون
▁سالها
▁2014,
gov
▁دائم
▁workforce
izing
▁جملات
▁regret
▁پویا
▁بنی
▁تسلیم
▁thirty
▁توانستند
▁حکایت
▁مسی
▁stability
▁مهربان
▁فرصتی
▁actors
▁باکتری
▁یادم
▁اسلاید
▁داران
▁gentle
▁rescue
▁olive
ینگ
۲۹
▁engineers
▁Rather
such
▁Baby
▁توطئه
▁laughed
▁retired
▁Ha
▁تصمیمات
▁horror
▁منوی
▁scores
▁۱۳۹۱
▁bedrooms
▁نرسیده
ذ
▁cancel
▁nurse
▁وان
▁افسانه
▁91
▁مساحت
▁مطلق
▁smiled
▁Fall
▁روسی
▁loaded
▁Member
▁نامیده
▁ترور
▁8.
▁arrest
▁وسیع
▁اختلافات
▁زانو
▁چرخه
▁برآورد
▁شرکتهای
نامه
▁$50
▁completing
▁Tony
▁Lady
▁ضوابط
▁کمپین
box
▁minimal
▁مطهری
▁copyright
▁كل
▁pp
▁entrepreneurs
▁navigate
▁اورژانس
▁disabilities
▁اینا
▁votes

▁ناپذیر
▁worship
▁نخ
▁servers
▁Charles
▁7-
▁spouse
▁دختری
▁pen
ray
▁کیست
▁landing
▁عمدتا
▁Probably
▁Ryan
▁خصوصا
▁اينجا
▁tablet
▁آوردند
▁casual
يان
▁thrilled
▁یادآوری
▁admission
▁لیوان
▁سایپا
▁deciding
▁نمايد
یی
▁precisely
▁True
▁نابودی
▁ME
▁گرا
▁sexy
▁باکس
▁investigate
▁آینه
▁ratio
▁قيمت
▁Perfect
▁Moreover
▁steady
▁innocent
▁confirmation
▁خاتمی
▁humanity
▁چوبی
▁Airport
▁duration
▁indoor
▁نهضت
▁Dave
▁نکن
▁rank
▁overseas
درصد
ث
▁quantity
▁اجلاس
▁burden
▁سرم
▁يه
▁brush
▁Las
▁plug
▁تکان
▁collective
▁گازی
ساعت
▁removing
con
▁Either
▁stolen
▁codes
▁wire
▁silent
▁دوستانه
▁CA
▁((
▁Smart
▁acquired
▁اکثریت
▁ميزان
؟؟
▁bacteria
▁hosted
▁asleep
▁references
▁Lots
▁confusion
▁مشکی
▁رایت
▁popularity
▁donate
▁زیستی
▁discounts
▁thorough
▁کوین
▁عمومي
▁instruments
▁Engineering
▁intent
▁publicly
▁آموزی
▁دنيا
▁Obviously
▁resulted
▁ranging
▁referring
▁صادقی
▁Congratulations
▁فراگیر
▁(3
▁guides
▁obligations
▁hired
▁conversion
▁اصغر
▁treating
▁دهندگان
▁فواید
چ
▁موها
▁Down
▁شهروند
▁designing
▁transform
▁معرفت
▁Job
▁Christians
▁Made
▁explaining
▁Enter
▁sir
▁پنجاه
▁روشی
▁خواه
▁متغیر
▁humor
▁Terms
▁درگاه
▁stakeholders
▁Friends
▁prescription
▁honey
▁departments
▁blend
▁tours
▁tremendous
▁wooden
▁tissue
▁کشتار
▁حضوری
right
▁1,000
▁آداب
ine
▁حاکی
▁timing
▁harmful
▁conditioning
▁alike
▁spin
▁environments
io
▁سوالی
ER
▁apparent
▁assignment
▁خوراک
▁tricks
▁دموکراسی
▁celebrating
Now
▁پردیس
▁implementing
▁1970
▁Irish
▁belt
قسمت
▁طرفدار
▁Tips
news
▁پلاستیک
▁اندک
▁Economic
▁سرمايه
▁خواهش
▁democracy
▁aggressive
▁360
▁عنصر
▁رکود
▁$20
▁Write
▁scratch
▁crossed
▁برعهده
▁شریک
▁Early
▁Kong
▁retain
▁transformation
page
▁obligation
▁فیلمی
▁Golden
▁ate
▁User
▁movements
▁افغان
▁امواج
▁intend
▁Dark
▁appreciation
▁homework
▁involvement
▁goodness
▁oldest
▁adopt
car
▁con
▁تعهدات
▁Doctor
▁alternatives
▁پوسته
▁منع
▁nail
▁alert
▁گوجه
▁knife
▁worthy
▁وقتي
▁ببینیم
▁اقوام
▁مرزهای
▁potatoes
▁ناب
▁convince
▁گفتمان
▁proceed
▁کارمند
▁Application
▁صالح
▁الل
▁سپری
▁possess
▁دلیلی
▁وطن
▁شیرازی
▁درخصوص
▁recommendation
▁Jackson
▁handed
▁resist
▁dependent
▁washing
▁ceiling
▁ARE
▁فرماندهی
▁شرعی
▁criticism
▁صوت
▁خصوصیات
▁موعود
▁اقتصادي
▁اینقدر
▁tourist
▁captured
▁بگیرم
▁جسم
▁dirt
▁intervention
▁ازای
▁اراضی
▁شوخی
▁floors
▁configuration
▁chips
▁Max
▁همیشگی
▁Republicans
party
▁principal
▁strengthen
▁میگن
▁conservative
▁shelter
▁Brian
▁healthier
▁کامنت
▁Privacy
▁سوابق
▁estimates
▁Death
▁specialists
▁۰۹
Let
▁badly
▁cure
▁Andrew
▁scored
▁برایم
▁بویژه
▁زيرا
▁ارقام
▁hunt
???
▁earnings
▁Peace
▁Software
▁احتیاج
▁disagree
▁Georgia
▁mouse
▁Comments
▁آفریقا
▁امیدوار
▁بهزیستی
▁تخصیص
▁Country
▁51
▁embrace
▁دیسک
▁جالبی
▁considerable
▁painted
▁2.5
▁تعطیلی
▁زاویه
▁Mountain
▁Main
▁Currently
▁Future
▁utility
ize
▁Bring
▁waves
▁placing
▁ضمانت
▁forums
▁origin
▁نشدن
▁تجربیات
▁تایپ
▁راهنما
▁Dead
▁expanding
▁مسافرت
▁trigger
room
▁چکیده
▁discipline
▁solo
▁ژاپنی
▁territory
▁کافه
▁Study
▁مجتبی
▁warned
▁elegant
▁پایداری
▁alarm
▁Systems
▁پاسخگوی
وس
▁کدوم
▁بلوار
▁supportive
▁OS
▁2015.
▁logic
دا
tech
▁نداشتم
▁priorities
▁western
▁proposals
▁distributed
▁filing
▁یوسف
▁اعتبارات
▁elderly
▁Eastern
▁artificial
▁بنگاه
▁failing
▁روس
▁لکه
▁128
▁Almost
▁۳۵
▁corporations
▁وابستگی
▁برادران
؟»
▁ساير
▁شهروندی
▁reverse
▁Officer
care
▁newest
▁warming
همه
▁dig
▁آبادی
▁قید
▁representation
▁نحو
▁roots
▁Often
▁ار
ته
▁7,
▁ياد
▁بره
▁بعدا
ویرایش
▁فرمول
▁Bad
▁legitimate
▁laundry
let
▁هزينه
▁↑
▁climb
▁ماسک
▁يعني
▁belong
▁skip
▁bottles
▁پرسنل
▁jewelry
▁محوطه
▁Otherwise
▁authentic
▁نوت
▁welfare
▁utilize
▁اقتدار
▁odds
▁11,
▁خريد
▁tune
▁suits
▁معجزه
▁Speaking
▁عزاداری
▁touched
▁beaches
▁Question
▁نداشتند
▁wanna
▁ذرات
▁rolled
▁Ah
▁pump
▁مگ
▁foster
▁قاسم
▁نجف
▁ممنونم
head
▁secrets
▁گرافیکی
▁خطی
▁مگه
▁wage
▁فرآورده
▁angle
▁فلفل
game
▁denied
▁clue
▁سياسي
▁31,
▁قطعنامه
▁جهش
▁performances
op
▁destruction
▁نمودار
▁انداخت
▁cruise
▁inter
▁boots
▁collecting
▁Williams
▁سربازان
▁پرندگان
▁1391
▁southern
▁ادرار
▁دایره
▁چاره
▁wildlife
▁گيري
▁پرسید
▁>>
▁متعهد
▁offense
▁مامان
▁Greek
▁Imagine
▁contacts
▁bits
ha
▁Shop
▁سازند
▁suite
▁distinct
▁افزون
▁ناز
▁chairs
▁Drive
▁expanded
ons
▁candy
▁beautifully
▁تئوری
inch
▁احساسی
▁شر
▁منصوب
▁طراحي
▁سپاس
▁كنید
▁hip
▁meters
▁limitations
▁speaks
about
▁feeding
ya
▁بهتره
فر
محمد
▁nowhere
▁Per
▁visa
▁Hong
▁frustrating
▁8-
▁Democratic
▁Singapore
▁Louis
▁سرما
▁اکانت
▁۹۳
▁دعای
▁داور
▁stepped
▁Run
▁pointing
▁هایتان
▁مدام
▁99
▁حکومتی
▁adapt
▁lemon
▁Writing
▁لی
▁گويد
▁6,
▁ببرند
▁اندرویدی
▁slight
▁حامی
▁blogger
▁Fox
▁پدرم
▁meantime
▁operators
▁spell
▁ماساژ
▁بخشد
▁رابط
▁shoulders
▁فرود
▁کجاست
At
▁Daniel
▁frozen
▁پرستاری
▁Square
▁شماری
school
▁eager
▁فرقه
][
▁جوری
▁liver
PM
▁2013,
▁applicants
▁بازتاب
▁ورق
wide
▁carpet
▁Division
▁بلكه
▁coal
▁حیاتی
▁رقیب
▁ترکی
▁امت
▁پیاز
▁accuracy
▁careers
▁seed
▁impacts
▁بستری
▁مرطوب
▁hill
▁connecting
▁conventional
▁گرما
▁گفتگوی
our
▁Kevin
▁کیفری
▁تسلط
▁releases
▁entity
▁keyboard
▁complain
▁facilitate
▁easiest
▁batteries
▁نواحی
▁min
▁قاتل
se
▁supplement
▁welcoming
یست
▁خوانی
▁Line
▁friendship
▁وزنه
▁تولیدکنندگان
▁قوم
GB
▁technological
Just
▁پژو
▁فلان
▁arrangement
▁pollution
▁enemies
▁swim
▁ایراد
▁MP
▁consulting
▁sole
$
▁realise
▁cultures
▁الگوریتم
▁گاو
▁جذابیت
▁possession
▁deserves
depth
▁gardens
▁آرد
▁حرفی
▁چندی
▁آنتن
▁زیتون
▁ماندگار
▁منکر
▁سلطان
▁translation
▁solely
▁Meeting
▁damages
▁amazed
▁tear
▁threw
▁←
▁trials
▁موتورهای
▁یار
▁dropping
ka
▁سالروز
▁labour
▁بروند
▁56
▁waited
▁فرموده
▁خزر
▁citizen
▁balls
▁Usually
▁Professor
▁مساجد
غ
▁سکس
▁ناظر
▁dozens
▁swing
▁سکته
▁frequency
▁instrument
▁انها
▁مجلات
▁سیل
▁اماکن
▁exit
step
▁سم
▁قرائت
▁MS
▁قطب
▁organize
▁bold
▁Turkey
▁شکنجه
▁transmission
▁180
▁Depending
▁k
▁مسافرتی
▁indicates
▁بلیت
▁Awards
▁Jeff
▁عبادت
mo
زاده
▁2.0
▁dedication
▁exceed
▁acknowledge
▁credits
▁جوجه
▁invested
▁contacted
run
▁Say
▁پسران
▁توانمندی
▁unnecessary
▁حالیکه
▁ديگري
▁چشمه
▁گیگابایت
ary
scale
▁shorter
▁نکردن
▁photograph
▁annually
▁presidential
▁buttons
▁countless
▁ترمیم
▁Diego
▁نمایشی
▁Fortunately
▁voices
▁(0
▁باری
‘
▁مسلم
▁besides
▁کارگروه
▁Form
▁گمرک
▁superb
▁tuned
▁چ
ey
▁prospects
▁booked
▁شرکتی
▁اسکار
▁Easter
▁دشت
▁متقاضی
▁repeated
▁۳۰۰
▁LA
▁Nick
▁underlying
▁locate
▁فیبر
▁tourism
▁signature
▁finest
week
▁متنی
▁عرفان
شهر
▁Ed
▁pie
▁بسياري
▁specialized
▁Test
▁acceptance
▁گیم
▁strict
مه
▁identifying
ii
▁Prince
▁alleged
▁برگه
▁تاب
▁reasonably
▁troops
▁فضاهای
▁امان
▁Clean
▁تگ
▁ضریب
▁Toronto
▁measured
▁اعتصاب
▁ships
▁cookie
▁Unlike
▁Tour
▁سرگرم
▁انتخابی
▁مطهر
▁Creative
▁garbage
ران
▁regime
100
▁affairs
▁پاس
▁establishment
▁جنگنده
▁اب
▁mainstream
▁2002
▁onions
▁Dear
▁بیند
▁Feb
▁mothers
▁›
▁تقلید
▁stocks
▁Oil
▁2012,
اي
▁رضایی
▁ایمن
▁4)
▁attempted
▁Seattle
▁اجباری
▁retailers
▁resolved
▁concluded
▁vitamin
▁theater
▁اونجا
€
▁instances
▁نامناسب
▁agreements
▁طراحان
▁priced
▁certification
▁شوروی
▁races
▁9.
▁clinic
▁la
▁تدریج
▁Miami
▁slide
▁وحشت
▁outdoors
▁ور
▁Taylor
▁Between
بار
Re
▁داستانی
▁shake
▁giveaway
▁refers
▁layers
▁۲۰۱۵
▁خبرگان
▁مقدماتی
▁scan
▁تاکسی
▁تأسیس
▁فینال
▁5,
▁کامیون
▁independence
▁داماد
▁producer
▁میگیرد
▁سواد
▁throat
▁میگردد
▁discrimination
▁apartments
▁ختم
▁مهرماه
▁addressing
▁tongue
▁Nature
▁بریم
▁fails
▁عزیزمان
▁displays
▁panels
▁Sky
▁accompanied
▁peer
▁Low
▁رونالدو
▁slip
▁drag
▁بازیگری
▁استارت
▁◄
▁funded
▁مفصل
▁wrapped
▁براتون
▁خودشون
▁ignored
▁میتونید
▁کلینیک
▁genuinely
▁مهاجم
▁r
▁اسلحه
▁تکذیب
۰
▁دیدگاهتان
▁legacy
▁فایده
▁شبكه
▁passage
▁screening
▁supplements
▁Sir
▁Apparently
▁convert
ee
▁مرسی
▁همینطور
▁سوئد
ad
▁خرم
▁hey
ــــ
▁fears
▁پرداختند
▁53
▁رفتیم
▁2001
▁نشاط
▁تحمیل
▁رقابتی
▁Computer
▁Medicine
95
▁comedy
▁Cancer
▁چندانی
▁غریب
▁preserve
▁استدلال
▁54
▁gotta
▁ارمنستان
▁Hard
▁Ten
▁offensive
▁genetic
▁سوي
▁fortunate
▁flu
▁آبادان
▁انبوه
▁shapes
▁sometime
▁110
▁dealt
▁happier
▁mutual
▁heritage
▁شی
▁compelling
▁determination
▁wheels
؟؟؟
▁لحظات
▁مادرم
▁mature
▁نسبی
▁basics
▁hiking
ض
▁peers
▁حکمت
▁NFL
▁vintage
▁centuries
▁پدید
▁بعدها
▁camping
▁adventures
▁فلسطینی
▁operated
▁Send
▁دريافت
اء
▁coconut
▁امامت
▁crying
▁کاروان
▁fastest
▁تیراندازی
▁اقشار
▁30,
▁Environmental
▁ورزشکاران
▁یکپارچه
▁Photo
▁سنجی
▁niche
▁15,
▁forecast
▁Finance
▁contributed
▁crack
▁directory
board
▁situated
▁incorporate
▁bugs
▁علمي
▁tale
▁ممکنه
▁tennis
▁عهد
▁bio
▁هواشناسی
▁30%
â
▁submission
▁reserved
▁1960
▁خمیر
▁contractor
▁ك
▁Simple
▁accepting
▁heal
▁ویزای
▁ساحلی
▁producers
▁غیرقانونی
▁ناگهانی
▁سهمیه
▁Houston
▁romance
▁طلبی
▁حریف
▁تابلو
▁باشيد
▁غیبت
▁stays
▁رسانده
▁tooth
▁arise
▁Kate
▁safer
▁spa
▁lease
On
▁Dean
▁داشتنی
▁engineer
▁Content
▁Comment
▁مقیاس
▁له
▁جانشین
▁teens
▁kiss
▁منتهی
▁Far
▁prompt
▁شاگردان
▁afterwards
▁bones
▁treats
▁خالص
▁genre
▁Days
▁Short
▁اینجاست
▁قبر
▁یاسوج
▁طرفین
50
▁churches
▁Anti
▁podcast
▁پنیر
▁Moon
نام
▁گرجستان
▁جاسوسی
▁Located
▁Further
▁downloaded
▁Arizona
▁tension
▁Village
▁اردوی
▁conscious
▁قضائیه
▁grants
▁اولين
▁universal
▁artwork
▁AI
▁inflation
▁confusing
▁ازش
▁intake
yes
▁تیرماه
▁موجودات
▁میهن
▁subscribe
▁كنترل
▁Estate
▁شلیک
▁آدمی
▁13,
▁بزرگوار
▁designated
▁تجلیل
▁تون
▁implications
▁coaches
▁آيد
▁drops
▁clever
▁celebrated
▁execution
▁PR
▁boot
▁اقلیم
▁legally
▁بهادار
▁چهارمحال
14
▁sophisticated
▁demanding
▁نایب
▁کت
▁سرش
▁كامل
▁gains
13
▁Radio
▁neat
▁clip
▁غلبه
▁sheets
▁franchise
▁سازگار
▁۹۲
▁اصحاب
▁spectrum
▁خطبه
▁دوام
ah
▁سس
▁Body
▁tourists
▁pension
▁02
▁gate
▁toxic
▁Along
▁بارسلونا
▁Constitution
ft
25
▁patch
▁theatre
▁فون
16
▁تعاونی
▁counts
▁پیراهن
▁protest
▁Jews
▁drunk
▁سنین
▁applicant
▁واقعه
▁satisfy
▁Isn
▁مکرر
▁میکرد
▁کور
km
▁personalized
‬
▁Senior
▁58
▁انحراف
▁مشاوران
▁روستاهای
▁preferences
▁representing
▁18,
▁بهای
▁محلول
▁grid
▁rewards
▁Standard
▁اومده
▁demonstrated
▁HR
▁shade
li
▁desperate
▁shocked
▁mechanism
18
▁snacks
▁mild
▁segment
▁tomato
▁dive
▁شباهت
▁Latin
▁arranged
ri
▁URL
▁قاره
▁shed
▁Fast
▁گواهینامه
▁narrative
▁همگان
▁سواحل
▁module
▁یابند
▁ممنوعیت
▁reflection
▁stairs
▁cleaned
▁northern
یکی
▁رسما
▁tasty
▁ruling
▁Box
▁reactions
▁visitor
ate
▁Capital
▁agricultural
▁12-
▁contractors
▁کتابی
▁directors
▁مضر
▁attractions
▁naked
▁Upon
▁programmes
▁van
▁seemingly
▁Staff
▁texture
▁دونم
lin
▁fence
▁Fun
▁میتونه
▁stroke
▁panic
▁brave
▁educate
▁Jane
▁Seriously
▁شنا
▁کنسول
▁presentations
▁Van
▁Industry
▁کلسیم
▁weekends
▁beloved
▁Later
▁artistic
▁gross
▁poem
▁رساندن
▁ولادت
▁***
▁گی
▁66
▁تذکر
▁تپه
▁آنجایی
▁reserves
▁فرهنگي
▁straightforward
▁Modern
your
▁آستان
▁$3
▁couch
▁rewarding
▁تاسیسات
▁Parliament
▁آموزشگاه
▁backed
▁Henry
تن
▁زيادي
▁Muslim
▁disposal
▁هارد
▁observe
▁بلا
American
▁چادر
▁بخواهیم
▁خوانندگان
▁earning
▁محيط
▁oils
▁بشکه
winning
bar
نت
▁طلای
▁عذاب
▁شخصیتی
▁نظرسنجی
▁تار
▁selecting
▁جیب
▁sustainability
▁founder
▁برانکو
▁gently
▁پي
▁9,
▁دایی
▁ugly
▁lazy
▁waters
▁receipt
▁موسوم
▁اذیت
▁junk
▁فكر
▁مارک
▁urge
▁jumped
▁تفریح
▁داوران
▁خواستند
▁مگابایت
▁خونریزی
▁dressing
▁لمس
ni
▁hiding
▁sisters
▁رسیدند
▁FIG
▁2014.
▁07
▁مقاصد
▁زشت
▁attendance
▁حلال
▁requiring
▁hosts
▁مرتکب
▁stressful
▁tends
▁اجراي
▁اشرف
▁export
▁اسماعیل
▁marketplace
▁بردند
▁snack
▁meditation
▁59
▁Rome
▁transferred
▁بهترين
▁MY
▁ذره
▁corruption
▁viewers
▁excessive
▁نگاری
▁ethical
▁نیستیم
▁امكان
▁هجری
are
▁ha
▁passenger
▁16,
▁creatures
▁documentary
index
▁ویزا
▁خطرات
▁None
▁precise
▁sits
▁مطالبی
▁pile
pdf
im
▁Together
▁Birthday
▁چسب
▁placement
▁needing
▁unemployment
▁دين
تهران
پر
▁جلال
▁enjoys
▁dough
▁hook
▁Camp
▁فرهنگیان
▁17,
▁بازديد
▁لیسانس
▁باقر
▁darkness
▁piano
▁modified
▁جزئی
▁دانستند
▁attorneys
den
▁انکار
▁advocate
▁qualities
▁violation
▁ensures
▁رقص
▁قدردانی
▁fought
Your
▁تکامل
▁Third
▁grey
when
▁2011,
▁identification
▁کشاورزان
▁Boy
▁Eve
▁steal
▁بدهیم
▁listened
▁حسابی
▁costly
▁teen
▁bookmarked
▁ماهانه
▁verify
▁Product
▁reveals
▁مجسمه
▁جاي
▁plugin
▁Syria
▁آرا
▁بغداد
▁solving
▁judges
▁musicians
▁poetry
▁agriculture
town
▁Captain
▁Brazil
▁intimate
▁cope
▁آنگاه
AM
▁فریب
▁افق
▁خریداران
▁پذیرایی
▁analyze
▁fed
▁اساسا
▁قاعده
▁میکنی
▁boundaries
▁نکردم
▁Figure
▁beneath
▁14,
▁24-
▁آينده
▁Side
▁glory
▁اينکه
▁login
▁حامل
▁bored
▁كنار
▁اخطار
▁بزرگداشت
▁Valentine
▁نقشی
▁assumed
▁tactics
▁ONE
▁گیرنده
▁نهایتا
شود
▁wow
▁audiences
▁sunny
▁claiming
▁دان
▁gaining
▁symbol
▁Film
▁یونان
▁متقابل
▁ordering
▁کليه
▁towns
▁داروها
Thank
▁زینب
▁تیتر
▁sink
▁infections
▁Regardless
▁سنسور
▁بزنم
▁suggesting
▁حرارتی
▁ادیان
▁Sydney
▁jacket
▁authorized
▁نقلیه
▁excellence
▁Case
▁ویدئویی
▁الا
60
▁Station
▁rocks
▁استوار
▁poll
▁hike
▁شفافیت
▁ترکیبات
▁tail
▁composition
▁شریعتی
▁بگذارند
▁varied
▁انداخته
▁آفریقای
▁بازنشستگان
▁trucks
▁قسم
▁غرفه
▁stressed
▁pin
▁تایلند
▁steam
▁acquisition
▁educated
▁دبیرخانه
▁Avenue
▁Mo
کو
▁نوزادان
40
▁اشتباهات
water
▁چاق
▁slot
▁cm
▁مقادیر
▁پوستر
▁tube
▁sequence
▁wages
▁مبلمان
▁prospect
▁2-3
▁آخه
▁ناگهان
▁جريان
▁relatives
▁affiliate
امام
▁broadcast
▁abandoned
service
!).
▁تحریریه
▁ratings
▁strip
▁خودروها
▁flood
▁customized
▁25%
▁Holiday
▁gluten
▁Challenge
high
▁shy
▁Resources
▁quest
▁بدترین
▁worries
size
▁Port
▁robust
▁آمريکا
▁praise
بین
▁auction
▁رسند
▁barriers
▁حاجی
▁smiling
▁سیاره
▁ظروف
▁Vietnam
▁شکلات
▁هلند
▁ski
ke
▁Details
▁(5
▁aging
17
▁90%
▁لبه
▁شاپ
▁رگ
▁Eric
▁rejected
▁بفرمایید
▁Recently
▁همسرم
▁tailored
▁مقوله
some
سن
▁cotton
▁بدل
shirt
▁crop
▁سلطه
▁بزن
di
▁پیروی
▁vibrant
▁کابینه
▁notion
▁Aug
▁preventing
▁Elizabeth
▁spray
▁tastes
▁تصرف
▁ترفند
▁Level
▁بزنند
▁bulk
▁12,
▁تجویز
▁پتانسیل
▁logical
▁operator
▁فرشته
▁350
light
▁Others
▁fiber
▁answering
▁مواجهه
▁مربیان
▁حوصله
نو
▁trauma
▁browsing
▁interactions
▁تشییع
▁Available
▁dentist
▁interpretation
▁62
▁خریدار
▁Silver
▁rail
oh
▁بهت
US
جان
▁valued
▁paintings
▁Companies
▁بیرونی
▁enthusiasm
▁clarity
▁Cost
ماه
-12
▁cart
▁threatened
▁readily
▁بوسیله
▁آفرینی
▁معصومه
چرا
▁Mind
▁Wait
▁desert
▁خدایا
▁10,000
▁homeless
▁میدم
▁Pretty
▁Wales
▁خلاق
▁beside
▁pays
▁مزمن
▁محبوبیت
▁توجیهی
▁cried
▁ارديبهشت
▁satellite
▁کارش
▁شکار
▁آئین
▁appealing
ability
▁طباطبایی
▁شایعه
▁Account
▁Jason
▁blast
top
▁variable
▁gradually
▁seller
▁دود
▁اولی
▁جماعت
▁تاریک
▁حرکتی
Yeah
▁concentration
▁مشخصی
▁grasp
▁مملکت
ous
▁شواهد
▁جسد
▁پدیدار
▁grows
▁automated
▁glance
دل
▁21,
▁Notice
▁makers
▁Description
round
▁cares
▁promising
▁incidents
▁روشنایی
▁Tech
▁لازمه
▁تعيين
▁demo
▁بلوغ
▁Vol
▁کاشان
▁Dog
▁mechanical
▁devoted
▁غول
▁اختراع
▁assuming
▁mere
▁theft
▁براش
▁رهایی
▁(4
▁neighbor
il
minded
▁19,
screen
▁conservation
▁occasional
▁زعفران
ur
▁capability
▁exclusively
▁charging
کا
state
▁$25
▁2010,
▁affecting
▁closest
▁2:
▁gratitude
▁Galaxy
▁consume
▁عقاید
▁احیای
▁غافل
▁bench
▁اثری
▁privilege
آموزش
▁خوان
▁continually
▁نازل
▁cabin
▁woods
▁semester
▁catching
▁circuit
ant
▁Wars
▁آزمایشگاهی
▁jumping
خود
▁برات
▁خیریه
▁deemed
▁ساری
▁Stone
▁liberal
get
▁cups
▁صالحی
▁اردوغان
▁desires
▁تجهیز
▁browse
۵۰
▁Property
▁جوایز
▁climbing
▁suited
▁repeatedly
▁carries
▁wellness
▁نظامیان
▁basement
▁Common
▁کهن
▁تغییراتی
▁moderate
▁premises
LY
▁Kelly
▁prospective
▁غیرقابل
▁سلفی
▁deny
▁terrorist
especially
▁dispute
▁آزمایشی
▁انتقام
▁نکنیم
▁بریزید
▁twelve
▁closet
▁حماسه
▁onion
▁ورژن
▁پوشیده
▁منتقدان
▁Ray
▁killer
▁هميشه
▁Foreign
▁عیب
▁ثمر
▁(6)
▁اصولا
▁practically
▁prominent
▁colleges
▁fluid
▁versus
راه
▁prescribed
▁Products
▁Studio
▁hi
▁۱۳۹۰
▁porn
▁acres
▁اونا
▁knees
▁loop
▁competing
▁22,
▁متوسطه
▁نیمی
▁جرایم
▁اتفاقا
▁پورت
▁محافظ
person
▁تاثیرگذار
▁101
▁حیوان
▁مترجم
looking
▁آوریل
▁hence
▁footage
▁تبعیض
جی
▁contributing
▁80%
▁predict
▁Stephen
▁tricky
▁Pakistan
▁بودی
▁Ocean
▁دكتر
▁Convention
▁magazines
▁woke
▁import
▁abortion
يي
▁mum
▁بجای
▁نوسازی
▁سجاد
▁اعظم
▁89
▁نیت
▁notification
▁soccer
▁react
▁freely
▁گذاشتم
▁consultant
▁الس
▁احوال
▁emotion
▁برسند
▁shine
▁matching
▁supplier
▁فرهاد
▁کالاها
click
▁۲۰۱۴
وب
▁شکاف
▁اینچی
▁Israeli
▁surprisingly
▁separated
▁tablets
▁خشکی
▁Son
▁approaching
ise
▁خرده
▁defeat
▁مداخله
▁بازنشستگی
▁موجودی
▁Wood
▁بداند
▁67
▁blank
▁همبستگی
▁خوام
▁جفت
▁معیار
▁mentally
▁revolution
ham
گیری
▁فعالیتهای
▁پارکینگ
▁daughters
▁نشریات
▁progressive
▁twist
▁lyrics
▁قراردادهای
▁افشار
▁مجروح
▁Korean
▁آرش
▁ژن
باز
▁flip
▁Joseph
▁61
▁نوکیا
▁خیابانی
▁شناسنامه
▁invitation
▁برابری
▁عموما
▁حامیان
▁بخشنامه
▁تناسلی
▁keywords
▁immigrants
نگ
▁صلی
▁كردم
▁پرش
▁Assembly
▁آبیاری
▁modify
▁مركز
▁بادی
▁Authority
▁mask
▁preference
▁1:
▁Ways
▁perception
▁Hell
▁nutrients
▁Dream
▁28,
▁منصور
▁pose
▁magnificent
▁Roman
▁guided
▁WITH
▁تنفس
▁پیامی
▁63
▁ابزاری
▁اینطور
▁GPS
▁associate
▁laser
▁مبادلات
ستان
▁عباسی
English
▁مشكلات
▁بیگانه
▁subtle
▁assembly
▁fate
▁Total
▁tags
▁اهدا
▁lean
▁۴۵
▁par
▁وسعت
▁5%
▁Austin
https
▁بپردازد
▁مطالبه
▁employ
▁سلیمانی
▁shook
▁باهم
▁Illinois
▁68
▁لغت
▁lawsuit
▁صلاح
▁charming
▁گردان
زن
▁unlimited
lo
▁چشمان
▁quietly
▁متشکل
▁کارگیری
▁determining
▁(0)
▁buried
▁Attorney
▁لامپ
▁continuously
▁MORE
▁سوژه
▁trans
sa
▁طوفان
▁میرزا
▁دیپلماسی
▁شعله
blog
▁dramatically
▁سپاهان
▁tower
▁زياد
▁پارسی
▁frustrated
▁drew
▁Express
▁scholarship
Hey
▁فای
▁tender
▁AC
▁تخلفات
▁شهرزاد
▁supplied
▁shelf
▁avoiding
▁stylish
▁Nevertheless
▁Personally
▁ابو
▁produces
post
▁Bridge
▁رصد
Please
▁كسي
۳۱
▁ببین
▁fitting
▁strengths
▁مطلبی
▁marine
▁printer
▁rape
▁مبحث
▁خیره
▁تعلیم
▁publications
▁paste
▁cooling
▁نیستید
▁سازان
▁corporation
▁departure
▁portable
▁eaten
▁نمایی
▁تثبیت
▁profitable
▁وحید
▁روانه
set
▁radiation
▁(“
▁blessing
▁تراز
▁مامور
▁carrier
▁entities
▁contrary
▁دریافتی
▁loyal
▁harsh
▁بنابراين
▁wore
90
▁regarded
▁bonds
▁مت
▁breathe
▁CAN
▁اعداد
▁جهاني
▁terrific
▁sacrifice
دست
▁تلفات
▁Books
▁jury
▁knock
▁lawn
▁فرسوده
▁سرهنگ
▁خوری
▁دستورات
▁Six
▁dis
▁بادام
▁دستش
▁Victoria
▁Title
▁transparency
With
▁محرومیت
هاست
▁streaming
ٌ
▁کیا
▁میخواستم
▁ولتاژ
اف
▁قشر
▁shadow
▁lover
▁فصلنامه
▁mandatory
▁لاک
▁audit
▁کمکی
▁shoe
▁بدو
▁Afghanistan
▁Forest
▁کمدی
▁reservation
▁anxious
▁AS
▁journalists
▁installing
▁fulfill
▁فرقی
▁Columbia
▁03
▁ترسیم
▁کولر
▁برسانید
▁خاندان
▁wings
▁تعقیب
▁۳۲
▁Provide
▁Pick
▁موش
▁دفن
▁syndrome
▁recruitment
بعد
▁Labor
سون
▁counting
▁Forum
▁دبیرکل
real
▁عظمت
▁parameters
▁ضمنا
▁بزرگسالان
▁Final
▁تخته
les
▁اولا
▁Cook
▁84
▁secured
▁happily
▁Patrick
▁2013.
▁هموطنان
▁خانوم
▁بودید
▁responding
▁Cat
et
▁destinations
▁ایشون
▁Egypt
▁بابک
Can
▁حسين
▁بلد
▁individually
▁loading
▁frustration
بررسی
▁soap
ted
▁appliances
▁Girls
▁محاکمه
▁ذكر
▁09
▁pdf
ised
▁encountered
▁۸۸
▁commented
▁Parents
▁23,
▁Simon
▁ranking
▁ranked
▁essence
▁negotiations
۴۰
▁جزییات
▁ties
▁disclosure
▁ایتالیایی
▁صنف
▁prizes
▁Phone
▁dessert
▁برید
▁سوراخ
ford
▁restricted
▁grades
▁خانوار
▁Legal
▁عنایت
▁FBI
▁گرفتگی
اری
ive
▁متحرک
▁executives
▁مطمئنا
▁نوشیدن
▁تکراری
▁routes
▁حسی
▁labels
▁30-
▁Update
▁awhile
▁WILL
▁poster
▁newspapers
▁reflects
These
▁بینند
▁dairy
▁Amazing
▁ششمین
▁تهيه
▁نداد
▁خزانه
▁دعوا
▁نماییم
▁بنای
▁minority
▁جاوا
▁signals
▁Magazine
▁transparent
▁stir
▁spam
▁packing
▁responsive
▁ره
▁سایبری
▁برندهای
▁solved
▁shell
▁سنگینی
سا
▁containers
▁رویدادهای
▁شوی
▁establishing
▁دنده
▁hung
▁Luckily
▁renewable
▁140
▁شعب
▁خوشحالم
▁anticipated
▁kindness
▁جناح
▁بالینی
ance
▁86
▁دفعه
▁homemade
▁قواعد
▁complexity
▁approached
▁لاین
▁مصدوم
▁ترسناک
▁حمايت
▁انسانها
▁مجرب
▁اکشن
▁26,
▁$15
▁oxygen
▁veterans
▁عرق
سنگ
▁شیوع
▁راس
▁concentrate
هايي
▁27,
▁facebook
▁Ken
▁bomb
▁spelling
▁instructor
▁ساکنان
▁conducting
▁اراک
after
▁برپا
▁Mass
edu
▁یاران
▁enabling
▁attracted
▁هیچگونه
▁اندیشی
▁Major
▁شم
▁NEW
▁نهی
▁replacing
▁صحن
▁2012.
▁74
See
▁Manchester
▁batch
▁روستاها
▁mm
▁formation
▁Youth
▁اونم
▁سانسور
▁midnight
▁Jordan
▁enhanced
▁Charlie
▁فاش
▁میره
▁exploration
▁40%
▁فاکتور
▁biological
▁حركت
▁delight
▁banned
▁detect
▁sons
▁هفتاد
▁شوراي
where
▁وقایع
▁بازبینی
▁شايد
▁Vice
▁مخرب
▁مانتو
▁Cloud
▁چروک
▁Farm
▁کارآمد
▁Oregon
▁treasure
▁Turn
▁Orange
▁punishment
▁achievements
▁مهره
▁HAVE
▁nonprofit
▁Century
▁jeans
▁سیگنال
▁assure
▁آپلود
▁بحرین
▁Lisa
▁برکت
▁بینم
▁ارمغان
▁beta
▁Net
▁سفرهای
▁چرم
▁mate
▁سل
▁chip
▁بگیر
▁beating
▁Miller
sh
▁cleared
▁sized
▁pound
▁NY
▁graduated
▁مسلط
▁rated
▁بکشید
▁76
▁غالب
▁functioning
▁respected
▁financially
ins
▁Mexican
▁Sound
▁رسيد
▁Field
▁costume
▁کوشش
▁Yesterday
▁نقدینگی
▁سوپر
▁وارداتی
ana
▁proceedings
▁بوم
▁مسیح
▁آسانی
▁seasonal
have
▁shipped
▁میلیونی
▁زماني
▁coupon
▁زبانی
Good
▁argued
▁پردازیم
▁boats
▁130
▁orientation
▁اقیانوس
▁زدایی
▁branches
▁وزير
▁تائید
▁consuming
▁همسرتان
▁بازه
▁Sale
▁reads
▁تعلیق
**
▁Tea
▁rings
▁ضخامت
▁emotionally
▁حدودی
isation
love
▁العمل
▁بهرام
▁Exchange
▁existed
▁تل
Are
▁Organization
کتاب
▁funeral
▁بپردازند
▁چيز
▁nearest
▁profiles
▁phenomenon
▁attacked
▁cyber
commerce
▁Bureau
▁retreat
speed
▁میشن
▁lovers
▁آغوش
▁Freedom
▁حرمت
▁وحش
▁عکسی
▁breach
▁bookmarks
▁يافته
▁lounge
ler
▁87
▁loyalty
▁NOW
▁سکونت
▁ابتکار
▁Kitchen
▁کشورهایی
▁trails
▁ديگران
▁offerings
▁startup
▁شمسی
▁شهاب
▁considerably
▁highway
▁spreading
▁collections
▁Wild
▁finances
▁charm
▁rubber
▁maker
▁معصوم
▁purple
▁میتوانند
▁uniform
▁ببیند
▁لنز
▁inevitable
▁وضوح
▁1390
▁پردازند
▁مار
▁accordingly
▁useless
▁وگرنه
▁deleted
▁paths
▁conferences
▁basket
▁اکسیژن
▁اذعان
▁declined
▁مصاف
▁خنثی
▁hassle
▁cents
▁Ho
▁جستجوگر
▁overwhelmed
▁obtaining
▁آفرین
▁brick
▁Build
▁understands
▁وضعيت
because
▁Amy
▁Event
▁ساعتی
بدون
▁Practice
▁substitute
▁تصميم
▁Avoid
▁اوکراین
▁نتوانسته
face
▁گرگان
▁marry
▁پراکنده
▁Davis
▁بنیادی
▁سالاد
▁مخزن
▁refreshing
▁04
▁fundraising
▁fortune
▁گرفتیم
▁convicted
▁میکردم
▁attraction
▁transit
Man
▁اجزای
▁گرانی
▁analytics
▁controversial
▁quoted
▁69
▁Around
▁Nobody
stop
▁sweat
▁مدینه
▁مادری
▁gang
▁فطر
▁امثال
▁equality
▁فرکانس
ko
▁junior
گو
▁Magic
▁influenced
▁طرحی
▁therapist
▁consciousness
hi
▁cognitive
▁governor
▁worrying
▁انداختن
▁avoided
▁veteran
▁maximize
▁kicked
▁Labour
▁perceived
▁فنجان
▁داوطلب
-5
▁yield
▁ft
▁complications
▁Atlanta
▁cousin
▁strictly
▁pressing
▁Starting
▁اقلام
▁welcomed
▁homeowners
بازی
▁عارضه
▁vegan
▁نظرتان
▁Woman
▁استیل
▁compact
▁29,
▁حیاط
▁Atlantic
▁Image
▁برآورده
pro
▁Paper
▁gray
▁غدیر
▁comparable
▁مجاهدین
▁Quick
▁Awesome
▁بیاورد
▁justify
كه
▁smoothly
▁10,
▁نجفی
▁bless
▁فوتسال
▁appointments
▁قربانیان
▁struggled
▁identical
▁grandmother
▁sentences
▁نشستن
▁mindset
▁stating
▁يکي
▁practicing
▁جک
▁پیکسل
▁مشكل
▁فول
▁جولای
▁bikes
▁burned
▁bare
▁leverage
▁survived
▁صداقت
▁Edition
▁taxi
▁rounds
▁graduation
▁Episode
▁25,
▁tub
▁Fort
▁اقداماتی
▁compromise
-10
آیا
▁آقاي
▁optional
ina
▁calculated
▁Source
▁ندیده
▁آمریکای
▁عواملی
▁Samsung
▁accurately
▁میخواد
▁mailing
▁مسئولیتی
▁physics
▁شصت
▁اعضاء
▁بازده
red
▁partnerships
▁Con
▁على
▁striking
▁فکی
▁آلت
▁Affairs
▁وسیعی
▁ارگان
▁Wilson
▁dealer
21
▁وزیران
▁فلز
▁pasta
▁بابل
▁Win
▁همکار
▁فلزات
▁تفاوتی
▁سازگاری
▁اینک
ship
▁لاتین
▁nurses
▁Pennsylvania
▁novels
▁participated
▁alter
▁هایم
▁essays
▁vegetable
▁exhibit
▁traditions
▁اصولی
now
▁غمگین
▁توبه
▁[1]
▁15%
war
▁Cape
▁durable
▁investor
▁زحمات
▁320
▁defensive
▁Kansas
▁encourages
▁حمایتی
▁اسکریپت
▁علیها
▁Listen
▁فقدان
▁IF
لام
کس
▁toy
▁نازک
▁هرگاه
▁جمهوري
▁خويش
▁travelers
▁thoughtful
▁ولى
آب
▁inclusion
کاری
▁libraries
▁Sweet
▁توییتر
▁recycling
▁showcase
▁optimal
▁console
▁آواز
▁نمیتوانید
▁dried
▁رجوع
▁custody
▁آگوست
▁Flash
▁افتادن
▁generic
▁awkward
▁presenting
▁شلوغ
▁collaborative
▁inclusive
▁imagined
▁قله
اين
▁talents
▁constructed
▁افراطی
شده
▁balcony
▁operates
▁Sadly
▁تهرانی
▁dumb
▁lighter
▁مسائلی
▁adjusted
▁pipe
▁indication
▁promotional
▁Walk
▁همدیگر
▁altogether
▁Dallas
▁بپیوندید
▁compatible
▁نتانیاهو
ex
▁widespread
▁variables
▁امیری
▁محصولی
▁Large
▁submitting
▁reaches
▁Except
▁هواوی
▁vitamins
▁استیضاح
▁urgent
▁broader
▁Same
▁اهميت
▁stranger
▁picks
▁backyard
▁scenarios
▁quilt
▁جنجالی
▁sounded
▁اضطراری
▁آموزشي
▁Jo
▁bay
ba
▁hardest
▁کارتون
▁Truth
▁province
▁affair
▁gambling
▁ISO
▁encouragement
▁مفهومی
▁77
▁tent
▁terrorism
▁ابراهیمی
▁عارف
▁winds
▁counsel
▁1950
▁Link
▁Linux
▁پارلمانی
▁mobility
▁Islamic
▁beings
five
▁ساختاری
▁برداشتن
▁cannabis
▁میتونم
▁مزبور
▁twin
▁نبودند
▁معاینه
▁بشناسید
▁برایشان
▁نشوند
▁قیامت
▁forgive
▁پسند
▁adverse
▁BUT
▁holy
▁پیغام
▁بدلیل
▁liable
▁......
▁78
جنگ
▁الزامی
▁نکنه
▁پایش
▁ربطی
▁generating
▁substances
▁wishing
▁disk
▁gut
▁nasty
وز
▁execute
▁fool
خیلی
▁fever
▁API
▁Jay
▁specify
▁تضعیف
▁بحرانی
بیشتر
▁بندي
▁Questions
▁farming
▁مغذی
view
▁colorful
"،
▁مدیری
▁observation
▁انتظارات
▁apologize
یعنی
▁سمینار
▁updating
▁واجد
▁Finding
▁vendor
▁تراکم
▁screens
▁3.5
▁surroundings
▁suck
▁پیگرد
▁سنگی
▁دیوانه
▁disappeared
▁monster
▁قدری
▁آموزه
▁عجیبی
▁Blood
▁honored
▁significance
▁governance
ster
▁کربن
▁dare
▁albums
▁160
▁الکل
▁jam
▁Luke
▁اسکن
▁wound
▁۴۰۰
▁petition
▁Date
▁notified
▁اعطای
▁neutral
▁2009,
▁اینچ
▁harassment
▁خداحافظی
▁Andy
▁prints
▁خواجه
▁staring
▁stamp
▁تاثیرات
▁خودمون
▁wished
▁بلوک
IT
22
▁دستگاههای
▁بامداد
▁بازدیدکنندگان
▁مقاطع
▁Less
▁حکیم
▁تصادفی
▁رواج
▁راههای
▁firmly
▁زائد
web
▁grain
▁donated
▁عادل
night
▁seniors
▁confidential
▁Mail
▁قرض
باید
ce
▁باهاش
کل
▁psychology
▁غفلت
▁بيماري
▁plates
▁Revenue
▁puzzle
▁Rob
▁توابع
▁haha
▁مظلوم
▁counseling
▁pickup
air
▁seating
▁Whenever
▁ادغام
▁differ
▁cock
▁Sept
▁guilt
▁یی
▁گذاشتند
▁ناشناس
▁مردمان
▁پخته
.00
▁بیفتد
▁pupils
خبر
An
▁ى
▁describing
▁ناتو
▁استعفا
▁ستم
▁£1
▁پلاستیکی
▁چیکار
▁landed
▁شستشو
▁protective
▁sponsored
▁hello
▁سریعتر
Is
▁علمای
▁بالقوه
▁strikes
▁computing
▁Analysis
▁Bowl
▁2008,
▁08
▁respectively
▁مداربسته
▁صدام
▁05
▁companion
▁com
▁82
▁longest
▁sewing
der
▁نوشتم
▁stones
▁پرتو
▁غار
▁organised
▁challenged
▁ديده
▁ranks
▁رسمیت
▁پرینت
Who
▁Matthew
▁Anything
▁struggles
▁برعکس
▁emerged
▁stumbled
▁فرماندهان
▁radical
▁queries
Go
▁minimize
▁behaviors
▁compassion
▁گشته
▁عیسی
▁briefly
▁stack
▁evolved
▁$500
▁graduates
▁سياست
▁عکسهای
owned
چون
تور
▁Complete
▁facial
▁Phil
▁سربازی
▁پیوستن
▁ايراني
▁20,
▁پورتال
▁receives
▁bookmark
▁معضل
(1)
▁measuring
▁grabbed
▁Ensure
although
▁Definitely
▁پشتیبان
▁Additional
وف
▁Direct
▁Bo
▁navigation
کن
▁فراکسیون
▁جرائم
▁مهدوی
▁نامی
▁nerve
له
▁Construction
▁integrate
▁دستم
▁blocked
▁complaining
▁PA
though
▁Gift
▁Tree
▁cabinet
▁Model
▁سفارشی
▁revenues
▁ربط
▁Greece
▁تراکتورسازی
▁تغییری
▁چیزهای
za
▁teaches
▁دستان
▁electronics
▁venues
▁animation
▁ملاک
▁$4
▁Navy
▁Minnesota
▁touching
▁پوشه
▁سئوال
mg
▁رفیق
▁wing
▁Defense
ng
▁assignments
▁ببریم
▁realised
▁delivers
▁رانندگان
▁پروتکل
▁executed
▁ميليون
▁چيزي
▁طالب
▁extract
▁خور
▁scoring
▁پروسه
▁آنهاست
▁tuition
▁terrace
▁epic
▁sword
effective
▁توانيد
▁fitted
▁optimization
▁داشتید
▁captain
▁€
▁Registration
▁باشن
▁خرمشهر
▁distant
▁درسته
▁charts
▁mysterious
▁كن
▁حائز
▁Course
▁برویم
▁خاتمه
driven
▁غالبا
▁مداحی
▁arriving
▁terminal
▁incorporated
▁بزرگراه
▁Ice
▁introducing
▁Solutions
▁خدایی
▁hobby
▁تاپیک
▁Philadelphia
▁titled
▁obstacles
▁Absolutely
▁lip
▁سفت
▁مقصر
▁viable
▁discretion
▁travels
▁Governor
▁defence
▁refugees
▁fleet
▁ملا
▁Server
▁kidney
▁uncertainty
▁وادار
▁طي
▁صفت
▁nodded
▁inquiry
▁علیرغم
▁جن
▁drain
▁بکشد
▁جهادی
▁Gas
play
▁fifty
▁flesh
▁پروردگار
▁Generally
▁جهنم
▁reviewing
▁نظارتی
▁outlined
▁لیمو
▁يافت
▁مستقیما
▁سردرد
ities
▁Pat
شه
▁cleaner
▁underground
▁favour
▁unto
▁organizational
▁بیوگرافی
▁html
▁رویترز
▁dated
▁spite
▁curve
▁تاثیری
▁Growth
▁pretend
▁مدنظر
▁وحشی
▁bake
▁شکستن
▁ارزشی
▁صفات
▁پیری
▁competent
فقط
▁شاغل
▁24,
▁Olympic
▁ابری
▁غذاها
▁پژوهشگاه
▁profound
▁Mayor
گری
▁آنهایی
▁lit
▁pursuing
▁ارسالی
iness
▁undoubtedly
۴۵
ge
▁simultaneously
▁بدیهی
▁necessity
▁یگانه
▁Double
▁ethnic
▁بخیر
▁squad
▁عروسک
▁گلی
▁satisfying
▁غلظت
▁sticking
▁outline
▁Bell
▁Beyond
▁WHAT
▁انصاری
▁تمامي
▁هجوم
▁اسرار
▁eco
▁نمايند
▁مناظره
▁launching
▁threatening
▁restoration
▁blanket
▁stem
اتی
کم
▁06
▁speeds
▁inviting
▁momentum
▁cycling
▁Memorial
▁فانتزی
▁شناسه
")
▁20-
▁وزش
▁elite
▁نتوانست
▁dresses
▁Cash
▁اصیل
▁اندازد
▁circles
very
▁ایفای
▁آره
▁twitter
▁highlighted
▁reliability
▁نوسانات
▁tobacco
▁patio
▁لیلا
▁مجزا
▁فروخته
▁گفتیم
▁internationally
▁bathrooms
▁همچین
▁terror
▁nationwide
▁edges
▁iTunes
▁آرامی
▁Basically
▁بشم
▁مبدل
▁midst
▁ریه
▁floating
▁clouds
▁Ready
▁socks
type
▁texts
▁fatigue
▁Saudi
▁ذات
گي
▁Rick
▁چرخش
▁grief
▁دانستن
va
▁Environment
▁collapse
▁امریکایی
▁theories
▁Grace
▁Works
▁پوشیدن
▁notify
▁بغل
▁Cut
▁poker
▁فرمانداری
▁tropical
▁وار
▁ruled
▁dude
▁rides
▁علاقمندان
▁نمايش
▁seeks
▁hop
سلام
▁WiFi
▁نهاده
▁دلایلی
▁نوک
▁ببینند
▁بدونم
▁mold
▁bacon
▁بیماریهای
▁outlets
%)
▁فیلمبرداری
▁کروم
▁Susan
Of
▁دیجیتالی
▁دمشق
▁suspected
▁روسای
▁reflected
▁commenting
▁2011.
▁مصداق
▁converted
▁Nigeria
▁اتریش
▁dimensions
▁proportion
▁شناسان
۳۵
▁كسب
▁accountable
▁تالاب
▁محاصره
▁disappear
▁Tickets
گروه
▁بیانگر
pa
-4
▁بعدش
▁consistency
کان
▁qualifications
▁Channel
People
▁baked
▁عاملی
پا
▁poorly
▁جابجایی
▁dual
▁evident
▁پدافند
▁Safe
▁organizing
▁Pop
▁5)
▁listings
▁جراح
▁مثبتی
▁herbs
▁مؤسسات
▁جهانگیری
▁مکانیکی
▁deadly
▁backgrounds
▁query
▁گذاري
▁Grant
▁partly
New
▁هیجانی
▁delayed
▁reduces
▁وزرای
email
▁امتحانات
▁آخرت
▁physicians
▁میدانی
▁permits
▁suspended
ber
▁ambitious
▁پیک
▁Seems
▁اهدای
▁hint
▁دي
▁Performance
▁folk
▁wallet
▁sustained
▁قومی
▁ط
▁bubble
▁opponent
▁گنبد
▁humble
▁مالي
▁Lewis
▁stake
▁دشمنی
▁همدلی
▁وکالت
▁بپردازید
▁convey
▁علما
▁thrive
▁دوازده
▁خوابی
▁consecutive
▁bow
▁pit
▁rolls
▁Li
▁ناتوانی
▁cozy
▁اندونزی
▁belly
▁تسریع
▁unfortunate
▁زمستانی
▁translate
▁9-
▁پیدایش
▁Language
▁Mi
▁عصبانی
▁flavors
▁chaos
▁جنسیت
▁iconic
▁integral
▁1999
▁crossing
▁tragedy
▁ودر
▁attendees
▁2020
▁portal
00
▁آسمانی
▁مزه
▁pills
▁sadly
mon
▁دهيد
▁تیمش
▁مختصر
▁convention
▁مناسبات
▁Disease
▁Cool
▁لاغر
▁surveys
میلیون
▁فدرال
oriented
▁بیستم
▁مینی
▁hospitality
▁بارز
▁ultra
▁قاسمی
▁parallel
▁Didn
▁Doing
▁allegations
▁Advanced
▁ابهام
▁anonymous
▁surveillance
▁ingredient
▁استکبار
▁decides
▁nevertheless
▁دانلودی
▁اختيار
▁بگویند
▁schedules
▁فروشندگان
▁Dutch
▁Bitcoin
ney
▁cited
▁Climate
▁monetary
▁سمی
▁صهیونیست
▁sunshine
▁لقب
▁هدر
▁pressed
▁مشکوک
▁کاربردهای
▁عظیمی
▁Golf
▁بانکداری
▁structural
kg
▁variations
▁complimentary
▁خوشبختی
▁توانمند
▁تانک
▁canvas
▁تجارب
▁corners
▁Previous
▁shaped
▁پردازی
خرید
income
▁اینو
19
▁بعضا
▁technically
▁populations
▁بندرعباس
▁suspension
▁Half
▁امیدواری
▁vacuum
▁turkey
dis
▁tendency
▁Ron
.1
era
اک
▁recognised
▁DIY
▁Premier
▁نمایان
▁Discover
▁گردآوری
▁sponsor
▁خلوت
white
▁تونل
»؛
▁طبقات
▁laboratory
▁جسمانی
▁wonders
▁خواندنی
▁descriptions
▁دانا
▁simpler
▁j
▁phrases
▁reservations
ul
▁پوشان
▁ابرو
▁intensity
▁potato
▁عایق
▁kindly
▁Soon
▁Users
▁خطای
▁inexpensive
▁blown
mi
wing
▁غیرمجاز
▁بکنید
▁Empire
▁فلسفی
▁bullet
▁Events
▁15-
▁مسوولان
▁economics
▁رز
▁versatile
▁انار
▁Anna
▁زمانه
▁محرمانه
▁گوییم
▁دندانپزشکی
▁specifications
▁Register
▁صادراتی
▁گردی
▁فراموشی
▁accountability
▁automation
▁manually
▁Reserve
most
▁همگانی
▁تهویه
▁Hand
two
▁preview
▁chapters
▁ذی
▁سازماندهی
▁چابهار
▁intentions
▁legislative
▁اموزش
▁نسیم
▁believing
خدا
96
▁ANY
▁lacking
▁schemes
▁professionally
rate
▁والمسلمین
▁71
▁انتها
▁lap
▁conclusions
دن
▁پاکسازی
▁Judge
▁classified
▁دلت
▁isolated
▁تاریکی
▁Coffee
▁medicines
▁documented
▁احتیاط
▁دامپزشکی
▁متخصصین
▁promptly
▁یلدا
▁Secret
▁وکار
▁فرستاد
▁سازندگان
▁grip
▁کاظم
non
▁separately
▁curiosity
▁noon
▁بازنشسته
▁relaxation
▁قضا
▁quicker
▁democratic
▁recognise
▁swear
▁whereas
▁worthwhile
▁محورهای
▁ذخایر
▁cheapest
▁pros
▁دیشب
▁hilarious
▁۰۱
▁underneath
▁leisure
▁کناره
▁خشن
▁hills
▁Ontario
▁بروزرسانی
tion
▁Sciences
اخبار
▁73
▁independently
▁conflicts
bo
▁ریخت
▁برانگیز
▁آنالیز
▁نکردند
▁بعید
▁دلش
▁Alan
▁Schools
▁cancelled
▁ثروتمند
▁درشت
win
▁searched
▁توفیق
▁بروم
▁Arab
▁غروب
▁USD
▁فتوشاپ
▁puppy
...]
▁نیکی
▁ابی
▁دبستان
▁فراری
▁heroes
▁restored
▁Doesn
▁شال
▁mixing
▁supervision
ID
▁laying
▁سالمندان
▁thumb
▁wines
▁مهمانی
▁Throughout
▁شایعات
▁occupied
”)
▁جنب
▁passport
▁structured
key
ga
▁Clark
é
▁exterior
▁islands
▁genius
▁measurement
▁testimony
▁ميشود
▁Ma
▁کافیست
▁Regional
▁centres
▁کلسترول
▁کری
▁unwanted
▁barrier
▁پشتی
▁۰۸
▁span
▁weakness
▁کیهان
▁spirits
▁بخورید
▁teenagers
▁فریم
▁creature
▁Left
▁Mini
▁Risk
ti
▁ستارگان
▁newer
▁روحانیت
▁جایگزینی
▁separation
▁Culture
▁traveled
▁قایق
rich
▁وجوه
▁Value
▁Ann
▁دردناک
▁ایر
▁trap
▁Inter
▁مکالمه
▁reporters
▁مبارزات
▁districts
▁آموخته
▁Mission
▁alternate
▁HP
▁ماشینی
▁transformed
▁فونت
▁رئیسه
▁adjustments
شب
▁paperwork
▁تشکیلات
▁edited
▁linking
▁معافیت
▁Pinterest
▁Guy
▁thereby
▁metres
▁باریک
▁مون
▁UP
list
▁thesis
▁insane
▁Multi
▁cooler
will
▁میدهند
کند
▁partial
▁سایتهای
▁sixth
▁III
▁درآمدهای
min
▁رساله
▁actress
▁پرتغال
▁Laura
▁Theatre
▁Been
ard
first
▁penalties
▁lifting
▁وا
▁83
▁journalist
دان
▁processor
▁حدس
▁cloth
▁investigations
▁:(
▁۱۳۸۹
▁heated
▁بام
▁شمع
▁سان
king
97
▁Netflix
part
▁علاقمند
▁لینوکس
▁نشونه
▁شاعران
▁critics
▁width
▁patent
اه
▁zip
برنامه
-20
▁عكس
▁توریستی
▁practitioners
▁تبديل
▁chemistry
▁Jr
شرکت
▁قدمت
▁Massachusetts
▁advances
▁bleeding
▁پرفروش
▁bin
▁controlling
ترين
▁sheep
▁رزمی
▁frames
▁ژل
▁pub
▁زیاده
▁witnessed
▁تقلب
▁رادیویی
▁ایا
▁reportedly
▁coin
▁Assistant
تری
▁predicted
▁قاطع
▁(8
▁trainer
▁Band
▁سارا
▁قانع
▁praying
▁عالیه
▁Core
▁ازجمله
▁900
▁(6
▁inflammation
بن
▁constitutional
▁دشواری
▁گوارش
▁singles
▁کاشی
▁نوجوانی
▁Close
▁lands
▁crystal
▁moisture
▁Sub
▁manufactured
▁punch
▁champion
▁grave
▁گوی
▁کمپ
▁imposed
▁وین
▁lifted
▁بانوی
▁تساوی
▁Wisconsin
▁فیفا
▁households
Where
▁اعتراضی
▁borders
▁targeting
▁soda
▁Target
▁composed
vi
▁threads
▁mis
▁پراید
▁كودكان
▁teenager
▁هفتگی
▁شوک
مدل
▁Rachel
▁Iron
▁پيام
▁kingdom
▁Breakfast
▁Apart
▁بیداری
▁Different
▁experiments
▁دریچه
▁Focus
▁Rule
▁Anne
▁whatsoever
▁...)
▁خوشی
▁مستلزم
▁2010.
▁Wish
▁NYC
▁مل
▁اسطوره
▁hunger
▁Drug
▁کو
▁searches
ائی
▁Thailand
▁برپایی
▁nails
▁پرستار
/2
ball
▁Angel
مانند
▁elementary
▁معیارهای
▁guessing
▁intensive
▁pause
▁bucket
▁Mount
▁wasted
▁specially
store
▁بى
▁deficit
cost
▁ایدز
▁عمودی
▁حاتمی
▁crops
▁جابه
▁publisher
▁NOTE
داری
▁صریح
▁activists
▁entrepreneur
▁پايگاه
▁ایی
▁Wonderful
▁ژنتیکی
▁withdrawal
▁sporting
▁hub
▁glimpse
▁Denver
▁Ad
▁بشار
▁vertical
▁Meet
▁Believe
▁1998
▁Di
ating
▁Castle
▁Urban
▁حكومت
▁هالیوود
▁nowadays
▁di
▁hurry
▁روشنی
▁sexually
▁discomfort
▁Rules
▁Inside
▁admire
جا
▁Portland
▁مبل
▁obesity
▁slice
▁sensor
million
▁decorated
▁مناقصه
▁Limited
▁customize
▁airline
▁فیلمنامه
▁mechanisms
▁ریلی
▁newsletters
▁خوبي
▁برسیم
▁پیامدهای
▁جنایات
plus
▁Remove
▁Berlin
▁مندرج
▁merchandise
▁پیوندها
▁کوروش
▁جمال
▁peppers
▁strain
▁اقامه
▁آورید
▁پهن
▁minerals
▁Gary
▁filters
▁recovered
▁(10
▁گیریم
▁locals
▁greenhouse
▁stats
▁الکترونيک
▁mattress
▁ذوق
po
▁۱۵۰
Con
ادامه
▁visibility
▁شاهین
specific
▁racial
▁Corporation
زی
▁powered
▁RE
▁افزارها
▁accessed
▁trains
▁bass
▁exceptions
▁secretary
▁زاهدان
▁Brand
▁محرک
▁Bachelor
watch
▁حریق
▁breakdown
▁pockets
▁شمس
▁شدی
▁سفری
پی
۳۹
▁consumed
▁feeds
▁bi
▁تنفسی
▁ایثارگران
▁surgical
▁Single
▁sofa
▁margin
▁تحقيق
▁بکند
▁VERY
▁burst
▁آسیای
▁پزشكي
▁تزیین
Then
▁gaps
▁هیچگاه
▁دادرسی
۳۳
▁خداست
▁بیکار
▁snap
">
▁Bruce
32
▁پیشتر
▁Fine
▁globally
▁آش
▁observations
▁enterprises
▁ethics
▁پستان
▁promotions
▁wheat
▁outlook
دوست
▁consequence
▁عذرخواهی
فروش
▁گه
▁debris
▁Deep
▁بعضي
▁screaming
▁یزدی
استفاده
▁تعدیل
▁اوت
▁عروق
▁دیدیم
▁پیشرو
▁chef
▁(7)
low
▁remedy
▁اینکار
▁En
▁laughter
▁قوا
▁بسا
▁Duration
▁disclose
▁بيرون
▁لیبی
▁مسلما
▁Hillary
▁tires
▁معتاد
▁decor
▁اقای
▁Scottish
▁weigh
▁آریا
▁خیس
▁داریوش
▁conjunction
▁enthusiastic
▁sheer
▁رزمندگان
▁وال
▁prohibited
ron
▁یكی
▁strangers
▁corresponding
۴۴
▁خودروسازی
▁Caribbean
▁fixing
▁Answer
▁investigating
▁arrives
▁robot
▁awake
▁بزنیم
▁appetite
▁Euro
▁licence
▁broker
▁کارآموزی
▁approve
▁Maria
▁recession
▁تهمت
▁bucks
▁اختیارات
▁گزینش
▁دوگانه
▁معکوس
▁همش
▁شنیدم
▁mud
▁Amendment
▁رب
▁drawings
▁Heaven
▁fried
▁Jon
▁File
▁dietary
▁عبارتی
▁اوپک
▁سده
▁Gallery
▁سوپ
▁fifteen
▁Cold
▁heels
▁گرمی
▁نامزدی
▁تحسین
▁Sweden
▁Medicare
▁summit
▁مشت
▁acknowledged
▁reset
▁انقدر
▁بوش
▁conviction
▁مچ
▁wealthy
▁technicians
▁اطاعت
▁shout
▁Budget
▁معرفي
▁نویسان
▁70%
▁bias
▁سلطنت
▁refrigerator
▁cholesterol
▁heck
▁consensus
▁بردار
▁دستیار
▁clips
▁دردسر
▁لوح
▁صمیمی
▁پذیرفت
▁گور
▁بدهم
▁نوید
▁1389
▁freeze
▁queen
▁appearing
2)
وم
▁attributes
▁دوتا
▁Prior
▁wars
۳۸
▁sustain
۳۶
▁لای
▁Unit
▁اسرائیلی
▁Yep
▁Chi
▁wherein
▁79
▁Stock
▁وقفه
▁ریش
▁غرور
▁abstract
▁فروند
▁consultants
▁اشعه
▁منازل
▁بپرسید
▁rentals
ten
▁طرفه
۳۲
▁$30
▁Phoenix
▁مصوبات
▁crowded
▁پژوهشگر
▁lasted
▁migration
▁jet
▁ملایم
▁فعل
▁verse
▁Islam
▁Sony
too
▁شکوه
ning
▁دانشجويان
▁honesty
▁فرضیه
▁تشكيل
▁اله
▁variation
▁بازنگری
▁incorrect
▁زیرزمینی
▁camps
▁كمتر
▁پاسخگو
▁نخواهیم
▁حسابرسی
▁castle
▁التحصیل
▁چشمگیر
▁belongs
▁Eat
▁آرای
▁مساوی
▁مذاهب
▁کرسی
▁Knowing
▁ناوگان
▁recipient
▁cottage
▁sticks
▁mall
▁researching
▁vaccine
▁Conditions
▁جمشید
▁betting
▁unsure
▁کاسه
یل
▁incentive
▁عمان
▁Interesting
▁harvest
▁نباشه
▁Muslims
▁shore
▁ادم
پیش
▁خلاقانه
▁آمريكا
.......
▁بکارگیری
▁نوشتار
▁دوستش
changing
▁کنيم
▁720
ساله
▁Mix
▁devastating
▁مراد
▁علایم
▁شناور
▁delays
▁خورند
▁پرت
▁Earlier
▁mentor
▁برخورداری
▁Were
یسم
▁Michelle
▁Beauty
▁دستاورد
▁outlet
▁colored
▁sneak
▁Tower
▁هیچی
▁Hence
▁Wedding
ger
▁championship
▁bitter
▁scientist
▁Fresh
▁perspectives
▁واژن
▁شست
کر
▁Detroit
▁كودك
▁Bear
▁تطبیق
▁دموکرات
................
▁overly
▁PHP
▁manufacture
▁coins
▁راهبرد
الی
▁warrant
▁exams
▁خاکی
▁se
▁فاسد
▁releasing
▁حبیب
▁Football
▁مقصود
▁گرديد
▁Commercial
▁افزاید
▁attitudes
▁Emergency
▁تره
▁نتايج
By
▁outer
▁قلمرو
▁Gulf
▁marketers
نفر
▁سروش
تم
▁templates
▁Vancouver
▁advisor
▁microwave
▁Weight
▁مهمتر
▁گله
▁حدودا
▁purely
▁125
▁specialty
▁fires
▁ژانر
▁مدیا
▁switching
▁81
▁borrow
▁کتابهای
▁Indiana
▁ناقص
▁انصراف
▁advocacy
▁ruin
▁خوشم
▁ژنو
▁sunset
▁Marine
23
▁planted
▁یقین
▁مخروطی
▁tv
▁تکثیر
▁سرا
▁Eventually
▁هضم
▁caution
▁palm
▁دیپلم
▁Keeping
صفحه
▁acute
▁بیل
▁detection
▁Fish
▁luxurious
ol
▁برسید
▁jokes
▁tribute
▁کنندگی
▁شهیدان
روی
▁Investment
▁nutritional
وقتی
؟/
▁compound
°
▁زنم
▁قاجار
▁JavaScript
▁forty
born
▁opponents
▁alien
▁توقع
٫
▁مکه
▁Corporate
▁Alliance
▁ونقل
▁Lincoln
▁sellers
▁plumbing
▁cared
▁tweet
▁تضمینی
Be
▁draws
▁چشمی
۵۵
▁سلب
▁incentives
▁enrolled
▁یافتند
kin
▁کشتن
▁Restaurant
▁اقلیت
▁موز
▁گرو
▁contacting
▁owe
▁الگوهای
▁گستر
▁touches
▁گلخانه
▁محو
▁soldier
▁عزم
▁towel
▁debts
▁اینجوری
▁Saint
▁teenage
▁literary
▁builds
ak
▁نمیاد
▁formats
▁fur
شی
▁احضار
Up
نده
▁قشم
▁wallpaper
▁saves
market
▁protocol
▁declare
▁vessels
▁partially
▁فولادی
مثل
▁سین
▁motorcycle
▁محکومیت
▁royal
▁backing
▁bothered
▁Coming
▁unfair
Me
▁modest
▁dies
▁شل
▁jurisdiction
▁bears
▁shelves
▁donors
▁آذرماه
▁advocates
▁withdraw
▁ژنتیک
▁allegedly
ring
▁stepping
▁همایون
▁؟!
▁جواهر
▁communicating
▁عضلانی
▁(7
▁chairman
▁پاور
▁کنوانسیون
▁calculate
٪
▁editorial
▁lobby
▁نوسان
▁Morning
▁والا
▁flooring
▁Pet
▁$6
▁روال
▁wardrobe
▁Gen
▁occurring
▁منتقد
▁faithful
▁subscribers
ny
▁farms
▁بازهم
▁Moore
▁exhausted
▁permanently
▁Sep
▁استحکام
▁قفسه
▁Current
▁jazz
▁آخرين
▁proceeds
▁ناخواسته
ns
▁پسورد
▁ملکه
▁headache
▁negotiate
▁youngest
▁Walking
نظر
ium
▁diving
▁commands
▁scenery
▁پرداختن
▁Pope
▁hurts
▁discovering
▁varieties
▁إ
▁holder
▁خوندم
▁سوئیس
▁بنادر
ئي
▁بخواهند
▁insured
▁seal
▁utilizing
▁متمایز
▁Eye
▁bride
▁مجالس
▁Pan
▁warehouse
▁آسفالت
▁پز
▁فست
▁VA
▁خوابگاه
▁steep
▁pumpkin
▁Iowa
cha
▁celebrity
▁scroll
▁Rate
▁hockey
▁spotted
▁buddy
يا
▁خودرویی
▁Dance
▁شهيد
▁Treatment
▁pools
▁recreational
▁Orleans
blank
▁rally
ايي
▁پادشاهی
▁delicate
▁حقایق
▁Player
▁Cover
▁examined
▁دوستم
▁Editor
▁polite
▁noting
link
▁تایمز
going
▁علیهم
▁parenting
▁ریاض
▁consist
▁نباشند
▁cord
▁بیننده
▁derived
▁فرعی
▁توت
▁boil
▁LinkedIn
▁حفاری
▁Enterprise
▁economies
▁شایان
▁sells
▁dip
▁مفاد
▁جوک
yard
▁مسیحی
▁amendment
۳۴
▁flew
70
▁Josh
▁spokesman
▁ABC
▁2,000
best
▁اکسیدان
▁انتصاب
▁اکسید
▁someday
▁slower
▁clarify
PS
▁شوراهای
▁عصاره
▁60%
▁institutional
▁distribute
▁کارفرما
OR
▁abundance
▁مست
۳۷
▁positively
وان
▁سوگند
▁طبيعي
▁Nor
▁خلیفه
▁هدفمند
▁پرسی
▁دانشمند
name
▁raises
▁obsessed
~
▁sandwich
sen
▁وسيله
▁اصفهانی
▁۳۳
▁دخترش
▁lonely
▁varying
▁Roll
▁breed
▁FDA
▁عمو
▁budgets
▁$200
▁#2
▁كوچك
▁ديدگاه
▁شاهزاده
▁vessel
▁Bio
زمان
▁سهولت
▁باورهای
shop
گفت
▁beaten
▁remarks
si
▁arena
▁میلیاردی
▁مصدق
▁استودیو
▁respondents
▁نامگذاری
▁کهنه
▁modules
▁دانستنی
tic
▁میکرو
▁المسلمین
▁پسرش
▁کباب
▁warmth
▁Inn
ja
▁فراغت
▁نبش
▁هفتمین
▁Voice
▁خو
▁خر
▁ناچار
▁بمباران
متر
▁rack
▁ایثار
▁lettuce
▁صداوسیما
▁Technical
▁participant
▁احادیث
▁زایی
▁willingness
۴۸
▁copper
▁Sex
▁washed
▁پلتفرم
God
▁گزارشات
▁Seven
▁پرتال
▁فشارهای
building
▁چاقو
▁رایزنی
▁forcing
▁Karen
▁جنجال
▁ghost
▁آخوندی
▁lung
▁رایانامه
▁photographers
▁میرم
▁adapted
▁varies
▁autumn
▁مختص
▁بسازید
▁freezer
▁lined
▁booth
▁messaging
▁۱۲۸
TV
▁استادان
▁سوق
▁NC
▁honour
▁1080
▁غ
▁surprises
▁تابستانی
▁گردو
▁مارکت
▁هرچی
▁disc
▁Haven
▁میانی
▁اورجینال
▁Ali
▁Lu
▁رویا
▁ویدیویی
▁Rs
▁Communication
▁آرژانتین
▁controller
▁desperately
▁آلومینیوم
▁checkout
▁آشوب
▁temporarily
▁روى
▁1500
▁infected
▁احراز
▁قریب
▁violations
▁retention
▁عواقب
▁آری
▁hack
▁نهادها
▁Melbourne
▁پالایشگاه
▁بزودی
▁پايه
▁محال
▁Than
▁Collection
▁grandfather
▁بخورد
▁Housing
▁انگور
▁Ltd
▁باخت
▁Ex
رنگ
▁Tri
▁Jennifer
▁cocktail
▁پشتوانه
▁Fed
▁التحصیلان
▁forming
▁tens
▁posters
dy
▁allergies
▁رزومه
▁Consumer
▁ورزشکار
▁سوز
▁بیانات
▁angel
▁سؤالات
▁Front
▁gloves
▁volumes
▁بگذاریم
▁fatal
▁ستایش
▁عالي
وند
!»
▁بخواند
▁serial
▁شمشیر
27
▁offline
▁informal
▁Harvard
▁slept
▁tunnel
▁voluntary
▁shades
▁Heat
▁اصناف
▁customs
▁بالاست
▁خسرو
▁autism
▁حیدری
▁همشهریان
▁3000
▁convincing
▁Maryland
▁unions
▁Industrial
▁renting
▁تولیدکننده
▁temple
▁recruiting
▁Customers
▁مهاجر
▁acids
▁Mine
▁Fill
▁اسیر
▁مجرد
▁interviewed
▁measurements
بو
▁فروشگاهی
▁Faith
▁leap
RE
▁disappointment
▁چشمگیری
▁1-2
▁Spa
▁Rich
▁ویلا
▁Mc
After
▁تاسف
▁2007,
▁lane
▁هرکس
▁بهنام
▁معتقدم
▁محوریت
▁earliest
▁hug
▁Justin
▁محوری
▁witnesses
▁يابد
▁کثیف
▁dignity
▁retire
▁پیکان
▁Battle
▁Hair
▁مولفه
▁delightful
▁renovation
▁Honestly
▁مشخصه
▁diameter
▁sensible
▁enjoyment
▁souls
▁سرود
▁Netherlands
▁آيه
▁گناهان
▁پايين
▁Charlotte
▁امنيت
▁نشه
▁بیایند
▁therapeutic
▁هاشم
▁نیما
▁ترش
▁علوی
▁Success
▁صدمه
▁lightly
يك
▁lecture
▁pursuit
AL
▁رفاهی
Some
▁promoted
▁GM
▁bat
▁خاکستری
▁trapped
▁Soviet
▁$8
grade
▁روبروی
▁lenses
▁۳۲۰
▁optimistic
▁المللي
بل
▁Mars
▁dull
▁ماندگاری
▁adjustment
▁relates
▁sights
other
▁pour
▁angles
▁organ
,''
▁Cal
▁دیجی
▁max
▁Machine
▁Ka
▁پیشبرد
▁۳۶
▁revealing
▁collaborate
▁قوانين
▁بارون
▁eternal
▁مهربانی
▁کتبی
▁Prevention
▁shortage
▁درهم
▁کبیر
▁جعلی
▁BC
▁اعتقادات
▁bloody
▁trace
▁marathon
▁subsection
▁صراحت
▁educators
season
▁Manhattan
▁ناهار
▁Animal
▁clause
▁Palm
▁acted
▁pairs
▁وقف
▁torture
▁اتباع
طراحی
▁میدونم
▁ایست
▁کاره
۴۲
▁ممتاز
▁Mental
▁اتهامات
▁نهفته
▁font
▁Hawaii
▁TIP
▁colleague
▁lengthy
▁wasting
▁لوگو
▁فقیر
▁رسوم
▁تعبیه
▁logistics
▁distinctive
▁Face
▁timeline
▁learnt
▁nightmare
▁Morgan
▁Client
▁switched
▁رجب
▁digging
▁Kennedy
▁Production
▁وصف
▁اردن
▁unclear
▁قراردادی
▁متوالی
bed
▁توقیف
▁سانحه
▁Salt
▁DJ
▁وصول
sex
▁jar
▁pork
▁بیاورید
▁اونها
▁Coach
▁Robin
▁tanks
family
clock
▁رس
▁کاغذی
▁شهریار
▁tragic
▁invaluable
▁undergraduate
▁prone
▁comparing
▁kidding
▁ناجا
▁cakes
▁sucks
▁مودم
▁لاستیک
▁cuisine
▁buses
▁خلافت
▁propose
▁Resort
▁lenders
▁expressing
′′
▁failures
▁سقط
hr
▁چطوری
▁تلگرامی
▁Directors
▁بل
▁تسکین
▁likelihood
▁اوین
▁brains
▁dangers
▁Adobe
▁accidentally
▁vinegar
▁branding
▁Leadership
▁Allen
▁نخواهید
▁محمدعلی
▁assessments
▁اسکان
۴۹
▁بگید
▁کوچولو
▁نفرات
▁۲۰۱۳
▁ترشح
▁survivors
Star
▁شدیدی
▁تیز
[...]
▁commentary
▁مستقيم
▁درواقع
▁weblog
▁rehabilitation
▁میسر
▁بت
▁پرویز
▁نشوید
▁cave
▁بصری
▁قصر
▁divine
!!!!!
▁divide
▁museums
▁ایستادگی
▁گرسنگی
▁Philippines
▁AN
▁spine
شم
▁learners
▁Independent
▁trillion
▁عملكرد
الله
▁Creek
▁بگیره
▁apples
green
▁رژيم
▁کشند
▁خجالت
▁کلانتری
▁ویزیت
▁rushed
▁Strategy
▁گوناگونی
▁اشیاء
▁bearing
▁ONLY
▁Creating
▁Physical
▁آکادمی
▁Brooklyn
▁breeze
▁cons
▁renewed
▁Quite
▁farmer
▁Alice
▁upside
▁وارده
▁arguing
▁MA
▁احیا
▁eastern
▁mercy
▁شجاعت
▁undertake
▁classical
▁catering
▁تجسمی
▁تحرک
▁کرامت
▁whoever
▁knocked
word
▁hints
▁بالاتری
سید
▁protests
▁عمليات
▁کوچکتر
▁flowing
▁اخير
▁criminals
▁tailor
▁مسخره
▁headquarters
▁روکش
▁پیگیر
▁leak
▁سالاری
▁کاملی
فا
▁prisoners
order
▁vet
▁sponsors
▁انساني
▁transfers
▁festive
▁بردارد
▁سرطانی
ek
▁ballot
▁ترغیب
▁دیتا
▁اصالت
▁اپراتور
CO
۴۶
▁Used
▁Tip
▁desirable
risk
▁ماشين
▁سرکه
▁bicycle
▁luggage
▁Emily
▁آهک
▁publishers
▁webpage
▁tempted
▁انتقالات
▁دستمال
▁pursuant
▁نبايد
▁athlete
▁شون
▁هشتاد
check
▁بیایید
▁Apply
▁بردم
▁^
▁اسلامى
▁پاها
▁تله
▁Chicken
▁automotive
▁assumption
▁lending
mer
▁خاك
▁عسکری
▁Knowledge
▁statistical
▁سنندج
▁hated
▁حقيقت
▁Thinking
▁shirts
▁Communications
▁CSS
▁villa
▁undertaking
▁کرک
▁انرژي
nt
▁شوق
▁Shipping
▁گروههای
▁خوشگل
▁Yahoo
▁tenants
▁skirt
▁Costa
▁Revolution
▁درام
▁figuring
▁بستنی
▁نارضایتی
▁شهریه
▁100,000
▁yummy
▁لک
▁توانستیم
ite
▁ساکت
▁اندوه
▁پاسخی
▁Innovation
▁evolving
▁miracle
▁Barack
▁دنباله
▁شهرام
▁بنر
▁sends
▁elaborate
▁اشتباهی
▁ادویه
▁تعريف
▁وحشتناک
▁هنگ
kind
▁quantities
۴۷
▁خشکسالی
قانون
▁valley
▁credibility
▁گفتی
▁porch
▁مکعب
▁تاثير
▁jealous
▁انسجام
▁سهامی
▁sincere
▁اعتدال
▁ناشناخته
▁عکاس
▁pill
▁Neither
▁11.
▁tolerance
ئ
▁كاملا
▁premiums
▁conclude
▁البلاغه
▁logged
▁مدير
▁ران
قیمت
▁قرارگاه
▁reporter
▁24/7
▁smiles
▁میرسد
▁Anthony
▁Moving
▁ضربان
▁فصلی
▁smartphones
gen
▁Mon
▁ink
▁litigation
▁NBA
▁طلاب
under
why
▁ایرانسل
▁Francis
▁Native
▁quarters
▁stadium
▁سعود
▁shifts
ck
▁Intelligence
▁گچ
▁Glass
▁distinction
▁برسانند
▁نکنم
▁binding
▁Xbox
▁شرکتها
▁Summit
▁1388
▁demonstration
▁فرمایند
▁ترمز
گران
▁Metro
▁towels
▁stuffed
▁چیزها
▁comics
▁Howard
▁انگشتان
▁صفوی
▁foam
دم
▁مصارف
▁اواسط
▁coordination
ساز
▁Month
▁حومه
▁warmer
سو
80
▁فرزندش
▁Yoga
▁replies
▁تقی
▁قمری
▁cancellation
▁Aside
▁Lost
▁خارش
▁مزایا
▁Sleep
▁کوره
▁افتتاحیه
▁سیره
▁آسانسور
▁بارندگی
▁سیمای
▁embedded
▁Wine
▁assessed
▁explosion
▁تیک
▁fond
▁Race
ممنون
▁امضاء
▁appropriately
مت
▁بنویسم
▁میدن
▁استایل
▁remotely
▁Snow
▁tire
▁villages
▁داريم
▁lbs
دانشگاه
▁swap
▁sour
▁خلبان
▁Color
▁خوشحالی
▁اطلاق
▁analysts
▁غزل
▁العظمی
▁گرگ
▁stove
▁viral
▁ناامید
▁hooked
▁notable
▁فهمیدم
▁utilized
▁sunlight
▁تومن
something
▁insert
▁machinery
▁Tomorrow
▁بسکتبال
▁tasting
یر
▁Allow
▁خوندن
▁thereof
▁سالیانه
▁Records
▁notifications
رای
▁آفتابی
▁شمارش
۵۶
▁typing
پایان
▁reforms
▁هاش
▁گرمای
▁بيمه
▁دات
▁اعتقادی
▁billing
▁athletic
▁پرینتر
▁surfaces
▁رویایی
▁Ross
▁Chairman
▁administrator
▁توئیتر
▁همانگونه
▁فقهی
▁Thankfully
▁absorb
▁billions
▁veggies
▁flows
▁یگان
▁optimize
▁scheduling
▁Size
▁Whilst
▁vanilla
▁Lo
▁تماشاگران
▁projected
▁associations
▁zones
▁traits
▁دیپلمات
▁1%
▁بصیرت
▁realizing
▁Healthy
▁inappropriate
▁wounded
▁freezing
▁دزفول
▁5000
▁sins
▁دربی
▁triple
▁seminar
▁stainless
▁diagram
▁Fashion
▁بانك
▁PayPal
▁خرما
▁rude
▁indicators
port
▁Congrats
▁Clearly
▁HE
▁واکسن
▁كس
▁lightweight
▁خواهران
▁automobile
▁pillow
▁packs
▁حواس
شدن
▁راستش
▁prompted
▁occupation
▁chase
▁disappointing
▁بازیهای
▁۱۳۸۸
▁mayor
▁نهج
▁تابش
through
▁نصیب
▁گمنام
▁crafts
▁میثم
▁substantially
بد
▁weddings
▁سام
▁Ball
▁Understanding
▁نداری
▁MD
▁Song
▁horizon
▁SMS
▁مبادله
▁rankings
▁حذفی
▁coastal
▁ثالث
▁خودروسازان
▁لاله
"?
▁غذاخوری
▁nonsense
▁expects
▁amended
▁آمیزی
▁محتویات
▁آفرینش
▁Dragon
▁gig
▁کالیفرنیا
▁۰۲
▁اطرافیان
story
▁Ukraine
▁Anderson
▁Greg
▁uploaded
▁کاپیتان
▁واحدی
▁deer
▁equation
▁1997
▁ecosystem
▁تضاد
▁تدارک
▁static
▁سرشناس
▁Thai
▁دزدی
▁Process
▁رقمی
ci
▁reasoning
▁عادلانه
▁فود
▁پيشنهاد
▁یهودی
▁racist
▁fossil
▁هرکدام
▁assisted
▁صرافی
▁guarantees
▁Electric
▁آروم
▁Speed
▁ذرت
سایت
▁ايم
▁تونم
▁ارث
edge
▁BY
▁musician
▁waking
▁eBay
▁Alzheimer
Net
مین
▁مؤمن
▁فناوري
▁فضاي
▁pad
▁تحقیر
/1
▁اسپرت
▁riders
▁glorious
▁influential
▁آنكه
▁تام
▁neighborhoods
▁تهدیدات
29
▁یکسال
▁شیب
▁hormone
▁معضلات
▁LLC
▁امامزاده
▁suspicious
▁hybrid
▁Java
▁سوختگی
جو
▁NHS
▁توش
مهر
▁Survey
▁Basic
26
▁rational
▁همشهری
▁Mid
▁Solar
▁قوای
▁۴۸
▁شاخ
▁scam
▁Dubai
▁chill
▁سعدی
ence
▁expectation
▁ابوالفضل
▁اردوگاه
▁compiled
▁مطب
▁نفرت
▁Olympics
▁considerations
▁تخمین
▁emerge
▁Pass
▁referral
cut
▁Hold
▁نامزدهای
▁باقیمانده
▁Du
▁جین
▁enforce
stone
▁embodiment
▁topped
▁فامیل
▁intuitive
▁lesser
ated
▁آوا
▁Region
▁inclined
▁condo
▁Volume
▁گذراندن
▁شناسند
▁هواپیماهای
▁fireplace
▁حسرت
▁بشریت
▁Text
▁CV
▁SD
▁Poor
▁تکفیری
ژ
▁Payment
▁لشکر
▁portrait
▁Extra
▁assumptions
▁Commissioner
▁اقبال
▁construct
▁evolve
▁آبشار
▁کلم
▁3-4
▁guards
PDF
▁traders
▁missions
▁وجدان
▁آذری
open
▁density
▁Might
▁نیامده
▁تهاجم
۴۳
▁چکار
مي
▁fraction
AP
▁عفو
▁ناشر
▁damaging
▁trim
▁coding
▁توافقی
▁surgeon
▁conspiracy
▁تونه
▁بلندی
▁mineral
▁Touch
▁سایتی
▁Explorer
▁2009.
iv
▁2019.
▁demanded
Thanks
▁Linda
▁openly
▁allergic
▁مهندسان
▁priest
▁pending
▁هو
▁headlines
▁chains
▁renowned
▁باتوجه
▁مروری
▁illnesses
▁screw
▁استثنایی
▁افراط
▁هشتمین
▁تقابل
▁ريزي
▁طلوع
▁مهیا
-6
كار
▁ماژول
▁گوسفند
ـــــ
▁Utah
▁هیچکس
▁میخواهید
ru
▁کویر
▁سلیمان
▁leaf
▁اعراب
▁رازی
بان
mar
▁uncle
▁daunting
▁indicator
▁ملکی
title
▁mushrooms
▁محموله
ising
▁معناست
▁shaking
▁واتس
▁پسته
▁gentleman
▁VPN
▁آراء
pe
چند
▁حیرت
▁گردهمایی
▁خارجي
▁pale
▁Dumpster
▁دیدند
▁میهمان
▁كليه
▁Classic
روش
▁ديد
▁اسمش
▁هراس
▁بنظر
▁تسویه
▁فرآوری
▁charter
▁سرپرستی
▁unhappy
▁keyword
▁perfection
▁خواستگاری
▁انفرادی
▁attach
▁استیشن
▁عصبانیت
▁مسير
▁pipeline
▁nominated
▁تریبون
▁worlds
▁بذر
▁discharge
▁symbols
▁قربان
▁مهریه
▁حماس
لازم
▁simplicity
▁`
▁pharmaceutical
▁سي
half
▁زيبا
خان
▁Chamber
▁قالیباف
▁journalism
▁Jimmy
working
▁influences
workers
▁manages
▁کون
bi
▁داروخانه
▁فرمائید
▁بانو
ware
▁vocal
زا
▁هریک
▁depressed
▁translated
▁خسارات
▁Prize
▁circulation
۵۳
▁Certainly
▁سرماخوردگی
▁زودرس
▁18-
▁حالتی
▁chamber
▁کویت
▁invisible
▁fold
▁ترافیکی
▁زندگى
▁سالیان
▁پایبند
▁مکزیک
▁societies
▁dimension
▁درآمده
▁Commerce
Because
▁مستعد
▁Higher
▁استعفای
▁cinema
▁حصر
▁Nation
▁ترتيب
was
▁AP
۵۸
▁آسيب
▁محضر
▁نگاران
▁رسیدیم
▁افقی
▁عددی
▁siblings
▁تصادفات
طرح
▁racism
▁males
۵۷
▁Stand
▁behave
▁banner
▁gardening
▁goodbye
▁liking
▁relieve
▁تير
▁Schedule
▁headaches
▁licensing
▁diamond
▁nonetheless
▁کوچکترین
▁دقیقی
▁aiming
▁بگه
mile
▁surfing
▁گرامیداشت
▁خیز
▁کود
▁باورنکردنی
▁beverages
▁فضل
▁تبار
▁پنبه
▁peek
▁cosmetic
▁shocking
▁دقيقه
▁bell
▁بسیجی
▁اكنون
▁Alternatively
▁Larry
▁editors
▁Round
▁رویدادها
▁1996
▁مهمانان
۵۴
▁Move
▁دیه
▁Championship
▁<3
ji
▁متعادل
▁مفاصل
fire
▁revised
▁لهستان
▁commitments
▁۹۸
ki
shirts
▁nap
▁نشانگر
▁forests
ial
▁Makes
▁Edge
▁مزرعه
▁Applications
▁idiot
▁Return
TH
▁frankly
▁پرطرفدار
▁مهاجران
”?
▁کشورش
maybe
▁3:
▁kicking
▁devil
▁انتقادی
▁حاد
▁ساندویچ
▁مشروطه
▁arising
▁گان
▁peanut
▁radar
▁عامه
▁aluminum
▁slave
▁gospel
▁منشور
▁liberty
▁هوس
▁کسر
▁proves
▁Casino
حالا
کننده
▁sq
▁اینكه
▁wellbeing
شماره
ors
▁professionalism
▁smallest
▁جرات
▁روایتی
▁اصولگرایان
▁مسیرهای
▁infant
▁questioned
▁blowing
▁بطری
▁وکلای
▁سهامداران
▁پیرو
▁deadlines
bn
▁سرتاسر
▁Palace
▁terrorists
▁Regulation
▁charities
▁securities
space
▁ندهد
▁ye
▁sensors
▁fame
▁نماند
▁planting
▁انعکاس
▁Senator
▁تریلر
▁365
▁لباسشویی
رده
500
▁عینی
▁mounted
▁Jean
▁upgrades
▁sailing
▁(@
▁لثه
▁Vision
▁ابد
▁ارباب
also
▁پری
▁Everybody
▁ایستاد
▁پانل
▁glue
▁رجایی
▁المثل
▁scent
▁utterly
▁تبیان
▁ديدار
▁دوستانی
▁submissions
="_
▁bargain
▁Results
▁نزديك
مردم
▁كاري
▁probability
▁lamp
▁نامش
▁5,000
▁خوار
▁allies
▁courtesy
▁عیار
▁limiting
▁خوردگی
▁بینایی
▁Walker
▁مبارکه
▁decreased
▁Bed
▁همسران
▁halfway
▁خودی
▁وصیت
▁appearances
▁dealers
▁امانت
▁GDP
="
تک
▁جنازه
▁اخر
▁grams
▁ذهنم
▁undertaken
▁insisted
▁عاقبت
▁squeeze
▁Author
.''
▁crown
رم
▁picnic
▁robots
▁گنج
▁اومدم
▁مأموران
▁هایمان
▁drill
▁توحید
▁بخشیدن
▁debit
▁Heritage
▁مایعات
▁syrup
▁continent
▁glow
▁لس
▁Islands
۵۲
▁princess
▁Junior
▁disturbing
chi
▁چاپی
▁battles
▁strongest
century
▁سخنانی
▁furnished
همان
Here
▁اعلامیه
▁prevented
▁گلزار
▁Duke
▁controversy
▁mod
▁نمیکنه
▁cargo
▁clearing
▁socially
▁تورهای
▁بدنبال
▁تراشه
▁دیپلماتیک
▁demonstrates
▁میگوید
▁میگیره
▁Emma
▁اندر
business
▁passive
▁منطبق
▁آمارهای
▁ضلع
▁fulfilling
▁MUST
▁صلوات
▁Alaska
▁Style
▁Barbara
▁(8)
▁sentenced
▁Prices
▁flooding
28
▁Wind
▁روحانیون
▁distracted
▁ranges
▁slots
aka
▁دهانه
▁Chrome
▁نمیشود
▁exotic
▁asthma
وری
▁معلول
▁ample
▁ارکان
وت
ane
▁holders
▁Del
▁mount
▁intriguing
▁bang
▁sanctions
وه
▁متنوعی
▁$7
▁Nearly
▁dismissed
▁remedies
▁معترض
▁مخاطبین
▁ارتفاعات
▁سازمانهای
▁مردها
▁اتو
-8
▁داداش
▁WHO
▁مشی
▁meter
▁interpret
▁verification
▁empower
▁methodology
▁8,
▁organs
▁downloading
▁bachelor
IR
▁بنز
▁metrics
▁سیستمی
▁11-
▁مهد
▁indicating
▁tile
▁renewal
▁grammar
▁هزاره
▁دفعات
▁فروردين
▁باقری
▁مقیم
ology
▁حواشی
▁Patients
▁lid
▁sensitivity
▁تصحیح
دولت
lan
▁countryside
▁تابناک
▁ضایعات
▁گويند
ever
▁نرمال
▁hopeful
▁آلرژی
▁disciplines
▁rage
▁OP
×
▁ثانویه
wise
▁آلی
▁reject
▁abused
▁شخصا
▁Location
▁مصادف
▁urged
▁neglect
▁فنون
▁آمپر
▁aesthetic
big
▁administrators
▁Boys
▁boom
▁Ar
▁فهمید
ping
▁رسيده
▁فستیوال
▁Su
▁shiny
▁improves
94
▁آسایش
۵۹
▁000
▁streams
▁عفونی
هیچ
▁ــ
▁Hills
▁progression
▁Engine
▁خوانند
▁دیوید
▁تعارض
▁بلژیک
▁cow
▁spends
▁میزنه
online
▁Jerusalem
▁عزيز
▁buffet
▁MR
▁overlooked
▁واگن
except
▁محافظه
▁experimental
pre
▁پاشنه
▁اطفال
▁vegetarian
▁counted
▁مأموریت
▁اصطلاحات
▁خلاص
than
▁یاب
▁۹۱
▁دادید
▁برلین
گزارش
▁severely
▁lender
▁realm
▁politically
▁قبیله
▁رئیسی
▁گمشده
▁unprecedented
▁القاعده
▁اتصالات
▁moms
▁barrel
▁explored
▁tutorials
▁scare
▁بردارید
▁دموکراتیک
▁۰۷
▁تهوع
ini
▁assurance
▁insulin
▁Jobs
▁mechanics
▁IRS
▁قاعدگی
▁الم
▁Trying
▁implies
af
۵۱
-15
▁boasts
▁outreach
▁میرود
▁مقر
▁بشنوید
▁Commons
▁شرم
▁Choice
▁environmentally
▁ویا
▁دیواره
▁انحصاری
▁سرفه
▁شتر
▁charitable
fer
▁۷۵
▁سبزوار
▁Springs
▁earthquake
▁cater
▁برروی
Come
▁imperative
▁حلی
▁dominant
▁Offer
▁كوتاه
▁animated
que
▁certificates
▁Maine
▁biology
▁نیستی
Co
▁۱۰۰۰
▁impacted
▁nest
▁سوخته
▁unlock
twitter
▁موثری
▁دوستت
▁PhD
▁دردهای
▁united
▁نر
▁watches
▁Pi
▁نوشابه
▁سیمرغ
▁wipe
▁doubts
▁Diet
▁kits
▁بانی
▁eligibility
▁hyper
▁Mad
▁کلیسای
▁بمانند
▁concerts
▁hygiene
لینک
▁Guard
▁داريد
▁بوت
▁Wikipedia
▁مطبوعاتی
300
▁ونزوئلا
▁sentiment
▁comfortably
▁نتواند
▁خرابی
▁صنعتي
▁taxpayers
full
▁اینجانب
▁toast
▁بازخورد
▁آفت
▁gossip
bad
▁Sport
filled
▁شجاع
▁۵۵
▁گردشگر
▁امیرکبیر
▁---
▁رحمانی
▁مسمومیت
▁retailer
▁absent
ho
ایسنا
▁festivals
Or
▁افتخاری
▁سانتیمتر
▁ايمان
▁polls
media
▁alot
▁دیگ
▁نساجی
▁گجت
▁overhead
ze
200
▁handsome
▁dementia
▁Guess
▁defending
▁پیغمبر
▁یونانی
▁معدل
▁PLEASE
▁پيشرفت
▁Custom
▁Sean
▁crisp
▁اسارت
▁طبیعتا
▁grill
▁آهسته
▁cheer
▁Considering
▁شفر
▁نبودم
▁مشروط
▁جاهای
۴۱
جه
▁lively
live
▁Running
▁Billy
▁Dick
▁1930
▁compliment
▁shifting
▁parade
▁دارین
form
▁sacred
▁پرتقال
▁Alabama
▁170
▁prestigious
▁stance
▁Kit
▁consisting
▁reputable
▁Cheers
▁1920
▁فروپاشی
▁توضیحاتی
▁میدانید
▁ادراری
نمی
▁assists
▁وآله
▁prep
▁نیازمندی
▁Pack
▁shareholders
power
▁blade
▁Oklahoma
▁سلطنتی
▁سرانه
▁2008.
▁ناگفته
▁شناسي
MS
▁شير
▁AR
▁Cleveland
▁hormones
▁eliminated
help
▁coalition
▁برادرش
▁blocking
▁Aid
▁Visa
▁مهرداد
▁Missouri
▁defendant
▁offset
▁بهروز
▁تدابیر
▁spark
▁نكته
▁گیرید
▁شعبان
▁کج
▁مغناطیسی
▁رحیم
▁مش
▁beverage
▁مخابراتی
مثلا
▁namely
▁Carter
▁آمازون
▁evaluated
وال
▁Micro
▁کدهای
▁demographic
▁headline
▁الزامات
▁ايد
▁رحیمی
▁استعدادهای
▁دیدی
▁حالي
▁Jonathan
▁نجومی
▁Movie
▁كيفيت
▁آلود
صلی
▁legend
▁مسیری
▁عجب
▁پلاگین
▁sciences
▁حوالی
▁HOW
▁agrees
▁پرچمدار
▁سوزن
▁promotes
▁نیس
▁جواهرات
▁smells
▁زوجین
▁تبعات
▁بيني
mp
▁ميباشد
▁Strong
▁crowds
▁پنجه
▁Switzerland
▁Tokyo
▁sketch
▁Guest
▁salmon
بری
▁runners
▁کروبی
▁IV
▁algorithm
▁evenings
▁precision
▁handles
▁sorted
▁Rent
▁Military
▁proactive
▁بم
▁enhancing
▁پروفسور
app
▁messy
▁graph
▁Dental
▁rhythm
▁کاراکتر
▁Pink
▁مکارم
▁Federation
▁hats
▁beginner
▁gods
▁صنايع
▁پک
wa
▁Criminal
▁buzz
▁threshold
▁Outside
▁penny
▁cafe
Every
▁1995
▁Kind
▁زنانی
▁Tennessee
▁چیدمان
▁z
▁تسلیحات
▁۶۰۰
▁brutal
▁داخلي
▁architectural
▁حول
Life
▁پارسیان
▁subsequently
▁surf
▁Soul
▁صدد
▁عجله
▁cycles
▁accommodations
▁joints
لین
▁آجر
Note
رز
▁Sri
▁preliminary
▁exercising
▁۱۲۰
▁پسری
▁معابر
▁نيروي
▁questioning
▁Universal
▁مسواک
▁غلات
▁rocket
▁creator
▁Benefits
▁tiles
▁uncertain
▁باهوش
▁Served
▁جانی
سان
▁upgraded
▁2006,
▁Ultimately
▁Edward
▁تونید
▁yearly
▁Steel
▁تلفیق
▁anticipate
▁۳۸
▁troubles
▁appeals
▁mph
▁Princess
Pro
-18
▁Craig
▁وفادار
▁smarter
▁معطوف
▁complained
▁آلزایمر
▁alright
▁beginners
▁deposits
▁تنگه
▁particles
▁بشن
ble
▁behavioral
▁backwards
▁combining
▁فریدون
▁Potter
▁ماهیچه
ig
▁enrollment
▁اوليه
▁کسری
▁underway
▁زر
▁Seeing
▁×
▁450
▁Thing
▁TIME
▁workouts
▁رویم
▁disasters
▁هوشمندانه
▁مرمت
▁scholarships
▁Players
▁کاظمی
▁آزاده
▁showers
▁Barcelona
▁عضله
تاریخ
▁constitution
▁steering
▁attacking
MB
▁مرگبار
▁remembering
▁LCD
han
▁calcium
▁celebrities
▁اسپری
wikipedia
▁آرم
eg
▁recovering
▁روزرسانی
▁premise
▁بنفش
▁assisting
▁Haha
range
▁توکلی
▁expose
▁ولت
▁انس
▁fare
▁Hours
▁pond
▁Lane
Day
اگه
,000
▁رسیدم
▁يافتن
ent
▁نداشتیم
▁Julie
▁تنبیه
▁نوزدهم
▁موازی
▁dump
45
▁مصدومیت
▁Jerry
▁دوخت
▁denial
▁اساسنامه
▁اکثرا
▁defining
▁بازیافت
▁روسری
▁Ph
then
▁دکترای
▁کیم
▁Clear
▁پژوهشکده
▁Arabia
▁diesel
▁ignorance
▁مرتفع
▁بندگان
▁انحصار
▁Ke
▁مضمون
▁موضعی
▁icons
▁starter
▁مزاحم
▁Bus
▁coupons
▁th
▁پهنای
▁waist
▁دزد
NET
▁dial
▁باروری
▁deployment
▁invented
▁برخوردارند
▁نوش
▁مازاد
▁(2013-2018)
▁درصورت
▁bonuses
▁fairy
▁ریاضیات
▁inquiries
▁pencil
▁resistant
▁رزولوشن
▁Highway
▁فیل
▁پیچیدگی
May
▁ارکستر
۹۷
▁امپراتوری
▁vinyl
▁civilian
▁beast
▁runner
▁۲۰۱۲
▁Index
▁fabrics
▁مستر
▁Guardian
▁Own
▁metals
▁تصوير
food
▁قرون
۹۶
▁امکاناتی
▁proving
نیوز
▁رامین
▁females
▁OUT
▁اسکی
▁archive
▁blessings
▁کیت
▁اقا
▁fatty
▁Lovely
▁ممانعت
ification
self
▁سرچشمه
▁Therapy
▁altered
▁Active
▁governing
▁ignoring
▁گلو
▁insist
▁invoice
▁Entertainment
▁حالم
▁شاسی
▁16-
▁پارسال
▁poems
▁بیرجند
▁باربری
-16
▁شورش
▁Transportation
فی
▁مستندات
▁interventions
▁Nowadays
Get
▁disputes
▁decorations
▁energetic
▁Orlando
▁freelance
▁ید
▁Drop
▁بيت
▁Jessica
Time
▁innovations
source
▁تحمیلی
▁distress
▁constraints
▁آزادگان
▁catalog
▁3,000
▁Steven
▁premier
▁Universe
▁simplest
▁regulated
▁GO
▁spotlight
▁competitions
بندی
please
▁gum
▁embarrassed
▁درایو
▁march
▁Rest
▁risky
▁Certificate
▁Palestinian
▁resolutions
DS
▁سالار
▁باطری
▁تلاوت
64
▁فقره
▁کوله
▁رسيدن
▁carriers
▁اتفاقاتی
▁درآورد
▁مرخصی
▁۰۳
▁خوشه
▁stared
CA
▁آنی
▁آیتم
worth
▁Rio
▁تلف
▁complement
▁=)
▁Roger
▁outfits
▁inspirational
▁advertise
▁خاتم
▁گرداند
▁Zone
▁isolation
▁شرب
▁casting
▁نرگس
▁Motor
▁۳۷
▁flies
▁ملزم
▁Highly
▁شکستگی
▁تقوا
▁خاله
▁پررنگ
▁mathematics
▁1.2
شد
▁;-)
▁کا
▁Gordon
▁اميد
▁منی
▁00
▁Corps
▁رييس
▁پازل
▁کاردانی
▁melt
▁Virtual
▁senses
ery
▁ذاتی
▁استارتاپ
▁Response
▁ریالی
▁vague
▁Lab
▁recreation
▁درخشش
▁جات
▁تبریزی
▁مدافعان
▁شويد
▁decorating
▁بپردازیم
▁کارم
▁scholars
▁كلي
▁اسهال
رود
▁کر
▁Christianity
▁کارخانجات
▁Log
▁بیابان
▁bullying
حتی
▁Important
نس
▁الماس
ola
▁Subject
-11
MP
▁میلیمتر
▁Assessment
▁thru
▁volunteering
▁cardiovascular
▁هندوستان
▁grandparents
▁بخشید
▁Lead
▁matched
▁Da
▁Graham
▁سندرم
▁ریختن
▁rope
▁یاس
▁مقدمات
▁تصمیمی
▁lungs
▁FL
▁چيست
▁toddler
▁٢
▁deployed
▁bent
▁پایبندی
▁Standards
▁اتیلن
▁Alexander
▁humanitarian
وار
▁Teacher
social
▁۴۴
▁انديشه
▁credentials
▁tattoo
▁Archives
▁harmony
▁زنبور
▁وگوی
▁زيست
▁yogurt
▁پروازهای
▁خامه
▁انتحاری
▁ego
▁warn
▁shining
▁انعقاد
▁doc
▁بخت
▁كدام
▁torn
▁آنچنان
▁Hunter
▁بمانید
▁gaze
▁مبارز
▁مانیتور
▁compounds
▁1994
▁lining
▁یبوست
▁coupled
▁Beijing
▁firing
▁بکنم
▁arthritis
▁آثاری
▁شرف
▁shorts
▁NASA
▁مونیخ
▁Guests
▁پانزده
▁literacy
▁تحقيقات
▁شاهنامه
▁Map
▁Joy
▁municipal
▁دوز
▁corrupt
▁Malaysia
▁تأخیر
▁jaw
▁1800
case
▁strings
▁عزیزی
door
▁بیوتیک
▁Worth
▁گشایش
▁accessing
▁Born
ES
▁norm
▁Pa
▁دیار
▁bundle
▁RAM
▁Visual
▁illustrate
▁کاذب
▁pipes
▁seafood
▁Connect
▁Arthur
▁شاگرد
▁محصولاتی
▁پوند
▁نم
▁سنگاپور
▁صبا
▁اهتمام
▁expressions
▁Planet
▁عذر
▁موضوعاتی
▁Teaching
▁huh
▁Fantastic
▁Wolf
زندگی
▁متهمان
▁کلامی
▁legendary
▁رویای
▁آنکارا
▁RV
▁columns
▁impose
▁REALLY
مر
▁generosity
▁Jun
/5
▁مسلحانه
▁Political
▁segments
▁نگین
▁مطبوع
▁حكم
▁entertain
▁Fear
▁بیاورند
▁judicial
▁justified
▁insects
▁purse
***
▁غصه
▁traditionally
▁prevents
▁uncommon
▁clay
▁تیروئید
▁Panel
▁پد
info
▁nationally
▁costumes
▁4.5
▁Liverpool
ara
▁NEVER
▁برداري
▁terribly
▁inability
both
▁Break
▁BEST
Free
(2)
▁Metal
▁جنگلی
▁پیشه
▁دریغ
▁sensation
▁sealed
▁معترضان
▁کوهستان
▁دوس
▁illustration
▁سعد
▁توهم
▁تحليل
▁مهندسین
▁Temple
▁ندا
▁suspicion
35
▁fats
▁remainder
▁CPU
▁owning
▁exceptionally
▁spices
▁finishes
▁weaknesses
▁VIP
▁جد
سازمان
▁کوچ
▁علیزاده
▁Brain
▁ladder
▁جزایر
cc
▁باشین
▁زاد
▁rebuild
▁آلاینده
▁جایز
body
▁گلایه
پل
▁Programme
city
شن
▁combinations
600
▁شطرنج
▁سلولی
▁دقایقی
▁Impact
user
▁foundations
▁Statistics
▁tweets
▁Nancy
▁درصدد
▁حیطه
▁magnetic
▁roller
▁پیتزا
▁terrain
▁یهودیان
▁hazardous
مرد
▁اینم
▁username
▁viruses
▁wounds
▁مطالعاتی
▁تشخيص
four
▁Swiss
▁نخستين
▁Resource
▁seminars
ونه
▁Develop
▁آیکون
▁زرین
▁Ability
▁combines
▁celebrations
▁("
▁صادقانه
▁معلق
ٍ
▁wont
▁Poland
▁fascinated
▁banana
▁امتداد
Look
▁multitude
▁Oxford
▁additionally
▁interfere
ِّ
▁Indonesia
▁persistent
▁verbal
▁deserved
یو
شنبه
▁افشای
ura
▁شفا
▁upstairs
▁deliberately
▁ولیعصر
▁Excel
▁renew
▁antibiotics
▁Dating
▁Statement
▁آزادسازی
▁شوهرش
▁Agent
▁payroll
▁speculation
▁Na
▁rainy
▁معمار
فروشگاه
▁adore
▁breasts
▁مکلف
ably
▁معایب
▁دره
▁صدایی
▁چمن
/4
▁مولانا
▁murdered
▁Career
▁cruel
▁Carol
▁سازمانها
▁OUR
▁سوزش
93
▁بهتون
From
99
▁Adult
▁كسى
▁حاملگی
▁بهاره
▁accent
▁اطلاعی
▁mat
▁مديران
▁exceeded
▁حالات
همچنین
▁Falls
ov
دین
▁Cuba
▁Analytics
▁سیف
▁Edit
لطفا
▁martial
▁ناپدید
PC
▁Dis
▁Ko
▁dick
▁مایکل
▁rented
▁اينترنت
▁Phase
▁Brad
▁dominated
▁بغض
\\
▁پهلو
▁اسفندماه
▁نهمین
▁Primary
▁coordinate
▁MBA
▁سلطانی
▁proximity
▁اسراییل
▁توانستم
داد
▁develops
▁۸۵
▁Print
▁acne
▁privately
▁popping
▁Employment
▁Transfer
▁supposedly
gate
▁عرف
▁Kentucky
ps
▁استادیوم
▁منحرف
▁bitch
▁تعویق
▁immense
▁EP
▁شربت
▁grandchildren
▁هافبک
▁injection
▁journals
▁clues
▁Amanda
ita
▁(12
▁زنجانی
▁shoppers
▁نیل
▁Harris
نیا
▁معنایی
▁acquiring
any
▁holistic
▁بدیم
▁Fat
▁polish
quot
▁اسپانیایی
▁مبهم
▁مونده
▁stamps
▁lectures
▁برگزاري
▁خوابیدن
med
▁Tools
▁:))
▁تربيت
▁باشکوه
▁Oscar
▁استمرار
یش
▁publicity
▁آنا
▁SQL
▁سازندگی
▁Giving
▁بيشتري
ok
▁Tonight
▁inbox
▁وسوسه
▁Crown
▁کجای
▁impress
▁Friend
▁dynamics
▁cattle
▁۲۰۱۱
▁hood
▁1387
▁skiing
▁Wonder
▁نرفته
▁پلک
▁CT
▁خواندم
▁Certain
اق
▁عازم
▁gravity
▁Teachers
▁mill
berg
▁حفره
▁swelling
▁Exactly
ix
▁Fitness
▁bull
▁اختتامیه
▁Cambridge
▁Agriculture
▁درنظر
▁hottest
▁merit
▁offence
▁بدنسازی
▁الیاف
▁ازبکستان
▁حسینیه
▁گیرم
مدیریت
▁Chocolate
▁ديگه
▁پنالتی
▁relying
باشد
▁tray
▁Weather
▁Puerto
▁جانبازان
▁donor
▁RT
ارو
▁امیدی
▁VR
▁نمیتونم
▁router
ily
▁۶۵
▁شمرده
▁databases
▁monitored
▁constitute
▁پسرم
▁bases
▁embarrassing
▁ماهیانه
▁غیردولتی
▁خالق
▁آپارات
▁needle
▁tales
88
▁cop
یس
▁جوانه
▁fulfilled
▁recycled
▁hurting
▁gates
▁Rain
▁Merry
▁mortality
▁motivate
▁FROM
▁معیشت
▁نویسم
▁رعايت
▁bizarre
▁Words
▁GP
▁غریبه
▁$40
▁Deal
▁6)
▁منتظری
▁fights
▁playground
▁utilities
▁portions
ren
▁Loved
▁gauge
▁carrots
▁Aaron
▁Skills
▁ایوان
▁جایگاهی
▁سوءاستفاده
▁14-
▁حلق
▁DON
▁آسم
ff
▁افکت
▁سيد
▁Against
▁shadows
▁(9
▁clinics
▁موفقيت
▁محافل
خوش
▁پائین
▁instructors
▁sore
▁lend
▁inevitably
show
▁بیمارستانی
▁blew
▁دنیایی
▁صحيح
▁طاقت
▁Ni
▁foremost
▁آنجلس
▁۲۰۰۰
▁ناسا
▁ارزهای
▁connectivity
▁بهبودی
▁Request
▁هیچوقت
▁قلبم
▁کاربرانی
▁Johnny
ette
around
ella
▁رجوی
▁منظره
▁Russell
▁ناتوان
▁BBQ
▁قرمزی
▁چنگ
▁115
▁payable
▁نیروها
▁Leader
یون
▁planes
▁Ian
▁Income
▁کشاند
▁Mediterranean
▁barn
▁هل
▁سلم
▁Dinner
▁کلاهبرداری
▁افسر
▁rivers
▁Wayne
▁برشمرد
▁Sen
▁کینه
▁پرداختی
▁problematic
▁airports
▁منعکس
▁(18
▁pharmacy
▁collision
▁رویش
▁برنز
▁closure
▁سیتی
▁گروهک
▁parked
▁Gospel
▁فورا
▁مرسوم
▁meta
▁SC
▁ساقه
▁مشهود
▁کلیسا
▁ميدان
▁Reserved
▁exchanges
▁vibe
▁مکتوب
▁جیمز
▁candles
▁۰۶
گرد
▁105
▁ناظران
▁13-
يل
▁triggered
▁استعلام
▁پرسیده
place
▁بدين
▁gem
▁strengthening
▁modes
▁Problem
▁Trail
▁سویا
گا
66
▁judging
کسی
▁رانت
▁chasing
sy
▁positioned
▁اعضاي
▁نظرتون
▁Typically
▁Whole
▁wrist
▁Sugar
▁بلاک
▁ناخودآگاه
▁spice
▁تامين
▁recruit
شاید
▁فوریت
ong
▁Kenya
▁ports
▁yourselves
لر
▁Fred
▁generator
▁masses
▁آگاهانه
▁بلوتوث
▁دال
▁aunt
▁Ya
▁Surely
▁اعلانات
EC
▁[2]
دکتر
▁Bird
▁CRM
▁Jose
▁eliminating
▁خيابان
گیر
▁اثربخشی
▁هستيد
▁براین
▁detected
▁اتم
▁rub
▁جامد
ik
▁اسمارت
▁ham
▁excuses
pay
away
▁یکصد
▁اجبار
▁مشرق
▁Pete
▁وضعیتی
▁بازگشایی
IP
▁storms
▁shallow
▁excluded
▁تنه
▁tenant
▁mandate
رضا
▁نبی
▁میباشند
Even
▁آمدم
▁راد
▁اشیا
▁کشاورز
▁سازش
▁Stage
▁comprehend
▁اردو
▁shuttle
▁نظافت
▁cops
▁blockchain
▁modifications
▁goodies
▁accessibility
▁مریض
▁helmet
▁discounted
▁ترنس
▁(19
▁2005,
▁بهزاد
▁internship
▁Nonetheless
▁broadband
▁positioning
▁فیش
▁sadness
▁perceive
▁prosecution
▁میزنم
sky
▁XP
▁هرات
human
▁lightning
▁کمربند
▁Premium
▁resting
▁صفا
▁Few
▁predictions
▁researcher
▁حراست
▁رویارویی
▁ماجراجویی
▁نزول
▁void
▁miserable
▁نفتکش
▁گیتار
▁qualification
▁bridges
▁طاهری
▁chopped
▁Ideas
▁حکمی
▁کشش
▁۰۴
▁Record
▁حسگر
card
▁۰۰
gar
▁امامان
▁refined
▁cheating
▁کاران
▁Info
IC
حق
▁دونه
hard
▁gene
▁Po
▁adjacent
▁رنو
▁جغرافیا
▁pastor
▁غلامرضا
ai
people
▁securing
▁stretching
▁citizenship
ran
▁فايل
▁amateur
▁شيوه
▁parliament
▁اختیاری
▁هات
▁theoretical
▁comfy
▁ندارن
▁ashamed
92
▁seventh
▁fuels
▁Cooper
take
▁irrelevant
▁doubled
LE
▁dawn
group
▁220
▁prosperity
▁Above
▁bounce
▁dreaming
▁1940
▁considers
▁Bond
▁trustworthy
▁ژنرال
makers
▁شخصيت
▁مزارع
▁یادگار
▁۳۴
▁lifelong
▁جلوگيري
▁۷۰۰
▁Ham
▁تشیع
test
▁Normally
▁Understand
▁پیج
De
▁licenses
▁caffeine
▁(9)
▁blonde
▁civilians
▁landlord
▁WAS
▁Moscow
▁رحلت
▁آوریم
▁elevator
▁پیامبران
▁Letter
▁CC
▁Pen
▁respectful
▁railway
▁کله
▁supermarket
▁feasible
▁قلمداد
▁قهر
▁دانی
▁Membership
▁beats
▁protects
▁exports
ada
▁کودتا
▁rubbish
▁nut
▁ginger
▁زدگی
▁زین
▁ابداع
▁definitions
IN
▁فلج
▁logging
▁آيت
▁آه
selling
▁کارتان
▁arrow
▁Participants
▁اساسي
Love
▁Uber
▁LOT
▁هدايت
▁humidity
▁illustrations
▁سرامیک
▁همراهان
▁911
▁Jake
▁bail
▁Stars
▁salvation
▁slipped
▁فرهادی
▁Hamilton
▁گستره
▁Sheriff
▁performers
▁trafficking
▁trades
وک
▁کارتن
▁imported
▁drum
▁عشایر
▁personalities
▁scandal
▁کابین
▁posed
▁risen
▁کاسته
▁Jamie
▁Picture
▁روضه
▁کوهستانی
▁حیف
▁پتاسیم
▁evaluating
yl
▁cinnamon
▁صابون
▁visually
▁درآمدی
▁فصول
▁Ro
▁تدریجی
▁تنیس
▁salaries
▁عبد
▁Sue
▁خواد
▁GREAT
▁limitation
▁رقبای
yo
▁judgement
esteem
▁ترك
▁requesting
▁عروقی
▁استبداد
eh
▁اسپرم
cause
saving
▁maintains
▁مبتلایان
▁حیث
▁sticky
▁خاشقجی
▁پدری
▁پلان
▁Se
▁Stories
▁streak
کامل
▁موعد
▁تعاریف
ries
▁uncover
▁هویج
▁Brexit
▁mins
▁unpleasant
▁unaware
▁extending
▁Anniversary
▁attachment
▁240
▁succeeded
▁وحی
▁chatting
▁forgiveness
▁ناچیز
▁چمران
▁شنوایی
istic
▁Vitamin
▁منظورم
Great
▁Nelson
▁مزار
▁founding
▁collar
▁Connecticut
▁Brother
▁استعمال
▁طارمی
▁leaning
▁باشيم
make
▁کتک
▁transmitted
▁فرشتگان
800
▁counties
کام
▁تامل
▁popped
▁investigators
▁مصادیق
▁GT
گرایی
▁طوسی
ator
▁سرچ
▁آرامگاه
▁اندرکاران
▁diagnostic
اول
▁Crystal
▁انلاین
▁lineup
here
▁مبلغی
▁دارنده
▁هام
▁extensions
▁سیستمهای
▁overlooking
شاه
بند
▁مجامع
▁advisory
▁بلندمدت
▁هرمز
▁diets
▁وات
▁unhealthy
▁attracting
▁SF
▁envelope
▁thou
▁واژگان
pop
▁اکسپریا
▁lawmakers
▁BIG
oz
▁pussy
▁بابایی
▁architect
▁انصاف
▁roster
▁مومن
09
▁Skin
▁activate
▁خلال
▁explicit
▁تیتراژ
86
▁traded
▁recommends
▁پرستاران
▁rewarded
▁دیداری
▁tangible
▁Delivery
▁پرسیدم
▁dryer
▁تگهای
talk
iest
▁Zero
▁مصیبت
▁pig
▁WOW
▁noticeable
غیر
▁کرایه
▁Late
▁ارزشیابی
▁Katie
▁مراکش
▁Chair
▁sequel
▁منشا
▁Similarly
▁آيات
حال
▁Ring
▁رایحه
▁اوقاف
▁Screen
▁bump
▁Chelsea
▁وفاداری
▁خندوانه
ST
degree
▁receiver
▁بناهای
▁crush
▁شیری
▁Mode
▁بکنند
▁Grade
▁storing
lock
▁جمعیتی
▁یدکی
▁cease
▁Villa
▁voltage
▁نارسایی
▁تونس
قی
يک
▁ببر
▁سرای
▁فني
▁متولی
▁nerves
▁مژه
31
dale
▁Transport
▁Cor
▁بروی
▁فیلترینگ
▁Twenty
▁کارا
▁beers
▁memorial
▁Marvel
▁بسزایی
▁ربوده
▁inherent
▁clearance
▁recordings
▁مخازن
▁الزام
▁metabolism
▁سرنشین
cy
▁builder
▁randomly
▁mo
▁رساني
▁passwords
▁Carl
▁specialize
▁forthcoming
▁زیباتر
▁Equipment
▁reluctant
▁برنا
▁گراد
▁Lower
ap
▁quiz
▁creepy
▁attribute
▁فوتبالیست
▁یازده
▁مجوزهای
his
/10
▁عصب
▁Pain
▁chin
▁شرمنده
تولید
Did
▁culinary
▁rival
▁Hmm
▁promo
▁alignment
▁رهن
▁شکوفایی
▁GET
▁undergo
▁مهناز
▁CNN
▁shifted
▁locks
▁افترا
▁Mill
▁Sat
▁procurement
▁تخمدان
▁اهمیتی
▁feast
vo
▁nomination
▁ریل
▁تلفظ
▁سنتر
ml
▁slavery
▁پرشور
▁outdated
▁accredited
▁grains
▁bend
▁شکایات
▁£2
▁YES
▁creations
▁ضربات
▁rifle
▁Past
▁declaration
▁Masters
▁curb
▁unity
▁investigated
▁لابی
▁سویی
▁indoors
▁کابینت
▁بخشش
▁drone
▁معقول
▁نیمکت
▁عبارات
▁sandwiches
▁stealing
▁مانور
▁statutory
منتشر
▁successes
▁MB
▁relies
▁Syrian
▁Kings
▁ignorant
▁$300
▁Funny
▁endeavor
▁دکترا
▁موس
▁مرادی
▁زمزمه
has
▁میگی
▁جوراب
▁آشتی
▁cab
▁تبعید
▁ma
▁Turkish
▁Programs
▁75%
▁موادی
▁supervisor
▁doses
▁عطا
▁بلک
▁برن
▁اشتیاق
▁steadily
▁cigarettes
▁poses
▁قراره
▁Ted
maker
▁candle
▁Lastly
▁cigarette
▁شستشوی
▁reflecting
400
▁FB
▁Storm
▁حشرات
boy
▁Photos
-13
▁$1,000
▁Photoshop
▁rows
▁driveway
▁phases
تمام
▁sickness
یده
▁ردیابی
▁vocabulary
▁yarn
▁Options
▁administered
بهترین
▁شخصي
-17
▁طبع
▁annoyed
▁Reports
▁۴۲
▁rip
▁haul
▁Rep
▁cherry
▁mi
▁synthetic
▁زیباست
++
su
▁median
▁کربوهیدرات
▁gameplay
▁سموم
▁حیوانی
ino
▁rejection
▁ادا
▁centered
▁lime
proof
▁مدیون
▁اسرع
▁Warren
▁Eating
▁Madison
▁repeating
▁قفس
▁explanations
▁موصل
▁۸۰۰
▁گوشتی
▁Campaign
▁compassionate
▁جنایی
▁براق
▁allocated
▁کتابخوانی
▁spinning
▁گيرند
▁Electronic
▁طالع
▁۲۰۱۰
▁soak
▁پاك
▁Cyber
▁تیغ
▁recalled
▁دماوند
▁صخره
▁Parker
یدن
▁عثمانی
▁pole
phone
▁airlines
▁فرزندتان
▁سیار
▁toes
▁assign
▁wheelchair
▁بخشیده
▁tin
▁Gray
bank
آی
▁سوى
1.
▁Similar
▁disclosed
▁امتحانی
▁respiratory
▁۰۵
▁متغیرهای
▁mentioning
حدود
▁darker
▁نوبخت
▁correction
▁anime
▁clicks
▁Bath
▁بوستان
▁Summary
▁یادت
▁ویژگیهای
▁Relations
▁خسروی
▁ندرت
▁مزد
▁درمی
▁referendum
▁LORD
▁شگفتی
▁حباب
▁Ashley
▁Example
▁slides
▁Helen
▁مقايسه
▁flaws
▁Audio
▁Internal
▁Tab
▁Regular
▁دستگاهی
▁fries
▁ادکلن
▁boarding
▁xx
▁wool
▁slim
fish
▁رقبا
▁خوی
▁المال
▁dialog
health
▁characterized
zi
▁wholesale
▁گوارشی
▁زدگان
▁مثابه
▁committing
▁Speaker
▁نارنجی
shaped
▁Fe
▁توضيح
▁incurred
▁۲۵۰
▁مسلمین
▁تحریف
▁regulate
▁قطبی
▁practitioner
▁understandable
▁مكان
▁ورم
▁لحن
▁fireworks
▁Madrid
▁نيروهاي
▁سهل
▁Plant
front
▁utmost
▁Baltimore
▁Ash
▁غدد
▁(10)
▁Adams
▁endure
▁rounded
▁دهکده
▁hubby
▁Purchase
▁سرکار
▁شرع
▁historically
▁Cream
ab
▁مدلهای
▁checklist
url
▁misleading
▁scripts
san
▁مناطقی
▁لزوما
▁Degree
▁specializes
▁iPod
▁thermal
▁flame
▁Nevada
▁سنا
▁galleries
▁bookings
▁angels
-19
▁1992
▁adhere
▁عدل
▁logs
▁Greater
▁judged
▁معادلات
Okay
کردن
▁جايگاه
▁conveniently
▁elevated
▁دوستداران
▁steak
▁occurrence
▁سعي
▁خونین
▁mega
▁گلدان
▁recipients
▁ماهر
▁Mum
▁scream
▁monsters
▁analytical
▁Knight
▁Antonio
▁civilization
▁dragon
▁Norway
▁oversight
▁زنیم
▁kg
▁expenditure
▁کفر
▁مبین
▁render
▁Firefox
▁کیبورد
▁سیلندر
▁algorithms
▁cautious
▁OH
▁ripped
ade
▁explicitly
▁شوراها
▁capturing
▁obsession
▁المان
▁unforgettable
▁nude
▁شامگاه
▁تاجیکستان
▁امتیازی
ano
know
Have
▁طلبه
▁whispered
▁verified
▁دائما
▁suspects
▁شبی
▁Dogs
▁Grey
▁da
▁Yellow
▁Sara
اون
▁seasoned
▁آنتالیا
-14
Maybe
▁abandon
▁پیشخوان
▁habitat
▁attributed
▁sympathy
▁منه
۹۵
▁پیمانه
01
▁qualifying
▁Cleaning
▁پژوهی
▁Joint
▁دخترم
▁منشی
▁definite
▁هردو
▁ترخیص
▁بعدازظهر
▁twins
▁عشقی
▁Franklin
▁جعل
▁myth
▁illustrated
▁del
▁هستيم
▁روايت
▁عادات
▁توست
▁disruption
ible
▁دسر
▁greens
▁توسل
▁استقامت
▁paradise
فت
▁اخوان
▁shield
ative
▁تحقیقی
▁awe
▁۶۴
▁تراش
▁وداع
▁mistaken
▁activated
▁Buying
▁توافقنامه
▁Train
rio
▁پولدار
▁حتا
▁سخته
▁menus
ker
▁Identify
▁compatibility
COM
▁مود
▁modeling
▁Crime
▁despair
▁باورند
▁tagged
▁brokers
▁ناشي
▁تاريخي
▁Official
▁likewise
▁hatred
▁قابليت
وي
▁شرطی
▁Kindle
▁systematic
▁filming
▁belonging
▁tops
▁defines
▁خواری
three
▁Allah
▁startups
master
▁همگام
▁کردین
▁empathy
▁کریسمس
▁cracked
▁شنود
▁Operations
▁نمایشنامه
▁شعور
▁مع
▁Driving
▁۵۷
▁concentrated
▁ارتکاب
▁زمانیکه
▁footprint
ped
▁Delhi
books
▁examining
▁breathtaking
▁tide
▁ankle
▁heater
▁قدرتی
▁Families
▁آجیل
▁کمونیست
▁Clinical
▁کارگزاران
paced
▁ندیدم
▁hazards
▁خلقت
▁Woods
▁Stewart
▁paragraphs
▁invasion
▁Diamond
▁2007.
▁revolutionary
▁20,000
▁attain
▁انگیزی
▁corrected
▁Fan
par
▁Treasury
eye
▁patches
▁addicted
▁مزایده
▁شکنی
▁scattered
▁Shopping
▁fog
▁mates
▁casinos
▁$9
▁ندای
▁poet
▁موافقم
▁Pittsburgh
▁کارآفرین
▁eh
fat
action
▁غارت
▁clearer
▁زنجیر
▁sounding
▁Economics
▁سروده
ari
▁Wouldn
▁pal
▁Cameron
▁7:30
▁اره
▁constructive
▁بریده
تیم
▁مارکتینگ
▁سریعا
▁Stress
رئیس
design
▁هموار
▁emailed
▁عترت
▁correspondence
OS
▁Liberty
▁نیمسال
شناسی
جهت
▁منعقد
▁Workers
▁باحال
▁digestive
▁stirring
▁جادویی
▁معبد
▁نگارنده
▁rotation
▁طناب
ski
▁kicks
▁شجریان
▁genes
▁تشریفات
▁دلالت
▁Researchers
▁Cards
▁Explore
▁دولتمردان
▁Nintendo
▁سنج
▁defects
▁accomplishments
▁Swedish
▁سهراب
▁tan
▁touring
میلیارد
▁greeted
▁وسواس
▁Notes
▁escaped
▁£3
▁Rice
▁sigh
▁Chat
▁ادای
▁thriving
▁cabinets
▁nursery
▁طبقاتی
▁sighed
▁اعتمادی
▁incoming
▁breeding
▁بازنشر
▁critically
▁Jacob
py
▁stroll
لند
▁rumors
▁pity
▁Skype
▁Keith
▁turnover
▁ماهنامه
حذف
Hi
خیابان
▁ancestors
▁بازدهی
▁Recovery
▁skies
▁نظير
▁گزیده
▁aligned
▁Neil
▁Trek
▁1200
▁Jul
▁کپسول
▁تأثير
ut
33
▁دادی
▁اجناس
نرم
امروز
▁گلاب
▁نمانده
▁binary
▁Terry
زبان
road
▁pulls
▁13.
▁FATF
written
▁CIA
▁جت
▁float
▁کاندیدای
▁invites
▁شریعت
▁fathers
▁Newcastle
▁لمسی
▁Providing
▁Individuals
▁cult
▁skeptical
▁مفیدی
▁insightful
▁Trans
▁دولتي
▁قضات
▁پروستات
▁imaging
▁destroying
▁warnings
▁gel
▁pains
▁scrap
▁ولیعهد
▁AIDS
▁Virgin
▁na
۹۰
▁برسه
▁hype
▁پیرمرد
▁وزیری
▁UI
▁blues
▁rushing
حسن
▁advertised
▁Adventure
▁pc
▁گامی
▁Dublin
▁Into
▁Prepare
far
▁مریخ
▁مقرون
/.../
▁Person
▁Regulations
:11
▁لیکن
▁stimulate
▁nausea
▁تعرض
▁Become
▁اشباع
black
▁(13
▁دیوونه
▁مثانه
▁بازگو
▁1386
▁کان
▁شدیدا
▁stole
▁شديد
▁بازجویی
▁alerts
▁repaired
tel
▁تلاشی
▁ظرفيت
کد
▁الآن
▁sliding
▁gifted
▁assembled
▁adaptation
▁مبادا
▁op
▁توام
▁Partners
▁strips
▁Track
▁lasts
▁٬
▁ضامن
▁accompany
▁tick
▁labeled
▁accompanying
▁BMW
▁نده
▁شهریورماه
▁analyst
▁Interest
▁بهاری
▁رنگارنگ
▁مداری
▁IBM
▁spoon
rated
▁کودتای
▁مروارید
its
▁browsers
عشق
▁تنظيم
▁منافقین
▁Recent
▁activist
▁aspiring
▁حلب
▁Bake
While
▁Reasons
▁ذغال
iran
▁رياست
▁maturity
▁جهانیان
▁crafted
▁برهم
cal
▁weed
▁نویسندگی
▁منش
▁Settings
▁conscience
▁bush
▁pressures
▁هدفی
▁educating
▁crashes
▁اونو
▁مرسدس
▁Original
▁distinguish
▁خادم
▁Jen
▁زار
▁متحمل
▁wax
▁بارانی
think
▁امینی
▁termination
▁غذايي
▁therapies
▁براحتی
▁throws
▁مرکب
ties
▁Tag
NA
▁Oak
▁intact
توان
▁servant
▁٣
▁Col
▁اذان
control
▁discusses
▁غلام
▁modification
▁milestone
▁فضیلت
▁جدیت
▁الحسین
▁header
▁Mel
▁رفتی
▁شانزدهم
▁opted
▁پیشروی
دي
▁crawl
▁configure
▁associates
▁initiated
ang
▁Apr
▁نامشروع
▁Journey
حسین
▁شعارهای
▁خوانید
▁backpack
▁seated
▁هدفون
ding
▁غیرفعال
▁combo
75
▁Pool
▁ناخالص
▁Belgium
▁تطبیقی
▁GB
▁guessed
▁relevance
▁relieved
▁قصاص
▁کوهنوردی
▁cheek
▁fighter
▁ناامیدی
▁loses
▁Managing
▁forefront
▁Spider
▁Danny
▁خواندند
▁دومی
▁caps
▁headphones
▁Chuck
▁شستن
▁بسپارید
▁ابریشم
▁مسئوليت
▁negotiation
▁preserved
▁2%
▁1993
▁زوال
▁بهشون
▁ruined
▁نويسنده
▁Gun
▁دیوارهای
▁جمعيت
▁Baker
▁sync
▁beforehand
▁masters
رۀ
▁گریز
▁practiced
▁melted
//
▁Thompson
▁ژوئیه
▁Indians
▁buck
▁penis
▁نهادینه
▁پایانه
▁Christopher
▁کليک
▁تقصیر
▁لحظاتی
▁تقسيم
ver
MA
▁بخرید
▁ادعاهای
▁شعری
▁Thought
▁guiding
!),
▁افغانی
▁اختلاس
▁سفيد
▁characteristic
▁proudly
▁advertisements
▁تعاملات
▁صدق
▁آمل
▁انشا
▁infinite
share
▁تفحص
powered
▁مراسمی
▁رفتارها
▁توریست
▁GOP
▁گاهي
▁Lol
▁preferably
ow
▁فقرات
▁خیار
▁installations
▁خرس
left
▁freshly
بود
profile
▁DS
▁مملو
▁spicy
▁drought
▁تبعیت
▁نروژ
▁stiff
unless
▁friendships
▁dreamed
▁توانبخشی
▁کوثر
oc
▁زی
▁brake
▁Hurricane
▁نیجریه
▁روید
▁وبا
▁امكانات
مند
▁wander
▁انزلی
()
▁Clinic
▁restrict
▁dislike
▁wandering
▁Brothers
▁شبهه
▁کمرنگ
▁Rev
▁instrumental
▁نیو
▁Base
▁بکر
▁امیرالمؤمنین
▁climbed
▁sums
▁Spend
▁voter
وش
▁crashed
▁حمیدرضا
▁cluster
▁highlighting
▁Interested
rock
▁crude
▁ول
▁calculations
jo
▁فیلد
▁6:30
▁Albert
67
▁hugely
▁oriented
▁lottery
▁``
▁فرآیندهای
▁chickens
▁ناکام
▁مسافت
table
▁pledge
az
▁چنانکه
▁analyzing
▁intentionally
▁neighbours
▁zoom
▁abusive
▁[00
▁اسحاق
▁snake
▁میهمانان
▁8:30
▁نقاله
▁circumstance
▁استور
▁فراهانی
▁موردنظر
▁affection
▁unfamiliar
▁نماييد
کش
oldid
▁mighty
▁Democrat
▁Liz
▁SE
▁SA
▁offshore
▁asylum
▁قبرس
▁backdrop
▁align
▁cartoon
▁trainers
▁jack
▁fines
▁shrimp
▁تسخیر
▁Photography
▁laughs
▁weights
▁Putin
▁Growing
▁یکسری
91
▁Ground
▁الهي
bound
▁بخشهای
رس
▁adopting
▁مشتاق
▁آملی
▁فرزاد
▁propaganda
▁ولایتی
ابی
▁نفی
▁noble
▁Supply
▁calculation
▁hurricane
▁خواهيم
▁احترامی
▁Lucy
▁دانستم
▁پانزدهم
ula
▁تلخی
▁Yo
▁دهمین
▁grilled
▁غذاهایی
زد
▁aids
▁$12
▁سجده
▁Sandy
▁نشستی
▁آرایشگاه
▁مؤمنان
واحد
▁خال
▁عرفانی
iii
▁tightly
▁شایستگی
▁پلاسکو
music
▁LG
▁آف
▁میتونی
▁پیشانی
▁stretched
▁مسن
مطالعه
▁یونسکو
▁نشدم
▁نواز
▁Val
▁آشفته
▁getaway
▁جیم
▁proposition
▁retained
▁تناقض
▁Naturally
▁چو
▁سعیدی
▁Academic
▁credible
▁Behind
▁rises
▁Ca
▁fixes
▁مشترك
▁رأس
▁Million
▁classrooms
▁believers
▁euros
▁ژورنال
▁بفرستید
▁قزاقستان
▁حسنی
▁quarterly
▁salon
▁playoffs
▁میگفت
▁تصویربرداری
▁wears
▁alumni
▁Uncle
▁deputy
▁Fourth
ens
▁مشابهی
▁metro
▁cheat
▁لیتری
▁Built
▁دنا
▁الهى
▁ارزنده
▁درخواستی
▁جغرافیای
built
office
▁انسولین
▁شنیدنی
lu
▁litter
▁apologies
▁اشکالی
▁cracks
▁2004,
▁3.0
▁ideally
▁درسال
▁شفاهی
▁مابقی
▁اشغالی
جدید
▁ميشه
▁ميليارد
▁dioxide
▁negotiating
▁باراک
▁بایرن
▁mindful
▁ساختارهای
▁Portugal
▁laptops
▁notably
▁دارندگان
▁نامحدود
value
▁1/4
▁crust
▁uh
▁پیانو
▁طلبد
▁monitors
▁euro
▁Birmingham
▁toss
▁Waste
▁دبستانی
▁indigenous
▁ادرس
▁پکن
▁Competition
▁mankind
▁Southeast
▁پیمانکار
▁helicopter
َّ
▁دگرگون
▁نیازها
▁servants
▁humour
▁اسماعیلی
▁Doug
▁تقلبی
▁decorate
▁Stadium
▁$10,000
▁سرب
▁ناکامی
▁id
▁Healthcare
▁توالت
▁سودمند
▁plugins
▁rigorous
ians
▁Firstly
▁commerce
---
چر
▁Designed
▁چهارچوب
▁surge
▁هوشیاری
▁ritual
normal
▁جنسیتی
▁Address
DC
▁بنیادین
▁المقدس
▁بتنی
▁disable
▁flags
▁lakes
▁surviving
▁لغات
oo
▁neglected
▁rep
▁cables
▁knitting
▁tempting
▁soy
▁تشنه
رین
ph
▁افطار
OK
ending
▁کوک
▁certainty
▁oz
▁destructive
growing
▁بدر
ung
▁هرکسی
lee
▁Lodge
▁روزافزون
▁overweight
▁technician
▁fax
▁رام
▁adequately
▁امامی
▁محلات
via
▁آزمایشات
▁Dawn
▁9/11
▁هائی
▁Effective
▁مونتاژ
▁Loss
▁flavour
▁insulation
cast
▁AD
▁ناو
▁مخارج
▁cage
تنها
file
▁نامند
▁Wright
▁منزله
▁سرزنش
▁سیا
▁میخوای
▁registering
▁doll
چهارشنبه
▁کفایت
▁selfish
▁شناسد
▁اسبق
▁amendments
▁مترمربع
▁announcements
▁roasted
▁نماينده
▁تزئین
▁مکانیزم
▁یادش
▁سانچی
▁Roy
▁Charter
▁رهبري
▁silk
▁ابزارها
▁اینطوری
▁umbrella
▁مجاری
▁homeowner
▁الن
▁authorization
▁opera
▁copied
▁مولد
▁وجودی
▁دانشگاهها
▁گمرکی
ني
▁contributes
▁kills
tax
▁نوبل
▁افتادم
▁Canadians
▁متخلف
▁tidy
▁ذهاب
▁همانا
▁بخشي
▁گروگان
▁viewer
▁Perry
▁بز
▁بایت
▁Circle
▁pleasing
▁glucose
!؟
▁sci
▁مسوول
▁diary
▁مختل
▁roofing
ارد
▁یهود
........
▁cocktails
▁دقيق
▁Traffic
▁جابجا
▁Experts
▁advisors
▁origins
▁assessing
▁محتوایی
▁ارگ
▁tactic
تعداد
▁anticipation
▁connects
learning
▁optical
▁آخرش
▁بگیری
▁eleven
▁پربیننده
▁magnitude
Like
▁dense
▁farther
Mo
▁Opera
aged
/8
▁civic
▁Employees
▁ناآرامی
▁Mississippi
▁enters
▁pest
▁سورس
▁مهندسي
▁اهانت
▁متکی
▁Individual
▁fragile
▁tense
▁دادستانی
▁enthusiasts
▁مور
▁شبستان
▁واحدها
▁تفرقه
89
▁preservation
▁advancement
▁storytelling
▁معاونان
▁Oliver
▁پالایش
▁معاف
▁tribe
مرگ
▁تأثیرگذار
▁Barry
▁competitor
▁Sa
▁کمکم
▁mac
▁albeit
▁NBC
▁Marie
▁Centers
▁اد
▁allergy
▁sponsorship
▁Steps
▁Kyle
▁sh
تل
▁detention
رات
▁notebook
▁Task
▁Block
▁sexuality
▁daylight
▁BTW
▁Door
▁Sustainable
▁determines
▁Depression
▁منوط
▁predictable
▁Away
▁بسازد
▁خارق
▁ribbon
▁Ga
▁Multiple
▁مداد
max
▁lookout
▁موتورسیکلت
nbsp
▁تویوتا
▁17-
yahoo
▁Fu
tan
▁تربت
▁graduating
▁accelerate
▁wonderfully
▁intersection
▁1991
▁aviation
▁Leo
cat
▁التماس
▁القا
▁مطلوبی
▁webinar
▁وظيفه
▁یوتیوب
economic
▁بيست
▁reminding
▁Choosing
مد
▁tissues
▁میکروب
ju
▁McDonald
▁شأن
▁استعمار
▁sang
▁ambition
▁هفدهم
▁Needless
▁gesture
▁بجز
▁هرحال
▁bullshit
▁متفرقه
▁extensively
▁buddies
▁Opening
▁WA
▁GOOD
▁Louisiana
elle
▁accomplishment
▁Hour
▁كشورهاي
▁suites
▁Drink
▁Workshop
▁انجامد
اله
▁confidentiality
▁كساني
▁بوس
▁comprised
▁پدران
▁عفاف
▁Honor
▁عين
▁troubled
▁compromised
▁شوهرم
▁sweater
▁absorbed
▁Ban
▁پایینی
▁کاوه
▁Medicaid
▁کهکشان
▁جلوتر
girl
▁آوردم
▁میادین
▁renovated
نور
▁رابرت
▁Daddy
▁Buffalo
▁Jeremy
▁تتلو
▁subjected
▁notices
▁افتخارات
▁Ra
▁Foods
▁linear
▁herein
دختر
▁refugee
▁Edinburgh
▁قوس
▁Bi
▁تومور
▁Parks
▁Theory
▁صورتي
▁Steam
▁Cultural
آل
▁awaiting
▁amazingly
second
▁deploy
▁خير
▁spy
▁comprises
thank
▁archives
▁کارشان
▁trunk
▁antique
▁studios
▁mapping
▁rug
▁همۀ
▁خطری
▁Heather
▁ويژگي
▁favorable
▁sturdy
▁opposing
▁compelled
▁fork
▁زائر
▁Election
▁معدود
▁lesbian
▁leaned
▁Movement
▁مین
▁sufficiently
▁رادیکال
▁quo
▁نوازنده
▁Won
زه
▁Marriage
▁فحش
▁مواظب
▁KNOW
▁بهمراه
▁Examples
▁CS
68
قابل
▁virtue
▁sincerely
hole
▁intervals
▁Session
بال
ورا
▁مثلث
▁آشامیدنی
▁excel
▁پوکی
▁dishwasher
eth
▁تحریر
▁معنویت
▁اتوماسیون
▁prolonged
▁شاکی
▁مغایر
▁Lucky
▁9:00
▁اینتر
▁terrifying
▁Ku
▁Evil
▁تخصصي
▁inadequate
▁تفت
▁similarly
▁revenge
-30
▁Version
زر
▁duck
code
▁مسالمت
▁Chef
▁traumatic
▁Va
▁Blu
▁خیالی
▁timber
▁پوشی
:19
▁advertisement
▁دخیل
62
▁تونی
▁جلیلی
▁Kid
▁طیور
▁خبرآنلاین
▁commodity
▁Talking
▁formally
▁ناسالم
▁Loan
▁تیغه
▁مضاعف
ena
▁downside
▁owns
▁newborn
▁نمرات
▁دهها
▁صمیمانه
يس
▁bra
standing
▁ولايت
▁Cons
▁starters
▁drying
▁unbelievable
▁توصيه
▁inhabitants
▁SP
▁obliged
▁OFF
▁downloads
natural
▁dragged
▁sodium
▁Testament
▁Amsterdam
▁mentions
▁configured
▁بتوانم
ify
▁valve
itis
▁ث
▁لهجه
▁ناشران
▁dashboard
▁economical
▁مسافربری
▁poured
▁کشیدند
▁hometown
▁Failure
writing
▁Kent
▁تحصيل
▁دیابتی
great
▁kilometers
pin
▁sleeve
▁چانه
used
▁اسیدهای
▁Toyota
▁roast
▁شهريور
▁tri
▁Issue
▁crafting
شا
▁displaying
First
▁costing
founder
▁لطمه
▁معلولان
▁اتکا
▁pilots
▁impressions
▁balancing
:25
▁pine
▁بهایی
▁میانمار
▁کوچیک
▁شارژر
▁handmade
▁circular
▁یاهو
▁کاتالوگ
▁فریزر
▁خبره
▁confess
▁گذراند
▁ایرج
▁بیهوده
tin
▁settling
▁رساندند
▁١
▁hazard
▁ثواب
▁sampling
▁----
▁مولوی
▁malware
▁allocation
▁taxpayer
رن
▁tolerate
▁coloring
▁بکنیم
▁epidemic
▁pads
▁wives
▁کسى
▁منفعت
▁دن
ير
▁مزاج
▁الحاق
▁paired
▁queue
▁مشروعیت
▁تندیس
▁Plans
▁شیائومی
▁exempt
سل
▁کمان
▁trademark
شبکه
▁ICT
▁نمیکنم
▁squash
▁interrupted
▁defeated
▁بشویید
▁refresh
▁شونده
▁incorporating
▁تصدی
br
▁insurers
▁Setting
▁لبنیات
▁تعصب
▁نگیرد
▁پذيرش
La
▁Shadow
ونی
▁denying
▁95%
▁سرويس
▁Ghost
▁installment
-7
handed
▁posture
▁واز
▁clicked
▁politician
▁illusion
▁كنندگان
▁زنجبیل
▁لوبیا
▁performs
▁ژله
▁Batman
...»
▁Veterans
▁committees
{
▁Margaret
▁خیرین
▁professors
▁بتونم
▁interacting
▁فرج
▁Douglas
▁داوود
▁stare
PA
▁proteins
▁anchor
▁tract
برگ
▁scrutiny
▁wilderness
start
▁انجامید
▁Includes
▁Strategic
نر
▁mileage
▁تك
▁دربار
▁zoo
▁نادری
▁Guys
▁فعالین
▁Julia
▁Added
آقای
ینی
▁transported
▁builders
▁Found
ERS
▁غده
▁نیشابور
▁mentality
▁نسب
▁جنتی
▁airplane
▁بزنی
without
▁آیپد
▁interference
▁thy
▁Penn
▁بزنه
▁foul
▁emergencies
-25
▁whip
▁intentional
▁Tap
▁severity
▁کلینتون
▁توانی
▁grin
▁نگری
▁privileged
▁Duty
▁provincial
▁تقاطع
▁overtime
▁ندهند
▁Cafe
▁Denmark
▁justification
▁وزرا
dimensional
▁medal
▁Gardens
65
▁Exercise
▁extends
▁مرغوب
▁disciples
ass
▁accepts
▁tee
▁۳۹
▁الحسنه
▁domains
5,000
GA
▁Tiger
▁Han
▁تبع
▁landscapes
▁سرفصل
▁زاگرس
▁emphasize
▁چين
▁تفنگ
▁كمي
▁armor
▁fade
69
▁imply
▁نامید
▁myriad
▁Lot
▁میلان
▁مغرب
▁چهاردهم
che
▁boiler
▁سیاوش
▁tasted
▁developmental
▁brighter
mann
▁سدیم
▁periodically
▁snapped
soft
▁102
▁burns
▁Suite
John
▁آموخت
▁necklace
▁کاپ
AS
▁Homes
▁کاوش
▁encryption
▁نزاع
text
▁dash
cho
come
▁creators
put
هی
▁المپیاد
▁youtube
▁__
▁شراب
▁Asked
▁تایم
▁پره
▁scanning
افزایش
▁کوی
▁عمارت
▁فارسي
▁Horse
▁Representatives
:05
▁ناباروری
▁شبهات
▁Beth
▁اجماع
thanks
▁2003,
▁لعنت
▁سفارشات
▁رسانند
ris
country
▁سیزده
▁یمنی
▁بگذار
▁۱۳۸۷
▁حزبی
▁فردای
▁Essay
▁لااقل
▁مانی
▁Wear
▁hourly
▁Switch
▁Generation
▁slowing
▁spinach
توسط
▁Ridge
▁allowance
▁آم
▁مرزها
pers
▁exploit
▁infants
▁لرزش
▁advertisers
▁academics
▁دویدن
▁هندوانه
▁افشا
▁arguably
▁absurd
▁abundant
▁Cell
اور
▁Nu
▁routines
▁خوبم
▁برندگان
▁دنیاست
▁بعلاوه
▁تمایز
▁lord
▁مردادماه
▁Bluetooth
▁belongings
▁Mario
▁securely
▁جریانات
▁دانمارک
زیر
▁اعطا
▁Hunt
▁poison
▁سیزدهم
▁bust
▁UV
▁Items
▁genres
ارسال
▁Ave
▁پرستی
▁بخاری
▁mathematical
▁rendered
▁counterparts
▁بقای
▁علف
▁1900
Ah
▁پاسخنامه
▁$150
▁testosterone
tor
▁License
mark
▁خشك
▁upgrading
▁crushed
▁معانی
▁recurring
ري
▁دوبار
▁inequality
▁BB
▁خلیل
ata
▁کلیات
▁رژه
▁ريشه
▁illustrates
▁shaping
▁geared
▁Storage
▁مشروع
▁cellular
چین
▁negligence
▁سياه
▁planner
▁deceased
▁MI
ME
tag
▁وجو
▁متد
▁اج
▁اقلیمی
▁آموختگان
▁£5
▁حصول
▁روزبه
▁Broadway
جر
▁inconvenience
▁مأمور
▁مراكز
▁Ver
▁نارگیل
▁packet
▁راحل
▁aliens
▁کماکان
▁toxins
▁announcing
▁متقاعد
▁Speak
▁شاهرود
:13
▁cough
▁oppose
▁عتبات
خوب
.99
▁مسیحیت
▁mornings
DA
▁Pictures
▁cement
▁نهادی
▁heights
▁Ultimate
▁Claire
▁یادمان
▁wires
▁Upper
▁متعارف
▁inserted
▁رویت
ثبت
▁Advice
▁transplant
▁Grab
▁profitability
▁parental
▁Yay
آباد
▁زندگیم
▁تماشاگر
داستان
▁distinguished
▁diagnose
▁Lawrence
▁organise
▁Collins
▁seamless
▁mint
▁کاریکاتور
▁AA
amp
▁آزادي
▁gasoline
▁Activities
▁Suddenly
ez
▁مدفوع
▁Forget
▁vaccines
▁انسانیت
▁حراج
▁CBD
▁نیکو
▁Sand
▁verdict
▁bombs
▁OMG
▁آستین
▁recommending
▁750
▁ارجمند
ks
▁demonstrating
▁رمانتیک
▁تالیف
▁realization
جامعه
▁اکسل
سری
▁resilience
▁travelled
▁explores
▁lodge
▁travellers
▁unemployed
▁بها
▁hackers
برچسب
stage
lasting
lol
▁hips
▁))
▁bites
▁arises
▁مغایرت
يده
▁darling
had
▁inspect
▁yeast
▁Victorian
▁undergoing
▁Expect
▁ادراک
▁accustomed
▁ویروسی
▁چلسی
▁Mama
▁اینصورت
▁منظومه
▁نمایم
▁استیون
▁Iranian
▁Message
▁مبالغ
▁Match
▁reunion
▁steer
▁داود
▁twisted
▁4:
▁exhibits
▁پسرانه
▁entertained
▁Murray
▁Jenny
▁صادره
▁Deputy
▁imagery
سم
▁mechanic
▁counselor
Most
▁Mag
▁خانی
▁admissions
safe
▁کارفرمایان
third
▁تقويت
▁رزمایش
▁پارامترهای
▁متلب
▁rider
▁protocols
▁boutique
▁تقریبی
▁بانکها
▁prototype
▁vulnerability
▁گنجینه
▁رنگین
▁ویران
▁کودکانه
▁Holidays
▁missile
▁Partner
:50
▁مصری
سیستم
▁Taiwan
لان
▁دورهمی
▁بینش
▁architects
▁مگاپیکسلی
▁1385
▁روت
▁قران
▁Secondly
▁distraction
▁additions
▁mentoring
look
▁Said
Right
▁threaten
▁Period
ستر
▁Argentina
▁cows
▁مچی
▁نصرالله
▁گوهر
core
▁Bright
▁referrals
▁rap
▁خوردم
▁grind
▁اشتها
▁بخوانند
▁routinely
▁FM
▁horizontal
▁homepage
▁تراکنش
:18
▁Yu
▁عاشقی
▁outright
▁cache
▁transforming
▁Dakota
▁apology
▁sausage
▁staple
lie
▁weighing
▁congratulations
square
▁jungle
▁cryptocurrency
▁مفيد
▁شهري
▁parish
▁biking
▁burger
▁Wal
▁تخیلی
▁کافیه
ero
دریافت
▁affiliated
▁بیچاره
▁notch
bin
▁religions
data
▁Lauren
▁8:00
▁pouring
▁knit
▁اصابت
▁prevalent
▁amusing
▁سپهر
عی
▁Related
▁پیامکی
▁obstacle
▁resorts
▁رستم
ala
▁برکنار
▁chic
▁کنش
▁tabs
▁رسوب
▁Rooms
▁Polish
▁empowered
▁chunk
▁گیج
▁negatively
▁گیره
ky
▁Cole
▁درك
ging
▁صبور
▁کما
▁Increase
▁صید
▁refusing
▁ارگانیک
▁اعلان
▁Te
▁10:00
▁wrapping
pack
▁نشدند
▁عبادی
SE
▁caregivers
plan
▁اينها
▁جنرال
▁VAT
▁verses
▁Fame
▁Twin
آنها
▁ضخیم
▁تحکیم
▁rendering
public
▁Organic
▁sail
▁fucked
▁Gates
▁freak
▁عقلی
▁بگی
▁ازاین
▁disappoint
▁پرداز
▁Changes
▁enroll
▁creamy
Very
▁Nutrition
▁نگو
▁Contract
▁amid
▁incomplete
rie
▁مری
▁lowered
▁revision
▁Northwest
▁25-
▁گرسنه
▁منشأ
▁utter
▁واقعي
000
▁ET
▁Harvey
▁1988
▁50,000
▁نورانی
▁adjusting
▁Graduate
▁اکبری
▁barbecue
▁رايگان
▁fellowship
▁جايي
▁میت
یار
▁خش
▁eighth
▁مدیترانه
▁Marshall
:23
▁diligence
▁shipment
▁slaves
▁بازمی
▁سرشماری
▁breastfeeding
▁admits
▁aboard
du
▁Introduction
▁Hampshire
▁آخری
▁tenure
▁سپر
▁دیدگان
جدول
▁darn
▁سلبریتی
▁explosive
▁خوبتون
▁هارو
مادر
▁deliberate
usually
▁herbal
-21
▁نیازمندیم
▁economically
الزامی
▁Brussels
▁دردی
▁پاسارگاد
▁گچساران
▁GA
▁خوشبخت
▁MC
▁بیعت
:1
▁اجرايي
▁امدادی
▁caption
اره
BA
)؛
▁افسرده
▁Philip
▁سالمند
▁Walmart
▁hostile
▁3%
700
▁bandwidth
▁بگيرد
▁iphone
▁سانتیگراد
-9
FA
▁Pure
▁گازهای
▁Command
▁Nashville
▁Orders
▁پیشکسوت
55
▁carbs
اید
▁موکول
etc
▁یادگاری
▁نهايت
▁EPA
▁قدمی
▁observing
▁alliance
▁boiling
▁intrigued
▁forehead
▁collectively
NO
▁تفکرات
▁باکیفیت
▁thumbs
▁انطباق
▁Parking
▁اینست
▁shouted
▁avail
▁كارت
▁Hiya
▁Brazilian
▁divorced
▁gadgets
▁اور
log
▁Technologies
▁دویست
▁lump
len
▁cardboard
كس
پول
▁رسمي
blogspot
▁pulse
▁حفاظتی
2,
▁ایمپلنت
▁Independence
▁بوسه
▁مجاور
▁سازهای
▁foolish
hot
▁پاسدار
▁Trip
ON
▁margins
▁marking
▁lowering
til
▁cliff
▁Forces
▁Marc
HA
▁زکات
▁proprietary
▁شتم
▁Doctors
▁دخانیات
▁استفراغ
▁Derek
کت
▁Eco
▁em
▁ديدن
▁وبه
▁محم
▁اجساد
▁Adding
▁دوستانش
gan
▁spinal
fold
▁Mostly
▁Tyler
▁ministers
▁Artist
▁پروین
زار
▁صعودی
85
▁Campbell
▁Range
ations
TS
▁بخور
63
مقاومت
▁هوادار
▁faint
اط
▁روانشناس
▁دیدید
▁انحلال
▁اثرگذار
متن
▁surround
انا
▁پارسا
▁palette
▁Mall
▁macro
▁غیرانتفاعی
ob
▁Pearl
ویژه
▁manipulation
▁منصفانه
▁فا
02
▁103
ans
▁فردي
▁غسل
دون
▁مات
wear
Home
▁مرتضوی
▁fighters
▁empowering
▁insure
▁پیست
▁retrieve
▁ward
▁Hero
dar
▁competence
▁ca
▁نگهداري
▁argues
▁گمراه
▁Ultra
▁Gay
▁Studios
▁برجای
▁اولش
wall
▁urine
▁roses
▁گن
▁اتوبان
▁تصويب
▁کاشانی
▁محدودی
▁exceeding
▁غیرت
▁bees
▁عیدی
▁نمايشگاه
▁jewellery
▁جهات
▁Bottom
▁cooker
▁اشکالات
▁alcoholic
▁2006.
▁subway
▁sucked
▁Scripture
▁تکریم
▁Gate
▁Already
▁validity
▁نخبه
rin
▁believer
▁دلتنگی
▁regulators
▁recognizing
sch
▁alleviate
▁distances
▁pots
▁سا
▁ثانیا
-22
▁بهسازی
▁mitigate
har
▁Officers
fashioned
tal
▁گمانه
▁منفجر
▁لگن
▁poly
▁leaks
▁AL
۱۳۹۶
fe
:22
▁slices
▁نازنین
▁دهيم
▁کوفه
▁يكديگر
▁اينترنتي
▁prey
▁dwelling
▁brakes
shot
▁Educational
▁currencies
▁floral
▁Driver
▁readings
▁borrowing
▁relied
▁ترکمنستان
▁خریدم
▁exemption
▁halt
▁دستت
▁ساعاتی
▁اظهارنظر
▁تنی
Take
▁indulge
▁شریفی
▁حبوبات
bridge
الان
▁folders
yn
▁protesters
▁manuscript
▁Alpha
eu
▁doctrine
call
▁hugs
▁خاصي
گاهی
▁2001,
▁ارزشمندی
▁1987
▁پليس
▁بازگرداندن
▁خفه
▁planets
▁تبليغات
▁scales
▁hedge
pen
▁اسمی
▁entrepreneurial
▁immigrant
▁رنگهای
▁oak
▁دلسوز
▁dock
▁ساختند
▁Jazz
▁remarkably
▁صربستان
▁malicious
▁thrill
▁پیمانکاران
▁نوه
▁سبك
▁apparatus
▁Economy
▁وفا
▁Images
▁refrain
▁دگرگونی
▁Python
▁منسجم
▁Bit
▁پرست
▁(15
▁st
</
▁نویی
▁موقعيت
▁freight
▁(11
▁کاراته
▁pissed
▁Columbus
▁پولشویی
▁Advisory
▁rays
▁میله
▁offenders
gy
▁فاکتورهای
▁rehab
▁دایر
▁minded
▁چتر
▁feared
▁dilemma
▁مشترکی
▁refuses
perfect
▁destiny
▁جوهر
▁Traditional
ria
▁badge
▁premiere
▁میدونی
▁ویتنام
▁شریعتمداری
▁unacceptable
▁statue
مورد
▁yo
▁duo
vis
▁fierce
▁cricket
▁یادداشتی
zo
▁نفخ
▁preparations
▁Starbucks
▁precautions
▁Lanka
▁employing
▁دامی
wheel
":
▁زمره
▁offended
▁کارآفرینان
▁7)
▁lengths
▁reside
▁downstairs
:21
▁نرود
▁Shakespeare
▁cooperate
▁Kill
▁Autumn
▁طیب
▁نیاید
▁Initiative
▁CE
دستگاه
▁اکو
▁exhaust
▁drastically
▁JUST
ue
▁foil
▁افشین
▁فداکاری
▁ارزيابي
▁token
▁جدال
length
▁افزایی
▁معناي
▁delegates
▁Todd
▁مجرم
▁قانوني
Un
▁میبینم
▁Bull
▁blender
▁دارچین
▁PRO
▁Champions
▁Nicole
▁pinch
▁ایدئولوژی
▁رباط
▁گول
▁ناامنی
▁preserving
▁kissed
▁دانشگاههای
▁اشراف
▁elect
ned
▁سوالاتی
Mr
▁آنزیم
بت
▁نيمه
▁restart
▁پشیمان
▁tones
▁swept
▁اظهارداشت
▁1989
▁rhetoric
▁Bag
▁coordinator
▁Satan
▁noticing
▁commissioned
▁unpredictable
▁favourites
▁بردارند
▁14.
▁courteous
▁کارلوس
▁عمد
▁neighbourhood
▁coincidence
▁سیاستمداران
▁میگویند
دور
base
▁اسکناس
je
▁فورد
▁فتا
▁tossed
▁governed
▁elephant
▁Scientific
▁یوگا
▁#3
▁نژادی
▁hallway
▁Robinson
▁Bishop
▁لانه
▁Zen
اینجا
▁شكست
▁مهمترين
ward
▁ساب
▁GOD
▁ranch
▁Interior
▁chili
▁Ge
رت
▁Intel
▁Flat
▁Psychology
▁ابطال
▁تکالیف
▁اقساط
▁پاسپورت
▁اجتماعات
▁phenomenal
▁حيات
[1]
▁هدفمندی
▁نمایشگاهی
▁لينک
▁درمانگاه
▁یادتان
▁Lin
▁Expert
▁revelation
نسخه
▁realities
▁therapists
▁سرورهای
▁pat
▁توزيع
▁implants
▁یانگ
▁نگرفت
▁Lunch
▁جلالی
▁straw
▁fled
▁Swift
▁وقتى
▁باقي
▁Banks
▁DE
▁مبنا
▁pillows
▁روغنی
▁temptation
▁نجوم
▁کدو
TO
▁هپاتیت
▁rooted
▁regain
▁Issues
▁دوجانبه
▁bean
▁mug
▁1.3
▁benefited
▁Originally
▁Wide
▁کالایی
▁ریو
▁proceeding
▁نامطلوب
ساخت
▁Domestic
▁Die
▁اسرائيل
focused
▁deepest
▁pertaining
▁نشدنی
▁تورنتو
▁تغييرات
▁بيمارستان
▁Um
▁supplying
▁selections
▁پاش
▁نهال
▁Blues
▁هورمونی
▁Release
▁internally
▁سیاستهای
▁durability
▁میکس
▁encounters
▁landscaping
▁constitutes
▁روسيه
▁ferry
▁كاربرد
▁para
▁۲۰۰۸
▁advisable
▁gentlemen
▁Nine
▁Cap
▁Luther
section
▁Camera
▁منتها
▁عملکردی
▁tucked
▁simulation
▁sweeping
▁وفات
▁â
▁itinerary
▁ناگزیر
خط
▁ماهان
▁Eagle
▁گرديده
▁debates
▁Improve
▁amusement
▁قراردادها
▁مناظر
▁BS
ika
▁صیانت
▁باج
بي
▁مسوولیت
▁voucher
▁نرسید
الف
▁Hal
▁سناتور
▁wisely
▁رکن
▁نظریات
burn
مرکز
▁Partnership
▁پژوهشي
▁ذیربط
▁Minimum
▁unsafe
▁کاستی
▁گریم
▁merchant
▁firearms
▁Advertising
▁کنده
▁duplicate
3)
taking
▁Businesses
▁Assistance
▁کروز
▁تیکه
▁نيستند
▁dictionary
▁simplify
▁لاشه
▁زدیم
bedroom
▁Role
▁محفظه
▁باخبر
▁Cruz
View
▁rash
▁splash
▁دستبند
▁respects
▁تفسير
▁filmed
▁prostate
▁stickers
did
▁تخمک
▁tubes
▁ورزی
▁declining
▁ظرفشویی
▁تگزاس
▁موقعی
▁balloon
▁polished
Year
▁suffers
▁flames
▁سپید
▁heavier
ani
▁Repair
▁concise
ical
▁نظامي
▁implied
▁دهقان
▁Cause
▁remodeling
▁dysfunction
▁tunes
▁گپ
▁زراعی
▁Playing
▁نزولی
anti
▁خیاطی
esh
▁fixtures
▁Damn
▁compliments
▁insufficient
▁سوت
▁pumps
▁wiped
▁فان
▁منیزیم
▁اومدن
thirds
▁Math
▁gladly
▁clutter
▁inspections
▁commute
▁Maintenance
▁راهکارهایی
▁Reality
دانش
▁چهارده
▁چجوری
▁statute
▁پیشرانه
:12
▁calorie
▁embraced
▁analyzed
▁[01
▁بیگانگان
▁Manual
▁خواهيد
▁THEY
▁آزادانه
ban
roll
may
▁وحشیانه
▁Reviews
▁زنگنه
▁موقعیتی
▁presumably
▁Mountains
▁شارپ
▁معني
▁savvy
▁sculpture
/3
▁screwed
World
▁Cam
▁پرسرعت
▁دستکاری
▁agreeing
eyed
▁classification
▁Somehow
حقوق
▁پذير
▁پاهای
▁Har
▁forgetting
▁ریتم
▁Flight
▁Rebecca
▁demonstrations
▁attentive
▁aggregate
▁seized
▁عبدال
▁جسارت
▁داروسازی
▁گارد
▁wifi
▁تراکتور
▁معادله
▁Weekly
▁rat
▁du
▁critique
▁bulbs
▁unconscious
▁rode
▁$250
▁توازن
خون
blue
▁نصر
▁توکل
▁انگاری
▁پاي
لباس
▁guardian
52
▁تاکتیک
▁bitcoin
▁تنگی
wiki
▁liquor
▁تورو
weight
▁rabbit
▁decorative
▁Cities
▁نوحه
▁انصار
▁styling
▁Ladies
کاهش
▁مؤلفه
▁Vermont
▁اتلاف
▁اکتشاف
consuming
▁Gear
▁ديني
▁wiki
▁divisions
▁دوستانتان
▁حسادت
▁Melissa
tra
press
▁Scientists
▁wolf
▁Liberal
tv
▁curse
▁متذکر
▁روزهایی
pi
▁میخواهد
▁bore
▁confronted
▁اقسام
۶۰
▁geographical
▁داشتی
▁exhibitions
▁[1
▁داري
رون
▁Hands
▁توانمندسازی
▁الکی
▁Vista
▁نخود
▁شيعه
▁workflow
▁landmark
▁follower
▁تابعیت
▁accumulated
▁appliance
▁teammates
▁Enough
▁catches
▁افرادي
77
▁توس
using
▁themed
▁Ride
▁کمد
▁mounting
▁textures
▁Reader
▁2000,
▁Include
1)
▁متحول
▁سريع
:24
فرهنگ
▁interpreted
▁گذاریم
▁غیاب
▁معصومین
▁آحاد
▁Nope
▁strap
▁preceding
▁ربا
Sorry
▁كنیم
▁خلع
▁Copy
▁دسکتاپ
▁آوري
van
▁Provides
▁Canon
▁ضمیمه
▁بارسا
▁ho
▁Czech
▁parameter
breaking
▁imports
▁Capitol
ground
▁spokesperson
▁۴۳
▁Canyon
▁خفیف
▁Sit
▁اخلاص
▁coating
:00
▁مستمری
▁شویی
▁surrender
▁Bobby
color
▁امیرالمومنین
ches
▁Mal
▁migrants
▁ایزو
▁پوسیدگی
▁وضو
▁craving
▁Stan
▁بندهای
Tech
▁confined
▁Ruby
▁fertility
▁exploitation
▁monkey
▁گفتید
▁99%
course
▁فزاینده
▁Fantasy
▁Baptist
▁دلنشین
▁بسم
▁مطابقت
▁interim
▁satisfactory
IE
▁weighs
▁Sierra
▁recognizes
08
▁ناراضی
demand
▁همدردی
▁ناپذیری
▁حمد
▁لطیف
▁microphone
▁رپ
▁instructed
▁reproduce
▁چهارراه
▁گشود
▁عکاسان
▁الکلی
▁111
▁coping
▁indie
▁Hearing
▁Quotes
▁کاور
بانک
▁گویید
▁pretending
▁Fit
▁Needs
▁Weekend
▁دوازدهمین
▁اذهان
▁spill
▁registry
▁صحرا
▁خصوصي
uri
threatening
UK
▁فشاری
▁Places
▁پلنگ
▁fulfillment
▁گرایان
▁پاییزی
▁geographic
▁راک
▁میری
▁generates
▁برخى
▁Beginning
▁امير
▁تهاجمی
▁marble
lit
▁slope
▁ملودی
▁node
▁مهارتهای
▁decoration
▁2500
▁سیری
▁Circuit
▁رول
▁پلیر
▁مینا
▁scenic
▁9:30
hood
06
▁adventurous
▁Soft
▁کارو
▁معینی
هنر
ral
▁Route
▁برس
▁1984
▁empire
▁Chase
^
▁spiral
▁104
▁سیاستگذاری
▁مشورتی
▁فاطمی
▁۴۱
▁credited
▁diplomatic
▁ST
▁quarterback
▁Term
tz
▁خار
▁اطلس
▁برادرم
sp
▁occupational
گى
▁Regarding
▁وانت
▁جداسازی
▁listeners
▁blankets
▁drilling
▁vomiting
▁Clients
▁عاشقان
▁lion
▁hydrogen
▁سخنی
▁surveyed
▁Austria
رها
ag
▁اکس
▁tad
▁کافئین
▁subjective
▁نیسان
▁خوانیم
TA
▁خردادماه
▁Projects
اني
همین
▁Cha
مجموعه
generation
▁remark
▁رعد
▁thanked
▁hammer
▁entirety
▁parcel
اج
▁researched
اقتصاد
▁Tesla
▁كاربران
▁سريال
▁گلزنی
▁Ch
▁مفاسد
▁wi
▁لفظ
▁Jam
▁مصمم
▁متاهل
▁cum
57
▁الجزایر
▁mirrors
htm
▁yields
▁harness
▁جهل
ments
-24
▁نون
▁terminate
36
▁بدهکار
RA
اجتماعی
▁شات
▁شنید
▁آلو
▁deficiency
▁brass
▁ندادن
▁نوا
▁collapsed
▁folded
▁disgusting
▁آفیس
General
▁masterpiece
▁برفی
▁احاطه
▁قابلمه
▁پیاپی
▁manipulate
▁tracked
active
ice
▁thyroid
▁Cached
▁outbreak
▁punished
▁میداد
▁insurer
مار
bra
▁مارتین
again
▁قیافه
▁رهنما
▁HUGE
▁Ruth
39
▁معارفه
▁کودکانی
▁experimenting
▁mice
▁Politics
دوشنبه
▁indirect
▁نورپردازی
امید
▁validation
ming
▁Parent
▁عوام
▁greeting
▁hobbies
▁Glen
last
▁medieval
▁فایلهای
▁دلی
▁fairness
▁tackling
▁persuade
▁census
▁آبروی
▁meanwhile
▁بیتی
▁رفسنجان
▁endurance
۹۴
▁جوادی
ku
▁puzzles
▁shooter
▁باغچه
▁5:30
▁Cake
هائی
▁آخوند
▁Tan
▁initiate
▁نمايندگان
▁آیینه
ett
▁جاسوس
▁plea
▁عثمان
▁skinny
▁هامون
▁گرفتاری
▁7:00
▁Murphy
▁drawer
tu
▁معتادان
▁مجارستان
▁conditioner
▁ربیعی
▁towers
▁نتوانستند
▁داعشی
ali
▁فو
▁Protect
ston
▁sue
▁Mason
▁(17
▁کوبا
▁coordinated
▁bodily
▁retaining
▁بالاي
▁کشیدم
▁Youtube
▁Tar
▁ناهنجاری
انس
▁arc
▁کسي
▁آسوده
▁گزارشگر
▁اصولگرا
outs
cell
▁فرستادن
▁juices
▁مانعی
▁مسؤولان
▁یزید
▁دیدارهای
▁ruins
▁مجاورت
کرد
▁avid
:31
▁کرواسی
▁comforting
▁framed
▁gems
inflammatory
ora
▁valuation
▁بازرگان
▁underwater
▁175
▁CBS
▁lame
▁insolvency
▁ریختگی
CD
▁طرحهای
▁lacks
▁2005.
05
▁classmates
پدر
▁READ
▁organizers
▁خدشه
▁آکنه
▁greet
election
▁داراست
▁Features
▁Hitler
▁intermediate
HS
▁feminine
▁میکردند
ؤ
▁شلاق
▁aftermath
▁مشترکین
▁Pros
▁advancing
▁شانگهای
▁playoff
▁Browse
▁فروغ
▁factories
▁روشنفکران
▁avocado
▁حیدر
▁berries
▁GDPR
علوم
▁congregation
▁تجهيزات
▁Written
ورزش
▁محتمل
▁Sha
▁فهمیده
▁cooperative
▁DAY
▁شرت
▁Vehicle
▁adviser
▁Done
▁Lion
▁livestock
▁بازماندگان
▁fictional
▁4,000
hill
▁قضائی
▁locker
▁damp
▁Reduce
جهان
▁Totally
Part
▁دیکتاتوری
▁شیعی
▁غربالگری
▁drank
▁Floor
▁بخوریم
▁سبزه
▁خریده
▁elevation
گونه
▁افزودند
before
48
▁dots
▁uniquely
▁Stick
▁dug
▁Framework
▁آفریقایی
▁توصیفی
▁Abraham
▁symptom
▁بعمل
▁غلامی
▁(20
▁Groups
▁triggers
▁infectious
ius
▁Tool
track
▁1986
▁بافی
▁Certified
78
71
▁گرایانه
▁treasures
▁بدنتان
▁رویکردهای
▁سرنگونی
▁Cheese
اتو
▁Sharon
▁برگردد
▁کالج
▁بخرم
▁electoral
▁اسپیکر
▁Resolution
▁TX
▁123
mph
▁کابوس
▁Reply
▁افتادگی
▁Harper
▁CMS
:14
▁Safari
▁hose
▁Violence
پرس
▁restriction
▁Annie
▁underwear
▁جانوران
نان
▁آهنگساز
▁beard
▁Tel
▁nutritious
▁asbestos
News
▁assemble
▁Rico
چگونه
▁presently
▁lawsuits
:26
▁possessions
▁dismiss
▁نظراتی
ile
▁شوش
▁Beer
▁بوته
▁assortment
▁رخداد
▁بامزه
▁curtain
.50
▁Ideally
▁Harbor
▁عبرت
▁dwell
▁بدبختی
▁Honey
ica
▁$60
▁سردبیر
▁دسترسي
▁معاویه
▁سرت
▁converting
عد
▁overlook
▁پناهی
mails
استاد
vin
▁نقاش
▁30,000
▁bespoke
▁Wireless
▁دمنوش
▁انضباطی
▁جنابعالی
▁دادسرای
▁rainbow
▁hesitation
▁دوی
▁اسدی
▁shouting
▁۲۰۱۹
▁accusations
VE
▁upward
▁demon
▁blamed
hearted
▁Angela
▁منحنی
▁Memory
▁مقطعی
چشم
:01
▁مکس
▁$100,000
▁ریزد
▁LP
dot
▁نعمتی
▁اینتل
▁سیاهی
▁approx
▁متشکرم
▁روزگاری
▁4000
▁wrestling
▁Count
▁محسوس
▁supporter
▁طبی
▁ماری
لات
▁اجسام
▁جواز
▁Zoo
▁insult
note
▁interval
SP
▁خشمگین
hop
▁chess
▁[3]
▁vacations
▁معتدل
▁فعالی
▁quantum
▁$35
▁IE
▁Campus
▁Maps
▁Near
▁Crazy
▁packaged
▁acoustic
▁expired
▁freaking
▁pins
▁Explain
▁Published
▁متجاوز
▁مذكور
▁میگیرند
(3)
▁Calendar
▁SS
▁Nathan
▁بخواد
▁Stanley
▁تسمه
▁فیض
▁۶۷
▁inspires
▁Mega
▁deductible
▁metric
علم
▁vol
كي
▁Repeat
▁Matter
▁Serve
▁فرزانه
▁kindergarten
▁Sharing
▁governmental
▁invasive
▁؟؟
▁lush
▁obey
▁directing
▁legislature
▁vivid
▁۴۶
▁Montreal
▁tumor
RS
▁زیرمجموعه
▁دیالوگ
▁لیستی
▁بجا
▁Standing
▁bro
▁Pizza
▁finale
▁Minutes
▁1384
▁screenshot
▁مستحکم
▁nicer
buy
Click
▁روايات
▁دربارۀ
▁خانمها
▁fuss
▁Iceland
▁colon
▁فشارخون
▁Elementary
▁شاءالله
sha
EN
▁Pin
▁desserts
▁یادبود
▁روبات
گن
:16
59
▁کافر
sub
▁اسپورت
▁definitive
▁dancers
RO
▁Tags
هایش
▁لود
▁بنیامین
▁بزارید
▁منزلت
▁wit
▁اقامتگاه
▁obscure
▁wholly
▁مختار
▁Motion
▁contributors
doc
▁برکناری
ە
▁gamers
کنند
▁طالقانی
▁bets
▁Developing
▁teachings
▁کنگ
▁recap
▁Montana
▁reproductive
▁upfront
▁لیزری
▁Blair
▁شامپو
▁zombie
▁extraction
▁اهم
▁کذب
▁Diabetes
▁whichever
▁gallons
طی
▁كاركنان
▁smoked
▁freshman
انت
▁Immigration
▁youngsters
▁Balance
▁weighed
▁محمدجواد
▁حاکمان
▁نیافته
▁glanced
content
2018
▁baggage
▁addictive
▁ACT
دوره
▁بيمار
▁calculator
▁champagne
79
▁شیطانی
▁پروپوزال
▁consolidation
▁شجاعی
▁ندادند
▁Ana
▁Administrator
▁صداي
▁غوطه
▁Conservative
▁مساعد
▁بشی
▁230
▁بتونه
▁susceptible
▁1.1
▁Com
▁مرمر
▁Honda
EU
▁Egyptian
▁aisle
ach
▁Materials
▁تجار
▁زندگینامه
▁پيوند
▁inquire
▁آرزوهای
▁gallon
▁فسخ
▁surplus
▁pedestrian
▁shoots
▁تشنج
▁prosecutors
▁Reagan
▁Cars
▁مسیحیان
fast
▁دا
▁6:00
▁scarf
▁withstand
▁Rental
▁Television
▁قریشی
▁wicked
▁Discovery
▁Status
▁Trading
▁WAY
72
▁Reform
▁dosage
▁afterward
▁آبهای
▁frightening
▁authentication
▁knocking
▁thickness
▁Prayer
packed
▁Entry
▁borrowed
▁شرکای
▁كلمه
:28
رک
▁رسوایی
▁Hart
CC
جمعه
▁سست
98
▁soundtrack
▁Sexual
▁انگشتر
▁باطن
▁elder
AD
▁ed
lay
▁pixels
▁compose
search
07
▁commissions
▁optimized
▁shampoo
▁تداخل
▁english
▁Menu
▁felony
▁Pot
▁اماده
▁probable
▁تابعه
▁Theater
34
مال
▁اپوزیسیون
▁treaty
▁کشنده
▁urgency
▁بعداز
acre
▁امیرحسین
▁elimination
▁درماني
▁Bedroom
▁اختصار
▁lamb
▁enquiries
▁compensate
▁chew
▁نزدیکان
▁آوای
▁بخونم
▁myths
youtube
▁softly
▁نخورده
▁ممنوعه
▁وسلم
▁Dar
▁همكاري
▁امگا
▁privileges
▁موبایلی
▁socio
▁راهبردهای
▁nurture
▁Alberta
▁Specifically
▁قره
nz
▁Ward
▁نظران
pound
▁mesh
▁handing
▁برهه
87
▁dissertation
▁Sh
▁taxation
▁founders
▁unauthorized
▁stain
▁Solution
▁nod
▁Conduct
▁Nuclear
▁marvelous
▁معیشتی
pp
▁موجبات
▁stretches
▁Operating
▁DM
▁Devil
▁messed
▁دیزل
▁غیررسمی
▁upwards
4)
▁جوابی
▁Diana
صد
ay
▁بیم
▁مدتها
▁Commonwealth
▁سلولهای
▁Dennis
▁پناهجویان
▁Profile
▁curtains
▁Outlook
▁118
▁فواصل
▁tournaments
▁slowed
▁institute
▁springs
▁انسداد
▁Fi
▁غلیظ
▁Tommy
▁Downtown
▁exclude
Ex
▁برایمان
▁عزل
▁canal
▁lanes
▁premature
▁speeches
team
▁indirectly
▁ملحق
▁accommodating
▁ناله
زو
▁112
▁dire
▁متابولیسم
▁Average
▁devote
▁flawed
▁باکو
▁Monica
travel
▁بشناسیم
▁prediction
▁donating
say
:35
▁Feeling
▁Blake
▁altitude
controlled
▁commander
ip
▁نشت
▁ambulance
▁catalogue
▁cheeks
▁detective
▁استقلالی
▁Bee
▁Option
▁108
▁1968
▁diarrhea
▁بشوند
WA
:40
▁١٣
▁decreasing
▁bedtime
▁organisms
▁سنگر
▁sleeves
▁احكام
▁چندتا
▁Offering
▁پارتی
44
▁عبدی
▁ادمین
▁مردانی
▁analyses
▁rod
▁هجرت
▁ترشی
▁sip
▁Visitors
▁کمیاب
آمریکا
▁Turns
▁احمق
▁wiring
▁پلو
▁Yourself
▁Morris
▁mock
▁reinforce
53
▁آرایی
▁manifest
▁Evidence
▁sphere
▁نمیده
▁Retail
▁gases
entrepreneurship
▁Cable
▁feat
▁فری
▁LIKE
ظهور
▁intends
▁Articles
▁Successful
topic
▁حضورش
zer
▁سطل
▁accounted
▁sew
▁موسيقي
▁Finland
▁tutor
)(
▁السد
▁pops
▁specification
▁لغایت
▁sunglasses
ken
▁trek
▁Mat
داران
▁noisy
▁رضايت
▁aspirations
headed
▁خاموشی
▁identifies
▁subsidies
▁witch
▁Links
▁مشرف
مش
خواب
▁بذار
▁Hudson
▁Iraqi
▁confront
▁+1
گرم
▁کنترلی
▁3-5
▁بکن
▁باهنر
▁1985
▁irony
▁Ja
▁potent
▁deaf
▁Package
▁ورشکستگی
▁mob
▁contamination
tro
61
▁contests
▁تقريبا
▁glowing
▁abide
▁افشاگری
▁excerpt
▁نظريه
▁ایمیلی
▁Mitchell
▁مرموز
▁Gaza
force
▁amend
ric
▁شناسايي
▁دعوای
▁focal
▁timer
▁THANK
▁Monitor
▁Mis
یز
▁Associate
▁Gov
yet
cap
▁norms
sey
▁آمارها
nes
▁بیام
▁tonnes
▁Foster
center
▁مارکس
▁prejudice
/2018
▁اروپای
▁هشتگ
عليه
۷۰
▁presidency
▁رشوه
▁cancers
▁impaired
▁dispose
▁Bonus
▁منوچهر
▁Armed
▁محسنی
▁violated
▁VI
Out
▁تهی
▁206
▁enquiry
▁وبگاه
گذاری
▁safeguard
▁آزاری
lon
▁راندمان
▁2002,
▁broadly
▁ideology
▁مبادرت
▁ambitions
▁Ideal
▁ویدیوی
لک
band
▁عصمت
مقاله
▁Cheap
سازي
▁قالی
▁آفریده
▁شروط
▁coats
▁داوطلبانه
years
▁simmer
▁آنلاين
▁proxy
works
▁مقبره
▁وثیقه
▁french
ae
▁diploma
▁خاور
▁بنیانگذار
▁متاثر
▁Faculty
tle
▁Saints
▁همسایگان
▁Pie
▁sixty
▁recycle
▁خانمی
▁Tele
▁نازی
▁fundamentally
▁compile
▁spambots
▁گشوده
Will
▁intimidating
▁ملوان
▁تیزر
▁priests
__
▁فرایندهای
▁۱۱۰
Share
▁تایی
▁printers
▁فدای
▁چندين
▁Coalition
▁irritating
▁liabilities
▁كد
▁clerk
▁secretly
▁یکباره
▁formerly
LL
▁needles
▁کندی
▁fluids
▁کلمبیا
▁UC
▁stimulating
▁quotation
▁chores
▁responds
▁Grow
▁distract
▁دستشویی
▁hypothesis
▁Likewise
ple
▁مهدویت
▁سیصد
▁dominate
▁بگین
▁ebook
▁distractions
▁breakthrough
▁PE
دارای
▁مددجویان
▁capitalism
▁نیستن
▁ol
▁موسس
▁niece
▁similarities
▁فازی
/12
▁strawberries
ou
▁didnt
▁paused
Men
lb
▁سرپل
▁واقعيت
▁ببینی
▁citing
▁۷۲
▁postal
▁residency
آخرین
▁WHY
▁كافي
▁McCain
▁blah
▁FAQ
▁ویدئوی
▁آمبولانس
▁honeymoon
▁لیبرال
اده
▁0.5
▁MO
▁cheerful
▁شهرداري
▁stems
▁میشی
▁soothing
▁میثاق
▁biased
▁perks
▁evenly
▁پادگان
MC
▁flush
▁دهن
▁embracing
▁SEC
▁Accounting
▁حرفهای
▁owed
برخی
▁رسیم
▁Ne
▁تمجید
▁شسته
piece
▁Leaders
▁Conservation
sharing
▁Crisis
▁یون
▁elbow
▁Delta
▁comprising
▁یکتا
wan
▁accessory
▁فراگیری
▁telecommunicati
▁SSL
▁دژ
اح
▁daddy
▁REAL
▁equip
▁Des
نمونه
اپ
EE
03
▁Walter
▁infamous
▁HA
▁pronounced
▁گیفت
▁trendy
▁بسنده
▁marriages
▁Ellen
▁يكى
▁شهرکرد
▁halls
▁questionable
▁لطفی
اى
▁1.4
▁پروازی
tive
▁منچستر
▁قیاس
▁creditors
43
▁بروجرد
▁سارق
.10
▁diamonds
▁امتناع
fu
پو
▁650
mes
▁Stir
▁transgender
▁grounded
▁burnt
▁تجاري
MO
▁Essential
▁NEED
:27
▁nutrient
▁عاری
▁بجنورد
▁Sad
▁۲۰۰۹
▁40-
▁tier
▁hates
▁moist
▁Export
مهدی
▁furnishings
▁EVER
▁detailing
▁Victor
▁برهان
▁لبنی
▁terrified
▁بعدي
▁sober
▁جامه
▁نیش
▁correlation
شکل
lia
▁خبري
▁unrelated
▁interviewing
▁philosophical
ash
▁LGBT
▁سوزنی
pet
▁Persian
▁عواطف
▁پرسپوليس
41
▁Associates
try
▁Domain
▁دوستانم
▁مولتی
میلادی
▁سایرین
▁کنایه
▁android
chan
▁grabbing
▁Alcohol
▁reproduction
رهای
▁immensely
▁بخوان
▁برگشته
▁criticized
▁نيم
:10
▁آزمايش
▁بسط
AC
▁paddle
▁Hannah
▁punk
SO
▁battling
▁Various
احمد
▁مهمه
▁conquer
▁cafes
▁NJ
▁virgin
▁Portuguese
▁basil
▁2.1
HD
▁ارد
▁فانی
▁بشوید
performance
ua
▁محتوی
▁Ta
▁Patient
▁صافی
▁Carbon
▁cleaners
▁مزاحمت
▁ببرم
▁grandma
▁همدانی
▁tougher
▁psychic
▁goat
▁Firm
▁آویو
▁harmless
▁Walt
سلامت
▁Lucas
▁بالگرد
▁نگیرید
▁sunrise
▁gateway
▁Jill
▁نكرده
▁Countries
▁شین
▁نگفته
▁pointless
▁mp
▁۴۷
iz
▁یکنواخت
▁groceries
▁FIFA
▁lo
▁Rush
▁خوردند
▁seekers
▁ramp
▁foreigners
▁بتا
▁adjustable
▁brunch
▁خبرگزاري
▁190
▁chefs
▁Samuel
▁Rescue
▁prisoner
▁trusting
since
▁cousins
▁depressing
▁جورج
▁مصباح
▁ABOUT
84
▁گواه
جام
▁آستارا
▁سینی
▁حوله
AR
six
▁کریمه
▁comp
▁تحصيلي
▁compression
▁ولو
▁um
▁digest
▁Hop
Many
▁كف
▁rivals
▁spider
▁عاطفه
▁تشک
:17
▁گیگ
▁portraits
▁stitch
▁Parties
▁شاهکار
▁Path
▁ربع
▁عمه
▁135
▁بشدت
▁inherited
▁اندیشمندان
▁Feed
▁تأثیرات
▁جاري
▁Fortune
▁palace
▁popcorn
▁inception
▁مقتول
مل
▁territories
▁بشقاب
▁ASAP
▁wee
▁magnesium
56
▁FA
عنوان
▁BA
▁Monster
▁unlawful
▁Khan
▁minorities
▁continuity
▁EA
▁1973
آهنگ
قلب
▁صدمات
▁اسفناج
▁واکنشی
▁(...)
mel
گرا
▁Progress
▁رویکردی
▁aforementioned
▁performer
▁دقایق
▁بریتانیایی
▁حجاج
فکر
▁Bin
▁؟؟؟
▁رواني
▁(11)
▁وپرورش
▁Divine
انسان
▁ظرافت
▁جالبه
▁پاکت
▁خفن
▁پروتز
▁لوگوی
▁پذیرای
▁canned
▁unused
▁یکجا
▁منا
▁refuge
▁يکی
▁گذرنامه
▁کرانه
▁پنهانی
▁چنگال
▁4-5
▁optimism
▁compliant
▁Kerry
▁Platform
نژاد
▁جماران
▁اجزاء
suite
▁480
▁روزي
▁hacking
▁recalls
▁begging
▁whipped
▁Affordable
▁بکشند
▁ايميل
▁متحدان
▁£10
▁Noah
▁Massage
▁Submit
▁quantitative
▁perfume
▁attracts
▁ورزشي
▁زوم
▁whites
▁SUV
hu
▁نگر
▁روزا
▁الت
▁ripe
▁repository
▁5:00
آر
:55
gun
▁دیدگی
/12/
′
▁Awareness
/7
▁??
sale
Big
▁Met
▁ecological
▁Watson
yr
▁106
science
▁107
▁Points
▁تهدیدی
پروژه
▁thrust
DO
▁salads
▁دریافتند
▁efficacy
▁yelling
▁Hat
PE
▁جنون
▁توانايي
▁Kat
▁optimum
▁سياسی
▁Arctic
▁اقرار
▁versa
▁benchmark
▁Display
▁گرمایش
▁فاضل
-35
▁فوم
▁reminders
▁حديث
▁Mortgage
▁بپرسم
▁Legislature
purpose
▁پاشایی
▁بيماران
▁preschool
▁Romans
▁toilets
▁مشترکان
▁captures
برد
▁مولکول
▁dinners
▁THERE
▁CLICK
▁گسل
كن
▁19-
ure
▁cam
نک
میر
▁chemotherapy
▁bidding
▁پشم
54
▁violate
:29
▁راهکاری
▁Nazi
▁lied
▁معماران
▁rescued
▁1967
▁Warm
▁Bet
▁Watching
▁striving
▁احتساب
▁راهداری
▁کرمی
▁ویلیام
▁Electrical
؟؟؟؟
national
▁آسیبی
▁ولنتاین
▁1400
▁cereal
شیر
▁Donna
tier
▁تأمين
heart
drive
58
▁enclosed
▁Dollar
▁مارا
▁boosting
▁stigma
▁discourse
▁Florence
▁Silicon
▁جدي
die
▁Benjamin
▁EC
▁گلچین
▁Testing
▁Hub
SA
▁rats
▁mortgages
▁غیرممکن
▁Angels
▁Associated
▁Applicants
ene
▁Catherine
▁Moses
▁illegally
▁$75
▁Adults
▁تماما
▁HVAC
▁essentials
▁سیکل
▁پسماند
▁غیرمستقیم
gi
▁پياده
▁MAN
▁poisoning
▁decay
▁ساق
▁discoveries
▁Marathon
▁شوینده
print
همراه
▁bloom
▁دگر
▁زبانه
نم
▁Apps
▁شبيه
▁amino
▁Banking
▁slap
▁کلیوی
ters
▁Consequently
▁ایل
▁Martha
▁تابلوی
▁زردچوبه
▁spreadsheet
▁Effects
▁personalised
▁Sally
▁Uh
▁Method
▁راهور
▁پال
▁alpha
▁۴۹
support
▁Bel
▁آمیخته
▁پیداست
▁اهرم
▁servicing
▁ذهنیت
▁فرمايد
▁blows
ُّ
aging
▁جداول
▁Tampa
تیک
▁bible
loss
▁champions
ira
▁انگل
▁چینش
▁longevity
rise
▁embark
▁پیشتاز
▁Changing
▁envy
▁آموزنده
▁تشریحی
▁irritation
▁lucrative
▁markers
▁Tourism
▁رحمتی
▁یحیی
▁ارس
▁sandy
لس
▁خواستیم
▁Effect
▁seldom
▁گرده
▁drones
▁Kirk
▁متولدین
LA
▁1979
▁مکانیسم
▁رسا
▁accidental
▁Outdoor
▁قشنگی
▁ارور
▁branded
▁۵۲
▁شناختن
▁outlines
▁transmit
▁Bless
▁logos
▁Wake
▁ترمینال
▁standpoint
▁نوبه
▁1.6
▁peel
ئو
▁broccoli
▁میرسه
download
▁جانباز
fall
ological
▁secular
efficient
mouth
▁oneself
video
▁محمدحسین
▁خودشو
▁Corp
▁حصار
900
▁بقا
▁thereafter
fest
▁vacant
mate
▁شکی
▁reap
▁beam
▁comeback
▁رجیستری
▁traction
▁RS
▁Rod
▁اجرائی
▁اشخاصی
▁flooded
▁پهپاد
اوی
▁MUCH
stock
▁timeless
▁ارتودنسی
Make
▁prince
▁شادابی
▁سندی
standard
▁enhancement
▁بیژن
▁چمدان
▁Dress
▁آهنی
▁SW
▁Lily
▁تغذيه
▁href
▁demons
▁10:30
▁swallow
▁هیوندای
▁switches
▁specifics
▁dealership
▁sticker
▁۸۹
▁"...
Black
▁(16
fiction
▁stains
▁مواقعی
یکشنبه
▁بورسیه
▁Admin
▁beg
olo
/16
▁ژنراتور
▁incidence
▁دیزاین
▁geography
▁جاهایی
▁praised
▁۶۶
▁استانها
▁prop
▁remembers
▁فیلمهای
شکلک
▁sliced
▁حداکثری
▁کبدی
▁مفصلی
▁marker
▁horrific
▁hectic
ide
▁spells
▁Par
▁میخوره
▁مورچه
▁Architecture
▁mentors
▁چالوس
▁بودنش
▁throne
west
ious
▁Em
pad
▁mutually
▁حقیر
▁مامانم
▁Wrong
إ
▁پزشك
▁Kay
▁گیل
▁sorting
▁لایت
▁“...
▁Describe
عه
▁سرزمين
▁درصورتی
▁reckon
▁بزرگسال
▁همسو
▁linen
▁skull
▁قبض
▁transferring
However
▁Secure
▁uncovered
▁Christine
▁نیامد
▁depths
▁۵۳
▁disadvantages
▁موفقی
▁fulfil
▁ریشتری
▁closes
▁reboot
▁slightest
▁fundamentals
▁بستگان
▁merchants
▁فوتبالی
▁۱٫
/6
▁Abuse
▁reign
درمان
▁عمار
▁Putting
local
▁bulb
▁cracking
37
▁خواهرم
▁raining
▁رزم
▁mama
▁Fee
▁knives
▁Quote
▁madness
▁پرسپولیسی
▁کانی
▁cleanup
▁مر
▁فیروزه
▁Wash
▁سرگردان
يی
▁هوشیار
▁Engineer
▁اعماق
▁doorstep
yan
نما
▁theaters
member
▁Holland
▁fills
▁نمادین
meter
▁Host
Based
▁زدی
▁کریستال
▁Arsenal
راد
▁بازارها
▁hereby
▁inmates
▁شاپور
▁colourful
▁minus
▁wreck
▁Ottawa
▁بیابید
04
▁innings
▁نباشیم
▁سير
▁سوريه
ev
▁شيخ
rah
Once
▁contributor
▁Favorite
▁forbidden
▁طبعا
▁burgers
▁patrons
▁اینبار
ورد
▁نزدیکتر
VA
▁exchanged
▁بذارید
▁passions
▁deliveries
▁زيبايي
▁bubbles
▁vampire
▁هاله
▁\\
▁آغازین
▁STEM
ندگان
▁قاهره
▁spoil
▁کراس
▁broth
▁پسوند
▁buffer
▁integrating
▁fa
▁آيين
▁compilation
▁هنرپیشه
▁Mt
▁spit
DR
▁کمیت
▁sheriff
mine
▁noodles
▁Founded
ib
▁نخواهم
▁Warner
▁:_
▁puppies
▁cider
▁tapping
▁گود
▁رباتیک
▁Cruise
▁کیان
لن
▁exceeds
▁Stephanie
38
▁۵۶
▁هاشون
▁تجدیدنظر
▁شدنی
▁دکور
▁ساید
▁Rica
▁Eight
▁ceramic
▁Evans
▁companions
▁خيلی
bot
▁چي
▁pigs
یتی
paid
▁مطیعی
▁Activity
▁ملیت
▁texting
▁لیورپول
تار
▁پناهگاه
ــــــ
▁تاثیرگذاری
cent
▁WP
▁الزهرا
▁anyways
▁revisit
tar
انجام
▁catastrophic
▁4.0
▁Ti
▁راوی
▁پسندیده
▁Guidelines
▁مدلی
▁issuing
بزرگ
مدیر
▁DR
▁pathetic
▁نباشی
ux
▁برگزیدگان
▁تابه
داشت
▁accountant
▁اصلاحی
▁Palestinians
▁concludes
:32
▁tweeted
▁alarming
-23
▁fashioned
▁neuro
▁ببخش
▁فایرفاکس
▁زودهنگام
▁ديدم
▁ترسم
▁SEE
▁هاوکینگ
▁lace
▁خیمه
▁dividend
funded
فارسی
▁Solid
▁saturated
▁unpaid
▁پانصد
still
▁wary
▁1.0
▁collector
▁Sector
▁stash
▁رادار
▁دستوری
▁وخیم
▁Hmmm
▁كوه
Today
▁proceeded
▁روا
▁masks
▁sleek
▁جاى
▁warfare
▁Directive
▁pricey
▁آنهم
▁Syndrome
▁Sell
disciplinary
▁pictured
▁dependable
▁prayed
▁Combine
▁yrs
▁cardiac
▁تأسیسات
▁MRI
▁بمالید
▁naming
▁tariffs
▁Alright
▁هيات
▁مشاركت
▁گت
نقش
▁Oakland
▁nephew
▁Gene
▁Vi
▁Birth
▁صادرکنندگان
▁heel
▁تعزیرات
▁بگذریم
▁receipts
:37
fun
▁Designer
▁بشید
ram
▁Sec
▁Oz
▁تخمینی
▁فطرت
▁هاتون
▁Anyways
▁exclaimed
▁crashing
▁Owner
▁Ram
▁Fri
ified
▁نزديک
misunderstanding
▁کنسولگری
▁Ty
▁Male
▁boxing
▁مراتع
▁پناهندگان
▁psychiatric
▁ولسوالی
▁Colin
▁ابوبکر
Over
▁فلک
▁Fixed
▁كشف
▁Tu
▁Relationship
▁pursued
woman
▁drafted
▁winding
▁alley
▁warrior
▁bowel
▁خصلت
▁Wendy
▁مختصری
▁courtyard
▁outsourcing
:34
▁cocoa
2-
▁شهوت
▁نمادهای
tri
▁کوهی
▁هجدهم
▁العالم
▁تأمل
▁Opportunity
▁برحسب
▁Arena
▁وکلا
▁Roberts
SS
▁blades
▁Started
▁Grove
child
▁Document
▁بخوبی
▁Nursing
هدف
▁£4
craft
established
fit
▁choir
▁Giants
▁morality
▁سادات
▁prioritize
val
coming
▁غربي
▁ازت
▁درامد
▁گیربکس
▁Jefferson
کاران
▁ترقی
ION
money
▁مشتمل
▁موقتی
▁Cabinet
▁عابر
Since
▁صدقه
▁introduces
▁1977
▁scoop
▁فیلسوف
▁Janet
▁طریقه
▁maternity
▁biblical
▁bark
▁کول
▁ابدی
ATION
▁collateral
▁کعبه
/15
▁۱۳۸۵
▁Wishing
▁conservatives
فن
▁analogy
▁جدیدش
Best
▁Bristol
▁لرزاند
▁disposable
▁Hit
▁Er
▁Fly
/10/
▁supper
▁Che
▁pesticides
Ma
▁ارضی
▁درختی
kar
▁نصیحت
▁ورقه
▁ترکمن
▁آبرسانی
▁مث
▁chooses
▁motto
▁inaccurate
dollar
▁Subscribe
5)
▁Jesse
▁تبلیغی
▁antioxidants
▁21-
▁pleaded
▁fundraiser
▁سوئیچ
▁قلیان
▁ایرانشهر
stream
هفته
▁Sal
▁signatures
▁Coordinator
لت
▁معطر
ants
▁BP
▁لیلی
▁Brandon
▁256
تصویر
▁Med
▁آگاهي
▁melting
▁retro
▁copying
▁سافت
whether
▁Bang
▁trophy
▁ADHD
کوه
▁Gender
بازار
▁لم
▁expire
▁Gone
▁shelters
کشور
▁Rise
▁Beat
▁افسوس
▁همخوانی
MM
▁سکولار
▁Fact
▁ناموفق
▁تاكيد
▁DA
▁repetitive
▁Residents
▁ER
▁Nobel
tis
Old
▁motive
▁الرضا
▁دستخوش
۹۳
▁galaxy
▁Doc
▁almond
▁resilient
▁پاساژ
▁جادو
▁sensory
▁discouraged
▁brochure
▁خویشتن
▁carbohydrates
▁Interestingly
▁inputs
▁Stanford
▁آگهي
▁£
▁expenditures
▁عقاب
▁stakes
▁whereby
▁Greetings
▁تندرو
▁1974
▁اشاعه
▁گذرگاه
▁eats
▁meats
عدم
▁کیمیا
▁عقیدتی
Book
▁Pour
cultural
▁instinct
▁Scheme
▁reimbursement
▁بدنش
▁commercials
▁crews
▁unveiled
▁questionnaire
▁plunge
▁boundary
▁خیابون
▁Religion
▁podcasts
▁communicated
▁kissing
lar
▁کلش
RT
▁payday
▁sidewalk
▁MIT
▁Slow
▁Physics
▁دانشگاهیان
▁merits
▁بروجردی
▁specs
▁نوشتاری
▁Reach
▁سردی
▁rains
▁هرجا
▁herb
row
▁(12)
▁آمديد
▁washer
▁مفقود
▁sunscreen
▁exquisite
▁اسانس
▁Compare
▁bells
▁Fix
▁بعضى
▁زارع
▁disadvantage
▁توي
▁imprisonment
:33
conditioned
thing
▁HTC
▁bait
▁maple
49
▁stellar
▁cleansing
▁میبرد
▁گذرانده
▁ثامن
▁ROI
▁crypto
▁sauna
بیت
▁Operation
PL
gas
along
▁SSD
▁restoring
▁tho
▁stocked
▁تحلیلگران
▁astonishing
▁علایق
▁squares
▁Dry
▁Peru
St
ima
:38
▁Principal
▁NATO
▁fonts
wind
▁Juan
ros
▁ورامین
▁کال
▁Candidates
▁پارت
▁distributors
▁staffing
▁Material
▁کلر
شت
▁fraudulent
▁طاق
▁dividends
82
▁drift
▁arbitrary
▁Goods
ended
▁توانا
▁damned
His
▁implant
▁NHL
▁vpn
▁veterinary
▁تولدت
▁بسازیم
▁thankfully
▁کارون
▁pertinent
▁Venice
▁arch
▁فرزندانشان
▁210
▁اخباری
▁Mu
▁محدودیتی
▁repayment
▁ترند
▁واقف
▁بیروت
bus
73
▁Plenty
▁Across
▁Holly
▁lamps
mb
▁Berkeley
▁114
▁Presidential
worthy
▁سالهاست
▁upright
del
▁le
▁Historical
▁مکالمات
▁immunity
▁تاجر
▁Evaluation
ونگ
قبل
▁Positive
▁Dell
▁جبر
▁Breast
▁۵۸
▁پارتیشن
▁Purpose
special
▁قسمتهای
▁paradigm
▁Mercedes
lands
▁مجاهد
▁LIFE
load
▁اندازي
▁ASP
▁vain
▁هجمه
▁(30
votes
gl
▁کرزی
▁assistants
▁یوونتوس
▁RIGHT
▁contaminated
▁perceptions
▁1300
▁infringement
▁۱۳۸۶
▁Maintain
▁اونایی
▁مامایی
▁Para
▁وظايف
▁Surgery
▁پرور
▁Rogers
▁shark
▁dumped
▁مترمکعب
▁Pages
▁petrol
DE
▁Contest
▁Bur
▁speeding
▁5.5
▁employs
▁meds
لیک
▁تشکيل
▁خوشایند
وقت
▁Fight
▁چارت
▁تألیف
▁Glasgow
▁۵۴
▁rightly
Page
▁autonomous
▁Arkansas
▁۸۴
▁برهنه
▁feminist
▁dolls
▁جوشکاری
▁هلندی
▁ماد
▁عاقل
▁solidarity
▁فرهنگستان
▁صداهای
▁مبدا
•
▁کین
▁الگویی
▁ترشحات
▁گنجانده
▁اجر
▁اه
▁balances
▁consultancy
▁دهستان
▁بگذرد
▁cardio
▁نمیکند
▁Mirror
▁defect
▁Ki
▁بسر
▁میمون
▁forecasts
▁Craft
▁ضروري
▁Milk
▁استودیوی
▁معشوق
▁identifiable
▁Olive
▁پویایی
▁اژه
▁Grandma
يدن
rk
▁swift
▁Romney
▁Dining
۹۹
illa
▁magnet
▁abdominal
▁فنلاند
▁كسی
▁raped
▁KB
▁شاخصه
▁baseline
▁خروس
pc
▁لیاقت
job
▁safest
مع
▁truths
▁طرق
▁بیهوشی
▁بلایی
▁analyse
▁عقلانی
▁کریس
UP
▁wrinkles
▁scars
▁hostel
▁كلاس
▁سخنران
▁stubborn
▁faulty
▁EST
▁aired
▁thrilling
▁برسانیم
▁گذاشتیم
▁اونی
▁Pe
▁آویزان
▁stripped
mind
▁Dale
51
▁UPS
▁طولاني
خرداد
centered
▁enforced
▁Ju
▁دلفان
▁Granted
ese
▁remarked
▁مخ
▁Consulting
▁گز
▁ملاحظات
▁wired
▁1,500
▁Former
▁ابرها
▁آشفتگی
▁بازاری
▁Ralph
aw
▁tedious
روان
▁بدبخت
لم
many
▁مضرات
▁psychologist
▁collectors
▁classics
▁aggression
▁comparisons
▁Warning
▁chick
▁ارج
▁dedicate
▁neo
▁تجمعات
▁Volunteer
▁Scout
ائو
▁phenomena
▁bombing
ENT
▁Pam
▁بعثت
▁پوزش
▁شعاع
▁میگو
▁معاشرت
▁Category
▁مسموم
▁barrels
▁لغزش
▁carved
wi
▁طفل
▁transcript
▁بوتاکس
▁staggering
▁idle
▁occupy
▁تمرینی
▁Census
▁Plaza
▁آزادراه
▁مشایی
▁محفل
▁124
ich
▁Returns
▁بیس
▁فسفر
▁Manage
▁bullets
▁تاييد
▁Pastor
▁اینهمه
▁Idaho
▁مظهر
یزه
▁finals
▁patents
II
▁splendid
▁horn
▁grapes
▁raid
▁Nova
وین
ell
Only
▁Hire
▁reductions
▁reps
”).
▁ژست
▁شمول
▁نبوت
▁enduring
▁ounce
▁پهنه
▁legislators
▁drums
▁neatly
▁harbor
▁حتى
▁ژرمن
▁Cookies
author
▁قلی
▁کتیبه
ویی
▁insomnia
burg
▁شك
▁polar
▁destined
▁bananas
▁nodes
امیر
▁Commander
▁contracted
▁Joel
▁stall
▁آوار
▁حقی
▁tactical
▁آذربايجان
▁مسنجر
▁hashtag
شهید
designed
▁اذن
▁deduction
▁ندید
عضو
▁حاجت
▁Spencer
46
▁8.1
▁پدیای
▁TD
▁5:
▁ta
act
▁ایسوس
▁سکانس
▁ببندید
▁Paint
▁onset
▁تداعی
▁بنوشید
▁درآورده
▁picturesque
▁ترا
دهی
▁Airlines
▁NZ
▁yelled
▁سرمای
▁وزنی
▁Sar
▁merge
▁Rocky
▁ازاد
▁پناهندگی
mod
▁همتای
▁تمایلی
▁clarification
▁photographed
▁fashionable
centric
▁ironic
رف
▁ounces
▁ملزومات
▁Employee
offs
▁سکسی
▁spec
▁cloudy
▁waterproof
▁توتال
▁offender
▁authenticity
▁adolescents
▁مدد
▁refusal
▁Chain
EA
▁hunter
▁بالستیک
▁misery
▁عقیلی
تیر
▁تندرستی
▁Erin
▁Eddie
▁Desk
▁ir
▁توریسم
▁prosecutor
▁بیضه
حضرت
▁عماد
pl
▁Factory
▁Debt
must
▁bladder
▁کیو
▁Speech
▁غر
لي
FC
▁میرحسین
▁appoint
▁همجنس
▁اصطلاحا
▁Friendly
▁manageable
▁ناوبری
▁مجرمانه
فال
▁كشاورزي
▁تحولی
▁peas
▁پيشرفته
▁آرتروز
▁vocals
▁1972
▁systemic
▁dragging
energy
▁ambassador
▁1982
▁یکمین
امیدوارم
▁مشهورترین
▁حشره
government
▁Boss
▁مشتريان
▁differentiate
▁ماندنی
▁rang
▁وسايل
EL
resistant
▁temper
▁نکردیم
42
▁انحرافی
▁اوصاف
خانم
▁protections
▁بخورند
▁صدف
▁والی
▁devotion
▁Hotels
▁مطلقه
▁stresses
needed
▁rinse
▁electronically
▁baths
lam
▁Sister
▁conception
▁بیاوریم
▁پیتر
▁2.4
ory
▁عاملان
▁بازیکنی
▁۸۶
▁bronze
آقا
▁HAS
▁خودرا
▁earrings
▁IQ
▁wildly
ees
▁WI
AT
▁عل
▁villain
▁rig
▁metaphor
▁برداریم
▁$11
خور
▁اورانیوم
▁گویای
▁رژیمی
▁q
operative
سین
▁زابل
▁بشمار
▁Goals
▁منبر
▁Lou
▁ملموس
dog
▁کسایی
▁Hu
▁fist
▁echo
▁openings
▁رانده
▁floods
▁خاشقچی
between
▁}
change
▁Sessions
▁Expo
▁Lynn
▁خدمه
▁Indigenous
▁الهدی
▁Bon
▁يكشنبه
▁یقه
▁شیفت
▁اجاق
:02
▁برایت
▁$5,000
▁Molly
▁deeds
▁انباشته
▁lag
تین
▁eternity
▁الهه
▁frightened
▁دریانوردی
مک
▁8)
▁Sites
small
BC
▁Desert
▁endangered
▁cultivate
▁fry
▁تمسخر
۹۲
▁گوینده
▁gosh
▁آویز
▁shrugged
▁خلوص
<
▁جذابی
▁Za
▁زوایای
76
استان
pan
▁rebounds
▁ceilings
اع
▁Joan
▁Globe
▁مغلوب
▁استخوانی
▁مجلل
▁bolt
▁Verizon
▁Miles
▁نوشتند
▁gatherings
▁carb
dan
▁ATM
▁مناقشه
▁emailing
▁کيفيت
▁impairment
Car
▁Tara
▁Sundays
▁inconsistent
▁اسکلت
▁robbery
▁FIRST
▁beads
يش
▁scalp
▁Import
▁AB
:41
▁corridor
▁pancakes
▁موجودیت
▁aerial
▁Initially
▁Lock
▁superhero
▁blink
▁هد
▁injustice
▁sanctuary
▁بازخوانی
▁Eyes
▁repay
▁abnormal
▁آبرو
dr
▁نظاره
▁سیلاب
nal
ls
▁سپیدرود
▁معاهده
▁شیردهی
▁hustle
▁$400
خوان
▁معاملاتی
▁misconduct
▁sweep
▁مجریان
▁مناجات
▁خالد
▁التهابی
▁Bal
▁ml
▁چکش
▁disturbed
▁پديده
اینکه
▁misuse
▁صص
▁bosses
▁traveler
▁آندروید
:20
while
▁Instant
▁endorsement
▁جانم
▁چاله
▁مجنون
▁temp
▁دیرینه
▁کبوتر
▁pumping
▁هلاکت
▁مولکولی
▁composite
▁MT
pr
▁articulate
▁ethic
▁apparel
▁دیتابیس
▁priceless
▁پوششی
▁خاکستر
▁disrupt
▁ALWAYS
▁Richmond
▁جارو
▁vein
▁5.0
▁emphasized
▁Aunt
▁depart
يى
▁اطمينان
▁playful
▁معاونین
▁برسم
بیش
▁بخونید
▁[4]
ud
▁butterfly
▁canceled
هو
▁conventions
▁Waiting
▁آمریکاست
بهمن
▁brushing
SC
▁سونوگرافی
▁بارگیری
▁Karl
▁پچ
قرار
▁ژان
پنج
▁cosy
▁Fisher
▁jumps
▁عمدی
▁joyful
▁trivial
▁journeys
▁PT
▁lodging
▁مسكن
▁Heavy
▁طوري
▁مهدي
▁conversions
▁props
▁ین
▁Wildlife
▁جوانب
خانواده
▁launches
▁tribes
▁Sch
▁pantry
ening
▁Geo
Mart
▁dumpsters
▁مركزي
fully
▁غایب
▁تطابق
▁Dylan
:09
▁rant
▁Turner
▁Treat
▁confirming
▁سبحان
▁اقامتی
▁advising
▁Sanders
▁learner
بله
▁sparkling
▁fibre
▁extras
kan
▁patrol
▁identities
▁administer
▁agile
Web
81
▁pleasantly
▁rocking
▁intro
:46
▁1.8
▁Wii
▁ثباتی
▁stunned
▁كالا
▁colonial
▁instructional
▁استیو
▁استریت
sk
▁اسنپ
bb
▁ميوه
2,000
▁viewpoint
▁chunks
یوم
▁درجات
▁سرنشینان
▁سوختن
▁پند
▁یهو
▁planners
▁17.
▁Selling
super
▁Acts
▁مبتدی
▁2.2
علیهم
▁پریود
▁قمر
▁تصاوير
-50
▁لقمه
▁نباش
▁گیت
turn
▁كرديم
▁کلیدهای
▁راکت
▁testimonials
▁سربلند
▁succession
sell
▁لند
EST
▁محققین
▁convictions
▁celebrates
▁fragrance
▁cupcakes
▁جدای
▁معتقدیم
▁Excellence
▁پلیسی
▁Kbps
▁kilometres
▁دانشكده
/11
/14
▁براشون
▁دلالان
▁cylinder
▁jerk
▁دلمه
▁multimedia
▁۵۹
tie
▁fawiki
▁باک
▁پزشکي
▁الع
▁ارزشهای
▁endorse
۱۳۹۷
▁تجلی
▁Ranch
▁Classes
شامل
▁Reed
▁quirky
▁Birds
▁Newton
▁Saw
▁Tweet
▁Wellness
دهد
▁Beast
▁activation
▁قیر
:44
▁حاكم
▁مقعد
aries
▁اسیدی
▁escort
▁contracting
۹۸
:42
▁تهديد
83
پاسخ
▁fingertips
▁hardwood
▁Present
▁١٠
▁Formula
▁رضایتمندی
▁Elite
▁Harrison
▁mic
▁آران
zy
▁chilly
▁preventive
▁یزدانی
▁برآمده
▁فشارها
▁Shore
▁crave
▁Amen
▁عسگری
▁confuse
tes
▁3.1
▁pushes
▁Butter
▁batter
▁juvenile
▁Fuel
سک
▁فرستنده
▁550
▁ترفندهای
▁سرعتی
▁اسپم
▁Citizens
▁tensions
▁شناسم
▁مابین
بچه
▁Yup
▁منصرف
▁unavailable
▁مهارتی
js
:36
▁opener
▁behold
▁منصوریان
▁سودان
▁Thrones
کشی
[/
var
▁ولادیمیر
▁Yard
▁suburbs
▁برنمی
▁establishments
▁omega
▁الر
هایشان
Com
▁haunted
اولین
▁sp
▁احیاء
▁EN
▁literal
▁probation
▁Baseball
▁اقساطی
نز
▁kitchens
▁SM
▁بلغارستان
▁سیال
▁اروند
▁drainage
▁hay
1,
حمایت
▁Bella
▁جرأت
▁Si
74
▁mar
▁1983
nia
flow
▁مهری
▁فتحی
▁urging
these
▁فرآيند
counter
▁supernatural
▁healed
▁جوار
▁بازرسان
▁لایق
▁insists
▁بانه
:15
▁excluding
aid
:58
▁تصاحب
dl
CP
▁نورد
▁1/3
ama
▁نفرین
▁Bangladesh
فایل
▁Bike
:03
▁digits
stein
/11/
▁گون
confidence
▁obese
▁لنگ
▁اعزامی
▁Thousands
▁خودنمایی
▁تحويل
▁هندسی
▁چیزا
▁TM
▁تویی
▁reversed
▁محمودی
▁گستردگی
▁پاکی
▁1383
▁1-3
probably
▁توربین
▁تمامیت
▁ادوار
▁outgoing
sis
never
▁برخاسته
▁PH
▁expiration
pot
▁eyebrows
▁Strange
▁rainfall
cycle
▁velocity
▁Eagles
▁$13
▁Declaration
▁نتونستم
●
late
▁خودروساز
▁trader
▁economists
▁pens
▁ريال
▁برزیلی
▁Window
▁rigid
▁نخل
product
Those
▁dependence
▁Couldn
▁اینجور
▁weaker
lyn
▁میدونه
▁assumes
▁تفریحات
▁هری
▁php
▁حتم
▁ماندند
▁پردازان
▁Specialist
▁firmware
ارت
▁کانکس
▁معماري
▁motives
Al
nce
▁ارادت
ژن
ویل
▁sharply
▁شا
▁seize
▁حوضه
▁حداكثر
Am
▁موم
▁photographic
▁Les
▁ابا
▁acre
▁consisted
▁Colombia
▁orbit
▁Rangers
▁تصريح
▁curry
▁109
▁molecular
▁Messenger
▁طلبانه
mas
▁affiliates
▁قوام
▁(14
مهدوی
▁commodities
▁Admission
▁ناخوشایند
▁Luck
▁downward
▁Truly
▁academy
▁Signs
▁café
▁displaced
▁Genesis
living
▁suburban
▁formatting
▁neighboring
▁Char
▁Reason
▁ايده
▁بساط
▁Hay
▁charger
▁نتوانند
▁Spot
▁matrix
0.00
▁فاکس
▁Kathy
:59
▁KW
▁هلو
▁انتظاری
▁Lets
▁کمین
Everyone
▁درنهایت
▁ليگ
▁کیفیتی
▁2030
▁consequently
▁چار
▁Lack
▁حسام
▁همايش
▁اندازند
▁Yorkshire
▁نوپا
▁بازرس
▁ونیز
▁کنارش
▁خراش
▁declaring
defined
▁incomes
▁تزئینی
دوم
▁nurturing
▁geo
bs
▁wagon
▁exposing
▁vastly
▁counselling
:51
ينگ
worker
▁دکل
▁عراقچی
▁پارامتر
▁uniforms
▁معرف
▁اجمالی
▁اجابت
▁ventilation
▁keynote
▁الرحمن
▁Gar
▁merger
▁bins
▁Hang
▁تاچ
▁تحريم
▁embarrassment
▁grinding
▁آخ
ادی
▁pony
▁undermine
▁هوشمندی
▁سينما
▁congressional
▁ني
sorry
▁4%
PR
▁settlements
▁endeavors
▁IMO
Wow
▁Lives
▁کارآیی
صبح
▁پورشه
▁dim
▁ammunition
▁2022
▁encrypted
▁نشیند
▁بازپرس
▁populated
▁تلاشهای
▁بالش
▁Aren
▁حاضران
▁ایستادن
▁سانت
▁insect
▁Paradise
▁فیلیپین
▁خوره
▁فلاح
▁den
▁ایرباس
IM
avi
▁hrs
▁flock
aa
▁Raw
▁Says
▁societal
▁cocaine
▁بیرانوند
▁صراط
▁باسن
▁Chile
▁exhausting
photo
Link
▁Ace
▁آتلیه
▁enacted
▁جاست
▁periodic
▁کرمانی
▁Bat
▁granite
▁اکتفا
▁Betty
▁lb
▁probe
▁Vincent
▁گذارم
▁Geneva
▁وقتا
▁Password
▁پاوه
▁kettle
▁۲٫
ye
:48
▁درز
▁فیزیولوژی
▁advent
▁Norman
▁مگا
آبان
▁کادو
▁حفر
▁لباسی
▁کلیشه
conscious
▁ED
leading
▁Lebanon
▁medicinal
▁Fans
▁Scroll
▁childcare
دسته
▁غربت
▁Cathedral
▁4:30
▁دمکراسی
▁Representative
▁ستوده
▁whale
▁mantra
▁vent
▁paints
▁اكثر
▁بیو
▁جهانبخش
▁rocky
▁اونقدر
▁رینگ
▁Quebec
▁صمیمیت
فل
▁بچگی
▁خراسانی
تحقیق
▁۹۹
▁ترانس
▁پاکستانی
▁نظیری
▁apt
▁Historic
▁volatility
really
حی
▁eagerly
▁replicate
▁مموری
▁tremendously
▁رویال
qui
▁Mathematics
▁TWO
▁tribal
▁سنگين
بحث
▁دندانپزشک
▁invitations
▁Superman
▁مسافری
▁شوت
▁hydro
4,000
▁$14
▁coolest
▁خطرناکی
▁sourced
▁negotiated
▁بزرگترين
▁unexpectedly
got
▁شکوفه
nu
▁وقته
-27
▁گریبان
▁ساکنین
ington
▁Enforcement
▁اداري
cor
▁Arabic
واقعا
▁دلیلش
▁detained
▁چرایی
walk
▁unwilling
▁ساسانی
▁منت
▁strokes
▁Animals
▁مردگان
▁نشستم
▁Writer
▁حبیبی
▁جهانگردی
▁دیوارها
▁نره
▁Interview
▁introductory
▁artifacts
▁pathway
▁Jet
▁loudly
▁منشاء
▁عفت
▁کانادایی
▁conceived
۸۰
▁worthless
▁passages
▁invalid
▁نوعي
▁سبکی
▁دادسرا
▁موازین
▁پلیمر
▁Manufacturing
▁sparked
▁نرسد
lbs
▁loft
▁جرقه
▁میدیم
▁sued
▁خطاهای
Although
▁Ship
▁prevalence
▁دزدان
▁mono
▁vest
▁incur
▁mysteries
▁playlist
▁traps
▁listener
انگلیسی
▁كارخانه
▁AMAZING
▁usable
▁imminent
پوش
▁هدست
nor
▁Calgary
▁TB
▁turnaround
▁refunds
▁هول
▁ضمیر
iya
▁سهیم
RP
would
▁سوزاندن
▁بازپرداخت
▁استر
▁greed
انتخاب
▁Gross
▁مردن
زنی
▁bathing
▁یابیم
▁carriage
▁terminology
▁تسلیحاتی
▁Joshua
▁Branch
▁condemned
▁بکنه
▁Pentagon
▁Went
▁ليست
▁heartbeat
▁Idea
▁renovations
▁قفقاز
▁سکوی
▁blended
▁یکى
▁منتسب
▁تعدد
▁Russians
▁lifts
▁عمیقی
▁shrink
▁sovereign
▁بازو
▁Medium
▁exploded
▁Uni
8,000
▁painter
▁بحثی
سیم
operation
▁گویش
▁molecules
▁Welsh
▁گنده
alone
▁Logan
▁باسلام
▁specializing
▁مهتاب
اژ
Nothing
write
▁2004.
rays
/9
▁Anonymous
▁pests
▁Demand
▁tents
▁خیام
▁fountain
▁resigned
▁سوانح
▁تعارف
▁روایی
▁partnered
▁gal
▁vicinity
▁sworn
▁Ancient
▁Holmes
یاد
خدمات
خر
▁dam
ori
▁SIM
▁شهرستانی
▁درمیان
▁conceptual
lies
/05/
▁radius
▁واعظی
▁Row
▁expedition
▁govern
وات
▁translates
sea
▁گاها
▁simplified
▁colony
▁فرانک
▁نبوی
▁حر
▁ارمنی
▁کاملترین
ملی
▁تابلوهای
▁deed
should
▁railroad
▁jars
▁hearings
▁intuition
running
▁مهربون
▁بازگشته
rn
▁پيروزي
▁Shanghai
▁compares
▁متراژ
▁veins
▁عدالتی
▁surgeries
▁ultrasound
▁stimulus
▁hardship
sometimes
▁overlap
▁forgiven
▁گلهای
▁Specific
▁حقوقي
▁تظاهر
▁دوزخ
lis
▁inherently
▁دريا
▁وسائل
▁uk
▁beneficiaries
▁اغراق
▁منتشرشده
▁1978
▁کامران
▁trio
▁inheritance
▁teamwork
▁آدمها
▁sorrow
▁سوگواری
▁تعاملی
▁22-
▁آفات
▁گلم
▁coloured
▁empowerment
▁رومی
▁Gi
ینه
exe
▁fasting
▁colder
▁مشاورین
▁evaluations
▁stray
▁compensated
▁plethora
▁1600
شعر
▁slate
اکس
▁سرزمینی
▁$1,
▁هولناک
▁۵۱
▁رنده
▁Bro
▁کامپوزیت
▁Fuck
360
▁Imperial
▁ض
production
/07/
▁discharged
▁consultations
▁attic
▁spouses
▁watering
▁گرین
▁Pine
▁knot
gh
▁executing
▁neighbour
▁چاوشی
▁weeds
▁کناری
▁ناطق
▁relocation
▁Managers
▁Kar
ec
▁outrage
oni
▁270
▁تف
▁testament
▁یائسگی
▁منتفی
▁بسازند
▁Sin
ida
رشته
▁زراعت
▁افسران
facebook
▁mediation
▁کلنگ
▁er
صورت
▁Forward
▁زرتشت
▁مساعدت
▁congestion
▁کنفدراسیون
▁punish
cher
▁Jackie
▁نشیب
▁صفرا
▁شمایل
▁ژانويه
رب
▁ka
▁هندسه
انقلاب
▁labs
:39
▁rookie
▁۲۰۰۶
▁Nokia
▁notorious
lic
▁دروغین
▁قوي
درباره
▁triumph
▁سپه
▁سرنگون
:08
ستون
▁housed
دام
sville
ترجمه
▁ساختگی
▁Cohen
.........
east
▁sidebar
▁scans
▁Properties
.6%
▁وهم
مس
▁فکس
▁potassium
▁باورها
▁fluffy
rick
▁زمانبندی
▁Wave
training
▁حک
▁برگشتم
.25
▁توج
▁كتابخانه
▁32-
▁Lights
AA
▁ساوه
▁Os
▁نوازی
strong
▁drastic
▁metabolic
▁بریزد
▁Casey
▁ماندگی
▁جگر
▁Maggie
▁فولکس
▁heroin
▁vicious
▁bracket
nic
fr
▁جونگ
▁یازدهمین
▁Consumers
▁زهر
▁ابهامات
▁۱۸۰
▁نظمی
▁جرج
▁اعتنا
▁DNS
▁سيم
▁انگليسي
employed
RC
▁commence
ستی
▁mustard
nan
Back
:06
▁145
▁grease
rum
shi
▁bowls
▁اشتغالزایی
▁lawful
UN
▁pensions
ess
▁متولیان
▁Trinity
▁کیلویی
▁باغات
▁originated
▁oath
almost
▁خودگردان
▁Popular
▁صیغه
ase
▁الکترو
▁پو
ick
▁scanner
aspx
▁توضیحی
تومان
State
▁complementary
▁استنباط
▁whistle
▁Writers
▁آشكار
▁folding
▁pointers
▁prescribe
▁Corn
held
▁۶۸
▁Brady
▁arranging
▁marital
▁هنگامي
Ha
▁missiles
▁علامتی
▁arbitration
▁آنالوگ
▁تأسف
▁Decision
▁مشمولان
كر
▁پیشنهادهای
▁تكرار
▁کازرون
▁جاش
▁نصرت
▁حماسی
▁نيازمند
▁rubbing
▁سیلی
▁flee
▁reflective
▁Amber
▁رستمی
tte
▁Comic
▁jackets
▁noises
▁Unique
▁bee
:47
▁Haiti
▁idiots
reading
anna
▁مجیدی
▁نگهدارنده
▁taller
▁shells
▁Beta
▁میخواهم
▁pledged
:07
▁15,000
▁compulsory
stick
▁بلندترین
طبقه
▁زیپ
▁Simpson
▁IoT
▁جهرمی
those
▁schooling
▁کاندیداهای
▁tow
▁Dreams
.7
▁Fiction
▁میزند
▁cherish
bag
▁رژ
wick
▁جولی
▁سودی
▁Stuff
▁acquisitions
▁Vienna
▁coup
▁projections
▁pitching
▁گزاری
▁دنياي
▁پرورشی
▁locking
▁intimacy
▁unstable
▁آفرید
▁سومی
▁توکیو
▁دستکش
▁!!!!
▁Diane
▁Megan
▁ناحيه
▁interfaces
CE
▁conform
▁نوازش
▁aloud
▁قرارگیری
زان
giving
berry
▁سونا
▁ند
▁كامپيوتر
▁mines
▁Pride
▁disciplinary
▁navigating
▁قبيل
▁Rainbow
MAN
▁furnace
▁مستثنی
▁Protocol
▁هوازی
▁resignation
▁Affiliate
▁استثنا
Everything
▁مدعیان
▁ارواح
▁clan
▁ناصری
▁selective
/06/
Dr
▁Persons
▁pup
▁usability
▁ناگوار
▁hunters
▁firearm
ona
▁پادشاهان
▁cabbage
▁lunches
▁پستال
▁ringing
▁میدهیم
▁Laser
▁زندگانی
▁permissions
▁fullest
قل
▁discourage
▁سفال
▁ribs
▁bamboo
▁backward
▁Blogger
▁مشارکتی
▁درنگ
▁voluntarily
▁قوطی
دری
▁اظهارنامه
▁ابیا
ازی
▁بازکنی
▁oceans
▁گردنبند
▁درنتیجه
▁زارعی
▁Andrea
▁spoiled
▁تحلیلگر
▁speedy
▁composer
▁XML
THE
▁writings
▁آغشته
▁Chance
▁طبيعت
▁Remote
▁Drew
▁Mod
▁ایرلند
▁Etsy
▁Southwest
▁بهجت
▁گناهی
eo
▁ریچارد
▁naive
▁Den
▁evolutionary
▁campuses
▁مشوق
▁leftover
▁mixer
▁pedal
▁مخاطره
:43
smart
▁استرداد
▁مالکان
▁dancer
trained
▁سپرد
▁pH
mont
▁bracelet
▁prepares
▁vaccination
▁Bali
▁Wing
▁survivor
Full
:49
▁علائمی
▁organising
▁Quarter
▁viagra
▁چسبیده
شونو
▁supreme
oon
▁lad
▁تجسم
▁Comes
▁advisers
▁skillet
aki
▁funnel
▁بگذارم
▁زنید
▁Strip
▁Sitting
▁tattoos
▁Nepal
▁پرخاشگری
▁biography
▁اللهی
چاپ
▁گذرا
▁flown
▁collects
▁cemetery
▁پاشی
▁absorption
تواند
▁موتوری
▁classy
existing
▁exclusion
-29
▁11:00
▁humorous
▁ridiculously
▁meaningless
▁rust
▁Alternative
▁۱۳۸۰
▁Afghan
▁مجانی
▁asshole
▁مازیار
▁belonged
▁همینه
▁Willow
▁descent
▁customization
.15
▁چارتر
▁Delaware
▁brew
▁outrageous
▁defendants
▁twists
▁Plastic
آخرالزمان
▁استانداردها
▁hierarchy
▁commercially
▁withdrawn
▁آفلاین
▁touchdown
▁Helping
گيري
▁Bre
▁جر
نش
▁advocating
▁۷۴
fix
▁unified
▁downtime
▁volatile
▁briefing
▁1382
▁groom
▁Broad
▁کنجکاوی
▁شاهرخ
▁portrayed
▁Milan
▁cyclists
▁crappy
▁دلايل
▁میاره
▁dice
▁بافته
▁آقایی
▁عود
▁critic
▁۲۰۰۷
▁تلفیقی
▁قومیت
▁confirms
▁روزهاي
▁فخر
▁عز
▁Foot
▁detrimental
▁ninth
ele
▁محتاج
-26
▁rugby
▁projection
▁NE
▁binge
درس
▁Monitoring
▁rebuilding
▁بواسطه
▁Laws
▁نوح
▁صورتش
▁هرز
▁بسیجیان
▁۸۷
▁اباعبدالله
▁ventures
▁تنبلی
laws
▁50-
▁نابرابری
clean
ways
▁runway
▁****
▁بطوریکه
▁1971
TR
تس
▁disruptive
▁استانهای
▁wraps
▁صل
▁WANT
▁زبانان
▁Congressional
▁روانشناختی
▁Ethics
themed
▁Reporting
▁سوله
:04
▁سرازیر
▁مشاهدات
▁bowling
1000
▁ميل
▁اولیای
▁firefighters
▁Problems
▁طراوت
▁unreasonable
▁متریال
▁نرخی
فو
▁واردکنندگان
▁intricate
lot
▁جوملا
▁lipstick
▁landlords
▁عقرب
▁واژگونی
▁Lions
▁defended
▁کدامند
▁Cuban
▁تریاک
▁Hear
▁bacterial
ther
▁SB
▁pineapple
▁uploading
▁۸۲
▁اسکرین
▁1+5
▁خودمو
۷۷
ئى
▁خلاء
150
▁sim
▁pans
▁Apartment
▁بهارستان
▁sperm
▁هکرها
sign
▁repairing
▁استار
▁$50,000
▁Julian
▁polling
▁professions
▁waiver
▁ذخيره
▁storyline
▁سازید
▁informational
▁جنایتکار
▁Nike
▁USE
▁1981
▁درایور
▁Discuss
شرایط
▁lessen
▁Eli
خنده
▁pudding
▁detox
▁glitter
▁retiring
▁disastrous
sburg
▁jersey
▁Caroline
▁طایفه
▁Oracle
▁dread
▁Farmers
ماشین
▁Athens
▁Mercury
▁پوشانده
▁عن
cs
▁فرح
▁brushes
:53
ایت
▁legit
▁۳٫
▁قوچان
▁عقلانیت
▁mailed
▁tits
▁energies
▁زيارت
▁3.2
▁دوخته
▁برکات
notch
▁بروکسل
▁3/4
IS
▁1975
▁seamlessly
▁coral
▁بگيريد
▁رقیه
ایر
▁elegance
▁hefty
▁Border
▁mansion
▁EVERY
▁stimulation
۶۳
▁carpets
▁خوبیه
▁buds
▁حریری
▁ghosts
▁Literature
▁resolving
▁انشالله
▁بخواهم
▁Facilities
▁partnering
▁slipping
▁Lesson
▁arrests
▁programmer
▁Parish
▁starring
▁admired
▁نهايي
▁آورم
▁scanned
▁آشنايي
▁دخترها
▁Heroes
▁حوض
▁ماهیان
▁thieves
خواه
▁Ci
ites
▁leagues
▁پزشكی
iva
easy
▁طرفداری
▁Administrative
▁جزوات
▁Hy
▁جنیفر
▁redemption
▁ادعایی
▁بور
▁گياه
منبع
▁قبله
Never
▁footwear
پن
▁اخرین
▁منزوی
▁سریالی
eight
▁معاش
▁deter
▁burial
▁honors
▁قامت
▁گوشي
▁Randy
▁7.5
▁Butler
نیک
▁sec
▁کلاسی
▁دورانی
▁Defence
▁Draft
▁ساک
▁Forever
▁cheque
▁ماوس
▁سردرگمی
▁تهدیدهای
private
▁متوسل
:57
▁Bryan
▁Dude
▁belts
▁informing
▁چرت
-28
met
▁limbs
▁facilitating
▁gourmet
▁هوم
▁Boat
.7%
▁1380
▁accumulate
▁پمپئو
▁Clay
▁نرو
▁احمدوند
پسر
▁leasing
▁فرسایش
▁vocational
ندگی
▁Parts
thinking
▁في
▁fusion
.*
/08/
▁پف
ولوژی
▁daytime
park
▁۹۰۰
▁روزى
▁CDs
▁متاسفم
▁مصادره
ei
▁RC
▁عجایب
▁Mor
▁صلى
▁دانستید
mobile
▁screws
▁آواره
▁راهیان
▁Creator
▁محک
▁منسوب
▁ازتون
▁2-4
true
▁Lakes
▁Emperor
▁لبنانی
▁skating
▁Marcus
▁درویش
۱۰۰
▁2020.
▁grabs
Hello
▁Fifth
3,000
▁داش
▁trailers
ایرانی
▁یکپارچگی
▁اقیانوسیه
gu
▁هیدروژن
▁خوابه
▁4.2
▁icing
▁husbands
▁مرج
▁چرمی
better
▁امتياز
▁نشیمن
▁shakes
▁حواله
▁paycheck
▁فالوور
▁شاداب
▁hesitant
▁forensic
▁تشبیه
▁reconciliation
▁inspector
▁Saving
▁هیچکدام
▁protagonist
▁grandson
▁birthdays
▁دورتر
▁نگاهش
▁نویز
▁breaches
▁peaks
▁Beatles
▁Inspector
▁leftovers
▁نذر
▁uni
▁پیشکسوتان
▁دیو
▁فرزندانش
▁fab
▁اجتماعى
▁meanings
▁کاسپین
▁#4
▁113
▁Customs
▁Warriors
▁festivities
▁سپردن
▁بابام
▁شفیعی
▁انداختند
,5
شور
▁vector
▁crises
▁Disorder
▁UPDATE
▁آهنگسازی
▁hacked
▁examines
sites
ماده
▁23-
▁Marina
▁عاقلانه
▁persist
CH
▁suspend
▁bypass
▁Mint
▁1999,
▁wording
▁Egg
▁scripture
▁مطمئنم
▁هنرستان
▁رشدی
▁Taste
▁regimen
▁Pray
▁گند
▁approximate
▁Metropolitan
▁specialised
▁مهاباد
ارتباط
▁غلامحسین
▁Took
▁6,000
▁بخوام
▁فرزندی
▁gradual
▁۳۵۰
▁continuation
▁doorway
▁توافقات
▁possessed
▁نیمار
google
▁miracles
▁ساواک
/02/
6,000
Care
▁Abu
گون
▁پروری
sided
▁Mer
▁نمیتواند
mis
▁Op
وق
▁joking
▁ملتی
▁symbolic
▁Sim
▁ایرلاین
▁scar
▁غیب
▁شفاعت
▁Reference
▁6.5
▁spike
▁فین
▁فرعون
▁نصاب
▁Connection
▁1964
▁distributor
▁رؤسای
▁Rates
▁arrogant
▁Bangkok
▁رقیق
brand
اطلاعات
▁engineered
BR
▁Desktop
▁116
▁افزودنی
▁آدما
▁سهمی
▁reuse
host
GO
▁footsteps
▁میام
▁کفپوش
▁eighteen
▁گشتم
▁اخلال
منطقه
▁روشنگری
ینا
▁Cindy
▁rustic
▁acrylic
▁1965
tr
▁غافلگیر
2000
▁Luxury
trade
▁Ticket
▁defective
۸۹
▁280
▁toughest
▁ستیزی
▁سلیمی
▁زبون
▁[5]
▁editions
▁permitting
▁undergone
▁Engineers
▁گروهي
▁آلن
▁productions
[2]
▁butterflies
▁communal
▁refine
▁شرک
▁cubic
گام
▁بايست
▁borrowers
▁contractual
AF
▁فردوس
▁geek
▁هوشنگ
▁كره
▁pathways
▁chaotic
▁cleanse
▁swings
روم
اسلام
▁stereo
▁Fruit
▁پرتغالی
▁کیس
حضور
▁بصره
47
▁buys
▁سناریو
▁Portal
▁fearful
▁Ages
▁averaged
▁underestimate
▁owing
solving
دقیقه
▁CDC
نوشته
▁terminated
▁دیلی
▁explorer
▁موهایتان
▁کارآمدی
▁رحمان
▁Gmail
▁کاندوم
▁واچ
▁اسپوتنیک
hours
▁strategically
▁آنطور
▁ظن
▁genetics
▁catalyst
cl
▁ponder
▁سفیدی
▁آسا
▁flashing
▁Danish
▁Device
nine
▁جزیی
▁braces
▁سوزان
صدا
▁Sense
▁faded
هفت
▁کردها
▁pixel
▁بروشور
▁Discount
▁مایک
▁Monthly
▁layouts
street
▁bumps
▁offences
▁Nebraska
▁فرارسیدن
▁interpersonal
عالی
▁youthful
▁Listed
▁overhaul
▁غلطی
▁همسری
▁BEFORE
▁mozzarella
▁gravel
▁مخفیانه
▁pun
▁میرداماد
colored
▁standardized
▁آرزوها
▁معلولیت
▁Female
▁singers
▁longtime
▁پیامد
▁endured
tree
▁Selection
▁slack
▁2.3
▁richer
▁Wizard
▁Battery
▁خورشيد
▁واكنش
▁PowerPoint
▁Communities
باد
▁admiration
▁poultry
▁لاهیجان
▁حمزه
▁toddlers
▁Labels
cu
▁دپارتمان
▁جداره
▁righteous
اسم
▁Trial
▁بینندگان
▁YA
▁۶۲
▁دلبستگی
Po
▁bedding
▁Gabriel
-40
▁Respect
follow
رگ
▁lone
▁شاء
trip
▁تمهیدات
▁thriller
▁lust
▁Mumbai
▁ترانزیت
▁Communist
▁فرجه
▁reliance
las
▁torque
▁provinces
sion
▁ethnicity
▁unchanged
▁بازدارنده
▁sweating
▁bakery
▁افتند
-2-
▁preaching
????
▁کمیک
▁مشروح
▁overdose
ET
▁گرانیت
▁تحرکات
:56
▁Buck
▁لي
ready
▁panoramic
▁ساقط
nik
▁گشتاور
▁expressly
▁پذيرفته
▁murders
zone
Her
▁Heating
▁posing
▁بندد
▁brewing
▁لخت
ven
کال
▁روادید
:54
▁محاسباتی
▁هواي
▁Responsible
وای
▁IRA
▁خورش
▁shaft
▁mindfulness
▁gown
▁ازمون
▁maximise
▁Midwest
▁visions
▁جنسي
▁شاهی
▁آد
▁mainland
▁بقيه
olds
▁قديمي
▁scams
▁نبض
▁Jump
▁Thor
▁bumper
▁هویتی
▁carers
▁قلاب
▁mu
▁Reuters
▁diapers
▁خبرداد
▁await
duty
▁navy
▁بیات
▁Kai
▁adulthood
▁supervised
▁بوق
▁ballet
inspired
▁ماهیگیری
▁یعقوب
▁باوجود
▁پین
▁طبس
▁Authorities
▁بقایای
/01/
▁diaper
▁opioid
▁زنا
/17
زنان
▁pa
▁educator
▁بذارم
▁شایانی
▁sewer
▁qualitative
▁crab
▁banners
سوره
▁سرسبز
▁منظوره
350
مبانی
▁چقد
▁Hood
▁Bailey
▁Scholarship
▁disposed
▁redesign
din
▁reconstruction
▁آموختن
▁workload
▁الزمان
▁plasma
▁فرز
عصر
▁Markets
:52
▁الهلال
baby
▁Flying
▁intern
▁ISIS
8%
gs
▁نیایش
▁ویترین
▁دبیران
▁$16
▁paramount
▁Critical
▁زامبی
▁پذیرفتن
▁Movies
▁بافق
Pacific
▁بازمانده
▁Teach
٢
▁کارمزد
▁بپذیریم
▁Benefit
▁digestion
▁طمع
▁CR
▁moderation
نشان
▁ربیع
▁سودآوری
▁نیاورد
▁doesnt
▁sophomore
▁گزينه
little
▁ne
hit
▁Hispanic
یك
▁battlefield
▁mosquito
▁pitcher
▁jelly
▁اخه
▁جاها
▁Germans
DL
▁Mur
▁flagship
▁كمال
▁بورد
درصدی
▁proportions
▁برپایه
ole
▁Meta
▁DID
▁مرکبات
▁معالجه
▁WHEN
انند
▁stained
▁disconnect
▁آبادانی
[...]
