<s>
<pad>
</s>
<unk>
!
"
#
$
%
&
'
(
)
*
+
,
-
.
/
0
1
2
3
4
5
6
7
8
9
:
;
<
=
>
?
@
A
B
C
D
E
F
G
H
I
J
K
L
M
N
O
P
Q
R
S
T
U
V
W
X
Y
Z
[
\
]
^
_
`
a
b
c
d
e
f
g
h
i
j
k
l
m
n
o
p
q
r
s
t
u
v
w
x
y
z
{
|
}
~
¡
¢
£
¤
¥
¦
§
¨
©
ª
«
¬
®
¯
°
±
²
³
´
µ
¶
·
¸
¹
º
»
¼
½
¾
¿
À
Á
Â
Ã
Ä
Å
Æ
Ç
È
É
Ê
Ë
Ì
Í
Î
Ï
Ð
Ñ
Ò
Ó
Ô
Õ
Ö
×
Ø
Ù
Ú
Û
Ü
Ý
Þ
ß
à
á
â
ã
ä
å
æ
ç
è
é
ê
ë
ì
í
î
ï
ð
ñ
ò
ó
ô
õ
ö
÷
ø
ù
ú
û
ü
ý
þ
ÿ
Ā
ā
Ă
ă
Ą
ą
Ć
ć
Ĉ
ĉ
Ċ
ċ
Č
č
Ď
ď
Đ
đ
Ē
ē
Ĕ
ĕ
Ė
ė
Ę
ę
Ě
ě
Ĝ
ĝ
Ğ
ğ
Ġ
ġ
Ģ
ģ
Ĥ
ĥ
Ħ
ħ
Ĩ
ĩ
Ī
ī
Ĭ
ĭ
Į
į
İ
ı
Ĳ
ĳ
Ĵ
ĵ
Ķ
ķ
ĸ
Ĺ
ĺ
Ļ
ļ
Ľ
ľ
Ŀ
ŀ
Ł
ł
Ń
ĠØ
Ø§
ÛĮ
ÙĨ
Ø±
Ùĩ
ÙĪ
Ùħ
Ø¯
Øª
Ġt
Ú©
ĠØ¨
he
ĠØ§
Ġa
ĠÙħ
ÙĦ
Ø³
in
âĢ
Ø´
âĢĮ
ĠØ¯
ĠÚ©
Ø²
Ø§ÙĨ
Ġthe
Ø¨
re
Ġo
Ġs
Ġw
Ú¯
Ø§ÛĮ
Ùģ
ĠÙĪ
er
nd
ĠØ±
at
Ø§Ø±
Ø³Øª
ÙĤ
ÙĨØ¯
on
is
ĠØĮ
ou
it
ĠÙĨ
Ġc
ed
Ġb
en
ÛĮÙĨ
ĠØª
ĠÙħÛĮ
ÙĪØ¯
Ġh
Ġf
or
ĠØ¯Ø±
Ġm
ĠØ¨Ùĩ
an
ing
Ġof
Ù¾
es
ĠØ´
ĠÚ©Ùĩ
Ġto
ĠØ¢
ar
Ġp
ĠÙĩ
Ø¹
ĠØ³
Ø±Ø¯
Ġin
Ġd
al
Ø®
ĠØ®
ĠØ±Ø§
Ġand
as
Ġth
ÚĨ
ĠØ§Ø²
Ø§Ø¯
Ġl
Ø¬
ÛĮØ¯
Ø§ÙĦ
ĠÙ¾
ic
om
Ø§Ùħ
ĠØ¨Ø§
le
ØŃ
Ġn
ĠÛĮ
ÙĪØ±
ll
ĠÚ¯
ion
ĠØ¨Ø±
Ġhe
ĠØ§ÛĮÙĨ
ĠØ¬
Ġg
ĠØ§Ø³Øª
Ġe
ÙĩØ§ÛĮ
ĠØ¨ÙĪØ¯
Ġbe
Ø·
ly
ÙģØª
ÙĪÙĨ
ot
st
ad
ĠÚĨ
ve
Ø§Ùĩ
ĠÙģ
Ø´Øª
ent
ow
ÙĩØ§
Ø±ÛĮ
ut
ĠØ¢ÙĨ
ĠØŃ
im
ÙĦÛĮ
id
Ġre
se
ĠØ²
Øµ
Ġthat
ÙħÛĮ
ÙĪÛĮ
Ġy
ld
ac
ĠI
ĠÙĩÙħ
et
Ġwas
Ġon
Ø¯Ùĩ
ÛĮØ±
ro
ĠØ¹
Ġis
gh
ver
Ø§Ø¨
ĠÙĤ
ĠÛĮÚ©
ay
Ġu
ÛĮÙħ
Ġit
ir
Ø§Øª
Ġyou
am
ur
ĠÚ©Ø±Ø¯
Ġfor
Ġwh
Ġ(
Ø§Ø²
The
ith
ĠØ§ÙĪ
Ġst
Ġwe
ÙĪØ§ÙĨ
Ø³ÛĮ
ĠÙħÙĨ
ct
ĠS
ĠÛ
ce
Ġwith
Ġas
ĠA
ri
ter
Ú¯Ø±
ch
ØªØ±
ĠM
's
ØªÛĮ
Ø¯Ø±
ĠC
Ġan
and
ol
ation
her
il
ĠØ¨Ø±Ø§ÛĮ
ÙĪÙĦ
ĠØ®ÙĪØ¯
ÙħØ§
ĠÚ©ÙĨ
Ø±ÙĪ
Ġhis
Ø¶
Ú©ÙĨ
Ø§Ø´Øª
if
Ø±Ø§
ÙħØ§ÙĨ
Ġat
Ø§Ø±ÛĮ
ght
Ø¢
ke
ÙĨÚ¯
ÛĮØ²
ĠÙĦ
ĠØ±ÙĪ
Ġnot
ĠØ´Ø¯
ĠØ¨ÛĮ
Ø¸
Ø®Øª
Ġha
od
ĠØµ
Ø°
Ø§Ø¯Ùĩ
Ġse
ĠØ®ÙĪ
ul
Ġhad
ould
ain
Ġ"
Ġ1
ĠÙħÙĪ
ĠP
th
ÙĦØ§
Ġde
ill
ag
us
op
Ġher
ĠØ¯Ø§Ø±
Øº
ĠØ·
ĠB
Û°
Ø§ÙĨÛĮ
ore
Ġme
ist
ĠØ´Ø¯Ùĩ
ĠØ¯ÙĪ
Ø«
Ø´Ø¯
Ú¯ÛĮ
ĠØ§ÙĨ
ess
rom
..
Ġcon
um
Ø§Ø³
Ġcom
ĠâĢ
Ú©Ùĩ
ĠØªØ§
pe
Ø¨Ùĩ
ĠØªÙĪ
Ġr
Ġk
ĠØ¯ÛĮ
Ø¦
Ġare
ab
Ġby
Ø§ÙĨÙĩ
red
Ø¨ÛĮ
ĠØ³Ø±
un
ant
Ø§Ø³Øª
Ġsh
Ġ*
Ġor
ĠÚ©Ø§Ø±
em
Ġhave
Ø§ÙĤ
os
el
ers
Ø§ÛĮÛĮ
Ġhim
Ġne
Ġli
Ġex
ĠØŁ
qu
Ġthis
ĠG
est
Ø§ÛĮÙĨ
ĠR
Ġfrom
Ġsu
Ø¯ÛĮ
ĠD
±Û
pp
ĠÙ¾ÛĮ
Ġdo
Ġal
ate
Ġv
ĠÚ¯ÙģØª
ig
ĠØ¯Ø§Ø´Øª
Ġso
Ú©Ø±Ø¯
res
ĠÙħØ§
ĠÛĮØ§
ity
Ø®ÙĪ
ĠÙĨÙħÛĮ
Ú¯Ø§Ùĩ
nt
ĠL
ÙĨÛĮ
ĠT
ĠÙģØ±
art
Ġpro
ard
all
Ú©ÛĮ
Ġall
Ø¨Ø±
ĠH
out
ort
ĠØ³Ø§ÙĦ
Ġgo
ust
ĠF
ĠE
ok
Ġab
Ġlo
Úĺ
ĠØ¯Ø³Øª
Ø§ÛĮØ¯
ap
Ø¨Ø§
Ġch
ÛĮØ³Øª
ich
Ø§ÙĪ
Ġthey
Ġ2
Ġwor
au
ÙĤÛĮ
ÙĩØ±
Ġshe
ome
ØªÙĪØ§ÙĨ
ÙĦÙĩ
Ø¹ÛĮ
Ø´Ø§ÙĨ
Ġ=
Ġwhe
Ø§Ø±Ùĩ
ive
ÙĨØ¯Ùĩ
Ġwere
ie
ally
ĠÙĩØ±
't
Ø§ÙĨØ¯
ĠÂ
ĠN
ÙģØ±
Ġsa
Ġmy
ĠÚ¯Ø±
He
very
ĠW
ÛĮØ§
our
rou
ĠÙħØª
ĠØ¨Ø§Ø²
ies
ak
Ġcan
Ġone
Ġint
ast
ĠÙĩØ³Øª
ĠØ¢Ùħ
Ø¹Ø¯
ĠÛ±Û
ÛĮØ¯Ùĩ
ĠØ§ÛĮ
Ġup
Ġkn
ight
ame
ge
Ø±Ùģ
ous
ĠÙħØŃ
Ġle
00
ry
Ø§Ø®Øª
ĠØŃØ§ÙĦ
ĠØº
ong
ind
Ú©Ø±
ell
Ġj
ÙħÙĨ
ci
Ġwhich
iv
ack
ide
Ø§Ø´
Ġout
ÙĪÙħ
Ø¨Øª
ĠJ
ÙĩÙħ
ment
ÙĪØ´
ĠÙħØ¹
one
Ø±Ú©
ra
ÙĬ
ĠØ§Ø³
ĠÚĨÛĮØ²
Ġwho
ĠÚĨÙĩ
Ġwould
Ġthem
Ġus
ÙĪØ±ÛĮ
ĠØ¯Ø§Ø¯
Ġbut
And
ÙĢ
ure
It
ÙĪØ²
ĠØ¨Ø¯
ost
ÙģØªÙĩ
Ġman
ther
ĠØ±ÙĪÛĮ
ÚĨÙĩ
ine
Ø´ÙĪØ¯
ĠØ§Ùħ
fe
Ġpl
Ġ19
ud
Ùĭ
ĠØ´ÙħØ§
ĠØ¯ÛĮÚ¯Ø±
Ġthere
Ġabout
pt
Ġtheir
Ø¬Ø§
Ø±Ø³
Ġ-
own
ÙĶ
ĠÙĨØ¯
Ġwhat
Ø´ÙĨ
Ø§Ø¯ÛĮ
Ø§Ùģ
Ø¬Ùĩ
ĠÚ©Ø±Ø¯Ùĩ
ace
ĠÙĩÙħÙĩ
ear
Ø§Ø±Ø¯
ran
ĠÙħØ±Ø¯
Ø§ÙĦÛĮ
Ġbeen
lo
Th
ĠÙĤØ±
ĠÛ²
ated
ia
ber
ĠÙĨØ¸
ime
Ġno
¹Û
ĠÚ©Ø´
sel
Ú©ÙĨØ¯
ĠÙĨÙĪ
ĠÚ©ÙĨØ¯
Ġsaid
ck
Ġ'
Ġlike
ÛĮÙĦ
Ġmore
ake
ĠØ¯Ùĩ
are
ĠØ¯Ø§Ø±Ø¯
ian
ĠØ®ÙĪØ§Ùĩ
ice
ÛĮÙĦÛĮ
Ø±Ú¯
ĠØ¨Ø²
Ġim
ond
ĠÙ¾ÛĮØ´
act
Ġun
Ø§ÙħØ§
ĠÙĩÛĮ
age
Ġag
pl
Ø´Ùħ
ÙĤØª
itt
og
ĠÙħØ´
ink
Ø±Øª
ass
Ġen
In
...
ĠK
Ġpe
per
ĠO
ĠâĢĵ
Ø§Ú©
ĠÚ©ÙĪ
Ġcould
ven
iz
ions
ĠØ§ÙĨØ¯
Ġwhen
ite
hing
ÛĮÚ©
ru
ĠU
Ġother
Ø§ÙħÙĩ
Ø¬ÙĪØ¯
hed
ĠØ¨Ø§Ø´Ø¯
Ġdis
Ġar
ip
ĠÚ©Ùħ
Ø±Ùĩ
so
ĠÙħØ³
ound
ĠØªÙĨ
ÙħØ§ÛĮ
Ġhas
ary
Ġif
ĠØ§ØŃ
ĠØ§ÙĦ
Ġcomp
Ġinto
Ġsome
ence
ÙĩØ§ÛĮÛĮ
ĠØ±ÙĪØ²
Ø¹Ùĩ
ĠØªØ±
Ġro
ÙħÛĮÙĨ
ĠØ§Øª
ĠØ¨ÙĪØ¯ÙĨØ¯
Ø¹Øª
Ø¯Ùħ
Ġqu
Ġsp
reat
Ġyour
Ġtime
ble
Ġtw
ep
Ġany
Ø´Ùĩ
ĠÙĨÛĮØ³Øª
able
ical
cc
Ø³ØªÙĩ
Ġknow
ÙĨÛĮÙĨ
Ġfe
Ġwill
Ġbec
Ø´ÛĮ
ĠÙĪØ§ÙĤ
But
ĠÙ¾Ø³
Ġdid
ÙĤÙĩ
Ġlook
ĠØ±Ø³
ause
Ø¯Ø§
self
ĠØªÙħ
Ġaf
ople
ount
ÙĪØ±Ø¯
ress
ree
ĠÙĨÙĩ
ish
ĠØ¹Ùħ
ĠØ¨Ø³ÛĮ
Ø§Ø·
ĠÂ»
ire
ĠØ±Ø§Ùĩ
ĠV
ĠÙħÙĤ
Ġad
ang
Ġover
ays
av
Ġpr
ĠØ²ÙĨØ¯
ĠØĽ
Ù¾Ø³
ose
Ġthan
ÙĪØ³
ĠÚ©ÙĦ
ĠØ±ÙģØª
te
ĠØ§ÙħØ§
for
ÙĪÙĨØ¯
Ú©ÙĦ
Ġcl
ĠÙħØ¯
ÙĤØªÛĮ
ĠØ¨Ø§ÛĮØ¯
Ú©Ø§Ø±
ÙģØ§Ø¯Ùĩ
irst
ren
Ø³ØªØ§ÙĨ
ile
ign
ĠÚ¯Ø°
ÙĨØ¬
nder
ÙĪÙĨÙĩ
Ġpeople
ĠÙĨØ§Ùħ
Ø§Ø²Ùĩ
ings
ĠÛ±Û¹Û
Ġper
Ġvery
other
ĠÙħØ«
the
ĠÙ¾Ø§ÛĮ
ach
ÙĪÙĦÛĮ
Ø¯Ø§ÙĨ
Ġsee
ild
ĠØ¨Ø§ÙĦ
Ø®ÙĪØ§Ùĩ
ĠØ§Ø³ØªÙģØ§Ø¯Ùĩ
Ø¬Ø§Ùħ
Ú¯Ø°
urn
ĠØ¨Ø¹Ø¯
ĠØ¹ÙĨ
ÙĨØ§ÙĨ
Û°Û
ved
ĠÙĨØ¸Ø±
ade
ĠÙħØ¬
ÙĪØ±Øª
ĠÙĪØ¬ÙĪØ¯
ĠÙĩÛĮÚĨ
ÙĦÙĪ
Ġcont
Ø§Ø¯Ø±
Ø²ÛĮ
Ø§Ø®
ect
ĠÙ
ult
Ġthou
ory
Ġpart
Ø¨Ø§Ø±Ùĩ
ĠÙĤØ±Ø§Ø±
Ø§ÙħÛĮ
ĠÙĨÛĮØ²
Ġyear
port
ĠÙĪÛĮ
bl
ĠØ¨ÛĮÙĨ
ĠØªØµ
Ġonly
Ø¢ÙĨ
ance
You
ÙĪØ§
ĠØ²ÛĮ
ations
Ø¨ÙĪØ¯
Ġte
ÙĤØ·
ĠØ¯ÙĪØ±
Ġfirst
Ġour
ĠØ¨Ø§Ø±
Ø¯ÛĮØ¯
ĠÙģÚ©Ø±
ĠÙĩØ³ØªÙĨØ¯
Ġam
ĠÚĨÛĮØ²ÛĮ
ff
Ġres
Ġco
ĠÚĨÙĨØ¯
Ø¨Ø§ÙĨ
Ġjust
Ø²Ø§Ø±
Ø§Øµ
ĠÂ«
ĠØ®ÛĮÙĦÛĮ
Ø§ØŃ
Ġtwo
ĠØ¬Ùĩ
ĠØªØŃ
Ġwork
ĠÙ¾Ø±
ĠSt
ue
Ú¯Ùĩ
ĠÙĨÛĮ
cl
Ø´ØªÙĩ
ĠØ§Ø¬
ÙħØª
ick
wn
ĠCh
Ġ--
Ġthen
ĠÙħÙĪØ±Ø¯
ØªØ±ÛĮÙĨ
Ġspe
ĠØ§ÙĨØª
ĠØ¨ÛĮØ´Øª
we
Ġnow
ĠØ²ÙħØ§ÙĨ
ĠØ³ÛĮ
Ø®Øµ
ĠØ§Ú¯Ø±
Ġthink
Ġgr
ĠØ´ÙĨ
ĠØ³Ø§Ø®Øª
ĠØ¬Ùħ
ĠØ¹ÙĨÙĪØ§ÙĨ
She
ater
ĠØªÙĪØ³
Ġbo
Ġoff
Ġhow
ĠØ²ÙĨØ¯Ú¯ÛĮ
ĠØ¨ÙĦ
Ø¨ÛĮÙĨ
ĠâĢ¬
ĠØ²ÛĮØ±
Ø±Ø²
ĠØ¨Ø²Ø±Ú¯
ark
but
ĠØ´ÙĪØ¯
Wh
ĠÙĨØ´
ĠØ¯ÙĦ
Ġfo
Ø·ÙĪØ±
ife
Ġalso
right
ens
Ø¦ÛĮ
ĠØ¯Ø§Ø¯Ùĩ
ÙĪÙĩ
Ġevery
Ġagain
ĠØ§ÙĨØ¬Ø§Ùħ
ĠÙĪØ§ÙĤØ¹
ord
tern
ĠØ§Ùģ
ĠØ§Ø·
Ġdes
Ġbet
ĠÛĮÚ©ÛĮ
ĠÚ¯Ø±ÙģØª
ÙĪØª
Ġget
Ġbr
ft
ÛĮØª
Ġpo
ew
ction
ĠØ§ÙĨÚ¯
ĠØ¨Ø³ÛĮØ§Ø±
mer
So
ĠØ¯Ø§ÙĨ
Ġunder
Ø±Ú©Øª
Ġthese
ĠØ¨Ø®
ĠØ§Øµ
ial
fore
Ġback
Ġsm
alk
Ø¯Ø§ÛĮ
vel
Ġ/
ÙĨÙĩ
ÙĦØ¨
Ú©ÙĨÙĨØ¯
Ú¯ÙĪ
They
Ú©Ø§ÙĨ
ĠÙħØ§ÙĨ
vers
ict
ase
uch
Ø±Ø¨
ĠØ§ÛĮÙĨÚ©Ùĩ
ĠÙĨÙĤ
Ġwant
ĠÚĺ
Ġits
ĠØ®Ø§ÙĨ
Ġhand
Ú¯Ø±ÛĮ
ons
Ø±ÛĮÚ©
ov
ĠØ´ÙĩØ±
Ø³Ùĩ
Ġ20
ĠØ¯ÛĮØ¯
omet
ĠØ¨Ø±Ø¯
ĠÙĨÚ¯Ø§Ùĩ
ĠÙĩÙħØ§ÙĨ
ied
ĠØ¨Ø§Ø´
Ø±Ùħ
ĠÚ©ÙĨÙĨØ¯
Ø§Ø±Øª
ĠÚ©Ø±Ø¯ÙĨ
Ġpre
ĠØªÙħØ§Ùħ
orn
ward
ĠÙĨØ§
ious
ng
Ø£
're
ĠÙĩØ§
Ġtr
du
Ġsc
This
Ġdown
ĠØ³ÙĪ
Ø§ÙħÙĦ
ÙģÛĮ
ittle
Ø§Ø²ÛĮ
Ø¶ÛĮ
Ġact
ÙĪÙĨÛĮ
hen
ather
ĠØ§Ø´
Ġway
ĠÚ©ÙĨÙħ
Ġsay
ĠØ®Ø§ÙĨÙĩ
ors
Ġ200
ĠÙĩØ§ÛĮ
ition
int
ĠØ§ÙĪÙĦ
ĠØ¨ÛĮØ´ØªØ±
Ø¨ÙĦ
ĠThe
Ú©Ø³
We
ces
ĠØ¬ÙĨ
Ġmost
iss
Ġafter
Ġwhere
Ġeven
ĠÙĨÙħ
ath
Ú©ÙĨÙħ
ÙħÙĩ
Ø§Ø¨Ø±
ÙĪØ¨
).
ØªØ´
ÙĲ
ĠØ¬Ø§ÛĮ
Ú¯ÙģØª
ĠØ¯Ø§Ø´ØªÙĩ
ĠÙĩÙħÛĮÙĨ
Ġlittle
ĠØ¢ÙĨÙĩØ§
man
Ġnew
Ġfl
ÙħØ¯
ĠØ§Ø¯
ÙĨØ§
ull
rough
Ġsy
ple
ily
Ġlong
ĠØªØ¹
ood
ove
ĠÙĩÙĨ
Ġbl
ĠØªÙĨÙĩØ§
round
ĠÙħØ·
ØªÙħ
Ġcomm
ĠØµÙĪØ±Øª
ĠÙħØ«ÙĦ
Ġsuch
be
way
Ø®ÛĮ
Ġmuch
ØªØ§Ø¨
Ġworld
ÙĤØ§ÛĮ
Ġgoing
ĠØ§Ø¹
ĠØ´Ø¨
Ġrem
Ø¸Ùĩ
Ġdon
Ø³Ø§ÙĨ
ĠØŃØ±Ùģ
ĠÙĨØ¨ÙĪØ¯
ĠØ²ÙħÛĮÙĨ
Ġmade
ĠÙĨØ²
ĠÙħØ±Ø§
Ġright
ced
ĠÙĪÙĤØªÛĮ
ĠØªÙĪØ³Ø·
Ø¨Ø§ÙĦ
Ø³Ø±
ates
Ġbefore
gan
Ġdif
Ġbecause
ne
Ġform
ĠØ¶
ĠÚ©ÙĨÛĮÙħ
ĠØ§ÙĪÙĨ
Ú¯Ø§ÙĨ
Ú¯ÙĪÛĮ
oss
ents
ØªÙĪØ§ÙĨØ¯
ĠUn
Ġthrough
Ġcall
Ø§Ø¨ÙĦ
ĠÚ©ÙĪÚĨ
ÙĨØ§ÙħÙĩ
ful
ough
Ġyears
ail
ince
ĠØ§ÙģØª
Ġ_
Ġshould
ys
ÙħÙĪ
Ġind
Ø§Ú¯Ø±
Ø¯Ø§Ø¯
ØºÛĮ
ĠÚĨÙĪÙĨ
Ġthought
ĠAr
Ø¯ÙĩØ¯
ĠØ³Ùĩ
Ġgood
Ġwr
Ġmay
Ú©Øª
ÙħÚ©ÙĨ
Ġsomet
Ú¯Ø±Ø¯
Ø¬ÛĮ
Ġ3
Ġser
ave
ving
Ø§ØªÛĮ
Ġhere
Ġrec
Ø³Ø§Ø³
form
Ġday
".
ans
ĠØªÙĤ
ert
Ù¾ÛĮ
Ġcons
ĠÙĨØ³
ĠÙĦØŃ
ited
ĠØŃØ¯
ĠØ¨Ø§Ø²ÛĮ
ars
rent
ness
Ø±Ø¯Ùĩ
ĠÙĨØ´Ø§ÙĨ
Ġey
Ġmake
ĠÛĮØ§Ø¯
ĠÚ©ÙĨÛĮØ¯
ĠØ¢Ø²
Ġlife
ĠÙħÛĮØ§ÙĨ
ĠØ¢Ø¨
end
ĠØªÙĪØ§ÙĨ
ĠÙģÙĤØ·
ational
ise
ty
ĠØµØŃ
ØªØ§
Ġapp
Ø§ÙĩÛĮ
ÛĮØ¯Ø§
lect
ĠÙĩÙħÚĨ
Ġ201
ÙģÙĩ
ĠØ¨ÛĮØ±
Ø±Ø³ÛĮØ¯
aw
igh
Ú¯Ø²
Û°Û°
augh
ves
Ø®ØªØ±
Ġown
ĠØ¯ÙĪØ³Øª
ÙĨØ¯ÛĮ
ÙĩÛĮ
ĠÙĦØ¨
ĠØ¢ÙĪØ±Ø¯
Ġnever
ual
Ġold
ually
Ġcount
ĠÚ©Ø´ÙĪØ±
ĠØ²ÙĨ
There
ÙĪØ¹
ĠÚ¯Ø±ÙģØªÙĩ
ÙħÙĦ
ĠÙĨØ¯Ø§Ø´Øª
Ġwell
Ġmany
ĠØ®ÙĪØ§ÙĩØ¯
ĠIn
olog
Ġgen
air
Ġatt
ĠÙĨÙģØ±
Ġgreat
ĠÚ¯Ø±Ø¯
'm
ible
ject
Ġph
ĠÙħØ±Ø¯Ùħ
Ġcome
Ġrel
Ø¨Ø§Ø±
ĠØ¢ÙħØ±ÛĮÚ©
ĠØ¯Ø§Ø±ÙĨØ¯
ĠØ¬ÙĨÚ¯
ĠØ®ÙĪØ´
ĠØ¯Ø±Ø¨Ø§Ø±Ùĩ
ĠÚ©Ø³ÛĮ
ĠØ®Ø·
ĠØ®ÙĪØ¨
Ġsec
ĠÚ©Ø±Ø¯Ùħ
ĠY
Ġsame
Ġbu
ÙĦÙģ
ouse
Ø§Ø·Ø±
Ġthose
ib
Ġused
ĠØ²Ø¯
ĠØ°
Ġacc
Ġhapp
ĠØ´Ùħ
ĠØ¬ÙĪ
ĠØ¨ÛĮØ±ÙĪÙĨ
ĠÙħÙħÚ©ÙĨ
Ú¯ÛĮØ±
aking
ried
ØŃØ§ÙĦ
ĠØ´Ø±
Ġwom
ÙĪÙĤ
les
Ġbeing
ĠØºÛĮØ±
ower
Ø´ÛĮØ¯
ob
Ġcr
az
ĠØ´ÛĮ
ody
ix
ĠÙĪÙĦÛĮ
ĠØªØºÛĮ
Ø§Ø¶
Ø²Ùĩ
ĠØ§ØŃØ³Ø§Ø³
Ġtoo
ØŃÛĮ
ĠØ´Ú©
Ø¹ÛĮØª
Ġask
Ġac
ĠØ·ÙĪØ±
Ġbel
Ġend
ĠÚĨÙĨÛĮÙĨ
Ġturn
Ø±ÙĪØ¹
ĠÚĨØ´Ùħ
Ø¨Ø±Ø¯
Ø¯Ø§Ø±
stem
ÙĪØ§Ø±
ĠÙĤØ¯Ø±
hes
ĠØ¯ÛĮÚ¯Ø±ÛĮ
ank
thing
've
ĠØ·Ø±Ùģ
old
Ġem
Ġke
Ġmust
ĠÚ©Ø§Ùħ
ĠØ¢ÙħØ¯
ĠØ³Ø§
ms
ics
ØªÙĪØ§ÙĨØ³Øª
Ø±ÛĮÙĨ
Ġneed
aid
Ġsl
ĠÙ¾Ø±ÙĪ
oc
ĠÚ¯Ø±ÙĪ
Ġwent
oth
ÙĨÙħ
Ø®ÙĪØ§Ø³Øª
Ø³Ùħ
ĠØŃØ³
ubl
ĠØªØ¬
ĠÚ©Ø±Ø¯ÙĨØ¯
ĠØ±Ø³ÛĮØ¯
ĠØ¹ÙĦ
ĠÙħÙĩ
ĠÙ¾ÛĮØ¯Ø§
Ġcar
ĠØ±ÛĮ
ĠØ¬Ø§
ĠÙħØ§ÙĨÙĨØ¯
ec
ĠØªØºÛĮÛĮØ±
ph
Ġlet
ween
Ġcame
ØªÙĪÙĨ
Ġchild
ÙĩÙĨÚ¯
ating
ĠØ¨ÙĪØ¯Ùħ
ÙĨØ´
ĠØªØ´
ĠØ·ÙĪÙĦ
Ġob
Ġthree
Ø²Ø¯
Ġhead
pect
Ġhum
ĠØ´Ø±ÙĪØ¹
ĠØ¢ÙĦ
Ú©ÙĪ
ĠÙģÛĮÙĦ
ting
What
cess
ĠØ¢ÙĨØ¬Ø§
land
Ġent
imes
ĠØ¨ÙĪØ¯Ùĩ
ÛĮÙĨÙĩ
led
ĠØ³Ø§Ø²
ĠØ¯Ø§ÙĨØ´
ĠØŃØªÛĮ
ÙĪÛĮÛĮ
ĠØ¸
Ú¯ÛĮØ±ÛĮ
ared
Ġdiffe
Ġstill
ont
ĠÙĪÙĤØª
Ġhimself
ened
ĠØ³ÙĦ
Ġtake
ÛĮÙĨÛĮ
ĠÛ²Û°
ĠÛĮÙĩ
ÛĮØ±Ùĩ
ĠMr
Ø´ØªÛĮ
ĠÚ©Ø³
Ġsomething
gin
Ġfound
ĠØªØ§Ø±ÛĮ
cial
vent
ĠØ§Ø±Øª
Ø±ÙģØª
Ġgot
ĠØ®ÙĪØ¯Ø´
fect
Ġop
ady
ning
ĠÚ©ØªØ§Ø¨
Ġdist
get
ĠÚ¯ÙĪØ´
),
Ġbetween
ier
'll
ĠØ´Ùĩ
Ø«Ø±
ĠÚ©ÙĪÚĨÚ©
ÙħØ§ÙĨÛĮ
ĠÙģØ±ÙĪ
ĠØ¨ÛĮÙħ
ĠØ®Ø§Ø·Ø±
ÙĪØ¯ÛĮ
Ġseem
Ø§ÛĮØ´
Ġreg
ĠÙ¾ÙĨØ¬
rans
Ġear
aughter
Ġlast
Ġthings
Ġaway
ĠØ¨ÛĮØ´
ĠØ²Ø¨Ø§ÙĨ
Ġeyes
Ġinc
ĠØ¢Ø±
Ġpers
xt
ØµØ¯
Ġimp
Ġinst
ĠØªØ¨
ĠÙĨØ²Ø¯ÛĮ
Ġsur
Ġtell
ĠØ¨ÙĨ
ular
ÙĦÛĮØ³ÛĮ
ØªÙĪ
âĢĮâĢĮ
ĠØ«
gg
ĠØ¯Ø±Ø³Øª
Ġstart
ros
Ġset
Ġmight
ĠÙ¾Ø§
ased
ĠØ§ØªØ§ÙĤ
Ġword
ĠØ§ÛĮÙĨØ¬Ø§
Ġuse
¸Û
ĠØ¨Ø§ÙĦØ§
uring
Ø¹Ø§Øª
ric
Ġreally
Ø§Ø³ÛĮ
ĠØ¯Ø®ØªØ±
ĠÙħØ§Ùĩ
ific
und
Ġ{
Ġtalk
Ġsystem
ere
ows
cept
ÙĩØ§ÛĮØ´
ĠØªÙĪÙĦ
wh
Ġter
ĠØ¯ÙĨ
ĠØ§ÙģØ±
Ġ4
Ġfeel
ĠØ¨Ø¯ÙĪÙĨ
Ø¨Ø±Ø§ÛĮ
ĠÚ©ÙĨØ§Ø±
ĠØ³Ø®
Ġfam
Ø¢ÙħØ¯
."
ĠØ¬Ø²
ĠÙĥ
ities
Ġcol
ĠÙ¾ÛĮØ±
Ġpass
ĠÙħØ¹Ùħ
gr
Ġmat
Ġpol
ĠÛ²Û°Û
ĠØµØ¯Ø§ÛĮ
Ġsupp
Ø§Ø¨ÛĮ
Ø´ÙĪÙĨØ¯
ĠÙĨÙħØ§ÛĮ
ident
ĠØ®ÛĮ
ah
Ġroom
Ø§Ø¹
Ġret
ĠÚ©Ø§Ø±ÛĮ
ĠØ§Ø·ÙĦØ§
ork
ĠØ¯ÙĨÛĮ
Ġdec
Ø®Ø§ÙĨÙĩ
Ġwithout
ĠÙħØ³Øª
als
ÙĦÛĮÙĦ
ÙĪØµ
Ġput
Ġgl
ered
ÚĺÛĮ
ĠÙħØµ
Ġap
That
ĠØªØ£
ĠØ´Ø±Ú©Øª
ĠÙĤØ·
Ú©Ø±Ø¯ÙĨØ¯
Ġpres
ĠØ¬Ø§ÙĨ
ever
Ġsub
³Û
ĠØ§Ø®
cho
ished
ĠÙ¾Ø¯Ø±
ØªØ§ÙĨ
ĠÙħØ±
ĠØ¬Ø¯ÛĮØ¯
Ġinter
If
Ø§ÛĮÙĦ
Ġface
Ġnum
ĠØ±ÙĨÚ¯
cy
Ø±Ø§Ùĩ
Ġeach
li
arch
ĠÙħÙĦ
Ġstud
ĠØ´Ø¯ÙĨ
ways
ale
Ø§ÛĮØª
ĠAir
ĠÛ±
clud
ĠØ¯Ø±ÛĮØ§
Ġaround
Ġsim
ĠÙħØ§Ø¯Ø±
ĠØ¬ÙĩØ§ÙĨ
up
ĠÚ¯Ø°Ø§Ø´Øª
ĠØ´Ø®Øµ
ĠØ³ÙĨ
Ø§ÙĨÚ¯
its
Ġmen
ĠØŃÙĤ
Ġexp
Ø§ÙĨØ³
ative
ĠÙĩÙĨÙĪØ²
ĠÙĩÙĨÚ¯
Ø§Ù¾
ret
Ġlar
ĠÚĨØ±Ø§
Ġgu
Ø¨ÙĪØ±
Ġcalled
owing
ĠTh
ÙĤØ§
ĠØ¯Ø§Ø±Ùħ
ĠÚ¯Ø±ÙĪÙĩ
Ġhel
Ġins
Ġthing
ĠØ¹ÙĤ
ures
Ġdoes
ĠØ´Ø¯ÙĨØ¯
Ġprodu
Ġâ
Ġgener
When
ĠØ´ÙĪ
ĠØ§ÛĮØ§ÙĦ
ĠØ§Ùĩ
ĠÙħÛĮØ²
ters
Ġreal
Ġleft
Ġmet
ĠØ³ÛĮØ³Øª
Ġanother
ĠÚ©ÙĦÛĮ
ĠÛ²Û°Û°Û
ten
ĠØ¨ÚĨÙĩ
ÙĪÙĤØªÛĮ
ĠÙħØ®
ps
arm
Ġdifferent
ub
ĠØ®Ø§Ø±
here
Ġmon
Ùī
ĠÚĨÙĩØ§Ø±
ĠÙĨØ²Ø¯ÛĮÚ©
Ġcour
Ġtrans
Ġ18
ĠØ¬ÙĪØ§ÙĨ
ÙħÛĮØ´Ùĩ
ÚĺÙĩ
Ġ5
ism
Ø®ÙĪØ±Ø¯
ĠÙ¾Ø´Øª
ĠRe
Ġmod
riend
ØªÙħØ§
ĠØ¨Ø¹
ĠÚ©ÙħÚ©
ivers
Ġadd
ĠØ¨ÙĦÙĨØ¯
ĠØµØŃØ¨Øª
Ġinv
ĠÙħÙĪØ¶
Ø³ØªÛĮ
ĠÙĦÛĮ
Ø¯Ø§Ùħ
ange
Ġfind
Ġplay
As
ĠØ¨Ø±ÙĨØ§ÙħÙĩ
19
ĠÙħØªØŃ
Ġmom
Ġstr
ĠÙģÛĮÙĦÙħ
ĠØ²ÛĮØ§Ø¯ÛĮ
Ġlooked
oy
ÛĮÙĩ
ĠÙħØº
ner
Ġhouse
ution
ĠÙĨÛĮØ±
ĠØ¨Ø¯Ùĩ
ĠÛ²Û
hip
velop
ĠØ³Ø§Ø¹Øª
ÙĪØ·
Ú¯ÙĪÙĨÙĩ
ility
Ġfr
Ú©ÙĨÙĪÙĨ
ĠØ¢ÙħØ±ÛĮÚ©Ø§
ĠÚ©ÙħÛĮ
Ú¯Ø´Øª
ĠØ¢ÙĤØ§ÛĮ
ĠØ³ÛĮØ³ØªÙħ
ĠÙĦØŃØ¸Ùĩ
Ø°ÛĮØ±
ÙģØ§ÙĤ
Ø¬Ø§Ø¯
io
Ġche
ĠØªÙĪØ¬Ùĩ
Ġtook
For
Ġlight
Ġwhile
Ø±ÙĪØ²
ÙĪÙħÛĮ
Ġmin
ĠØ¯ÙĤÛĮ
owed
Ġplace
ĠØŃØ§ÙĦÛĮ
ÙĩÙĨ
ØªÙĨ
ĠØªÙĪÙĦÛĮØ¯
alf
Ġbelie
ÙĤØ§Øª
ĠØ§ÙĪÙĦÛĮÙĨ
ger
Ġlove
Ġmem
Ġnight
Ġfact
iness
How
Ġkind
meric
ĠÚ¯ÛĮ
Ġalways
ized
Ġcent
den
Ġrep
Ġev
Ġnothing
ists
On
ross
ĠØ§ÙĨØªØ®
Ġref
der
ĠØ®Ø§ÙĨÙĪ
Ġfin
ĠØ§Ø¨
less
Ġair
Ġfoll
ĠÙĪØ§Ø±Ø¯
ĠÙģØ¹
ĠØŃØ±Ú©Øª
ĠØ§ÙĨØ¯Ø§Ø²Ùĩ
min
ĠØ³Ø¨
Ġpoint
ĠÙħØ®Øª
ĠÙħÙĪÙĤ
ern
Ġyoung
Ġcur
Ġupon
ĠÙĨÛĮØ§Ø²
elt
ØªØ±ÛĮ
Ġfriend
ĠLe
ÙħÛĮÙħ
ĠØ¯ÛĮØ¯Ùĩ
Ø§Ø¦
ĠØ§ÛĮØ¬Ø§Ø¯
ĠØ§ØªÙģØ§ÙĤ
ĠØ®Ø§ÙĨÙħ
Ġsaw
amp
Ù¾Ø±
Ġinclud
Ø¢ÙĪØ±Ø¯
Ġcap
Ø®ØªÙĩ
ĠØ§ÙģØ±Ø§Ø¯
ĠØ§ÙĨÚ¯ÙĦÛĮØ³ÛĮ
Ġposs
ÙĨØ¯Ø§ÙĨ
gy
Ġunderst
Ġide
ÙĪØ¯Ùĩ
Ġsmall
ained
ek
Ġdisc
ted
ĠØ§ÛĮØ³Øª
Ø¨Ø§Ø´Ø¯
'd
ĠØ¯ÙĨØ¨Ø§ÙĦ
Ġperson
ĠØ§Ø±
ĠØ¢Ø®
Ø§Ø®ØªÙĩ
to
vern
Ġ199
ĠØŃØ¶
ments
Ġbeh
any
ote
Ø¨Ø¹Ø¯
ĠÛ²Û°Û±Û
ĠÚ©Ø´ÛĮØ¯
ĠÙĩÙħÛĮØ´Ùĩ
iet
ĠØ§ÙĨØªØ®Ø§Ø¨
Ġgiv
ĠØ´Ú©ÙĦ
ched
ts
ĠØ¯ÙĪÙĦ
ĠØ§ÙĨØ³Ø§ÙĨ
ublic
ÙĪØ³Øª
ĠâĢİ
arry
Ġcre
ages
ata
na
ĠØ¹ÙħÙĦ
ĠØ¨Ø®Ø´
ĠÙĨØ³Ø¨Øª
ĠÚ©ÛĮ
ĠØ®Ø±
ĠØ¯ÙĩØ¯
Ø§ÙĪØ±
Now
Ġhelp
ĠØ¯Ø§Ø®
Ø¡
ĠAl
ĠØ²ÙħØ§ÙĨÛĮ
rist
ĠIs
ĠAmeric
ĠCom
ĠØ¯ÙĪØ¨Ø§Ø±Ùĩ
ĠÙĪØ±
ĠØªÙģ
Ġagainst
Ġfew
ĠØ³ÙĨÚ¯
Ġknown
Ġhuman
Ø¯ÛĮÚ¯Ø±
Ġhigh
ÙĤÙĦ
ĠÙħÙĪØ¶ÙĪØ¹
ĠØ³ÙĪÛĮ
ĠÙĤØ¨ÙĦ
·Û
ĠÙĨØ¯Ø§Ø±Ø¯
ĠØ¢ÙħØ¯Ùĩ
Ø¹Ø¯Ø§Ø¯
ĠÙĪØ§ÙĤØ¹Ø§
Ú¯Ø°Ø§Ø±
chool
ĠÚ©ÙĪØ¯
ĠØ§Ø¯Ø§ÙħÙĩ
ĠÙĩÙħÚĨÙĨÛĮÙĨ
she
ĠÙ¾ÙĪÙĦ
Ø¨Ø§ÙĨÛĮ
oun
ĠÚ¯ÙĦ
Ġexam
ÙĨÙĪ
ax
ĠØŃØ§ÙĦØ§
ØªÛĮØ¬Ùĩ
ĠÙħÙĨØ·
Ø®ÙĪØ§ÙĩØ¯
Ġonce
Ø§ÛĮÙĩ
Ø¯Ø§Ø´Øª
ĠÛĮØ§ÙģØª
Ġconf
Ġthough
Ġmind
ĠØ¨Ø§Ø´ÙĨØ¯
aph
ĠÙĨØ¯Ø§Ø±
Ġever
ĠØ³Ùģ
ĠÙħÙĩÙħ
ĠÙħÛĮÙĦÛĮ
ÙĪÛĮØ³
Ø¨Ø·
ik
ÙĤØ¯Ø±
uc
Ġbegan
oice
ense
Ġfour
Ġstand
rit
Ġmoment
ĠØ¨Ø¨ÛĮÙĨ
ute
Ġbetter
ology
ĠØ¢ÛĮ
ĠÙģØ±Ø¯
said
day
Ġsign
Ø±Ø§Ùģ
Ġed
ĠÙĤØ§Ø¨ÙĦ
ired
ĠÚ¯ÙĪÙĨÙĩ
ĠDe
Ġdevelop
Ø±Ø®
Ġart
irl
con
ash
Ø¹ÙĨÛĮ
ertain
ically
Ú©ØªØ±
outh
ÙĪÙĦØ§
chn
Ø¯Ø§ÙĨØ³Øª
uss
ula
Ú¯ÙĪÛĮØ¯
Ġboth
ield
Ġname
ines
ÙĦØ³
Ø§ÙĪØª
ĠÙĩÙħØ±Ø§Ùĩ
ĠØ¢Ø¯Ùħ
Ø¨ØªÙĩ
ÙĪÛĮØ´
osed
ĠØ¬ÙĦÙĪ
ĠÙħÛĮÙĦ
Ġpower
ĠØ¨ÙĩØªØ±
At
Ġhome
ality
ĠØ³Ø±ÛĮ
ĠAirport
ĠÙĨÙģ
Ø§Ø³ØªØ§ÙĨ
uth
Ġhard
Ġwater
Ġel
ĠØŃØ§Ø¶
ices
Ø§Ø¨Ø±Ø§ÛĮÙĨ
Ġdire
ĠÙģØ±ÛĮ
ĠØ´Ø§Ùĩ
rew
Ġsecond
Ø´Ø§Ø±
ĠØ±ÙģØªÙĩ
ÙħØ±Ø¯
Ø¬Ø±
Ġgive
Ġdr
Ġfil
ĠØ§ÙģØ²
000
iew
ĠØ¨Ø±Ø§Ø¨Ø±
Ġass
ĠØ®Ø§ÙĨÙĪØ§Ø¯Ùĩ
Ġheart
Laughter
ĠØ®ÙĪØ¯Ùħ
Ġcare
ĠØ®ÙĪØ§ÙĨ
ĠØ¢Øº
ural
´Û
ĠÙĨÛĮÙħ
ĠÙĨÚ©Ø±Ø¯
Ú©Ùħ
ĠØ¹ÙĦØ§
Ġprov
Ġcomple
Ø¨Ø±ÛĮ
ĠØ±ÙĪØ´
arn
ĠØ§ÙģØªØ§Ø¯
ÙĪØ¬Ùĩ
Ø§ÙĦÙĩ
Ġmean
ĠØ¯ÙĦÛĮÙĦ
Ġrest
ĠÚ¯ÙģØªÙĩ
Ø±Ø´
ĠØ¯Ø§Ø±ÛĮÙħ
Ġread
ex
ĠØ§ÛĮØ±
most
ĠÙĪØŃ
Ġquest
ĠØ¢ÙĨÚ©Ùĩ
Ġappe
Ġbook
¶Û
Ú¯ÛĮØ±Ø¯
ĠÙĤØ¨
ug
ĠÙħØ¯Ø±
Ø§Ø²Ùħ
Ġmother
Ø¹Ø«
Ġsw
ĠÙĨØªÛĮØ¬Ùĩ
ĠÛµ
Ġfather
Ú©ÙĨÛĮÙħ
ĠØ®ÙĪØ§Ø¨
Ġknew
ined
Ġtold
ÛĮØ¯ÛĮ
Ġfelt
ĠØ³Ø·
ĠÙĨØ®
alth
ĠÙ¾Ø§ÛĮÛĮÙĨ
Ġseemed
Ġdidn
Ø±Ø³ÛĮ
Ø±ÛĮÙģ
ently
ĠØ´Ø§ÛĮØ¯
Ġblo
ĠØµØ¯
ĠØ§ØµÙĦÛĮ
ĠØŃÙĦ
ĠÚĨÙĨØ§ÙĨ
Ø§Ø¨Øª
ering
oh
ins
Ø¨ÙĨ
ock
ook
Ø´Ú©
ĠÙħØ¯Øª
Ġasked
ÛĮØ²ÛĮ
Ø¬Ø¨
ene
ÙĩØ±Ùĩ
com
ĠØªÚ©
Ġtry
orm
ĠÙĤØ§ÙĨ
Ø±ÛĮØ³Øª
Ġsk
aps
Ġbus
Ø§ÙģÛĮ
ĠØ³Ø§Ø®ØªÙĩ
Ġ6
Ø¨Ø§Ø²
ĠNew
Ġnumber
ina
Ø¤
Ġdet
ĠØ¢ÙĨÚĨÙĩ
ĠÙĪØ¶
angu
ised
Ġcle
ĠØ¨Ø§Ø¹Ø«
ĠØ¬ÙĪØ§Ø¨
ĠÙħÚ©
ĠÙħØ§Ø±
Ù¾Ø§
ĠÙģØ¶
ĠÙģØ±ÙĪØ¯
ÛĮØ¯ÙĨ
ason
Ġwalk
Ġpartic
No
Ġloc
Ùĥ
Ġwomen
ĠZ
wards
akes
Ø®ÙĨØ¯Ùĩ
Ø²ÙĨ
Ġsol
ement
Ġvis
ÙĦØ§ØŃ
ature
Ġside
ĠÙĩÙĪØ§
ÚĨÙĪÙĨ
ÙĪÙģ
oney
Well
ird
erv
ĠÚ¯Ø°Ø´ØªÙĩ
ĠÙĨÚ¯Ùĩ
Ġsince
ĠØ¨Ø´
Ġinf
Ġext
ĠØ´ÙĪÙĨØ¯
ĠØ´Ø§ÙħÙĦ
ĠSh
br
Ġchar
ung
ĠØŃÛĮ
ĠØŃÙĤÛĮ
Ġactually
ĠØ¨Ø³ÛĮØ§Ø±ÛĮ
ants
Ġmed
iversity
His
Ġwind
ĠÙ¾Ø±Ø¯
Ġunderstand
ĠÙħÙĨØª
ĠÙħÙĨØ¸
Ø¨Ø¯
ĠUnited
Ġimport
ither
cri
atch
ately
ize
ĠØªØ§Ø¨
ĠÚ¯ÙĪ
ĠÙħØ±Ú¯
Ġfamily
Ġexper
Ø±ÛĮÙĤ
ĠÙģØ±Ø§ÙĨ
Ġhands
ains
Ġunt
Ø§ÛĮÙħ
ĠÙĨÙĪØ¹
Ġlooking
cent
Ø±Ú©Ø²
ĠØ®Ø§Øµ
Ġdone
ĠØ§Ø·ÙĦØ§Ø¹Ø§Øª
Ġocc
Ø¨Ø§ÛĮØ¯
Ġmo
Ġopen
me
ley
ĠÙ¾Ø§Ø³
Ġsing
ann
Ġseen
Ġless
ĠSe
Ġsil
Ġhalf
Ġenough
ĠØ¯Ø§Ø´ØªÙĨØ¯
ets
ÙĩÙħÙĩ
Ġdoor
Then
ĠHe
ĠÙħØ´Øª
Ġchildren
ĠSp
med
Ø±ÛĮÙĩ
ĠØºØ°
ĠÙĪØ§
Ġgrou
iting
Ġreturn
Ġbuild
Ġbre
ĠØ±Ùĩ
ĠØ¬ÙĩØ§ÙĨÛĮ
ĠPro
",
ĠØ³Ù¾
ÙĪÙĦÙĪ
ĠAnd
Ø¨Ø§Ø·
Ø¯ÙĪ
Ġgirl
Ġlater
ĠØªÙĦ
ĠÙģØ±Ø§
ĠØ®Ø¯Ùħ
ĠÙħØ´Ú©ÙĦ
Ġhour
ral
ope
ling
Ġlist
Ø¨Ø®
ĠØ³Ø®Øª
ĠØªØµÙħÛĮÙħ
ĠÙħØªØŃØ¯Ùĩ
Ø²ÛĮØ±
ÙģØ§
Ġtre
Ġheard
Ġrun
erest
ream
ĠØ¯ÙĨÛĮØ§
Ġmar
ØµÙĦ
ĠØ·Ø¨ÛĮ
ries
ĠØ®ÙĪØ¨ÛĮ
ĠÙĨÙĪØ±
ury
Ø±ÛĮØ¨Ø§
uro
aj
ĠÙ¾Ø§Ø±
Ġtoget
ĠØ¯Ø§Ø³ØªØ§ÙĨ
Ġproble
Ø§ÙģØª
let
ĠØ¬Ø§Ùħ
ĠØ¢Ø´
ron
Ġtogether
ember
ĠØ§ÛĮØ§ÙĦØ§Øª
ÙĦÛĮÙĩ
ĠQ
ÙĬÙĨ
ĠØ¬Ø§ÛĮÛĮ
ruct
ĠØ³ÙħØª
ĠÙĩØ±Ú¯Ø²
Ġfar
Ġdays
ĠØ§Ø«Ø±
Ġnext
ØªÙĪØ§ÙĨÙĨØ¯
Ġanything
Ġgovern
ĠØ¢Ø±Ø§Ùħ
Ġ10
Ø§ÙħØª
ĠØ¯Ø§Ø¯ÙĨ
ĠØ¨Ø³
ĠØ²ÙĨØ§ÙĨ
Ø¯ÛĮÙĦ
de
Ġmus
Ġwa
ĠØ±ÙĪØ´ÙĨ
ĠEng
Ġoften
ĠØ§Ø³Ù¾
ĠIt
Ġlead
ital
Ġduring
Ġwoman
Ġelect
ĠØºØ±
Ø§ÛĮØ±
Ġwhy
Ġnear
Ġsat
Ø§ÙĨÙħ
Ġexpl
ĠØ¹Øµ
ided
unic
Ø²Ø§Ø¯Ùĩ
pped
ĠØ¢Ùĩ
Ġdef
An
ĠØ¢Ø³
ÙĦÙħ
fter
illion
Ġinterest
pend
Ġans
Ø§ÙħØ¨Ø±
Ġpat
Ġturned
Ġty
Ġlarge
Ġschool
Ø±Ø§ØŃÛĮ
that
ĠØ§Ø´Øª
ĠÙ¾Ø§ÛĮØ§ÙĨ
Ġcontin
aring
ĠØ§Ø¹Øª
ames
Ġdem
Ġdesign
ably
Ġtechn
Ø±Ø§Ø¦
ÙĦØ§Ùģ
Ø´ÙĪÙĨ
Ġcountry
ÙĨØª
ĠÙĨØ§Ø±
ĠAs
ĠÙħØ³Ø¦
Ġple
ĠØ§Ø¬Ø§Ø²Ùĩ
ĠØŃØ¯ÙĪØ¯
ues
ĠØ³Ø§Ø²ÙħØ§ÙĨ
Ø¨ØŃ
ully
ÙĤØ±
Ú©ÙĨÛĮØ¯
ØªÙħØ§ÙĦ
oll
ĠÙ¾Ø±Ø³ÛĮØ¯
aint
ĠPr
Ø®ÙĪØ§ÙĩÙħ
formation
Ġlot
ĠØªØ§Ø±ÛĮØ®
ĠØ§ÙĤØª
ĠØŃØ§ÙĦØª
Ġvar
ĠInd
ides
orth
ĠØ¢ÙħÙĪØ²
ĠØ¯Ø§ÙĨØ´Ú¯Ø§Ùĩ
ĠPh
Ġvoice
Ġmove
att
Ġcourse
ĠØªÙħØ§
Ġlangu
Ø§ÙħÙĪØ´
Ġspec
Ø²ÙĨØ¯
ĠØ®ÙĪØ§Ø³Øª
Ø«ÛĮØ±
Ġpop
ÙħÛĮØª
ĠØ¬ÙħØ¹
aken
ĠÙĦØ¨Ø§Ø³
ĠØ®Øµ
ĠØ¨Ú¯ÙĪÛĮ
ØŃÙĩ
ĠGod
ĠØ²Ø¯Ùĩ
not
ĠÙħØªÙĪØ¬Ùĩ
Ġprocess
Ġbro
ĠØ³ÛĮØ§Ùĩ
Ġ198
Û±Û
ÙĦØ§Ùħ
Ġbest
aut
ĠÙĩÙĪ
erman
Ø®ÙĪØ§ÙĨ
ĠØ¯ÙĪÙĦØª
ĠØ±Ø§Ø³Øª
Ú©Ø±Ø¯Ùħ
Ġfore
Ġwords
Ø±ÛĮØ§ÙĨ
gram
ÙĪØ§Ø¬
ĠÛ³
ĠØ¢ØºØ§Ø²
Ġcond
ĠØªØ¨Ø¯ÛĮÙĦ
Ġkeep
Ø¨ÛĮÙĩ
ÙħÛĮØ²
Ġval
ĠØ³Ø±Ø§
row
Ġwhole
ĠÙĦØ§
Ġclo
ĠÙĩØ²Ø§Ø±
ĠØ¨ÙĪØ¯ÙĨ
ĠÙĩØ³ØªÙħ
ÙħØ²
Ø¯Ø§Ø±ÛĮ
ured
Ú©Ø§Ø±ÛĮ
Ġtri
ĠØŃØ§Ø¶Ø±
ĠÙħØ±Øª
ĠAn
Ġdirect
ĠØ¯ÙĪÙħ
Ġstop
ĠÙħØ¬ÙħÙĪ
Ø¹Ø§
ĠØªØŃØª
ĠÙħÙĨØ·ÙĤÙĩ
raw
ĠØ§Ø±Ø²
ĠØ§Ø¬ØªÙħØ§
ĠØ§Ø±ØªØ¨Ø§Ø·
Ġuntil
ĠØ·Ø¨
Ġfive
Ġalmost
ĠÙħÙĪÙģ
Ġequ
Ø¯Ùģ
Ø¨Ø§Øª
body
bed
ying
Ø¸Ø±
Ø§ÙĨØª
ĠÚ©ÙĪØª
Ġorgan
Ġfun
Ġmoney
ĠØ¯Ø§Ø®ÙĦ
ĠÙħÙĦÛĮ
ĠÙĨÙħÙĪØ¯
ĠÙħÙĪØ¬ÙĪØ¯
Ġcertain
my
Ġ7
ĠØ¨ÙĢ
ĠFran
ogr
ĠÙħØ±Ø¨
ĠÚ¯Ø³Øª
ĠØªÙĪÛĮ
Ø³Ø§Ø²ÛĮ
ĠWh
Ú©Ø´
ĠÙĦÙĪ
ĠØ§ÙĤ
ety
Ġformula
ĠØªØµÙĪÛĮ
Ġstate
Ġwar
ĠÙĤØ¯Ø±Øª
Ġserv
Ġ8
Ġ9
ÙħÙĨØ¯
Ġsci
els
Ġbecame
ĠØ³Øª
ĠØ²ÛĮØ±Ø§
ĠØ¨ÙĦÚ©Ùĩ
ØŃØ§ÙĦØ§
bers
ĠØ³Ø®ÙĨ
Ø±Ø§Øª
Ø¯ÙĨ
Ġchange
ĠØ¹Ø±
used
ton
ged
ĠØ§Ø±ÙĪ
ĠÙħØ®ØªÙĦÙģ
ĠÙĪØ§ÙĦ
selves
Ø±ØŃ
Ġexample
aces
Ø§ÙĨÛĮØ§
Ú©Ø§
ĠØ¢ÛĮØ§
ĠØ¨ÙĪ
Ġadv
ĠØ²ÛĮØ§Ø¯
Ġtru
ternational
Ġhaving
Ġdep
Ġappro
ÙĪÛĮÙħ
Ø§Ø´ÛĮ
Ġquite
Ã©
Ġtimes
ĠØ¯Ø±ÛĮØ§ÙģØª
Ø¢ÛĮØ¯
Ġtra
une
ĠØ±ÙģØªØ§Ø±
uck
ĠÙĨØ§ÙħÙĩ
Ø´ÛĮÙĨ
Ġprot
ĠØ¯Ø§Ø±Ø§ÛĮ
ĠÚ©Ø§ÙħÙĦØ§
Ġyet
ĠÛĮØ¹ÙĨÛĮ
ĠØ§ÙĤØªØµ
ĠÚ©Ø±Ø¯ÛĮÙħ
Ġchang
ĠØªÙĦØ§
ĠØ®Ø§Ø±Ø¬
orld
Al
Ġpur
ery
ĠØ¨Ø³ØªÙĩ
ÙĦÙĤ
ane
ĠChrist
Ġwanted
conom
ĠMar
Ø¦ÙĨ
ÙĨÙħÛĮ
ĠÙ¾ÛĮÚĨ
ĠStates
Ġhist
Ġshall
ffect
ask
Ùı
ÙħØ§ÛĮØ´
Ġdri
Ġable
Ġbig
ĠÚĨÙĩØ±Ùĩ
ention
ÙĪÛĮÙĤ
Ø§ØµÙĦÙĩ
Ø®ÙĨØ¯
ĠØ®Ø¨Ø±
ĠÙħØ·Ø§ÙĦ
ĠØµØ¯Ø§
ĠØ¹Ø´
Ġwithin
yle
Ġdeath
ĠØ¨ØŃ
Ø¬ÙĪ
Ġlaw
rence
ĠØŃÙĤÛĮÙĤØª
Ġpri
ĠØ´ÙĪØ±
ĠØªÙĤØ±ÛĮØ¨Ø§
ĠØ³Ø±Ø¹Øª
Ġcor
ision
Ġdark
Ġimportant
ĠÙħØªÙģ
ium
aster
ĠØ®ØµÙĪØµ
ĠØ¯Ø±ÛĮ
Ø§ÙĩØ´
Ø±Ø¨Ùĩ
ived
ØŃØªÛĮ
Ġconst
Ú¯Ø±ÙģØª
Ø³ØªÛĮÙĨ
ĠØ³Ø·ØŃ
work
of
Ġmonth
Ġdel
ĠÙĪØ³
Ġsound
Ġbody
Ú¯ÙĩØ§ÙĨ
Ú©ÛĮÙĦ
ĠØ¬ÙĦ
ĠÙ¾ÙĪØ´
Ġ0
play
Ø§Ø¬
ĠÚ©Ø§ÙĦ
ĠØ®ÙĪØ±
Ġdoing
ĠÚ©Ø´ØªÛĮ
ister
Ø§ØªØ±
ĠÙ¾Ø³Ø±
ĠØ¹ÙĪ
Ġmil
ĠØªØ§Ø²Ùĩ
Ġblack
ĠAf
Ġalong
Ø³ÛĮÙĤÛĮ
ĠØ®Ø¯Ø§
Ġresult
bs
ĠØ¨Ø§ÙĨ
ĠØ®ÙĪØ±Ø¯
ĠÙ¾Ø§Ø³Ø®
Ġland
ĠØ®ÙĪÙĨ
ÚĨÙĨÛĮÙĨ
Ø´ÙħØ§
ĠØ§ØŃØªÙħØ§ÙĦ
ĠØ¸Ø§Ùĩ
reen
Ġkill
ĠØ§Ø´Ø§Ø±Ùĩ
Ġeas
oke
ĠØ¢ÙĨØ§ÙĨ
ĠØŃÙħ
ee
ĠEuro
ĠØ¨Ø±Ø®ÛĮ
ĠØ¨ÛĮÙħØ§Ø±
ÛĮÙĨÚ¯
ĠÙģØ±ÛĮØ§Ø¯
Ġ{\
Ġ+
Ġpolit
ats
ĠØµÙģ
ract
Ø©
ĠØ§Ø²Ø¯
Ġcontro
ÙĪØ±Ùħ
ĠØ¯Ùģ
Ġdata
ÙĩÛĮÚĨ
Ġidea
men
ĠØªØ¹Ø¯Ø§Ø¯
Ġmark
Ġopp
Ø¬Ø§ÙĨ
My
Ø¨Ø¹
ped
Ġrequ
ĠÙĨÙĪØ´ØªÙĩ
ĠØªØ±Ú©
Ġeverything
ĠØ§Ø¶
ĠØªØµÙĪØ±
ison
ĠØªÙĪØ³Ø¹Ùĩ
ĠØ·Ø±ÛĮÙĤ
Ġcity
Ġpublic
ĠÙħÛĮÙĦÛĮÙĪÙĨ
ĠÙħØ«Ø§ÙĦ
Ġbelieve
Ø§ÙĦØª
Ġbegin
Ġele
where
Ġest
Ġgave
ÙĪØ¨ÛĮ
ases
pr
ĠØ±ÙĤ
ĠÙĩÙĨÚ¯Ø§Ùħ
ulation
ization
use
ĠØ§ÙģØ²Ø§ÛĮØ´
ĠÚĨØ´
Ġothers
âĢĮØ
Ùĳ
ĠÚĨÚ¯ÙĪÙĨÙĩ
ĠÙ¾Ø°ÛĮØ±
Ġclass
Ġpar
Ġcell
Ø±ÚĺÛĮ
Ġfell
ffic
Ø¸Ø§Ø±
ĠØ´Ø¯Ùħ
ĠØ¨ÛĮÙħØ§Ø±ÛĮ
Ġlive
Ġpos
ĠUniversity
ĠØ·Ø±Ø§ØŃÛĮ
Ġgiven
All
Ġes
ĠÚ©Ø§ÙħÙĦ
ĠSo
One
Ġeng
dden
ony
ĠØ¯Ø±Ø¯
Ú¯Ø±Ø§ÙĨ
Ø¯ÙĪØ¯
itch
ĠØ³Ø§Ø¯Ùĩ
ĠâĢĻ
ĠGerman
Ġorder
ĠØ¯Ø±ØµØ¯
Ġsoon
Ġoper
ĠØªØ±Ú©ÛĮ
Ø³Ø§
ĠØ¯Ø±ÙĪÙĨ
Ġ197
ressed
Ġsent
ĠØ¯Ø±Ø®Øª
ĠÙ¬
orning
Ø±ÛĮØª
Ġpresent
Ġeffect
Ø³ØªÙħ
ĠØ§ÙĨØ¯Ø§Ø®Øª
ĠÙħØ§ÙĨØ¯
Ú©ÙĨÛĮ
Ġbecome
cle
ØªÙĪØ§ÙĨÙħ
Ġmyself
ĠÙĩÙģØªÙĩ
Ġshort
ape
ĠØ³ÙģÛĮØ¯
Ġsort
ĠØ¢ØªØ´
ĠÙĪÙĨ
ĠØªÙĩ
ient
ÙĨØ¯Ú¯Ø§ÙĨ
Ġsix
ĠÙĨÙĤØ´
Ch
Ġri
ĠØªØ±Ø³
Ġstarted
Ġherself
ĠÚĨØ·ÙĪØ±
ĠEurope
Ø·ÛĮ
Ġrece
Ø§Ø¨Ùĩ
Ġsudden
--
ĠØ±ÙĪØ¯
ĠÙģØ±ÙĪØ¯Ú¯Ø§Ùĩ
Ġsure
Ġquestion
ĠÚ©Ø§ÙĨ
ÚĨÛĮ
ÙħØ§ÙĨØ¯
iver
Ġtown
ÙĦØ§Ø³
Ø§Øº
ØªÙĦ
ÚĨÙĨØ¯
Ġcommon
Ġresp
Ø§ÙĪÙĨ
ories
Ġoffic
Ġbit
ØªØ±ÙĦ
ÙħØ¹
Ġweek
ready
Ġprof
Ø³ÙħØª
Ú¯Ø§Ø±
Ġbehind
ĠØ¢ÛĮÙĨØ¯Ùĩ
ÛĮØ¯Ùħ
ott
ĠÙĪØ§ÙĤØ¹ÛĮ
Ø±ÙĪØ¯
ĠØ¹Ø²
ĠWorld
ĠÙħÙĤØ§Ø¨ÙĦ
Ġsit
ĠØ¬ÙħÙĦÙĩ
Ġshow
ued
ĠÙħØ§ÙĦ
Oh
ØŃØª
Ġleg
ĠÙħØ¬ÙħÙĪØ¹Ùĩ
ĠØ§Ø¬ØªÙħØ§Ø¹ÛĮ
ience
idd
ĠWe
Ø²Ø´
ĠØ±Ø§ÛĮ
ĠØ®ÙĪØ§ÙĩÙħ
Ġbed
Ġmorning
Ġgovernment
St
Ġsever
Ġdev
ĠØ¨Ø§ÙĪØ±
Ġbusiness
Ġprogram
After
ĠØ¨Ø±Ø¯Ø§Ø´Øª
ĠAmerican
ĠÙĪØŃØ´Øª
ØµÛĮ
ÛĮØ²Ùĩ
Ġpain
Ø§Ø¨Ø§ÙĨ
ĠØ´Ø¨ÛĮÙĩ
Ġsle
Ġpossible
eng
Ġamong
ĠÙĨØ´Ø¯Ùĩ
Ġplan
ograph
ĠØªÙĪÙĨ
ead
Ġcomput
ĠØ§Ú©ÙĨÙĪÙĨ
ĠØ§ÙĨØ±ÚĺÛĮ
Ġincre
Ġwhite
ode
ior
Ġstory
que
ĠØµØ¨ØŃ
Ġfull
ĠØªÙĦØ§Ø´
ĠÙĪØ³ÛĮ
ÙĦÛĮØ³
ĠÚ©ÙĨÙĩ
ĠÙħØ±Ø¨ÙĪØ·
Ø®ÙĪØ¨
Ø§Ø¨Ø¯
Ġdisplay
Ø§Ø²Ø¯
ĠØ¨Ø³Øª
acy
Ġaw
ĠØ´ÙĨØ§Ø®ØªÙĩ
Ø¦ÛĮØ³
Ø±Ø§ÙĨ
ĠØ§Ø²Ø¯ÙĪØ§Ø¬
ma
ccess
App
Ġinformation
rench
ĠÙĤØ§ÙĨÙĪÙĨ
Û²
ĠØ³Ù¾Ø³
Ġrather
ze
Ġtaken
ĠØ²ÙĪØ¯
Ġwon
ha
Ġhold
Ġprom
Ġ&
ĠØ³Ø¹ÛĮ
olution
fort
ĠØ¢Ø²Ø§Ø¯
ĠÙħÙĪØ³ÛĮÙĤÛĮ
Ġleast
ĠØ¨Ø±Ú¯
ctor
ĠØ§ÙĨØªØ¸Ø§Ø±
Ø¢ÛĮØ§
Ġhor
ĠØ¬ÙĩØª
âĢĮ.
though
Ġcase
ÙĪØ§Ø±Ùĩ
haps
ĠØ§Øº
ĠâĻ
ians
ĠØ§Ø¨Øª
Ġrese
lish
read
ĠØ¨Ø§ÙĤÛĮ
ĠØ§ÙħØ±ÙĪØ²
ĠÙ¾ÙĦ
ĠÙħØ¯Ø±Ø³Ùĩ
amed
ks
ole
ĠØ¨Ù¾
ional
ĠØ§ÙģØªØ§Ø¯Ùĩ
by
ĠÚ©ÙĨØªØ±ÙĦ
Ø¯ÙĩÙĨØ¯
ĠÙĦØ§Ø²Ùħ
To
ĠÙħØ´Ø®Øµ
ĠØ¨Ú¯ÛĮØ±
ĠÙĨÙħØ§ÛĮØ´
ĠÙģØ±ÙħØ§ÙĨ
Ġseveral
side
Ġalready
ĠØ§ÙħÛĮØ¯
ards
Ġmaking
iron
Ġusing
ĠØ¨Ø¯ÙĨ
iter
Ġeconom
ĠÚ¯ÙģØªÙħ
ror
atic
ĠØ³Ø±Ø¯
ĠÙĤØ¯
Ġmag
ĠØ¯ÙĪØ±Ùĩ
Ġelse
ĠÙ¾ÙĨ
ĠØ¯ÙĤÛĮÙĤÙĩ
Why
ĠØ®Ø·Ø±
Ø¯Ø§ÙĨÙħ
Ġinde
ĠØ§Ø³Ø§Ø³
ĠØ¯Ùħ
ĠØ·ÛĮ
ĠØ¢Ø²ÙħØ§ÛĮØ´
Ġlearn
ĠÙĥÙĩ
ĠØ³Ø±Ø´
ĠØ²ÙĨØ¯Ùĩ
ĠØ¬ÙħØ¹ÛĮØª
ĠÙħÙĨØªØ´
ĠØ¬ÙĪØ±
ĠâĢĶ
Ġsays
nect
ĠØ¨ÛĮØ´ØªØ±ÛĮ
Ġav
Ø§Ø³Ø¨
aced
ĠØ¹Ø´ÙĤ
Ġmeans
ÚĨØ§Ø±
ĠÙħÙĪÙĤØ¹
âĢĮØĮ
ĠÛĮØ§ÙģØªÙĩ
Ø§ÙĦØ¨
ots
ĠØµÙĨØ¯
Ġfilm
ĠØ¯Ø´
These
ĠØ§Ø³Ø¨
fic
ergy
Ġearly
eth
che
ĠÚ©Ø§ÙĩØ´
ien
Ġspeak
ÙĪØ§ÙĨÛĮ
ĠØ¹ÙħÙĪÙħÛĮ
ĠÙĨØ§Ø±Ø§ØŃ
Ø§ÛĮØ³Øª
ĠÂ».
ĠØµØ±Ùģ
ĠÙ«
ĠÚ©ÙĨÙĨØ¯Ùĩ
Ġacross
ĠÙħØ¹ÙħÙĪÙĦØ§
ĠÙħÙĨØªØ´Ø±
arent
Ġsupport
Yes
Ġround
Ø§ÙĦÛĮØª
Ġhear
Ġgroup
Ġmatter
ĠÛ´
ĠÙħØ³ÛĮ
ĠÙħØºØ²
Ø§ÙĩØ§
Ø¨ÙĨØ§Ø¨Ø±Ø§ÛĮÙĨ
ÛĮØ¯ÙĨØ¯
sh
ĠØ§ÙĨØªÙĤ
wer
ĠØ®Ø§Ú©
ĠØ¹Ø¬ÛĮ
fully
Ġfall
ĠÙħØ§Ø´ÛĮÙĨ
Ġfree
Ġphys
Ø´Ø¯Ùĩ
Ġori
ĠPar
ĠØŃÙħÙĦÙĩ
ÙĪÛĮÙĩ
ĠÙĤØ³ÙħØª
rought
Ø´ÙĨØ§Ø³
ĠÙĨØ´Ø³ØªÙĩ
ĠØªÙħØ§Ø´
ĠÚĺÙĨ
lause
ÙĪÙĩØ§ÛĮ
undred
ribut
ĠØ¬ÛĮ
ĠÛ±Û¹Û¹Û
rict
Ø²ÛĮØ±Ø§
ober
ĠØ¯Ø§Ø´ØªÙħ
Ġclose
ĠØ´Ø¨Ú©Ùĩ
ousand
ĠÙģÙĩÙħ
ĠØ¯ÛĮÚ¯Ø±Ø§ÙĨ
ider
ĠØ¬Ø§ÙħØ¹Ùĩ
Ø¢Ùħ
ĠÚ©Ø§ÙģÛĮ
ĠØ³ÛĮØ§
unity
ĠØ§ÙħÚ©Ø§ÙĨ
ĠØªØ´Ú©ÛĮÙĦ
oph
ÛĮÚ©ÛĮ
ĠÙ¾Ø±Øª
ĠÙģÙĦ
ĠØ³ÙģØ±
....
co
ĠØ¢Ø³ÛĮ
Ġ15
ression
Ġred
ĠCl
ĠØ¨Ø§Ø´ÛĮØ¯
ØºÙĪÙĦ
Ġrepl
Ġreason
ean
rop
ĠØ¨ÙĩØªØ±ÛĮÙĨ
ĠÙĩØ¯Ùģ
Ġ196
Ú©ÙĨÙĨØ¯Ùĩ
ĠÛĮÙĨ
mber
eral
ĠØ¨Ø±ÙħÛĮ
Ġpast
ĠØ¹ÙĤØ¨
tend
gen
ĠØ¬Ø¯Ø§
ĠØ§Ø³Ùħ
Ġobs
Ø´ÙĨÙĩ
Ú¯Ø°Ø§Ø±ÛĮ
Ġwond
Ø§ÙĨÙĪ
ĠØ¹ÙĦØ§ÙĤÙĩ
Ġlow
Ø³Ù¾Ø³
ives
Ġhealth
Ø§ÛĮÙĨØ¯
Ø®ÙĪØ¯
Ġcir
ĠØªØ®
ĠBe
ØªÙĪØ§ÙĨÛĮÙħ
ĠØ¯ÙĩÙĩ
ĠX
ĠØ¯Ø±ÙĪ
Ø±Ø³Ø¯
Ø±Ø§ÙĦ
Ġflo
Ġtable
Ġmillion
Ġparticular
ĠØ§ÛĮÙħ
ohn
Ġrele
Ġtem
ĠØ¨ÛĮØ§ÙĨ
ai
aining
Ġsun
ĠØ¯Ø³ØªÙĩ
aim
Ġhundred
Ú©Ø´ÛĮØ¯
ĠØªØ¹Ø±ÛĮÙģ
Applause
Ø¶Ø§ÛĮ
oud
Ġmeet
ĠÛĮÚ©Ø¯ÛĮÚ¯Ø±
Ġlanguage
Ġproblem
ĠØ¯Ø±Ú©
cing
Ġalone
Ġca
Ø´Ø§ÛĮØ¯
ĠÚĨÛĮ
ÙĩØ§ÛĮØª
ĠCon
ĠØ¨Ø±Ø§Ø¯Ø±
ĠØªØŃÙĤÛĮ
ĠMrs
ÙĪÛĮØª
Ġfre
Ø²ÛĮÙĨÙĩ
ĠÚ©ÙĨÛĮ
Ú¯Ø§ÙĩÛĮ
Ġcoming
ening
20
Ġtop
Ø°ÛĮ
Ġsocial
iously
Ġstrong
Ġsingle
ev
ached
uff
ĠØ±ÙģØªÙĨ
Ø®ØµÙĪØµ
Ġsuccess
ÙģØ±ÛĮ
ĠØ¨Ø±Ø³
Ġfriends
Ġthousand
ĠØ§Ø®Øª
ÙĨØ§Ú©
Ġage
µÛ
Ġexpect
ÙħÙĦÙĦÛĮ
ĠØªØ±ØªÛĮ
ĠÚ©Ø³Ø§ÙĨÛĮ
lex
Ġquick
Ġve
ÙħØ«
ĠØ·Ø¨ÛĮØ¹ÛĮ
Ġmusic
Ú©Ø³ÛĮ
ĠÙģØ¹Ø§ÙĦÛĮØª
ĠÙ¾Ø§Ú©
ĠFrench
ĠÙħØ´ØºÙĪÙĦ
Ġlay
asure
ÙĪÙĨØ§
ĠØ§Ø·Ø±Ø§Ùģ
Ġfire
Ġnat
acter
cer
lf
Ġenergy
Ø¨ÛĮÙĨÛĮ
ĠØ¨Ø§Ø¯
ĠCol
ĠØ¯Ø§Ø±ÛĮØ¯
ĠÚĨØ´ÙħØ§ÙĨ
Ġcreat
ĠÚ©ÙĦÙħÙĩ
Ø§ÙĨØ´
Ġobject
reet
ĠØ¯Ø§Ø±Ùĩ
aper
ĠØ¹Ø¶
Ġgone
ÙĪÙĦÙĩ
ĠÙĨØ¬
Ø§Ø¯Øª
Ġdescri
Ġabs
ĠØ¬Ø±ÛĮØ§ÙĨ
ĠØ¬ÙħÙĩ
ĠBr
ĠØ³ÛĮØ§Ø³ÛĮ
ĠÙĨÙĪØ´Øª
itting
ogn
ĠÙħØŃÛĮ
ĠØ³ÙĪÙħ
Ø®Ùĩ
ified
ĠØ§Ø±Ø§Ø¦
Ġcountries
Ġstep
ĠØ¯Ø³ØªÙĪØ±
ler
Ø¯ÙĩÙħ
ĠØ¨Ø²Ø±
ĠØ§Ø±Ø§Ø¦Ùĩ
Ġboy
ĠYou
Ġheld
Ġanim
ĠÙħØŃÙĦ
yd
Ġdi
Ø§ÙģÙĩ
Ø®Ø¨
Ġtoday
Ø´Ø§Ùĩ
ĠØªØ³
ĠComm
Ġline
ĠØ±Ø´Ø¯
Ø±ÙĪÛĮ
son
Ġbeaut
Ġeither
ĠEm
Ġill
Ġbad
lu
ÙĪÛĮØ¯
Ġdou
ĠÙĤØ¯Ùħ
Ġbrought
Ġfield
bal
ush
ÙĤØ·Ùĩ
Ġthinking
ĠØ§ÛĮØ±Ø§ÙĨ
Ġprob
ĠØ´Ø¹
ĠØŃØ¶ÙĪØ±
Ġris
ÙĨØ³
Ġfront
ÙģÚ©Ø±
ĠÙ¾ÙĨØ¬Ø±Ùĩ
Ø±ÛĮØ³ØªÙģ
Ġson
now
oul
Ø¢ÙĤØ§ÛĮ
Â«
Ġwall
ĠÚĺØ§ÙĨ
ĠÙħØ¹ÙĨÛĮ
Ú©ÙĪÙħ
ĠÛ°
ĠÙĨÛĮØ±ÙĪÛĮ
Ø§ÙĦØ¨ØªÙĩ
ĠÙħØ¯ÙĦ
ÙģÙĩÙħ
Some
Ġsoft
Ġbrother
ones
ÙħÙĤ
ĠØŃÙĤÙĪÙĤ
itions
Ø¨Ø§Ùĩ
Ġthemselves
Ġdead
Ġmaj
ĠØ§ÛĮØ¯Ùĩ
ĠØ§ØºÙĦØ¨
Ġste
Ø³ÙĪÙĨ
style
ording
ĠSc
ĠØ§Ø¹ÙĦØ§Ùħ
ĠÙħÙĪØ§Ø¯
ĠØ¨Ø¹Ø¶ÛĮ
Ġleave
ciety
ØªØ´ÙĪÛĮÙĤ
ĠØ¹Ø§ÙĦÛĮ
Ġwhether
Ġra
ĠÚ©Ø¬Ø§
ĠØ§Ø¨Ø±
ĠØ¢ÙĪØ±Ø¯Ùĩ
Ġfear
Ġorigin
ÙĦØŃ
Her
ĠØ³ÙĦÙĪÙĦ
hem
Ġago
ĠÙĩØ³ØªÛĮÙħ
Ġimag
ĠÚ©ÙħØªØ±
ĠØ¨Ø§Ø´Ùħ
Ġgeneral
ĠØ¬Ø³Øª
ches
Ġann
Ġbrain
ĠEx
ĠØ¯ÙĦØ§Ø±
ĠØ¯ÛĮØ¯ÙĨ
ĠØ´Ø±Ø§ÛĮ
Ġwife
ĠÚ¯ÛĮØ±
ĠÙĨØ±Ùħ
Ġspace
ĠRuss
ĠÙħØ´Ø§Ùĩ
ØªÙĤ
ĠÚ¯Ùĩ
ilt
ĠØ¢Ø®Ø±ÛĮÙĨ
Ġcompany
unt
ĠGr
ission
ĠÙĤØ±ÙĨ
ĠÙģØ±Ø§ÙĨØ³Ùĩ
ator
ĠÙĨØ§Ù¾
Ġworking
ĠÙģØ±ÙĪØ´
Ø¬Ø¹
ĠWar
Not
aged
ĠØ¨Ø§ÙĦØ§ÛĮ
Ġstran
Ġnews
Ø´Ø¯ÙĨØ¯
par
Ġfoot
Ġbar
ĠÙ¾Ø±Ø¯Ø§Ø®Øª
Ġtrue
ĠÙĤÙĦØ¨
oon
Ø®ÛĮÙĦÛĮ
ÙħØ§ÙĦ
oint
put
Ġstood
ĠÙħØ²
ĠÙħØ§ÙĦÛĮ
ĠØ±Ø¯
iddle
ÙĩÙħØ§ÙĨ
ĠØ³Ø§Ø®ØªÙħØ§ÙĨ
Ġmov
ĠØ´Ø®ØµÛĮ
ief
ĠÙħØ¬Ø¨ÙĪØ±
ĠØ´Ú©Ø³Øª
ĠØªÚ©Ø§ÙĨ
ĠÙģØ±ÙĩÙĨÚ¯
itive
ky
ae
Ø§ÙĦÙħÙĦÙĦÛĮ
ĠØ¹Ø¨
ĠÚ©ÙĪØªØ§Ùĩ
Ø¨Ø´
ids
Ġhope
ĠØ®ÙĪÛĮØ´
ĠÚ©Ø±
ĠÙĩÙħÚĨÙĨØ§ÙĨ
ĠØ¨Ø±Ú¯Ø±Ø¯
Ø¸ÛĮÙħ
Ġcomplete
ĠÙĨÙĤØ·Ùĩ
airs
ĠØªÛĮÙħ
Ø±ÙĪÙģ
Ø¸ÛĮ
ĠÙĨÚ©Ø±Ø¯Ùĩ
ĠØ®ÛĮØ§ÙĦ
Ú¯ÙĪÙĨ
Ġconnect
ÙĤÛĮÙħ
ĠIran
ĠØ³Ø±Ø®
Ø´Ø¨
Ġcal
ĠÙħØ°
ĠØ¨Ø²Ø±Ú¯ÛĮ
Ġsum
Ġrev
iol
ored
Do
Ġtrying
ĠØ±Ø§Ø¨Ø·
Ġwhom
rodu
ÙĤÛĮÙĩ
Ġvill
ĠØ¯Ø±Ø§Ø²
ÙĪØ²ÛĮ
ÚĨØ±Ø§
ĠØ®ÙĪØ§ÙĩÙĨØ¯
ĠÙ¾ÛĮØ´ÙĨÙĩ
ĠÙĩÙģØª
ØªÙĪØ±
ĠAfric
,"
Ġdisplaystyle
Ġmain
Ø¨ÛĮÙĦ
ĠØ¢ÙħØ§Ø¯Ùĩ
ĠØªØ±ØªÛĮØ¨
ivid
Ġattack
Ġreport
Ġpercent
ĠÚ¯Ø±ÛĮ
ĠÙĨØ´Ø³Øª
ĠØªÙĦÙģ
ination
ĠÙĩÙĨØ¯
With
ĠÙĨØ®Ø³ØªÛĮÙĨ
Ġclear
ÙĦÙĪÙħ
ÙĨÚ¯ÛĮ
Ġcontrol
Ø±Ø§ÛĮ
Ġfut
ĠÚ©Ùģ
ĠØ¨Ø±Ø±Ø³ÛĮ
ĠØ§ÙĦØ¨ØªÙĩ
ĠØ¨Ø±Ø®ÙĪØ±Ø¯
etwork
ĠØ¯ÙĩÙĨØ¯
ĠÙĩÙĨÚ¯Ø§ÙħÛĮ
Ġlevel
ĠÚ©Ø´ÛĮØ¯Ùĩ
Ġtest
Ġexist
ster
ĠØ®Ø¯ÙħØª
bo
ĠØ¨Ú©
ĠÚ©ÙĦÙħ
Ġsaying
Ġfur
ĠØ´ÙĩØ±Ø³ØªØ§ÙĨ
ĠØ§ÛĮØ³ØªØ§Ø¯Ùĩ
ĠâĻ«
Ġground
Ġlost
Ø³Ø§ÙĦ
ĠØªÙĪØ¶ÛĮ
ÙĪÙĦÙĪÚĺÛĮ
ĠMiss
ĠÚ¯Ø±Ùħ
ĠØ²ÙħÛĮÙĨÙĩ
Ø§Ø¯ÙĦ
Ġincluding
ÙĪØ§ÙĦ
Ġperform
ĠØ®ÛĮØ§Ø¨Ø§ÙĨ
ĠØ±ÙĪØŃ
ĠØ´ÛĮØ±
Ø¯ÛĮÙħÛĮ
Ø²Ø§Ø±Ø´
ius
Ġdeep
ĠØ¯ÙĪÙĨ
Ġliving
ÙĩÙħÚĨÙĨÛĮÙĨ
Ġpoor
ĠØ³Ø§ÙĦÙĩ
you
ĠØ¨Ø±Ø®
itary
Ġview
ĠÙĦØ°
ances
ĠØ¯ÛĮÙĪØ§Ø±
Ġproject
Ġcult
Ø§ÙĤÙĦ
utes
ĠØ´Ø´
ĠØ§ØµÙĦØ§
ĠØ¹Ú©Ø³
ĠØ¨Ø±ÙĪØ¯
ĠTr
Ø±ÙģÛĮ
Ġprop
ĠÚ¯Ø°Ø§Ø´ØªÙĩ
Ġstay
However
ring
Ġcannot
ental
ption
Ġhon
with
ĠGe
NA
ĠÙĨØ§Ú¯ÙĩØ§ÙĨ
ĠBl
Ø²ÙħÛĮÙĨ
ficult
ĠØ¨Ú¯Ø°Ø§Ø±
ĠÚĨØ±Ø®
ĠØ¢ÙħÙĪØ²Ø´
ĠÙģØ±Øµ
ĠSy
ĠØ¯Ø§Ùħ
ÙģÙĤØ·
ĠØºØ°Ø§
ĠØ³Ú©
Ġlonger
ĠØ§Ø±ÙĪÙ¾Ø§
ĠØ§ÙĨØ¯ÛĮ
ĠØ§Ø±Ø²Ø´
Ġsuddenly
Ú¯ÙĨ
ĠØ´ÙĪÙĩØ±
ĠØ¯Ø§Ø±ÛĮ
aught
Ġdifficult
ĠÙħØ·Ùħ
ĠÙħØªÙģØ§ÙĪØª
IS
ĠØ¨Ø¯ÙĩØ¯
ĠØ¢Ø®Ø±
Ġitself
Ùİ
ford
Ġtowards
ĠCount
Ġ17
Ġhistory
cum
sy
enn
Ø§ÙĪÛĮ
ĠÙĦÙĩ
ĠØ¹ÙħÙĦÛĮ
ĠØ®Ø´Ùħ
ĠÙĪÙĦ
ĠÙģÛĮ
iod
osp
Ġarm
Ġang
ĠOr
soci
ĠØ§Ø¬Ø±Ø§
Ġlab
Ø¯Ø³Øª
Ġbas
mb
ĠØ¨Ø±Ú¯Ø´Øª
ĠÚĺÙĪ
Ġblood
urg
Ġwatch
Ġsometimes
Ú¯ÛĮÙĨ
ĠÙħØ§ÙĨØ¯Ùĩ
200
ĠÙĪØ¨
ĠEd
ĠÙħØ³Ø¦ÙĦÙĩ
Ġla
Ø§Ø¨Ø¹
ÙħÙĪÙĨ
Ġ194
Ġfeet
ĠÛ³Û
ourn
Ġpay
ĠØªØµÙĪÛĮØ±
Ġpassed
ĠÙħØªØ±
Ġmajor
ude
Ġfeeling
ĠEnglish
ĠØ±Ø³ÛĮØ¯Ùĩ
ĠØ²Ø¯ÙĨ
ĠÙ¾Ø§Ø¯
ĠÙħØ´Ø§ÙĩØ¯Ùĩ
ÙĤÙģ
cul
Ø¨ÛĮÙĨØ¯
ÙħØ§ÛĮÙĩ
Ø³Ø§ÙĨÛĮ
Ġmot
Ġpie
ĠÙĨÙĪÛĮØ³
ĠØ¨Ø±Ø¯Ùĩ
ĠØ§ÛĮØ´Ø§ÙĨ
ĠÙħØ±Ú©Ø²
Ġself
ĠØµÙĨ
ĠØ¨ÙĨØ¯
Ġbring
Mr
ĠØ²ÛĮØ³Øª
Ġexc
ĠØ±ÙĨØ¬
they
Ġanswer
unicip
Ġhappened
Ġremember
ĠØ¢Ø´ÙĨ
ĠÙĤØ§Ø¯Ø±
Ġmonths
ĠØ´Ø¯Øª
Ġappl
ĠÙħÙĩØ±
ĠÛ¶
ĠMan
Ġpolitical
ĠØªÙĪØ¶ÛĮØŃ
ÙĬÙħ
ĠØ±Ø®
ternal
Ø®ÛĮØµ
ĠØ¯Ø¹
Ø´ÙĨØ§Ø³ÛĮ
Ù¾ÛĮÙħ
ĠÙĩÙĪØ´
ĠÛ±Û¸Û
ØªÙĪØ§ÙĨÛĮØ¯
ĠØ¹Ø¯
Ġwin
ĠØ¨Ø±Ø§ÛĮØ´
Ġsystems
irt
ĠJohn
Ġhair
ÙĦÙĨØ¯
ØµÙĪÙĦ
Ø¢ÛĮ
ĠØ·ÙĪÙĦØ§ÙĨÛĮ
ĠØ¢ÙħØ±ÛĮÚ©Ø§ÛĮÛĮ
resent
Ġfuture
ĠÙħØ±Ø¯ÛĮ
ĠÙ¾Ø±ÙĪÚĺÙĩ
ĠØ±Ø¦ÛĮØ³
Ġactiv
ĠØ¯Ø§Ø¯ÙĨØ¯
Ġsense
urs
Ġhur
ĠÚ¯Ùħ
ĠYork
Ø¬ÙĪÛĮ
ÙħØ§Ø¯
Ġlim
rie
ĠØ¹Ø²ÛĮØ²
ĠØ¨Ú¯ÙĪÛĮÙħ
line
ĠÚ¯Ø§Ùĩ
ÙĩÙħÛĮÙĨ
ĠÙħØŃÛĮØ·
tt
Ø®Ø´
ĠÙģØ§ØµÙĦÙĩ
ĠØ§ÙĬÙĨ
ĠÙ¾ÛĮØ´ÙĨÙĩØ§Ø¯
ĠCar
ĠÙģØ±Ø³Øª
ĠØ¯Ú©ØªØ±
ĠPol
Ġsold
Ġglo
ĠØ³Ø±ÛĮØ¹
idence
af
ĠØ¨ØŃØ«
ĠÙħØªÙĨ
Ġtalking
ilar
ĠÙĨÙģØ³
ĠÚĨÛĮÙĨ
Ġhours
Ø³ÛĮÙħ
Ġfood
ĠÚĨÙĤØ¯Ø±
ĠØªØ£Ø«ÛĮØ±
ĠTe
aly
ĠØ·ÙĪØ±ÛĮ
ĠPhil
Ġdiv
ĠÙħÚ©Ø§ÙĨ
por
ĠÙħÙĦØ§
Ġroad
ĠÙĨÙħÙĪÙĨÙĩ
Ġaut
bit
ĠÙħØ¯ÛĮ
itten
ØµÙĩ
ĠAd
apan
ĠÙĪØ¶Ø¹
Ġproper
Ø³Ø¨
Ø³ÙĪ
Ġcut
cious
ĠÚ©Ø§Øª
Ġrad
ĠØ³ÛĮØ§Ø³Øª
ĠÙģØ´Ø§Ø±
ĠÙħØŃØ¯ÙĪØ¯
Ġconc
ĠØ§Ú©
ĠGen
Ġfig
ĠØ§Ø«
ĠCan
band
ability
ĠÚĨÙĨØ¯ÛĮÙĨ
ĠØªØ¬Ø±Ø¨Ùĩ
Ġfollowing
ĠÙĪØ³ÛĮÙĦÙĩ
ÙĬØ¯
Ġgrow
ĠØ³Ø§Ø¨
Ø§ÙĪÙĦ
ĠBrit
ĠØŃØ³Ø§Ø¨
ought
ĠØŃØ¶Ø§Ø±
Ġbi
Ġ12
Ø§ÙĦØ¹
cially
fer
ĠMin
ĠÙĩÙĨØ±
Ġ#
ĠØ®ÙĨØ¯Ùĩ
ĠÙħÛĮÙĦØ§Ø¯ÛĮ
Ġtyp
Ø§Ø´ÙĤ
Ġmass
ĠØ¢ÙĩÙĨÚ¯
Ø§Ø¯Ø§
ÙħØ³
empt
Ġteam
ĠNational
ĠMe
ĠÙĤÙĦ
ille
.,
iled
Ġpract
ØŃØ§ÙĦÛĮ
ĠØ§ÛĮÙĨØªØ±
Ø¢ÙĪØ±
ĠØ´Ø±Ø§ÛĮØ·
ĠØ®ÙĪØ±Ø´ÛĮØ¯
ĠØ¬ÙħÙĩÙĪØ±ÛĮ
Ġcost
Ġabove
ĠØ¬Ø±
bled
ĠØ¹ÙĪØ¶
ĠØ±Ø§Ø¨Ø·Ùĩ
ĠGo
Ġsqu
Ġdream
ØµØ±
ÙģØ¸
ĠPl
Ġtried
Ġgetting
Ġ16
ĠÙħØ·Ø§ÙĦØ¹Ùĩ
ophe
ĠÙħØ³ÛĮØ±
app
then
yn
ÚĺÙĨ
ana
ĠØ¯ÙĪØ±Ø§ÙĨ
Ġgent
")
Ø§ÙĩÙħ
ĠÙĪÛĮØ±
ÙĩØ±Ø³Øª
ĠÚ©Ø¯Ø§Ùħ
ĠÙħØ¤
ĠØ§Ø´ØªØ¨Ø§Ùĩ
ĠØ¯ÛĮØ±
ĠØ¨Ø±ÛĮØª
aving
Ġvers
Ġident
ĠÙĨØ¯Ø§Ø±Ùħ
over
Ġbuilding
ĠØªØ´Ø®ÛĮØµ
Ar
Ġbased
Ġcold
Ġsour
Ġgame
ĠØ²ÛĮØ¨
Ġpict
Ġnon
ĠØµÙĨØ¯ÙĦÛĮ
ĠÙĩØ²ÛĮÙĨÙĩ
Ġsleep
lled
ĠÚ¯Ø§ÙĩÛĮ
ĠØŃÙħØ§ÛĮ
Ġtaking
ĠCent
ĠÙħØ±Ø¯Ø§ÙĨ
Ø¬Ùħ
ĠInternational
ĠØ§ÙĪØ±
Ø¢ÙĨÙĩØ§
ÙĦØ§ÙĦ
ĠÙĩØ±ÛĮ
ĠSouth
ĠÙ¾Ø§ÛĮÙĩ
Ġentire
Ġcentury
Ġauth
Ġrelations
ÙĩØ±ÛĮ
Ġdest
Ġ195
ĠÚ¯Ø²Ø§Ø±Ø´
ÙĪØ§ÙĨÙĩ
ĠØªÚ©ÙĨ
Ø¢ÙĪØ±ÛĮ
gest
Ø·Ø§ÙĨ
ively
ĠÛ±Û°
ĠÙĨØ¸Ø§ÙħÛĮ
ĠÙħÙĤØ¯Ø§Ø±
ĠØ¢Ø²Ø§Ø¯ÛĮ
ĠÙ¾ÙĨÙĩ
ĠØ¨Ø¯Ø§ÙĨ
ØªÛĮØ§Ø±
Ġ193
ĠÙħÙģ
Ø§ÙĨØ¬Ø§Ùħ
Ġpost
ĠÙħØ§ÙĩÛĮ
ĠUS
Ġten
ÙĪÙĦØ¯
ĠÙĤØ¯ÛĮÙħÛĮ
Ø§Ø±Ø§ÙĨ
Ġstat
ĠÙħÙĨØ¸ÙĪØ±
Ġlate
hern
ondon
Ġrecogn
gor
ĠØ³Ø±Ø§Ø³Ø±
ĠØ¢ÙĦÙħØ§ÙĨ
ÙĨØ§Ùħ
ÙĦÛĮÙħ
ĠØ¨Ø§Ø²Ú¯Ø´Øª
Ú¯Ø°Ø´Øª
ĠØ¨Ú¯ÛĮØ±Ø¯
ØµÛĮÙĦ
Ġsuper
ĠØ¨Ø¹Ø¯ÛĮ
ĠØ¢Ø¨ÛĮ
Ġport
aterial
Ġperhaps
Ġenv
tered
Ø¨Ø³ÛĮ
ĠØ¨Ø§Ø´ÛĮÙħ
Ġstru
ĠØ§Ø·ÙĦØ§Ø¹
ĠØ§Ø³ØªØ§ÙĨ
Ø±ÙĪÙħ
ges
ĠØ¯Ø³ØªØ´
ĠÙĨØ³Ø®Ùĩ
ĠØ¨ÙĨØ§Ø¨Ø±Ø§ÛĮÙĨ
Ø§Ø¦ÙĦ
Ø§ÙģØ±
ĠØ±Ø³ÙħÛĮ
ĠÚ¯Ø°Ø´Øª
Ġmis
ĠÚ©Ø´ÙĪØ±ÙĩØ§ÛĮ
ÛĮÙĦÛĮÙ¾
ÙĨÙħÙĪØ¯
ividual
Ġiss
ĠØ¨ÙĤÛĮÙĩ
ĠØ¢ÙĩØ³ØªÙĩ
Ġdoesn
Ġevening
ĠÙħØ§ÛĮ
ĠØ¨Ø®Ø´ÛĮ
Ġdro
Ø·Ø±
Ġpubl
Ġord
Ġbreak
ĠÙĨÙĤØ´Ùĩ
ĠHarry
Ġfail
Ġdraw
ĠØ§ÙĤØªØµØ§Ø¯ÛĮ
ĠØ®ÙĦØ§
Ġdeal
ĠÚ©Ø¯
ales
ĠÚĨÙ¾
ĠÙħÙĪÙģÙĤ
Ġthird
Ġeduc
ÛĮØ§ÙģØª
BN
By
enty
ĠÙģØ±Ø§ÙħÙĪØ´
Ġarri
ĠØŃÛĮÙĪØ§ÙĨ
rel
Ġwrong
ĠØµÙģØŃÙĩ
ĠÙĩØ³ØªÛĮØ¯
Ġhus
Ġdear
Ġhig
which
ĠÙħØ¹ÙĨ
Ġstudy
ÙĪÚ©
ĠÙħØ®ØµÙĪØµ
ĠØŃÙħÙĦ
Ġhowever
ĠØ®ÛĮØ±Ùĩ
ĠÙģØ±Ø§ÙĨØ³
ĠØ³Ø±ÙħØ§ÛĮÙĩ
uge
ney
ÙĤÛĮØª
Ġemp
ivil
ĠØ¸Ø§ÙĩØ±
ĠØ¯Ø±ÙħØ§ÙĨ
ĠØ§ÛĮØª
Ø¶Ø§
Ġsubject
Ø±ÛĮÙħ
ĠÚ¯ÙĨ
Ġcomes
ĠØ±ÙĪØ³ÛĮ
ĠØ´Ø§ÙĩØ²Ø§Ø¯Ùĩ
ĠØŃÙĪ
ĠMy
ĠÙĦØ¨Ø®ÙĨØ¯
Ġperiod
head
ĠÙĨÚ¯Ø§ÙĩÛĮ
10
ĠÚ¯Ø±ÙģØªÙĨ
Ġminutes
²Û
ĠÙħØ§Ø±ÛĮ
Ġmoved
ĠØŃÙģØ¸
ĠÙģÙĪÙĤ
ĠTur
ĠØ¨ÛĮØ¯
Ġbur
ĠØ¨ÙĨÛĮ
ĠÙħØŃÙĦÛĮ
Be
Ġnetwork
ially
ĠØ§Ø´Ú©
Ġhappy
ĠÚ©ÙĪØ¯Ú©Ø§ÙĨ
Ġz
Ġmeth
ĠÚ©Ø´Ùģ
Ġmach
itted
ĠØªÙĪØ±
Ø³ÛĮØ³
ĠÙĪÛĮÚĺÙĩ
Ġmodel
ĠØ®Ùħ
Ø±Ø§Ø±
ĠÙ¾Ùĩ
Ġnatural
ĠÙ¾ÙĪØ³Øª
Ġsecret
Ġcry
ipp
ÙĪØªØ±
iful
ĠØ¨Ø§Ø²Ø§Ø±
ĠJapan
Ø®Ø±
Ġbreat
Ú©ØªÙĩ
Ġpret
Ø§ÙĨÛĮØ§ÛĮÛĮ
ĠÙĨØ®ÙĪØ§ÙĩØ¯
Ġarea
ĠØŃÙħØ§ÛĮØª
ĠØ¯Ø³ØªÚ¯Ø§Ùĩ
ĠØ®ÙĪØ´ØŃØ§ÙĦ
Ġfight
ĠØªÛĮ
ĠØ´ÛĮÙħÛĮ
Ø§Ø¸
ĠØ§ÙĪÙĦÛĮÙĩ
Ġresearch
Ġtreat
ĠÙħÙĢ
ĠPet
Ġtrou
ĠAust
Ġexact
ĠØ¹Ø¬ÛĮØ¨
Ø¯Ø±ÛĮ
Ø®ÙĪØ§Ø¨
Ġinvol
Ġcharacter
Ġinside
val
Ú©ØªØ±ÛĮ
Ġprin
ĠÙĨØ§Ø¨
arth
ĠØ¬Ø§Ø¯Ùĩ
ĠÛ±Û¹Û¸Û
Ġcurrent
ĠØ¬ÙĨÙĪØ¨
ply
Ġlink
Ø§Ø¯Ú¯ÛĮ
Ġindividual
ĠØ¨Ø§ÙĨÚ©
ĠÙĨØ²Ø¯
ĠÙ¾ÙĪ
Ġant
Ġkept
Ġwindow
ĠGu
Ġslow
ĠÛ¸
Let
Ġgentle
Ġeight
pri
Ġoutside
ĠØ¨ÙĦÙĩ
ĠÙ¾ÛĮØ§Ø¯Ùĩ
Ġaccount
ĠØ·Ø¨ÙĤÙĩ
idge
unicipality
ĠØ¯Ø±Ø¢ÙħØ¯
ÙģÙĦ
Ø§Ø±Ø´
Ø®Ø§ÙĨÙħ
Ġsens
arr
Ø¨Ø±Ø§ÙĨ
ĠØ¬ÙĨÙĪØ¨ÛĮ
ĠØ§Ø¶Ø§ÙģÙĩ
ĠÙ¾Ø²Ø´
ecause
Ġmult
ĠÚ©Ø§ÙħÙ¾ÛĮ
ĠØ±ÙĪØ²ÙĨØ§ÙħÙĩ
ĠÙ¾Ø±Ø³
Ġtou
action
ĠÙħØŃØµÙĪÙĦ
Ġadm
ØªØ³
Ġdaughter
urity
ĠØ¨Ø±Ø¬
Ġrecord
ĠØ±Ø´ØªÙĩ
Ġled
ĠØ¯ÙĪØ´
Ġrespect
ĠÙĪØ±Ø²
Ġdied
ĠØ¯Ø§Ø´ØªÙĨ
ĠØ¬Ø§ÛĮØ²Ùĩ
Ġviol
ĠÙħØ±ØŃ
ĠØ°ÙĩÙĨ
ols
Ø«ÛĮ
Ø§Ú©ÙĨÙĪÙĨ
Ġenc
Ġmakes
ising
Ġevent
ÙĢÙĩ
ware
ĠÙĨØ¨Ø§ÛĮØ¯
Ġ30
ĠØ²ÛĮØ¨Ø§
Ġearth
Ġjob
Is
Ġhot
ump
ĠÙħØ±Ú©
Ġmaterial
ledge
ino
ĠÙħØµØ±Ùģ
Ġpriv
ĠÙĩØ´Øª
ĠÙĨÚ¯Ø±
Ġproduct
ĠØ¨ÙĪØ¯ÛĮÙħ
ĠÙĤÛĮÙħ
Ġvillage
Ġstruct
ØªÙĨÙĩØ§
ØªÙĩ
ĠØ¬Ø°
ĠØ´Ø§Ø®
ades
ĠØ±Ø§Ø¬Ø¹
ĠØ¯ÙĪØ³ØªØ§ÙĨ
Ø²ÙĦ
ceed
Ġhusband
amm
aves
ule
ĠÙħØ³ØªÙĤÛĮÙħ
ĠÙģÙĪØª
ĠØ¹ÙħÛĮ
Ġer
van
ĠØ¬ÙĨØ³ÛĮ
ken
Ġnecess
Ġswe
Ġ13
ĠØ¹Ø§Ø´ÙĤ
Ġsurpr
Ġwhose
ĠChar
ĠÙħÛĮØ¯Ø§ÙĨ
bt
Ú¯Ø§ÙĨÙĩ
Ġtechnology
ĠÙĨÙĩØ§ÛĮØª
urch
ĠRep
ĠØ§Ø³ÙĦ
Ú©Ø±ÛĮ
ĠAll
ĠØ¨Ø¯Ø³Øª
Ġarms
ĠØ³ÙĪØ§ÙĦ
ĠÙĨÛĮÙħÙĩ
ĠØ§ÙĨØ³Ø§ÙĨÛĮ
Ġyourself
ĠAm
iding
ĠÙħØªØ¹
ĠÚĺØ§Ù¾
ĠÚ©ÙĪÙĩ
Ø³ØªØ±
Ġ11
ĠFe
ĠÚĨÛĮØ²ÙĩØ§ÛĮÛĮ
ference
Ù¾Ø±Ø¯
Ù¾Ø°ÛĮØ±
stit
ĠØ§ÙĦØ§ÙĨ
Ġborn
ĠÙħÙĬ
Ø³ØªØ§ÙĨÛĮ
Ġvol
ĠEl
atter
ples
Ġpopulation
ĠÙħØ§Ø¯
ĠÙĦØ§Øª
like
Ã³
ÚĨÙĨØ§ÙĨ
ĠÚ©Ø§Ø±ÙĩØ§ÛĮ
ĠAb
Ġexcept
ĠÙĨØ¬Ø§Øª
rences
ĠSw
Ġphot
Ø¸Øª
ĠÙª
Ġrelig
Ġà
ĠÙĨÛĮÚ©
ĠØ¬Ø¯ÛĮ
Ġappear
ØºÙĦ
Ġletter
attle
ĠØ§ÙĩÙħÛĮØª
ĠÙħØ¯ØªÛĮ
medi
Ġconvers
ĠÙĩÙħØ³Ø±
Ø±ÙĪØ³
odes
Ġeye
Ġprotect
Ø¬ÙħÙĩ
ĠÙħØ³Ø§Ø¨
ĠÙĨÛĮØ³ØªÙĨØ¯
Ø²Ø¨
ĠØ´Ú¯ÙģØª
Ø¦ÛĮÙĨ
Ġusually
ĠØ·Ø±ØŃ
Ġlives
Ġpretty
ĠÙĨØ´Ø¯
ĠAlex
Ġmer
Ġ("
ĠØ§ÙħÙĨÛĮ
ĠØ¨ÛĮØ³Øª
Ġsimple
Ø¨ÙĦÙĩ
ellig
riage
Ú©Ø§Øª
Ø¨Ø²
Ġmess
apt
ĠØ¹ÙĦÙħÛĮ
Ġwritten
ĠØ¹Ø¨Ø§Ø±Øª
ÙĪØ±Ø§
inary
Ġsn
ining
gs
idered
Ġdeter
hel
Ø³ØªÚ¯ÛĮ
Ġfa
ĠØ¯Ø§Ø¯Ùħ
antly
ĠØ§ØŃØªÛĮ
ĠÙĨØª
Ġcross
Ġredu
ĠØ¹ÛĮÙĨ
Ġi
ĠØ´ÙĨØ§Ø³
Ġpress
ishing
Ġcomb
rest
oms
ĠÚ¯Ø±Ø¯ÛĮØ¯
ĠØªÚ©Ø±
ĠÙģØ±Ø§Ø±
ĠØ±ÙĪØ³Øª
ĠÛĮÙĪÙĨ
ili
ÙĪØ±Ú©
ĠMay
Ġmethod
Ġrepresent
Ġscient
ese
ration
Ġbene
ĠØ¹ÙĦØª
ĠÚ©Ø´Øª
Ġbank
ĠØ´ÙħØ§ÙĦ
ÙħØ´
Ġtele
Ø¢ÙĦ
ĠÙħØ±Ø§ÙĤ
Ġmor
ential
ĠÙħØ¨Ø§Ø±
ĠÙģØ±Ø§ÙĨØ³ÙĪÛĮ
Ġcorn
Ø§Ø®Ø±Ùĩ
ĠÙħÛĮØ²Ø§ÙĨ
ĠØ¯ÙĩÛĮÙħ
ĠÙģØ±ØµØª
ĠØ¨Ø±ÙĤ
}}
Ġcou
ĠØ§Ø±ØªØ´
Every
ĠØ§ÙģØ³
Ø²Ø¯Ùĩ
Ġgra
ops
Ġposition
mp
Ġaccept
Ġdecided
ĠÙħÙĨØªØ¸Ø±
ĠJu
Ġcomputer
vin
when
Ġlaugh
ĠØ®Ø§ÙĦÛĮ
ĠÙĨÙĪØ¹ÛĮ
Ġreceived
light
ĠØ´Ø§Ùħ
Ø¶ÛĮÙĩ
ĠÙĤØ·Ø¹
ØµØ¯Ø§ÛĮ
ĠÙĤØ¨ÙĦØ§
ocr
Ġprobably
Ġ14
Ġengine
Ø§Ø±Ú©
ĠØ³Ú¯
ĠØ´ÙĨÛĮØ¯Ùĩ
istic
ÙĪØ±ÛĮÙĩ
ĠÙħÙĦØ§ÙĤØ§Øª
Ġinstead
pecially
ÙĨØªÛĮ
oman
Ø±Ø§Ø³
imate
got
ĠØ§ÙĦÚ©ØªØ±
Ġauthor
ĠÙĤÛĮØ§
ÙģØ³
Ġwasn
ological
Ø¨ÙĨØ¯ÛĮ
Ġarg
Ø§ÛĮÙĤ
Ġarch
ĠØ¨Ú¯ÙĪÛĮØ¯
ĠKing
ĠØ§ÙĨÚ¯ÙĦ
Ġsmile
ÙħÛĮÙĦ
Ġsomeone
Ø®ÙĪØ§ÙĩÛĮ
ĠÛ±Û¹Û·Û
Ġtruth
ĠLondon
Ġwalked
ĠØ¹Ø±Ø¶
ming
Ø¯ÛĮÙĨ
ĠÙħÙĨØ§Ø¨Ø¹
Ġinvest
Ú©Ø´ÛĮ
Ġnor
Ø§Ø¯ÙĪ
ĠØªÙħØ§ÙħÛĮ
Ġsimilar
Because
ĠØªÙĩÛĮ
Ġcouldn
ĠPe
ÙĨÚ¯Ø§Ùĩ
ĠÙ¾Ø¯Ø±Ø´
ØŃÙĦ
Ġsong
Ġspecial
Ġnature
ĠÙĨØ§Ø±Ø§ØŃØª
Ġheav
ĠÚ©ÙĪØ¯Ú©
Ġquickly
Ø¨ÛĮØ±
ĠÙĨØŃ
Ġpaper
ÙĪÛĮÙĦ
ÙĤØ±Ø§Ø±
ival
ÙĩÙĨÚ¯Ø§ÙħÛĮ
ĠÙ¾ÙĨÙĩØ§ÙĨ
ĠÚ¯ÙĪØ´Ùĩ
ĠØ¨ØªÙĪØ§ÙĨØ¯
how
ĠÙĤØµØ¯
Ġsociety
Ø§ÙĨÚ¯ÛĮØ²
ĠÙĬ
Ġparent
Ġmembers
ĠØ®ÙĪØ¯Ø´Ø§ÙĨ
ĠNorth
ously
ĠÙĦØ°Øª
ideo
ĠØ¢ÙĪØ±ÛĮ
Ġspir
ĠØ¯Ø±Ø¬Ùĩ
ĠØ«Ø§Ø¨Øª
Ġmarket
Ø´ÙĪ
ĠÚ©ÙĦØ§Ø³
ÚĨÛĮØ²
ĠØ¢ÙĦØ¨
ĠØ®Ø±ÛĮØ¯
Ú¯ÙĦ
Ġtot
Ġopened
ada
Ġdevelopment
loy
ĠØ¹Ø¶ÙĪ
Ġseries
ament
overed
Û°Û°Û°
ĠØ§ÙĨÚ¯Ø´Øª
ĠÚĨÛĮØ³Øª
ĠWill
go
ĠØ³Ø§ÛĮØ±
Ġnational
Ø±ÛĮØ¨
Ú¯Ø±Ø¯Ø¯
ĠÙĩÛĮØ¬Ø§ÙĨ
Ġpick
Ú©ÙĦÛĮ
Ġinflu
hers
iling
Ġfunction
ĠÛ·
Ø§Ú©Øª
ĠØ¯ÛĮØ¯Ùħ
ĠØ¯ÙĤØª
ĠFor
Ġconsidered
Ġtheory
ĠÙħØ¹ÙĦÙĪÙħ
Ø³Ø§Ø®Øª
ĠØ¨Ø§Øº
Ġindust
Ġbuilt
ĠØ§ÙħØ±
ĠØ³Ø§ØŃ
ÙĪØ±ØªÛĮ
ike
Ø¢ÙħÛĮØ²
ĠArab
Ġwish
Ġfill
Ġjo
Ġimm
ÙĪÛĮØ²ÛĮ
ĠØ§Ø¹ØªØ±
ĠÙĤÙĪÛĮ
Ġreturned
Ġcamp
ĠÙĤÛĮØ§ÙģÙĩ
Ġforward
ĠÙ¾Ø±ÙĪØ§Ø²
ĠÙģØ¹Ø§ÙĦ
uz
ĠÙĩØ§ÛĮÛĮ
Ġforce
unch
ĠHer
Ġkey
ÚĨÛĮØ²ÛĮ
ironment
Ġmist
ĠØ®Ø§ÙħÙĪØ´
ĠÙ¾ÛĮÚĨÛĮØ¯Ùĩ
Ġsex
ift
ĠØ³Ø±Ø¨Ø§Ø²
ĠØ³Ø§ÙĨ
ĠÙħÙĨØ§Ø³Ø¨
ĠØ§ÛĮØ§ÙĦØª
ĠÚ¯Ø³ØªØ±Ø¯Ùĩ
ĠNo
ĠII
Ġship
ĠØ¯Ø³ØªÛĮ
ĠÚ©ÛĮÙĦ
anger
ires
ĠØ´Ø¯ÛĮØ¯
lam
Ø´Ú©Ø±
Ġce
Ġdise
Here
oe
Ø§ÙģØ¸Ùĩ
Ġlocal
oot
ĠØ¯Ø±Ø³
ĠØ§ÙĨØªÙĤØ§ÙĦ
Ø±Ø§ÙĨÛĮ
ĠØ³ÙĪØ§Ø±
Ġservice
ĠÚĨÛĮØ²ÙĩØ§
ĠØ°Ùĩ
Ø¨Ø§Ø´
±Û°
ĠØ§ØªØŃ
Ø§ÙĨÚ¯ÙĦÛĮØ³ÛĮ
Ġcreated
Ġadded
Ġ100
Ġperfect
face
ĠØ¨Ú¯Ø°
Ġyes
Ġ2010
ĠØªÙĪØ§ÙĨØ³Øª
Ġbeginning
Ġscience
ĠÙħÙĪØ§Ø±Ø¯
uct
Ġpot
ĠØ¹Ø¨ÙĪØ±
Ġcompan
ĠÙħÙĪØ±
Ġsoul
Ġchanged
Ġcried
ĠØ®ÙĪØ§ÙĩÛĮÙħ
ĠAmerica
ĠØ¶Ø±
ĠQu
Ġwonder
ĠÙĨØ¸Ø±ÛĮÙĩ
ĠØ§Ø¹Ø¶Ø§ÛĮ
Ġwide
Ġspecies
Ġthr
Ġut
ĠÙģØ±Ø§ÙĩÙħ
ĠÙħØ§Ø¯Ø±Ø´
Ġmemory
ĠØ§ØŃØªÙħØ§ÙĦØ§
Ø²Ø§
Ù¾Ùĩ
ĠÙħØ®Ø§ÙĦ
view
Ú©ÙĨØ§ÙĨ
Ġgrand
ĠÙħØ·ÙħØ¦ÙĨ
ĠØ¯ÙĨÛĮØ§ÛĮ
ĠØ§Ø¨ØªØ¯Ø§
yond
Ġsus
Ø§Ø±ÙĩØ§ÛĮ
ences
ØºØ§ÙĦ
Ú¯Ø°Ø§Ø´Øª
ggest
ÙĨØ¯Ú¯ÛĮ
ÙĪÙĤØª
ĠØ±ÙĩØ§
Ġcolle
ĠÙħØ±ØŃÙĦÙĩ
Ġsitting
ĠÚ©Ø´ØªÙĩ
ĠØªØ±Ø§
Ġgreen
Ġtrad
ĠIS
Ù¾ÛĮØ´
ÛĢ
ĠØ§Ø³ØªØ§ÙĨØ¯
ÙĪØ²Ùĩ
Ġimpro
Don
Ø³Ø§Ø²
Ø§ØµÙĦ
ĠÙĪØ§ØŃ
ĠCounty
ÙĨØ¯ÙĨ
Ġran
ØªØŃ
Ġlocated
ĠÚ©Ø³Ø¨
ÙħØ«ÙĦ
hood
ÙħÛĮÙĨØ§ÙĨ
ĠØ§ÙĨØ¬
ĠÙħÙĨØ¬Ø±
Ġcommand
agn
Ø§Ø±ØªÛĮÙĨ
Ġmilitary
ĠØ±ÛĮØ§
Ġprison
Ġsir
ighb
urd
Ġcreate
ĠÙĦØ±Ø²
Ø§ØŃØ¨
Ġbooks
Ġprofess
ĠØ§ÙĨÚ¯ÙĦØ³ØªØ§ÙĨ
11
Ġattention
ĠØªØ±Ú©ÛĮØ¨
ĠØ¹Ùĩ
ÙĪØ´ÛĮØ¯
ĠØ§Ú¯Ùĩ
cus
Ġmount
ĠÚ©Ø´ÛĮ
bon
iction
ĠØ¨Ø²ÙĨ
ĠØ¯ÙģØª
ĠØ®ØµÙĪØµÛĮ
Ġmiss
Ġsuggest
Ġaccess
ĠØ³Ø¨Ø²
ĠØ¢Ø¯
ĠØ«Ø±ÙĪ
ĠØ¢Ø³ÙħØ§ÙĨ
ĠØ³ÛĮÙĨÙĩ
ume
Ġstrange
Ġir
Ġdue
ĠÚ©ÙĪÚĨÚ©ÛĮ
Ø«Ø§Ø±
add
Ġfollowed
ĠØªÚ©Ø±Ø§Ø±
Ġworked
Ù¾Ø¯Ø±
ox
Ġready
Ġsend
Ø¸ÙĩØ§Ø±
iam
ĠÛ±Ûµ
ĠÙ¾Ø´ØªÛĮ
rid
uk
Ä±
Ġfurther
Ġestab
ĠParis
ĠØ¯ÛĮÙĨ
anced
Ġdoll
ĠÛ±Û³Û
ĠÙħØ¹Ø±ÙģÛĮ
ara
ĠØ¨Ø¨ÛĮÙĨÙħ
iment
ĠØ§Ø¨Ø²Ø§Ø±
Ġcoll
Ġgold
Ú¯ÙĪÛĮÛĮ
ĠGeor
raft
Ú¯ÙĪÛĮÙħ
Ú¯ÙĪØ±ÛĮ
ĠØªÙĪØ§ÙĨØ§ÛĮÛĮ
ĠØªÙĦÙĪÛĮØ²ÛĮ
Ġways
ĠÙĩÙĪØ§Ù¾ÛĮÙħ
Ġstri
Ġlived
Ġbott
Ġteac
ĠØ§ÙĤØªØµØ§Ø¯
ĠÙħØ±ÛĮ
ĠØ¨Ø¯ÛĮ
ĠØ§Ø®ØªÛĮØ§Ø±
Ġwood
ĠØªÛĮØ±
omen
ĠÙħÙĨØ§Ø·
Ġfing
ĠHar
ĠØ¢ÙģØ±ÛĮ
ĠØŃØ²Ø¨
Ø¹ÛĮÛĮÙĨ
ĠFl
ĠØ³ØªØ§Ø±Ùĩ
cks
ĠØ§ÙĦÛĮ
ÙħØ§ÙĨÙĨØ¯
Ġparty
Ġcapt
Ġoccur
ging
ĠØ§ÙĨØ¯Ú©ÛĮ
Ø¹ØªÛĮ
Ġdom
ĠPart
ears
Ġwrote
ĠÙĨØ¯Ø§Ø±ÙĨØ¯
Ġdeveloped
ĠÙħÙĪÙģÙĤÛĮØª
estern
ĠØ±ÙĪØ²ÛĮ
ĠØ§ÛĮØ³ØªØ§Ø¯
ĠØ§ÙĤØ¯Ø§Ùħ
ØµÙģ
ĠÙħØ±Ø¯Ùĩ
ĠÚ©ÙĦØ§Ùĩ
ency
ushed
istan
ruction
ĠØ§ØŃØªØ±
Ġx
ED
Ġtree
ĠØªØ®Øª
ĠØ±Ø§ÙĨ
Ġeff
ĠÙĤÙĪØ§ÙĨ
Ġquiet
ĠØ¢Ø±Ø²
ĠØ´ÙħØ§ÙĦÛĮ
Thank
ĠÙĦØª
Ġsepar
Ø¦ÙĪ
ĠØªÙĨØ¯
ĠØ§Ø®ÙĦØ§
ĠØªØ±ÛĮ
etic
Ġrepe
Û±Û¹Û
ĠØ±ÙĪØ§ÙĨ
ĠÚ¯Ø´Øª
ĠØ¯ÚĨØ§Ø±
ĠFrance
ĠØ²ÙĨÛĮ
Ġsitu
ĠÛ¹
artment
ĠÙĦØ§ØªÛĮÙĨ
ĠØ±Ø§ØŃØª
Ġcompl
ĠØ³Ø¨Ú©
ĠØ¨Ø±Ø®Ø§Ø³Øª
ÙĪÛĮÙĨ
cient
itude
Ġseven
ĠØ´Ø§ÙĨÙĩ
Ġaff
Ġexperience
Ã¼
ÛĮÛĮ
ĠØµØŃÙĨÙĩ
Ġfav
ĠØ¨Ø§Ø±ÛĮ
ĠÚ©Ø§Øº
Ġsuff
Ġcells
Ġcause
ĠÙ¾Ø³Øª
ĠBritish
ique
Ġbehav
ĠÚĨÛĮØ²ÙĩØ§ÛĮ
Ġbeautiful
reme
ĠØ®Ø§ØµÛĮ
Ø§ÙĪØ±Ø¯
raid
ĠØ¨Ø±ÛĮØªØ§ÙĨÛĮØ§
Ġchem
ĠØ¬ÙĦÙĪÛĮ
Ġpull
Ġvalue
ball
ked
ĠÙħØ§Ø¯Ùĩ
raz
Ġstopped
omb
Ġobser
Ġconsider
Ġsimply
Ġintrodu
ingly
Ġcrit
Ø¨ÙĨØ¯
yl
Ġtype
Ø§Ø±ÛĮØ³
Ø¬Ø§Ø³Øª
ĠÙĨØ¯Ø§Ø´ØªÙĩ
From
ØªØµ
Ġtill
ĠÙħØ¨Øª
Ġfast
Ø±Ø§Ú©
ĠMarch
ĠØ§Ø¸ÙĩØ§Ø±
ØªØ±Ø³
Ġattempt
Ġmovement
Ġreached
Ġ25
sequ
Ġvarious
Ġbecom
Ġappeared
do
ĠÛ´Û
ØªÙħÙĨØ¯
Ġcontinued
ĠØªØ¹ÛĮÛĮÙĨ
ĠÙħÙĪØ¬Ø¨
Ġformer
ĠØ²ÙĨØ¯Ø§ÙĨ
ĠØ§Ø·ÙħÛĮÙĨØ§ÙĨ
ĠÚĨÙĪØ¨
Ġinn
Ġglass
ĠÎ
Ġrob
owers
ĠØ¬Ø¯
Ġkilled
ĠEn
ĠÙĤÛĮÙħØª
Ġnamed
ĠÛ±Û¹Û¶Û
ĠÙĨÙĤÙĦ
Ø¨ÙĪ
ĠØªØŃÙħÙĦ
ague
ĠÃ
Ø§ÛĮÛĮØ¯
icle
Ú©ÙĨØ´
ĠÙħØ¯ÛĮØ±ÛĮØª
ÙĩØ§ÛĮØ´Ø§ÙĨ
ĠØ¯ÙĩÙħ
ĠÙĤØ¨ÙĪÙĦ
Ġesc
ĠÚĨÙĨØ¯Ø§ÙĨ
Ġstanding
uel
Ġimmedi
ĠØºÙħ
Ġsor
Ġbes
ĠVal
ĠØªØŃÙĤÛĮÙĤ
Ġblue
ĠMus
agement
Ø³Ø§ÛĮ
Ø¨Ø§Ø±ÛĮ
lling
Ġge
Ġcommunity
Ġgirls
ĠMad
Ġterri
ĠâĪ
ĠØ²ØŃ
Ø§Ú©ÛĮ
sc
ills
ĠØ®Ø¨
ÙĪØ±Ø§ÙĨ
ama
ĠÙ¾ÛĮØ´Ø±ÙģØª
ournal
Sh
Ø§Ø¨Ø·
ĠÙĩÙħÚ©Ø§Ø±ÛĮ
ĠBut
ĠØ´Ø®ØµÛĮØª
inct
Ø³Ú©
Ġfine
ĠÙ¾ÙĦÛĮØ³
ĠØ´Ø§Ø¯
ĠHist
itect
Ġdistrict
ibility
Ú©ÙĨÙĩ
ica
ĠÙĨØ´Ø§ÙĨÙĩ
Ġmiddle
his
Ġstreet
ĠØ¯Ø§Ø®ÙĦÛĮ
AS
Ø¯Ø³
ĠÙħÙĤØ§Ùħ
usion
ĠÙħÙĤØ§ÛĮ
ta
Ġsea
ĠØºØ±Ø¨ÛĮ
Ġmouth
Ù¾ÙĦ
Ø¬Ø§ÛĮ
there
ĠÚ©Ø±ÛĮ
who
ĠÙĪØ§ØŃØ¯
ÙĩÙĪØ±
Ġfif
Ġpublished
Ġneighb
Ġmeant
ĠMed
Ġjud
wered
ĠØ®Ø§Ø±Ø¬ÛĮ
Ġdie
Ġterm
ĠØ¨Ùħ
ĠØ³Ú©ÙĪØª
ĠÙħØ¨
ĠJune
ray
ĠØ¢ÙģØª
isf
Ġver
Ø³ÙĦ
Ġspecific
ĠÙ¾Ø²Ø´Ú©ÛĮ
ĠÙħÙĤØ§ÛĮØ³Ùĩ
ĠÙĨÙĤØ§Ø´ÛĮ
ny
Ġseeing
ĠØ§Ø³ØªØ§ÙĨØ¯Ø§Ø±Ø¯
ĠØ¨Ø¨ÛĮÙĨØ¯
Harry
Ġpath
ĠØ®ÙĪØ¯Øª
ĠØªÙĪØµÛĮ
ĠÚ¯Ø³ØªØ±Ø´
Ġdepend
ĠØ³Ø§Ùħ
ĠØ§ØŃØ³Ø§Ø³Ø§Øª
ĠØªØ¹Ø¬Ø¨
ĠÚ¯ÙĪÛĮÛĮ
ĠØŃÙĦÙĤÙĩ
ĠØ±ÙĤØµ
ey
ĠÙħØ¹ÙħÙĪÙĦ
aven
Ø§Ø±ÙĪ
ĠØ¯Ø¹ÙĪØª
ĠØ§Ø¹ØªÙħØ§Ø¯
ĠÙĤÙĩ
Ġdecl
Ġworks
ÙĨÙĪØ§ÙĨ
ĠØ¨Ø²ÙĨØ¯
ĠÙħÙĩØ§
Ø§Ø¯Ø«
ĠÙħÙģÙĩ
Ġpurp
Ø§ÙĨÙĪØ³
Ø®ÙĪØ§ÙĩÛĮØ¯
ĠØ³ÙĪØ¯
Ġbab
ĠJan
inal
ĠÙģØ±Ø§ÛĮÙĨØ¯
ÙĩØ§ÛĮÙħ
ĠØ¨ÛĮØ§ÛĮØ¯
ĠÙħØ³ÙĦ
ĠØ³Ø§Ø²ÛĮ
ĠÛ±Û¹Û´Û
ĠÙĩØ³ØªÛĮ
Ġmaybe
Ø¨Ø²Ø±Ú¯
ĠØ±Ùģ
ĠÚĨØ§Ø±
ights
ĠAfrica
Ġafraid
ĠØ§Ø³Ù¾Ø§ÙĨÛĮØ§
ĠØ®Ø´Ú©
ĠRes
ĠCal
ĠØ§ÙĪÙĤØ§Øª
ĠIndia
Ġfloor
Ġavail
ĠØ¹ÙĦÛĮÙĩ
ĠØ§ÙĨÙĤÙĦ
uary
Ġproblems
ĠØªÙĤØ³ÛĮÙħ
Ġdin
ĠÚĨØ§Ù¾
18
CA
ĠÙĪÛĮÙĨ
ÙĪØ±Ø´
ĠÙģÙĦØ³
Ġenvironment
ĠØŃØ±ÙģÙĩ
Ġknowledge
ĠØªØ¦
Ġ2012
Ġ$
Ø´ØªØ±
ptember
ĠØ§Ø®ÛĮØ±
Ġfix
ĠÚ©Ø§Ø±Ø¨Ø±Ø¯
emy
ya
Ø¬Ø²
ĠEarth
ĠØ´Ø§ÙĨ
Ġespecially
ĠØ®Ø³ØªÙĩ
ĠÙģØ±Ùħ
Ø²ÙħØ§ÙĨ
ĠÙ¾ÛĮØ§Ùħ
Ġrights
ĠDon
ĠØ«Ø¨Øª
ĠÙĨÛĮØ±ÙĪÙĩØ§ÛĮ
rupt
ĠØ¯Ø±ÛĮØ§ÛĮÛĮ
ĠÙĨÚ©ØªÙĩ
ÚĨØ±Ø®
ÙĦÛĮØª
Ġoffice
ĠÚ©ÙĦÙħØ§Øª
Ġwrite
Ġinclude
Ġast
ĠÙĩÙħÚĨÙĪÙĨ
Ġcomplex
Ġrespons
Ġlearned
Ġbeyond
Ø·ÙĪØ±ÛĮ
ĠSec
ĠØ§ÙĨÚ¯Ø§Ø±
ounced
ĠØ¨ÛĮØ¯Ø§Ø±
ĠØªÙĩÛĮÙĩ
chie
wo
Ġsister
chan
ĠÙĨÛĮÙĪÛĮ
ØªÙĪØ§ÙĨØ³ØªÙħ
Ġsett
Ø³ÛĮÙĨ
ĠÙģØ¶Ø§ÛĮ
ĠSan
Ġhop
ĠÙĤÙĪØ§ÙĨÛĮÙĨ
oices
ĠÙħØ´Ø§Ø¨Ùĩ
ĠØ¨Ø´ÙĪØ¯
ĠÙĪØ§ÙĤØ¹ÛĮØª
Ġcarry
ĠPa
Ġcivil
ĠØ¬Ø§ÙĦØ¨
Ġ50
ĠÙħØ´Ú©ÙĦØ§Øª
Ġreplied
Ġfund
ager
ĠÙĨÙĩØ§Ø¯
ĠØ§Ø·Ø§ÙĤ
Ġpred
itor
ĠÙģØ§Ø±
osing
itional
ĠÙĩÙĪØ§ÛĮÛĮ
Ġtwenty
iff
Ġeffort
Ġpeace
Ġmodern
Un
uf
Ã¡
ĠÙģÙĨØ§
Ġdesp
ĠØ¬ÙĨÚ¯ÙĦ
Ġexactly
ĠCity
ĠØ§ÙĨØªØ´Ø§Ø±
ĠÙĦÙĨØ¯ÙĨ
ĠØ¨Ø¯ÛĮÙĨ
Ġclaim
Ú¯ÙĪÛĮÙĨØ¯
ĠØ®ÙĪØ±Ø¯Ùĩ
ÙĪÛĮÚĨ
ĠÙħØ±Ú©Ø²ÛĮ
lock
Ġeveryone
reed
Ġprev
Ø®ÙĪØ§Ø³ØªÙħ
Ø³Ú©Ùĩ
ators
ÙĪØ§Ø¹
ĠØªÙĦÙģÙĨ
ites
ĠØ¢Ø³ÛĮØ¨
ĠØ§Ø¯Ø§Ø±Ùĩ
Ġassoci
Ġreleased
ĠØ¬Ø³
ĠâĢĿ
bec
ĠØ§ØªÙģØ§ÙĤÛĮ
Ġanyone
ĠÙħØ´ØªØ±Ú©
Ġtrees
ĠØªÚ©Ùĩ
ĠÚ©ÙĦØ§ÛĮØ¯
ĠØ¢ÙĦÙħØ§ÙĨÛĮ
ĠØªØ§Ùħ
ĠCo
ĠÛ±Û¹
ength
asc
ĠØ´ÛĮÙħÛĮØ§ÛĮÛĮ
Ġwat
Ġmaster
resh
Ġeasy
ĠØ¢ÙĦØ¨ÙĪÙħ
ternet
Ġcollect
Ġspoke
ography
ĠÐ
ĠÚ©Ø±Ùĩ
ĠØ¹ÙħØ±
dom
ĠØ·ÙĦ
ĠÙĨÛĮØ³ØªÙħ
ØªÙħØ§Ùħ
Ġhappen
ĠÙħØ¯ÛĮØ±
Ġofficial
arily
Ġfort
ram
ĠÙħØ§ÛĮÙĦ
ĠÚ©Ø±ÛĮØ³ØªÙģ
ĠØ¨Ø§Ø´Ùĩ
Ġneeded
ĠØ§Ø³Ù¾Ø§ÙĨÛĮØ§ÛĮÛĮ
Ġtoward
ĠÙħÙĨØ§Ø·ÙĤ
Ġregard
ĠØ³ÙĨØª
ĠØºÙĦ
ĠØ§ÙģØ±Ø§Ø¯ÛĮ
ĠØ¬Ø²ÛĮØ±Ùĩ
Ú©Ø²
ĠØªÙĪØµÛĮÙģ
Ġking
ĠÙĤØ±ÙħØ²
Ġ2008
Ø§ÙĨÛĮÙĩ
iant
ĠChristophe
ĠÙĤÙĩØ±
Ø±Ø§ÙĨØ¯
ĠÙĨØ§Øª
Ġmarried
ĠÙ¾Ø§ÙĨ
Ġ2011
ÙħØ§Ø¯Ø±
Ġfac
ĠBer
owd
set
Ġwhis
Ġdoctor
Of
gorith
Ġwouldn
ĠÙħØ°Ùĩ
ĠØ¯ÙģØªØ±
ĠÙ¾Ø§Ø±ÛĮØ³
Ġdoubt
iverse
ĠØªØŃØµÛĮÙĦ
ĠØ¨Ø±Ú¯Ø²Ø§Ø±
ĠÙģØ±Ø²ÙĨØ¯
Ġquestions
Ø§ÙĦÛĮØ§
ĠÙĩØ±ÚĨÙĩ
Ġshare
Ġ2009
ugust
Ġcast
ris
ĠØŃÚ©ÙĪÙħ
ĠØ±Ø³ÛĮØ¯ÙĨ
Ġinternational
ĠÙ¾Ø®Ø´
irth
ĠÙ¾ÙĨØ§Ùĩ
ĠØ§Ú©Øª
ĠÙĤÙĪÙĦ
ĠØ¨ÙĩØ¨ÙĪØ¯
ĠØªÚ©ÙĨÙĪÙĦÙĪÚĺÛĮ
Ġstra
oly
Ġspent
ctober
ĠÙħÙĪÙĤØ¹ÛĮØª
ban
Ø³Ùģ
ĠMon
ĠØ¯Ø³ØªØ±Ø³ÛĮ
Ġcommunic
ĠÙĪØ¶Ø¹ÛĮØª
ĠÚ©Ø§ÙħÙ¾ÛĮÙĪØªØ±
Ø¯Ø§Ø¯ÙĨØ¯
ĠÙĪÛĮÙĦ
ÙĪØŃ
Ú¯Ø±Ø¯Ø§ÙĨ
Ġideas
Ġapplic
Ø¯Ø§ÙĪ
ĠØ´ÙĩØ±ÛĮ
ĠÚ©ÛĮÙģ
icro
Ġworth
AT
cil
ĠPress
Ġprim
ĠØ§Ø³Ø§Ø³ÛĮ
Ġcontr
ĠØªÙģØ§ÙĪØª
ĠSeptember
Ġindepend
ĠRussian
12
Ġexpression
Ġdrink
ĠDav
ĠØ®Ø¯ÙħØ§Øª
Ø¯Ø§ÙĨØ¯
ĠØ¨ÙĩØ±Ùĩ
Ġdig
ĠØ§ÙģÚ©Ø§Ø±
Ġpack
ĠØ³ÛĮÙħ
ĠØ³Ø§ÙĦÚ¯ÛĮ
ĠØ¯Ø´ÙħÙĨ
ĠÙĪØ±ÙĪØ¯
Ġsal
ÚĺÚ¯ÛĮ
Ø¹Ùħ
?"
Ġpolic
Ġeat
iers
Ġpiece
reng
ĠØ¯ÙĤÛĮÙĤ
Ø´ÙĪÙĨØª
ĠEuropean
ĠØ¹Ø§Ø¯ÛĮ
ĠØ¨Ø¨Ø±
Ġdanger
ferences
rum
ĠÙĨØ§Ø´
ĠWest
Ġwaiting
ĠGermany
Ġfair
ĠØ²ÛĮØ¨Ø§ÛĮÛĮ
ĠÙĪÙĤ
ĠØ³ÙĪØ±
ĠJew
Ġda
ĠØ¹ÙĤÛĮØ¯Ùĩ
what
irm
ĠØ±ÙĪØ¯Ø®Ø§ÙĨÙĩ
ĠJuly
ĠØ¢ÙĨØ¯
Ġmeaning
ĠØ¨Ø´Ø±
ĠÙĨÛĮÙĪÛĮÙĪØ±Ú©
Ġcop
Ġrelationship
Ġindeed
ĠAt
Ġtemper
Ø®Ø±Ùĩ
fered
ĠØ±Ø§ÙĩÛĮ
ĠØ§ÙĨØ¯ÛĮØ´Ùĩ
ÙĤÛĮØ±
ĠØ§ÛĮÙĨÙĩ
Ø¦ÙĪÙĨ
uses
Ġur
Ġhy
ĠØ¬Ø¯ÛĮØ¯ÛĮ
Ġsilence
Ġsize
ĠØ¢ÙĪØ±
ĠØ§ÙĩÙĦ
ÙĤØ§ÙĨ
lying
Ġloved
Ġchance
Ġbox
Ġhorse
Ġcompletely
ĠØ±ÙĪØ³ÛĮÙĩ
Ø¯ÙĪØ±
ĠÙħØ¹ØªÙĤ
Ø±ÙģØªÙĩ
Ġmid
ĠÙħØ¯Ø§Ø±
ÙĪÙĦÛĮØª
ĠØ¢Ø´Ú©Ø§Ø±
ĠÙĨÚ¯Ø±Ø§ÙĨ
ilos
ĠÛ°Û°Û°
ĠNe
ĠØ³Ø§Ø¨ÙĤ
Ġeducation
ĠÙħØ¨Ø§Ø±Ø²Ùĩ
omp
ĠÙħÚ¯Ø±
ned
ĠØ§ØµÙĦ
Ø®ÙĪØ§ÙĩÙĨØ¯
ĠØ¹ÙĦÙħ
ĠEngland
het
ĠÙħÙĪÙĨ
Ġburn
Ġnorm
ÙħÛĮØ±
Ġ2013
ÙħØŃ
ĠØ³Ù¾Øª
Ø¢Ùĩ
ĠPres
ĠÙħÙĤØ§ÙĪ
ĠÙ¾Ø±ÙĪØª
Ġcapital
ĠÙĦØ·
ustom
Ġamount
ĠÙħÙĩÙĨØ¯
Ù¾Ø²
ĠÙĪØ³Ø·
ĠØ¢Ø´ÙĨØ§
ĠÙħØŃØ¨
Ġlargest
ĠÙģØµÙĦ
ibly
ĠØ¢Ø«Ø§Ø±
Ġregion
Ġrunning
ĠØ³ÛĮÙĨ
ĠØªØ§Ø±ÛĮÚ©
bum
ĠØ³Ø§ÛĮÙĩ
ka
Ø®Ø§Øµ
Ġaffect
ĠØªØµØ§Ø¯
pril
Ġconcept
ĠPer
Ġchair
Ġconversation
Ġlooks
Ġ>
Ġhost
ĠØ¯ÙĦØ´
ossible
Ġsearch
bsite
ĠÚ¯ÙħØ§ÙĨ
Ġstudents
ĠÙĨØ§ÙħÛĮØ¯Ùĩ
Ù¾Ø§ÛĮ
Ġcoun
ĠØ´ÛĮÙĪÙĩ
ĠØªØ¬Ø§Ø±ÛĮ
Ġprinci
Ġwarm
ĠØ²ØŃÙħØª
ĠÚ©ÙĪØ±
Ġparents
ĠØªØ§Ø«ÛĮØ±
ĠØ¬Ø¹
Ġmunicipality
ĠØªØºÛĮÛĮØ±Ø§Øª
izing
Ġgoes
Ø¯ÙĪÙĨ
Ġsight
well
iny
ĠSam
Ġband
ĠØ§ÙĦÙĩ
ĠØ³Ø±Ø²ÙħÛĮÙĨ
ĠØ´ÙħØ§Ø±Ùĩ
bling
ovember
lands
ĠÙħØŃØ¶
ĠØ³Ø®ÙĨØ§ÙĨ
Ġproduced
ĠØ§ÙĪÙĨÙĩØ§
aur
Ø¨Ø±ÙĪ
ĠØ¯ÙĤÛĮÙĤØ§
ĠØªØ±Ø¯
Ġstates
ĠØ·Ø¨ÛĮØ¹Øª
Ġcam
Ø§Ú©Ø³
oid
ĠChina
Ġisn
ĠÙģÙĨØ§ÙĪØ±ÛĮ
Ġavailable
Ġdress
ĠÚ¯ÙĪÛĮ
Ø¹Ø¯Ø§Ø¯ÛĮ
ĠÙĨØ¨Ø±Ø¯
aud
Ġmember
ĠÙĨØ§Ø´ÛĮ
Ġinit
Ġ2006
ÙĦØ²
ĠØ³Ø¤
Ġstreng
ĠØªØ§Ø±ÛĮÚ©ÛĮ
gress
ĠØ®Ø´ÙĪÙĨØª
ĠØ³Ù¾ØªØ§ÙħØ¨Ø±
Ġrul
ĠØ¨ÛĮÙĨÛĮ
Ġ[
Ø®Ø§Ø±
ÚĨØ´Ùħ
ify
Ġsignific
Ø¯Ø§ÙĨÛĮ
minist
Ġfem
ĠØ¯ÙĩÛĮØ¯
199
Ġfigure
ald
Ø¦Øª
Ø§ÙģÙĤ
ĠØ®Ø¯Ø§ÛĮ
cember
ĠØ¯ÙģØ§Ø¹
Ø±ÙĪØ²Ùĩ
ĠÚ¯ÛĮØ§Ùĩ
Ġep
ĠPal
ĠTom
ification
ĠØ¨Ø¯ÙĩÙħ
aled
iced
Ġacqu
Ġpersonal
Ġweeks
Ġeconomic
ER
Ø±ÙĪÙĨØ¯
arden
mit
ĠØ§ØŃØªØ±Ø§Ùħ
ĠOctober
Ġphysical
ĠAustral
Ã¶
room
ĠØ¬Ø´ÙĨ
Ġparts
Ø±Ø§ÙĤ
Ø¢ÛĮÙĨØ¯
ĠÙĤØ§ÛĮÙĤ
ĠØ®ÙĪØ§ÙĨØ¯ÙĨ
ĠØ±ÛĮØ§Ø¶ÛĮ
ĠØ´Ø§ÛĮ
ĠØ¶Ø¹ÛĮ
Ġbroad
Ġrate
Ġliter
During
Ġcode
ĠØ®ÙĪØ§ÙĩÛĮØ¯
Ġnearly
ĠÙħØŃÚ©Ùħ
ĠÙħÛĮÚ©
Ġcrowd
umb
Or
ĠMor
Ġemot
Ġaction
Ø§Ø±Ùħ
ĠShe
elligence
Ġclot
ĠØ³Ø®ØªÛĮ
ghed
ĠØ¶Ø¯
Ġwild
ĠÙĤØ¶ÛĮÙĩ
ĠØºØ±Ø¨
ĠBar
ĠÙĪÛĮÚĺÚ¯ÛĮ
kn
aff
Ġtravel
Ġtit
ero
ĠØ¯ÛĮÚ¯Ùĩ
Ġentered
Ġgroups
ĠÚ¯Ø§Ø²
ĠØµØ§ØŃØ¨
ĠØ§ÙĨÙĪØ§Ø¹
Ġexec
Ġvideo
Ú©Ùģ
ĠÛ±Û²
ĠØ§ØµØ·
Ø®ÙĪØ§ÙĨØ¯
Ú¯ÛĮØ±ÙĨØ¯
Ġaud
ĠÙģØ´
ØµÙĪØ±Øª
aded
Ġsatisf
was
Ġstraight
ĠÙħØ³Ø§ÙģØ±
ĠØ¨Ø²Ø±Ú¯ØªØ±ÛĮÙĨ
Ġrole
ĠØªÛĮØ±Ùĩ
ĠAugust
ÙħØ§ÙĨØ¯Ùĩ
ĠØ§ÙħÛĮØ¯ÙĪØ§Ø±
Ġversion
Ġdeg
ĠDr
ĠØŃØ¯Ø§ÙĤÙĦ
Ø§Ø¬Ùĩ
ĠØ¨ÙĪÛĮ
ÙĨØ´ÛĮÙĨ
Ġlikely
ĠÙħØ³Ø§Ø¦ÙĦ
Ġpicture
Ph
Ġlady
ĠØ¹ÙĦÛĮ
ĠMary
ĠØ±ÙĪØ§Ø¨Ø·
Ġslight
ĠÙĩÙĨØ±ÛĮ
ÙĪØ§ÛĮ
ĠÙħÙħÙĨ
ĠApril
ĠÚ¯ÙģØªÙĨ
Ġtakes
atory
unk
Ġallow
ĠØ¸Ø±Ùģ
Ġaddress
ĠÚ¯Ø±ÛĮÙĩ
Ġalgorith
Ġvict
Ġspend
while
Ġlif
ĠØŃØ±Ú©
Ġmoving
ĠÚ©ÙĦØ§
rey
ĠØ¯Ø³
Ø£Ùħ
ĠØ¯Ø±Ø¢ÙĪØ±Ø¯
olute
atever
Ġachie
Ġseems
Ġfrequ
ĠÙĨÙĪÛĮØ³ÙĨØ¯Ùĩ
ĠØ§ÙĨØ¬ÙħÙĨ
ÙĩØ§Ø³Øª
Ġlad
ĠØ³Ø§Ø®ØªØ§Ø±
ĠÙĩØ³ØªÙĩ
ÙĪØªÛĮ
ÙĪØ³ØªÙĩ
Ġdam
ĠØªÙĩØ¯ÛĮØ¯
ĠØ±ÙģØªÙĨØ¯
ham
ĠÚ¯ÙģØªÚ¯ÙĪ
Ġremained
utions
Ġones
Ø¨Ø®Ø´
ĠØŃØ§ØµÙĦ
ĠÙģØ¶Ø§
ĠØ³Ø§ØŃÙĦ
ĠØ§ØªÙĪÙħ
Ġopport
ĠØ±Ø§Ø¯ÛĮ
ĠMc
ÙĨØ²
Ġrisk
lla
Ġpolice
ĠØ¨ÙĨØ§
ĠAlexand
ĠSpain
Ġdemand
Ø¨Ø®Øª
ĠMos
ĠØ¬Ø§ÛĮÚ¯Ø²
Ġhigher
!...
Ġcy
ÙĦØ§ÙĪÙĩ
Ġ|
Ġhat
ĠÙħÙĪØªÙĪØ±
ĠØ¨Ø·ÙĪØ±
ĠØ¬ÙĦØ¨
Ġcomfort
ĠÙĪØ§Ú©ÙĨØ´
Ú©ÛĮÙĩ
ĠØ¨Ø¨ÛĮÙĨÛĮØ¯
ĠØ±ÙģØªÙħ
Ġvisit
Ġshowed
ĠÙĪØ§Ø¨
ÙģØ±ÙĪ
ÙĪØ§ÙĤ
ĠØ§ÙħÙĪØ±
Ġstar
ĠØªÙħØ§Ø´Ø§
Ġconcern
Ġ2007
ĠØ¹ÙĩØ¯Ùĩ
50
Ø§ØŃÛĮÙĩ
Ġplaces
ĠÙħØ¬ÙĦØ³
Ø§ÙĪÙĦÛĮÙĨ
ari
ĠØ®Ø±ÙĪ
ĠEast
Ġfeat
Ġplayed
Ġanswered
asant
Ġrock
ĠÙħØ¹Ø±ÙĪÙģ
ĠÙĤÙĩÙĪÙĩ
Ġallowed
Ġlower
ĠØ®ÛĮØ±
Ø§ÙĨØ¯Ø§Ø²
ĠØ¹ÙħÙĦÚ©Ø±Ø¯
Ø§ÙĦÙħ
ensive
Ġdiscuss
ĠØ¯ÙĪØ´ÛĮØ²Ùĩ
ĠØŃØªÙħØ§
ĠØµÙĪØ±ØªÛĮ
ĠØªÙĪÙ¾
ught
ĠØ¯ÙĨØ¯Ø§ÙĨ
isted
Ġweak
ĠÚ¯Ø±ÙģØªÙħ
Ġbelieved
Ġstandard
ĠDecember
ĠØ²Ùħ
Ġraised
Just
ÙħØ§ÙĨÙĩ
ĠNovember
ĠÚ©Ø§ØºØ°
Re
Ø§ÙģØ²Ø§Ø±
Ġcompet
Ġbound
rael
Ġball
Ø´Ú©Ø±Ùħ
come
ĠØ´Ø§Ø¯ÛĮ
ĠØŃÛĮÙĪØ§ÙĨØ§Øª
Ø¨Ø§ÛĮØ³Øª
ilities
ĠÚ©ÙħØ§ÙĦ
Ġdetermin
Ġpen
Ġterms
ĠØŃØ§ÙģØ¸Ùĩ
ĠLord
ĠÙħØŃØ§Ø³
Ġ192
ĠØ§Ø¬Ø±Ø§ÛĮ
ĠØ§ØŃÙħÙĤ
Ġknows
ĠØ°Ø®
Ġdisease
ÙħÙħÚ©ÙĨ
rect
Ġgrew
ĠØ´Ø±ÙĤÛĮ
onst
Ġmad
Ġgiving
ÙĨÙĪØ´Øª
Ġdefe
Ġmachine
ani
ĠÙ¾Úĺ
ĠØ¯ÛĮÙĪØ§ÙĨÙĩ
ĠØ¹ØµØ¨Ø§ÙĨÛĮ
Ú¯ÙĪØ±ÛĮØªÙħ
ĠÙĩØ¯Ø§ÛĮ
anish
bert
ĠÚ©ÙĦÛĮØ¯
ĠÙĦØŃØ§Ø¸
ĠAnt
ĠØ¨ÛĮØ§ÙĪØ±
ĠØŃÚ©ÙĪÙħØª
Ġmut
Ġsource
ĠÙ¾ÛĮÙĪÙĨØ¯
Ġ2005
âĢĮâĢĮâĢĮâĢĮ
Ø±ÙĪØ¨
asion
ĠØ¨ÙĢÙĩ
ables
Ð°
arlet
Ġdiscovered
Ġchanges
ĠØ¯Ø±ÙĪØº
Ġslowly
ĠRepublic
Ġrefer
ĠÛĮØ®
ĠGreat
ĠØ³Ø¨Ø¨
Ø¸ÛĮÙģÙĩ
Ø§Ø²Ø¯Ùĩ
lim
Ú©ÙĪÙĦ
Ġden
Ø§Ø¦ÛĮ
Ġshout
ĠJanuary
Ġ<
iety
ØºØ§ÙĨ
ĠÙ¾Ø§Ø±Ú©
Ġtotal
Ø§Ø²Ø´
Ġemploy
ĠØŃØ±
Ġanimals
Ø¯ÙĦ
ĠÙħØ´Ø§Ø±
ĠÛ³Û°
ĠÙĨØ§Ùĩ
ĠØ§Ø¹ÙħØ§ÙĦ
ĠÙĨÙħØ§ÛĮØ¯
Ø¬Ø§ÛĮÛĮ
Ġcolor
ĠÚĺÙĪØ¦ÙĨ
ĠØ¯Ø±Ø®
Ġund
ĠØ¨Ú¯
Ú¯Ø§Ø±ÛĮ
asing
Ġareas
Ġrose
Ġspread
ĠØ¹ÙĦÙĪÙħ
mon
ching
osition
Ġstories
Ġimpossible
itation
ĠØ¨ÙĩØ´
Ġthus
sych
Ġunc
Ġwait
Ġcorner
ÙĪÙ¾
lict
Ġdru
Ø³ÛĮÙĦ
ĠÙĩÙĪØ§ÛĮ
ĠRober
Ġquar
ĠØ³Ø§ÙĦÙħ
Ġclosed
Ġalthough
Ġterror
cience
While
Ġfellow
Ġmanner
Acc
ĠÙģÛĮØ²ÛĮ
ÙĨÙĪØ¹ÛĮ
ĠÚ©Ø§ÙĦØ³Ú©Ùĩ
ĠØ§ÙĤÛĮ
era
key
Ġspeed
Ø³ØªÙĨ
Ø±Ø¯ÙĪ
Ú¯Ø±Ùħ
irty
Ú¯ÙģØªÙħ
king
eness
icated
Ġlear
cia
Ġprep
Ġprevent
Ġphilos
Ø·Ùĩ
ĠØ¨ÛĮØª
Ġchall
ĠØ§ØµÙĦØ§ØŃ
ĠÙħØŃØ§Ùģ
ĠÙĨØ³ÙĦ
ĠÚ©ÙĦÛĮØ³Ø§
ĠÙħÙĪØ³
ÙĦØ§ÙģØ§ØµÙĦÙĩ
ĠÙģÙĩØ±Ø³Øª
ĠWhat
Ġdinner
Ġcases
ĠÙħØ±ØªØ¨Ø·
hemat
ĠØ´ÙĨÛĮØ¯
Ø§ÙĦØ¹Ø§Ø¯Ùĩ
ĠParty
Ġlau
Ġgas
ĠØªØ±ÛĮÙĨ
ĠØ§ÙħÙĨÛĮØª
ients
ĠØ®ÙĪØ±Ø¯ÙĨ
ÙĤÛĮÙĨ
Ù¾ÛĮØ±
ĠØ§ÛĮÙĨØªØ±ÙĨØª
ĠØ®ÙĪØ¯ÙħØ§ÙĨ
ØºÛĮØ±
ÙħØ§ÛĮÙĦ
ĠState
Ø¨Ø§Ø²ÛĮ
ione
ĠÙħØ®ÙģÛĮ
Ø¨ÛĮÙĨÛĮØ¯
bing
verage
ĠØ¬ÙĨØ¨Ø´
Ġdollars
oes
ĠÙ¾ÙĦÙĩ
Ø¯Ø§ÙĨÛĮØ¯
Ġnumbers
ĠÙģÛĮÙĦÛĮÙ¾
Ġimmediately
ĠØ¹ÙħÙĦÛĮØ§Øª
ĠØ§Ú©ØªØ¨Ø±
ĠØ´ÙĪÙħ
Ø¯ÙĩÛĮ
ĠÛĮÙĩÙĪØ¯ÛĮ
ĠØ¹ÙħÛĮÙĤ
Ġarchitect
ĠÙħÙģÙĩÙĪÙħ
Ġmention
Ġthreat
oking
Ø§Ø®Ø±
Ġproduction
Ġnecessary
ux
Ġpopular
ĠØ±Ø²
ki
Ġthoughts
ĠÙħØ±Ø§ÙĤØ¨Øª
field
Ġheat
ÙĩØ§Ø¦ÛĮ
Ġsafe
Ġdistribut
ÙĪÛĮØ³ÛĮ
ĠØ¢Ø±Ø§ÙħØ´
ĠØ´ØªØ§Ø¨
Ġlog
ĠØ®ÙĦÙĤ
Ġglad
Ġamaz
ancy
ĠØ¨Ø§ÙĦØ§ØªØ±
ĠÙħÛĮÙĦÛĮØ§Ø±Ø¯
ria
Ø¨ÛĮÙĨÙħ
ĠSer
ĠØ³ÙĨÚ¯ÛĮÙĨ
ĠÙĦØŃÙĨ
ĠÙħÚ©Ø§ÙĨÛĮ
ĠÙħØ§Ø±Ø³
ÙĢÙħ
ĠØ¢ÙģØªØ§Ø¨
ĠÙħÙī
Ġcat
Ġfinally
ĠÙħÙĪÙĦ
Ġcand
Ġrap
ĠIslam
ĠØ±ÙĪÙĨ
Ġtext
ĠArt
ĠÙħØ¹ÙħÙĪÙĦÛĮ
Ø¢Ø¨
ĠÙħÙĤØ§ÙĦÙĩ
ĠÙĨØ¯ÛĮØ¯Ùĩ
ĠÙħØ¬Ø¯
Ġwriting
ĠØ±Ø³Ø§ÙĨÙĩ
ĠÛ²Û°Û±Û°
arc
Ġlips
Ġlinks
ĠÙħÙĪØ¬
ucle
Ġhosp
Ġemer
Ù¾Ø±Ø§Øª
ĠÙ¾ÙĪØ´ÛĮØ¯Ùĩ
ĠØ¹Ø¸ÛĮÙħ
ĠÚ©ÛĮÙĦÙĪÙħ
Ġcarried
ĠØ¯Ø±Ø®ÙĪØ§Ø³Øª
ĠØ³Ø¹
Ġmechan
Ġminute
rov
ctions
Ø¨Ø±Ø®ÛĮ
joy
ĠØ¹Ø§ÙħÙĦ
ĠØ³ÙĦØ§Ùħ
Where
ails
ÙħØ§Ø±
Ġdistance
Ġprivate
Ġder
ĠÙħÛĮÙĨ
Ġimagine
Ø±Ø§Ø¬
ĠØ¢ÙĪ
Ġtrem
Ġgun
ises
ÙĦÛĮÙĨ
ĠØ¯ÙĩÙĨØ¯Ùĩ
reg
ĠDNA
ees
iation
ners
ĠÙĨØ§Ø®
ĠÚĺØ§Ù¾ÙĨ
ĠØ³Ø¤Ø§ÙĦ
ÙħØ·
ĠPhilip
ĠÙħØ´Ø§Ø±Ú©Øª
Ú©Ø¯Ùĩ
ĠØ®Ø´
Ø®ÙĪØ§ÙĩÛĮÙħ
ĠPresident
appe
ĠÙĤØ§ÙĨÙĪÙĨÛĮ
Ø´Ø§ÙĩØ²Ø§Ø¯Ùĩ
Ø¯Ø®ØªØ±
ĠØ¨Ú¯ÙĪ
ĠØ´ÙĩØ±ÙĩØ§ÛĮ
ÙĪÙĤÙģ
ĠØ§Ø±Ø¨
ĠÙħÙĨØ²ÙĦ
Ġdocum
ÙĨØ¸
Ø¹Ú©Ø³
Ú©Ø±ÛĮØ³ØªÙģ
Ġmur
Ġextreme
ĠØ¢ÙĤØ§
Ø´ÙĨØ¨Ùĩ
Ø¸Ø§Ùĩ
II
vision
ĠØ¨Ø±Ø³Ø¯
bru
ÃŃ
Ġnorth
Ø¨Ø±Øª
Ġlength
Ġglobal
ĠØ³Ø§Ú©Øª
ĠØ²ÙĨÚ¯
Ġdifference
Ġarmy
ĠØµØ¯Ø§ÛĮÛĮ
Ġextra
ĠØ¨Ø§Ø´ÛĮ
ĠMart
ĠØ´Ø±ØŃ
Ø§Ø¯ÛĮÙĩ
Ġmine
ĠØ¨Ø±ÙĪÙħ
Ø±ÛĮØŃ
ĠÚ¯Ø±ÙģØªÙĨØ¯
ÙħØ¬
ĠÙħÙĪØ§Ø¬Ùĩ
ĠÙĨÚ¯Ø±Ø§ÙĨÛĮ
ĠInt
ĠÙ¾ÙĩÙĦ
ĠÙĨÚ¯Ø±ÛĮ
Since
Ġconscious
Ø§ÛĮØ¬
Ø±ÙĪÙĨ
ĠHistory
ĠØŃÛĮØ±
ÛĮØ§Ø·
Ġsecurity
Ġfinal
ĠMer
Ġalbum
Ø¯Ø±Ø³Øª
ĠAg
ĠØ¹Ø¯Ø¯
ĠÙħÛĮØ´Ùĩ
ĠÙħØ§Ø¬
Ø¨Ø®ØªÛĮ
ĠØ¨Ø±ÙĪ
Ġmedia
Ġopt
Ø¬ÙĨ
ĠÚ©Øª
ĠÚ©Ø§ÙĨØ§Ø¯Ø§
Ġcouple
ĠØ¹Ø§Ø¯Øª
ĠÙģØ±Ø§ÙĨÚ©
Ġkids
ĠØ´ÙĨÛĮØ¯ÙĨ
ĠØ§Ø®ØªØµ
ĠÙĤØ§Ø¨
Ġhistor
ĠÚ©Ø´Ø§ÙĪØ±
Ù¾Ø§Ø±
iles
rief
aries
Ġbroken
Ú¯Ø§ÙĨÛĮ
Ġet
Ġstuff
ĠÚ¯ÙĪØ´Øª
Ġremark
teen
Ġbelong
According
Ġpurpose
Ù¾ÙĪØ´
ĠComp
ech
Ø§Ø¹Øª
Ø³ØªØ±ÛĮ
Ø§ÙħÛĮØ¯
Ġwebsite
ĠÚ¯ÛĮØ±ÛĮ
ĠØ§ÛĮØªØ§ÙĦÛĮØ§
Ø¯Ø§ÙĪÙĨØ¯
itiz
Ġoil
lyde
Ø³ÛĮÙĪÙĨ
ĠØ§ÙĨØ¨
ÙĨØ§Ú¯ÙĩØ§ÙĨ
Ġyell
ĠØ¬Ø²Ø¦ÛĮ
ĠBlack
ĠSm
ĠØ®ÙĪØ¯ØªØ§ÙĨ
ĠÙħØ·Ø±ØŃ
Ġsurface
Ġparticularly
lin
ÙĪÙĨØª
Ġemb
Ġbreath
ĠÙĨØ§ÙĨ
ĠÛ¶Û
Ġdisp
15
Ġcaught
olf
erve
ĠÙħÙĩÙħØ§ÙĨ
Ġprovince
Ġexpected
Ġheavy
ĠØ®ÙĨØ¯
order
ĠÚ¯Ø±Ø§ÙĨ
ĠÙĨÙĪØ§ÙħØ¨Ø±
Ġbelow
ĠØ®Ø±Ø¯
ĠØ³ÙĦØ§ÙħØª
Ġpal
ĠØ¹Ø¯Ùħ
ĠØ¨Ú©Ø§Ø±
ĠÙĪØ±ÙĪØ¯ÛĮ
ĠØ²Ø®
istry
Ġstrength
ÙĪØ§Ø±ÛĮ
Ø§ÙģØªØ¯
ĠØ¨ÙĦÙĪ
ĠØªÙĤØ§Ø¶
ĠIsrael
Ø§ÙĦØ´
Ġimage
Ġsurv
Many
ÙħÛĮÙĪÙĨ
astic
13
arp
ĠØ¬ÛĮÙħ
ĠÙħÙĨØŃ
ĠÙħØ³ØªÙĤÙĦ
omm
ĠØ·Ø±Ø²
ests
ĠÙħÙĩÙħÛĮ
Ġpleasure
Ġopin
ĠÙħÙĤØ¯Ø³
ĠØ¨Ø·
Ø§Ø¯Ø§Ø±
ĠÙ¾Ø´ØªÛĮØ¨Ø§ÙĨÛĮ
Ø¨Ø§Ø¨
ĠÙĨØ§ØŃÛĮÙĩ
ĠÙĤÙĦÙħ
Ġsteps
Ġpp
ĠØ¨Ø±Ùĩ
Ġresour
Ġdefin
Ú©Ø§Ùħ
ØµØ¨
ĠØºØ±ÛĮ
Ġsilent
ĠØªÙĨÚ¯
ĠØ¢ÙħÛĮ
ĠÙħÙĨØ¨Ø¹
Ġ40
Ġneeds
ĠØ±ÛĮØ´Ùĩ
no
ÙģØ±Ø¯
ĠØ¯ÙĪÙĦØªÛĮ
Ġspirit
Ø²Ø§ÙĨ
ivity
ierre
Ġbillion
ĠØ³ÙĪØ²
ĠØ¯ÙĩØ§ÙĨ
ĠØ±Ú©
ĠØ¢ÙĪÛĮ
Ġreading
dd
Ġbirth
Ġanx
Ġspeaking
ĠÙĩØ¯Ø§ÛĮØª
chen
ÙĨÙĪÛĮØ³
ĠØµÙĦØŃ
ĠØ¹Ø²ÛĮØ²Ùħ
Ġsky
ĠØ¹ØµØ¨ÛĮ
ĠØ®ÙĪØ§ÙĩØ±
ĠØ¯Ø³Ø§ÙħØ¨Ø±
Ø±ÙĨÚ¯
alys
ĠØ±Ø§ØŃØªÛĮ
ĠÙħØªÙĪÙĤÙģ
Ġdirectly
Ġpossess
Ġoriginal
lt
ĠØ¨Ø´ÙĨ
Ġmill
ĠÙĤØ´
ĠØ±Ø³Ø§ÙĨØ¯
ĠÙĢ
ĠØ¨Ø±Ø§ÛĮÙħ
Ġtrust
ĠÙħØ³Ø§Ø¨ÙĤÙĩ
Ġsoftware
ĠØ¯ÙĪØ¯
ÙĤØ§Ø¯
:âĢĮ
Ġcool
Ø§ÙĨØ³Ú©ÛĮ
ĠÙħØ±Ø²
Ġforget
ĠØ¬ÙĪØ§ÙĨÛĮ
Ø§ÙĨØ¯ÛĮ
ĠØ¯Ø§ÙĨØ´Ùħ
ĠØ¶ÙħÙĨ
ĠØ¶Ø¹ÛĮÙģ
Most
ĠØ¨ÙĦØ§
Ú©ÙĨÙĨØ¯Ú¯Ø§ÙĨ
ĠØ¢ÙģØ±ÛĮÙĤØ§
ĠØ°Ø®ÛĮØ±Ùĩ
MD
Ø¢ÙĨÚ¯Ø§Ùĩ
ĠØ¯Ø§Ø¦
ĠÙĩÙĨØ±Ùħ
Ġess
Ġtears
Ø§ÙħÙĪÙĨ
vered
fection
ĠÙĪØ¸ÛĮÙģÙĩ
ether
Ġjoy
bered
ĠØªÙĪØ§ÙĨØ¯
Ġought
Ø§ÛĮØ¯Ùĩ
ĠØ§Ø³Ú©Ø§Ø±
Ġturning
Ġpock
ĠÛ±Û°Û°
Ġguess
Ġestabl
Ġenjoy
Ġprince
ĠØ±Øª
Ġtrouble
bes
Ø§ÙħØ¯
ĠÙħØ¶
ĠØ¨ÛĮÙħØ§Ø±Ø³ØªØ§ÙĨ
Ġmere
ĠÙ¾ÛĮÙĪØ³ØªÙĩ
Ġtalked
gypt
Ġinteresting
ĠØ²ÙĪØ¯ØªØ±
ĠØ§ÙĨÙĤÙĦØ§Ø¨
ÙĨÚ¯Ø±ÛĮØ³Øª
ios
amb
Ġmagn
Even
ÛĮØ¹ÙĨÛĮ
roy
ĠÚ©ÙĪÚĨÙĩ
bruary
ĠØ·ÙĦØ§
ĠØ³Ø§Ø®ØªÙĨ
ĠØ§Ø´Ø®Ø§Øµ
ĠØªØŃÙĦÛĮÙĦ
Ġgrowing
ĠÙĤØ·Ø¹Ùĩ
ĠØ¢Ø±ÛĮ
Ġforces
ĠSu
ĠØ¨Ø¯ÙĩÛĮØ¯
ĠÚĺØ§ÙĨÙĪÛĮÙĩ
book
ĠAng
Ġkiss
ĠØ·Ø¨ÙĤ
ĠÙĪØ§Ø±
Ġhous
ores
ØªÙĪØ§ÙĨÛĮ
ĠØ´ÛĮØ´Ùĩ
ĠØ¨Ø§ÙĦØ§Ø®Ø±Ùĩ
Ġfilled
ounds
ĠÙħØ®ØªÙĦ
Ġneg
ĠØ§Ø³ØªØ§Ø¯
ĠØ¬ÙĦÙĪÚ¯ÛĮØ±ÛĮ
ĠØ¨Ø§Ø±Ùĩ
ÙĪØ±ÙĨ
rig
ĠÛ²Ûµ
Ġevidence
Ġstructure
ÙħÙĨØ¸
cked
tended
à¤
ĠSte
ĠÙĨØ²Ø¯ÛĮÚ©ÛĮ
eration
ĠØ¯Ø§Ø±ÙĪ
Ġ24
eter
ĠØ¶Ø±Ø¨Ùĩ
ĠInternet
Ø¨Ø³ÛĮØ§Ø±
ĠØ³Ùħ
Ġcho
ĠØ§ÙĦÚ¯ÙĪØ±ÛĮØªÙħ
ĠØ§ÙĨØªØ®Ø§Ø¨Ø§Øª
because
abor
Ø¨ÙĦÚ©Ùĩ
Ġculture
Ø³Ú©ÛĮ
Ġfat
Ú©Ø±Ø§Øª
Who
ĠØ¯ÙħÙĪ
Ġgreater
Ú©ÛĮÙĨ
ĠÙĨØ¨Ø§Ø´Ø¯
Ø¨Ø¹Ø¶ÛĮ
ĠØ¹ÛĮ
ĠÚ©Ø§Ø±ÙĩØ§
ÙĢÙĨ
ĠÙ¾Ø±ÛĮ
vert
ĠÙģØ±Ø¯Ø§
rs
ĠØ§ÛĮÙĨÙĩØ§
Ġairport
ĠÙģØ±Ø³ØªØ§Ø¯
ĠØ§ÙģØªØ®Ø§Ø±
Ġcertainly
Ġstrugg
Ġgenerally
Ġlanguages
Ø§Ø±Ø§
Ġconv
axim
Ġskin
ÙĨÛĮØ§
Ġtask
ĠØ¨Øª
Ġconsum
ĠÚ¯Ø±Ø¯Ø´
Ġ2000
AR
Ġshut
Ġtransl
ĠÙĨØ®Ø³Øª
Ø§ØµØ±
zer
Ġhom
ĠØ§ÙĪØ§Ø®Ø±
Ġrain
ĠØ¢ÙħØ¯ÙĨ
Ġ21
ĠÚ©Ø±Ø¨
ĠØ¯Ø±ØŃØ§ÙĦÛĮ
ĠØ§ÙĨØ¯Ø§Ø®ØªÙĩ
Am
ĠØ³Ø±Ø§ÙĨØ¬Ø§Ùħ
Ġshad
ĠØ¢ÙĨÙĤØ¯Ø±
ĠØªÙħØ±Ú©Ø²
Ġempt
ĠØ´Ùģ
aste
Ġdescribed
Ú©Ø´Ø¯
ashing
ĠÙħÙĤØ§ÙĪÙħØª
ĠØ±Ùħ
ĠØ§Ø³ØªØ®
ĠØ³Ø±Ø·Ø§ÙĨ
Ġability
plement
Ġbright
Ġexcl
Ġpray
ĠÙģÙĪØªØ¨Ø§ÙĦ
ĠDavid
ĠØªØ¬Ø§Ø±Øª
ÙĢØ±
Ġfreed
ĠÙĨÙĪØ´ØªÙĨ
ĠÙĪØ§Ø³
ĠÚ¯Ø±ÙĪÙĩÛĮ
Ø®ÛĮØ±
ÛĮÙĨÙĪ
ĠÙħØŃØ¨Øª
ĠØ§ÙĤÛĮØ§ÙĨÙĪØ³
born
Per
Ġhuge
ĠÙģØ±Ø¯ÛĮ
Ø¨ÛĮØª
ĠØªÙ¾Ùĩ
ĠØ´Ú©Ø§Ø±
ÙģØ±Ø³Øª
ĠÛ±Û¸
udd
Ġforgot
Ø§Ø·ÛĮ
Ú¯ÛĮØ±ÛĮÙħ
Ġevents
Ġdirection
Ġcompanies
Ġgrad
Ø§Ú¯Ùĩ
ĠØ¢Ø³Ø§ÙĨ
ping
ĠSchool
Ġfocus
ĠÚ©Ø´ÛĮØ´
Ġlearning
ĠØ¨ÙĪØ³
Ġsick
ES
Ġbird
ĠRoman
pha
Ġoccup
):
rain
ĠSch
ĠØ¢Ú¯Ø§Ùĩ
vere
Ġmeasure
ĠÙģØ±Ø¶
ĠÛ±Û¹Û³Û
bles
Ġeverybody
ĠArmen
Ġsave
Ġdesigned
ĠÙĨØ¯Ø§Ø¯
ĠØ¨Ø±ÙĨØ¯Ùĩ
Ú¯ÙģØªÙĨØ¯
Ġstation
Ġplant
ĠØ¹ÙĦØ§ÙĪÙĩ
ended
ĠØªØŃÙĤÛĮÙĤØ§Øª
Ġdeli
Ú©Ø±Ø¯Ùĩ
Ġpowerful
gar
ĠÚĨØ±
Ġboys
wise
Ġdim
aped
ÙĩÙĨÙĪØ²
Ġsummer
ÚĨØ§Ø±Ùĩ
ĠÙĪØ±Ø²Ø´
ĠØµØ¨Ø±
Ġtherefore
ĠÙħØ§Ùħ
useum
ÙĦØ±Ø²
za
Ġbaby
Ġreach
ÙĪØ³Ø·
Ġ2014
Ġsituation
ĠØ²Ø§
Ø¯ÛĮÙĩ
ĠØ´Ø§Ø®Ùĩ
Ġsuppose
ĠØ®ÙĪØ§ÙĨØ¯Ùĩ
Ġresults
Ġcenter
Ġunderstood
Ġforeign
Ġdelight
asons
lected
Ġmeeting
rill
Ø±Ø§ÙģÛĮ
ĠØ±ÙħØ²
Ġcancer
Ġnice
Ġrich
Ø§ÙĪØªÛĮ
uman
Ú¯Ø³
Ġhall
ĠRon
iving
ĠØ³ÛĮØ§Ø±Ùĩ
Ġtar
ØªÛĮÚ©
Ġelectric
ĠØ®ÙĦ
ĠØ§ÙĨÚ¯ÛĮØ²
ĠØ¯Ø§Ø¯Ú¯Ø§Ùĩ
ÙħØ±
Ø§ÙĨØ¯Ø±
Ġadminist
ĠFebruary
ĠÚ¯ÛĮØ±Ø¯
ĠØ´ÙĦÙĪ
ĠÙħÙĪÙĤØ¹ÛĮ
Ġarrived
apers
Ġ2004
May
Ø±Ø§Ø³Øª
ĠØªØ§Ø±ÛĮØ®ÛĮ
Ġprovide
ĠØªØ¹Ø¯Ø§Ø¯ÛĮ
ĠØ´Ø±Ùħ
ĠÙģØ±Ø²
ĠÙĪÛĮØ¯
ĠØªÙĪØ²ÛĮ
ĠØ¹ØµØ±
ĠÙĨØ§Ø±Ø§ØŃØªÛĮ
ĠÚ¯Ø±Ø¯ÙĨ
ĠØ¢ÙĪØ±Ø¯ÙĨ
Ġparticip
Ø§ÙĨØ¯Ùĩ
Ø¦ÛĮÙĩ
imately
ĠØŃØ°
ĠÛ²Û°Û±Û±
ĠÚ¯ÙĨØ§Ùĩ
ĠØªØ¯Ø±ÛĮ
ĠØ¯Ø§Ø´ØªÛĮÙħ
Ø§ÛĮØ³ØªÛĮ
ĠØ¨ÙĩØ¯Ø§Ø´Øª
ĠJames
ĠÚ©Ø§ØªØ±ÛĮÙĨ
oo
Ġhardly
rons
ĠØ¨Ø±ÙĤØ±Ø§Ø±
ĠØ²Ø±Ø¯
ĠØ¨Ø®ÙĪØ§ÙĨ
ĠØ«Ø§ÙĨÛĮÙĩ
ĠØ®ÙĪØ§ÙĨØ¯
ĠØºØ±ÙĤ
ĠØŃØ¯Ø³
hest
ĠØ¨Ø±Ø¢ÙĪØ±Ø¯
ĠCor
ĠØ¢ÙĪØ±ÛĮÙĦ
ÙĦÛĮÚ©
ÙĪØ°
cell
ĠØ¨Ú©ÙĨØ¯
ĠØ¹Ø¬
ØºØ±
Ø±Ø§ØŃØª
Ġfollow
ophy
ĠWilliam
ĠÙģÛĮØ²ÛĮÚ©ÛĮ
Ġign
ĠÙ¾ÚĺÙĪÙĩ
ĠÚ©Ø±Ø¯ÛĮ
ĠØ¯Ø³ØªØ±Ø³
ĠÙ¾Ø±Ø¯Ùĩ
ĠØŃØ§ÙĦØªÛĮ
ĠÙħØ±Ø§Ø³Ùħ
oring
ĠÙĪØŃØ´ÛĮ
ÙĪØ³ÛĮ
Ġworse
Ġhappens
Ø°ÛĮØ±ÛĮ
Ġgaz
Ġdrive
alian
ĠØ¨ÙħØ§ÙĨØ¯
ĠÙħØ¹ÙĨØ§ÛĮ
ĠÙĩÙħØ³
14
een
Ġfright
oted
Ġaccording
mina
Ġsouth
Ġwhatever
ĠØ´Ø¯ÛĮÙħ
IN
craft
ĠÙ¾Ø¯ÛĮØ¯
Ġconduct
ÙħØ§Ø³
Ø±Ø§ÙĦÛĮØ§
cies
Ġformed
ĠØ¨ÙĪØ±
Ġbear
ĠÙ¾Ø§Ø±Ùĩ
Ġmarriage
Ġarran
Ġexperien
ĠGeneral
Ġbehavior
hab
ateg
ĠØ§ØªØŃØ§Ø¯ÛĮÙĩ
ÙĤØ§Ø¨ÙĦ
Ø®ÙĪØ±
ÛĮØ²ÛĮÚ©
lection
Ġbattle
ĠÙĩÙħÙĪØ§Ø±Ùĩ
had
Ġgarden
ÙĤØ¨
ĠÙĨØ§Ø²
Ġmiles
Ġdog
ĠÙħØŃØ³
ĠØ§ÙĦÚ©ØªØ±ÛĮ
ĠØ³Ø§ÙĦÙĨ
Ġplaying
Ġdesire
ÙģØ§Ø¹
ĠØŃÙģØ§
ĠÛ·Û
ĠØ¬Ø§ÛĮÚ¯Ø²ÛĮÙĨ
ĠÙħØ°ÙĩØ¨ÛĮ
ĠÙħØ¹ØªÙĤØ¯
idden
ĠDo
orthern
aker
Ġcontent
ĠØªÙĪØ¬ÙĩÛĮ
ĠCanada
ĠÙĨÛĮØ±ÙĪ
iqu
Ø®ÙĪØ´
ĠØ§ÙĦØ¹
ĠØªØ£Ø³ÛĮØ³
cise
rem
Ġtrack
Ġremem
ĠØ§ÛĮØ³ØªÚ¯Ø§Ùĩ
ØºÙħ
arlett
Ġcondition
Ø¨ÛĮØ§
ĠØ´Ø±ÙĤ
ĠReferences
ØºÙĩ
Ġtelling
Ġannounced
Ġnames
Ġreve
alysis
Ex
ĠÛ±Û¹ÛµÛ
ĠÚ¯Ø±Ø¯Ø¯
16
su
ĠÙħØ¨ÙĦ
aked
ĠØŃØ§ÙĦÛĮÚ©Ùĩ
ĠØ³Ø®ÙĨØ±Ø§ÙĨÛĮ
Ġinvent
isc
Ø¦Ùĩ
ĠÙĨÙĪØ²
onse
ĠÙħØ¬ÙĦÙĩ
ĠØªÙĪØ²ÛĮØ¹
Ġimplement
Ġaftern
Ġmedical
ĠÙħØ§Ø±ØªÛĮÙĨ
ĠÚ¯Ø±Ùĩ
Ġclean
Ġpan
Ġpositive
ĠÙģÙĪØ±ÛĮÙĩ
Ø²Ø¯ÙĨØ¯
arb
ĠÙĦØº
outhern
Ġuniverse
Ġthousands
ĠØŃÚ©Ùħ
ĠÙħØ¨Ùĩ
ett
Ġcourt
Ġrequire
Ġlaughed
ĠÙĤØ³Ùħ
Ġattract
Ġhappiness
Ø¨Ø§Ø´ÙĨØ¯
ÙĪØ§Ø±Ø¯
ella
ĠØ§ÙĨØ¯ÙĪÙĩ
ĠØŃÛĮØ±Øª
ĠØ¨Ø±ÛĮ
Ġpoints
ĠØ´Ø§ÙĩØ¯
ĠØŃÚ©
Ġbuy
Ġsad
ĠØ¯ÙĦÙħ
Ġautom
ĠÚ©ÙħÙ¾
ĠÙĨÚĺ
Ġcustom
ĠUnion
Ġcities
Ġabsolute
ĠÙħØ®Ø§ÙĦÙģ
Ø¬ÛĮØŃ
ĠØ¨ÙģÙĩÙħ
ico
ĠØ²ÙĪØ¯ÛĮ
rated
Ġloss
ĠØ±ÙĪØŃÛĮ
ØªÙĪØ§ÙĨØ³ØªÙĨØ¯
Ø±ÙģØªÙĨØ¯
ĠØ¯Ø±ÙĩÙħ
ĠEgypt
ĠØ¯Ø³ØªÙħ
aging
erson
ĠØ²ÙĨØ¯Ø§ÙĨÛĮ
ĠÙħØ§ÙĨØ¹
Ġrequired
ĠGeorge
just
ĠØ¯Ø±Ø®ØªØ§ÙĨ
ipped
ĠÙĪØ§ÚĺÙĩ
Ø´ÙĨØ§Ø®Øª
Ġremain
Ġdecision
ĠØ§ØµØ·ÙĦØ§ØŃ
Ne
Ġthick
ĠÚ©ÙĨØ¬
Ġaware
Ġsorry
ĠÙħØ´ÙĩÙĪØ±
Ġfaith
ĠÙĤØ¶
Ġcloud
Ġreality
ĠØªÚ©ÛĮÙĩ
hib
Ġsite
Ġnovel
ĠØ¨Ø§Ø±Ø§ÙĨ
Ġcover
ĠÙĨÙģØ±Øª
Ġplanet
ĠØµÙĨØ¹Øª
ĠØ´ÙĨØ§Ø³Ø§ÛĮÛĮ
Ġcitiz
Ġmix
Ġleaving
ĠØªÙĨØ¸ÛĮÙħ
Ġexpress
Ġlisten
AC
Ð¾
Ġcovered
ls
ĠÚĨÙĨÚ¯
ĠÛ²Û°Û±Û²
,'
ØŃÙĤ
ĠØ¯ÙĪÙħÛĮÙĨ
ĠÙħØ¯Ø±ÙĨ
ĠØªÙħØ§Ø³
ĠØ´ÙĪÙĩØ±Ø´
ĠØªØ±Ø¯ÛĮØ¯
cos
ĠÙ¾ÛĮØ±ÙĪØ²ÛĮ
ĠØªÙĨÙĩØ§ÛĮÛĮ
Ġboard
Ø§ÙĨØ§
ĠØ§Ø³Ø±Ø§Ø¦
ĠÙĤØ±Ø§Ø±Ø¯
ĠInstit
iber
ĠBel
ĠDep
Ġstage
Ġplaced
ĠØ³ÙĪØ®Øª
Ġleaders
Ġcircum
Ġeasily
ĠØ¯Ø´ÙĪØ§Ø±
ancing
Ġwalking
ĠØ¢Ø¯ÙħÛĮ
cend
Ġvan
ĠØ³Ø§ÛĮØª
ĠØ§ÙĪØ§ÛĮÙĦ
Ġservices
ĠÙħØ£Ùħ
Ġsmiled
ilies
Ġserved
ĠSir
Ġ2003
ĠØ´ØºÙĦ
ĠBab
ĠØ¢ÛĮØ¯
omy
ĠØªÚ¯Ø²
ĠØ§ÙģØ³Ø±
ĠÚĺÙĪØ¦ÛĮÙĩ
lor
ĠØ¬Ø§Ø¯ÙĪ
ĠÙĤØªÙĦ
ĠØ§ÙĪÙĦÛĮ
Ġquant
Ġincrease
Ġtro
ĠØ¢ÙħÛĮØ²
alt
ĠÙħØ·ÙĦØ¨
Ø§ÙģØªØ§Ø¯
ĠØ§Ø®ÙĦØ§ÙĤÛĮ
ØŃÙħ
Ġusual
ĠIvan
ola
Ġmeas
raq
fficient
Ġpage
ÙĢØ¯
ÙħØ±Ú©Ø²
ĠÚĨØ±Ø§Øº
Somet
Ġlack
istics
ĠHouse
ĠØ¨Ø²Ø±Ú¯ØªØ±
Ġletters
ĠÙģØ±ÙĩÙĨÚ¯ÛĮ
ĠISBN
ĠØ±ÛĮØ²
ĠØ§ÙħÙ¾Ø±Ø§Øª
Ġdetect
ĠØ§ØŃØªÛĮØ§Ø¬
ael
ĠÙģÙĨ
ĠDem
ĠÚĨÚ©
Ø¨Ø±Ú¯
ĠÙ¾Ø±ÚĨ
Ġpresence
ĠÛ¹Û
ĠØ¯ÙĦÛĮ
pir
ÛĮÛĮØ¯
ĠØ¬Ø±Ùħ
Ġstre
Ġrange
known
Ġthin
ĠÚ¯ÙģØªÙĨØ¯
ĠÙĨÙģØª
Ġgrowth
ams
Ġshown
ĠØªØµØ§ÙĪÛĮ
ĠCharles
Ġhung
Ġharm
17
Pe
ĠØ§Ø¹ØªÙĤØ§Ø¯
gu
ĠÙĨØ¯Ø§Ø´ØªÙĨØ¯
Ġcentral
back
Ġtypes
Ġestablished
EC
ĠThat
ĠPaul
Ø¨ÛĮØ´ØªØ±
Ġforced
ĠÙħÙĨØªÙĤÙĦ
Ø±Ø§ØŃ
och
Ġourselves
inc
ĠÙĪØ§Ø¨Ø³ØªÙĩ
Ġunderstanding
ĠÙĤØ¯Ø±ÛĮ
ĠÙĨØ§Ø¯
ĠExternal
Ġwatching
Ø¢Ø±
Ġinterested
ĠØªÚ¯Ø²Ø§Ø³
ĠÙ¾ÛĮÙħ
ĠÚ¯Ø°Ø§Ø±ÛĮ
ÙĨØ¯Ø§Ø´Øª
ĠØ³ÙĪÙĨ
Ġstone
Ġvirt
ĠâĪĴ
Ġrapid
Ġstruck
Ġmarry
Ù¾Ø±Ø§
Ø§Ø²ÙĨØ¯
oses
Ġfresh
ĠVol
Ġaddition
Only
Ġchemical
Ġwatched
Ġpsych
Ġcontribut
Ġindustry
aching
ÙĪÙĦØª
ĠÛµÛ
Ġforms
inated
ĠHow
Ġnucle
Ġfixed
Although
ĠØ®Ø¯Ø§ÙĪÙĨØ¯
oked
ĠØŃÛĮØ§Øª
ĠØ§ÛĮÙĪØ§ÙĨ
Ġuses
Ab
cad
rial
ĠÙħØ¹ÙħØ§Ø±ÛĮ
ĠØ²ÙĨØ¬
ĠØ§Ø±ØªÙģØ§Ø¹
ĠØ¯ÙģØ¹Ùĩ
OS
ĠØ¨Ø§Ùħ
ĠØªØ§ÙĦ
ĠÙĦØ§ÛĮ
istance
ĠÚ©ÙĪØ¯Ú©ÛĮ
Ġ2015
Ġfinished
Ġbeg
Ġshop
ĠØ¯Ø±ÙħÛĮ
ĠÚ©Ø§Ø±Øª
Ø§ÙĦÛĮØ§ÛĮÛĮ
Ġrelated
ĠØ±ÙĩØ¨Ø±ÛĮ
Ø§ÙĩØ§ÛĮ
Ø´ÙĩØ±
Ġnone
ĠÚ©ØªØ§Ø¨Ø®Ø§ÙĨÙĩ
ĠGree
ĠØªØ£ÛĮÛĮØ¯
Ġproduce
ĠØ¨Ú©ÙĨÙħ
ingu
ils
alled
ĠÚ¯Ø±Ø³
anta
Your
ĠClyde
Ġhumans
Ġinvolved
Ġfro
ĠØ§Ø³ØªØ±Ø§ÙĦÛĮØ§
odd
Ġorganization
ĠÙħØ±ØªØ¨
ancial
Ø¬ÙĪØ§ÙĨ
Ġlie
ĠLa
ĠWin
Ġtend
Ġserious
ĠÙĨÙģÙĪØ°
ĠÙĨØ§Ù¾Ø¯ÛĮØ¯
Ù¾ÙĪ
ĠÙ¾Ø±Ø³Øª
ĠÙ¾ÙĪØ´Ø´
IV
ĠØªØ±Ø§ÙĨÙĩ
Ø®ØµØµ
ĠÙĤØ¨ÙĦÛĮ
Ġbeside
Ġfaces
ĠØ±ÙĪÙĨØ¯
ĠÙĨØªØ§ÛĮØ¬
ini
ĠØ¢ÙĩÙĨ
rian
Ġpattern
Ġfavor
Ġiron
ĠÙĨØ±
Ġplease
Ġriver
Ġnormal
lier
ĠÙĪØ¬Ùĩ
ĠØ±ÙĪÛĮØ¯
ĠØ¬Ø¹Ø¨Ùĩ
ĠØ§Ø±Ø¨Ø§Ø¨
AN
Ġbenef
Ġmaint
ĠÙĤØ§
ĠØ¨Ø¯ØªØ±
ĠKh
µÛ°
Ġconditions
ĠØ¨Ø¯Ùħ
ĠIndian
Ġgets
Ġregular
year
ĠØ³Ø§ÛĮ
ĠÂ·
ĠÙħØ¬Ø§Ø²
ĠØ¨ÙĨØ¯ÛĮ
Ø¯Ø§ÙĨØ³ØªÙħ
ĠØ¸Ø§ÙĩØ±Ø§
Ġlegs
ĠReg
ĠFrank
Can
rank
ij
Ġsequ
Ġinfluence
Ġterrible
ĠØ¨ÙĦØ§ÙģØ§ØµÙĦÙĩ
Ġclothes
edia
Ġpaid
Ġshot
ĠÛ±Û¶
ĠÛ±Û¹Û±Û
Ġbroke
Ġopportunity
ĠØ³ÙĤ
Ġnine
text
Ġafternoon
ÙĪØ´ÛĮ
ĠØµÙĪØ±ØªØ´
Ah
ĠØ®Ø±Ø¬
fess
Ġdut
ĠÛ±Û±
ĠÙħØ«Ø¨Øª
ÙħØ±Ø¯Ùħ
Ġsweet
ĠÚ©ÛĮÙĦÙĪÙħØªØ±
Ġjour
Ġrealized
off
Ġhun
ĠØ¬ÛĮÙĨ
Ġneck
ĠÙĩÙħØ³Ø±Ø´
Le
ĠØ±ÙĪØ²ÙĩØ§ÛĮ
orses
ĠØ±ÛĮØ®Øª
Ø±Ø¶
Ġlines
ĠÛµÛ°
ĠØ³Ø±ÙĪ
pping
ĠØ¨Ø²ÙĨÙħ
Ġwit
org
ĠØ®ÙĪØ¯Ø±ÙĪ
Ġnotice
ĠÚ©Ø§Ø±Ø´
Ġconflict
night
ĠPri
ÙĪØ±ÛĮØª
rate
Ġfirm
Ú©Ø§Ø±Ø§ÙĨ
Ġgentleman
Ø§Ø¯Ø«Ùĩ
ĠÙħØªØŃØ¯
Ġleading
Ġbottom
Ø±ÙĤ
ĠØ±Ø¯ÛĮ
ĠÚ¯ÙĪÙĨØ§
wood
ISBN
ait
ĠJapanese
ground
aign
ĠÙħØ§Ø³
ĠCast
ĠPort
Ġchief
Ġteeth
ĠPrince
Ø´Ø§
Ġnote
ĠÙĨØ¸Ø±Ùħ
ĠÙħØ§Øª
ĠØªØ¶
Ġpale
oles
iforn
Ġspeech
Ġsurround
ĠÙħØ³Ø¦ÙĪÙĦ
ulf
inese
Ġimprove
Ġobl
ĠÚĨØ´ÙħØ§ÙĨØ´
ĠNor
ĠØ´Ú©Ø³ØªÙĩ
Ġaverage
Ġfool
Ġapproach
ĠØ¨ÛĮØ§
isions
Ø§ÙĪÙĩ
ĠÛĮØ§ÙģØªÙĨ
Ġwalls
fl
ĠIm
gged
ĠÙħÙĦÙĦ
ĠØºØ°Ø§ÛĮÛĮ
Ġanimal
Ġthroughout
ĠØ§ØªÙĪÙħØ¨ÛĮÙĦ
ĠØ®Ø§Ú©Ø³ØªØ±ÛĮ
ĠØŃØ°Ùģ
road
Ġneither
Ġvir
ĠÙħÙĦØª
ÙĨÙħØ§ÛĮ
Ú©Ø§ÙĦ
Ø±Ø¯ÛĮ
ĠØ¢Ø´Ù¾Ø²
ĠØ®ÙĪØ§Ø³ØªÙĩ
ufact
vey
pper
ĠØ¯Ø§Ø¯ÛĮÙħ
ĠÙĨØ¨ÙĪØ¯Ùĩ
ET
ĠÚ¯Ø§Ùħ
Ġspot
ĠÙħØµÙĨÙĪØ¹ÛĮ
Ú©Ø±Ø¯ÛĮÙħ
Ġholding
Ġdrawing
ĠØ¹ÙĦØ§ÙħØª
ĠØ¹ÙĤÙĦ
Ġfreedom
ĠÙĨØ¸Ø±Ø´
ĠRussia
ĠÚ¯Ø´ÙĪØ¯
Their
ØºÙĨ
ship
Ġtrain
Pr
ghan
ÙģØ´
Ġdrew
ĠØ§ÙĪØª
Ø®ÙĪØ§Ùħ
Ġchurch
Ġ22
Ġ23
Ġinte
ashion
ĠÙħØ§Ø¬Ø±Ø§
Ġempty
ÙģÛĮÙĦ
ĠÙħØªØµÙĦ
ĠØ´ÙĨØ§Ø®Øª
Ø¨Ø³
Christ
Ø±ÛĮØ²ÛĮ
Ġinstit
ĠØ³ÙĦØ·
¹Û°
Ġbod
ĠÙģÛĮØ²ÛĮÚ©
ĠArch
ÙĦØ§Øª
Ø´ÛĮØ±
Ġdisappe
ĠÙģØ¶Ø§ÛĮÛĮ
Ġrepeated
Ġstudies
Ġexplain
ĠÙģÙĪØ±Ø§
Ġpun
Ġmathemat
Ġfingers
Come
ĠØ§Ø®ØªØ±
unities
ĠØ¨Ø¹Ø¯Ø§
Ġenter
Ġadvant
Ø¯Ø§Ùģ
Ù¾Ø§ÛĮÛĮ
ĠØ®Ø´ÙĨ
ĠChristian
Ø¨Ø³ÛĮØ§Ø±ÛĮ
icles
ĠBo
ĠFil
atin
cean
Ġlarger
Ġmessage
Ġstars
ĠÙ¾ÛĮÙĪØ³Øª
Ø§Ø´Ø§
ĠOn
ĠØªØ±Ø¬ÛĮØŃ
Ġsac
agon
hold
Ġcru
ĠPark
ago
ĠÚĺÙĨØ±Ø§ÙĦ
Ġtarget
Ø³ÙĨ
ĠØ¯ÛĮØ¯Ø§Ø±
ĠÙĨÚ¯ÙĩØ¯Ø§Ø±ÛĮ
ĠÚ©Ø§ÙĦÛĮ
ĠÙĨØ¸Ø§Ùħ
ĠÙ¾Ø§ÛĮØ¯
ĠIraq
ĠØ§ÙħØªØŃ
Ø§ÙģØ¹
ÙĨÙħØ§ÛĮÛĮ
Ġreported
ĠÙħÙĨÙĪ
using
Ġshape
ĠÛ±Û´
ĠØ¢Ø±Ø§ÙħÛĮ
ĠÚ¯Ø²
Ġconce
Ġmultip
ĠØ³Ø±Ø§Øº
Ġpractice
ĠØ¨Ø¨Ø±Ø¯
Ø²ÙħØ§ÙĨÛĮ
Ġfle
Ġbell
ĠÚ©ÙĢÙĩ
ĠJean
more
Ġbeauty
ĠØ¨ÙĪÙħÛĮ
ĠÙħØ¹Ø¯
ĠØ¯Ø§
Ġblind
Go
Other
ĠØ±Ø¶
ĠCoun
ailed
ĠMich
ĠØµØŃÛĮ
uous
ĠØ¬ÙĨØ¨Ùĩ
Ġpressure
Ġopinion
Ġforest
Ġresponse
ĠBill
ĠâĢľ
ĠØ´Ø¹Ø±
ĠØ±Ø§Ø²
Ġliked
Ġfamilies
house
Ð¸
sec
ĠØ³Ø±Ùħ
Ġreligious
Ġinqu
ĠØ±Ø§Ø¶ÛĮ
ĠØ¹Ø°
Ġended
ĠØ¢ÙħØ¯ÙĨØ¯
ĠÙģØ¯Ø±
Ġboat
ĠÛ²Û°Û°Û¸
ĠÙĤÙĩØ±ÙħØ§ÙĨ
De
cast
ĠØ§ÛĮØ¯
Ġhorses
ĠØ§ÙĦÙģ
ĠÛ²Û°Û°Û¹
onel
ĠÙģØ±ÙħØ§ÙĨØ¯Ùĩ
Ġbal
ĠØŃÙĪØ²Ùĩ
ĠØ¨ÛĮÙģØª
osite
198
Ġmir
Ø®ÙĨØ¯ÛĮ
ÙĢØ§
Ġvari
ĠÙĨÙĪØ±ÛĮ
ÛĮØ³ØªÛĮ
Ġ190
Ġmole
ĠØ§Ø¶Ø·Ø±
ifornia
otes
antic
Ġdestroy
Ġpassion
ĠLF
ĠSpanish
ĠØ®Ø§ÙĦ
ÙĦÙĪØª
Ġsmell
Ġtrade
ĠÙĩØ²Ø§Ø±Ø§ÙĨ
Two
ÛĮØ§Ø¨Ø¯
ĠØ§Ø¯Ø¨ÛĮ
ĠÙĨØ¯Ø§Ø´ØªÙħ
Ġincreased
Ġincluded
Ú©Ø±Ùĩ
ÙĢÛĮ
ĠÙĨÚ¯Ø±ÛĮØ³Øª
ĠØ³ÛĮÙĦ
Ġrelative
ĠØ³ØªÙĪÙĨ
Ø§Ú¯Ø±Ø§ÙĨ
ĠØ´ÙħØ§Ø±
ÙħÙ¾
Ú©ÙħÛĮ
Ġcred
Ġliber
ĠÙĪÛĮÚ©ÛĮ
ĠØªØ´ÙĪÛĮÙĤ
Ġactivity
acing
Ġasking
ĠÚ©Ø´ÛĮØ¯ÙĨ
ĠÙ¾Ø§ÛĮÚ¯Ø§Ùĩ
Ġcaused
ĠØ§ÙĪØ³Øª
olly
ĠÙĬÙĥ
Ġluck
Ġgraph
ĠØªÙĪØ§ÙĨÛĮÙħ
ĠØ´Ú©ÙĦÛĮ
Ġperformance
Ġtelevision
Ġactive
Ġlabor
ĠÙģØ±Ø³ØªØ§Ø¯Ùĩ
ĠÙģÚ©Ø±ÛĮ
ĠØ¬Ø³ØªØ¬ÙĪ
kay
mione
ĠØ¨Ø±ÙĪÛĮÙħ
Ġ()
ĠCr
ounded
ĠØ¯ÛĮØ¯Ú¯Ø§Ùĩ
Ġlean
Ġmedic
Ġtreatment
ĠØ¯Ø§ÛĮ
ĠÛĮÙĪ
ĠØŃØ¯ÛĮ
Ġcommer
zen
ĠØ®ÙĦØ§Ùģ
ĠØ§ÙģØºØ§ÙĨ
ĠØ§Ø³ØªØ®ÙĪØ§ÙĨ
ĠØŃØ§Ø¯Ø«Ùĩ
Ġnoticed
pro
ĠØ¬ÙģØª
ĠØ±Ø§Ø³ØªÛĮ
Ø´Ø§ÙĨØ¯
Ġplain
izations
ĠØŃÙģØ§Ø¸Øª
Ġconsequ
BC
isters
ID
MS
Ġ"(
pered
Ġgives
Ġsymb
Ġobv
ĠÙ¾ÛĮØ±ÙħØ±Ø¯
ĠØ¨Ú¯ÛĮØ±ÛĮØ¯
Are
¸Û°
Ġï
ÙģÙĩØ±Ø³Øª
atives
Ġonline
Ġyouth
Ġshows
ĠJack
ĠØ¨Ø±Ø¬Ø³ØªÙĩ
anda
ĠÙĦØ§ÛĮÙĩ
ĠList
ĠÙħÙĩØ±Ø¨Ø§ÙĨ
ĠÙħØŃØµÙĪÙĦØ§Øª
Did
ĠØ§Ø±Ø³
ĠØ¯Ø±Ùĩ
Ġstick
Ġrid
ĠTED
ĠItalian
ĠAfrican
ĠØ¯ÙĪÙĨÙħ
Ġtouch
ĠØ¨Ú¯Ø°Ø§Ø±Ø¯
Ġrare
iano
Ġclim
yr
Ġ^
ĠGlo
Ġfeed
ĠÙħÙĩØ§Ø±Øª
ĠThis
ĠItaly
ĠØ§Ø·ÙĦØ§Ø¹Ø§ØªÛĮ
ĠØ¯Ø±Ú¯ÛĮØ±
Ġweight
Ġchoice
ĠØ¹Ø±Ø¨
ĠØ¯ÙĪØ³ØªÛĮ
ĠÙħØµØ±
Ġren
Ġ2002
Ġther
ĠÙĨÙĤØ§Ø·
ĠÚĨÙĩØ§Ø±Ùħ
orrow
Ġlaid
ĠÚ©ÙĨØª
78
ym
Ù¾Ø±Ø³ÛĮØ¯
ĠÙĥÙĨ
ĠØ±ÙĤØ§Ø¨Øª
ĠØ±Ø§ÛĮØ§ÙĨÙĩ
ĠÙĪØ²ÛĮØ±
itable
Ġfit
Ġfarm
Ø¹ÙĦ
ÙģØ±Ø§ÙĨ
ØºØ°
ste
Cl
ĠØ³ÙĪØ¦
iot
Ġhang
ĠÚĨØ§ÙĤ
ĠØ®ÙĪØ§ÙĩØ´
Ġbran
ĠØ¯Ø³ØªÚ¯ÛĮØ±
Ġtone
ĠØ¹Ø¬ÛĮØ¨ÛĮ
Ġalgorithm
ĠØ§ÙĦÚ©ØªØ±ÛĮÚ©ÛĮ
Ø·Ø¨
ĠØ²ÙĪØ±
ĠÛ±Û³
Ø¯ÛĮØ¯Ùĩ
eles
ĠØ®ÙĪØ§ÙĩÛĮ
ĠØ±ÛĮØ§Ø³Øª
Ġsuccessful
Ġbeat
ĠKore
Ġprint
Ġremembered
ĠÙĩØ§Ø±
rance
ĠÙħØ®ØªÙĦÙģÛĮ
ĠÙĨØ§Ø´ÙĨ
ĠÙĨÙħÙĪØ¯Ùĩ
Ã³n
ĠThom
Ġtall
ĠÚ©ÙĨÙĨ
Ø¨Ø±ØªØ§
ĠØ§ÙħØªÛĮ
Ġolder
ĠØªÙĪÙĦØ¯
ĠBook
ĠÙģÙĩÙħÛĮØ¯
ĠSystem
Ġjournal
Ġassum
Ġmanufact
under
olved
roud
ĠÙħØªÙĪØ³Ø·
ĠÙ¾Ø§Ø¯Ø´Ø§Ùĩ
Ġscientific
Ġobserved
ĠAustralia
Ġturns
aimed
ÙĨØ®
Ġmanagement
ĠØ§ÙĪÙĨØ¬Ø§
·Û°
ÙĪØ¦
Ġancient
ĠØŃØ±ÙģÛĮ
Pro
Ġsynt
ĠØ§Ø®ØªØµØ§Øµ
ĠØ¨Ø¹Ø¯ÙĩØ§
Ġsupposed
ÙħÚ¯Ø±
ĠÚ¯ÙĪØ±
Ġalive
ĠØ¯Ø±ÛĮØ§ÚĨÙĩ
Ø¯Ú©ØªØ±
hered
ĠØ±ÙħØ§ÙĨ
::
ĠSpe
ĠØ¬ÛĮØ¨
onia
arian
Ġprogress
Ġtax
ĠÙĪØ²
Ù¾Ø¯ÛĮ
ĠØ¨ÛĮÙĨØ¯
Ġrule
Ġkit
Ġcareer
ye
ĠØªÙĪÙĤÙģ
ĠDist
ĠWestern
ĠQue
ĠâĢı
Ġlose
ĠÙħØ«ÙĦØ§
ĠØªÙĪØ§ÙĨÛĮØ¯
ĠÙĦÙĩØ³ØªØ§ÙĨ
ĠCalifornia
ĠØ¨ÙĪÙĦ
ĠØ¢ÙĨØ§
Ġarrest
ĠØ¸ÙĩØ±
Ġequal
ĠÙĨÚ¯
ĠÚĨØ§ÙĦØ´
ĠSov
Ġtea
ĠÙĨÙĤØ±Ùĩ
ĠØ¨Ø±Ø¯ÙĨ
Ġhouses
Our
Ġlying
Ø¬ÛĮØª
Ø±ÙĪØ²ÛĮ
Ġincludes
ĠÙħØŃØ¯
cow
Ġhaven
Ġexch
Ġknowing
Ø¢ÙħÙĪØ²
la
ĠÙĨØ¯Ùĩ
berg
Ġoffer
ĠØ±Ø³ÛĮØ¯ÙĨØ¯
ĠSoviet
burg
ĠØ¯Ø®
ĠØ¹Ø¯Ùĩ
ĠÙĦØŃÙĨÛĮ
ĠÚ©Ø±Ø¨ÙĨ
ĠÙħÙĨÙģÛĮ
Ġimpact
Ġjourney
ĠØ¯Ø§ÙĪ
ĠØ§ØªÙħ
ĠØ¹Ø±Ø§ÙĤ
ĠRed
ĠÙĤØ±Ø¨Ø§ÙĨÛĮ
Ġpresident
ĠØ³ÙĪØ±Ø§Ø®
Ġpocket
ĠÙĨÙĩØ§ÛĮÛĮ
Ø§ÛĮÙĨØ¬Ø§
ÙĤÛĮØ¨
Ġwants
sp
ĠØ¬ÙĪÙĨ
ĠMat
Ġblock
Ġeventually
Ø§Ø¨Ø±ÛĮ
Ġspect
asha
ĠØ§ÛĮØ²
ĠHen
ĠØªÙħØ§ÛĮÙĦ
ĠØ¢Ù¾
ĠÙĩÙĦ
Ġstock
uls
Ġintelligence
ĠØ´ÙĪØ±ÙĪÛĮ
Ġwand
Ġlibr
ĠØªØ±Ø¬ÙħÙĩ
ĠØªÙħØ±ÛĮÙĨ
Ø³ÙĪØ±
aling
Ú©ÛĮØª
rawn
ĠØ¨Ú¯ÛĮØ±ÙĨØ¯
Ġpotential
ĠØ¨Ø§Ø¨Ø§
Ġgall
Ġmel
ĠÚ©Ø´ÙĪØ±ÙĩØ§
ĠØ¹Ø±Ø¶Ùĩ
Ġcard
Ø¬ÛĮÙĨ
ĠØ¨Ø¨ÛĮÙĨÛĮÙħ
eal
Ġcatch
Ġseat
earch
Ġdesert
Ġreasons
clock
Ġloud
ips
ĠÙĤØ§Ø¨ÙĦÛĮØª
ĠÚĨØ§ÛĮ
asy
ĠCong
ĠØªØ§Ø¨Ø³ØªØ§ÙĨ
ĠØ¶Ø±Ø¨
ĠØ¨Ú©Ø´Ø¯
Ġ2001
cript
ĠØ§Ø³ÙĦØ§ÙħÛĮ
Ġox
Ġbare
ĠNat
Ġangry
ĠÙĨØ§Ø¨ÙĪØ¯
Ġsurprise
ĠØ´Ø§Ø±
ĠÙħÙĪØ²Ùĩ
Ġsomebody
ĠØ³ÙĨØªÛĮ
Ġdocument
Tr
ĠÙħÙĦØ§ØŃ
Ø²ÛĮÚ©
Ġintroduced
Ġfeatures
umbled
Ġ27
ÙĨØ¬ÛĮ
ĠÙ¾Ø±ÙĪØ±Ø´
pic
Ġhit
Ġeast
ÙĨØ§Ú©ÛĮ
Ġoccasion
rif
ĠØ§Ø¯Ø¹Ø§
ĠØ¢ÙĨØ¯Ø±Ùĩ
Ġdegree
ĠÙħØŃØ§Ø³Ø¨Ùĩ
Ġforth
ĠRos
ĠChinese
Ø¢ÙħØ¯Ùĩ
enge
Ġfashion
ĠÙ¾ÙĦØ§
Ġhospital
ĠØªÙĦÙĪÛĮØ²ÛĮÙĪÙĨ
ĠÙħØŃØ³ÙĪØ¨
ĠØ¨ØªÙĪØ§ÙĨÙĨØ¯
ĠÙĨÚ©ÙĨØ¯
Ġfal
ĠØ¢Ø²Ø§Ø±
oved
Ġaim
Ġbase
Ġcircumst
Ġpark
ĠØ®Ø¨Ø±ÛĮ
pected
ĠÙģØ±Ø²ÙĨØ¯Ø§ÙĨ
Ġring
ĠÙĨØ¨ÙĪØ¯ÙĨØ¯
Ġfeelings
Ġproperty
ĠØµØŃÛĮØŃ
Ú©ÛĮØ¯
olic
ĠÙ¾ÙĨØ¬Ø§Ùĩ
Ġ80
volution
ĠØ¨Ø§ÙģØª
Ġ60
Ġhurt
eless
Ø´ÙĪÙħ
ĠÛ¸Û
Ġvac
ĠTrans
ÙĪÙħÙĩ
ÙģÛĮÙĦÛĮÙ¾
Ġguard
ĠÙ¾Ø±ØªØ§Ø¨
ĠÙħØ¤Ø³
IT
ĠØ´ÙĪÛĮÙħ
Ġspite
Ø§Ø´ØªÙĩ
Ø®ÙĪØ±Ø¯Ùĩ
ĠÙħØŃÚ©ÙĪÙħ
Ġappearance
ĠInstitute
IC
Ú©Ø¯Ø§Ùħ
acity
Ø§ØŃØ³Ø§Ø³
Ġearlier
Ġsuc
ĠSwed
ĠØªØµØ§ÙĪÛĮØ±
ĠÚ©ÙĪØ´
ĠÚ¯ÛĮØª
Ġ1990
ĠÙħÙĩØ§Ø¬
uh
atab
ĠØ®Ø§Ø·
ĠSaint
Mrs
Ġsoldiers
ĠÙĨØ§ÙĩØ§Ø±
oured
ĠÚĨØ³Ø¨
ĠØ¯Ø®ØªØ±Ø§ÙĨ
Ġwished
Ġbag
ĠØ§ÛĮÙĨÚ©
Ġrise
ĠØ´ÙĪÛĮØ¯
ĠPoland
ĠØ¨Ø¯ÙĩÙĨØ¯
iliar
time
Ø¯Ø§ÛĮÛĮ
Ġshock
ĠØªØ£ÙħÛĮÙĨ
Ġhelped
Ġclos
ension
Ġviolence
Look
ĠDor
ĠØªØ³ÙĦÛĮÙħ
ĠØŃØ§Ø¶Ø±ÛĮÙĨ
Ġentirely
roup
Ø±ÛĮØ´
Ø§ÙģØ²
ĠÛ²Û°Û±Û³
Ġeconomy
ydro
ĠÙħÙĩÙĨØ¯Ø³ÛĮ
More
Ù¾Ø±ÙĪ
ĠØ®Ø·Ø±ÙĨØ§Ú©
ØµØ§Ø¨
Ġprice
ĠÙ¾Ø²
Ġassociated
ĠØ§ØŃØ³
Ġestim
Ġsignificant
ithe
ĠÚ¯Ø§ÙĪ
ÙħØ¹Ùħ
ÙĪØ§ÙĤØ¹Ø§
Ġgoal
Ġsolution
Ø¨Ø¯ÙĪÙĨ
Ġpolicy
ĠØ§Ø³Ø±Ø§Ø¦ÛĮÙĦ
Ú¯Ø°Ø§Ø±Ø¯
ĠÙĪØ³Ø§ÛĮÙĦ
ĠÙħØ§Ø±ÛĮØ§
Ġfish
ĠÚ©Ø§Ø±Ø®Ø§ÙĨÙĩ
oken
ĠWhite
lebr
Ġstore
ĠÙħÙħÚ©ÙĨÙĩ
Ġelements
ĠØ¹Ø¬ÙĦÙĩ
Ind
ĠPers
ĠÙ¾ÙĪÙĦÛĮ
ĠÙĦØ¨Ùĩ
ĠØ¯ÛĮØ¬ÛĮØª
ĠØ¨Ø§Ø´Ú¯Ø§Ùĩ
ĠØ¬Ø§ÙĨØ¨
igned
ĠAfghan
Ġsucceed
Each
Ġseason
ĠÙħØŃØª
Ġresources
ĠØ§ÙħØªØŃØ§ÙĨ
tte
Ø§Ø³Ùģ
Ø²Ø§Ø±Øª
Ġissue
ca
ĠÙĩØ¬
Ġdry
tering
Ġfamous
Ġinterp
ffe
Ø·Ø±Ùģ
ĠRo
ĠØ¨Ù¾Ø±Ø¯
Ø¹ÙĦØ§ÙĪÙĩ
Ġru
ĠÙħØ®ØµÙĪØµØ§
Ġbecomes
30
ĠTV
ĠÙħØ±Ø¯ÙħÛĮ
Ġissues
Ġyellow
IP
Ø¯Ø§Ø±Ø¯
ĠÙĪØ²ÙĨ
ĠÚ©ÙĩÙĨÙĩ
ÛĮØ§ÙĨ
ĠÙģØ±Ø§ÙĪØ§ÙĨ
ĠØ§Ø´ØªØ±Ø§Ú©
Ø±Ø¯ÙĨ
ĠØ¯Ø¹Ø§
Ġtitle
ĠÙ¾ÛĮØ±Ø§Ùĩ
Ú¯ÙĨØ§ÙĦ
ĠÚ©Ø´Ø§ÙĪØ±Ø²ÛĮ
Ġgreatest
ĠMuslim
ĠØ§Ø¹ØªØ±Ø§Ø¶
ĠÙħÛĮØ§Ø¯
Ġdefined
ØªÙĪÙĨÙĩ
ittee
ĠØ§Ø¹ØªØ±Ø§Ùģ
cu
ĠØ±Ø£
Ġescape
ĠØ¢ÙĪØ§Ø²
ords
Ġ*"
Ø§Ú©Ø«Ø±
Ġrelease
Ġobjects
Ø¶Ø§Ø¹
Ú©ÙĨÙĨ
ĠLou
ĠØ§ÙħØ±ÙĪØ²Ùĩ
ĠØªÙĦÙĪÛĮØ²ÛĮÙĪÙĨÛĮ
Ġice
ĠØ¨ÛĮÙĦ
ĠPierre
Ġflat
ĠØ®Ø±Ø§Ø¨
ĠØ³ÙĤÙĪØ·
Ġinj
ĠÙħØŃÙĤ
ĠØ§Ø´ÛĮØ§
Ø¨ÙĪØ±Ú¯
oned
ĠRich
Ġnoise
ĠØ¶Ø¨Ø·
ĠâĢĮ
Ú©ÙĪØ¨
ÙĬØ±
Ġquality
Ø§Ø²ÙĨØ¯Ùĩ
ĠÛ²Û°Û°Û¶
ĠØ§Ú©Ø«Ø±
MA
Ú©ÙĪÙĨÛĮ
ĠLaw
Ġcontinue
ĠØ±ÙĪÛĮØ¯Ø§Ø¯
ĠÙĪØ§ÛĮ
ĠÚ¯ÙĦÙĪÙĦÙĩ
Ġrules
Ġstreets
ĠÙģØ§ÙĨÛĮ
Ġgrass
Another
ĠØ¬Ø°Ø¨
ĠÙħØªØ¹ÙĦÙĤ
ĠChurch
Ġindic
Good
ÙĦÛĮØº
ĠØ¢ÙĦÙĪØ¯
ĠØ¯Ø§ÙĨØ´Ø¬ÙĪÛĮ
Ġfinancial
Ġhonor
Ġpredict
ĠMal
ĠØ¬ÙħØ¹ÛĮ
Sc
ÙĨØ¸Ø±
Ġeth
ĠØ¨ÛĮÚĨØ§Ø±Ùĩ
ĠÙħØ³Ú©ÙĪ
ĠØ¯Ø®Øª
obile
ĠØ§ÙģØ²ÙĪØ¯
ĠMartin
Ø¬ÙĨÚ¯
ĠØ²ÙĪ
ĠDay
Ġdarkness
ĠGovern
ĠÙħØŃØ§ÙģØ¸Øª
Ú¯Ø²Ø§Ø±
Ø¨Ø¯ÛĮÙĨ
mission
Ø§ÙĦØ§ÙĨ
ĠMel
resp
Ġsilver
Ġbuildings
ĠÙħØ³ÙĦÙħØ§ÙĨ
New
Ø¨ÚĨÙĩ
ÙģÙĪØ±
Ġadop
based
ĠÙħÛĮØªÙĪÙĨ
Ø®Ø¯Ùħ
ours
Ġagree
ĠØ¨Ø±Ø§ÙĨ
ĠÚĨÛĮÙĨÛĮ
Ġfemale
ÙģØ¬
ĠÙĩØªÙĦ
aches
Ġwealth
Ø§ÙĨØ¯Ø§Ø®Øª
Its
Ġprote
ĠØ¨Ø§Ø±ÙĩØ§
arsh
ĠÙħØ§Ø¯Ø±Ùħ
¶Û°
retched
Ġedge
ĠØ¨Ø±Ú¯Ø²
ĠMiddle
ĠØ§ÛĮÙĨØªØ±ÙĨØªÛĮ
erous
Ġreb
ĠCam
Ġrace
Ġcalm
Like
ault
Ġtom
ĠØ³Ø§Ø²Ø¯
ĠØ¢ØºÙĪØ´
ĠTurk
60
Ġwis
ĠÛĮØ§Ø¨Ø¯
ĠØ¢ÙħØ±ÛĮÚ©Ø§ÛĮ
Ġrevolution
ĠHigh
ĠÙħØŃÙħØ¯
Ġunivers
ĠØ³ÙĪØ¡
Ġcampaign
Ø§ÛĮØ§ÙĨ
ĠMo
ĠStud
Ġlistening
Ġdropped
Ġreligion
ĠØµØ§Ùģ
ĠØªØ§Ú©ÙĨÙĪÙĨ
ĠØªÙħØ§Ø´Ø§Ú¯Ø±Ø§ÙĨ
ĠMoscow
ĠØ±Ø¶Ø§ÛĮØª
ĠÙĨØ±Ø®
ĠMac
Ġphone
Ġfinding
Ġlaws
ĠCouncil
ares
ĠØ¨Ø±Ùħ
ĠØµÙĨØ¹ØªÛĮ
ĠØ¹Ùģ
Ġleaves
Ġincred
ĠØ¬ÙĦÙĪÙĩ
ĠÚ©ÙĪØªØ§ÙĩÛĮ
ĠÙ¾ÚĺÙĪÙĩØ´
Ø§ÙĦÙĪ
Ġinstance
ÙģØ±Ø§ÙĨØ³
Ġofficer
Ġconnected
kes
ĠÙĪØ§Ø¶
ĠØ¨ÙĩØªØ±ÛĮ
ĠÙħÙĪØ´
ÙħØ«ÙĦØ§
ĠSun
Ġimages
Ġplayer
Ġcorrect
Ġlegal
Ġjoined
ĠØ³ÛĮØ±
Ġweb
Ġrank
Ġclub
ĠÙĩÙħÚ¯ÛĮ
ĠGmina
ĠÙħØªØ¹Ø¯
ĠÙĤÙĦØ¹Ùĩ
umn
Ġpatients
Ġmotion
MDb
ĠÚ©Ø§ÙĦÛĮÙģØ±
ĠÙĦÛĮÙĨ
Ġalt
Ġcoat
ĠØ§ÙĩØ¯Ø§Ùģ
ÙħØ²ÙħÙĩ
ĠÙħØ³ÛĮØŃÛĮ
Ġfields
Ġopposite
Ðµ
ĠØ¨Ø§ÙĨØ¯
Ġsmiling
Ġ189
ĠAssoci
ĠCenter
ĠMont
Ġcarbon
Ġapart
Ġpulled
Ø§Ø²ÛĮÙħ
fficial
Ġencour
ĠØµØ§Ø¯Ø±
Ġsym
ĠØ¨Ú¯ÛĮØ±Ùħ
Ø§Ø¨ÙĤ
Ġstream
ulated
Ġdemocr
Ø±Ø§ÛĮÛĮ
Ø³Ø±Ø§ÙĨØ¬Ø§Ùħ
Ġdance
ĠTer
ĠÛ±Û·Û
ÙĢØª
ĠÙĪØ²Ø§Ø±Øª
ĠØ¨ÙĪØ¯ÛĮ
ØµÛĮÙĩ
Ġinterview
ĠMil
ĠØ¨Ø±Ø¯Ø§Ø±
Ġsounds
Ġkitchen
ront
Ġshoulder
ĠØ¬Ø°Ø§Ø¨
ØµØ§ÙĦ
ĠØ´Ø¨Ø§Ùĩ
upid
Ġarticle
Ġelectron
cles
ĠÙ¾ÛĮÚĨÛĮØ¯
ĠØ¢Ø±Ø²ÙĪ
nam
plic
Ġstarting
ĠÙĤØ·Ø§Ø±
ĠØ±ÙĨÚ¯ÛĮ
Ġhonest
ĠØµÙĨØ¯ÙĪÙĤ
People
ĠØ§ÙħØª
Ġpoet
Ġsand
Ġdread
ĠFed
ĠØ±Ø³Øª
ĠÙ¾ØªØ±
Ġsport
ĠØŃØ³Ø§Ø¨ÛĮ
ĠØ§ÛĮØ±Ø§ÙĨÛĮ
eff
ĠØ±Ø¤
Ġisland
ĠÛ±Û·
ĠÙ¾Ø³Ø±Ø´
ĠSociety
ĠØ¢Ø²ÙħØ§ÛĮØ´Ú¯Ø§Ùĩ
Ġexistence
ĠØ³Ø±Ø¨Ø§Ø²Ø§ÙĨ
Ø±Ø³ÙĨØ¯
Ġ1980
ĠØ´Ø¨Ùĩ
Ġobt
Art
aval
Ġpa
Ø·Ø¨ÛĮ
ĠØºÛĮ
Ġvalues
Ġradio
ĠÚ©ÛĮÙģÛĮØª
aria
Ø®Ø¯Ø§
ashed
Ø§Ú¯Ø±ÚĨÙĩ
ĠArmy
ĠØ¨Ø¹ÙĨÙĪØ§ÙĨ
ĠØ§Ø±Ø²ÛĮ
Ġmagic
Ġinform
Ġthank
Ġgrown
Ġtypically
Ġgames
Ġscar
Ġwest
ĠÙĩÙĪØ§Ù¾ÛĮÙħØ§
Ġputting
Ġbecoming
ĠØ¢Ø°
Ġonto
ĠØ³ÛĮÚ¯ÙĨØ§ÙĦ
Û±
Ġoffered
ĠØ§ØµÙĪÙĦ
ĠPeter
ĠAct
Ġinstant
ĠÚ©ÙĦÛĮØ³Ø§ÛĮ
Ġlaughing
Ġachieve
met
arrow
ĠØ¹ÙħØ¯Ùĩ
Ġmatch
ĠØ¬ÛĮÙħØ²
ĠÙ¾Ø±ÙĨØ¯Ùĩ
ĠØ¨Ø§Ø²ÛĮÚ©ÙĨ
ĠAndrew
ĠØ§ÙĦØ¹Ø§Ø¯Ùĩ
ĠØ¨Ø§Ø¨
ĠÙħØ§Ø¯Ø§Ùħ
Ġindependent
ĠØ¯ÙħØ§
anted
ĠIsland
ĠÙħÛĮØ§ÙĨÙĩ
iana
ĠØ¬Ø³ØªØ¬ÙĪÛĮ
ĠDes
Ø²Ø§ÛĮ
ĠØªÙĪØ¯Ùĩ
eper
ĠÙħÙĨØ§Ø³
Ġdeb
Ġavoid
ĠØ·ÙĦØ§ÛĮÛĮ
eah
ĠÙĨØ§Ø³
ĠÙħÛĮÚ©ÙĨÙħ
ĠØ®ÙĨ
ĠØ¨ÛĮØ§ÙĪØ±Ø¯
ĠØ§ÛĮÙħØ§ÙĨ
ĠØ§Ø³ØªØ¯
ĠÙĨØ´ÙĨ
ĠÙħÛĮØ´ÙĪØ¯
ĠRoy
Ġsmaller
ĠØªÚ©Ø§ÙħÙĦ
ĠÙģÙĤÛĮØ±
Ġbodies
ĠØ§ÙħØªÛĮØ§Ø²
Ú¯Ø§
Ġcontact
Ġhappening
anned
Ø§ÙĨØªÛĮÙĨ
Ġeffects
ĠÙħÙĪÙĩØ§ÛĮ
Ġnose
Ġcheck
ĠØ¨ØŃØ±Ø§ÙĨ
ĠGlobal
Ġtaught
Ø§ÙĩÛĮÙħ
ĠØµÙģØ±
ĠØ§ÙħØ¶Ø§
ĠØ§ÙĨØªÙĩØ§ÛĮ
idae
ĠLib
Ġ28
ĠÙħØ§Ø³Øª
ĠOh
ĠÙĨØ´ÙĪÙĨ
ĠØªØ§Ø±
Ø¢ÙĨÚĨÙĩ
Ġmodels
ĠGrand
leep
ĠØ¢Ú©
ĠÙĩÛĮØ¦Øª
ĠÛ±Û¹Û²Û
gency
Ġweap
ĠProv
ĠÙħÙģÛĮØ¯
ĠÙħØŃØ¨ÙĪØ¨
ĠØ§ÙĨØ¯Ø§Ùħ
Ġaward
gent
ØŃØ§Ùģ
ĠÛ²Û°Û°Û·
ĠØ±ÙĪØ´ÙĨØ§ÛĮÛĮ
ĠØ±Ø®Øª
Ġhabit
ÚĺÛĮÚ©
Ġspring
Ġevil
Ġtiny
Ġpet
Ø¦ÛĮØ¯
Ġuncle
Ġapprox
Ġchoose
Ġid
Ġdust
icked
ĠÛĮØ§Ø¯Ú¯ÛĮØ±ÛĮ
Ġsources
Ġfol
Ġsomewhere
ĠØ±ÙĪØ²ÙĩØ§
Ġtwice
Ġcheek
Ø³Ø§Ùħ
Ġheaven
ĠØ§Ø¨Ø±Ø§Ø²
Ġburst
Ú¯Ø±ÙĪÙĩ
Ġperfectly
ĠØ§ÙģØºØ§ÙĨØ³ØªØ§ÙĨ
ĠØ§Ú©Ø³
ÙģØ¹
Ġsquare
ĠÙĨØ§Ø¯Ø±
Ġtraining
ĠÛ²Û°Û°Ûµ
ĠÛ²Û°Û±Û´
ĠÙħÙĨØ·ÙĤÛĮ
Ġmicro
ĠØŃÛĮØ§Ø·
vention
ĠÛĮÙĤÛĮÙĨ
ĠSal
ument
Ġdate
ĠÙħÙĤØ±
Ú¯Ø°Ø´ØªÙĩ
Ø²ÛĮÙĩ
ĠThank
ĠIranian
board
Ø¨Ø±Ø¯Ø§Ø±ÛĮ
SA
Ġult
ĠØ¹ÙħÙĪ
Ġwindows
ih
Ġ.
ĠØ¬Øº
Ø±Ø§Ø³ÛĮ
Ġproducts
Ġthro
ĠØ¨Ø±ÙĪÙĨØ¯
ĠÙĤÛĮ
Ø±Ø§ÙģØª
Ġprevious
Ð½
ĠØ´Ø¬Ø§
ĠÚ¯ÙģØªÛĮ
Ġshoulders
ushing
icide
ĠÙĨØ¸Ø±ÛĮ
ĠÙħØ·ÙĦ
Ġfly
Ø¹Ùģ
ĠØ§Ø³ØªÛĮ
anding
ĠØ¨ÛĮÙĩ
fessor
ĠØ§Ø³ØªØ±Ø§Øª
ĠØ¢ÙħÙĪ
Ġpieces
ĠØ§ÛĮØªØ§ÙĦÛĮØ§ÛĮÛĮ
ØªØ§Ùħ
ĠDen
ĠØªØ¨ÙĦÛĮØº
ĠØªØ§Ø¨Ø¹
ĠØªÙĪÙĨÙħ
Ġfighting
ĠWind
Ġenemy
ĠØ¯ÙĪØ±Ø¨ÛĮÙĨ
ĠÚ©ÙģØ´
bre
Ø³Ø§Ø²Ø¯
Ġcars
Ġtools
iance
Ġcharge
ĠÙħØ³ÛĮØŃ
Ġheads
Ġlistened
Ú©Ø¨
Ġrecent
Ġstudent
ĠÙĨØ³Ø¨ØªØ§
Ġindividuals
urb
Ú©ØªØ§Ø¨
Ø²ÙĨÛĮ
Ġcontract
Ġpatient
ĠEdward
Ġhighest
Ġreaction
ĠJust
Ġfounded
Ġcalcul
Ġbasic
cher
Ġeld
ĠØ¬ÙĨÚ¯ÛĮ
ÙĤÙĦØ§ÙĦ
Ġdetermined
ĠØ´Ø§Ø¹
ĠØŁ"
Ġ1970
Ġdu
Ø±ÙĪØ³ÛĮ
Ġscale
Ú©ÙĪÙ¾
Ġkid
ĠLu
ĠØ¨Ø±Ø§
Ø·ÛĮÙĦ
Ø§Ø®ØªÛĮ
ointed
Ġmaterials
Ġcelebr
Ġadvantage
Ġscene
Ġgate
Ġasse
Ġoblig
ÙĨÙĪÛĮØ³ÛĮ
ĠØ³ÙĦØ§ØŃ
ologies
ĠØªØ®Ùħ
ÙĨÙĤ
ĠØ¯Ø¨ÛĮØ±
Ġfile
ĠØ¨ÛĮÙħØ§Ø±Ø§ÙĨ
Con
jo
pire
ĠØ¨Ú¯ÛĮØ±ÛĮÙħ
Ø¬ÙĨØ³
Ġinteract
Ġlevels
Ġrecognized
ĠServ
ĠØªÙĪØµÛĮÙĩ
Ġdepart
Ġslightly
Ġspl
ĠØ¢ÙĨÚ¯Ø§Ùĩ
ĠÛĮÚ©Ø³Ø§ÙĨ
ĠMag
Ġrub
ĠÙĨØ¯Ø§Ø±ÛĮÙħ
ON
ĠÚ¯Ø°Ø±
see
iring
Ġwear
ĠØ¯Ø§Ø±ÙĨ
ĠØ³ÛĮÚ¯Ø§Ø±
Ø¨Ø§Ø²Ø¨ÛĮÙĨÛĮ
ĠCentral
Ø±Ø¨ÛĮ
ĠØ¨Ø±Ø²
ĠÙĩÙħØ¯ÛĮÚ¯Ø±
elve
Ġ26
Ġtired
ĠEr
ĠÙħØªØ£
ĠØ±ÛĮØ´
Ġamazing
ii
ĠØ´Ø§ÙĨØ³
Ġpair
âĢĮâĢĮâĢĮâĢĮâĢĮ
ube
ĠÙĪØ§Ùħ
ĠØ³Ø§Ø¯Ú¯ÛĮ
Ġunf
ĠÙĤØ±Ø§Ø±Ø¯Ø§Ø¯
Ø¹Ø¯Ùĩ
Ø¢ÙħÛĮ
Ġrout
Ġshook
ĠÙĦÛĮØ³Øª
ĠØ¨ÙħØ¨
Ġmultiple
ĠØ§ÙĪØ¶Ø§Ø¹
Ú¯Ø±Ø§ÛĮÛĮ
Ġprovided
ĠÙĪØ¬
Ġcart
ĠÙ¾Ø§ÙĦ
ĠAsia
ĠÙ¾Ø±Ø³Ø´
Ġintegr
ĠÙħÙĤÛĮ
ĠØ¯Ø§Øº
Ġanalysis
Ġflag
Ġmethods
ĠÙħÛĮØ®
Ġproud
Ú¯ÙĩØ§ÙĨÛĮ
ĠØ¨Ø®Ø§Ø·Ø±
ĠDepartment
Ġfully
ĠØ¨Ø±Ùģ
ĠÚĨÛĮÙĩ
Ġhighly
ĠÙħØªÙģØ§ÙĪØªÛĮ
ĠÙĪØŃØ´ØªÙĨØ§Ú©
Ø²Ø§Ø¨Øª
Ġstro
ĠØ´ÙĩØ±ÙĪ
ĠÙħÙĪØ¬ÙĪØ¯Ø§Øª
ĠCour
Ġcompon
ĠØ§Ø±Ø§Ø¯Ùĩ
ĠKar
Ø¢ÙħØ¯ÙĨØ¯
Ġbreast
Ġinvestig
ĠØ´Ø§
Ø£Øª
ĠÛĮØ§Ø¯Ø¯Ø§Ø´Øª
ĠØ¯ÙĪØ³ØªØ´
ĠØ§ÙĦÙĩØ§Ùħ
Ø¯Ø±Ø³
Ġrough
ĠÙħØ¹Ø±Ø¶
ĠÛ²Û´
ĠØ§Ø®ØªÙĦØ§Ùģ
AP
ØŃØ³
ĠØ§ÙĪÙĩ
Ġsurprised
Ġseparate
pen
ÑĢ
Ġsnow
ĠØ¢ÙģØ±
ĠBank
Ġgeneration
ĠRobert
ĠØ¯Ø²
rees
ĠÙĨÙħØ§Ø¯
ĠÙ¾Ø±ÙĪÙĨØ¯Ùĩ
ĠÙħÙĤØ¯Ø§Ø±ÛĮ
Ġcarriage
Ġladies
ĠØ¢Ø±Ø§
Ġnerv
Ġconcent
ÙĦÙĪØ¨
ĠØ§Ø«Ø¨Ø§Øª
ĠÙħÛĮÚ©ÙĨØ¯
Ġtemperature
Maybe
ias
nes
ĠWell
Ø±Ø§Ø¨
Ø´ÙĪØ±
erved
Ġpure
ĠÚ©Ø§Ø±Ùħ
azine
Ġlimited
ĠÙħØ³Ø§Ø¨ÙĤØ§Øª
ĠØ®ÙĪÛĮ
ĠÙħØªÙĪÙĦØ¯
Ø¯Ø§ÙĨÙĨØ¯
ĠØŃØ±Ø§Ø±Øª
ĠÙĨØ´ÙĪØ¯
ÚĨØ·ÙĪØ±
Ġaspect
olid
ĠÙħØªÙħØ±Ú©Ø²
ĠÛ²Û°Û°Û°
Ø´ÙħØ§Ø±
ĠÙĪÛĮÙĦÛĮ
ading
Ġhundreds
ĠØ§ØŃØ³Ø§Ø³ÛĮ
eds
ĠØŃØ§Ú©
ĠØ®ÙĪØ¯Ú©Ø´ÛĮ
Ġoccurred
razil
Ġble
lege
ĠØ§Ø³ØªÙĤÙĦØ§ÙĦ
ĠÙģØ±ÙĤ
ĠØ¨Ø®ÙĪØ±
ĠÙĨØ§Ú¯ÙĩØ§ÙĨÛĮ
ĠÙ¾Ø¯Ø±Ùħ
ĠScarlett
ĠMinister
Ø´ÛĮÙħ
rodo
ĠØ°Ú©Ø±
Ø³ØªÙĪÙĨ
Ġstyle
ĠÙħØ³Ø¦ÙĪÙĦÛĮØª
after
ĠThey
ĠÙĤØ§ÙĦØ¨
Ġnation
ulations
ĠWil
ĠØ®ÙĪØ±Ø´ÛĮØ¯ÛĮ
ĠØ§Ø¹Ø¯Ø§Ø¯
emic
Ġagreed
ĠØ§ÙĨÚ¯ÛĮØ²Ùĩ
ĠÙħØ¨ØªÙĦØ§
ool
wide
Ġtransform
Ġwonderful
ĠØªÙĪÙĨÛĮ
ensis
Ø¯Ø§Ø±Ø§ÙĨ
ĠØ¯Ø±ÙĪØ§Ø²Ùĩ
Ġextremely
Ġmal
ĠØ¯ÙĪÛĮ
Ġaltern
ĠÙħØ³Ú©ÙĪÙĨÛĮ
Ġexecut
Im
25
ura
ĠBen
Ø¨Ø§ÙĦØ§Ø®Ø±Ùĩ
Ġfamiliar
Ġtransport
Ġkinds
ĠØ²Ø¯Ùħ
ĠMex
Ø°Ø§
Ġcurrently
Ġsuffering
gate
Ø¹ÙĩØ¯
Ġuseful
Ġtim
ĠØ±Ø§Ø³
ulate
Ġallows
ĠMa
Ø§ÙĨØ¯Ø§Ø²ÛĮ
ÙģÛĮÙĤ
ĠØªÙģÚ©Ø±
Ġelement
illy
ĠÚ©ÙħÛĮØªÙĩ
Ġreceive
ĠØ¨ÙĩØª
Ø§ÙħØ±ÙĪØ²
amond
lov
80
ĠApp
ĠÙĦÙĪÙĦÙĩ
ĠÚ©Ø§Ø±Ú¯Ø±
Ġsole
ĠFred
ogle
ĠÙħØµØ§ØŃ
ĠØ¢ÙħÙĪØ²Ø´ÛĮ
Ġnewsp
Ġcounter
ĠÙĨÚĺØ§Ø¯
ÛĮØ²Ùħ
Ġrat
Ġune
Ġsolar
ĠØºØ°Ø§ÛĮ
Ġclearly
ĠÙħÛĮÚ©ÙĨÙĨØ¯
Ġgod
ÙĪÙĨÙħ
urt
ĠMod
ĠØ§Ø±ÙĪÙ¾Ø§ÛĮÛĮ
Ġrespond
ĠÚ©Ø§Ø±Ú¯Ø±Ø§ÙĨ
ĠÙĨØ¸ÛĮØ±
ache
Ġrooms
Ġwinter
ĠHall
ĠØ¨Ø®Ø§Ø±ÛĮ
ĠÙĦØ¨Ø®ÙĨØ¯ÛĮ
Ġforgotten
Ġcommercial
ĠÙħØ¹Ø§Ø¯ÙĦ
ervish
ĠÙ¾Ø²Ø´Ú©
Ġhadn
ĠÙħØªØºÛĮØ±
Ġpassing
ĠÙħØ±Øº
Ġmerely
ĠØ¯Ø±ÙĨÚ¯
Ø§ÙĤØ¹
Ġworry
Ġsubst
Ġmoon
Ġdangerous
ĠØ¢Ø´Ù¾Ø²Ø®Ø§ÙĨÙĩ
Ġcup
ston
ĠAward
Ø¢Ø²
Ġnobody
ensus
Ġbelief
ĠØ®Ø§ÙĨÙĪØ§Ø¯Ú¯ÛĮ
ipe
ville
Ġfed
ĠÙħØªØ´Ú©Ø±Ùħ
ĠØ§ÙħØ´Ø¨
ĠØ±Ø¨Ø±ØªØ§
Ù¾Ø§ÙĨ
Ø¹Ø´
ĠÚ¯ÙĨØ¬
stead
ĠØµÙħÛĮ
ĠÙħÙĪØ§Ùģ
ements
Ġexcited
ÙħÛĮØ¯
ĠØ®Ø¬
ĠÙģÙĤØ±
Ġstupid
Ø³ÛĮÚ©
Ġcritic
ties
ona
Ġhar
ĠØ¯Ø±Ø³ØªÛĮ
ÙĪØ·Ùĩ
Ġevolution
ĠØ§Ø±Ø²ÛĮØ§Ø¨ÛĮ
rant
ĠMark
ĠCont
Ø¢Ø±ÛĮ
ĠRiver
ĠÙĨØ¯Ø§
ga
Ø¯ÙĩÛĮÙħ
Ġrail
Ġshared
ĠDar
peror
Ġcris
ĠØ¨Ø§Ø²ÛĮÚ¯Ø±
Ġvision
Ġcitizens
ĠØ§Ø¯ÙĪØ§Ø±Ø¯
ĠÛ²Û°Û±Ûµ
Ġconnection
ĠØ³Ø±Ú¯Ø±Ùħ
ĠRome
ĠEup
ĠÙħØªØ®ØµØµ
Once
Mar
ĠØ³Ø±Ø²
Ġgrave
ĠØ«Ø±ÙĪØª
ĠØ§Ø±Ø³Ø§ÙĦ
Ø·ÙĦØ¨
Ø§Ø³Ú©Ø§Ø±
ĠOne
Ú©Ø³Ø§ÙĨØ¯Ø±
ĠØ³Ø±Øª
ĠGl
ĠÙĨÙĢ
Ġhate
ĠØ´ÙĦÛĮÚ©
ĠThere
Ġmostly
Ġafterwards
Ġpictures
enced
this
Ġdevice
fast
Ġreact
ĠØ´Ø±Ø·
ĠÙģÙĦØ³ÙģÙĩ
Ġresponsible
Ø§ÙĪØ²
othe
Ġamb
Ø²ÙĨÙħ
Ġbill
Ġthirty
Ġconstit
Ġahead
ĠÙĪÙģ
ĠØ³ÙĤÙģ
Ġinstruct
ĠØ¬ÙĪØ§ÙĨØ§ÙĨ
ĠØ¨Ø®ÙĪØ§ÙĩØ¯
Ú¯Ø±ÙģØªÙĩ
Ø§ÙĤØª
Ġchanging
ĠÙħØ·Ø§ÙĦØ¹Ø§Øª
ĠØ¬ÙĦØ³Ùĩ
ĠÚ©Ø§ÙĦÛĮÙģØ±ÙĨÛĮØ§
uild
Ġgal
ĠÙģØ±ÛĮØ¨
Christophe
Ġsides
Ø¯Ø§Ø®
Ù¾ÛĮÚĨ
Ġordered
ĠÚ©Ø§Ø¨
ĠØ¯Ø§ÙĨØ³Øª
rative
ĠØ¬Ø§Ø¯
ĠØ¯ÙĪØ§Ø²Ø¯Ùĩ
ults
Ġshowing
ĠØªØ±ÙĪØ±
ĠÙħÙĦÚ©Ùĩ
ĠÙģØª
iments
Ġroof
Ġcoast
mark
Ø³Ø±ÛĮ
ĠCat
oday
Ġsell
ĠÙĩØ±ÚĨÙĨØ¯
Ġtransfer
Ġaccepted
Perhaps
ĠDistrict
Ġmort
Ú¯Ø±Ùĩ
ĠØ±ÙĪØ¨Ø±ÙĪ
ĠÙħØ¹ÙĦÙħ
ĠÙĦØ·Ùģ
andom
ĠØ´ÙĪØ±Ø§ÛĮ
ĠÙħØŃØ¯ÙĪØ¯ÛĮØª
Ġsam
ÚĨØ´
ĠÚ©Ø§Ø±Ø¨Ø±
ĠFin
itty
Ġframe
ĠKingdom
ÛĮÙĨØ§
Ġschools
ĠØ¨Ø°
Ø§ØªÛĮÚ©
aming
ĠØ³Ø§ÙĦÛĮ
ĠInter
Ġfailed
ĠÚĺØ§Ù¾ÙĨÛĮ
ĠØ¯Ø²Ø¯
ÙħÛĮØªÛĮ
inking
ĠØ§ØµØ±Ø§Ø±
Ġdistinct
Ġguy
ĠÙħØºØ§Ø²Ùĩ
Ġmale
ĠFore
Ġplants
ĠÙĪØ§Ø¶ØŃ
Will
ĠØ¢Ú¯Ø§ÙĩÛĮ
Ġspoken
ĠØ¨Ø±Ø§Ø¯Ø±Ø´
vest
ĠØªØ²
ĠØªØ§ÛĮ
Ġhero
ĠØ²ÙħØ²ÙħÙĩ
Ġscr
ĠÙĨÙħØ§ÛĮØ§ÙĨ
Ġartist
ovna
ĠÙ¾Ø°ÛĮØ±ÙģØª
ĠØŃØ±Ú©Ø§Øª
Ø§ÙĩØ¯
ĠØ§ÙĨØ¹
ÙĬØ²
Ġreflect
Ġscientists
ĠAssociation
Yet
à®
ĠØ¹Ø±Ø¨ÛĮ
Ġprograms
ĠÙĨØµØ¨
ĠØ§Ø³ÙĦØŃÙĩ
Me
Ġmental
ems
Ġintended
Ġperce
ĠÙĨÚ¯Ø§ÙĩØ´
ĠØ¨Ø±Ú¯Ø±Ø¯Ø§ÙĨØ¯
Ø§ÙĦØ¹ÙħÙĦ
Ġ:âĢĮ
Ú©ÙĨØª
Ġflight
ĠØ§ÙĪÙĨØ§
ĠÙ¾Ø§ÛĮØ´
ĠÙ¾ÛĮØ±Ø§ÙħÙĪÙĨ
Ġdrag
Ġexperiment
Ġbul
Ø®Ø¨Ø±
ĠÙĩÙħØ§Ùĩ
ĠØ¹Ø§ÙĦÙħ
ĠTw
ĠFather
Ġscreen
ĠÙħØ´ØªØ±ÛĮ
ĠØ±ÙĪØ¨Ùĩ
Ġflu
Ġchest
Ġevident
22
Ã¤
Ġmath
ÚĨÛĮÙĨ
Ø¢Ø®Ø±
ĠØ³Ø±ÙĨÙĪØ´Øª
Ø®ÙĪØ§Ø¯
ĠØ®Ø·ÙĪØ·
ÙĩÙħÛĮØ´Ùĩ
Ġanybody
Ġremind
ĠØ§ÙĦÚ©ØªØ±ÙĪÙĨ
ĠØªØµØ§Ø¯ÙģÛĮ
Ġuser
gl
Ġears
uries
ĠÚ©Ø±Ø¯ÛĮØ¯
ĠOff
ocol
ithecia
overy
Ø³Ù¾
Ø§Ø¯ÙĤ
Ġforg
ÙĦØ§Ú©
ÙĦØ§ÙĤ
ØºØ§Ùħ
ĠEupithecia
inet
Ġmajority
Ġdressed
ĠØ¨Ø§Ùĩ
verse
Ġprefer
ĠØ´ÙĪØ®ÛĮ
Ġvictim
Ġdism
ĠÙħÙĤØ¯Ùħ
Ġrecently
Ġdemonst
zy
erable
Ġbrief
Ġdiss
Ø§Ø±ÙĩØ§
ena
ĠØ§Ø³Ú©
Ġusers
ĠUN
Ġtight
ĠÚ©Ø§Ù¾
ĠÚ©Ø«ÛĮ
ĠÛ²Û±
Ġfilms
ĠÙħÛĮÚ©ÙĨÙĩ
ĠÙĩÙĪÛĮØª
ĠÙģÙĦÙĪØ±
ÙĪØ§ÛĮÛĮ
Ø´Ø§ÙĩÛĮ
astern
ĠÚ©ÙĨØ³
Ġsexual
ÚĨØ±Ø®Ùĩ
ĠØ±ÛĮØ¯
enes
ĠØµØ¯ÙĩØ§
ĠÙħØ®Ø§ÙĦÙģØª
ĠØ«Ø±ÙĪØªÙħÙĨØ¯
ĠÙĨØ®ÙĪØ§ÙĩÙħ
ĠØªÙĪØ§ÙģÙĤ
ĠFirst
ĠØ¬ÙĪØ±Ø¬
ĠØ§Ø±Ùħ
Ø§Ø±ÙĨ
Ġdrawn
Ġknock
ĠÙĨÙĩØ§Ø¯Ùĩ
Ø±Ø³Ùħ
Ġdigital
ĠÚ¯ÙĪÙĨØ§Ú¯ÙĪÙĨ
Ã§
Ġsmart
liament
ĠØ¨Ú¯Ø°Ø§Ø±ÛĮØ¯
ĠØ®ÙĨØ¯ÛĮØ¯
Ġfalse
ĠØ±ÙĪÙħ
Ġopening
ĠØ§Ø³ØªØ¯ÙĦØ§ÙĦ
Ø§ØªØ§
olar
ĠØ®Ø·ÛĮ
ois
Ġtor
ÙĦØ§ÛĮ
ĠØ§Ø³ØªØ±Ø§ØŃØª
OR
ĠJer
ĠØ¨ÛĮØ´ØªØ±ÛĮÙĨ
ĠÚ¯ÛĮØ§ÙĩØ§ÙĨ
ÙħÙĪØ±Ø¯
ĠÙ¾Ø¯ÛĮØ¯Ùĩ
ĠÙĩÙħØ²ÙħØ§ÙĨ
erella
Ġrefuge
ĠØ±ØªØ¨Ùĩ
ais
ĠÚ©Ø§Ø´
ĠÚ¯ÙĨØ¯
Ġbeneath
Ġreferred
ĠØ§ÙħÙ¾Ø±Ø§ØªÙĪØ±ÛĮ
Ġcab
ĠØ²Ø§ÙĨÙĪ
Ġweather
ĠÙĨÙĪÚ©
ception
Ġneighbor
Ġain
ĠØ¬Ø§ÙĦ
ĠÚĨØ´ÙħØ´
Ġwaited
atabase
40
Ú¯ÙĪØ´
ĠÛ´Û°
Ġwave
Ġhast
Ġclimate
Ø§Ø³ÛĮÙĪÙĨ
ĠØ¨Ø±Ø¯Ø§Ø´ØªÙĩ
ĠØ¯Ø±Ø®Ø´Ø§ÙĨ
Ġwitness
gers
Ø´Ú©ÙĦ
ÙħÛĮØ´
ĠØªØ¬Ø²ÛĮÙĩ
ĠØ±ÛĮØ®ØªÙĩ
Ġobserv
ras
ented
ĠØ¨Ø§Ø²Ø³Ø§Ø²ÛĮ
Ġproposed
ĠTechn
ss
Ġapparent
ĠØ³ÙĨÚ¯ÛĮ
Ġexplained
Ġpleased
ĠØ³Ø±ÙĪÛĮØ³
ĠØ¯ÙĦØ§ÛĮÙĦ
Ġscream
ĠØŃÙĪØ§Ø³
Before
ĠØ¨Ø±ÙĪØ²
Ġhearing
Ø³ÛĮÙĦÙĩ
ĠBi
Ġcoffe
ĠØªØ±Ú©ÛĮÙĩ
Ø´ÙĪØª
ĠÙ¾ÙĩÙĨ
terday
ĠBrazil
ĠRec
Ġworst
Ġmatters
ĠJo
ĠØªØŃØ³ÛĮÙĨ
Ġjoin
FA
ĠÙĨØ§ÛĮ
ĠÙĨÚ©ÙĨ
ÚĨØ³Ø¨
izab
Ġapplications
ĠHam
ĠØ³Ø§Ú©ÙĨ
ĠÙ¾Ø§Ø¦ÛĮÙĨ
ĠThomas
DP
Ġhide
Ġpros
Ġorganizations
Ġhole
ĠCollege
Ġshadow
gn
ÙĦØ§ÛĮÙĨ
ĠÚ©ÙĢ
Ġunknown
ishment
ĠØ§ØªØŃØ§Ø¯
ÛĮØ§Ø¯
Ġodd
Ġparties
ĠØµØ¯Ø§ÛĮØ´
ĠÙĪÛĮØ±ÙĪØ³
ĠÙĨØµÙģ
Ø¦ÙĪØ±
Ġmanaged
kin
ĠÙĤØ¨ÛĮÙĦ
ÙģØ±ÙĪØ¯
Ġcontains
ĠØ®Ø§Ø·Ø±Ø§Øª
Any
ĠÙħÙĤÛĮØ§Ø³
Ġ29
ĠØ²ÙħÛĮÙĨÛĮ
ĠØ§ÙĨØ¨ÙĪÙĩ
ads
ĠGreen
ĠÙĨØªÙĪØ§ÙĨØ³Øª
Ġeager
rical
spe
Ø¯Ø§ÙĨÛĮÙħ
Ġflow
ĠÙĪØ§ÙĦØ¯ÛĮÙĨ
aptain
HE
ctors
ulture
ĠÙĨÙħØ§ÛĮÙĨØ¯Ùĩ
Ú©Ø§ÙĪÛĮ
Ġtong
ĠØªÙħÛĮØ²
ampions
ĠØ¨Ú¯ÙĪÛĮÛĮØ¯
orough
ĠØ³ÙĪØ±ÛĮÙĩ
Ġens
Ø²ÙĨØ¯Ú¯ÛĮ
ĠÙ¾Ø±ÙĪØªØ¦ÛĮÙĨ
ĠÚ¯Ø±Ø¨Ùĩ
ĠØ§Ø³Ø±Ø§Ø±
ĠØ§ØªØµØ§ÙĦ
Ġaccident
ĠÙħÙĨØ¸Ø±Ùĩ
ĠÙģØ±ÙĪØ´Ú¯Ø§Ùĩ
Ġduty
ĠØ§Ø®ØªØ±Ø§Ø¹
Ø¯ÙĪØ³Øª
ulous
ĠÚĨÙĩÙĦ
ĠÙħÙĪØ§ÙģÙĤØª
rim
ĠØ³ÙĨØ¬
ĠÙģØ§ÛĮÙĦ
Ġnotes
Ġconsist
can
ĠØªÛĮØ²
Ġleader
ÙĤØ¨ÙĦ
Ġcalling
ĠÙĨØŃÙĪÙĩ
Ġsen
ĠÙĨÛĮÙħÛĮ
ĠØ°ÙĩÙĨÛĮ
ĠAtl
ĠØªØ§ÙĦØ§Ø±
First
ÙħØ§Ø±ÛĮ
Ø¨Ø§Ø¯
Ġash
Ġvast
ĠØ§Ø³ÙĦØ§Ùħ
Ġbrown
ĠØªØ¹ÙĦÙĤ
Ġconstruct
Ġveh
ØªÙĤØ±ÛĮØ¨Ø§
mar
Ġplat
ĠÙ¾ÛĮØ´Ø§ÙĨÛĮ
ĠÙħØ³Ø®Ø±Ùĩ
Ġstudied
ĠØªØµÙĪÛĮØ¨
ĠSocial
Ġdouble
Ġmentioned
ba
Ġwine
ita
Ġconvin
ĠJac
izes
ÙħÙĪÙĤ
ĠØ¨Ø³ØªÚ¯ÛĮ
ĠØ¯Ø®ØªØ±ÛĮ
ĠØªÙĤÙĪÛĮØª
Ġprior
Ġorders
Ġcoffee
ĠØ±Ø§Ùħ
fortun
Ġcultural
ynam
mitted
Ġtour
ĠÙħØ§ÛĮÙĩ
ØªÛĮÚ©ÛĮ
Ġattend
ĠØ§ÙĨØŃ
ĠÚ¯Ø±Ú¯
ĠØºÛĮØ±ÙĤØ§Ø¨ÙĦ
Ġinstrum
ĠØ±Ø§ÛĮØ¬
ĠMycos
ĠØ§ÙĦÛĮØ²Ø§Ø¨Øª
phaerella
ĠÙ¾Ø±ÚĨÙħ
ĠMycosphaerella
.'
Ġstated
ĠØ±ÙĩØ¨Ø±
ĠÙħÙĢÛĮ
Ġshoot
ĠÙħØ³ÙĦØŃ
athy
ĠÙħØ±ØªØ¨Ùĩ
ĠÙĩÙĪØ´ÙħÙĨØ¯
ĠØ¢ÙĦÛĮ
ĠØ¨Ø§Ú©ØªØ±ÛĮ
ĠØ§ÙĪØ¬
ĠDef
Ġfru
Ø¹ÙĨÙĪØ§ÙĨ
Ø¬ÙĪØ±
ĠScience
ĠÙĨØ§ÚĨØ§Ø±
Ġfifty
Ġsettled
ĠÙĩÙĨØ±ÙħÙĨØ¯
ĠØ¨Ø¯Ø±
ĠØ¬ÙĪØ§Ùħ
Ġsignal
ĠÙĩÛĮØ¯
aza
ĠHermione
ĠCompany
Ø±ÙĪØŃ
ĠGold
anny
eed
Ġsch
entially
Ġcarefully
ĠØ¬Ø²Ø¦ÛĮØ§Øª
Ġlibrary
Ú©Ø§Ø³
ĠØ¬ÙĪÛĮ
ĠØ´ÛĮØ·
Ġtraditional
Ġarchitecture
lymp
ĠBest
ĠÚĨØ§Ø±ÙĦØ²
mn
ĠØ§Ú¯Ø±ÚĨÙĩ
Ġmoments
ĠØ§ÙĤØ§ÙħØª
Ġmillions
respond
ĠÙĪÛĮÙĦÛĮØ§Ùħ
Never
ĠØ¯Ú¯Ø±
Ġdoors
ĠØ´Ø±Ø§Ø¨
ĠÛ²Û°Û°Û³
Ø¯Ø§ÙĨØ³ØªÙĨØ¯
nik
esh
ida
ĠØ´Ø¨Ø§ÙĩØª
ĠSund
Ġlies
ĠÙ¾Ø±Ø¯Ø§Ø²Ø´
Ġpresented
ĠLevin
ĠØ§Ø®ØªÙĦØ§ÙĦ
ØŃØ¯ÙĪØ¯
Ġbought
Ġhell
ĠØ§ÙĪÙħ
Ġvoices
Thus
ĠUK
Ġglance
ĠÙħØ·ÙħØ¦
See
ãĥ
ÙĩØ±ÚĨÙĨØ¯
Ġremains
ĠØ¶Ø±ÙĪØ±ÛĮ
Ġapplication
ĠØ¨ÙĪØª
Ù¾Ø´Øª
estival
ÙĩØ±Ú¯Ø²
ĠØ¹ÙħØ¯
ĠØ±ÙĪØ³ØªØ§ÛĮÛĮ
ĠFilm
EE
rary
isco
Ġmap
ogether
Ġdisapp
Ġabsolutely
ĠØ§Ø¶Ø·Ø±Ø§Ø¨
ĠÙĪÙħ
nding
Ø§Ø¯ÙĦÙĩ
Ø¢Ø®
ĠLatin
Ġdeveloping
Ø¯ÙĪØ¨Ø§Ø±Ùĩ
ĠØ§Ø±ØªØ¨Ø§Ø·Ø§Øª
ĠÙ¾Ø°ÛĮØ±Ø§ÛĮÛĮ
Ġhidden
Ġenorm
ĠÙĩÙħØ§ÙĨÙĨØ¯
ĠAnna
Ġconstruction
ĠÙ¾Ø°ÛĮØ±ÙģØªÙĩ
Û²Û°
win
Ø¬ÙĩÛĮØ²
Ġdirected
Ġoperation
ĠØ¨ÙĨÛĮØ§Ø¯
ĠÙ¾Ø§ÛĮØ¯Ø§Ø±
anc
Ġsoci
ĠØ¨ÙĦÙĨØ¯ÛĮ
ĠØ´ÙĩØ±Øª
ĠØ§ØŃØªÛĮØ§Ø·
ĠØªØ¦ÙĪØ±ÛĮ
ÉĻ
ĠÛĮØ¯
ĠØ³ÙĦÛĮ
Ġhyp
Ġwaste
Ġrot
ĠØ³Ù¾Ø§Ø³
ĠÙ¾Ø§Ø´
Ġunit
Ġproceed
ĠJane
ĠØ¬Ø§ÛĮÚ¯Ø§Ùĩ
ĠØ®ÙĪØ´Ø´
Ø¯ÙĩÙĨØ¯Ùĩ
Ġsharp
ĠÙĩÙħØ§ÙĨØ·ÙĪØ±
ĠProt
Sometimes
net
ĠØ¯Ø§ÙĨØ´ÙħÙĨØ¯Ø§ÙĨ
ĠØ®ÙĪØ´ÛĮ
ĠStreet
ĠØªÙģÙĨÚ¯
annel
Ġfunctions
Ġperformed
Ġdying
ĠÚ©ÙĨÙĨØ¯Ú¯Ø§ÙĨ
Ġinterrupt
Ġfourth
Ġappears
Ġmoral
ĠØ´ÙĢ
ĠSen
ĠØ§Ø³Ú©Ø§Øª
Ġpossibly
ĠÚ©Ø§ÙĨØ§ÙĦ
Ġpor
ĠAcad
estic
Ġoperating
Ġcauses
ĠIslamic
Ø§ÙħÙĦÙĩ
osen
ĠJose
ÙĨØ´Ø³Øª
Ġbread
rep
ĠØ´Ú©ÙĨ
ĠÙĩÙĪÙĦ
ava
ĠÙĪÙĤÙĪØ¹
Ġprepared
ĠRoyal
ÙĩØ±Ø§ÙĨ
ĠÙħØ¬ÙħÙĪØ¹
ĠØ¨Ø³ØªØ±
ĠØ¹ÙĦÙģ
ĠØ§ÙĨÙģØ¬
Ġaren
AM
Ġthrew
ĠØ²Ø§Ø¯Ùĩ
Ġstared
Ġexcell
Ġworkers
ĠÙħØ±Ø§Ø¬
ĠØ²Ø®Ùħ
stein
ĠØŃÛĮÙĨ
ĠCO
Ø¨Ø±ÙĨØ¯
ĠNow
Ġrealize
Ù¾Ø¯ÛĮØ§
Ġconfess
ĠØ¢Ùģ
ĠØ¨Ø±ÙĪÛĮØ¯
ĠÙĨØ¸Ø§Ø±Øª
Ġadvent
Ġdiscover
Ġfootball
Ġpicked
Ġfaster
Ø§ÙĨØ¯ÙĨ
ĠØ°Ø±Ùĩ
197
ĠÙģØ¯Ø±Ø§ÙĦ
Have
ĠVo
Ġ1960
ĠØ²ÙħØ³ØªØ§ÙĨ
Mus
ĠØ§Ù¾
Ġsin
ĠÙħØ²Ø±
Ġearn
Ġsuggested
ÙħØ·Ùħ
Ġflying
ĠÚ¯Ø±Ø§Ùģ
ĠØ§Ø³ØªØ«
illa
Ġshame
ĠØ¨ÙĪØ³ÛĮÙĦÙĩ
Ø§ÙĪÙĦÛĮ
Ġcrim
gal
pet
Ġincome
bridge
Ġdevices
ĠØ´ÛĮØ±ÛĮÙĨ
ĠÙħÙĩØ§Ø¬Ø±Øª
inite
Ġactivities
ĠØ§Ø²Ø´
ĠÙĤØ¯ÛĮÙħ
ĠØ§ÛĮÙħÙĨÛĮ
ĠØ°ÙĩÙĨØ´
isl
ĠØªØ§ÙĨ
ÚĨÙĪØ¨
Ġalarm
ĠÙħØ´Ø§ÙĪØ±
ĠØŃÙĤÛĮÙĤÛĮ
Ø³ÛĮØ±
atus
Those
ĠStr
ĠRevolution
Ġgentlemen
ĠMount
Ġcompared
Ø¯Ø§ÙĨØ´
Ġ1991
Se
omin
iently
liv
Ġwid
ĠØ§ÙĦÚ¯ÙĪ
ker
rier
Ġrecomm
ĠØªÙĪØ§ÙĨÙĨØ¯
Ġcrack
Ġdirector
Ġpromise
Ġwarn
ĠÙĩØ¯ÛĮÙĩ
Ġcharm
ĠJul
ĠÙĤØ¯Ø±ØªÙħÙĨØ¯
ĠÙĨÛĮØ§Ø²ÙħÙĨØ¯
ĠPrin
ĠÙ¾Ø§Ø¯Ø´Ø§ÙĩÛĮ
ĠÚ©Ø§Ø±Ø¨Ø±Ø§ÙĨ
ÙĪØ´Ø§
ĠØ¨Ø§Ø±ÛĮÚ©
Ġhes
ĠOlymp
ĠÚ¯Ø°Ø§Ø±
ĠØ®ÙĪØ´ØŃØ§ÙĦÛĮ
ĠØ®Ø´ÙħÚ¯ÛĮÙĨ
Ġcrisis
.;
Ġsaf
ĠÙħØ®Ø§Ø·
Ġ1999
ĠØ®ÙĪØ§ÙĨÙĨØ¯Ùĩ
acle
ĠChe
ieur
ÙħÙĨØª
eping
Ġcommonly
Ġmission
urally
ĠGroup
Ġserve
ĠØ¯Ø±ÛĮØ§ÛĮ
Ġcreating
ĠØ¨Ø±Ø®ÙĪØ±Ø¯Ø§Ø±
Ġquarter
Ġlatter
ĠØ§Ø³ØªØ¹Ø¯Ø§Ø¯
ĠØ§ÙĨØ¯Ú©
Ġfold
Ø§Ø±Ø§Øª
Ø§Ø¨ÙĨØ¯
ĠØµØ§Ø¯ÙĤ
Ġsust
Ġcapable
Ġcapacity
mas
ÅŁ
ĠÙĨÚ©ÙĨÛĮØ¯
ĠØ§ÙĨØ¨Ø§Ø±
Ø¨ÛĮØ´
Ġjustice
Ġminim
Ġsuspic
ander
ĠØªØ¹Ø·ÛĮÙĦ
ĠØ¯Ø§ÙħÙĨÙĩ
ĠGreek
Ã¨
Ġrang
Ġtrick
ĠÛ¶Û°
Ġprofessional
ĠÙģØ±ÙħÙĪÙĦ
ĠÙħØ´Ú©ÙĦÛĮ
ĠÙħØ·Ø¨
ĠÛ²Û°Û°Û´
Ġofficers
Ġextraord
ĠÙĩÙħØ³Ø§ÛĮÙĩ
Ú©Ø´Ø§ÙĨ
isms
Ġasleep
ĠÂ°
Ù¾Ø±Ø³Øª
Ġwhispered
ĠÛ±Û¹Û¹Û°
ĠØ§ÙģØ³Ø§ÙĨÙĩ
Ġcommunication
ÙĩÙĨÚ¯Ø§Ùħ
ĠMuseum
umber
Ġteach
Ġquietly
ĠØ¨ØªÙĪØ§ÙĨÛĮÙħ
owned
ĠØ´ÛĮØ·Ø§ÙĨ
Û³
ÙĨØ§ÛĮÛĮ
ĠØ¨ØªÙĪÙĨ
Ø¸ÙĩØ±
ÙĨÛĮÚ©Ùģ
arts
ĠÙħØªÙĩÙħ
ala
omic
Ġgray
ĠØ´ÙħØ´ÛĮØ±
ĠÙĨØŃÙĪÛĮ
ĠØªØ¦Ø§ØªØ±
ĠÚ©ÛĮØª
Ġpaint
ĠØ§Ø³ØªÙĤ
Also
ĠÙħØ¤Ø³Ø³Ùĩ
ĠPat
osh
apole
ĠØ¹ÙĪØ§ÙħÙĦ
iar
Ad
PD
ĠHis
ĠØ¨Ø¯Ø§ÙĨØ¯
ĠØ±ÙĪØ²Ø§ÙĨÙĩ
Ġcircumstances
ĠSat
ĠØ·ÙĨ
Ø«Ø§
itter
ĠØ¨Ø±ØªØ±
ĠÙģØ§ÛĮØ¯Ùĩ
ĠBul
alog
ĠØ¯Ø®ØªØ±Ø´
Ġmountain
ĠMadame
wing
ested
ÙĦØ§ÙĨØ¯
ĠÛĮÚ©Ùĩ
ĠMet
Ġqual
ÙĪØ³Ùģ
ĠÙħØ°Ø§
Ġfinger
ĠØ¯Ø±ÙĪÙĨÛĮ
ĠØºØ±ÛĮØ¨
ÙĩÙħÚĨÙĨØ§ÙĨ
ĠÚ¯ÛĮØ¬
Ġimportance
Ġeffective
va
Ø¯ÙĪØ´
itated
ĠØ¢ÙĨØ±Ø§
onsieur
ĠØ¯Ø®ØªØ±Ú©
ĠØŃØ¶Ø±Øª
ashington
ÙĪÙħÙĨØ¯
ĠØªØŃØ±ÛĮÚ©
Ġaudience
Ġnuclear
ÙĦÙħØ§ÙĨ
Ġcompar
ÙħÙħ
Ġkeeping
Ġbegun
ĠÙ¾ÛĮØ±Ø§ÙĩÙĨ
cular
unched
Ġwilling
ĠForce
Ġaircraft
ĠØ¯ÙĨØ¨Ø§ÙĦÙĩ
ĠØŃØ´
angl
Ġchallenge
))
ĠØ¨Ø´Ùĩ
Ġdrop
Ġunable
ĠÙ¾Ø±ÛĮØ¯Ùĩ
Ġseconds
Ġattacks
Ø§Ú¯ÙĪ
Ø§Ø±Ùģ
esp
Ġtender
Ġdistingu
Ġdreams
ĠAfghanistan
ĠØ³Ø±Ø²ÙĨØ´
ĠØ§Ø´ØªÛĮ
Ġeverywhere
Ġremoved
ĠÙģÙĩÙħÛĮØ¯Ùħ
Ú¯ÙĨØ¯
Ġflowers
ĠÙĤØ¶Ø§ÙĪØª
ĠMichael
ĠØ§ÙģÚ©ÙĨØ¯
ĠOrgan
Ġfurn
ĠØ¨Ø§Ø³ØªØ§ÙĨ
Ø¯Ø±Ø®
ĠÙĦØ§Ø³
ĠØ®ÙĪØ´Ùħ
Ġvariety
Ú¯ÙĪÙĨÚ¯ÛĮ
Ġapplied
apoleon
wers
Ø§ÛĮØ¹
ĠØªØ¬ÙĩÛĮØ²
ĠØ¯ÙĩÚ©Ø¯Ùĩ
Ġcreature
ĠØ§Ø´ØªÛĮØ§ÙĤ
edd
Ġho
ÙĪÙĦÛĮÙĨ
elle
ĠÛĮÙĦ
Ø·ÙĦ
Ġdelic
ĠÙĨÙĪØ´
ĠØµÙĦÛĮ
Ġsuicide
Ø²ÙĨÙĨØ¯
ĠØ¨ÙĨÛĮØ§ÙĨ
ĠØ®Ø±ÙĪØ¬ÛĮ
Ġdrug
Ġton
ĠØ³ÙĨØ¯
ĠSim
CH
CO
ĠÙħÙĨÙģ
ĠAp
ĠØµØ®Ø±Ùĩ
Ġbridge
ĠResearch
ĠØ§Ø³ØªØ®Ø¯Ø§Ùħ
fa
yth
Ø±ÙĪÛĮÛĮ
Ø²Ø¨Ø§ÙĨ
Ø¨ÙĦÛĮ
olas
ĠØ¨ÙĪØ¬ÙĪØ¯
ĠØ®Ø¯Ø§ØŃØ§Ùģ
ĠProvince
ĠÙĩÙħÙĪÙĨ
Ġuniversity
irect
)".
ĠØ¨ØªÙĪØ§ÙĨÙħ
Ø³Ø±Ø§
ĠØ±Ø¨Ø§Øª
Ġbow
Ġpapers
Ġfalling
ĠHenry
ĠØ¬ÙĪØ§ÙħØ¹
Em
ĠØ´Ú©Ø±
ĠBro
ĠFer
ÙĦØ¦ÙĪÙĨ
Ġneare
cip
Phil
ĠCongress
ĠLouis
ĠSmith
ĠHel
ĠØ¢ÙħØ§Ø±
ĠØ§Ø³ÙĨ
Ġotherwise
Ġrefused
Ġpleasant
porary
Ġnarrow
Ø§ØªÙĦ
Ú¯ÛĮØ³
ĠÙĨÛĮØ§Ø²ÛĮ
hens
ĠGoogle
BS
ĠÙĨØ±ÙĪ
ĠÚ©ÙĦØ§Ø³ÛĮÚ©
ÙĨÚ¯Ø±
reement
omer
Ġsevere
ĠÙģØ±Ø³
Ġsomehow
Ġdistribution
Ġstairs
olt
Ġcontext
Ġtells
enth
Ġpersu
Ø§ÙĦØ§Øª
amily
Ġstir
ĠAsh
ĠÛĮÙĪÙĨØ§ÙĨÛĮ
Ġprimary
izabeth
Such
ØªÛĮÙħ
bits
iest
ĠØªØ§Ø²
ĠØ¯Ø±Ú¯Ø°Ø´Øª
ĠØ§ÛĮÙĨØ·ÙĪØ±
Ġwondered
Both
ugg
Ù¾ÙĨ
ĠGal
Ġsake
ĠØ¨Ø§ÛĮØ³Øª
Ġappre
Ġfallen
Ġrising
Ġreview
Ø±Ø§ÙĩÛĮ
ÙĪØ±ÙĪ
Ġ2016
ĠÙģØ¹ÙĦÛĮ
ĠÙ¾Ø§Ø±ÚĨÙĩ
Ġcloser
ÙħØ±Ø§
ĠØ¢Ø³Øª
idents
ĠÙĨØ§ÙħØ²Ø¯
Ġcrime
Ġengineering
Ġnegative
ĠØ¨ÙħØ§ÙĨ
ÙĦØ·
ĠØ¯Ø±Ø¨Ø§Ø±
ĠÚ¯ÙĪØ±ÛĮ
ĠNations
ĠØ³ÛĮØ¨
Ġends
ĠØ§Ø¹Ø¯
alls
ÙĪØ²Øª
Ġcontain
atherine
Ġcollection
ĠØ¨Ø§ÛĮ
ĠÙħØ¹Øª
99
Ġbacter
Ġtool
omys
Ø§Ø³ØªÙģØ§Ø¯Ùĩ
ĠØ¨Ø§ÙĦØ§Øª
Ġdescend
Ġpoly
ĠFranc
Ġoptim
Ġadministrative
ĠØ¯Ø§ÙĨÙĩ
Ġinput
ĠØ®ÙĦÛĮ
Ø³ÛĮØ³ØªÙħ
ands
ĠØ±ÙĪÛĮØ´
ĠÚ©ÙħØªØ±ÛĮ
ĠÙħØŃÙĪ
Ø¨Ø®Ø´ÛĮØ¯
Ġconstant
Ed
ua
Ø²ÛĮØ¯
Ġpity
Ġimper
Ø®ÙĪØ§Ø³ØªÙĨØ¯
ÙĨØ§Øª
Ġexer
Ġsav
Ù¾Ø³Ø±
ĠÙĤÙĦØ¨ÛĮ
Ġyesterday
Ġutter
ĠÙģØ§Ø±Øº
Ú©ÙĪØ³
ĠÙ¾ÛĮÙĨ
Ġdogs
Ġtwelve
Ġpointed
ĠØ¨ÙĬ
inate
Ø¯ÛĮÚ©
ĠNot
Ġdrove
Ġtouched
Ġwidely
jean
Ø¯ÙĪÙħ
ĠØ§Ø¯Ø±
ĠØ±ÙĪØ§ÙĨÛĮ
ĠAh
ĠHIV
ĠÙħØŃÙĦÙĩ
ĠÙ¾Ø±ÛĮØ¯
Ø³ÙħÙĩ
ĠØªØŃÙĤÛĮØ±
Ġ90
Ġaston
father
ÙģÙĪØ±Ø¯
Ġwearing
ĠSil
ĠTimes
ĠØ®ÙĪØ´Ø¨Ø®Øª
ĠÚ¯ÙĪÛĮØ¯
ĠØ¢Ø³ÛĮØ§
ĠØ¨ÙģÙĩ
ĠÙĦØ²
Ġvent
Ġreply
Ġbasis
ĠÙħØ¬Ø¯Ø¯
ĠRichard
Ø±ÛĮØ®Øª
osis
ĠØ§ÙħÙ¾Ø±Ø§
Ġsigned
ĠÙħØ²Ø±Ø¹Ùĩ
ÙĩØ§Ùħ
Ġaside
umped
Ø¯ÛĮØ¯Ùħ
Com
ĠØ±ÙĪØ³
akistan
Ġcorrespond
ĠØ§ÙĦÚ©ØªØ±ÙĪÙĨÛĮ
ØºØ°ÛĮÙĩ
Ñģ
Ø¯ÛĮØ±
ÙħÙĨØ³ØªØ§ÙĨ
ĠÙĨØ¯Ø§Ø¯Ùĩ
ĠØ§Ø®Ø¨Ø§Ø±
ĠØ¨Ø¯ÙĩÛĮÙħ
ĠØ¨ÛĮÙģØªØ¯
ĠWindows
TP
ĠÚ©Ø§Ø±ÙĩØ§ÛĮÛĮ
ĠØ®ÙĪØ§ÙĩØ±Ø´
Ġpainting
ØŃØ¯
ÙĪØ±ÙĩØ§ÛĮ
cely
ĠØªØ¹ÙĤÛĮØ¨
Ġ70
Ġshouted
Ġcous
ĠØ¨ÛĮØ§ÛĮÛĮØ¯
ĠÙģØ±Ø§ØªØ±
ĠÙĨÛĮØ§Ùħ
Ú©Ø´ÙĨØ¯
uzz
ĠÙħØ¯Ø§ÙĪ
Ø¨ÛĮÙĨÛĮÙħ
Ġprojects
ĠÚĨÚ¯ÙĪÙĨÚ¯ÛĮ
Ø§ØŃØª
Ġinnov
Ġcarrying
mine
Äģ
ĠÚ©Ø§ÙħÛĮ
Ù¾ÙĨØ¬
ĠØ¨Ø¯ÙĩÛĮ
ĠØ§Ø¬ØªÙħØ§Ø¹
ĠÙħØ¬Ø¯Ø¯Ø§
ĠÙħÛĮØ±
ĠØ¨Ø§ÙĩØ§
ĠÙĩÙħÚ©Ø§Ø±
Ġ".
Ġchosen
ĠÙ¾ÛĮØ´ÛĮÙĨ
Nothing
Tom
ÙĩØ¯Ùģ
Ġhydro
Ġanywhere
Ø§ØµÙĦØ§
hetic
ĠÙĨÛĮØ§
Ġfan
Ġfran
atell
ĠÛ±Û¹Û¸Û°
ÙĪØªØ±ÛĮ
ĠØ¯ÙĪÚĨØ±Ø®Ùĩ
Ġexpressed
rieved
ĠØ±Ø£ÛĮ
cs
Ġhill
ĠFrodo
rous
ĠØ¬Ø§ÛĮØ´
Ġoriginally
ĠÙģØ´Ø±Ø¯Ùĩ
ĠÏ
ÙĪØ§Ø³
ØªØ¹
ĠØ³ÙĩÙħ
Ø±Ø¯Ú¯ÛĮ
ĠÙĤÙģÙĦ
Ġsuit
ØªØ±Ø³ÛĮØ¯
gment
Ú©ÙĪØ´ÛĮØ¯
ĠÙ¾Ø±Ùĩ
ĠLife
ÙĬÙĦ
Ġunique
ĠØ¨ÙĨÙĪÛĮØ³
Ġcourage
ĠÙħØ´ØªØ§ÙĤ
Ġcollege
Ġefforts
ĠØ§Ø¹Ø¯Ø§Ùħ
86
Ġincl
Ġpride
ĠØ³ÙĦØ§ÙħØªÛĮ
ÙĦØ±Ø²ÛĮØ¯
Ġthroat
ĠØªÙĩØ±Ø§ÙĨ
ĠØ´ÙĨÛĮØ¯Ùħ
Ġfortune
ĠÙħÙĪØ§ÙģÙĤ
ĠØªØ¬Ø¯ÛĮØ¯
Ġyounger
Ġdivided
Ġsuffer
ĠÙħØ¨Ø§Ø¯Ø§
ĠØ±Ø¯ÛĮÙģ
oor
rol
ĠEmpire
iques
Ġplatform
32
ĠÙĪØ§Ø¯Ø§Ø±
Ġaband
ĠWomen
ĠØ§Ø³Ú©ÙĨ
Ġpoll
ĠØ³ÙĩØ§Ùħ
ĠØ§ØŃÙħÙĤØ§ÙĨÙĩ
yer
ĠÙģÙĤ
Ġplans
Ġsolid
Ġadvanced
Ġprogramming
Ġcomputers
Ġreduce
atically
Ġcodes
Ġnorthern
ifying
Ġknees
ĠØªØŃÙĪÛĮÙĦ
ĠØ¢ÙĪØ±Ø¯ÙĨØ¯
Ġaccomp
Pl
Ġban
lement
ĠÚĨÙĪØ¨ÛĮ
ĠØ¨Ø§Ø²Ø¯ÛĮØ¯
Ġaffection
ĠØ²Ø¯ÙĨØ¯
ĠSee
Ġoperations
Ġconcerned
FC
Ú©Ø±Ø§Ø³ÛĮ
ĠØ§Ø±Ø¯ÙĪ
Ø´Ø®Øµ
Ø¨ØªÛĮ
ĠØ§ÙħÙĪØ§Ø¬
Ġlights
Ġphysic
Ġsafety
IA
ĠØ¢Øª
illed
Ø´Ø¯Ùħ
ĠÙĨÙĪØ§Ø±
ĠÚ¯Ø±ÙģØªØ§Ø±
ĠÛ²Û²
Ġvisual
Ġcere
ĠØ¢ÙĨÙĦØ§ÛĮÙĨ
ĠØ¨Ø§ÙĦØ§ÛĮÛĮ
ÙĪÙģØ§ÙĨ
EN
ÙĪØ¹ÛĮ
utch
aya
amber
ĠØ³Ø±ÛĮØ§ÙĦ
Ġcritical
Ġphilosophy
Ø§ÛĮØ²
Ġactions
hesis
ĠØªÙħØ§Ø´Ø§ÛĮ
Ġdifficulty
ĠOffice
ador
ĠÙģÙĪÙĦ
ĠÙħÙĩØ±Ø¨Ø§ÙĨÛĮ
Ġbra
verty
ĠÙħÙĨØµ
happ
Ġprotection
Ġterrit
Ø§ÙĨÚ¯Ø§Ø±
ĠÙħØ®ÙĦÙĪ
ĠØ§Ø«Ø±ÛĮ
ĠÙĩØ±ÙħÛĮÙĪÙĨ
Ú©ÙĦÙĨÛĮÚ©Ùģ
ĠØ¨ÛĮÙĨÛĮØ¯
Ġpoverty
Ø±ÛĮÙĤØ§ÛĮÛĮ
Ġdescribe
Ġmovie
ĠÙħØ¤Ø«Ø±
ĠÙħÙĦØ§ØŃØ¸Ùĩ
xford
ĠÚ©Ø¬Ø§Ø³Øª
Ø§Ø³Ø±
ĠØ±Ø§ÙĩÙĨÙħØ§ÛĮÛĮ
phone
ĠØ¢ÙĦÙĪØ¯Ùĩ
razy
Ø¨Ú¯Ø°Ø§Ø±
unn
ÙĨØ§ÛĮ
Ġsouthern
edy
ĠØ®ÙģÙĩ
ĠØ±ÙĪØ´ÛĮ
ĠØ±ÙĪØºÙĨ
ĠStep
ĠØ¹Ø±ÙĤ
ĠÛ±Û¹Û°Û
ÑĤ
ĠØ¨Ø±ÙĨ
ĠIP
Ø±ÙĪØ´
Ø´ÙĨÛĮØ¯
Ġexplan
ĠÙ¾Ø±Ø§Ú©
ĠHuman
ĠØªØ±Ú©ÛĮØ¨ÛĮ
ĠØ§ÙħÙĨ
ĠTri
ĠÚ©ÛĮØ³Ùĩ
Ġdriving
Ġtomorrow
ØªÙģ
Ġgro
ĠâĢ¦
Ġsupply
ĠØ®ÙĦØ§ØµÙĩ
Ġfrightened
ĠØ¨Ø±Ø²ÛĮÙĦ
Ġmaxim
Ġactual
ĠØ¬ÙĨØ§ÛĮØª
ĠÙĦØŃØ¸
ÙħØ±Ø¯ÛĮ
Ġlocation
Ø³Ø§ÛĮØª
Ú¯ÙħØ§ÙĨ
Ġheight
ĠØ®ÙĪØ¯Ø¯Ø§Ø±ÛĮ
unist
Ġphysics
ĠÙħÙĪÛĮ
leg
ĠØ¬ÙĪØ±ÛĮ
ĠAlexandrov
ĠÙħÛĮÙĪÙĩ
ĠØ´ØªØ±
ĠÛĮØ§Ø±
ĠCas
ĠØ§Ø³ÛĮØ¯
ĠØªØµÙĪÛĮØ±ÛĮ
Ġenormous
God
ĠØ±Ø¹
Ġvia
Ġpromised
ĠÚ©Ø§Ø³Øª
stairs
ÙħÛĮÙĦÛĮ
ĠÚ¯Ø°Ø±Ø§ÙĨØ¯
Ġmachines
ĠÙħØŃØ¯ÙĪØ¯Ùĩ
yal
ÛĮØ±ÛĮ
ĠØºÙĪÙĦ
ĠØ§Ø¨Ø¯Ø§
ÙģØ§Ø¹ÛĮ
Ġbitter
ĠØµØ±ÙģØ§
ĠÙĤØ³ÙħØªÛĮ
Ø§ÙĨÛĮØ¯
Ø§ÙĦÛĮØ²
Ġcounty
ĠØ¬Ø±Ø£Øª
ĠØ§ÙħÛĮØ¯ÙĪØ§Ø±Ùħ
ML
bel
ffered
ĠØ§ÙĨØªÙĤØ§Ø¯
ĠØ³ÙĪØ¦Ø¯
Today
mosp
Ú©ÙĪÙĩ
Ø·ÙĨ
ĠRat
apes
ÙħØªØ´Ú©Ø±Ùħ
ĠØ®Ø·Ø§Ø¨
Ġ1998
ØªÙĪÙĨÛĮ
Ġegg
ĠÚ©ÙĨÚ¯Ø±Ùĩ
ĠØºØ±ÙĪØ±
ĠØ§Ø´ÛĮØ§Ø¡
Ø³Ø§Ø¯
ĠÙ¾ÛĮØ¯
Ġstaff
iger
ĠLos
ÙģØ±Ùĩ
Ġelection
Ġexclaimed
ØµÛĮØ±
Ø´ÙħØ§Ø±ÛĮ
Ġdesper
ĠØªØ¹Ø§Ø¯ÙĦ
ĠØºÛĮØ±Ùĩ
ĠJewish
Ġdefinition
Ġbirds
itz
ĠØ³ÙĢ
ĠIf
Ú¯Ø±ÚĨÙĩ
Ġanger
ĠÙĨØ¨ÙĪØ¯Ùħ
Ġprocesses
Ġmurm
.)
ses
vant
ĠÚ©ÙĦÙĩ
ĠØ¨Ø¯Ø¨Ø®ØªÛĮ
Ġunless
Ġbreakfast
ĠØŃØ±Ú©ØªÛĮ
ĠÚ©ÙĨØ¬Ú©Ø§ÙĪÛĮ
ĠØ³ÙĦØ·ÙĨØªÛĮ
ĠØªØ¸Ø§Ùĩ
Ú©Ø±Ø¯ÙĨ
ĠØ§Ø®ÙĦØ§ÙĤ
ĠValjean
64
Over
Ø¨ÙĪØ³
ĠØ¢Ø±Øª
Ġpages
ompl
ĠØ§Ø³ØªØ±
Ġlots
ĠØ¨Ø±Ø³Ø§ÙĨØ¯
ĠÚĨØ±Ø®Ùĩ
ĠÙħØ¨ØªÙĨÛĮ
Ġcopy
ĠPrize
ĠØ®Ø§Ø·Ø±Ùĩ
Very
ĠÚ¯ÙĦÙĩ
ĠØ§ÙĩÙħÛĮØªÛĮ
Ġdepth
ĠØ¯ÙħÙĪÚ©Ø±Ø§Øª
ĠØ´Ú©ÙĨØ¬Ùĩ
ĠÙħØ·Ø¨ÙĪØ¹
amental
oper
Ġrandom
ĠØºØ±ÙĪØ¨
Ġ2017
ĠØªØ¬Ø§ÙĪØ²
Ġdaily
SS
Ġocean
ĠØ§ÛĮÙĨØ³Øª
ĠØ§Ø³ØªÙĨ
ĠLong
ĠTo
Ġcircle
Ø¢ÙĦÙĪØ¯
Ġsem
ÙģØ±ÙħØ§ÛĮ
onscious
ÙħØ¯Øª
Ġcalls
ĠÙĤØ´ÙĨÚ¯
ĠÙĦØ¹
ovitch
ĠØ¯ÙĦÛĮÙĦÛĮ
ĠÙĩÙĢÙħ
ĠWashington
Ġaccompl
Ġidentity
Ġdare
ĠØ§Ø³ØªÙĪØ¯ÛĮ
Ġsuffered
ĠÙĩÙħÛĮÙĨØ·ÙĪØ±
Ø¯ÛĮÙħ
Ø²ÙĨØ§ÙĨ
Ú¯ÙĪÙĨÛĮ
ĠÙĨØ§Ú©
ĠØ¯Ø±ÙħØ§ÙĨÛĮ
ĠØ²Ø´Øª
ÙħÛĮØªØ±ÛĮ
ĠÙħØ³ØªÙĤÛĮÙħØ§
Ġphotograph
ĠÙĪØ§Ø´
ĠÙĪÛĮÚ©
ĠØ¯Ø±Ø´Øª
ĠØ¬ÙĨØ§Ø¨
ĠØ¶Ø¹Ùģ
ĠÙħØ¯Ø§Ø±Ø³
ĠÚ©Ø§Ø®
Ù¾ÙĪØ³Øª
Ù¾Ø°ÛĮØ±ÛĮ
ĠØ§Ø³ØªØ±Ø§ØªÚĺÛĮ
ĠØªØºØ°ÛĮÙĩ
icago
Ġregions
ĠDemocr
Ġnervous
ĠRad
ĠØ´ÙĨØ§Ø³ÛĮ
Ġsmoke
Ġgrav
bly
ww
Ġpit
Ġnarr
ĠÙĤÙģ
Ġcommunities
Ġacid
Ġburning
ĠØ´ÙĩØ±ÙĪÙĨØ¯Ø§ÙĨ
ĠØªØ®ØªÙĩ
ĠØŃØ§ÙĪÛĮ
ĠØ¹Ø±ÙĪØ³ÛĮ
ĠØ¯ÛĮÙĪÛĮØ¯
ĠØ¯ÙĩØ§ÙĨØ´
Ġmurder
Ø¯Ø§Ø³ØªØ§ÙĨ
Ú©ÙĪØ±
ĠÚ©ÙĪØ§ÙĨ
ĠÙĪØµÙĦ
ĠÙĩØ´Ø¯
Ø§ÙĤØ¨Øª
ĠÙ¾ÛĮØ´Ø±ÙģØªÙĩ
ĠÚ©ÙĦØ¨Ùĩ
Ġcreation
ĠØ§ÙħÙĨÛĮØªÛĮ
Ġcaptain
ĠØ´Ø§ÛĮØ³ØªÙĩ
ØµØ¯Ø§
ĠÙģØ±Ø§Ø²
Ġproof
Ġdesk
ĠØ¹Ø¯Ø§ÙĦØª
ĠÚ¯Ø±Ø³ÙĨÚ¯ÛĮ
low
ĠØ¯Ø§Ø³Øª
ĠÚ©Ø¬
ĠÙĨØ¨Ø§
ĠBur
ÙĨÛĮÚ©
ĠProfessor
Ġzero
ĠÙħÛĮÚ©ÙĨÛĮÙħ
ĠCaptain
rang
ĠØªÚ©ÙĨÛĮÚ©
Ġanti
Ø¨Ø§ÛĮØ³ØªÛĮ
ØŃØ±
Ġnodd
ÙĩØ§ÙĬ
Ġsolve
ÙħØ¹ÙħÙĪÙĦØ§
Ġsevent
Though
Ġrequires
ĠØ§ÙĨØ¯ÛĮØ´ÛĮØ¯
iable
zed
ĠØ§Ø°
ØŃØªÙħØ§
ĠØ¯ÙĪÛĮØ¯
assion
ĠØ¨Ø±Ø¯Ø§Ø±ÛĮ
ĠØ§Ø±ØªØ¨Ø§Ø·ÛĮ
Ġbomb
ĠØ®Ø³ØªÚ¯ÛĮ
uts
Ġconfidence
Ġtroops
ĠÙ¾Ø±Ø§Ú©ÙĨØ¯Ùĩ
Ġaid
Ġaunt
ĠÛ±Û¹Û·Û°
Ġaccur
annon
ĠTurkish
ĠÙĪÙĪØ¯
Ġbent
ĠÙĩØ³ØªÙĨ
ensity
ĠYes
Ġadvice
Ġpolitics
Ġstayed
Ġthrow
Ø³Ø§Ø¹Øª
Ġdeclared
Ġinfect
ĠAri
Ġsymp
Ġ1986
ĠØ§Ø¯Ø¨ÛĮØ§Øª
ĠØ¯Ø§ÛĮØ±Ùĩ
ĠÚ©Ø§Ø²
icy
ĠÙħÙĩÙħØ§ÙĨÛĮ
ĠÚ©ØªØ§Ø¨ÛĮ
Ø¸ÛĮÙħÛĮ
Ġhotel
Ġgradu
Ġpig
Ġordinary
Ġcontrast
70
kins
Ġwore
ÙĤØ§Ø¨
ĠØ¯Ø±Ø´
ano
anded
ÙĨØ§Ù¾Ø°ÛĮØ±
ĠØªØ®ÙħÛĮÙĨ
Ġinitial
Ø§Ø·ÛĮØ³ÛĮ
Ġassist
Ġabsor
Ġteacher
ĠØ´Ø§Ø¹Ø±
Ġtongue
Miss
ĠØ¨ÙħÛĮ
Ø§ØŃØªÙħØ§ÙĦ
Ġprovides
Ġindustrial
yp
ĠÙħØ¹ÛĮ
Ġanaly
Ġblank
Ġinterpret
ĠÙħØµØ§ØŃØ¨Ùĩ
Åį
ĠÙĨØ¹
ĠØ¹ÙĨØ§ØµØ±
Ġtaste
ĠØ¬Ø§Ø±ÛĮ
ĠØ´Ø¯ÛĮØ¯ÛĮ
Ø§ØŃÛĮ
Gr
enger
Ú¯Ø°Ø±Ø¯
Ġwriter
Ġlimit
Ġphen
Ø§ØªØ´
Ġforty
Ġfactors
arrass
Ġrapidly
Ù¾ÙĪÙĦ
Ø§ÙħÙĦÛĮ
ĠØªØ¹Ø§ÙħÙĦ
Ġstaring
usted
ĠÙħØ¬Ø³ÙħÙĩ
Ġprecise
Ġemotion
ĠØªÙĤØ§Ø¶Ø§
ĠØ¯ÛĮØ¬ÛĮØªØ§ÙĦ
rich
ĠØªØ³Øª
ĠØ®Ø§ÙĦÙĩ
ĠØ¨Ø±Ø³Ø§ÙĨ
Ġcompleted
Ġeasier
urgis
Ġteaching
ĠVer
ĠÙĪØ³ÛĮØ¹
Ġrecognize
Ġfault
Ġdespite
Ø³ÙĪØ²
ĠÙĨØ§ÙĦÙĩ
lease
ĠÚ©Ø§ÙĦØ¬
Ġinternal
rome
Ġ1994
bur
Ø§Ø³Ø§Ø³
Ġliqu
ggie
ÙĦØŃØ¸Ùĩ
El
iro
ÄŁ
ĠÙĩÙħÛĮØ´
Ġlaughter
Ġreject
ĠØ¨Ø¨ÛĮÙĨÙĨØ¯
ĠÙħØ±Ø¨Ø¹
Ġcollabor
ĠØ¨Ú¯Ùħ
Ġconsciousness
Ġconvinced
acters
ĠCamp
ĠPakistan
ĠØ¯ÙĪØ®ØªÙĩ
Ø¦Ùħ
ĠÙ¾ÛĮÚ©Ø±
ĠØ±Ø¯Ùĩ
ĠDel
ĠÛ²Û³
Ġresearc
ĠÙĤØ§Ø±Ùĩ
ĠÚ©ÙĦØ§Ùħ
ĠØ°Ø±Ø§Øª
Ġcosts
Ġinnoc
ora
Ġoutput
aren
ĠØ¬ÙĨØ³
uing
Ø´ØªÙĨ
Ú¯Ø±Ø§
Ġdetails
attered
Ġunex
ĠØªØ´Ú©Ø±
Ġfactor
Ġfailure
Ġrobot
AL
pired
sk
war
ĠÚ©Ø§ÙĪ
ĠØĮâĢĮ
ĠØ³ÛĮØ¯
Ø§ÙħÙ¾
ĠCath
Ġatmosp
ĠØ´ÙħØ§Ø³Øª
Ø§ÙģÙĦ
Ø¯Ø§Ø¯Ùħ
Ġcheer
Ġstatus
ĠÙħÙĤØ§ÙħØ§Øª
ĠÙĩÛĮØ¯Ø±ÙĪ
ĠÚĨÙħÙĨ
Ø±ÛĮØ²
Ġformal
worth
Ø±Ø§Ø³ØªÛĮ
ĠEconom
ĠØ§Ø±Ø´Ø¯
Ġdeeply
Ø§ÙĨØ¯ÛĮØ´ÛĮØ¯
Ġstruggle
Qu
encies
alle
Ġgrey
ĠØªØ§Ø¬
esty
ĠÙħØªÙĤØ§
Ġphr
Ġincreasing
Ġraise
Ġcredit
Ġapproximately
Ġpra
ØµØ±ÛĮ
Ú¯Ø±ÙħÛĮ
Ġcontem
ĠÙĨÚ¯ÙĩØ¨Ø§ÙĨ
ĠÚ©Ø§Ø±Ø¨Ø±Ø¯ÛĮ
SP
oz
ĠØ¨Ú©ÙĨÛĮÙħ
ĠÛĮÚ©Ø´ÙĨØ¨Ùĩ
ighed
ĠØ¹ÙħÙĩ
Ġvisible
Ġtruly
Ġirrit
ĠØ¨ÙĪØ¯Ø¬Ùĩ
Instead
Ġ1996
Ġlaunched
ĠÙħÙĪÙĦÚ©ÙĪÙĦ
ĠØ³Ø¹Ø§Ø¯Øª
Ġafford
ĠÛ¸Û°
Ġsymbol
Ġtheore
ĠØ§ÛĮÙĨÚ©Ø§Ø±
ĠÙģÙĪØ±ÛĮ
Ø¯Ø±Ø¨Ø§Ø±Ùĩ
ĠFree
Ġmovements
ĠØ´Ø¹ÙĦÙĩ
ĠÙħØ²Ø§ØŃ
ĠØ¬Ø¯ÙĪÙĦ
ØªØ®Øª
Ø§ØªÙĪØ±
Ġvul
ĠØ§Ø´ØºØ§ÙĦ
Ø¬ÛĮØ¨
Ġaffected
Ġdestroyed
Ø§Ø¨ÙĦÙĩ
Ø¢Ø´
Ġprove
ĠØ¹ÙĨØµØ±
ØªØµÙĪØ±
Philip
Ùł
ĠØ¨Ø§Ø¨Øª
ÚĺÛĮÙħ
ĠKe
Ġseek
ĠØ±ÙĪØ³ØªØ§
Ġestablish
ĠÙĪØ§Ø³Ø·Ùĩ
Ġextraordinary
Sp
Ġing
Ġcod
ĠÚ©ÙĨØ§ÙĨ
ĠØ·Ø±Ø§ØŃ
ĠÙ¾ÛĮØªØ±
ĠØ¨Ø®ÙĪ
ivered
place
ipment
Ġsetting
ĠJews
Û²Û°Û°Û
ĠØªÙĢ
ĠÚ©Ø§Ø±ÙĦ
ÙĪÙĦÛĮÚ©
Ġbusy
Ġtechnologies
Ġexchange
Ġben
Ø§ÙĦØ¨Ø§
ÙĪØ±Ú¯ÛĮØ³
apter
ĠØ§Ø³Ø§Ø³Ø§
ĠØ³Ø§ÙħØ§ÙĨÙĩ
iform
ĠÙģÚ©Ø±Ø´
ĠØªÙĤÙĦ
ĠSea
ĠØ³Ø§ÙĦØ§ÙĨÙĩ
ĠØªØ¬Ø±Ø¨ÛĮ
Ġpassage
ĠØ³Ù¾Ø±ÛĮ
SI
ĠØŃØ³Ø§Ø³
ÙĦÛĮÚ©ÙĨ
Ø´Ø§ÙĨØ¯Ùĩ
aks
ĠØ§ÙĨØ¯Ø§Ø²
ĠÚ©ÙħÙĪÙĨ
Ġengaged
Ø´Ø±
ĠÙĪØ¹Ø¯Ùĩ
Ġseized
ĠNob
ÙĤØ§ÛĮÙĤ
ĠÙħÛĮØ²Ø¨Ø§ÙĨ
ĠÙģØ±ØµØªÛĮ
ĠÙĨØ§Ø¯ÛĮØ¯Ùĩ
Ù¾ÙĨØ¯Ø§Ø´Øª
ĠÙĨÙĪØ¬ÙĪØ§ÙĨ
Ġexamples
ĠGeorg
Ø¢ÙħÛĮØ²ÛĮ
ĠTex
ĠØ¨ÙĨØ§Ùħ
Ġanxious
Ġtail
ĠØªÙĨÙĩ
ĠØ¢Ø²ÙħÙĪÙĨ
Ġdiagn
da
Ø¬Ø¯
Ø§ÙĦÙĦÙĩ
ÙĨÚ¯Ø§Ø±ÛĮ
ÙĨØ´ÛĮÙĨÛĮ
ydgate
ĠØ¨ØµÙĪØ±Øª
ĠÙģÙĨÛĮ
ima
Ġwithd
ĠFound
liver
Ġcycle
Ġdefend
ĠØ¢ÙģØ±ÛĮÙĤØ§ÛĮÛĮ
ĠÅ
Ġreck
riff
Ġchain
ĠVoices
ĠØ¯Ø³ØªÙĪØ±Ø§ÙĦØ¹ÙħÙĦ
Ġhurried
ĠØ§Ø´Ú©Ø§ÙĦ
Ġsongs
Ġdrugs
even
Ġfancy
Ø®ØªÙĨ
ĠØ³Ø±ÙĪØ±
ÙģØ±Ùħ
Ġstarts
Ġdecide
Ġnetworks
ĠÙĩÙħÛĮØ´Ú¯ÛĮ
iat
ÚĺØ§ÙĨØ³
avy
Ġhumanity
ĠÙĪØ¶Ø¹ÛĮ
Ġcharacters
Ġsinging
ĠØ§Ø±Ø²Ø§ÙĨ
Ġhealthy
Ġbrothers
ĠØ§ÙĦÚ©ØªØ±ÙĪÙĨÛĮÚ©ÛĮ
ĠØ¨ÙĨÚ¯
ĠØ´Ú©Ø§Ùģ
ĠØŃØ³ÙĨ
Ø¢ÙĪØ±ÙĨØ¯
En
Ø§ÛĮÙģ
ÙħØ§ÛĮØ²
ĠØ¯Ø§ÙĨØ´Ú©Ø¯Ùĩ
ĠØ¬ÙħÙĩÙĪØ±
ĠØ¸Ø±ÙģÛĮØª
ĠAcademy
Ġax
Ġwet
Ġcro
ĠÚ¯ÙĪØ¯
ĠÛ±Û¶Û
Ġmetal
ĠØ±ÙĩØ¨Ø±Ø§ÙĨ
ĠØŃÙĪØ§Ø¯Ø«
ĠQuix
ĠÛĮÙĩÙĪØ¯ÛĮØ§ÙĨ
ÙĴ
ĠØ§ÙħØ±ÛĮÚ©
Ġblow
ĠÙ¾Ø§ÙĩØ§ÛĮ
ĠÙĥØ±Ø¯
Ġadvance
Ġstructures
Ġembarrass
Ġestimated
arl
Ġeffic
ĠÙĩÙħØ¯
Ġneur
ĠÚ©ÙĪØ¨
ÚĨØ´ÙħØ§ÙĨ
equ
ãģ
Ġtum
Ġtort
Ú©ÙĢ
ĠØ§Ø¹ØªØ¨Ø§Ø±
ĠÚ¯ÛĮØ±ÙĨØ¯Ùĩ
ĠÙģÙĦØ³Ø·
Ø§Ø³Ùħ
Ġbless
Ġworldwide
ÙħÙĨØ¸ÙĪØ±Ùħ
Ġwaves
ĠØ¯Ø±Ú¯ÛĮØ±ÛĮ
ĠØ¬Ø±Ø§ØŃÛĮ
Ġconclud
Ġmyster
Ġfigures
Ġrecorded
Ġsympt
Ag
oma
ĠÚĨØ§Ø¯Ø±
ÚĺØ§ÙĨ
ultural
ĠArk
ĠÙħÙĨØ·ÙĤ
ĠTurkey
Ù¾Ø±Ø¯Ø§Ø®Øª
sey
ĠØ¨Ø§Ø²ÙĪÛĮ
ĠØ¹ÙħÙĤ
Ġsets
ttp
ĠÙ¾ÛĮÙħØ§ÙĨ
onic
Ġcrazy
ĠØ¬Ø³Ùħ
ĠØºØ§ÙĦØ¨Ø§
ĠQuixote
AD
Would
inent
isp
Ġfond
arge
ĠAre
ĠMen
Ġswim
Ġforever
ĠØ¹ÙħØ¯ØªØ§
ĠÙ¾ÙĪÙĨØ¯
Ø§Ø·Ø¹
ĠÙĨÛĮØ´
iency
ĠØ¢Ø´ÙĨØ§ÛĮÛĮ
nic
Ú¯ÛĮÙħ
Ġfet
Ġpushed
ila
ĠLake
ĠÚ©Ø§ÙħÙ¾ÛĮÙĪØªØ±ÛĮ
ĠØ¯ÙħÙĪÚ©Ø±Ø§Ø³ÛĮ
Ø¯Ø±Ø®Ø´ÛĮØ¯
ÙħØ±ÛĮ
ĠØ§ÙħØ§ÙĨ
ĠÚ¯Ø´
adian
Ġstrate
Ġreplaced
Ø¬ÙħÙĩÙĪØ±
ĠØªØ§Ø²Ú¯ÛĮ
Us
ĠBor
ĠÙģØ±Ø§ÙĪØ§ÙĨÛĮ
Ġpurch
Ġbasically
ĠØªØ¬ÙĩÛĮØ²Ø§Øª
Ġstrategy
ican
ĠØ¨Ø±ÛĮÙħ
ĠØ¬Ú©
acks
ĠØ¨Ø®Ø´ÛĮØ¯
Ġtreated
ĠØ§Ø¶Ø§ÙģÛĮ
ĠKorea
erves
ellect
aved
ĠÙħØ±Ø§Øª
some
Ġtal
ĠØ¯ÙħØ§ÛĮ
Ġgather
ĠCap
ĠØ±ÙĪØª
ivodes
ĠÙħØ¯ÙĨÛĮ
ĠØŃÙħÙĦØ§Øª
ivodeship
ĠÙĨÙħØ§ÙĨØ¯Ùĩ
ĠØ´ÙĦ
ĠØ¨Ø±Ø§ÛĮØ´Ø§ÙĨ
ÙħØ§ÙĤ
ĠBay
ĠBig
ĠØ²ÙĨØ´
ĠÙĤØ·Ø¹Ø§
ĠÙģÙĦØ²
ĠÙħØ¬Ø§Ø²Ø§Øª
ĠØ¨ÙģØ±Ø³Øª
ĠØ±ÙģÛĮÙĤ
Ø¯ÙĩÛĮØ¯
ĠAv
ÙĨÙħØ§ÛĮØ¯
Ġfrag
Ġhorri
Ġsupported
ĠÙħØ¬Ø§
ĠÚ©Ø±ÛĮØ³Øª
ĠÚ©ÙĨÙĪÙĨÛĮ
ĠØ³Ø±ÙħØ§
Ġuncom
Ġnumerous
Ġadditional
Ø¨Ø±ÛĮÙħ
Ġequival
Ġfaint
ĠService
ĠØ¹Ø±ÙĪØ³
ĠØ§Ø³Ø¨Ø§Ø¨
ÙĤÙĦØ¨
ĠØ¨ÙĩÙħ
ĠØªÙģØ³ÛĮØ±
ÙĨÛĮÙħ
only
Ġwheel
Ġsaved
pective
ĠØ³ÙĨÚ¯ÛĮÙĨÛĮ
ĠÙħÚ©Ø²ÛĮÚ©
Ġ1950
ĠØ§ÙĤØ¯Ø§ÙħØ§Øª
Ġlat
otion
Ġexhib
ÙĪØ±ÛĮØ³Ùħ
Ġclosely
ĠÙĤÙĦØ¨Ø´
Ġcandid
CC
ÛĮÙĨØ²
Ø¬ÙĪÛĮÛĮ
chief
ĠÛ²Û°Û°Û²
Ġ1995
Ġdevil
ĠÚ©Ø«ÛĮÙģ
ØªØ§Ø²Ùĩ
ĠCup
Ø¨ÙĩÙĩ
ĠÙħØªØ±ÛĮ
Ġservant
ĠBrown
Ġauthority
isher
ĠFace
ĠÙħØ¹Ø§ÙħÙĦÙĩ
ĠÚ©ÙĪÚĨÙĪÙĦÙĪ
mbly
ĠÙħÙħÙĨÙĪØ¹
ĠØ¯Ø§ÙĨØ´Ø¬ÙĪÛĮØ§ÙĨ
ĠÙĪØ¸
imp
ĠProject
ĠSecurity
ĠØ¨ØºÙĦ
ÙĪÙĦÛĮØ¯
Ġunits
ĠÛ²Û°Û°Û±
Ġmagazine
ĠØ¬ÛĮØº
ĠØªÙĤØ§Ø¶Ø§ÛĮ
Ġdisappeared
case
ĠÚ©ÙĨÙģØ±Ø§ÙĨØ³
ĠØ±Ø³ØªÙĪØ±Ø§ÙĨ
Ġeating
ĠJournal
Ø´ÛĮÙĨØ¯
Ġmotor
zing
ĠØ¯ÙĪÙĨÛĮ
inging
ĠØ¨Ø±Ø§Øª
ĠØ¬ÙĪØ´
ota
ette
ĠSur
ĠCP
soft
Ġ186
Ġtraffic
Ġjudge
ĠSunday
Ø§ÛĮÙĦÛĮ
ĠØ®ÙĪØ¯Ú©Ø§Ø±
ĠOfficial
Ġfever
ĠÙĨØ§Ù¾Ø°ÛĮØ±
Ġhurry
Ġcrossed
ĠVoivodeship
Bes
ĠØ¨Ø®ÙĪØ±Ø¯
ĠØ¯Ú©
Ø¨Ø³Øª
Ġwww
Ġrum
Ø§Ø´ÛĮÙĩ
Ġcurious
ĠÙĪØ±ÙĤ
ĠWeb
ampionship
Ġcig
ĠØ³Ú©Ùĩ
ĠÚ©Ø´ÙĪØ±ÛĮ
ĠØ´ÙĨØ§
ĠPersian
OL
atre
ĠØ¨ÙĩØ§ÙĨÙĩ
ĠÙħÙĤØ§Ø¨ÙĦÙĩ
ĠØªÙĦÙĤÛĮ
Ġaffairs
Ġchalleng
ĠÚ©ÙĪØ´Ø´
ÙĪÚĨ
ÙĪÙĤÛĮ
ĠMic
akh
ĠØ¨Ø¯ÙĦ
osette
ĠÙħÙĨØ¸Ùħ
Ġillness
ĠÙħÙĩØ§Ø¬Ø±
Ġmedicine
Ġpowers
ĠØ¨Ø±ÙĪÛĮ
ĠØ±ÙģØªØ§Ø±ÛĮ
Ġacad
ĠØ¸Ø±ÛĮÙģ
ĠØ±ÙĪØŃØ§ÙĨÛĮ
Ġhonour
Ġcow
Ġsoil
ĠØ®Ø§ÙĨÚ¯ÛĮ
Ġ1997
Ġsigns
ĠEmperor
Ð¾Ð
Ġminds
ĠÙħØ±Ø§ÙĤØ¨
Ġarrested
Ø®Ø¯ÙħØª
ĠØ§Ø±Ú¯
ĠÚ©ÙĪÙĦ
Ú©Ø§ÙĨØ³
Ġregret
ĠCarl
Ġmissing
Ø§ÙħÛĮØ¯ÙĪØ§Ø±
yet
ĠØ¨ÛĮØ²
ĠØ§ÛĮÙĢÙĨ
ĠÙĨØ§Ù¾ÙĦØ¦ÙĪÙĨ
ÚĨØ§Ø±Ø¯
urance
ĠSum
Ġdespair
ÙĦØ§ÙĨ
Ġfasc
igr
Ġdecre
Ġinvited
ĠMexico
othea
vis
ÙĨÙħØ§
ØŃØ§Øª
ĠOld
ĠØ¨Ø®Ø§Ø±
ĠØŃØ¯Ø§Ú©Ø«Ø±
ĠÙ¾ÙĨØ¬Ùħ
ĠClub
Ġhistorical
ĠØ¨Ø·Ø±ÛĮ
tical
ÙĦØª
ĠÙĨÚ¯ÙģØª
Ġwel
ĠRights
ĠØ¢ÙģØ±ÛĮÙĤØ§ÛĮ
Ġelder
part
ĠÙĨØµÛĮ
ÚĨÙĩØ±Ùĩ
thur
Ġkm
osa
Ġdozen
ĠØ¢Ø³Ø§ÙĨÛĮ
Ġprofound
Ġburied
Ġinstitutions
ĠØŃØ¬Ùħ
amma
ĠGood
log
ĠØ§ÙĦÙħÙ¾
ĠØ´Ú©Ùħ
ĠØ±Ø³ÛĮØ¯ÛĮÙħ
Ġcurt
ĠØ§Ø±ÙħÙĨØ³ØªØ§ÙĨ
ÙģÙĩÙħÛĮØ¯
Ġreduced
Ġmistake
BM
Ġupper
Ġconver
Ġmanage
Ø§Ø±ØªÙħØ§ÙĨ
ĠGovernment
24
sky
Ġmurd
Ġinhab
Ø¶Ùĩ
Ġintention
udge
ĠÙĨÙħÙĪØ¯Ø§Ø±
ĠÙħØ§ÙĦÛĮØ§Øª
Ġmountains
ĠPalest
ĠÙħØ¨ÙĩÙħ
ĠTexas
³Û°
Ø§Ø¯ÙħÛĮ
ĠØ§ÛĮÙĨØ¬Ø§Ø³Øª
ĠCD
Ø¢Ø¯Ùħ
Ġdecades
culiar
ĠØ¨Ø¬Ø§ÛĮ
Ġscri
ĠØªÙĪØ§ÙĨØ³ØªÙĩ
Ġembr
Ġinstinct
asked
ĠØ¬Ø³Ø¯
33
from
Ġlit
ĠElect
ÙĬØª
ĠØ¨Ø¯ÛĮÙħ
Ú¯Ø±Ø¯Ø§ÙĨÛĮ
ĠÚĨÙĨØ§ÙĨÚ©Ùĩ
ographic
Ġhorror
Ġsequence
ĠÙĨØ§ÙĤ
Ġgar
ØµØ¨ØŃ
ĠØ±ÙģØªÛĮÙħ
ĠÙĤÙĦÙħØ±ÙĪ
ÙĪÛĮØ²
ĠCivil
ĠØ·ÙĦØ¨
ĠØ¨Ø¯ÙĨØ´
ĠØ´ÙĩØ±Ø¯
Ġfundamental
CP
ĠØ¯Ø´Øª
ĠÙĦÙħØ³
ÚĨÙĩØ§Ø±
Ø°ÛĮØ±Ø¯
ĠØ§Ú©Ø«
Ġmic
Ġgay
ØµØª
ĠØ§Ø¬Ø±Ø§ÛĮÛĮ
Ġcrying
Ġviolent
Ġrepresented
ĠÙĨÙĪØ²Ø§Ø¯
oration
ĠSar
Ġproved
ĠÛ²Û°Û°
bey
Ġ500
upp
ĠØ¢Ø¯Ø±Ø³
Ġstorm
gend
ĠÛĮØ§Ø¯Ùħ
Ġprinciple
ĠArmenia
ĠØ³Ø±ØªØ§Ø³Ø±
Ġye
ĠPublic
ĠLet
Ġcomposed
Ġcoach
ĠÙħØ±Ø§ØŃÙĦ
ĠÙĨØ¯Ø§Ø±ÛĮØ¯
Ġrevealed
ÙħÙĪØ±
Ġfaced
Ġdign
ĠÙ¾ÙĪØ±Øª
Ġunhapp
Ġstandards
Ú¯Ø±ÙģØªÙĨØ¯
ĠÚĺÙĨØªÛĮÚ©ÛĮ
ĠÙ¾Ø§Ú©Ø³ØªØ§ÙĨ
Ġreference
ostov
Ġpeculiar
force
Ġthrown
Ø¯ÙĪØ´ÛĮØ²Ùĩ
ÙħØ§Øª
ÙĦÚ©ÙĨ
ĠÙĤØ¨Ø±
udden
ĠØ¨Ú¯Ø°Ø§Ø±Ùħ
Ġdamage
ĠÚ¯Ø´ØªÙĩ
ĠØ¨ÙĪØ¯ÛĮØ¯
ÙĪÛĮØ§
ĠØ¨Ø§Ø²Ø¯Ø§Ø´Øª
Ø´ÙĨØ§ÙħÙĩ
ĠVict
Ġequipment
Ġstranger
Ġphenomen
Ġded
Ġsection
ĠØ¯ÛĮÙĪØ§ÙĨ
Ġremaining
ĠØ¬Ø²Ø§ÛĮØ±
ĠÙħØºØ²ÛĮ
Ø¬Ø±Ø§ÛĮ
ĠØ´ÙģØ§Ùģ
ĠØ§Ø³ØªÙĤØ¨Ø§ÙĦ
ĠÙĩØ´Ø¯Ø§Ø±
ĠØ§ÙĬ
Ġshoes
ĠNapoleon
Ġimpl
Ø¢ÙĨØ¬Ø§
Ġ35
Ġdecisions
ĠLeague
Ġetc
ĠØ§Ø±ÙħÙĨÛĮ
Ġpill
umph
orders
ĠÙ¾Ø°ÛĮØ±Ø´
ĠØªØµØ§Ø¯Ùģ
ĠØŃÚ©Ø§ÛĮØª
Ġnations
Ġstring
nie
ÙĨÙĪÙĨ
Ø³Ø¹ÛĮ
ĠTor
lessly
Ġcontrary
Ġfrequently
ronsky
²Û°
ĠÙħØ±Ùħ
ĠØ±ÚĺÛĮÙħ
Ġpressed
ÛĮØ¯Ø§ÙĨ
agrid
ĠÚ©ÙĪÚĨÚ©ØªØ±
ĠÙĨÛĮÙħÚ©Øª
Ġbiggest
ĠEmma
cop
Ø§Ø±Ø³ØªØ§ÙĨ
Ø§ÙħØ§ÙĨ
ĠOK
Ġresistance
ĠØ¯ÙĪØ³ØªØ§ÙĨÙĩ
ĠInformation
Ġclasses
ĠCommittee
Br
Ø«Ùĩ
ĠLove
ĠÙĪØ§ÙĤØ¹Ùĩ
ĠØ³ÙģØ§Ø±Ø´
ĠPeople
Ġcamera
Ġweapons
vard
athered
ØŃØ±Ùģ
Ġwhale
ĠÚ¯ÙĪÚ¯ÙĦ
Ġtrial
Ġadopted
Ġtiss
ĠØ¨Ø¨ÙĨØ¯
Ġsought
Ġque
Ġwrit
Ġdelay
ĠÙ¾ÙĩÙĦÙĪØ§ÙĨ
ÙĪÙĩØ§
essel
ĠØ¯Ø§Ø±Ø§ÛĮÛĮ
Ø¨ÙĩØªØ±
ĠOpen
ĠØ±Ø³Ø¯
Ġoccurs
ĠØ¨ÙĢØ§
ĠØ±ÛĮØ§Ø¶ÛĮØ§Øª
ĠÙĨØ±Ø³
ĠØ¬Ø§Ø³
Ġbeings
Ø±ÛĮØ³
iders
ĠØ¨Ø§Ø²Ú¯
Ø´ÙĨØ§Ø³Ùħ
ĠØ¢ÙħÛĮØ®ØªÙĩ
Ġpil
Ġdynam
lets
Ġstress
ĠÛ²Û·
Ġpossibility
ĠÛ²Û°Û±Û¶
ĠØ¯ÛĮØ±ÙĪØ²
ĠØªØ®ØªØ®ÙĪØ§Ø¨
ĠØ®ÙĦÛĮØ¬
ĠÙħÙĪØ§Ø¸
ĠØ¯Ø§ÙĨÙħ
ĠØ¬ØºØ±Ø§ÙģÛĮ
TS
mal
ØªÛĮÙĨ
ania
ÙĨÚ¯Ø§Ø±
ĠÙ¾Ø§Ù¾
Ġmorrow
ĠØ¯Ø§Ø³ØªØ§ÙĨÛĮ
cried
sm
ĠØ¬Ø§Ø¨
Ġarmed
Ġpersons
ÙģÙĩÙħÙħ
Ġaffair
Ġborder
oting
Ġconvent
ĠØ±Ø§ÙĩØ±ÙĪ
Ġ31
Ġproperties
ĠØ®Ø§ÙĪØ±
ado
ĠDervish
ĠEst
ĠWood
ĠØ¨Ø¹Ø¯Ø§Ø²
Ġdistant
Ġexperienced
);
BA
Ø²Ø±
Ġmood
Ø¹Ø§Ø±
Ġgest
ĠØ¹Ø¨Ø¯
ĠÚ¯Ø±ÙħØ§
Ø®ÙĪØ§Ø³ØªÙĩ
Ġplayers
Ġgovernments
ĠØ³ÙĪÙħÛĮÙĨ
Ú©Ø§ØªØ±ÛĮÙĨ
Ġfavorite
Ġbenefit
rete
ĠØ³Ø¯Ùĩ
Ø§Ø¯ÛĮØ±
amie
Ġanyway
ĠÚ©ÙĦÛĮØ¯ÛĮ
ĠSyria
IM
ÙĪÚ¯Ø±
Ø³ÙħÛĮ
ato
ĠÚ¯Ø°Ø§Ø´ØªÙĨ
Ġdomestic
Up
ĠÙĩÙħØ±Ø§ÙĩÛĮ
ĠChicago
Ġbegins
Ġpreviously
Ġinstructions
mother
ĠØ¯Ø±Ø¢ÙħØ¯Ùĩ
Ġlunch
ĠÚ¯Ø§ÙĦ
ØªÙĪØ¬Ùĩ
Ġ1992
ĠØ±Ø§Ø³ØªØ´
stitution
ĠCastile
Ġwestern
ĠØ®Ø±Ø¯Ùĩ
Ø§ÙħØ±ÙĪØ²Ùĩ
ØŃØ±Ú©Øª
seless
ĠÙħØ¯Ø§Ùħ
Ġexpensive
uilding
Was
iated
Ġcateg
stone
ĠIr
ĠRel
ĠWork
ĠÙħØ³Ø§ÙĦÙĩ
ĠÙĤØ·Ø¹Ø§Øª
Ġà¤
ĠØ§ÙĦÙħÙ¾ÛĮÚ©
23
ÚĨÚ¯ÙĪÙĨÙĩ
Ġentrance
Ø¨ÙĨØ§ÛĮ
Ġepis
Ġpounds
alu
ĠÚ¯ÙĦÛĮ
ĠÙħÙĪØ´Ú©
Ġroll
ildren
ĠØ®ÙĦØ§Øµ
ĠØ¯Ø¨ÛĮØ±Ø³ØªØ§ÙĨ
Fin
cont
ÙĤØ¯
Ġbrill
ĠØ¢ÛĮÙĨÙĩ
ĠPan
Ġcompetition
iosity
45
riet
Ø§ÙĤÛĮ
cycl
Ġplanning
ĠØ§Ø¨ØªØ¯Ø§ÛĮÛĮ
ĠØ¨Ø±Ø®ÙĦØ§Ùģ
Ġrelatively
ĠÚ©Ø§Ø³
ĠØ³ÙĪÙĦ
Ġimpat
ĠÙħØ§ÙĩÙĪØ§Ø±Ùĩ
Ġsubs
Ø®ÙĨØ¯ÛĮØ¯
Ġcircu
Ġliterature
Tell
ÙģØµÙĦ
ĠØ´ÛĮÚ©
Ġdial
Ġgain
Ø¢ÙĨØ§ÙĨ
throp
ĠâĻª
Û´
Ø§Ø±Ø¯ÛĮ
ĠÙ¾Ø§ÛĮØªØ®Øª
ĠØ§ÙĨÚ¯ÙĦÛĮØ³
Ġgenetic
ĠÙħØºÙĨ
ĠÙħÙĨØ¸ÙĪØ±Ùħ
ÙĨØ®Ø³ØªÛĮÙĨ
olit
ĠBa
ĠJes
ĠÙħØ¹ÙĨØ§
Ġstatement
Ġfavour
ĠÙħØªÙĤØ§Ø¹Ø¯
Mad
ÛĮÙĨØª
ĠÙĩÙĦÙĨØ¯
Ø®ØªÙĨØ¯
ĠÚ©Ø§Ø±Ú©ÙĨØ§ÙĨ
ĠLady
ĠØŃØ§ÙĦØ´
ÙħØ³ÛĮ
Ġyield
ĠØ¨ÛĮÚ¯Ø§ÙĨÙĩ
Ø¯ÛĮÙĤ
Ġrode
Ġ45
Ġrecords
Ġfifteen
Ġmathematics
uddenly
ĠØ¨Ú©ÙĨÛĮØ¯
ĠØ¨Ø±Ø¯ÙĨØ¯
ĠØ´ÙħØ¹
ĠØªÚ©ÙħÛĮÙĦ
ĠPot
ĠÙħØŃØªØ±
ĠVir
Ġbringing
ĠBritain
ĠCharl
Ġdawn
Ø³Ø±Ùĩ
ĠØ¨ÙĩØ§Ø±
ĠØ¨ÙĩÛĮÙĨÙĩ
Ġconcl
ĠÙħØ§ÛĮØ¹
Ġwhisper
nikov
ĠÚ©ÙĪÛĮ
iveness
ĠÙĨØ¸Ùħ
Ġcompos
Ġmulti
ĠSweden
ĠÙĨÛĮØ§ÙħØ¯Ùĩ
Te
Ġhal
Ø¨Ø§ØŃ
ooth
ĠØŃØ§Ø´ÛĮÙĩ
ĠSing
ĠMicro
ĠCons
ĠÚ©ÙĨÙĪÙĨ
Ġseriously
ĠÙħÙĦØ§ÛĮÙħ
ĠÛ²Û¸
Ġcenturies
ĠØ¨Ø²ÙĨÙĨØ¯
hi
Ġrom
ÙĨÙĦ
ÙĤÙĪÙĦ
Ġfuel
Ġlic
Ġsomewhat
ĠÙħØ§Ø¯Ø±Ø¨Ø²Ø±Ú¯
Ġtechniques
ĠWho
Ġjobs
ĠØ¯ÙĪØ±ÛĮ
Ġfought
Ġbrand
Ø®ÛĮØ§ÙĦ
ĠØ±ÛĮØ³Ú©
Ġguys
ĠNews
ĠTracy
ĠØ¬Ø±ÛĮ
Ġservants
ammad
ĠElizabeth
ĠØ´ÙĦÙĪØ§Ø±
Ġmobile
Ø§ÙħÛĮÙĨ
Ġchildhood
Ø±ÙģØªÙħ
ipping
21
sect
ĠØ¹Ø·
Ø¨Ø±Ø§Ø¯Ø±
Ġagric
Ġsoftly
ĠArmenian
Ġquantum
About
Ġmeat
Ġride
raham
Three
Ġuncertain
Ġbond
asp
ĠØ¯ÛĮÙħÛĮØªØ±ÛĮ
ĠÙħØ¹Ø¬
Ġfoc
ĠÙĨÙģØ¹
Ġelected
Ġdriven
ĠSuper
ĠØ¨ÙĨØ´ÛĮÙĨ
ÙĪÙĨÚ¯
ĠÙĦÚ©Ùĩ
ØºÙĦÛĮ
Ġrelationships
Ġurban
Later
water
ÙĨØªÛĮØ¬Ùĩ
Ø¨Ú©
eling
Ġjump
ĠØ¹ÙħØ§Ø±Øª
Ġpron
ĠÙ¾Ø§ÙĨØ²Ø¯Ùĩ
Ġfruit
Dr
Ġsatell
ĠÙĩØ±Ø§Ø³
lend
ensions
Ġconserv
ĠØ®ÙĪØ§Ø³ØªÙħ
Ġargument
Ġsisters
Ġwounded
ĠØ§Ø³ØªØ¹
ĠJim
Ġgrat
ĠÙħØ§ÙĨØ¯ÙĨ
ĠØ¬Ø¯Ø§Ú¯Ø§ÙĨÙĩ
Ú¯ÙģØªÙĩ
ĠØ´Ø¨Ø§ÙĨÙĩ
ĠØ¢Ø´ÙģØªÙĩ
Ġflood
ĠØ¨Ø§ÙĩÙĪØ´
Take
ĠØ§Ú©Ø³ÛĮ
ÙĩØ§Øª
ĠÙħÙĨØ§ÙģØ¹
Ġfeature
Ġenvironmental
Ġcomfortable
AF
ĠÚ©ÙĩÚ©Ø´Ø§ÙĨ
Ġvote
ĠØ¨Ø§Ø²ÙħÛĮ
Ġclin
ĠÙĨÙħØ§ÛĮÙĨØ¯
ĠÙħØ±ÙĪØ±
ĠØ¯ÙĨØ¨Ø§ÙĦØ´
Ġclever
Ġhandsome
ĠÚ¯ÛĮØ±ÙĨØ¯
ĠØ²ÛĮØ³ØªÛĮ
CR
Ġshel
Ġsail
ĠØ§ÙħØ±ÙĪØ²ÛĮ
Ġsorts
cules
Ġsoldier
ĠÙħØ§ÛĮÚ©
ĠØ®ÙĨÚ©
ĠØ¨ÛĮÙĩÙĪØ¯Ùĩ
ĠØ§ÙĨÙģØ¬Ø§Ø±
Ġow
ĠÛ±Û¹Û¶Û°
Ġconsists
Ġartists
Ġsolutions
Ġcomment
Ø¦ÙĦ
Ú©Ø±Ø¯ÛĮ
ĠNik
ĠØ§ÙĨØªÙĤØ§Ùħ
Ġsatisfied
ĠÙħÚ¯ÛĮ
ĠÙĩÙħØ¬ÙĨØ³
Ġ"*
Ġcolon
Ġrefers
ĠHealth
Ġtrip
Ġindependence
ÚĨÙĤØ¯Ø±
ĠÙģØ§Ø¬
ØªØ±ÙĪ
Ġsyn
ĠÙħÙĪØ¶ÙĪØ¹ÛĮ
Ġbigger
ĠØ´ÙĪØ±Ø´
ĠÙ¾ÙĩÙĦÙĪÛĮ
jan
such
ĠØ¯ÙĬ
ĠÚ¯ÙĪØ¦ÛĮ
ĠØŃØ§Ú©Ùħ
ĠJoseph
Americ
inem
inating
itement
Ġfant
arly
Ġpin
Ø¹ÙĦÛĮ
ĠÙĤØµÙĩ
ĠÚ©Ø§Ø±Ùĩ
Ġexha
Ú¯Ø²ÛĮØ±
Ġsubsequ
Ġminor
Ġbehavi
ĠØ¬Ø§ÙĦØ¨ÛĮ
Ġlod
Ø¸Ùħ
opher
ĠØ¢ÙĤØ§ÛĮØ§ÙĨ
Ġbottle
ĠØ¢Ø³ØªØ§ÙĨÙĩ
Ú©ÙĪÙĨ
ĠØ¨ØªÙĪØ§ÙĨ
Ø®Ø¯Ø§ÛĮ
rix
ĠEv
Ġglanced
Ġedition
Ġmarked
Ġprobability
ishes
ĠØ¢ÙĨØ¬
Ġrates
Ġ188
ØªÙĨØ§Ø¨
Ġrestrict
Ġstronger
Ġyard
Ø¢ÙĨØ§
ĠMarius
Ġdetermine
Ge
Ûµ
ÙħÙĨØ¯ÛĮ
cel
ĠØ¨Ø±Ø§ÛĮØªØ§ÙĨ
ĠÙħØ¬Ø§Ø²ÛĮ
Ġemph
ĠSecret
Bl
ĠØ´Ø±ÛĮÚ©
Ġvessel
Ġintellect
ĠØ®ÙĪØ´Ø¨Ø®ØªÛĮ
Ġpurs
ĠØºÙĦØ·
ĠØ¢ÙĪÛĮØ²Ø§ÙĨ
Besides
ĠØ¨Ø§ÛĮØ³ØªÛĮ
alph
ĠAwards
Ġmyst
ĠÚ¯Ø±ÚĨÙĩ
Ġyours
Ġimpression
ĠØ¹ÙĤØ§ÛĮØ¯
ounce
ĠÙĨÙģØ±ÛĮ
Ġtrave
ĠØ¬Ø´ÙĨÙĪØ§Ø±Ùĩ
ĠÙħØ³Ø§ÙģØ±Øª
Ġsucceeded
ĠCourt
Ġnative
ĠØ¸ÙĩÙĪØ±
asket
ĠØ¨Ø±Ú¯Ø´ØªÙĩ
ĠAngeles
Ġunexpected
ĠÚ©ÙĨØ¯Ùĩ
Ø²ÛĮØ³Øª
ĠÛĮØ§Ø±ÛĮ
ĠGand
ĠRob
ishop
azz
Ġinspired
ĠØªÙĦØ®
ĠMusic
Ġclaimed
ĠÙĪÛĮØ¯Ø¦ÙĪ
ĠØªØ¶ÙħÛĮÙĨ
ĠØ®Ø¬Ø§ÙĦØª
Ġashamed
Ø§Ø±Ú¯Ø§ÙĨ
Ġbath
ĠÙħØ¬Ø³Ùħ
ĠØ¯ÙĪØ±ØªØ±
Ø¨ÙĦØ¯ÙĪØ±
ĠØ®ÛĮØ³
ĠØªÙģØ±ÛĮØŃ
ĠPhilos
Ġobvious
ĠØªÙĨØ¯ÛĮ
Ġreform
ĠØ·Ø±
ÙĩØ±ÙħÛĮÙĪÙĨ
rene
ĠIslands
ĠØµØ¨ØŃØ§ÙĨÙĩ
Ġregarded
Ġprinciples
Ø·Ø¨ÙĤ
ĠÚ©Ù¾ÛĮ
ĠØ±ÙĪÙħÛĮ
ĠØ¯ÛĮØ¯ÙĨØ¯
ĠYour
Ú¯ÛĮØ±Ùħ
ĠÙĪØ±Ø§ÙĨØ³Ú©ÛĮ
ĠØ§Ø³ÙħØ´
ĠÙħØ±ÛĮØ¶
Ġkissed
Ú¯Ø²Ø§Ø±Ùħ
ĠØ·ÙĨØ§Ø¨
ĠØ±Ú¯
ĠØ®Ø§Øª
ĠMunicipality
orted
ĠÙĨÙĪØ¨Øª
Ġforehead
ĠØ¹ÙħÛĮÙĤÛĮ
ĠØªØ¯Ø±ÛĮØ¬
Ġprotein
ĠØ¨ÚĨ
Ġisol
Ġacquaint
ĠCy
ĠÙĦØ±Ø¯
rav
ĠÙĨØ¯Ø§Ø±ÛĮ
ĠØªØ§Ø¨ÙĦÙĪ
tr
ÙĦÙĨØ¯ÛĮ
Ø´ÙĪÛĮÙħ
iffe
Ġdece
ĠFamily
Ġunw
icking
Ġfollows
theless
Ġbackground
ĠØ®Ø±ÙĪØ¬
Music
ĠØ¬Ø¨ÙĩÙĩ
ĠØŃØ§Ú©ÛĮ
ĠSub
Ġrou
ĠWhy
Ġreports
ĠÙħØ¨ÙĦØº
livier
Ġmarch
ĠØ®ÙĪÚ©
ĠÙ¾ÛĮØ§ÙĨÙĪ
velopment
ĠÙĨØŃÙĪ
Ġlogic
ĠØ¯Ø§ÙĨØ´ÙħÙĨØ¯
Ø¢Ø®Ø±ÛĮÙĨ
PS
ØªÙĪÛĮ
ĠÙĩØ±Ø¯ÙĪ
ĠÙħÙĪÙĤØª
Ġapproached
Ġrequest
Ġteachers
Ġresponsibility
ĠÙĪÛĮØ¯Ø¦
fall
ÙħÙĪØ¯
ĠØ§Ø¯Ùħ
Ø´Ø±Ú©Øª
ĠÙĦÚ¯
ĠØ¨Ø§Ø²ÙĨØ´
cipl
ĠÙ¾Ø±ÙĨØ¯Ú¯Ø§ÙĨ
ĠÚ¯Ø±ÙģØªÛĮÙħ
Ġbrains
Ġactor
Ġgoods
ĠØªØ£Ú©ÛĮØ¯
ĠØ¢Ø³ÙĪØ¯Ùĩ
ĠÙħØ§Ø±ÛĮÙĪØ³
Ġliterally
Ø³Ø®
ĠÚ©Ø±Ùħ
Ġfate
ĠÙĩØ±Ú¯ÙĪÙĨÙĩ
ĠÙħØ·ÙĦÙĤ
Ġstudio
ĠÚ©ÙĦÙħØ¨ÛĮØ§
ĠØ²Ø®ÙħÛĮ
cest
ĠØ®ÙĢ
ĠØ²Ø§ÙĨ
ĠØ¹Ø¨Ø§Ø±ØªÙĨØ¯
Ġnodded
pal
Ġtear
âĢĮ:âĢĮ
ĠØ®Ø±Ø§
ÙģØªÚ¯ÛĮ
Ø±Ø³Ø§ÙĨØ¯
ĠÙ¾ÛĮØ±ÙĪØ²
ĠØ±Ø§ÙĨÙĨØ¯Ú¯ÛĮ
Ġdeliver
ĠLibrary
ØªØ¹Ø¯Ø§Ø¯
Ġgathered
urse
ĠØ¨ÛĮØ³ØªÙħ
ĠØ±Ø³Ùħ
Ġconfused
ĠÙ¾Ø±Ø³ÛĮØ¯Ùħ
ĠÙĪØ±Ø²Ø´ÛĮ
ĠØ¹ØµØ¨Ø§ÙĨÛĮØª
ĠØ²Ø§ÙĪÛĮÙĩ
otic
ĠØ¹Ø¸ÛĮÙħÛĮ
Ġshaking
ĠÙħØŃÙĪØ·Ùĩ
ova
Ġappointed
Ġcolumn
ĠÙħØŃÛĮØ·ÛĮ
Ġhoped
Ġoccupied
Ġsymptoms
adium
ĠLin
ĠNich
Ġdiscovery
Ġï»
Gen
Ø§ÚĨ
term
unction
Ġgoals
ĠØ¯Ø§ÙħÙĨ
ĠÛ¹Û°
ĠØ±Ø§Ø¯ÛĮÙĪ
aul
awn
Ø§Ø®ØªÛĮØ§Ø±
Ġhanded
ĠØ¬ÙĪØ§Ø¨ÛĮ
ĠComput
ĠÙĨÚ©Ø±Ø¯Ùħ
Ġdriver
ĠMinistry
ĠÙħØ£ÙħÙĪØ±ÛĮØª
Sim
orial
ĠØ´ÙĪÙĤ
Ġnoted
Ø§ÙĪØ§
Ġdegrees
ĠØ¢ÙĪÛĮØ®ØªÙĩ
ĠÚ©Ø±Ø§
ĠAk
Ġperman
ĠStu
Ø±Ø§ÙģØ±Ø¯
ĠÙĪØ¶ÙĪØŃ
Ġinfinite
ĠCanadian
ĠØ±Ø§ÙĨÙĨØ¯Ùĩ
Ġastron
ĠÙ¾ÛĮÚĨÛĮØ¯Ú¯ÛĮ
Ġwedd
Ġcas
Ġpush
ĠBas
Ġworn
Ġflower
Ġ978
Ġnaturally
DA
ÛĮÙĪ
Ø¨Ø§ÙĨÙĩ
Ø®Ø·
irmed
amin
emen
ÙĬÙĩ
ĠØ¨Ø¯Ø¨Ø®Øª
Ġcommitted
ĠÚ©ÙĨØ§Ø±Ø´
Ú¯Ø°Ø§Ø±ÙĨØ¯
Ġbreaking
Ġclock
Ġsteel
US
hand
mond
Ġsan
ĠÙĩÙĪØ³
icing
ĠLittle
Ġhousehold
Ġkilling
Ġlayer
ĠÙĨÙĪÛĮØ³ÙĨØ¯Ú¯Ø§ÙĨ
Ġstrike
point
Ø¯ÙĩØ§ÛĮ
hett
stro
Ġunp
Ġunlike
Ġapply
ĠÛ²Û¶
Ġcrew
ĠÙĦØ±Ø²Ø§ÙĨ
Ġalternative
cyclop
Ø¨ÙĪÙĨ
ĠÙħØ¹ÙĦ
Ġagreement
ÙĨÙĪØ§Ø®Øª
Ġdrunk
Ġillust
Ġexcitement
ĠGenus
ĠØªØŃØµÛĮÙĦØ§Øª
ĠØªØ¯Ø±ÛĮØ³
ÙħØªØ±
Ġproced
ĠFr
ĠØªÙĨØ´
ĠÙĨÛĮÙĪ
Ġadmit
Ġexcellent
ãĤ
Ġlosing
Ġrelief
Û±Û³Û
Ġvolume
ĠÛ·Û°
Ġtradition
ĠØ¨ÙĪØªÙĩ
ef
ĠØ¨Ø®Øª
ĠÙ¾ÙĦÛĮ
icks
Ġdifferences
Ġincor
ĠØ¹Ø°Ø§Ø¨
Ġoxy
Ġneighborhood
Ø²Ø§Ùħ
ĠØ±ØŃÙħ
Ġgri
ĠMother
ĠRue
ĠØ³ÙĪØ§Ø±ÛĮ
Û±Û¸Û
Ġmassive
Ġheavily
Ġwire
ĠØ±ÙĪØ¨ÙĦ
agues
Ġexists
ĠâĢİ.
Ġskills
ĠØ§ÙĦÙĩÛĮ
Ġcruel
ĠØªØ®Øµ
Ġgiant
ÙĩØ§ÛĮÙħØ§ÙĨ
ĠØªÙĪÙĩ
Ġvague
ĠØ¨Ø¯Ø§ÙĨÙħ
Ġplane
ĠØ³ÙĪØ³ÛĮ
ĠØ¬ÙĨØ¨
ĠÙĥØ§Ø±
Ġgrandfather
ĠÚ©ÙħÙ¾Ø§ÙĨÛĮ
ÅĤ
ĠÙĨÙĪÙħ
Ġdull
acles
Ø®ÙĪØ§Ø±
ĠÙħÙĤØ§Ø¯ÛĮØ±
ĠØ´ÙĩØ±ÙĩØ§
Ġnewspaper
anie
ĠØ¹Ø§ÙĤÙĦ
Ġplate
ĠÙĨÙħØ§ÛĮÙĨØ¯Ú¯Ø§ÙĨ
Ġfacts
ĠØ·ÛĮÙģ
Ġdiseases
Ġalgorithms
EL
writ
ÙĨÛĮØ±
ĠØŃØ±ÙĪÙģ
ĠÙħØ·Ø§ÙĦØ¨
Ġships
ĠÙħÙĨØŃØµØ±
Ġignor
OK
Ø®Ø§ÙĨ
ĠÚ¯ÛĮÙĦ
Ġstones
ĠÙĦØ§Ø±ÛĮ
ĠÙħÙĪØ«Ø±
ĠÙĪØ¬ÙĪØ¯Ø´
ĠØ¨Ø±Ø¯Ø§Ø±Ø¯
Ġowned
Ġattribut
Ġphase
ĠÙ¾Ø¯Ø±Ø¨Ø²Ø±Ú¯
ĠÚ©Ø§ØªÙĪÙĦÛĮÚ©
Ġportra
ĠIntelligence
ĠÙħÙĨØ§Ø³Ø¨ÛĮ
ÙĪØ§Øª
ØªØ§Ø±ÛĮ
Ġinner
ĠÙĪÛĮÙĨØ¯
Ġflesh
Ġobst
ĠØªØŃÙĤÛĮÙĤØ§ØªÛĮ
Ġbranch
iy
ĠÙħÛĮÚ©Ø±Ø¯
ĠØ§ÙĨÚ©Ø§Ø±
ĠØ´Ú©Ø§ÛĮØª
Ġsustain
ĠÙĪÚ©ÛĮÙĦ
ĠØŃØ¨Ø³
ĠOb
Ġelectrical
ĠØµØ±ÙģÙĩ
Ġabsence
Everything
Ġfrequency
ØªÚ©
ÛĮÙħÙĨ
Ġintellig
Ġspin
ĠØ´Ø®ØµØ§
Ġcuriosity
Ã³w
ĠÚ©Ø´ØªÙĨ
ĠNatasha
ÙĤÙĪÙĩ
ĠØ§ÙģØªØ¯
ÙħØ¹ÙĦÙĪÙħ
Ġprisoners
Ġdrinking
Ġanxiety
Ġpaused
Ġscarcely
Ġcousin
nor
ĠÙ¾Ø´ÛĮÙħ
Ġstiff
Ø¢ÙģØ±
ĠØ¢ÙħØ¯Ùħ
ĠÙħØ±Ø¯ÙĩØ§
ĠÙĨÛĮØ³ØªÛĮ
ĠØ§Ø´ÙĦÛĮ
Ġcreatures
ĠØ´Ú¯ÙģØªÛĮ
ĠÙĨØ§Ø²Ú©
ĠÙĨØ¨
ĠØ¨Ø§Ø²Ø±Ú¯
Ġacting
ologist
Ġsimpl
Ġfriendly
Ġlifted
Ġelectricity
ĠÙħØ±Ø§ØªØ¨
ĠØ®ÙĪØ§Ùħ
cknow
ĠØªØ±ÙĪØ±ÛĮØ³Ùħ
ĠThen
ĠØ®Ø·Ø§
Ġdemon
Ġstepped
ĠScot
Ġprimarily
ĠÙĨØ§Ø´ÙĨØ§Ø®ØªÙĩ
Ġexplanation
hus
occ
ĠDu
ĠUr
Ġbedroom
ĠØªØ®Ø±ÛĮØ¨
Ú©ÙĦÛĮÙģ
Ġsatisfaction
Ġvictory
ĠØ¨Ø®ÙĪØ§Ø¨
ÙĦØ°Ø§
ĠÙħÛĮØ¯ÙĪÙĨ
Ġpuzz
ĠØ§ÙĦÙħØ§Ø³
Ú©ÙĦØ§ÛĮØ¯
Ú¯Ø±Ø¯ÛĮØ¯
ĠØ³Ø§Ø¨ÙĤÙĩ
ĠØ¢Ø±Ø²ÙĪÛĮ
ĠFoundation
bitt
ĠÚ©ÛĮØ³Øª
ØµÙĪØ¯
ĠPo
ĠÙħØ¹Ø°
ĠØ§Ø¬ØªÙĨØ§Ø¨
ĠØ¨Ø³Ø§Ø²ÛĮÙħ
Ġinterests
ĠÙĦØ§ØºØ±
Ġhoriz
Ġsons
Ġkil
ĠÙģØ±Ú©Ø§ÙĨØ³
Ġfeels
ĠÙ¾Ø±ØªÙĪ
ĠØ¨Ú¯Ø°Ø§Ø±ÙĨØ¯
ÙģØ±ÙĪØ´
28
host
ype
ĠØ¨Ø§Ø±Ø¯
ĠØ´Ø´Ùħ
Ø¢Ú¯Ø§Ùĩ
Ġworried
ĠJeff
ĠÙĨÙĪØ§Ø²Ø´
ĠÙĨÙĪØ§ØŃÛĮ
ificial
Ġsword
Ġsentence
ĠØ¨Ø¯Ø§ÙĨÛĮØ¯
Ġbalance
Ġequivalent
ĠÙħÛĮØ±Ø§
Ġfart
Ġstor
osha
Ġresolution
Ø§Ø¹Ø¯Ùĩ
Ġfinish
anguage
ĠÙħØ±ØªÚ©Ø¨
Û²Û°Û
Ġidentified
Ġdemocracy
Ġatmosphere
IR
ĠÙħÚ¯
Ġbits
ĠÙħÛĮØ¯Ùĩ
Ø§ÙĩÙĪ
ĠØªØ±Ø¨ÛĮØª
ĠÙ¾Ø±ÙĪÙģØ³
ĠØ³Ø·ÙĪØŃ
Ġpriest
Ġtrembling
ĠØ¯Ø±ÙħÙĪØ±Ø¯
ario
Ġchose
Ġprem
ĠÙģØ§Ø±Ø³ÛĮ
ĠØºØ±ÛĮØ¨Ùĩ
27
orter
ĠHT
ĠØ¬Ø²Ø¡
ĠÚ¯Ø°Ø§Ø´ØªÙĨØ¯
ĠØµÙĨØ§ÛĮØ¹
Ġcomponents
ĠÚ¯Ø²ÛĮÙĨÙĩ
Ġloose
Ġcompassion
Ġstudying
Ġideal
ĠØ¨Ø´ÙĪÙħ
Ġcorpor
ĠÙ¾ÙĦÚ©Ø§ÙĨ
Ġsuperior
Ġgalax
ĠØ¬Ø§Ø¯ÙĪÛĮÛĮ
Jean
Ø³ÙĪØ²ÛĮ
Ø³ÛĮØ§
ĠØ¯ÙĩÛĮ
Ġresist
Ġcoord
Ġgrin
ĠÛĮØ§Ø¯Ø¢ÙĪØ±ÛĮ
ØªØ±ÛĮØ³ÛĮ
ĠLeÃ³n
ĠØ¬ÙĦØ¯
ĠØ®ÙĪÙĨØ³
Ġsurrounded
erk
ĠØµØ¯Ùħ
elly
Ġgene
othy
apping
ĠÙħØªØ¹Ø¬Ø¨
ĠCatholic
Ġfocused
Ġcore
ĠØ¯ÙĪØ®Øª
ĠØŁ...
Ġmyth
ĠØ§Ø¹ØµØ§Ø¨
ĠIII
ĠÙħØ¹Ø¯ÙĨ
Ø¯ÙĦÛĮÙĦ
Ġindu
olm
Ġrow
ĠØ³Ø±ÙĪØ¯
ĠÙĨØ¯Ø±Øª
Ġgreatly
ĠAmericans
Ġexperiences
Val
ĠÙĪÙĤØ§ÛĮ
Ġreven
olve
aine
ĠFar
Ġremote
ĠÙħÙħ
ĠÙĪØ§ÙĨÙħ
ela
akers
ÛĮØªØ§ÙĨ
Ġpractical
ÙħØ§Ùĩ
Ġacknow
Ġmuseum
ĠÙħØ¯Ø§ÙĦ
Ġdepartment
Ġawful
Ġteams
Ġbanks
Ġauthorities
Ġprofessor
ĠØ®ÙĪÛĮØ´ØªÙĨ
ĠØ´ÛĮØ·Ø§ÙĨÛĮ
ĠØ¨Ø¹Ø¯Ø§Ø²Ø¸ÙĩØ±
eding
Ø®Ø§ÙĨÙĪ
ĠÙħÙĨÙĩ
Ø¨ÛĮÙĦÙĩ
Ġnegot
Ø§ÛĮÙĨÚ©
itya
ĠØºØ§Ø±
ĠÙĨÙĪØ§Ø®Øª
Ġrolled
Ø¨Ø§ÙĦÙĩ
Ġpolitic
Ġspirits
ĠSecond
29
ĠÙĨÚ¯Ø§Ø±
ĠØ³Ø±Ø¯Ùĩ
ĠÙĤØ±Ø¢ÙĨ
Ġgrate
Ġ1930
ĠØ¨Ø²ÙĨÛĮØ¯
Ġnode
standing
ĠØ·ÙĪÙģØ§ÙĨ
ĠPhys
Ġarrival
Ġhanging
ĠØªØ¯
Ġselected
oping
ĠBon
Ġconqu
ĠOxford
ĠØ³Ø§Ø¹ØªÛĮ
ealous
isation
Ġweren
Ġsecure
Ø§Ø¬Ø§Ø²Ùĩ
Ø§ØºÙĦØ¨
ĠÙĨÙħØ§ÛĮØ´Ú¯Ø§Ùĩ
ĠØªØ±ÛĮØ³ÛĮ
Ġobviously
umbledore
Ø²Ùħ
ĠØ±Ø§Ú©
ĠÙ¾Ø§Øª
Ġbeast
utation
ÙģØ±ÙħØ§
Ġthinks
duc
Ú¯Ø±Ø¯ÙĨØ¯
ĠØ±ÙĤÙħ
Ġgolden
Ú©Ø²ÛĮÙħ
ĠÙ¾Ø¯ÛĮØ¯Ø§Ø±
ĠØ²ÙĪØ¬
Ġtonight
48
ĠÙĨÙĪØ´ÛĮØ¯
ĠØ¨Ø§ÙĩÙħ
Ø§Ø¨ÙĩÛĮ
illing
Ġshru
ĠEastern
Ġlock
ÙĢØ§ÙĨ
range
Ġbold
Ġblame
Ġ187
ĠÙĦÛĮÚ¯
ĠChristmas
Ġviews
every
Ø´ÙĪÛĮØ¯
ĠØ¯Ø±Ø¯ÙĨ
ĠÚĨÙħ
Ú©ÙĨØ§Ø±
Ġproport
Ġcook
ĠØ¯Ø®ØªØ±ÙĩØ§
Ġhearts
Ú©Ø´ÛĮØ¯ÙĨØ¯
ĠØ¨ÙĨØ¯Ø±
ĠØ¨ÙĨÛĮØ§Ø¯ÛĮ
ĠØ¢ÙħÛĮØ²ÛĮ
ĠØ¨ÙĩØ¯Ø§Ø´ØªÛĮ
55
Col
Ġwake
ĠÙĪØ§Øª
ulse
ĠRock
ĠNorthern
ĠØ´ÙĨØ§ÙĪØ±
Ø³Ø±Ø´
ÙħÙĪØ³ÛĮÙĤÛĮ
ĠØ´ÙĪØ§ÙĩØ¯
ĠÚ©ÛĮØªÛĮ
Ġslept
box
agnan
ĠØ¨Ø®ÙĪØ§ÙĨØ¯
ĠPrincess
ĠÙĪØ§ÙĨÙħÙĪØ¯
ĠÙĩØ§ÙĨ
ĠMem
ĠBol
Ġworship
ĠViet
Ġfunny
ĠÙĨØ§ØªØ§Ø´Ø§
ĠQueen
ĠÚ©ÙĨØ³Ø±Øª
cope
Ġq
Ø§Ø±ÛĮØ¯
agger
ĠÚ©Ø§ÙħÙ¾
Ġdiamond
ĠCommission
ĠØ¢Ú©Ø§Ø¯ÙħÛĮ
List
PC
tle
Ú©Ø§ÙĪ
Ġshirt
Ġallowing
Ø¨Ø±ÙĨØ§ÙħÙĩ
Ø§ÙĨØ¯Ø§Ø²Ø¯
ĠWal
Ġunus
ĠÙ¾Ø±ÙĪØªÚ©ÙĦ
Ġresearchers
ĠØªØ§ÛĮÛĮØ¯
icit
Ø§ÛĮÙĨÚ©Ùĩ
ĠPlan
Artagnan
ĠØ§Ø±Ø¯ÙĪÚ¯Ø§Ùĩ
life
iture
uted
ĠØ²Ø¨Ø§ÙĨÛĮ
ĠAzer
ĠTown
ØªÙĪØ§ÙĨØ³ØªÙĩ
ÙĬÙĥ
Ġstrateg
Ø´ÙĨØ§Ø³Ø§ÙĨ
Ġimagination
Ġincredible
pass
Ðº
ĠÙĩØ§ÙĪ
also
str
ĠÚĨÙĬØ²
ĠCatherine
ĠJoe
ĠÙĨØ§Ø®ÙĪØ´
ĠÚ¯Ø°Ø§Ø´ØªÙħ
Ġelections
Ġmanufacture
ĠØ§ÙħØªØ¯Ø§Ø¯
Ġscript
rors
ĠØªØ§ÛĮÙħ
Ġgained
ĠÛĮÚ©Ù¾Ø§Ø±
ĠMill
ĠLiber
Ġuns
ĠØªÙĨÙĪØ¹
ĠÙĨØ´Ø§Ø·
Ġtechnical
ograp
Ġprofession
Ġarranged
EM
Ġcert
oria
ĠÙĦØ³
ĠÙĨØ§Ú¯Ø²ÛĮØ±
ĠÙħØ³ØªÙĨØ¯
ĠØ®Ø§Ø±ÙĤ
ĠÙĤÙĩØ±ÙħØ§ÙĨÛĮ
ko
Ã¸
Ø¹ÛĮØ¯
lyosha
ĠØ®ÙĪØ¯Ø±ÙĪÛĮÛĮ
Ġnoble
ĠØªÙħØ³
Ġsports
ĠØ¯Ø±Ø®Ø´
Ġmac
ĠØ³ØŃØ±
umed
apy
ĠØ¨Ø¯ØªØ±ÛĮÙĨ
ÙĪØ¨ÙĪØ³
ĠØªØºÛĮÛĮØ±ÛĮ
ĠØ¹ÙĦØ§Ø¦Ùħ
Ġcomplicated
´Û°
ĠØ±Ø¨Ø·
ĠSouthern
ĠPop
Ġdoctors
ĠØºØ§ÙģÙĦ
ĠÚ¯Ø°Ø±Ø§ÙĨ
ĠØ²ÛĮØ±Ø²ÙħÛĮÙĨ
Ġsmooth
ĠØ§Ø³ØªØ®Ø±Ø§Ø¬
Ġvisited
Ġevidently
ĠÙĪØµÙģ
ĠØªÛĮÙĦ
ĠØ§ÛĮÙĨÙĪ
Ġpartner
ĠInc
ĠØ§ÙģØ³Ø±Ø¯Ú¯ÛĮ
ĠÙħØªØ¹Ø¯Ø¯ÛĮ
ĠÙħØ¯Ø§ÙĪÙħ
west
Ġgle
ĠDis
ĠÙĨØ´Ø§ÙĨÛĮ
mann
Ġmaintain
Ġexercise
ĠØ±Ø§ÙĨØ¯
oped
ĠØ³Ø±Ú¯Ø±ÙħÛĮ
Ġ''
Ġcontempt
ĠÚĨØ´ÙħÙĩ
ĠÛ±Û°Û
ĠØªÙĪÙĨÛĮÙħ
Ġtesting
ĠØ°ÙĩÙĨÙħ
ĠÙħØªØ£Ø³Ùģ
Ġdancing
omach
ĠØ¨Ø±ÙĨØ¯
ĠÚĨØ§Ø±Ùĩ
Ġstuck
ĠBy
ĠRose
ĠLy
Ġlocked
ĠÚ©ÙħØªØ±ÛĮÙĨ
ĠØ³ÙĦÙĪÙĦÛĮ
Ġswift
ĠÛµÛ°Û°
Ġliquid
asters
ĠØŃØ¬
ilty
ĠRog
ĠEve
Ġplays
ØªÙĦØ±
Ġcombined
Ġaltogether
ĠØ±Ø®ØªØ®ÙĪØ§Ø¨
ĠÙ¾Ø±ÙĪÙģØ³ÙĪØ±
IL
Ġfier
etime
ĠPre
ĠPost
Ġextended
ĠØ§ÙĦÚ¯ÙĪÛĮ
Ø¯ÛĮØ¯ÙĨØ¯
ĠØ¨Ú¯ÙĪÛĮÙĨØ¯
ĠØ³ØªØ§Ø±Ú¯Ø§ÙĨ
Ġwondering
ĠFacebook
Under
ÙĪØ¶
igen
ĠØ§Ø¬Ø§Ø±Ùĩ
ĠØ³ØªØ§ÛĮØ´
ĠØ²ÙĨØ¬ÛĮØ±Ùĩ
Ġbacteria
Sec
ĠÙħÛĮØ¯ÙĩØ¯
ĠØ¨Ø±Ø§ÛĮØª
ĠVan
ĠØ³Ù¾Ø±Ø¯Ùĩ
Ġconstantly
Ġresem
Ġfriendship
Ġmainly
ĠØ®Ø´Ú©ÛĮ
Bet
ÙĨÙĩØ§ÛĮØª
ÙĪÙħØ§
oral
Ġforb
Ġsees
ĠBella
ĠØ³Ø±Ø´Ø§Ø±
aping
Ø®ÙĪØ§ÙĨÛĮ
ĠØ¨ÙĢÙĪØ¯
Ġsleeping
Ġcombination
ĠAustralian
Ø¸Ø§ÙĩØ±Ø§
ĠØ²ÙĨØ¬ÛĮØ±
inter
ader
ĠÙģÛĮØ±
ĠÚ¯ÙĪØ´ÛĮ
ĠÚ¯ÙĪÛĮÙĨØ¯
!"
TV
Ù¾Ø±Ø³
Ġpause
ĠLydgate
Ġroot
ĠØ´Ú©ÙĪÙĩ
ĠÛĮÙĪÙĨØ§ÙĨ
ÙĨØ²Ø¯ÛĮÚ©
Ġfrancs
ĠØ¯Ø±Ø¯ÙĨØ§Ú©
Ø§ÛĮØ§
Ø§ÙĦØ¯
ĠÙĤØ´ÙĪÙĨ
Ġvary
ĠStand
ĠÙģÙĩÙħÛĮØ¯Ùĩ
Ġemotions
65
CM
ĠÚ¯ÙĪØ³Ùģ
ÙģØªÛĮ
ante
ĠØŃØ³Ø¨
Ġ1989
ÙħØ§Ø¯Ø§Ùħ
100
Ø³Ø§Øª
itar
ĠØ¨Ø±Ø¹Ú©Ø³
Ġseated
ĠTime
ĠØ¢ÙĪØ±Ø¯Ùħ
Ġconcert
Ġclouds
Ġmathematical
ĠØ®Ø¯Ø§ØŃØ§ÙģØ¸ÛĮ
Ø®Ø§ÙĨÙĪØ§Ø¯Ùĩ
47
Ġfer
ĠØ¬Ø¨Ø±Ø§ÙĨ
Ġrh
loc
pless
ĠStan
Ġrelation
ocal
ĠÙħÙĪØ¶ÙĪØ¹Ø§Øª
ĠØ±Ø§Ø¯ÛĮÙĪÛĮÛĮ
Ġpatterns
ĠØ¯Ø®Ø§ÙĦØª
Ġhint
ĠØ®ÙĦÙĪØª
rog
ĠJurgis
ĠØ¹ÙħÙĪÙħ
ĠÙħØ¯Ø±Ú©
Ġhungry
)}
ĠÚ©ÙĪØ²Øª
Ġreward
ÙĪÛĮØ±
Through
ĠÙħØ´Ø§Ø¨ÙĩÛĮ
aws
Ġentertain
ĠPeters
Ġessential
ĠÙĤØ§Ø¶ÛĮ
ĠØ´Ø§Ú¯Ø±Ø¯
Ġgently
Ġstret
elf
Ø®ÙĪÙģ
ĠÙħØ¹ÛĮÙĨ
Ġuniform
Ġexisting
ĠØ®ÙĪØ´ØŃØ§ÙĦÙħ
ĠØ¹Ø§Ø´ÙĤØ§ÙĨÙĩ
ÙģÛĮÙĦÙħ
Sever
Ġthee
inger
Ġancest
ession
ĠÙħÙĨØªÙĩÛĮ
ĠØ²ÛĮØ¨Ø§ÛĮ
Ġwoods
ÙģØ±ÙħØ§ÛĮÛĮØ¯
Ø±ÛĮØ¯
Ġexternal
ĠOliver
ĠØªØµØ¯ÛĮÙĤ
Ø¦ÙĪØ±ÙĦÛĮ
Ġappreci
ĠÙħØºÙĨØ§Ø·ÛĮØ³ÛĮ
Ġtorn
Ġcards
ĠIMDb
ĠÙħÙĪØ§ÙĤØ¹
ĠÙħØŃÙĪØ±
Ġoldest
Ġdram
ĠEngine
Ġlargely
evin
Ġprisoner
ĠAlexander
OT
ĠØ§ÙĦØ§
ali
Ø§Ø²ÛĮØ¯
emies
ĠÙ¾ÛĮØ±ÙĪÛĮ
Ġdepends
ĠØ¨Ø±ÙĩÙĨÙĩ
itors
ĠÙĨÙĬ
ĠØ®ÙĦØ§ÙĦ
ĠMonsieur
ules
ĠØ³Ø±ÙĩÙĨÚ¯
ĠRa
Ġcompre
Ġindex
ĠØ³ÛĮÙĨÙħØ§
ĠÙħØ§Ø¯ÛĮ
Ġsales
ĠØ¢ÙĨØªÛĮ
acific
uments
osm
ĠØ§Ø³ÛĮØ±
ĠØ±ÙĪØ²Ùĩ
Ġ300
ĠØ§Ø®ÛĮØ±Ø§
ĠÙħØ°ÙĩØ¨
ĠÙĪØ¸Ø§ÛĮÙģ
Ø®ÙĦØ§
ĠMars
iler
ĠHaw
ĠØ§Ø®Ø±Ø§Ø¬
Ġburned
ĠØ®Ø§ØªÙħÙĩ
ĠØ¨Ø±ÛĮØ¯Ùĩ
ĠÙĤØ¨ÛĮÙĦÙĩ
ĠMoon
ĠÚ©ÙħØ¨ÙĪØ¯
ĠProgram
Ġtechnique
Ġguns
Ġperceived
bra
ĠØ¨Ú©ÙĨÛĮ
ication
Ø·Ø§Ùģ
idel
iths
ĠAli
Ġadvert
ĠÙĪÛĮØªÙĨ
ĠStar
ĠÙĨÙħÚ©
ĠØ§Ø¯Ø¨
ĠØŃØ±ÙģØ´
ĠØªÙĦÚ¯Ø±
ĠScott
Ġdaughters
ĠBerlin
Ġapparently
ÙĨØ´Ø§ÙĨ
heast
ĠØ§Ø¯Ø§
ĠÙĪØªÛĮ
arse
ĠØ®Ø²
ĠDan
ĠÛ±ÛµÛ
Ø§ØµØ±Ùĩ
onsense
Ġshouldn
Ġunhappy
OC
Ġtick
ĠÙĪØ§Ø¯
itzer
ØŃÙĤÛĮ
Ġease
iry
uration
ĠØ¯ÛĮÚ¯
ĠLab
ĠÙĤØ±Ø¶
Ġpartners
ĠØ´ÙĨØ¨Ùĩ
ĠØ±Ø³ÛĮØ¯Ùħ
ĠØ§Ø¨Ø±ÛĮ
ĠPrime
Ġhomes
05
ÙħØ±Ùĩ
ĠÙĩÙĨØ¯ÛĮ
Ø¹Ø¨
ĠØ¯Ø³ØªÙħØ§ÙĦ
Ġsheep
Ġclaims
,;
bai
Ġstim
quis
ĠDutch
ĠØ§ÙĨØ¯Ø§Ø²ÛĮ
ĠØ§ÙģØ±Ø§
Ġarticles
Ġparam
Ġadmir
ĠØ¬Ø¯Ø§ÛĮÛĮ
Ġsorrow
ÙĨÙĪØ±
ÙĨÚ©Ø§
Ø³ÙĦÙĩ
Ù¾Øª
usal
Ġshif
ĠEnd
ĠÙħØªØ§Ø³Ùģ
ĠÙĨÙĤØ¯
Ġattached
ĠSpace
ĠØ¯Ø§Ø¦ÙħÛĮ
ĠOrganization
bar
ĠÛĮØ§Ø²Ø¯Ùĩ
ĠAut
Ø¢ÙĩÙĨÚ¯
ĠÙĦÚ©
ĠEll
ÙĪØ·ÛĮ
Ù¾Ø±Ø³ØªÛĮ
Ù¾Ø±Ø¯Ø§Ø²Ø¯
ĠÙħØ£ÙħÙĪØ±
Rum
Ġbatter
Ġmaid
ĠØ¬Ø§Ø³Øª
ĠOri
Ġconsult
ĠÙĤØ·Ø¨
ikip
Ġparticles
Ġprocessing
ĠÙ¾Ø§Ø¯Ø§Ø´
Ġtotally
ĠØ¨Ø¨Ø±ÙĨØ¯
ĠÙħÙĪØ³Ø³Ùĩ
Ġmixed
John
ÙĩØ±ÚĨÙĩ
Ġknife
ĠÙĤØ·Ø¹ÛĮ
ĠØŃÙĤÙĪÙĤÛĮ
Ġobliged
long
Ġwise
ĠØ¯Ø±Ø³ØªÙĩ
Ø®ÛĮÙħ
ĠMaxim
ÙĪØ²Ùģ
Ġprotest
ĠØ¨Ø±Ø§ÙĨÚ¯ÛĮ
Ø¹Ø§Ø¯
ĠØ®Ø±Ø³
ĠÛĮÙĪÙĨÛĮ
Ġyards
Ġintense
Ġjealous
ĠÚ©ÙħÚ©ÛĮ
Ġleads
Ġwedding
ĠÙĨØ§ÙĪ
ĠØ§Ø²Ø§ÛĮ
ĠÙĦØ§Ú©
ĠLoss
ĠÙħØ³ØªÙĤØ±
ÙĪØµÙĦÙĩ
Ġmemories
Ġfactory
Ġtruck
Ġbesides
Ġelectronic
down
rast
ĠØ±ØºÙħ
ĠSol
ĠÙĨÛĮØ±ÙĪÙħÙĨØ¯
ĠØ¸Ø§ÙĩØ±ÛĮ
Ġbiological
ĠÙħØ§ÛĮÚ©ÙĦ
Ġconsequence
ĠÙħØ³ÙĦÙħØ§ÙĨØ§ÙĨ
bi
yan
ÙħØ§Ø±ØªÛĮÙĨ
Ġgrief
ĠBob
ĠDiv
ĠNobel
Ġhorrible
Ġpipe
Ġstable
ĠColl
Ġchannel
ĠÙħØŃØ§Ú©
eph
Ġthanks
Ġsuppl
Ġexplos
Ġpainful
ĠØ¯Ø§ÙĪØ·ÙĦØ¨
Ġawarded
Get
Ġec
ĠØ®ÙĪØ§Ø¨ÛĮØ¯Ùĩ
Ġpoetry
ĠØ¯Ø±Ø´Ú©Ùĩ
PA
Ø¨ÙĪÙĦ
onna
usse
Ú¯ÛĮØª
ĠTem
Ġabst
Ġboots
Ġappropri
Ġeastern
Ø¬ÙħØ¹ÛĮØª
Ġsacrif
Ġinterrupted
espite
ĠØµÙĦÛĮØ¨
Ġchamber
Ġrestaur
ĠØ®Ø¯ÙħØªÚ©Ø§Ø±
inations
ĠØ¨Ø§Ø³ØªØ§ÙĨÛĮ
imental
orent
Ġlect
onym
illefort
ĠØ®ÙĦØ§ÙĤ
Ġassumed
ĠØ§ÙħÙ¾Ø±Ø§Ø·ÙĪØ±
Ø§ØŃØªÙħØ§ÙĦØ§
ikipedia
Spe
ÙĨØ§Ø³
Ġtank
Ġgenes
ØªÙĪÙħÛĮ
ĠØ§ÙĨÙĤÙĦØ§Ø¨ÛĮ
Ġflew
ĠØ¨ÙĦÛĮ
erg
Ġlas
ĠMass
ĠÙĦØ·ÛĮ
ĠHot
ĠÙħØŃØ±ÙĪÙħ
oster
Ġanswers
Ġcontrolled
Ġversions
Ú¯Ø§Ø±Øª
ĠØ¬Ø§ÙħÙĩ
aret
Ġwhenever
Ġoverall
ĠÙħÙĦÚ©
gery
Ġsignals
ĠÙħØ§ÙĦÚ©ÛĮØª
ĠØ±Ú©ÙĪØ±Ø¯
ĠÚ¯Ø±Ø³ÙĨÙĩ
Ġvirus
nat
phe
Ġtoler
Ø¹ÙĪØ¯
Ø±Ø¯Ø³Øª
Ġrear
ĠPubl
ĠFre
Ø±ØªØ§ÙĨ
Ġdesired
ĠØ´Ø±Ø§ÛĮØ·ÛĮ
ĠØ¨Ø§ÙĦØ§ØªØ±ÛĮÙĨ
Ø§ÙħÛĮØ¯ÙĪØ§Ø±Ùħ
01
Nat
ÙħÙĩÙħ
ĠØ³ÛĮÙĦÛĮ
ĠÚĨÚ©Ø§Ø±
ĠIll
Ġcentre
Ġextract
Ġmusical
Ġmilk
Ġachieved
Man
ĠØ¯ÛĮÙĪ
urned
ĠØ³ÙĦØ³ÙĦÙĩ
Ġguide
Ġ1993
Ġclassical
ĠÙģØ´Ø±Ø¯
ĠÙĩÙĨØ±ÙħÙĨØ¯Ø§ÙĨ
ĠØ±ÙĪØŃÛĮÙĩ
''
itants
ĠChem
osal
Ġvain
plom
ÙħØ§ÛĮØ´ÛĮ
Ġhandle
ĠØ¨Ø´Ø±ÛĮ
ĠÙ¾ÙĨØ¬Ùĩ
Ġprincess
Ġfacing
Ġdiscussion
RI
lines
Ø§Ù¾ÛĮ
ÙĩÙĪØ§
ĠÚ¯Ø§Ø±Ø¯
ĠKate
ĠØ§Ø«Ø±Ø§Øª
Ġerror
Ġmeasured
Ġcheeks
ĠVirgin
ĠLand
ĠÙħÙĤØµØ¯
ĠYear
ructure
ĠØŃÙħØ§Ùħ
Ġconducted
ĠØ¨Ø§ÙĦÙĤÙĪÙĩ
Ġspell
Ġtriumph
ĠØ¯Ø±Ø¯Ø³Ø±
Ġbroadcast
Ġske
ĠØ´ØºÙĦÛĮ
ĠÚ¯ÙĪÙĦØ¯
urrent
umes
emed
ĠHell
ĠNetwork
ÙĪØªØ§
Ġholds
without
ĠØ¨ÙĦÙĪÚ©
Ġforgive
Ġcriminal
IMDb
Ø´ÙĪÛĮ
ÛĮÙĨØ´
Ø¬Ø§Øª
Ġneut
ĠHim
Ġshell
Ġattitude
ĠÙģØ±ÙĪØ´ÛĮ
Ġtermin
ĠØ®ÛĮØ§ÙĦÛĮ
Ø®ÙĪØ±Ø¯ÙĨØ¯
Ġparad
Ġpainted
Ġcombat
Ġdefinite
35
Ġwra
ĠØ±ÛĮØ²ÛĮ
isible
ĠØ³Ø¯
Ø®ÙĪØ±ÛĮ
Ø§ÙħÙĪÙĨØ¯
ĠSl
Ġattended
quar
ĠFestival
Ġunfortun
Ú¯ÙĪØ³Øª
ÙģÛĮØ«
ĠÚ©ÛĮÙĦÙĪ
ĠPortug
ĠÙĪÛĮÙĨØ¯ÙĪØ²
orge
oto
ĠØ²Ø§Ø±
Ø¯Ø±ÙĨÚ¯
Ġrushed
ĠNaz
icken
Ġgrace
Ġ2018
ĠØ³Ø§Ø²Ú¯Ø§Ø±
ĠØ³Ø·ØŃÛĮ
ĠÙĦØŃØ¸Ø§Øª
ifferent
ĠÙħØ¨Ø¯
ĠSqu
ĠÙħØ±Ø§Ú©Ø²
ĠØ¬ÙĪØ§Ùĩ
Ġpursu
Ġfifth
Ġridic
ĠÚ©ÙħÙĪÙĨÛĮØ³Øª
ĠÙħØ¬Ø§ÙĪØ±
ĠMicrosoft
Ø¯Ø³ØªÛĮ
ĠØ´Ø±Ø§ÙģØª
Ġnom
Ġextend
ĠÙħÛĮØ§ÙĨÚ¯ÛĮÙĨ
Ġcareful
ĠØ¹ÙĦØ§ÙĤ
Ġdemons
Ġuniversal
ĠØ±Ø¹Ø§ÛĮØª
ĠØ¯ÛĮÙĨÛĮ
ĠÚ©ÛĮÙĩ
ĠØ±Ø§Ø¨Ø±Øª
ĠØ¨Ø±Ù¾Ø§
celer
ĠÙĩØ±Ú¯Ø§Ùĩ
ĠÙħØŃØ§ÙģØ¸Ùĩ
arks
ĠØ±ÛĮÚĨØ§Ø±Ø¯
Ġsites
ĠØ®Ø§ÙĦØµ
ĠØ±ØŃ
Ġma
ĠÙ¾Ø±Ø§
ĠØŃÙħØ§
Ú©ÛĮØ´ÙĪØª
Ø§ÙĨÚ¯ÛĮØ²ÛĮ
Ġguests
ĠÙħØ´ØªØ±ÛĮØ§ÙĨ
Ġï»¿
Several
39
Ú©ÙĪØ¯
Ú¯Ùħ
Ġstomach
ĠÙħØ§Ø¬Ø±Ø§ÛĮ
Ġplanned
ruption
ĠØ§ØŃÙĪØ§ÙĦ
Ġ32
ĠÛ²Û°Û±Û·
Ġdetail
Ġexecution
ĠÙħØŃØ§Ø³Ø¨Ø§Øª
iate
ĠØ¨Ø®ÙĪØ§ÙĩÛĮØ¯
ĠPav
Ġplot
Ġcontained
ports
ĠØ§Ø¬Ø¨Ø§Ø±ÛĮ
Ġacts
Ġenthus
ĠÚ©Ø´ÛĮØ¯Ùħ
Ġextent
ĠØŃÛĮØ§ØªÛĮ
ĠÙĩÙĪØ´ÛĮ
ÚĨØ³ØªØ±
ĠØ¨Ø±Ø´
ĠÙħØ¹Ø§ÙĪÙĨ
ĠÙĨÛĮÙģØª
Ø±ÙĩØ§ÛĮ
ĠØ§Ø±Ø¯
ĠÙ¾ÙĬ
Ġstretched
ĠHa
Ú©ÙĦØ§Ø±
Ú¯Ø²Ø§Ø±ÛĮ
Ġmode
ĠCommunist
09
ĠØ±ÙĦ
ĠØ®Ø§Ùħ
abilities
Ġspr
anged
ologists
ĠÙĤØ·Ø±Ùĩ
Ġruns
Ġdelighted
ĠDorothea
37
Ø§ÙĦØªÛĮ
omed
Ġefficient
Ġmanager
ĠÙħØ¬Ø±ÙĪØŃ
ĠReview
addy
ĠÙĩØ¬ÙĪÙħ
Ġbrilliant
ÙģØ§ÙĨ
ĠCop
Ġ",
ĠRalph
Ġseeking
ĠØ¯ÛĮØ¯ÛĮÙħ
ĠÙ¾Ø±Ø¯Ø§Ø²ÙĨØ¯Ùĩ
Ġreturning
Ġseparated
ĠMcG
Ġinvented
Ġhypot
Par
Ron
ÙĨÙĪØ¹
ĠÙħØ¨ÙĨØ§ÛĮ
Ø³ØªÙĨØ¯
ĠØŃØ³ÛĮ
Ġhers
ĠFanny
Ġintent
urel
Ġpregn
Ġhelping
ÚĨÛĮØ§ÙĨ
Ġdeliber
ĠØ¢ÙĦÙĪØ¯Ú¯ÛĮ
bour
ĠØ¨Ú©ÙĨÙĨØ¯
ĠØ´Ø·Ø±
ĠØ¢ÚĺØ§ÙĨØ³
ĠÙĦÚ©ÙĨ
ĠÙħØ·Ø§Ø¨ÙĤ
Ġlovely
ĠØ´Ø§Ø®Øµ
Ġemotional
Ġdemanded
ĠDoctor
Ġobtained
ĠØ§Ú©Ø³ÛĮÚĺÙĨ
Ġoxygen
Ø±ØºÙħ
Ø³ØªÛĮÚ©
Ġnotion
ĠFort
ĠØ§ÛĮÙĦ
Ú¯ÙĩÛĮ
Ġsubjects
Ġinvestment
ĠSancho
nce
ĠÙĪÛĮØ¯ÛĮ
ÙĩØ§ÛĮØªØ§
Ø§Ø¨ÙĪØ³
ĠMaj
Ø¢ÙĪØ±Ùħ
ĠØ±ÙĪÛĮÚ©Ø±Ø¯
Ø¢ÙĪØ±Ø¯ÙĨØ¯
ikh
ĠConf
Ġmasses
ĠMeggie
ĠØ¬Ø±Ø¬
ĠArabic
Ġmysterious
Ð»
Ġbones
anab
ums
ĠDire
ĠHu
rue
Ġsplend
Ú¯ÙĪÛĮÛĮØ¯
ĠØ¢Ø³Ø§ÛĮØ´
Ø¨Ø§ÛĮ
ĠÙĪØ§Ú©Ø³
Ġdatabase
ĠRostov
ĠÚ¯Ø±ÛĮÙĨ
Ġdisag
Ġscore
Ø¬ÙĪØ§Ø¨
ĠColonel
ĠØ¨Ø±ÛĮØªØ§ÙĨÛĮØ§ÛĮÛĮ
Ġpossession
ĠAshley
Ø§Ø¬ÛĮ
ĠÙĨÚ©ÙĨÙħ
ĠØ¢Ø±Ú©
Ġpiano
Ġthy
Ø±ÙĪÛĮØ¯
ĠVen
ÙĨØ¬Ø§ÙĨ
Ú¯Ø±Ø¯Ø§ÙĨØ¯
ĠØ·Ø±ÙģØ¯Ø§Ø±
ĠØ§Ø¨ØªØ¯Ø§ÛĮ
Ġcreative
Ø±Ø§Ø±ØªÛĮ
ĠÙħØ®ÙĦÙĪØ·
RS
à¸
Ø´Ø§Ø±ÛĮ
ĠÙħÙĪØ³ÛĮ
agers
anting
ĠÙģØ±Ø¢ÛĮÙĨØ¯
Ġowner
Ø¨Ø±Ø¯ÙĨØ¯
Ġperspective
ĠØ®ÛĮØ§ÙĨØª
Ġstrict
Ġequally
Ø®ÙĪØ¯Ø´
ĠÙĪØ¨Ø³Ø§ÛĮØª
Ġidentify
going
Ġthrust
ĠÙħØ¨ÙĨÛĮ
Ġcastle
ATA
ÙħØ¬ÙħÙĪ
Ġfederal
ĠÙĩØ¯
ĠØ³ÙĪØ§
Ø§Ø²ÙĦ
ĠCa
ĠÙĨÛĮØ³ØªÛĮÙħ
ĠÙĨÙĩÙģØªÙĩ
Ġslipped
Ġstrongly
Ġmuttered
Suddenly
ĠÙĪØ§ÙĨ
ÛĮØ²Ø¯
Ġalle
Ġoverw
Indeed
oj
Ø¨Ø±Ø§
ĠCraw
olnikov
ĠBus
Ġcommit
ĠØ§Ø¹Ø·
ĠØ²ÙĨØ§ÙĨÙĩ
ĠØ§Ø±Ø§Ø¨Ùĩ
askolnikov
Ġemphas
wan
Ø¨ÛĮÙħ
Ġsigh
Ġdirty
Ġrag
abet
Ø§ÙĨØ¯Ø§Ø²Ùĩ
ĠÛĮØ§ÙģØªÙĨØ¯
Ø¨Ø®Ø´ÛĮ
Ġorganized
ĠÙĦØ±Ø²Ùĩ
Ġconsumption
Ġmolecules
Ġleaned
Ġaspects
ĠÚ©ÛĮÙĨ
Ú¯ÙĦÛĮ
nded
ĠÙĩÙħÚ¯Ø§ÙĨÛĮ
ĠØ³Ø±Ø´Ø§ÙĨ
ĠÙħØŃØ§ØµØ±Ùĩ
Ġbreathing
American
ĠÙĪÙĤØ§ÛĮØ¹
bow
ĠØ³Ø§ÙĤ
Ġnurse
ĠØ¨Ø±Ø§Ø¯
ĠOper
ĠÙ¾Ø³Ø±Ú©
Ù¾ÛĮÙĪÙĨØ¯
ĠÙħÙĦØŃÙĤ
vol
Ù¾Ø§Ø³
Ġthread
ĠØ¹Ø¨Ø§Ø±
Ġaloud
ĠHill
ourse
ĠØ§ÙĩØ¯Ø§
Ġimagined
Ġphotos
Ø¯ÙĪÙĦØª
Ø¬ÛĮØ¯
ĠBert
ĠGall
Ġjack
ĠÙĤØ±Ø¨Ø§ÙĨ
ĠÙĨÙĤØµ
ÙĪØ¨ÙĨ
ĠArgent
Ġguilty
ØªÙĦØ§ÙĨ
Ġfairly
ĠØ§Ø³ÙĨØ§Ø¯
Ġfarther
Sm
ÙĪÙĪØ¯
heim
ĠÙħØ¬Ùĩ
ĠÚ©ÛĮÙĨÙĩ
ĠÙħÛĮÙĩÙħØ§ÙĨ
Ġhills
ĠÙĩÛĮÙĦ
Ø®ÙĦ
uda
Ú©ÙĪÚĨ
ointment
Ġexisted
Ġleadership
ĠÙħØªØ¹Ø¯Ø¯
Ġtied
ĠÚ©Ø±ÙĪ
reland
Ġholid
ĠÙĩØ§ÙĦ
ĠPower
Ġqueen
ĠØ¬ÙĨÙĪÙĨ
ĠØ§Ø¯Ø¹
Still
Ġplanets
Ġcryst
Ġmessages
ĠØ¢Ø°Ø±Ø¨
Ġsolemn
ĠÚ©ÙĪØ§ÙĨØªÙĪÙħÛĮ
itage
ĠØ³Ù¾Ø±
ĠÙĦÙĨÚ¯
Ġselect
ĠÚ©Ø§Ø±Ú¯Ø±Ø¯Ø§ÙĨ
ĠData
inding
ĠØ§ÛĮØ§ÙĦØªÛĮ
Ġrepro
Ġoccas
ĠClass
ĠMonte
ĠÙĨØ±Ø³ÛĮØ¯Ùĩ
EG
mat
ĠØ³Ø±Ú¯Ø±Ø¯Ø§ÙĨ
Ġvon
ĠØ§Ø³ÙħÛĮØª
ĠØ§ØªÙĪØ¨ÙĪØ³
Ġspo
ĠÛ±Û¹ÛµÛ°
Ġâī
Ġmirror
ĠÙĨØ®ÙĪØ§ÙĩÙĨØ¯
orous
ĠÙĩÙĢ
ĠØ®ÙĪÙĨÙĩ
Ġthorough
Ġlake
Ø±ÛĮØ±
ĠNic
elling
ÙĪØ±ÛĮØ³
ureau
loyd
ĠØ¯ÙĦØª
Ġprec
ĠØ¬Ø§ÙĩØ§ÛĮ
Ú©ÙĪÚ©
Ġcolors
ĠÙħØªÙĨÙģØ±
Ġroads
ĠÙ¾Ø²Ø´Ú©Ø§ÙĨ
Ù¾ÛĮØ±ÙħØ±Ø¯
ĠÙĨØ´ÙĨÛĮØ¯Ùĩ
ĠÙħÙĤØ±Ø±Ø§Øª
SM
ĠØ¨Ø§Ø¯ÛĮ
ÙĦØ±
atures
ĠÙħÛĮÙĦÙĩ
Ġnet
Ġstair
ĠCir
ĠØ³Ø§ÙĦÙĩØ§ÛĮ
ĠØªÙħØ¯ÙĨ
Ġexperiments
ĠÛ±Û³Û¸Û
Ġrepeat
ĠÙħØ§ÙħØ§ÙĨ
Ġaccompan
ĠØ¨Ø¬Ø²
Ġbore
Ø®Ø§Ø³Øª
ĠÙĤØ§Ø¦ÙĦ
pel
ouring
ĠØ±ÙĪØ²Ú¯Ø§Ø±
ĠØ§ØªÙħÛĮ
ection
ĠØ«Ø¨Ø§Øª
Ú¯Ø°Ø§Ø±Ùħ
ĠDevelopment
ĠØ§ÛĮØ±ÙĦÙĨØ¯
ĠØªØ±Ø³ÙĨØ§Ú©
Ġdescription
ĠØ¨Ø¨Ø±Ùħ
ĠRoberta
uhammad
ĠÚ©Ø§Ùĩ
Ġbat
asper
ØŃØ¶
Ġriding
ĠØ§ØŃØªÙħ
ĠÛ²Û¹
ĠÚ©Ø±ÛĮØ³
Again
ĠØ¯ÙģØ§Ø¹ÛĮ
Ġpink
ĠØŃØ±Ø§Ø±ØªÛĮ
ques
ĠØ°ÙĪÙĤ
Ġproviding
Ø´ÙĨØ§Ø³Ø¯
Ġceased
ĠÙħÛĮØ´Ø¯
ĠØ¬ÙĪÙĦÛĮ
antes
ĠNAS
ĠOf
Ġdisorder
Ġsched
Ġincident
Ġ400
Ġaddressed
ĠÙĩÙħØ§ÙĩÙĨÚ¯
Int
icon
Ġgig
ĠÙģØ§Ø´
rose
ira
usive
ĠVronsky
ĠÙģØ±ÙĪØ®ØªÙĩ
ĠØ§ÙģØ²ÙĪØ¯Ùĩ
ĠÙħØ§ÙĦÚ©
ĠØªÙĤÙĦÛĮØ¯
67
ĠØ®Ø³
ĠØ¨Ø±ÙĨÙħÛĮ
Ġwhist
Ġjoint
ĠÙĩÛĮØ¬
ĠØ§ÙģØªØª
Ø¯Ø§Ø±Ùħ
Ġstands
ĠÙħÙĨØªØ¸
ĠØ¯Ø§ÙĨØ´Ú¯Ø§ÙĩÛĮ
ĠColomb
ĠOrder
Ø±ÙĪØ±
umble
Ġadvoc
Ġterrif
ĠJacob
Ġsociet
Ġille
ĠØ´Ø¯ÛĮ
unning
resents
ĠÙģØ±ÙĪØ¯ÙĪ
Ġbranches
Despite
fin
}\
Ù¾Ø§ÛĮÙĩ
ÙĪØ³Ùĩ
ĠYan
ĠØªØ´Ø±ÛĮÙģ
ĠÚ©ÙĦÛĮÙĩ
ĠÙ¾Ø±Ø¯Ø§Ø®ØªÙĩ
ĠØ¨Ø²ÙĨÛĮÙħ
Ġgender
Ġtranslation
Finally
OM
lar
Ġsighed
ĠÚ¯Ø±Ø§
Ġsharing
ĠØ³ÛĮØ§ÙĩÛĮ
Ġtelephone
Ġwooden
ĠÙ¾Ø±ÛĮØ´Ø§ÙĨ
ĠØ§ÙģØ³Ø±Ø§ÙĨ
Ġmeasures
ĠØªÙħØ³Ø®Ø±
ureliano
ĠØ´Ú©ÛĮ
ĠÚ©ÙĩÙĨ
ĠTim
ĠNether
ĠØ²ÙĨØ¨ÙĪØ±
ĠÙħØ§Ø±Ú©
Ġresulting
reedom
ĠÙĨØ§Ø´ÙĨØ§Ø³
ller
ĠØ²ÙĦÛĮ
ource
ĠÙħØªÙĪ
Ø³ÙħØ³
Ġannual
Ġdivision
Ġera
Ġcollected
ĠCambridge
Ġdignity
Ø§ÙĨÙĪØ±Ø¯
Ġcot
ancho
Ġnut
ØµØŃ
Ġexcess
ĠKen
ĠÙĨÙħØ§Ø²
ĠÚ¯ÙĪØ´Ø´
nergy
ĠÛ±Û¹Û¹Û´
ĠØ§Ø¨Ø±Ø§ÙĩÛĮÙħ
Ø±Ø§Ø³Ú©ÙĦÙĨÛĮÚ©Ùģ
Ġunconscious
Ġarrang
IG
press
ĠÙħØ¯Ø§Ø®
ĠØ±Ø§ÙĦÙģ
ĠLuc
ĠWater
Ġdisg
ĠØ±Ø³ÛĮØ¯Ú¯ÛĮ
Ġnights
Ġelim
Ġswitch
ĠØ®Ø±ÛĮØ¯Ø§Ø±ÛĮ
ÚĨØ´ÙħÙĩ
Ġvacc
Ġsplit
Please
SE
somet
ÛĮØ³
organ
Ġgift
ØµØ¯ÛĮ
acher
Ġconference
ĠHome
ĠÙħØ´Ø±ÙĪØ¨
Ø§Ø·Ùĩ
ordan
ÙħØ³Ø¦
Ġrenew
ĠØ¹ÙģÙĪÙĨØª
Ġfolks
Ġmaximum
ĠØ§ØŃØªÙħØ§ÙĦÛĮ
500
ĠØ¨ÙĩØ´Øª
Ø¢ÙĩÙĨ
ĠWith
Ġagent
Ġbetray
Ø¨Ø§Ø±Ø§ÙĨ
ĠØ¬Ø§Ø°
Ġentry
Ġsupper
ĠÙħØµÙħÙħ
Ġ1985
aneously
Ġavo
Ġmotiv
Ġtasks
Ġroughly
ØªÙĪÙĦÛĮØ¯
Ø³Ú©ÙĪ
ĠØªØ¨Ø±
ÚĨØ§ÙĤ
ĠØ¨Ø±Ø§Ø¨Ø±ÛĮ
ĠÙĨÙĪØ¢ÙĪØ±ÛĮ
ĠØ§Ø·Ø§Ø¹Øª
Ġundert
issions
hess
Ġartificial
ĠØ¢ÙħÙĪØ²Ø§ÙĨ
Ġremarkable
Ġlucky
Rumex
Ø´ÛĮÙĨÛĮ
ĠÚ©Ø§Ø±Ú¯Ø±Ø¯Ø§ÙĨÛĮ
Ġadapt
ĠÙĦÛĮÙĪØ§ÙĨ
ĠØ³Ø±Ø¯ÛĮ
Ġdistributed
Ġspiritual
allel
Ġhated
Ø§Ø¯Ùħ
Ġlan
ØªØ±Ø³Ùħ
asty
Ø¨ÛĮÙĨÙĨØ¯
gger
ĠØ§Ú©Ø«Ø±ÛĮØª
mund
Ø³ÙĨÚ¯
Ø³Ø®Øª
ĠØªÙĦÛĮ
ÙĪÙĨØ²ÛĮ
Ø¯Ø±ØŃØ§ÙĦÛĮ
ĠÙĦØ¦ÙĪÙĨ
iece
Ġjumped
ĠAnn
Ġelev
ĠÙĤØ¯ÙħÛĮ
ĠØ¨Ø±Ú¯Ø±Ø¯Ø¯
Ġvehicle
CL
ÙĪØ¯ÙĪØ±
ĠIreland
ĠØ§ÙĪØ§Ø³
ĠSa
ĠØ·ÙĨÛĮÙĨ
ĠDie
Ġimpr
Ġconfident
Ġmarkets
Ġobsc
Ġlaunch
Ġcaptured
ĠÙħØŃØ§Ú©ÙħÙĩ
Ø²ÛĮÙĨ
Ġlung
ĠØ¹Ø§Ùħ
unte
ĠØ¨Ø§Ø²ÛĮØ§ÙģØª
ĠØ§Ø³ÙĤÙģ
Ġplastic
ĠÙĨÛĮØ§ÙħØ¯
enses
ĠÙĪØµ
ĠØ´ØµØª
ĠÙģØ³Ø§Ø¯
Ġresc
Ġgrab
Ġflash
ĠØ§Ø¹ÙħØ§ÙĤ
Ġremov
ĠÙħÙĩØ§Ø±
Ġvalu
ĠÙĦÙĩÙĪÛĮÙĨ
ĠØ¹ÙĩØ¯
Ġgaze
ÙĪÙĪ
ĠØ¨Ø±ÚĨØ³Ø¨
ĠØ²ÛĮÙĨ
ĠÚ©ÙĨØ§Ø±Ùĩ
ĠEs
Ġcoal
Ġmedium
Ġannoy
ĠØ¨Ø´ÙĨÙĪØ¯
Ġshadows
Ġvictims
Õ¡
Ø´Ø±ÙĪØ¹
Ġbone
asia
ĠÚ¯Ø§Ø±ÛĮ
ĠØ¨Ø±Ø§Ø³Ø§Ø³
Ø·Ø±Ø¨
amps
okes
apse
Ø§ÙĨØ¯Ø§
Ġclust
ĠÙģÛĮÙĦØ³
ĠÙ¾ÛĮØ±Ø²ÙĨ
Ġmoves
Ġattacked
ĠØ§Ø¨Ø²Ø§Ø±ÙĩØ§ÛĮ
aniel
Ġgradually
rd
ĠÙĨØ§Ø²ÛĮ
orry
ĠÙ¾ØªØ§ÙĨ
odor
ĠÚ©Ø§Ø±Ø§ÛĮÛĮ
ĠÚ©Ø§Ø±ÙħÙĨØ¯
Ú©ØªÙĪØ±
ronic
Ġeleven
ĠColumb
Ġmiserable
Ġcompanion
Ġspending
Ġsurvive
ÙħØ·ÙħØ¦
Ġinnocent
gly
ĠÙ¾Ø³ØªÛĮ
ĠØªÙĪØ§ÙĦÛĮ
Ġsufficient
ÙĦØ¨Ø§Ø³
ĠDeath
ollow
Ġdepression
ÛĮÙĨÚ¯ØªÙĨ
ĠØ¨ÛĮØ§ÙĪØ±Ùħ
La
bird
level
ĠÙĤÙĪÙħ
ĠWay
ÙħÙĪØ¶
liest
Ø§Ø¦ÙĪ
Ġ1984
Ġcutting
Ġhopes
ĠÚ©ÙĪØ±Ùĩ
ĠØ§ÙĨØ¹Ø·Ø§Ùģ
ĠÙĤÙģØ³Ùĩ
OU
ĠØ±Ù¾
orse
ĠØ¢Ø³ØªÛĮÙĨ
Ġinher
ĠØ¹Ø§Ø·
ĠÙĨØ¯Ø§Ø±Ùĩ
Ġpretend
ĠØ¬Ø§ÙħØ¹
ĠÙħÛĮÚ©Ø±ÙĪ
ĠØ´Ø¬Ø§Ø¹
Ġholes
uri
Ø§Ø²ÛĮØ±
ĠØ³ÙĨÚ¯Ø±
Ġconfirmed
ĠÙ¾Ø§Ø±ÙĦÙħØ§ÙĨ
ĠØ¨Ú©Ø´Ùħ
Ġproperly
ĠØ¬ØºØ±Ø§ÙģÛĮØ§ÛĮÛĮ
ÙħØ§ÛĮÛĮ
ĠÙĨØ¬ÛĮØ¨
Ġbud
Ġmile
ĠØ³ÛĮÙĨÛĮ
cha
ĠØ¯ÙĪØ§Ùħ
Ġspaces
ĠØ¨ÛĮØ±ÙĪÙĨÛĮ
ĠÙĤØ§ÙĨØ¹
Ġlesson
ĠTele
Ġadmitted
ĠØ¯Ø³ØªÛĮØ§Ø¨ÛĮ
ĠØ¨ÛĮØ§ÙĪØ±ÙĨØ¯
ĠÚ©Ø§ÙħÛĮÙĪÙĨ
ĠØªÙĪÙĩÛĮÙĨ
ĠØ§Ø¯ÛĮ
ĠÙħÛĮØ³
Ġmos
Ġnurs
ĠØŃØ§ÙħÛĮ
agram
Ġshift
ĠÙħØ±Ø¨ÛĮ
ĠÙħØ®Ø¯Ø±
ĠLee
ĠØµØ¯Ø§ÙĩØ§ÛĮ
ĠØ¨Ø±ÙĩÙħ
ÙĦÛĮÙģ
pelled
ĠGriff
ĠWhen
eps
ĠÙħØ¬ÙĪØ²
Ġkindness
ĠØ¢ÛĮÙĨØ¯
Ġswall
ĠPolit
ĠØ³ÛĮØ§Ø³ØªÙħØ¯
hether
ĠØ¬ÙĨÛĮÙĨ
ĠBal
ĠÙĨÙĪØ¨ÙĦ
ĠØ§ØªÙĩØ§Ùħ
ĠØ¹ÙħØ±Ø´
Ġpoison
ĠÚ¯Ø±Ø¯ÛĮØ¯Ùĩ
ibilities
ĠØ³Ø§Ø²ÙĨØ¯Ùĩ
ĠØ¨ÛĮÙħÙĩ
ĠAlbert
Ġharder
ĠØ¨Ú¯ÙĪÛĮÛĮÙħ
roduction
ĠAzerbai
ØªÙĪÙħ
Ġtheories
Ġecho
adi
ĠCosette
Ġload
Ġrecol
ĠÙħØ§ÙĩÛĮØª
ĠØ§ÙĩØ§ÙĦÛĮ
Ġevalu
ĠØ§ÙģØªØ§Ø¯ÙĨØ¯
ĠÙħÙĪØ¬ÙĪØ¯ÛĮ
ĠØ´Ø§ÛĮØ¹
anabus
ST
ĠØªØ±ÙĪ
ĠØµÙĦØ§ØŃ
ĠØªÙĪØ¬ÛĮ
arted
ĠEp
ĠÚ©ÙĦØ§ÙĨ
ĠØµØŃØ±Ø§
Ġheaded
Ġincreases
ĠÛ±Û¹Û¹Û±
Ġgazed
38
Ú©Ø¯
ĠÙĨÛĮØ§ÙģØª
ĠPC
Ġabroad
Ġloves
Ġenemies
Ù¾Ø³ÙĨØ¯
Ġcommission
ĠØºÛĮØ±ÙħÙħÚ©ÙĨ
Ġdistur
Ġsurvey
Ġveget
ĠØªØ³ÙĦÛĮ
ĠPeace
Ġderived
Ġvariable
ĠNicholas
would
Ø¯ÙĨÛĮ
inction
Ġate
Ġpeasant
Ġsinger
ĠÙ¾Ø§Ø±Ø§Ùħ
ĠParliament
Ø«ÛĮØ±ÛĮ
scape
Ġmidst
ĠÙĦØ·ÙģØ§
ĠØ¢Ù¾Ø§Ø±ØªÙħØ§ÙĨ
ĠÙħÙĨÙģØ¬Ø±
Ġabandoned
ĠDemocratic
Ġintelligent
ns
ÙĨÙģØ³
inian
icip
ØµØ§Ø±
ĠÙħØªØ´Ú©ÙĦ
Ġdiff
ÙĤØ±Ø§Ø±ÛĮ
Ġbadly
Ġwaters
Ù¾Ø§ÛĮØ§ÙĨ
ĠØ±Ø¤ÛĮØ§
ĠØ¨Ø§ÙĩØ§Ø´
Û²Û°Û±Û
ja
ĠÙħÚ©Ø±
ĠØ¢ÙĨÛĮ
Ø§ÙĦÛĮÙĩ
Ø§ÙĦÛĮØ³Ùħ
Ġretired
Ġapartment
ĠÙħÚ©Ø«
Ġofficially
Ġlegisl
ĠØ§Ú©ØªØ´
ØªØµÙħÛĮÙħ
Ġoverwhel
Ø±Ø§ÙĨÙĩ
Ġtent
ito
Ġmouse
ĠØ¨Ø±Ø§ÙĪÙĨ
pted
ĠØ§ØŃØ§Ø·Ùĩ
ĠØ¨Ø§ÙĦØº
ĠØ¢Ø±Ø§ÛĮØ´
Ġsyntax
ĠFederal
ĠFrancisco
ĠØ±Ø¬
eters
ĠÙĤÙĦÙĩ
ĠØ¯ÙĪÚ©
plied
ĠØ§ÙĨØ¬Ø§ÙħØ´
Ġinvisible
ĠÙĨÙħÙĪØ¯ÙĨØ¯
Ġissued
Ġmerch
Ġmissed
Ġsending
ĠEgyptian
Ġphrase
tes
Ø¹Ø§ÙħÙĦ
ĠRoc
ĠÙħØŃØ±Ú©
Ġasks
Ġminister
Ġnecessarily
ĠØ´Ø·Ø±ÙĨØ¬
)"
Alex
ÙħØµ
Ú©Ø§Ø´
Ġwolf
ĠØªØ¹ÙĩØ¯
ĠØ§ÛĮÙĨÚ¯ÙĪÙĨÙĩ
ĠØ¨ÛĮØ§ÛĮÙĨØ¯
ĠØ·Ø¹
Ġtrained
ĠÙħÙĩÙħØªØ±ÛĮÙĨ
Ġargue
ĠÙĪØ§Ø³Ùĩ
ĠØ¨ÙģÙĩÙħØ¯
ÙĪØ¦ÙĦ
26
ÙĪØ¯Ø±
Ø§ÙĦÙħÙĩ
ĠØ¹Ø§ÙĤØ¨Øª
ĠPacific
Ġexceed
Ø¨Ø§Ø³ÛĮ
ĠÛ±Û²Û
Ġprices
ĠâĨ
Ġconfusion
Ġeditor
ĠØ¬ÙĦÙĪØªØ±
ĠÚ¯Ø±ÛĮÙģÛĮØ«
ictionary
Ġdocuments
Ġrecommend
Sam
Ġsne
Ġbatt
achel
ĠCrist
Ø¶ÙħÙĨ
Ġrab
ĠDick
ĠÚ¯Ø±Ø§ÛĮØ´
ĠVe
ĠØ®Ø§Ø±Ø¬Ùĩ
Ġrepresents
ĠØ±Ø§ÛĮÚ¯Ø§ÙĨ
ĠÙĪØ³ÛĮØ¹ÛĮ
ĠØºÙħÚ¯ÛĮÙĨ
ĠRoad
Ret
Ġbeard
ĠØ¢ÙĨØ¬Ø§ÛĮÛĮ
ĠMot
Ġrational
ĠØ¨Ø¯ÙĪ
Ġinstruction
Ġdifferently
ĠQur
ĠAss
ĠÙĪØŃØ´ØªÙĨØ§Ú©ÛĮ
ĠØ±ÙħØ²ÛĮ
ĠIvanovna
ĠÚ©Ø§ÙĪØ´
Ġacquaintance
ĠØ³ÙĪØ³ÛĮØ§ÙĦ
bell
wa
Ø¨Ø³ØªÚ¯ÛĮ
Ġinev
Ø¢ÙĦÛĮ
uns
ĠHoly
Ġloving
ĠØ¨Ø§Ø²Ø§Ø±ÛĮ
aki
ĠÙħØŃØªÙĪ
Ġadults
Ø§ÙħÛĮÙĩ
Ø£ÙĦÙĩ
gging
ĠÙħØ±Ø®Øµ
ĠØ®ÙĪØ§Ø³ØªØ§Ø±
ĠØ¯ÙģÙĨ
Ġopposed
Ġnormally
ĠBooks
Ġdreadful
ĠØ§Ú©ÙĪ
ĠØ¯Ø§ÙĦ
ĠØ³ÙĪØ³
uten
ĠAth
ÙĦØ§Ú¯
ØºØ§ÙĦÛĮ
ĠØ¬Ø²ÙĪ
Ġmonitor
ĠÚ©Ø´ÛĮØ¯ÙĨØ¯
Ġexcuse
ĠFlor
Ġcharming
Ġintellectual
Ã±
Ġdared
Ø§Ø¯Ø§Ø±ÛĮ
ĠMax
olars
Ø§ÙĤØ¯
ÙĨÛĮÙ¾
ĠÙħØ¹Ø§Ø´
ĠÙħØ±Ø¯ÙħØ§ÙĨ
ĠØ§ÙĦØ¢ÙĨ
Ø²ÛĮØª
ĠØ±ÙĪØ´ÙĨÛĮ
Ġdelivered
ĠÙħØ§ÙĨØ¯ÙĨØ¯
Ġtests
Ġrecognition
Ġattempted
ĠØºÙĦØ¨Ùĩ
ĠTechnology
Ø§Úĺ
ĠÙħÚĨ
ÙĦØ±ÛĮ
Ġlone
Ġlord
ĠÙħÙĨØ²
ØªÛĮÙĪ
olves
alling
Ġfled
Ø¨Ø®Ø´Ø¯
Ġcomplexity
III
ĠØ¨ÙĪØ³Ùĩ
Ġinformed
44
Res
Sir
VD
Ġsadd
ĠØ¢ÙĩÛĮ
urther
ĠÙħÙĨÙħ
ardens
Ġowners
Ġdecade
195
ĠØ¨Ø§ÙĨÙĪÛĮ
Ġcommander
Ġimmediate
Ø§Ø«
ĠÚ©Ø§ÙĨØ¯
ĠØ¯Ø±ÙĪÛĮØ´
ĠÛĮØ³
Ġreaching
ĠØµØ±ÛĮØŃ
ĠGould
Which
Ġflung
ÙģØ±ÛĮØ§Ø¯
Ġinvolve
Ġmechanical
ĠÚ¯Ø´ÙĪØ¯Ùĩ
Ġtissue
ĠÙĪÛĮØªÙĨØ§Ùħ
zz
Ø±Ø¦ÛĮ
Ø§ÛĮÙĨÙĩØ§
ĠTal
ĠØ¨ÙĦØ¯
ĠØ¯Ø´ÙĪØ§Ø±ÛĮ
ĠTurks
Ġliberty
Ġvulner
Ġgrateful
rations
Ø§Ø°
ĠÙĨØ±ÙģØªÙĩ
acious
ĠÙĤØ§Ø±
umps
ĠGames
Ġprepar
ĠØ§ÙĪÙĦÙĪÛĮØª
ĠArts
ĠÛ±Û¹Û¹Û¸
Ġtypical
ĠÚĨØ§Ø±ÚĨÙĪØ¨
piration
ĠØ¹Ø°Ø±
ĠAlexandrovitch
ĠÛĮÚ©Ù¾Ø§Ø±ÚĨÙĩ
Barb
asingly
ĠDec
ĠÙĨÙĤØ§Ø´
ĠØ§Ø±Ø«
ollowing
Ġbiology
Ú©Ø´ÛĮØ´
Ġcapture
ĠÙģØ§Ø¬Ø¹Ùĩ
kward
Ø±ÙĪÛĮÙħ
irs
Ø§Ø²ÙĨ
Ġven
ardon
ĠJones
ĠOut
Ġanymore
ĠØ¨Ø±Ø¯Ùħ
ĠØ¨ÙĦÙĨØ¯ØªØ±
ĠÙĨÙĪØ²Ø¯ÙĩÙħ
ĠÙħØ±Ø§Ø¬Ø¹Ùĩ
Ġcigare
ĠØ³Ø±Ø§Ø²ÛĮØ±
ĠØ§Ø¯Ø§Ø±ÛĮ
ĠÙĦÛĮØ¨Ø±
ĠAsian
Ġvalley
ĠÃĹ
ĠCrawford
BI
ÙħÚ¯ÛĮ
ĠÙģØ±Ø´ØªÙĩ
ĠEduc
ĠØºØµÙĩ
ĠÙħÙĤØµÙĪØ¯
ĠArthur
Ġexplore
Ġfalls
Ġinitially
ÙħÛĮØ§ÙĨÙĩ
ĠIBM
ĠÙĤØ§ØªÙĦ
ØªØ±Ùĩ
Ġshore
Ġdiscipl
evitch
ĠØ³Ø§ÙĨØªÛĮ
Ġimplementation
ĠÙħØ·ÙħØ¦ÙĨÙħ
Ø§Ø±ÛĮÙĨ
Ġhob
ĠØ¢ØªÙĦØ§ÙĨ
ĠØ§ÙĨØ²
ĠRam
Ġcompound
ØªÙĪØ§ÙĨØ³ØªÛĮÙħ
Ġfiles
Ġinfl
Ġexciting
ĠØ±ÙģØ¹
Ġweakness
07
PR
Sure
cr
ĠÙħÚ©Øª
ĠÙħÛĮØªÙĪÙĨÙĩ
ĠÛĮØ§ÙĨ
Ġvig
Ø´ÙħÙĨØ¯
ĠÙħØ³Ø§ØŃØª
Ġinstantly
ĠÛ³Û°Û°
enny
ĠÚ©Ø±ÛĮØ³ÙħØ³
Ġpolicies
Ġcustomers
Ġconsequences
Ġultimately
Out
Ã¢
ÙģÙĪÙĨ
arling
Ġlamp
ĠÙģØ±Ø·
ĠØªØ±ÙĨ
Ġbub
ĠØ§Ø±ØªÙĤØ§
ĠØµÙģØŃØ§Øª
ĠØ¶Ø±ÙĪØ±Øª
ĠÚ©Ø§Ø²ÙĪØ¨ÙĨ
ĠØ´ÛĮÚ©Ø§Ú¯ÙĪ
ĠØµØ¯ÙħÙĩ
ĠØªØ±Ø§Ùģ
ĠØ´ØªØ§
ØªÙħØ§Ø³
Ġbenefits
ÙģØ±ÙĪØ¯ÙĪ
ĠJesus
ÙħÚ©
Ú©ÙĢÙĩ
ĠÙģØ§ÙĤØ¯
ÙĪÛĮØ³Ùħ
ĠÙħÙĨØ¹
ĠØ±ÙĪØ§ÛĮØª
ĠDam
icted
ĠØ§Ø¯ØºØ§Ùħ
ĠÙĨÙģÙĩÙħ
ĠShannon
cription
Ġwaist
ĠÛ±Û¹Û¹Û¹
ĠBelg
Ġdebate
ĠØ§Ú©Ø³ÛĮØ¯
ĠØªØ¹Ø·ÛĮÙĦØ§Øª
pers
ĠØ¨Ø±ÛĮØ¯
ĠØ¨Ø±ÙĪÙĨ
ĠRen
ĠÙģØ±ÙĪØ±
ĠØªÙħØ¬ÛĮØ¯
ĠØªÙĤØµÛĮØ±
ĠØ±ÛĮÙĩ
ĠÙ¾Ø§ÙĩØ§ÛĮØ´
Ø¨Ø¹ÙĦØ§ÙĪÙĩ
Ġdiplom
Ġofficials
Ġprincipal
audi
Next
ĠØ¬Ø§Ø¯ÙĪÚ¯Ø±
ĠVietnam
ĠØ§ÚĨ
Ġoh
ĠØªÙĨÛĮ
Ø¯Ø±ÙĪÛĮØ´
Ġsugar
ĠFair
Ġdish
ĠÙħØ¯Ø§ÙģØ¹
Ġimpress
ĠØ§ÙģØ³Ø±Ø¯Ùĩ
ÙĦØ§ÙĨØ¯ÙĪ
ĠØ§Ø±Ú©
Ġwars
ÙģØ§ÙĨÛĮ
ĠØ´Ø±Ú©
ÙĪÛĮØ¬
ĠCro
ĠTra
Ø¨Ø±Ùħ
ĠHagrid
Ġupset
azar
ĠConst
ĠÚ©Ø´ØªØ§Ø±
ĠÙħØ¶Ø·Ø±Ø¨
ĠÙĨØ§Ø¯Ø±Ø³Øª
Emma
49
Ġdining
ØŃØ´
ĠÚ¯ÙĦÙĪ
ĠÙĦØ¨Ø§ÙĨ
ĠØ§ÛĮØ§Ùħ
avig
ĠÚ¯Ø°Ø§Ø±Ø¯
Ġacceler
Ġhelps
Ġfinds
ĠÙĨÛĮØ§Ø²ÙĩØ§ÛĮ
ĠØ¨Ú¯Ø°Ø§Ø±ÛĮÙħ
Ø§ÙģØ±Ø§Ø¯
ĠØŃÙĪØ§ÙĦÛĮ
ĠØ§Ø°ÛĮØª
ĠÙħÙĪØ§Ø¸Ø¨
Ú©Ø§Ø³ÛĮ
ĠØ¨ÙħØ§ÙĨÙĨØ¯
Ø§ÛĮØ§ÛĮ
ÙģÙĪÛĮ
erate
ĠØŃÙĪØµÙĦÙĩ
ĠAge
ĠÚ¯ÙģØªØ§Ø±
ĠØªØ¹ÙħÛĮØ±
ĠØ§Ø¹Ø±Ø§Ø¨
iki
Ġprovin
ĠÛ±Û¹Û¹Ûµ
Ġargued
ĠÚ©Ø§ØºØ°ÛĮ
Ġspecifically
making
Ġpist
ĠØ®ÙĪÙĨÛĮ
ĠØŃØ§ÙħÙĦ
aco
ĠØ¹Ø¬Ø¨
ÙĪÙĦØ§ÙĨ
ĠBah
eman
ĠÚ¯ÙģØªÚ¯ÙĪÛĮ
ĠLarry
Ġbrings
Ġexpans
ĠMaria
ĠÙĪÛĮØ±Ø§ÙĨ
Ø§Ø¯ÙĪØ§Ø±Ø¯
Ġemployed
ĠØ¯Ø§Ø¦ÙħØ§
Ġnearer
ĠGeorgia
des
ä¸
Ø³ÙħØ§ÙĨ
igration
ÙģØ±Ø¶
ÙĬØ§
Ú¯Ø°Ø±Ø§ÙĨØ¯
ĠÙĤØ·Ø±
Ġcondem
ni
agg
ĠÙĤØ±ÙĪÙĨ
ĠØ´ÙĨØ§Ø®ØªÛĮ
ĠÙĨÙĤØ¶
Ġsche
ĠØ¯ÙĨÛĮØ§ÛĮÛĮ
Ġcorrid
cerning
Ġmagnetic
ĠØ§ØªÙħØ§Ùħ
ĠØªØ§Ú©
ĠÙĨÛĮØ§ÙĪØ±Ø¯
Ġgenerate
Ġawkward
Ġsettle
ĠØ´Ø¬Ø§Ø¹Øª
Ġassem
ĠArkady
itzerland
DL
UN
ĠØ¹Ø«
Ø´Ø¯ÙĨ
emp
Ġsheet
ĠÙħØŃØ±
ĠKitty
ĠÙĩØ§Ú¯
Ġentering
Ġ1988
Ġabsurd
ĠØ´ÛĮØ±ÛĮÙĨÛĮ
Something
Ġconstitution
ĠØ¨ÙģÙĩÙħÛĮÙħ
ĠPetersburg
ĠÙ¾ØªØ§ÙĨØ³ÛĮÙĦ
lan
ĠBern
osure
ĠGre
Ġteen
Ġ1945
Ġpaying
Ġescaped
ĠIsraeli
Ġessentially
ĠØ¨ÛĮÙĨØ¯Ø§Ø²Ø¯
Ø¢ÙħÙĪØ²Ø§ÙĨ
Ġfulf
orr
ĠAgency
ĠØ§ÙĨÛĮ
Ġserving
ĠØŃØ³ÛĮÙĨ
Ġproducing
ĠMeg
ÙħØ´Ú©ÙĦ
ĠØ§ØµÙĦØ§ØŃØ§Øª
Ġtables
ĠÙħÛĮÚ©ÙĨÙĨ
orus
ĠØ±ÙĪØ¨Ø§Øª
aga
ĠÚ©Ø§Ø±Ú¯Ø§Ùĩ
Ġouter
ÙĥÙĨ
Ġsilk
ĠÙĩÙĨØ¯ÙĪ
ÙĤØ§ÙĨÙĪÙĨÛĮ
ĠÙħØ°Ø§Ú©Ø±Ùĩ
ĠAR
ĠØªØ¹ÙĦÛĮÙħ
Ġconscience
ĠØ¢Ø±Úĺ
Ġslee
Ġexception
ture
ystem
ĠÙ¾Ø°ÛĮØ±ÛĮ
ØµÛĮÙĦÛĮ
ÙĪÙĦØ§ÛĮ
ĠØµØ§ØŃ
ĠØ§ÛĮÚ©Ø³
Ġgranted
Ġà®
36
DE
coh
onom
ĠØ²Ø§Ø¯
ĠMur
ĠÙ¾ÛĮØ´Ú¯ÛĮØ±ÛĮ
ĠZeal
Ġsounded
Ġconnections
Ġlinked
Ġprivile
anglars
Ø¦ÙĪØ±ÙĦÛĮØ§ÙĨÙĪ
real
ĠÙĨÙħØ§
ĠÙģÛĮÙĨ
ĠIATA
ammed
ĠÙħÙĨØ¹Ú©Ø³
ĠMaster
about
Ø§ÙĤØ¨
Ġjail
Ġadj
Ġcontaining
ĠChampionship
ĠÙģÛĮÙĦØªØ±
Ġprominent
ĠØ¯ÛĮÙĪØ§Ø±ÙĩØ§ÛĮ
Ġcandle
Ġgravity
Ġacademic
Had
Ġcogn
ÚĨØ±
roll
ĠØ¨ÛĮÙĦÛĮ
ĠDark
ĠFire
ĠJon
ĠJava
looking
ĠCarol
ĠÙħØ§Ø¯Ø±ÛĮ
ÙĨÙĪÛĮØ³Ø¯
Ġbrave
Rem
Ú©ÙĪØª
Ġbasket
ĠØ³Ø§Ø²Ùĩ
stan
ĠSanta
Ø°ÙĦ
asted
pled
ĠØ³ÙĪØ¦ÛĮØ³
ØªØ§Úĺ
Ġelectro
ĠÙħØ´Ø®ØµÛĮ
Ġ1940
Ġstatistics
Ġportion
Ġaccounts
Ġinfluenced
ĠØªÛĮØ±Ø§ÙĨØ¯Ø§Ø²ÛĮ
Ġbelonged
ĠØ§Ø³Ú©Ø§ØªÙĦÙĨØ¯
epend
greg
imens
ĠAz
ĠMah
Ġdeeper
ĠÙģØ±Ø¶ÛĮÙĩ
ĠØ±ÙĪØ²ÙħØ±Ùĩ
Ġprecious
Ġremove
Ġblocks
Ġcontinues
Ġjudgment
ĠØ¨ÙĪØ³ÛĮØ¯
ĠÙħØ¨ÙĩÙĪØª
Ġfolk
Ġconcluded
ĠØ§ÙĪØ§Ø³Ø·
Ġbowed
Ġgreet
Ø·ÙĪ
ĠÙħÙĪØ²
ĠÙĩØ±Ú©Ø³
Ġupstairs
inder
ĠØ¬ÙĩØ´
ĠØ§ÙģØ²Ø§Ø±
Therefore
Ġinsult
Ġeconomics
Ġengineer
Ġcommunicate
Ġpreferred
Ġunusual
krain
Ġcave
Ġplenty
Ġpermission
ĠØ¨Ø²Ø±Ú¯Ø³Ø§ÙĦ
ĠØ§Ø¨ÙĦÙĩ
ĠØªØ§ÙħÛĮÙĨ
ĠØ³ÙĦØ·ÙĨØª
ĠGandalf
Ġsacrifice
ĠZealand
ĠÙħÛĮÙħÙĪÙĨ
ĠWall
ĠØ³Ø§Ú©ÙĨØ§ÙĨ
ĠAlice
Ġdestruction
ĠØ§ÙĨÚ¯Ø´ØªØ§ÙĨ
Ġï¼
Ġneurons
strode
PL
Ġbom
ĠÚĨØ§Ùĩ
ĠÙħÙĪØ§Ø±Ø¯ÛĮ
ĠBu
ĠDa
ĠÚ¯ÙĪÛĮØ§
Ġhydrogen
TA
ØĮ
Ġupd
ĠVillefort
Ġovercome
awa
Ġcolour
ĠÙħØµÛĮ
nape
Ġlessons
ĠØ¨ÙĪØ¦
Ġ1968
ĠØªØ®ÛĮÙĦ
ĠØ¬ÙĨØ³ÛĮØª
Ġrarely
Right
Ø²Ø¨ÙĪØ±Ú¯
Ġsou
ÙģØ§Ø±
ĠÚ¯ÙĪÙĦ
ĠBell
ĠTay
ĠField
ĠÚ©ÙħØ±
ĠØ®ÛĮØ§Ø¨
Ġdefine
Ġ1987
Ġfortun
Ġresource
Ġconclusion
ĠGriffiths
since
ÙħØ³Øª
inity
Ø§Ø±Ø¯ÛĮÙĩ
Ġcensus
Ġment
Ġinsect
ĠØºÙĨÛĮ
Ġpointing
Ġtreasure
Ġcontrovers
Ġattempts
Ġpunishment
Ġchallenges
Ġtu
ĠMir
Ġselling
ĠJun
Ġresolved
ĠStat
ĠØ§Ø¨Ø¹Ø§Ø¯
ĠÙģÙĦØ²ÛĮ
ĠÙħÙģØ§ÙĩÛĮÙħ
Û±Û¹Û¹Û
ĠÙħØ¯ÛĮØ±Ø§ÙĨ
ĠØ¯Ø§Ø¦Ùħ
ĠTwitter
Ġterritory
Ġefficiency
Ġinhabitants
Ġta
Ġwound
oric
rily
rive
ĠPy
Ġrural
eline
Ġsimult
Ġ185
ĠÙħØªÙģÚ©Ø±
ĠPlay
Ġpurposes
ĠØªØ§ÛĮÙħØ²
Ø±ÙĩØ§
ĠØ±ÙĨ
Ġhiding
ĠØ¯Ø±Ø§Ùħ
Ġmud
arant
ĠØ³Ø§Ø±
Ġnaked
umin
Ġrage
Ġvic
ideos
Ø§Ú©ÙĪ
angle
ĠØªØŃÙĪÙĦ
ĠØ¯Ø§ÙĨØ´Ø¬ÙĪ
Ġregist
ĠÙģØ±ÙħØ§ÙĨØ±ÙĪ
Ø§ÛĮØ³ØªØ§Ø¯
ĠBlue
Ġconsiderable
Ġethnic
ĠØ¹ÙħÙĪÙħØ§
ĠØ¢ÙħÙĪØ®ØªÙĩ
garet
ĠÙħØ²Ø§Ø±
Ġpow
Ø§ÙĦØ§
ĠØ§Ø³ØªØ±ÛĮ
ĠMoh
ulating
ÙĢÙĢ
ÛĮÚ©Ø³
ÙĪÙĨØ¯Ø±Ø§
ØªØ§Ø¬
ĠÙħÙĦØ§ÙĨÛĮ
Ø¯Ø§Ø´ØªÙĨØ¯
Ġexpert
Ġpositions
ĠØ¹Ø¶ÙĪÛĮØª
ĠØ¢ÙĪØ±ÙĨØ¯
Ġvisitors
Ġhospit
Ġadventure
ĠØ¯Ú©ÙħÙĩ
ĠÙħÙĨØ¯
Ø§ÙĨØ³Ø§ÙĨ
Ġcord
Ġbon
ĠÙ¾ÙĨØ¯
ilib
ĠÙħØ¹Ú©ÙĪØ³
ĠÙħØ±Ø¯Ø§ÙĨÙĩ
ĠLeban
ĠØªØ§Ø¨Ø´
Ġvirtual
ĠKorean
ĠÚĨØ³Ø¨ÛĮØ¯Ùĩ
Ġgods
Bab
aver
ĠØ¨Ø±ÙĪÚ©
ĠØ²Ø¨Ø§ÙĦÙĩ
ĠØ¯ÙĪØ²
ĠØ¯ÛĮÙĪØ§Ø±ÛĮ
rub
ĠØ¹ÙħÙĦØ§
ĠVin
ĠÙĨÛĮÙĪØ²
Ġexplo
Ġtransp
ĠÙħÚ©Ø§ÙĨÛĮÚ©ÛĮ
ÙħÙĪÙĤØ¹
":
high
Ġwretched
Ø®ÙĪÙĨÙĩ
Ġstraw
ĠMess
ĠBattle
Ø¨Ø±Ùĩ
ĠÛ±Û´Û
Ġknee
ĠÙħØ³Ú©ÙĨ
ĠÙħØ³ÙĦÙħ
ĠØ³Ø§Ø¹Ø§Øª
ĠØŃØ³Ø§Ø³ÛĮ
ĠØŃÛĮØ«
Ġwarning
ĠØ§ÙħÚ©Ø§ÙĨØ§Øª
Ø®ÙĪØ¯Ùħ
Ġmisery
Ġneighbors
Ġacquired
Ġopportunities
ĠØ¹Ø±Ø¨Ø³ØªØ§ÙĨ
Ġearnest
ĠÙĨÚ¯Ø°Ø§Ø´Øª
Ġrent
ĠBre
ÙħÙĨØ§Ú©
ĠÙĤØ±Øµ
Ġunion
Ġfeared
ĠØ¨ÙĨØ´ÛĮÙĨØ¯
Ġcheap
ĠØ§Ø¨Ø¯
ÙħØ¬ÙħÙĪØ¹Ùĩ
don
ĠÙ¾ÙĪØ²
ĠØ¨Ø±ØªØ±ÛĮ
Ġstored
ĠTok
ÛĮÙĦØ¯
ogen
ĠOs
ĠØ§ÙģÙĤ
ĠÙĩÙĪØ§Ù¾ÛĮÙħØ§ÛĮ
Ġglasses
Ġconcerns
ĠÙĨØ§Ø®Ø¯Ø§
rad
âĢľ
ÙģÙĪ
ĠØ´Ø³Øª
ĠDi
igan
ĠEN
ĠÙģÛĮÙĦÙħÛĮ
comm
ĠØ³Ø§Ø²ÙħØ§ÙĨØ¯ÙĩÛĮ
ĠÛ±Û¹Û¹Û¶
Ġdescribes
Ġdivor
Ġintroduction
Ġworthy
ĠÙħÙĩÙħØ§ÙĨØ®Ø§ÙĨÙĩ
ĠØ¨ÙĪÙĦØ³Øª
ĠÙĩÙħØ§ÙĩÙĨÚ¯ÛĮ
ØŃÙĤÛĮÙĤØª
AA
rot
Ø¨Ø³ØªÙĩ
Ġinex
ĠÚĨØ§ÙĨÙĩ
Ġrac
Ġsmoking
ĠÚ¯Ø±Ø¯Ø§ÙĨØ¯
obody
ĠØ¬Ø§Ø¦ÛĮ
ĠØªØ§Ø¨Ø³ØªØ§ÙĨÛĮ
ĠØ¨Ø§ÙĨÙĪ
Ġcausing
ĠØ³Ø§ØŃÙĦÛĮ
Ġfirmly
ĠSwedish
Ġsample
ĠØ¹ÙĦØ§ÙĤÙħÙĨØ¯
Fl
Ġdiet
ĠÙĤÙĪØª
ĠDou
Ġinsisted
Ġopposition
Ġsooner
ĠØ¨Ø±Ø³ÛĮÙħ
related
Ġmounted
Ġprayer
Ġwishes
ĠÙħØŃØªØ±Ùħ
ĠÙħØ¯Ø§Ø®ÙĦÙĩ
Ø§Ø¶ÛĮ
ĠØ¢ÙĦÙģ
Ø¬ÛĮÙħ
ĠâĢł
ĠRh
ĠÙħØ³Ø£ÙĦÙĩ
were
Ġserver
Ġrecover
Ġraising
ĠAllah
Ġbirthday
ĠÙĨÚ¯ÙģØªÙĩ
ĠÙħØŃÙĤÙĤ
Hist
col
pat
ĠÚ©Ø±ÙĪÙħ
ĠÙĪØ·ÙĨ
stra
ĠÚĨÙĦ
idering
ĠAN
Ġleaf
Ġformation
Ø³ÙĪØ®Øª
Ġwisdom
ÙĨØ§ØªØ§Ø´Ø§
ĠÙ¾ÛĮØ¯Ø§ÛĮØ´
Ġabstract
Ġcash
urday
ĠBet
Ġjoke
ÙĨØ§Ø¹
ansas
ĠÛĮØ§Ø¯Ø´
Ø±Ø³ÛĮØ¯ÙĨØ¯
Ġskill
ĠØ®ÙĪØ±Ø§Ú©
ĠÛ±Û¹Û¹Û²
Ġobserve
Ġsalt
Ġcouncil
Ġpossessed
Among
Ġhunger
ĠAriza
Ġcircuit
ĠNASA
ĠØªØ±Ø§ÙģÛĮÚ©
Ġcure
ĠØ²Ùĩ
ĠAlyosha
andal
Ġlip
ĠRom
ĠTony
Ġchairs
inton
ĠÚ¯Ø±Ø¯Ø§ÙĨ
Ġrefuse
Ġdrift
ĠÚĨØ±Ø®Ø´
Ġradiation
ĠÙĨÚ¯Ø±ÙģØªÙĩ
ĠØ¯ÙĪØ³ØªØ§ÙĨØ´
Ġdomain
ÙģÛĮÙĦØ¯
ĠÙħØŃØªÙĪÛĮ
Ġsatellite
ĠPhilosophy
Ġpermanent
ĠØ¬Ø§Ø°Ø¨Ùĩ
mony
nds
Ø®Ùħ
ĠÛĮÛĮ
ĠØ¨Ø±ÙĤÛĮ
ĠBase
ĠâĢį
osom
Think
ĠUnder
ĠØ¯ÙĦØ§Ø±ÛĮ
ĠØ¯Ø§ÙĨÛĮØ¯
Ġlasted
ĠDev
ĠØ§ÙħØ±ÛĮÚ©Ø§
Ġuncomfort
ouri
ĠØ®Ø±Ùħ
Ø·ØŃ
ĠÛĮÚ©Ø¨Ø§Ø±Ùĩ
ĠMuhammad
ĠØ®ÙĪØ§Ø±
operation
ĠØ¯ÙĪØ±Ø¯Ø³Øª
ĠLes
ĠØ§ÛĮÙģØ§
ĠØªÙĨÙģØ³
ĠÙĨØ§ÙħÛĮ
ĠÙ¾Ø§ÛĮØ§ÙĨÛĮ
Ġindign
ĠØªÙĪØ§ÙĨÙħ
ĠØ§Ø¨Ø¯ÛĮ
ĠGuard
Ø¨Ú¯Ø°Ø§Ø±ÛĮØ¯
cyclopedia
ipt
Ġcraw
Ġoffe
ĠØ³ÙĪØª
ĠMas
Ø¨Ø§ÙĪØ±
aka
ĠØºØ¨Ø§Ø±
ĠØ³ÙĪØ®ØªÙĩ
ĠØªÙĪØ§ÙĨØ³ØªÙħ
ĠØªØ£Ø®ÛĮØ±
ĠÚ¯ÙĪØ§ÙĩÛĮ
Ġvolunte
ĠØ®Ø§ÙĪØ±ÙħÛĮØ§ÙĨÙĩ
ĠÙħØ¹Ø¬Ø²Ùĩ
mers
Ġwing
Ġtower
asley
ĠØŃÙģØ±Ùĩ
Ø§ØªØ§ÙĤ
ĠØ³Ø±Ø´ÙħØ§Ø±ÛĮ
Ġpool
Ġdistract
Ġ75
Ġtowns
Ġenjoyed
ĠØªØ¨ÙĦÛĮØºØ§Øª
ĠØ¨Ø±Ø§ÙĬ
Ġrailway
Ġensure
Ø²ÛĮÙħ
isa
itate
Ø§Ø¯Ø´
ami
ĠGh
ĠÙħØªÙħØ§ÛĮØ²
Ø¨ÙĪØ¯ÙĨØ¯
Ú©Ø³ÙĪÙĨ
Ġequation
zech
ÙĪÙĦÙĪÚĺÛĮÚ©ÛĮ
ĠÛ³Û±
ĠÙĨØ§ØªÙĪØ§ÙĨ
Ġinnovation
Tube
ĠId
ĠAI
ĠBag
aubon
Ġreputation
Ġemerged
ĠØ³ÙĪØ²Ø§ÙĨ
ĠKhan
ĠØ§Ø¯ÙħÙĪÙĨØ¯
friend
kind
made
Ú©Ø´Ùħ
herent
Ġrein
ĠÙĦÙħ
Ġpeas
atern
ften
Ġwanting
ÙģÛĮÙģ
Ġassert
Ġ1982
unicipal
Ġgrandmother
ĠØ¨Ù¾Ø±Ø¯Ø§Ø²Ø¯
ĠØ¯ÙħÙĪÚ©Ø±Ø§ØªÛĮÚ©
ĠØ¨Øº
ĠØ±Ø¨
ĠÛĮÙĤÙĩ
ĠSand
ĠAer
chin
ĠØ¨ÛĮØ§Ø¨
ĠØ¯ÛĮÙ¾
abled
ĠHy
ĠÙħØ¹Ø§Ø¯ÙĦÙĩ
Ø±Ø³ÛĮÙħ
ĠÙĩÛĮØª
Ġrecon
ĠÙħÙĦØ§ÛĮ
Ġgenerations
until
ĠÙ¾ÙĩÙĦÙĪ
Ġsuspect
Ġliberal
ĠØ§Ø¯Ø±Ø§Ú©
Ġaccompanied
rating
Ġpace
ĠBox
ĠØªÙĪØ§Ø¨Ø¹
ĠØºØ§ÙĦØ¨
ĠØ±Ø³Ø§ÙĨØ¯Ùĩ
Ġperpet
ĠØ¬Ø§ÙĨØ¨ÛĮ
ĠØ§ÙĨØ¯Ø§Ø®ØªÙĨ
Ġprofile
ĠÙħØ¹ÙĨÙĪÛĮ
ĠØ¨ÙģÙĩÙħÙħ
Prince
TER
Ø±Ø¦ÛĮØ³
leys
vet
Ġuseless
Ġdebt
ĠHung
ĠEth
Ġjew
Ġroots
ĠØ²ÙĨØ¯Ú¯ÛĮÙħ
Ġreflected
Ġlinear
ĠÙ¾ÙĪØ´Ø§ÙĨØ¯Ùĩ
Ġprecisely
Ø®ÙĦØ§ØµÙĩ
Fe
Ñĥ
atar
rium
Ġcomr
aux
Ġshed
ĠØºØ¶
fulness
ĠØ§ÛĮØ±Ø§Ø¯
Ġestate
ĠSwitzerland
Ġimmense
Ġimproved
Ġfemin
Ġwelcome
.:
ĠØ§Úĺ
Ġwings
Ġham
ĠØ§Ø³ØªÙĪØ§Ø±
ĠJordan
ĠØ§ÙĦÙĨ
bler
Ġinterface
Ø¨Ø¹Ø¯ÙĩØ§
ĠHeaven
Ġreceiving
Does
top
ĠØ¨Ø¨Ø±ÛĮÙħ
ĠÙĨØ¨Ø§Ø´
ĠÙĤÙĪØ§
ĠMitya
Ġabrupt
Ġ1920
ĠKu
Ġ1979
ĠØ¨Ø±Ø³ÙĨØ¯
Without
ĠÛ±Û¸Û¹Û
ĠGuide
Ġcolleagues
ĠÙħØŃÙĤÙĤØ§ÙĨ
Ġinstrument
Ġmurmured
Iran
held
Ġaer
Ġnonsense
ĠÚĨÛĮØ±Ùĩ
ĠCY
ĠÙħÙĪØ²ÛĮÚ©
ĠEug
load
ĠÙĨØ§ÚĨÛĮØ²
ÙĥÙĩ
Ġkeeps
âĢĮØŁ
Ġdoub
ĠØ³Ú©ÙĪÙĨØª
Ġinvolves
attering
Ġfoolish
ĠMelanie
Ġrefugees
ĠØªÙĪØ¬ÛĮÙĩ
Yeah
Ġtur
ĠØŃØ¯ÙĪØ¯ÛĮ
ĠÙģØ¹ÙĦØ§
Ġcreates
ĠÙħØ³ÙĦÙħØ§
66
ĠØ¨Ø´ÙĪÙĨØ¯
Ø´Ø´
Ø§ÛĮØªÛĮ
ĠÙĨÙĩØ§ÛĮØªØ§
ĠØ²Ø§ÛĮ
ÙħÛĮØ§ÙĨ
Ġstations
agine
ogue
Ø§Ø·ÙĦØ§
Ġpreced
Ú¯Ø±Ø¯Ùħ
aze
ĠØ¬Ø§ÙĨÙĪØ±
ĠÙħØ®ØªØµØ±
ĠØ§ÙģØªØ§Ø¯Ùħ
ĠIndust
ĠÙĦØ§Ø§ÙĤÙĦ
Ġparallel
ĠÙĩÙģØªÙħ
ĠAlexey
Ġformerly
ĠØ¬Ø³ÙħÛĮ
ĠÙħÙħÙĨÙĪÙĨ
Ø±ÙĤØµ
ĠÙħØ·ÙĦØ¹
ĠÙ¾Ø±ÙĩÛĮØ²
ĠÙħÛĮØ±Ø§Ø«
pa
Ø³Ø§Ø¨
iner
Ù¾ÙĪØ±
Ġsob
ĠStation
Ġactress
ÙħØ¯ØªÛĮ
Ġsynd
ĠÙģØ±ÙħØ§ÙĨØ¯ÙĩÛĮ
ĠÛ³Ûµ
ĠØ±ÙĪØ³ØªØ§ÛĮ
ĠWinter
ĠÙĪÛĮØ¯Ø¦ÙĪÛĮÛĮ
ĠNetherlands
Ø±Ø§Ø²
Ø²Ø¯Ùħ
Ġbunch
ĠMach
inson
Ġassociation
Ġemployees
Ġincorpor
Ġsocieties
Ġghost
ĠÙģÙĨØ¬Ø§ÙĨ
imal
ĠCare
olen
Ø§Ø´ÙĪÙĨ
ĠÙĨÛĮØª
Ġconsent
ĠØ³Ø¨Ø²ÛĮ
Ġapproaching
Ø³Ø§Ø²ÙħØ§ÙĨ
ĠÙħØ±ÛĮØ®
ĠÙħØ¹ØªÙĤØ¯Ùħ
quarters
Mean
fly
mo
ÙħÙĦÛĮ
ati
ĠÙĨØªÙĪØ§ÙĨØ³ØªÙĩ
ĠØªÙĦØ³
anz
ĠØ¢Ú¯ÙĪØ³Øª
Ø®ÙĪÙĨ
ĠØ®ÛĮØ²
Ø±Ø§Ø¶
ĠØªÙĪÙħØ§Ø³
una
Ġchin
Ġarts
ĠØ¯Ø§ÙĨØ³ØªÙĩ
grad
ĠÙĪÛĮØ±Ø§ÛĮØ´
ĠØ§ÙĪØ±Ø§ÙĤ
ÙħÙĪØ¶ÙĪØ¹
Pierre
Ġsed
ĠÙħÛĮØ¯Ø§ÙĨØ³Øª
icus
Ġbeach
Ø§Ø±ÛĮØ§
Ġshining
ĠDumbledore
ĠUncle
ĠÙ¾Ø³Ø±Ø§ÙĨ
ĠÙħÚ©Ø§ÙĨÛĮÚ©
Scarlett
ĠØ¯ÙĪÛĮØ³Øª
Ġfurniture
ĠÙħØ¹ØªØ¨Ø±
Õ¡Õ
Ø¯ÙĦÙħ
Ġped
Ġislands
ĠHind
0000
rying
Ġfee
Ġprime
Ġscared
Ġattent
ĠÛ²Û°Û±Û¸
ĠØŃÛĮÙĪØ§ÙĨÛĮ
Ġfellows
Ġ1975
Ġsurely
Ġwinning
ÙĪØ¬ÙĪØ¯
Ġtact
Ġsilly
ĠØ¨ÙĩØ´ÙĪÙĨ
Ġconven
ĠÙ¾ÛĮØºØ§Ùħ
ĠTour
Ø®ÙĪØ§ÙĩØ´
ĠØ§Ø´Ø¹Ùĩ
ĠØ¢Ø²ÙħØ§ÛĮØ´ÛĮ
Ġlands
print
Ġuttered
ĠISO
Ġleaning
ĠØ¨Ø±Ú¯Ø²Ø§Ø±ÛĮ
ĠCristo
Barbus
Ã£
ĠØ§Ø¯Ø§ÛĮ
Ø³ÙĪÛĮ
Ġsank
ĠØ¨ÙĩØªÙĪÙĨ
ØµÙĪØ±
agin
ĠØ¯Ø§Ø±ÙĪÙĩØ§ÛĮ
Ġsofa
ĠFern
ĠØ§ÛĮÙħÛĮÙĦ
ĠØªØ±Ø´
ĠÙĨØ³Ø¨ÛĮ
Ġgenius
Ġdefense
Ġdeaths
ĠØ¨Ø±Ú¯Ø´ØªÙħ
ĠØ¨Ø¯Ø§ÙĨÙĨØ¯
Ġphoto
Everyone
Ø§ÙģØ²Ø§Ø±ÛĮ
ĠOlympic
Ġbench
ĠØ¢ÙĨØ¬ÙĦØ³
Ġappropriate
bus
Ø§ÛĮØ¬Ø§ÙĨ
irts
ÚĺÛĮÙĨ
Ú¯Ø°Ø±
ĠØ²ÙĨØ¯Ú¯ÛĮØ´
ĠÙĨØ§Ø§ÙħÛĮØ¯
ĠÙĨÙħÛĮØ¯
ĠØ§ÙĪÙĨÙĪ
Ġmistress
Ġdomin
Ġcomponent
Ġminimum
85
Could
uously
ĠÚ©Ø§Ú©
ĠÙĨÙ¾
ĠØ´Ø±ÛĮÙģ
ĠØ³Ø±Ú©ÙĪØ¨
Ġshake
Ġalign
ĠØ¨Ø§Ø²ØªØ§Ø¨
ĠÙħØ¹Ø§ØµØ±
ĠØ¨Ø²ÙĨÛĮ
ĠØªØµØ±Ùģ
ĠØ³ÙĪÚ¯ÙĨØ¯
ĠÙħÙģÙĩÙĪÙħÛĮ
Ġincredibly
Ġceremony
bro
isk
Ġreign
ĠGil
ÙģÛĮÙĩ
ĠØºÛĮØ±ÙĤØ§ÙĨÙĪÙĨÛĮ
ĠØªØ¨Ø¹ÛĮ
archy
engers
ĠÙ¾ÙĦÚ©
ĠØ¬ÛĮÙħÛĮ
ophical
Ġantib
Ġsurprising
ĠSaturday
ĠÙħØŃØªÙĪØ§ÛĮ
ÙħØªÛĮ
Ø²Ø§Ø±ÛĮ
ÙĤØ§Ùħ
char
ĠMove
Ġshr
ĠÙ¾ÛĮÚ©
apa
ĠØ¨Ø²ÙĪØ¯ÛĮ
Ġparliament
Ù¾Ø¯Ø±Ø´
ÙĤØ§ÙĨÙĪÙĨ
Ø¨Ø§Ø¨Ø§
Ġmystery
Ø§Ø«Ø±
ĠÙĨÛĮÙĦ
Ġfired
Ġinternet
ĠØ¬Ùģ
Ġbew
ÙħÙĨØ·
ĠØ§ÙħØ±ÛĮ
ĠØ§ÙħÛĮØ¯ÛĮ
Ġpartly
ĠIndones
Ġangle
Ġclimbed
ĠØ¨Ø±Ø§Ùī
ĠØµØ§Ø¯ÙĤØ§ÙĨÙĩ
ØªØ§Ø±ÛĮØ®
orentino
Ġvaluable
ÙĩØ²Ø§Ø±
Ú©ÙĨØ¯Ùĩ
Ġmail
llo
ĠÙĩÙħØ³Ø§ÛĮ
Ġgenerated
Ġfears
ĠØ§ÙĨØ¨Ø§Ø´ØªÙĩ
Ġknocked
Ġprospect
rin
Ø¹Ø§Ø¯ÛĮ
alia
Ġabuse
Ġhasn
ĠÙĨØ´ÛĮÙħÙĨ
ovie
Ġcommittee
Ġsilently
ĠØ¨Ø¨Ø±ÛĮØ¯
ĠÙĦØºÙĪ
Ġshooting
31
bin
kh
ĠÙħØ§ÙĨÛĮ
ĠÙĩÙģ
Ø§Ø¯ÙĨ
ĠØ¨Ø±Øª
ainted
Ġshar
ĠÚ©Ø§Ø±Ø´Ø§ÙĨ
ĠÙħØ´Ø±ÙĪ
ĠOlivier
ĠÙĨØ§Ø§Ùħ
ĠÚ©ÙħÛĮØ³ÛĮÙĪÙĨ
ernel
ĠØ³ÙģÛĮØ¯ÛĮ
ÙĤØ¯Ø±Øª
ÙģØ±Ø¯Ø§
ĠØ§Ø¨Ø¯Ø§Ø¹
Ú©ÙĪÙĦÛĮ
ĠØ¨Ø®ÙĪØ§ÙĩÙħ
Ú¯Ø§Ùħ
isle
itis
ĠÙħÛĮØ´
ĠÚ¯ÙĪÙĨ
ĠSci
ĠØ¨ÛĮØ§ÛĮÙħ
ĠDig
ĠØ³ÙĪÙģ
Ġkeen
Ġtransition
Ġ1976
Ġrobots
ĠÃĩ
Ġdepending
Ġdedicated
ĠFlorida
89
Following
Nor
Ø¯Ø§Ø¯Ùĩ
ĠØªØ¯Ø§Ø±
ĠØªØ·Ø¨ÛĮ
Ġhaste
oming
ĠØ¬ÙĦØ³
stream
ÙĩØ§Ú¯
Ġatoms
Ġrust
ĠRhett
ĠFoot
Ġcha
ĠNick
ĠÙĨØ§ÙħØ±Ø¦ÛĮ
ĠÙĨØ§Ø¸Ø±
Ø¯Ø§Ø±ÙĨØ¯
Ġgotten
Ġcharged
ĠÛ±Û¹Û¹Û·
Ġencoun
Ġtranslated
ÙģØ±ÙĪØ¯Ú¯Ø§Ùĩ
sen
yes
ÙĪØ¬
ĠØ¯Ø±ØŃØ§ÙĦ
ĠØ´Ø±Ùģ
ĠÙģØ§Ø²
seud
ĠÚ¯Ø±ÙħØ§ÛĮ
ĠÙĨØ¯ÛĮØ¯
ĠØ§ÙĦÚ©Ø³Ø§ÙĨØ¯Ø±
ĠØ±Ø³ÙħÛĮØª
ĠÙħØ¯Ø¹ÛĮ
Ġevolved
Ġhardware
Ġinfant
ĠUSA
Ø±ÙĪØ³Ø§ÙģØª
Ø³Ø§Ø²ÙĨØ¯
ĠÙĪØ¬Ø¯Ø§ÙĨ
ĠØªØ¸Ø§ÙĩØ±
ĠÄ
aying
ĠBlo
udes
ĠÙĩÛĮÙ¾
ĠØ³ÙĪÙ¾
Ġletting
Ġlawyer
Ġincreasingly
ĠSyrian
Ġwinner
Ġterrorism
Ġimplemented
ĠIrish
Having
ĠØ¢ÙĦÛĮØ³
ĠÙ¾Ø´Ùħ
ĠBoy
their
Ġwhereas
Ġrelie
ĠØ§ÙģØªØªØ§ØŃ
Ġscheme
Ant
vals
ĠØ³Ø¦
asm
ĠÙĤÙĪÙħÛĮ
oded
Ġbutton
Ġroyal
ĠØ¨Ø§Ø²ÛĮÚ©ÙĨØ§ÙĨ
Ġearned
Ġretreat
Ù¾Ø±Ø³ÛĮ
ĠØ¢ÙĩÙĨÛĮ
Ġ1983
Ġ1973
ennis
ÚĨÙĨØ§ÙĨÚ©Ùĩ
Ġmaintained
ĠÙħØ¨Ø¯ÙĦ
ĠÚ©ÙĪÙĨ
rer
aration
ĠØ¬ÛĮÚ©
ÛĮØ±Ø§
ĠØ®ÙĪØ¯ØªÙĪÙĨ
ĠØµÙĪØªÛĮ
ĠØªÙĪÙĤ
Ġrush
ĠTHE
Ġhumili
ĠØªØ³ÙĦØ·
Ġrevol
ĠÙĦØ°Ø§
ĠÙĨØ§Ø¨ÙĪØ¯ÛĮ
ĠReport
ĠØ§Ø³ØªØ§ÙĨØ¯Ø§Ø±Ø¯ÙĩØ§ÛĮ
ÛĮØ§Ø·ÛĮÙĨ
Ø±Ø§Ø³ØªØ´
ÙģØ±Ø§ÙĨÚ©
ĠØ¯Ø²Ø¯ÛĮ
ĠÙĪØ§Ø´ÛĮÙĨÚ¯ØªÙĨ
called
ĠØ§Ú©Ø±
ĠÙĩØ§Ø¨
ĠÙ¾ÙĪØ±
agu
Ø¹ÙĩØ¯Ùĩ
Ġspare
ÙħØªÙĪØ¬Ùĩ
ĠØ³Ø§Ø²ÙħØ§ÙĨÛĮ
ĠØ¹Ø±Ø´Ùĩ
Ġengage
Ġvillages
ĠØªÙĪØ§ÙĨØ³ØªÙĨØ¯
ĠÚĨÚ©ÙħÙĩ
Ġproteins
Ġdeparture
ĠYanke
ĠÙħØ±Ø³
ĠÙħØ²Ùĩ
ĠØ¨Ø±ÙĦÛĮÙĨ
ĠØ§Ø³ØªÙĪ
Ġugly
ĠJos
ĠØ§ÙģØªØ§Ø¯ÙĨ
ĠÙħØ§Ø±ÚĨ
ĠÙĨÛĮÚ©ÙĦØ§ÛĮ
Ġbabies
Ġhatred
ĠÚ©ØªÚ©
ĠStudies
ĠØªØ±ÙĪØ±ÛĮØ³ØªÛĮ
Ġscholars
kerchief
ded
Ø²Ø§Ø³
ĠØ´ÙĪÛĮ
Ġbeating
ĠICA
ĠEnergy
Ø§ÙĨØ¯Ø§ÙĨ
Ġlegend
Ø±Ú¯ÙĪØ´
Ġkeys
ĠØ¨Ø´ÙĤØ§Ø¨
ĠÙħØ±Ø²ÙĩØ§ÛĮ
Ġframework
Ġsympathy
fit
Ú¯ÙĪØ±
ĠÙĨØ®ÙĪØ±Ø¯Ùĩ
ĠÙĩØ§Ùħ
Ġstern
agen
ĠFour
ÙĦÙĪÚ©
ĠÙħØ·ÙĦÙĪØ¨
Ġswear
Ġnearby
ÙħÙĨØ¯Ø§ÙĨÙĩ
Ġscientist
Ġmistaken
ĠØ®Ø¯Ø§ÛĮØ§ÙĨ
ĠArkadyevitch
foot
ĠÙĨØ±Ø¯Ùĩ
Ø¹Ø²
Ø¹Ø§ÙĦÛĮ
Ġ(-
Ġstead
ĠAst
ĠCross
ĠFord
ĠÚ©ÙĦÙģØª
ĠÙĨØ§ÙħÚ¯Ø°Ø§Ø±ÛĮ
ĠØ³ÙĦÙĪÙĦÙĩØ§ÛĮ
ĠÙħÙĩÙĨØ¯Ø³
secut
Ġeggs
Ġportrait
Ġkilomet
Ġstorage
90
Ġwip
ĠÙĩØ±ÛĮØª
ĠSem
Ġbutter
ĠÚ©ÙħØ¯ÛĮ
ĠØ§ÙĦÙĦÙĩ
Ġassistance
ĠØ¨Ø´Ø±ÛĮØª
ĠHead
ĠÚ¯Ø³ØªØ§Ø®
Char
Ġsignificantly
ĠØ¢ÙħÙĪØ®Øª
Ġdesperate
ĠÚ¯ÛĮØ±Ùĩ
ĠLau
Ġchrom
ĠNiger
ĠOcean
ĠAsse
ĠÙħØ³ÛĮØ±ÛĮ
ÙĩÙħØ§ÙĨØ·ÙĪØ±
Ġprotected
Ġsituations
Ġeaten
Ġcitizen
ĠMuslims
Ġvehicles
Ġcomparison
Ð²
Ġdict
acc
ĠÙĦÙģÙĪØ±
ĠØ¨ÛĮØ´Ùĩ
ĠÚ©Ø§Ø±ÙĪØ§ÙĨ
Ġenvelop
ĠÙĨØ§ÙħØ¹
Ġhelpless
ĠØŃØ§Ø¶Ø±Ø§ÙĨ
Ġsensitive
Ø¢Ø¨Ø§Ø¯
ĠØ¢Ø±ÛĮØ«Ø§
ĠØ¹ÛĮØ³ÛĮ
Ġbarely
London
asse
Ø¬ÙĪØ±ÛĮ
ĠMond
ĠCzech
ĠØ®ÙĪØ´Ùĩ
Ġagency
ĠUkrain
ĠÙħØ³ÙĨ
Ġoffers
ĠØ§ØªØ§ÙĤÛĮ
Ġsmallest
Ġsteady
ĠÙĨØ±ÙħÛĮ
ĠDesign
ĠØ¯Ú¯Ø±Ú¯ÙĪÙĨ
ĠScotland
ĠØ¢Ø°Ø±Ø¨Ø§ÛĮØ¬Ø§ÙĨ
Women
iel
rick
zh
ĠØ¨ÙĤØ§ÛĮ
Ø²Ø§Ø¨
Ø®ÙĪØ±Ùħ
Ø§Ø²Ø§ÙĨ
ĠØ¨ÛĮØ§Ùħ
Ø¨ÙĩØªØ±ÛĮÙĨ
ĠØ²ÛĮØ¨Ø§Øª
Ġhandkerchief
Ġfoundation
Ġexpecting
Ġsearching
Ġshouting
ĠGolden
Ġtunn
Ġbull
ĠBBC
Ġchamp
ÚĨÙĨØ¯ÛĮÙĨ
Ġsenses
ĠHarvard
Ġcopies
ĠÙĨÚĺØ§Ø¯ÛĮ
Ġsurrounding
ĠØ¨Ø§Ø²Ø±Ú¯Ø§ÙĨÛĮ
ÙĪØº
Ġhack
ÙĪØ§ÙĨØ´
ĠMason
antine
akov
ĠØ¢ÙħØ§Ø±ÛĮ
ĠØ±Ø§ÙĩØ´
ĠØªØ¨Ø¹ÛĮØ¯
ĠØ§Ø´ØªØ¨
Ø¯Ø®ØªØ±Ú©
Ġpalace
ĠCorpor
ï»
ĠÙħØ¨Ø§ØŃ
Ø³Ø±Ø¨
ĠÙħÛĮØ´ÙĪÙĨØ¯
ĠÙħÛĮØ®Ø§ÙĨÙĩ
Ø¬Ú©
ĠLi
ĠInf
ĠThree
ĠØ±Ø§Ø³ØªÙĪÙģ
Ġ1974
ĠØ¨Ù¾Ø±Ø³Ùħ
Ù¾Ø°ÛĮØ±ÙģØª
Ġreduction
ĠØ±Ø¤ÛĮ
Ø§ÙĦÛĮØ²Ø§Ø¨Øª
ĠPotter
TR
Ø¨ÙĨØ§
ndered
ĠØ±ÛĮÙĨ
ÙĪØ¯Ú¯ÛĮ
Ġfib
ĠØ¢Ú©Ø³
acco
ĠBC
onder
Ġages
Ġspat
Ġoffices
Ġaccord
ĠØ±ÙĨÚ¯Ø´
ikes
Ø§ÙĦØªØŃ
Ġshortly
ĠÙĨØ´Ø³ØªÙĨØ¯
ĠÚ©ÙħÙ¾ÛĮÙĨ
Ġinstitution
ÙħØº
ĠØ¯ÙĪØ§ÙĨ
ĠÙħÛĮØªÙĪØ§ÙĨØ¯
ĠØ´ÙĦØ§ÙĤ
ĠMu
Ġath
ĠØªØ§Ø³ÛĮØ³
Ġspark
Ġrelax
Ġreflection
Ġassured
ĠØ¨Ø³Ø§Ø²Ø¯
ĠÙĨØ´Ø³ØªÙĨ
ĠValley
Ġjournalist
ĠAtlanta
ĠÙĦØ¹ÙĨØªÛĮ
ĠÙĩÛĮØ¯Ø±ÙĪÚĺÙĨ
ĠÙĪØ±Ø§
ĠÙħÛĮÚ©ÙĨÛĮØ¯
ĠCle
opter
ĠÙ¾ÛĮØ§ÙħØ¨Ø±
Ġmanif
Ġsurre
Ġsurgery
ĠÚ¯ÛĮØ§ÙĩÛĮ
Ġprize
ĠYouTube
ĠBulstrode
69
car
Ø¨ÙĦØ§
Ġbored
Ø®Ø§Ø·Ø±
Ø§ÙĦØŃ
Ø§ØªØŃ
ĠAunt
Ġatomic
Ġconcerning
Ġadding
Ġzone
Ġdismiss
Ġsenior
EO
Ø§ÙĬÙĨ
atched
Ġthunder
Ġselection
Ġshade
geon
ivina
ĠÙħØ³Ø§ÙģØª
Ġrocks
ĠØ¨Ø¹Ø¯Ø´
ĠØ§ØªÙģØ§ÙĤØ§Øª
Ġcloak
ĠØªÙĪÙĨØ³ØªÙħ
ĠØ¨Ù¾ÙĪ
Ġtouching
ĠÙħÙħÙĨÙĪÙĨÙħ
Ġtimid
75
bor
vy
ĠÚ©ÛĮÚ©
Ġsink
ĠØ®Ø§Ú©ÛĮ
Ġorbit
ĠLabor
ĠØ§ÙĦØªÙĨ
Ġgrim
being
ĠØ¯Ø±ÙĪØ§ÙĤØ¹
ĠÙ¾Ø§Ú©Øª
ĠPolish
ĠÙħØŃØ§ÙģØ¸
Ġbudget
Add
Ġcared
ĠÙĤØ²
ĠÙĤØ±Ø§
ĠØ¯ÛĮÚ©
ĠÙģØ±ÙĨ
Ġknight
ÙĪØ²ÛĮØ±
ĠÙĨÙĪØ¨Ùĩ
ÙħÛĮÙĨØ§
Ġclient
ĠØ§Ø¹ÙĦ
Ġbuck
Ġmuscle
Û²Û
ĠÙħØ±Ø§Ø¬Ø¹Øª
Ġlonely
ÙħØ§ÙĩÛĮ
Ø§ÙĨÙĨØ¯
enance
Ġmild
ØµÙĦÛĮ
ĠÙĩÙħÚ©Ø§Ø±Ø§ÙĨ
ĠÙĤØ§Ø¹Ø¯Ùĩ
Ø§ÛĮØ¯Ú¯ÛĮØª
Ø¯Ø§ÙĪÙĦ
ĠØ§Ø¹Ø¶Ø§
Ġslave
Ġguarant
ĠØ®Ø±ÛĮØ¯Ùĩ
Ġdepos
Ġarrive
Ġtroubled
Ġcharacteristics
PDF
ĠØŃØ´Ø±Ùĩ
igrants
Ke
OD
Å¡
Ø§ÙģØªÙĩ
Ġokay
ĠØªÙĩØ§
ĠØ¯Ø±Ø¨
Ø®ÛĮÙĨ
ĠPen
ĠTre
ardier
ÙĬÙĬ
ĠKer
ÙĦÙĪØ¹
ØºÛĮÛĮØ±
Ġdistress
Ġassess
Ġsteam
ĠAdam
Ġlifetime
ĠÙĤØ§ÚĨØ§ÙĤ
'.
Ãł
Ú©Ø§Ø±Ùĩ
ĠØ§ÙħÛĮ
ĠÙħÙħØª
ÙĦØ§Ø²Ùħ
Ø·Ø¦Ùĩ
ĠØ¢ÙĨÙĩØ§ÛĮÛĮ
ĠØŃÙĤØ§ÛĮÙĤ
ĠØ·Ø§ÙĤØª
ĠOtt
ĠUp
Ġadult
ĠÙĨÙħØ§ÛĮØ´ÙĨØ§ÙħÙĩ
uthor
ĠÙĩÙĨØ±ÙĩØ§ÛĮ
ĠÙħØ±Ú©Ø¨
Ġdisappear
dis
non
yodor
Ø²Ø¯ÛĮ
Ġbree
ĠØ´Ø¨ÛĮ
ĠÛĮÙĪØ±Ú¯ÛĮØ³
usions
ĠBuilding
ĠRight
ĠTwo
ĠÙ¾Ø§ÙĪÙĦ
ĠLeg
Ġarguments
Ġsuspected
ĠÙħØ¶ØŃ
ĠÙ¾Ø§Ø±Ø§ÙħØªØ±
ĠEducation
iac
rec
Ø§Ø±ÛĮÙħ
Ġmob
ĠØ¨Ø§Ú©
ĠÙĩÛĮÙĪÙĦØ§
alfoy
ĠClivina
ĠPhilipp
ĠAllen
Ġreminded
ĠÙģÙĦØ³Ø·ÛĮÙĨ
Ġphenomenon
ĠØ®ØªÙħ
ĠÙ¾Ø´ØªÙĩ
Ġstack
Ġdebut
ĠØ·ÙģÙĦ
Ġshy
ĠRod
ĠEG
ĠÙĨÛĮØ³ØªÛĮØ¯
ÙĨØ§Ø³ÛĮ
ØŃØ§ÙĦØª
ĠØªØ´Ø±ÛĮØŃ
Ġkindly
Ġassure
ĠØªÙĦØ®ÛĮ
ĠBrother
ĠAbraham
ĠØ´ÙĦÙĪØº
ĠØ²ÙĨØ¯Ø§ÙĨÛĮØ§ÙĨ
ĠØ¢Ø±ØªÙĪØ±
ĠLinux
Ġteles
Ø´Ø¹
ĠØ¯ÙĨØ§
Ġna
Ġgang
ĠØ¯Ø§Ø´ØªÛĮ
ĠHit
ĠÙĨÙĪØ³Ø§ÙĨ
ĠÙĩÛĮÚ©ÙĦ
ĠØ¬Ø§ÙĨØ´ÛĮÙĨ
Ġ1981
Ġlabel
Ø¬ÙĪÛĮØ§ÙĨ
ĠÙħØ¤Ø¯
Ġchemistry
ĠØ¨Ø§ÙĨÚ¯
Ġtheater
ÙĪØ¯Ø§
ĠØ¯Ø±Ø³ÛĮ
ĠÙĤÙħØ§Ø±
ĠCard
ĠÙĦÙĤØ¨
Ġbrows
Ġengagement
Ġ1978
Ġeffectively
ĠØ§ÙħÙ¾Ø±Ø§ØªÙĪØ±
ÙħØ§Ø±ÛĮÙĪØ³
Ġreckon
Act
Har
Men
dy
Ġharsh
ĠHay
Ġsaving
ĠÛ±Û±Û
Ġcrown
Ġearliest
Ġsurve
ĠØºØ±ÛĮØ¨ÛĮ
ĠØ¹ÛĮØ¨
ĠBabbitt
ÙģØ´Ø±Ø¯
Ġconventional
Ġdisgust
ĠØªØ¨Ø¹ÛĮØ¶
Okay
SR
yo
eriana
stand
ĠÛĮÚ©Ùħ
ĠÙĦØ±ÛĮ
ĠÙĦÙĨÚ¯Ø±
ĠHong
Ġintim
ĠKat
ĠKong
Ú¯Ø°Ø§Ø±Ø§ÙĨ
ĠØ¢Ø¯ÙħÙĩØ§
Ġdirections
Ġorganic
ĠÙģÙĦØ¬
hematic
ĠÙħØ²Ø§Ø±Ø¹
hind
Ø³Ø§Ø±
ÙĪØ¯ÙĨ
aned
Ġlux
Ø§Ø¨ØªÛĮ
ĠØ¯ÙĩØ§ÙĨÙĩ
izard
ĠØ¬Ø§ÙĨÙĪØ±Ø§ÙĨ
Ġexped
ĠØªÙĪÙĨÙĦ
Ġroute
ĠForeign
ĠÚ©Ø§Ù¾ÛĮØªØ§ÙĨ
Ġpaintings
Ġepisode
Ġsplendid
Ġstaircase
ĠâĨĴ
Meanwhile
SF
Ġobey
ĠØ¢Ú¯
Ġinfection
ĠÙģÚ©
ĠSab
ĠAcc
Ġraw
Ġ150
Ġpractices
Ġanticip
Ġmercy
Ġregarding
Ġwriters
inema
rastructure
SN
Ø§ÛĮØ´Ø§ÙĨ
aters
ĠÙĨØ§Ø¨Ø±
Ġbother
ĠØ¯Ø±Ø§Ø²ÛĮ
ÙĩØ§Ø¨
ĠØ¹Ø§Ø¯
Ø¶Ø§Ø±
Ġseats
Ġmeal
ĠHog
Ġunple
ĠØ§ÙĨØ¯ÙĪÙĨØ²ÛĮ
ĠØ²ÙĨÙĨØ¯Ùĩ
ØªÙĪÙĨÛĮÙħ
ĠÙħØ±Ø¬Ø¹
coming
ĠÙĪØ§Úĺ
Ġdesigns
ÙĨØªÛĮÙĨÙĪ
ollywood
Ġconstructed
Ú©ÙĪØ´
Ġfishing
Ù¾Ø²ÛĮ
Ġpump
Ġdies
ĠØ¬ÙĪØ¯
Ġgap
ĠØ¹Ø¸
Ġalcoh
ÙĤÛĮØ§ÙģÙĩ
Ġadjust
ĠÚ©ÙĦÛĮÙĨ
took
ĠØ³Ù¾Ø§Ùĩ
ĠÙĦÙĪØ§Ø²Ùħ
ÚĺÙĨØ±Ø§ÙĦ
ĠÚ©ÙĪÙĩØ³ØªØ§ÙĨ
Ġceiling
ĠÙ¾ØªØ±Ø²Ø¨ÙĪØ±Ú¯
ĠØµÙħÛĮÙħÛĮ
Ġobservation
ĠPavlov
ĠØ¹Ø«ÙħØ§ÙĨÛĮ
Dav
file
ÙħØ¹ÙĨÛĮ
Ø¯ÙĩØ§
ĠØ¨Ú¯ÛĮØ±ÛĮ
ĠØ¨Ú©Ø´
ĠÚ©Ø§Ø¨ÙĦ
Ø¨ÙĤÛĮÙĩ
replied
Ġhem
ĠØ¬ÙħØ§
ÙĪÛĮÚ©
Ø¨ÛĮØ§ÛĮÛĮØ¯
Ġwrites
ĠØ®Ø§Ø·Ø±Ø´
Ġexposed
ĠÚ©Ø§ÙĦØ§
ĠØ´Ú©Ø³ØªÙĨ
Ġdollar
Ú©Ø§ÙħÙĦØ§
ĠÙĩÙĦÙĨØ¯ÛĮ
ĠØªÙ¾
Ù¾Ø±ÙĪÙģ
ĠØ®ÙĨØ¯Ø§ÙĨ
ĠÙ¾Ø§ØªØ±
ØµØ¨Ø±
ĠØ¹Ø§Ø¬
ĠGer
ĠFI
ĠØ§ÙĦØªÙħØ§Ø³
Ġrecovered
ĠØ¢ÙĦÙĨ
ĠØ³Ø®ÙĨÛĮ
atively
Ġfrown
Ġoperate
Ø§ÙĪÙĨÙĩØ§
ĠWeasley
Ø§Ø¯ÙĦØ§ÙĨÙĩ
Ġtremend
Ġexecuted
Ġratio
Ġutterly
Ġexpansion
ĠÚ©Ø¨
ÙģÛĮÙĨ
Ġflex
ÙĦÛĮÙĦÛĮ
roph
ĠSul
anging
plete
ĠÙĨÙħØ§ÛĮÙĨØ¯Ú¯ÛĮ
Ġawake
Ġlimits
Ġcompanions
Ã¼r
ÙħÙĨØ¸ÙĪØ±
ĠØ¢Ø±Ø§Ø³ØªÙĩ
Ġuncomfortable
34
Four
Gu
aning
ĠØ³ÛĮØ²
ĠØ§Ø³ØªØ±Ø³
ĠÙģØ¯
ĠÚ©ÙĨØ¯ÛĮ
ĠÙħØ´Ùĩ
ĠÙĨÙĤØ´ÛĮ
ĠØ´ÙĩØ±Ú©
plex
Ú©ÙĪØ¦
ĠØ®ÙĪØ¯Ø´ÙĪÙĨ
Ġproducer
Ġmeters
ĠLeon
ĠØ¹ÙħÙĦÛĮØ§ØªÛĮ
ĠØ³ÙĪÙĨÛĮØ§
Second
ĠÙĪØ§Ú©Ø³ÙĨ
care
ĠØ¢Ø¨Ø±
Ø®ØªÛĮ
ĠÙĤÛĮØ¯
ĠÙħÙĨØ´ÛĮ
ĠDet
Ġchoices
ĠØ§ØªØ±ÛĮØ´
ĠÙħØ¬ÙħØ¹
Ġamuse
Ġboats
Ġmighty
Ġapproved
Ġ1971
Ġpromote
Ġelsewhere
Ġsuggests
Ġcustomer
ĠApple
',
bb
vi
Ø¨Ø§ÛĮÛĮ
Ø§Ø±ØªÛĮ
ĠÙĨÙĪÛĮ
Ġhttp
ĠSk
Ú©Ø±Ø¯ÙĨÛĮ
ĠØ±Ø§ÙĩÙĨÙħØ§ÛĮ
ĠÙ¾Ø±Ø´
Ġtalks
ĠÙ¾Ø§Ø³Ø®ÛĮ
Ġfloating
ĠÛ±Û¸Û¸Û
ĠÙħØ§ÙħÙĪØ±ÛĮØª
Ġvirtue
ĠØ¢Ø±ÚĺØ§ÙĨØªÛĮÙĨ
Ġpeasants
ĠØ¬ÙĦØ³Ø§Øª
cers
mary
ÙĪØ§Ùħ
instein
ÙģØ§ÙĦ
Ġsector
Ġlover
ĠÙĨØ¸Ø±Ø§Øª
ĠChris
Ġguitar
Ġtransmission
enez
ĠØŃÙĤÛĮÙĤØªØ§
ĠÙĪØ³ÙĪØ³Ùĩ
Ġ1967
ĠØ¹ÛĮÙĨÚ©
ĠÙĪØ±Ø²Ø´Ú¯Ø§Ùĩ
ĠØ¨Ø±Ø¢ÙĪØ±Ø¯Ùĩ
Ġuneasy
ĠØ§Ø³Ú©ÙĨØ§Ø³
ĠÙĨÙĪØ´ÛĮØ¯ÙĨÛĮ
ancholy
itarian
Ġcosm
ĠÙ¾ÙħÙ¾
ĠØ¬Ø¨Ø±
ĠØ²ØºØ§ÙĦ
Ġweary
ĠSant
Ø±ÙĪØª
istical
ĠGor
ĠÙ¾ÛĮØ±ÛĮ
Ġvideos
ÙĩØ±Ú¯Ø§Ùĩ
ÙĪØ²ÙĪÙģ
ĠUs
urning
Ú©Ø³Ø§ÙĨÛĮ
ĠØ¨ÙĨØª
ĠØ¨Ú¯ÙĪÛĮÛĮ
ĠØ¯Ø±ÛĮÚĨÙĩ
Ġauthors
ĠØ®ÙĦØ§ÙĤÛĮØª
Ġimmune
Ø¯Ø§Ø®ÙĦ
ÙħØ·ÙħØ¦ÙĨ
Valeriana
Rec
tion
ĠÙĨÚ©ÙĨÛĮÙħ
ĠØ¨Ø±ÙĤØ±Ø§Ø±ÛĮ
Ġwash
kel
Ġneat
ĠDanglars
ĠHand
ĠFreedom
Ġamongst
ĠØ¯Ø¹ÙĪØ§
ĠØ´Ø§Ø¯ÙħØ§ÙĨÛĮ
ĠÚĨØ§Ø±ÙĦÛĮ
ĠÙĥÙĨÙĬÙħ
Ġoccasionally
Ġfluid
ĠØ§ÙĪÙħØ¯Ùĩ
ĠÙģÛĮÙĦØ³ÙĪÙģ
à¥
ĠØ¨ØªÙĪØ§ÙĨÛĮØ¯
Ø¨ÙĪÛĮ
Ġnerve
ĠÙĦØ´Ú©Ø±
Ġaged
ipher
ĠÙħØ¯Ø§Ø±Ú©
Ġformat
Ġinstall
ĠØ¨Ø±Ø§Ø¯Ø±Ø§ÙĨ
ĠÙħØ§ÙĩÛĮÚ¯ÛĮØ±ÛĮ
ĠØ±ÙģØ§Ùĩ
Ġcontrad
ĠØ¨Ø±Ú¯Ø²ÛĮØ¯Ùĩ
Ġrecommended
ĠStepan
ĠÚ©Ø§ÙħÙ¾Ø§ÛĮÙĦ
Ġrestaurant
Ġcotton
nel
Ġfrank
anth
ĠØ¬Ø²ÛĮ
ĠAc
ĠMIT
ĠGar
ĠHon
ĠÙĨÙĪÙĩ
why
ĠØ§ÙĨØªØ®Ø§Ø¨ÛĮ
leton
ĠMedia
Ġhoping
mitri
ĠØ¯Ø±Ø®ØªÛĮ
Ġmechanism
ĠØ¯Ø³ØªÙħØ²Ø¯
ĠJackson
Ġweapon
Ġproportion
hire
list
Ġtap
ĠØ¨Ú©Ø´ÙĨØ¯
Ġfab
ĠØ¹Ø§Ø±ÛĮ
ĠCorn
Ø±ÙģÙĩ
ĠJa
ĠØ¯Ø§Ø¯ÛĮ
Soon
ĠØ¨ÙĨØ§ÛĮ
Ġexamined
Ġmothers
Ġrisks
Ġobtain
Ġnewspapers
ĠØŃØ´Ø±Ø§Øª
TC
ĠÙħÙĪØ§ÙĨ
asped
Ġitems
ĠØ¨ÛĮØ§Ø¨Ø§ÙĨ
ĠÚ¯ÙģØªÛĮÙħ
Ġmanners
ĠØ¯ÙĩÙĨØ¯Ú¯Ø§ÙĨ
ĠØ³ÛĮØªÛĮ
ĠØªØ§Ø¨ÙĪØª
Ġdifficulties
Ġpenet
Ø¢Ø±Ø§Ùħ
ĠRegion
ĠØ´Ø§Ø±ÙĦ
ĠØ¯ÛĮØ¬ÛĮØªØ§ÙĦÛĮ
ĠØ¨ÙħØ§ÙĨÙħ
Ġwrapped
"),
Cont
atoes
ĠÙħÛĮØ´ÛĮ
ĠÙĩØ§Ø³Øª
Ø·ÙĪØ¨
ĠCR
looked
ĠÚ©Ø´Ùħ
ĠKr
ĠØ§ÙĦØ¬Ø²
ĠÙ¾Ø³Ø±Ùħ
ĠØ¬ÙħØ¹Ùĩ
Ġscan
Ù¾ÛĮØ´Ùĩ
amped
ucky
ĠØ¨Ø±Ú¯Ø±Ø¯Ùħ
ĠØ§Ø´Ú©Ø§ÙĦÛĮ
ĠÚ©ÙĨØ¬Ú©Ø§ÙĪ
LA
Ø§Ø¸Ø±
ĠØ§Ø±Ùĩ
ĠÚ©Ø§ÙģÙĩ
Ø¨ÙĦØ§ÙģØ§ØµÙĦÙĩ
ĠIV
ĠSaudi
ĠØ¯Ø§Ø±ÙĪÛĮÛĮ
Ø§Ø³Ù¾
ĠØ¯ÛĮØ´Ø¨
ĠØ¬ÙĩÙĨÙħ
ika
ĠØ¢ÛĮÛĮÙĨ
Ġstaying
Ø´ÙĩØ±Ø³ØªØ§ÙĨ
ĠÙĪÛĮÚ©ØªÙĪØ±
Ø³ÙĦØ§Ùħ
Ø¹Ø¬Ø¨
Ġinequ
ĠCub
ĠØ·Ø±ÛĮ
mented
actor
active
ĠÚĨÙĨØ¯Ø§ÙĨÛĮ
Ø³Ø§ÙĨØ³
Ġglory
ĠØ§Ø®Ùħ
ĠØ®ØµÙĪØµÛĮØ§Øª
ĠHarold
ĠÛ´Ûµ
ĠØ¢ÙĦÛĮÙĪØ´Ø§
88
Mart
Tw
ÛĮØ¹
ĠÙĨÚ©Ø±Ø¯ÙĨØ¯
Ø¹ÙħÙĪ
ĠØ¨ÙĪØ¯Ú©Ùĩ
ĠÙħÙĪØ¨
ĠFrid
ÛĮØ§ÙģØªÙĩ
ĠØ®ÙĪØ§ÙĩØ§ÙĨ
Ġgramm
ĠØªÙĤØ¯ÛĮØ±
ĠØ¢Ø³ÙħØ§ÙĨÛĮ
ĠÚĨØ´ÙħØ§ÙĨÛĮ
Ġconsideration
ĠÙĪØ§Ø¨Ø³ØªÚ¯ÛĮ
ĠØ·ÙĦØ§ÙĤ
Ġairports
hin
ĠÙĪØ³ØªÙĨ
Ġhoney
ĠØ¨Ø±Ø§ÙĨÚ¯ÛĮØ²
ifies
Ø¢ÛĮÙħ
Ø§Ú©ØªÙĪØ±
Ġeveryday
ĠØ¯Ø§ÙĨÛĮÙħ
Ġscenes
ĠØ§Ø¹Ø¸Ùħ
ĠØ§Ø±Ø²Ø´ÛĮ
ĠØ§Ø±ÙĪÙ¾Ø§ÛĮ
ĠØ¯Ø±Ø¢ÙĪØ±Ø¯Ùĩ
ÙĨØ¸Ø§ÙħÛĮ
ĠModern
Levin
ĠÙħÙĩØ±Ùĩ
ĠÚĨÙĪ
ĠÚĨØ§ÙĦ
Ġstare
Ø§ÙĤØ¶
ĠØ¢ÙħØ§Ø¯Ú¯ÛĮ
ĠÙħØŃØ§Ø³Ø¨
inea
ĠÙħÙĤØ§ÙĦØ§Øª
rency
ĠChile
Ġdevoted
Ġclothing
Ġadministration
Ġattracted
Ġsacred
Tracy
ĠØ§Ú©ØªØ´Ø§Ùģ
German
walk
ĠÙĪÙĨØ¯
Ġbearing
ĠÙĤØµØ±
Ġstages
oding
ĠDaza
ĠÙģØ±ÙĤÛĮ
ĠNavy
cca
ĠÛ±Û¹Û³Û°
Ġtrace
ĠØªØ¹Ø§Ø±Ùģ
ocation
Ġpolite
Ġfrac
ĠÙħØ®ØªØµ
ĠØ¨Ø³Ø§Ø²ÙĨØ¯
Ġcontinually
ographical
ĠÛ±Û¹Û¹Û³
ĠØ¯Ø§ÙħØ¨ÙĦØ¯ÙĪØ±
Ġcrossing
Ġrequirements
Ġmelancholy
ĠØ³Ù¾Ø§Ø³Ú¯Ø²Ø§Ø±Ùħ
Ġdynamic
Ġgesture
ĠICAO
Ø§Ø±Ø²Ø´
ĠLaur
asting
Ġnois
ĠØ§ÙĨÚ¯ÛĮØ²ÛĮ
ĠÙħÙĨØªÙĤ
ĠÙħÙĨØ¸ÙĪÙħÙĩ
Ġvalid
Ġ1972
Ġ1969
ĠÙħØ¹ÙĨØ§Ø³Øª
ĠÛ±Û³Û¹Û
ĠÙĪÙĤÙģÙĩ
ustomed
Ġconcepts
Ġdepths
Ġaccurate
ĠØ§Ø¹Ø·Ø§
ĠTaylor
rat
Ġ00
Ġtoss
ĠØ³Ú©ÙĪ
ĠØ¨Ø§Ø®Øª
otty
ĠÛĮÚ©Ø¨Ø§Ø±
keeper
ĠTa
ĠØ¨Ø§Ø²Ùĩ
ĠÙħØ¬ÙĦ
atching
Ġsuccessfully
ÙĨØ³Ø®Ùĩ
Ġburden
Ø³ÛĮØ³Ú©ÙĪ
ĠØ¨Ú¯Ø°Ø±Ø¯
Unlike
ĠÚĨØ±ÚĨ
ĠÙģÙĪÙĦØ§Ø¯
ĠØªØ®ØµØµÛĮ
ĠØ¯ÛĮÙ¾ÙĦÙħ
CD
SO
Ġoption
ĠØ³ÙĪÙĨØ¯Ø±Ø§
Ġnavig
ĠBenn
ĠÙħØ§Ú©Ø²ÛĮÙħ
ĠÙħØ¹Øµ
ĠKim
ĠØªØŃÙħÛĮÙĦ
Ġoffering
Ġlighted
Ġabsorbed
Ø¢ÙģØ±ÛĮÙĨ
ez
ÙħØ§Ø¯ÛĮ
Ġpy
ĠÚĨØ§Ø¨
entine
ĠØ·Ø§ÙĤ
ĠØ§ÙĨÙĤ
ĠDatabase
ĠLad
ĠTheory
ĠØ·Ø±ÙģÛĮ
ĠØ§ØªØ§ÙĤØ´
ĠÙħØªØŃØ±Ú©
cribed
ĠØ¬ÙĪØ±Ø§Ø¨
Ġstruggling
free
ĠØ§Ø¨Ùĩ
ĠÚ©ÙĪÙħ
Ø²ÙĪØ¯
ĠÙĩØ§Ø±ÙĪ
Ġdensity
Ġnodes
ĠØ¹Ú©Ø§Ø³ÛĮ
Ġanalog
ĠØ·ÙĦÙĪØ¹
ĠBru
ĠØ³Ø±ÚĨØ´ÙħÙĩ
ĠÙħØ´ÙĪØ±Øª
ĠÙĨÛĮØ²Ùĩ
ĠØ¯Ø§ÙĨØ³ØªÙĨ
ĠØ§Ø´Ø±Ø§Ùģ
ighter
cluding
Ġbreathe
ĠÙħÙĪØ±ÚĨÙĩ
Ø®ÙĪØ±ÙĨØ¯
Ġhunting
Ġinjury
Ġdistinguished
ĠColumbia
46
Mon
tailed
hent
ĠÙħÙģØª
Ø§ÛĮÙĨØ¯ÛĮ
Ġdad
seen
ĠSon
unted
ĠDol
ĠØ¯Ø§Ø´ØªÛĮØ¯
ĠLanguage
ĠNight
Ġleather
Ø±Ø³Ø§ÙĨÛĮ
ĠKenn
Ú©ÙĦØ§ÛĮ
Ġinteraction
ĠØ¨ÙĩØªØ±Ùĩ
ĠÙĪØ§Ú¯Ø°Ø§Ø±
ĠConstitution
Ġangel
ĠJohnson
ascal
Ġhyper
ĠÙħØ¹ØªÙĤØ¯ÙĨØ¯
Ø¯Ø§ÙĨØ´Ú¯Ø§Ùĩ
Mer
lÄ±
Û³Û
ÙĪØ±ÙĩØ§
uty
Ø¶Ùħ
ĠHol
ellow
ĠVill
Ġconsidering
ĠØŃØ³Ø§Ø¯Øª
Ġcomputing
Ġfreely
coat
ĠØªØ³Ø®ÛĮØ±
ĠArabs
ĠMedic
Ġnearest
Ø¯Ø§Ø±ØªÛĮÙĨ
ÙĨØ¯ÛĮØ§
itating
anian
Ġric
ĠØªÙĨÙģØ±
Ú¯ÙĪÛĮÛĮÙħ
Ø¬ÛĮÙħÛĮ
ĠØªØ¨Ø³Ùħ
ĠØªØ¨Ø§Ø¯ÙĦ
ĠÙħÛĮÙĦØ§Ø¯
ĠØ¯ÛĮÙĪØ§Ø±ÙĩØ§
Ġnecessity
ĠAmaz
Ġmidnight
ĠÙĦØºØª
ĠTransport
Ġdragged
ĠVirginia
Ġsimultaneously
went
word
ØªØ²
ØªÙħÛĮ
ĠØ¨Ø®ØµÙĪØµ
ĠÙħÚ¯Ø³
eton
ĠØªÙĪØ·Ø¦Ùĩ
ÙĦÙĩÙĪÛĮÙĨ
elli
ĠØ§ÙģØ³ÙĪÙĨ
ĠÚ©ÛĮØ´ÙĪØª
Ġlocations
Ø´ÙĨØ§Ø³ÛĮØ¯
ÙģØ±ÙĪØ´ÛĮ
Ġsubstant
Ġrejected
utenant
IX
vas
ĠÙĨØ§ÙĨÙĪ
Ġpitch
Ø¢ÙĨØ¯
ĠØ§Ø¬Ø²Ø§ÛĮ
ĠÙĨÙħØ§ÛĮÙħ
Ġretire
Ġreader
ĠØ³Ù¾Ø±Ø¯
ĠÛ´Û°Û°
ĠÙģÛĮÙģØ§
Ġpulling
ĠDirector
Give
iography
ĠÙħÛĮØ®ÙĪØ§Ùħ
Ø§ÙħÛĮÚ©
Ġbeer
state
Ø±ÛĮØ§
ĠCad
Ø´Ø§ÙĨÙĪÙĨ
Ġrope
Ġroles
ÙĪØ±ØªÙħÙĩ
ĠÙ¡
class
Ġfuneral
Ġsixty
ĠÛ±Û¹Û¸Û¹
ĠÙĪØŃØ´ÛĮØ§ÙĨÙĩ
Ġdelicate
Madame
Ġridiculous
Ġillegal
Poor
oons
ÙħØ®
Ø´Ø§ÙĨÛĮ
ÙģÙĨ
Ġfoss
orph
Ġtoile
Ġlou
ĠÙ¾ÙĢ
lly
Ġbegged
ĠØŃÙĪÙħÙĩ
tery
ĠØ®ÙĪØ²Ùĩ
uma
Ġshaped
ĠÚĺØ§Ú©
ĠØµØ¯Ø§ÙĩØ§
Ġeleg
ĠØ®ÙĪÛĮØ´Ø§ÙĪ
ĠÙģØ±Ø§ÙĨØ³ÙĪÛĮØ§ÙĨ
ĠArchitect
Ġtalent
ĠComputer
Part
eav
hran
Ø³ÙĪÙĦØ§
Ġfiction
ĠØ³ÙĨÛĮ
ĠAD
ĠÙħÙĪØ§Ø²ÛĮ
ĠÚ©ÙĪÚ©
ĠÙ¾Ø³ÙĨØ¯
ĠÙĨØ²ÙĨ
ĠÙĨÙħØ§ÛĮÛĮØ¯
Ġprofit
ĠBridge
Ġidentical
ĠÙĦØ·ÛĮÙģ
ĠØªÙĦØ³Ú©ÙĪÙ¾
han
Ãº
orf
Ø§ÛĮÙĨÙĩ
igious
Ġimplic
Ġagents
ĠÚ©ÙħØ±Ø¨
ĠØ³Ø§Ø®ØªÚ¯ÛĮ
Ġregional
ĠÚ¯ÛĮÙĦØ§Ø³
Ġpainter
Ú©Ø±ÛĮØ³
Ġinstruments
ĠMovement
ĠSciences
ĠÛĮØ§ÙĦ
ĠØ¹Ø·Ø±
ĠSong
ÙĪÙĦÙĨØ¯
ĠØ¯ÛĮÙĪØ§Ø±Ùĩ
ĠÙĩØ±Ú©Ø¯Ø§Ùħ
Ġdispl
ÙģÙĩÙĪÙħ
Ġ64
ĠÙĦÙĪØ³ÛĮ
ĠØ¹Ø´ÙĤÛĮ
Ġmanufacturing
ĠÙģØªØŃ
ĠØ®ÙĪÙĨØ³Ø±Ø¯ÛĮ
ĠØ±Ø¨Ø·ÛĮ
ØªÙĪØ²
Ġdiver
ĠÙĤÙģØ³
ĠØ¨ÛĮÙĪÙĩ
igma
ĠTop
ĠÙħØªÙĤØ§Ø¨ÙĦ
Ø±Ø³ÙĪÙĨ
cling
ĠØ¯ÛĮØ¯ÛĮ
Ġpersist
Ġsupporting
Ġmeetings
ĠYoung
ĠCentre
ĠØ±Ø³Ø§ÙĨØ¯ÙĨ
Ġthermal
ĠÙĤØ±Ø¨Ø§ÙĨÛĮØ§ÙĨ
Co
ÙħÙĨÛĮ
Ġbinary
ĠØ®Ø§ÙĨØ¯Ø§ÙĨ
Ø§Ø¯ÙĪØ±
ĠØŃÙĤÙĩ
olay
ĠÚ¯Ø±ÙħÛĮ
ĠÙħØ¹Ø¨Ø¯
Ø´ÙĨÙĪØ¯
Ġ36
ĠØ¹ØµØ¨
Ġmovies
ĠÙĪØ¨ÙĦØ§Ú¯
ĠØ§ÙĨØªØ´Ø§Ø±Ø§Øª
Ġremarked
ĠIraqi
2000
AV
cal
wr
ĠÙħÙĩÛĮ
Ø³Ø§ÙĦÙĩ
otr
ĠØ¹Ø³ÙĦ
ĠØ§ÙĦÚ©ÙĦ
Ġcomposition
ĠÙħØ¬Ø²Ø§
Ġslip
Ġproduces
Ġedges
Ġparticle
ĠØ³Ù¾ÛĮØ¯
Ø¬ÙħÙĦÙĩ
Ġtransferred
ÙħÙĪÙĤØ¹ÛĮ
Ġwithdraw
ĠAzerbaijan
ĠCorporation
Old
West
ĠØ¯Ø±Ø¨Ø±
ÙħÛĮÙħÛĮ
ĠMans
ĠØ§ÙĨØ³
ĠRem
ĠHal
ĠFrom
ĠÙĨÙĤÙĦÛĮÙĩ
ĠÙĩØ§ÛĮØ´Ø§ÙĨ
ĠÙĨÙħØ±Ùĩ
ĠØªÙĤØ¯ÛĮÙħ
ĠÙħØ³ÙĦØ·
ĠØ¢Ø´Ú©Ø§Ø±Ø§
Ġthreatened
rigory
Ġruin
ĠÙħÙĨØµÙĪØ¨
ĠÙħØ¹Ø°Ø±Øª
fare
ĠÙģØ§Ø³
ĠØ²ÙĪØ²Ùĩ
olk
ĠØ¯ÛĮØ³Ú©
Hey
ĠØ³Ø§Ø®ØªØ§Ø±ÛĮ
ĠÙĦØ¨ÙĨØ§ÙĨ
Ġregime
Ġguards
Ġbusinesses
erald
ĠØ¨Ø±Ú¯Ø±Ø¯ÛĮÙħ
ĠÙ¾Ø±Ø³Ùĩ
Ġaddressing
oiselle
Ġsuspicion
02
SD
TM
mist
Ø¯Ø±Ø¯
ĠØ³ØªÙħ
ĠRing
ĠRet
ĠØªØŃÙĤ
ĠØ¯Ø§ÙĨØªØ³
Ġ33
ĠØ´ÙĩØ±ÙĪÙĨØ¯
ĠÙĩÙħØ¯Ø±Ø¯ÛĮ
ĠStandard
ĠØ¢ØªÙĦØ§ÙĨØªØ§
Dana
SC
uros
ĠØ¨Ø®ÙĪØ§ÙĩÛĮÙħ
Ġdarling
ĠØ¬Ø§Ø±ÙĪ
otted
ĠØ´Ø¯ÛĮØ¯Ø§
ĠØ·ÙĨØ²
ĠTower
Ġchim
iven
Ú©ÙĦØ§Ùĩ
ĠØ®ÙĪØ´Ú¯ÙĦ
ĠÙħØ±Ø·ÙĪØ¨
Ġassume
Ġappeal
ĠCommon
Ġgrounds
Ġintroduce
Ġdefeat
ĠÙħÙĪÙĦÚ©ÙĪÙĦÛĮ
ĠBaba
ĠÚ¯ÙĪÙĨØ§Ú¯ÙĪÙĨÛĮ
ĠSpecial
found
Ġtourn
inte
Ø¨Ø§Ø³
Ġmask
Ġpier
Ø§Ø¯Ùģ
Ø³ÛĮÙĦÛĮ
ĠÙħÙĨØ´
ĠÙĦØ®Øª
Ġdeck
Ġvit
ĠØ²ÛĮØ±Ø¯
Ø§ØŃØªÛĮ
ĠÙ¾Ø±ÙĪØ§ÙĨÙĩ
ĠAustria
ĠØ®Ø§ÙħÙĪØ´ÛĮ
Ġgeomet
ĠØ§ÙĪÙĦÛĮÙĪØ±
ĠØ¯Ø§Ø«Ø§
Ġfarmers
Ġestablishment
ĠÚ¯ÙĪØ³ÙģÙĨØ¯
Ġdrank
ĠWales
ĠÙħØªØ¯Ø§ÙĪÙĦ
Ø§ÙģØ±ÙĪ
ĠØªØ±ÙĪÛĮØ¬
ĠÙĨØ¯Ø§Ø´ØªÛĮÙħ
ĠYeah
Ġcolored
ĠØ³ÙģÛĮØ±
Ġstopping
Ġprotocol
Ġreplace
ĠEdition
Ġconversations
ĠØ¨Ø±Ø®Ø§Ø³ØªÙĩ
ĠEnter
ĠÙ¾ÙĨØ§ÙĩÙĨØ¯Ú¯Ø§ÙĨ
ĠØ´ØªØ§Ø¨Ø§ÙĨ
Ġdistinguish
ĠEconomic
ĠØ¯Ø§ÙĨÙħØ§Ø±Ú©
ĠØ³ÙĪØ§ØŃÙĦ
ĠÙħØŃØ§Ø³Ø¨Ø§ØªÛĮ
Ġcort
ashes
Ġstores
ĠSony
ĠâĢĺ
Ġlikes
ĠGirl
rane
ÛĮÙĦÙĨØ¯
Ġcloth
Ġpermitted
Ġmatrix
Ġmonster
Ġfewer
Ġ65
Ġlisted
ĠØ¯ÙģØ¹
ĠÙĩÙģØªØ§Ø¯
ĠArabia
uzov
Ġcomplain
ĠCasaubon
Ġromantic
ĠØ±ÙĪØ¯Ùĩ
orters
Ġlift
ista
ĠØ³Ø±Ø¹ØªÛĮ
Ġintend
ĠJamie
ĠØ®ÙĪØ´Ø§ÛĮÙĨØ¯
ĠØ°Ø§ØªÛĮ
Ġexpanded
ĠSpring
ĠBeranabus
Ġinjured
ĠDefense
ØªÙģØ§ÙĪØª
ĠØ§Ø¯Ø¹Ø§ÛĮ
Ġimprison
ĠØ¯Ø§ÙĨÛĮ
rection
Ġhorn
Ġpushing
Ġpardon
Ġgardens
ĠÙħÙĪÙĩØ§ÛĮØ´
thought
ĠFyodor
ĠEvery
ĠØ¨ÙĦØº
ĠPhot
Ġresulted
Ġcultures
2005
Ø¢ÙĩØ³ØªÙĩ
Ġacknowled
Ġcorridor
Nobody
ĠÙĨÙħØ§ÙĨØ¯
ĠØ¢Ø¦ÙĪØ±ÙĦÛĮØ§ÙĨÙĪ
Ø¹ÙĨ
Ú¯Ø±ÙĩØ§ÛĮ
ĠØ¨ÛĮØªÛĮ
emoiselle
oston
ĠØ¢Ø¨Ø¬ÙĪ
ĠØªÙĪÙĨØ³Øª
ĠÙ¾ÙĨÙĩØ§ÙĨÛĮ
adesh
Ġsweat
ĠÙħØ¨Ø§Ø±Ø²
Ú¯Ø°Ø§Ø´ØªÙĨØ¯
Ġcrowded
ĠØ¨ÛĮØ§ÙĪØ±ÛĮØ¯
Ġprinted
Ġuniversities
ĠCatal
ĠØ§ÙĦÚ©ØªØ±ÙĪÙĨÛĮÚ©
ht
Ġod
ghter
ÛĮÙħÙĩ
ctic
ĠAff
ØªØ±Ø§ÙĨÙĩ
ĠÙĦØ§Ø¨Ø¯
ĠPenn
Ø¨Ø±Ø®
ĠÙħØ±Ø¯Ø§ÙĨÛĮ
Ġengin
ĠVas
ÙĨÙĩØ§Ø¯
Ġsla
Ġguest
Ø¯ÙĪÛĮØ¯
Ġmuscles
Ġmarks
ĠÙ¾ÙĨØ¨Ùĩ
Ġbarrier
Ġpropag
ĠÙ¾ÙĪØ³ØªÙĩ
Ġcivilization
Ġduties
Ġassistant
ĠBusiness
95
Ø¯Ø§Øª
ĠØ®Ø±Ú¯ÙĪØ´
Ø§ÙħØªÛĮ
ĠAtt
chi
ĠMouse
ĠØ±ÙĪØ¨Ø±
ĠØ¯ÙĪÙħÛĮ
ĠLo
Ġinsist
Ġ1977
ĠÙ¾Ø±Ø¯Ø§Ø®ØªÙĨØ¯
ĠPetrov
}}}
Ġengineers
Ġcollective
Ø¯ÙĦØ´
Ġpalm
ĠØ§ÙĪÙĦÛĮÙĪÛĮÙĩ
Ġprosper
ĠRadio
Ġfantastic
fle
ØªØºÛĮÛĮØ±
Ġhook
ĠÙ¾ÙĨØ¯Ø§Ø´Øª
sters
ÙĩØ§Ùī
ĠØŃØ¨Ø§Ø¨
riers
Ġconj
ĠÚ©Ø§Ø±Ø¢ÙħØ¯
ĠØ§ÙħØ³Ø§ÙĦ
ptions
ĠØ±Ø³Ø§ÙĨ
ĠØ³Ø§Ø®ØªÙħØ§ÙĨÛĮ
Ġbrut
ÙģÙĩÙħÛĮ
napped
Ø§Ø¨ØªØ¯Ø§
Ġreturns
Ġlandscape
ĠCommunity
Ġdependent
ĠØ·ÙĦØ³Ùħ
ĠØ§Ø³ØªØ«ÙĨØ§
ĠÙĨØ±ÙĪÚĺ
Ù¾Ø±ÙĪÙģØ³ÙĪØ±
ÙħØ¯ÛĮ
Ġcraft
adow
ods
ĠHan
iev
ĠNev
Ú©Ø±Ø§ÛĮÙĨ
ĠØ§Ø³ÙħÛĮ
ĠKal
ĠÙ¾Ø³Ø±ÛĮ
ĠStone
Ġacted
Ġforming
Ġregister
Ġinfrastructure
Ġalongside
Ġphysically
ĠÙĨØ¬ÙĪØ§
Ġdressing
Ġconsumer
ĠGovernor
ĠÚ©Ø§Ø±ÙħÙĨØ¯Ø§ÙĨ
ĠØ¨ÙĨÙĪÛĮØ³Ø¯
ĠÙħØ§ÛĮÚ©Ø±ÙĪØ³Ø§ÙģØª
ĠØªÙĦÚ¯Ø±Ø§Ùģ
ĠØ¬Ø§Ø³ØªÛĮÙĨ
ĠØ§Ø¹ÙĦØ§ÙħÛĮÙĩ
87
Car
ds
will
ÙĨØ±
ÙħÙħÙĨ
Ġarose
Ø¨Ø¨ÛĮÙĨ
Ġmart
Ø¹ÙĤ
ĠIl
ØªØ±Ú©ÛĮ
ilation
Ġintr
ĠØºÛĮØ±Ø¹Ø§Ø¯ÛĮ
ØŃÛĮØŃ
Ø³ØªÛĮÚ©ÛĮ
ĠØ¹Ø±ØµÙĩ
Ġirre
ĠØ¯Ø´ÙħÙĨØ§ÙĨ
Ġvanished
ĠÙħØ®Ø§Ø·Ø¨
Ġphotographs
Ġswimming
ĠØ§Ø´ØªØ¨Ø§ÙĩÛĮ
ïº
Ġlists
rooms
Ø¦ÙĪØ³
abul
ĠGene
ĠFalls
ĠØ¹ÙħØ±Ùħ
Ġassass
ĠØ®ÙĪØ§Ø¨Ú¯Ø§Ùĩ
Ġperiods
ĠØ¬Ø§ÛĮÚ¯Ø²ÛĮÙĨÛĮ
Ġgazing
Ġinquired
Ġmolecular
Nevertheless
Ġcategory
Comp
cule
Ú©Ø±Ø§ÙģØ±Ø¯
ĠØ¨Ú©ÙĨ
ĠØ±Ø¨ÙĪØ¯
Ġhid
ÚĨØ§ÙĦ
ĠÛĮÙĪØªÛĮ
ĠÚĨØ·ÙĪØ±ÛĮ
Ġsto
Ø¯Ø±Ø®Øª
ÙĨÚ¯Ùĩ
ĠTreat
ÙĬÙĤ
ÙĪØ±Ø¯ÛĮ
ĠVis
Ġclut
ĠÙĨØ§ÙħÛĮØ¯
ĠØ¨ÛĮÙĨØ§ÛĮÛĮ
Ġrecalled
erer
ĠØ³ÛĮØ³ØªÙħÛĮ
ĠØªØ§Ø±ÛĮØ®ÚĨÙĩ
ĠØ±ÙģØªØ§Ø±ÙĩØ§ÛĮ
Ġconcrete
Ġearthqu
Ġcommunications
Ġguessed
ĠØªØ¸Ø§ÙĩØ±Ø§Øª
Ġbattery
ĠColombia
enezuel
Eng
Ġtale
itled
Ø¬Ø³Øª
ĠØ¨ÛĮØ§ÙĨÛĮÙĩ
agic
ĠVic
ĠØ§Ø´Ø¹Ø§Ø±
Ġgloomy
Ġsouls
Ġprepare
ĠÚ©ÛĮÙĦÙĪÙħØªØ±ÛĮ
Ġconviction
reprene
Ġengines
pan
xual
isal
Ġdiversity
Ġclerk
Ġbrow
Ġscent
ĠØ®Ø·Ø±ÛĮ
Ø§Ù¾ÙĪØ±
2004
Ġsquee
ippin
ĠÙĩØ´ØªØ§Ø¯
IDS
ĠØ¹ÙģÙĪ
hov
uine
Ġfestival
ĠØ³ÙģØª
ĠØ³Ú©Ø³
Ġdwell
ĠÚ¯Ø±Ø¯Ùĩ
Ġga
ÙĩØ§Ø´Ø§ÙĨ
Ġrolling
Ġresumed
Ġnewly
ĠØ¢Ø±ÙĨØ¬
Ġstrangers
Ġboxes
ÙħØ·Ø§ÙĦ
Ġconceal
Ġloudly
Ø¹Ø´ÙĤ
ilibrium
Ġsale
Ġshapes
ĠLight
venue
ĠØ±Ø§ÙĩÙĨÙħØ§
ĠØ³Ø§Ø®ØªÙĨØ¯
olds
ggotty
Ġpersonally
ĠØ§ÙĨØ³Ø§ÙĨÙĩØ§
Ġfunctional
Ġiniti
Ġdiscussed
ĠÙħÙĪØ³Ø³Ø§Øª
ĠÙħØ°Ø§Ú©Ø±Ø§Øª
Ġexhausted
ĠÙħØµÛĮØ¨Øª
Pres
ØªÙĪØ³
Ġfires
Ù¾ÛĮÙĨ
Ġhed
ÙĩØ§ÛĮØªØ§ÙĨ
utuzov
ĠBurg
Ġusage
ÙĪØ²Ø¯
ĠØ¯ÙĦØ®ÙĪØ§Ùĩ
ÙĪØªÛĮÙĨ
Ġ37
ĠÚ¯Ø±Ø¯ÙĨØ´
Ġmatches
Ø´ÙĨØ§Ø³ÙĨØ¯
Ġsecrets
Ġpockets
Ġencourage
Ġbehaviour
ĠÙĨÙĪØ§Ø®ØªÙĨ
ĠÚ¯Ø°Ø±Ø§ÙĨØ¯Ùĩ
ĠØ¬Ø²ÛĮÛĮ
Certain
HR
World
have
uation
ÙĦÚ©
Ú¯Ø§ØªÛĮ
ĠÙĨÚ©ÙĨÙĨØ¯
ĠØªØ§ÛĮÙĦ
Ġholy
acement
change
ntil
auc
ĠÚ¯Ø±Ø§ÛĮÛĮ
ĠÙĨØ§ÙħØ´
Ġbrid
ĠØ¬ÙĨØ§Ø²Ùĩ
Ġconfront
Ġequality
Ġvariables
ĠSenate
ĠÙģØ±Ø³ÙĪØ¯Ùĩ
Ġlatest
ĠØŃØ³Ø§Ø³ÛĮØª
Father
lers
Ú©Ø§Ø³Øª
Ø²Ø§Ø¯
Ġlap
Ġnig
Ġrecept
ammy
ĠAureliano
ĠMit
ĠMore
ilton
ulus
ĠØ¯Ø§Ø±ÙĪÛĮ
ĠâĢ²
ĠGran
ĠDana
ĠØ¨Ø¯ÛĮØ¯
Ġenh
ÙĦØ¨Ø®ÙĨØ¯
Ġattach
Ġending
ĠØ§Ø¨Ø±ÙĪ
Ġpersonality
ĠÙħØ±Ú¯Ø´
Ġlanding
ĠÙħØ´Ø®ØµØ§Øª
Ø®ØµÙĪØµØ§
ĠÙĤØ¶Ø§ÛĮÛĮ
ĠDorothy
ĠFederation
Imagine
Ø±Ø¹
Ġbeam
ĠÙģÙĪØ±
ĠÙĩÙħØ©
ĠCensus
ĠØ±ÙĪØ²Ø§ÙħÙĪÙĨØ¯
Ġquit
Ġcountenance
Ġmetaph
ĠÛ³Û²
Ġrepresentation
ĠÚ©Ø§Ø±Ø¨Ø±Ø¯ÙĩØ§ÛĮ
Ġcovering
ĠImper
ĠMathemat
ĠØ§Ø±Ú©Ø³ØªØ±
Ġunpleasant
Frank
Ø§Ú¯
ØªÙĪØ±ÛĮ
eries
ĠÙħÛĮØ®ÙĪØ§Ø¯
Ġhollow
Ġtob
Ġpond
ĠÙĩØ¯Ø±
ĠÙĤÙĪÙĩ
ĠHosp
ĠÙħØ³Ø¬Ø¯
ĠÙĨØ´ÛĮÙĨ
ĠØ¨Ø§Ø´Ú©ÙĪÙĩ
Ġflour
rorism
Ġthrowing
ĠØ±Ø§ÙĨØ¯Ùĩ
Ġparticipants
Moreover
Ġcheerful
").
SL
ãĢ
ĠØ¯ÙĦØ§
ĠÙĨÙĪÛĮØ³ÛĮ
ĠÙħÛĮÚ¯Ùĩ
ĠØ´ÛĮÙĦÛĮ
ĠØ¨Ø±Ø§ÙĤ
olis
Ġseed
ĠØªÙĪÙĩÙħ
ĠTar
ĠØ³Ø§ÙĦÙĩØ§
ieval
oca
ĠØ´ÙĩØ§Ø¯Øª
Ġgovernor
ĠÚ¯Ø±ÛĮØ²
ĠØ§Ø«ÙĨØ§
ĠÙĤØ´ÙĨÚ¯ÛĮ
ĠÛĮØ§ÙĨÚ©ÛĮ
imensional
UR
bf
hr
tic
vation
ÙĦÙĨ
Ġwoke
ĠIT
oli
Ġabund
ĠJe
Ġmanip
ĠÙħÚ©Ø§ÙĦÙħÙĩ
ĠÙĨÙĪØ±ÙĪÙĨ
ivering
ĠØªØ³Ú©ÛĮÙĨ
ĠÙģÙĦØ³ÙģÛĮ
ĠØ¬ÙĪÙĨØ²
Ġdeserted
Ġcontemporary
Ġtorture
ĠÙħÙĩØ§Ø¬Ø±Ø§ÙĨ
Ø§ÛĮØ§Øª
ĠØ¬ÙĨØ¬
ĠØ§ÙĪÙħØ¯
ĠÙĦÛĮÙĨÙĪ
ÚĺÙĪÙĦ
Ġcock
ĠØ³Ø§Ø®ØªØ§Ø±ÙĩØ§ÛĮ
ĠØ¨Ø´ÙĨÙĪÙħ
Ġconcentration
Ġsyndrome
AB
à¦
ØªÙĨÛĮ
Ġcust
ĠØ¨Ø±Ø·Ø±Ùģ
ĠSound
ĠDaniel
Ú©Ø±Ø¯ÛĮØ¯
lando
Ġcurve
ĠIsab
ĠØ´ÙĪØ±Ø´ÛĮ
Ø¯ÛĮÙħÛĮØªØ±ÛĮ
Ġkingdom
ĠØªØ²Ø±ÛĮÙĤ
42
gence
Ġ×
Ø³ÙĪÙħ
Ġmamm
ĠØ¢Ø±Ùħ
ĠØ§Ø³ØªØŃ
ĠÙģÙĪØ±Ø¯
ĠÙĦÙĤ
ĠÙĦØ§ÙĨÙĩ
ĠØ¨ÛĮØ§Ø¨Ø¯
ĠØ¨Ø§Ø²ÙĪ
ĠKn
Ú¯ÙģØªÛĮ
ĠØ²ÙĨØ§Ø´
Ġabsent
Ġperforming
ĠÙĦÙĩØ³ØªØ§ÙĨÛĮ
Ù¾ÛĮÙħØ§ÛĮÛĮ
ĠØ¹Ø¯Ø¯ÛĮ
Ġfeatured
Ġmechanics
ĠÙħÙĨØŃÙĨÛĮ
ĠÙħØ¹Ø¯ÙĨÛĮ
ĠØºÛĮØ¨Øª
Ġwidow
Ġprocedure
Su
culation
sur
ÙĪØ®
Ġturb
Ġdio
ĠØ®Ø¯
Ġhence
ĠØ¬Ø±Ø§ØŃ
urus
Ġstem
Ø¨Ø§Ú©
elled
ĠÙħØ±Ø¯ÙĨ
perhaps
ĠOver
ĠØ¨Ø§Ø²ÛĮÚ¯Ø±Ø§ÙĨ
ĠÚ©Ø§ÙħÙĦÛĮ
ÙĨÙħÙĪÙĨÙĩ
ĠØ§Ø·ÙĦØ§Ø¹ÛĮ
ĠÙħÙĪØ¶Ø¹
ÙĪØ³ØªÙĪÙĨ
Ø¢ÙħØ¯ÛĮ
Ġsunlight
Ġlabour
ĠÙĬØ§
ĠØ±ÙĪØ§ÙĨØ´ÙĨØ§Ø³ÛĮ
ĠØªØ¶Ø§Ø¯
ĠÙ¾Ø§ÛĮØ¯Ø§Ø±ÛĮ
Ġcognitive
pread
ØªØ§ÛĮÛĮ
Ø´Ø§ÛĮ
reated
ĠÙĩØ§Ø±Øª
Ġlun
Ġgown
ĠÛĮÚ©ÙĨÙĪØ§Ø®Øª
aman
ĠÙĦØ§Ø±
ĠØ³Ø±ÙģÙĩ
ĠDmitri
Ġje
ĠØ§ÙħÙĪØ§ÙĦ
assan
Ġcrash
ÙĪØ¨ÛĮØª
ĠÛ±Û¸Û·Û
Ġstriking
ĠPalestinian
Ġsharply
Charles
lav
zi
Ø±Ú©ÛĮ
ĠØ¨ÙģØ±ÙħØ§ÛĮÛĮØ¯
ĠÙħØ²Ø¯
ĠØĮ"
itched
ĠÙħÛĮØ¯Ø§ÙĨÙħ
Ø¬ÙĦ
ĠÙĤÙĨØ¯
ÙĦØ§Ø·
ĠØ¯Ø§Ø±Ø§
look
ĠØªÙĨØ¨ÛĮÙĩ
Ø§Ø±ØªØ²
Ġendeav
graph
Ġsincere
Ġexperts
def
pended
Within
ĠÛ±Û¹Û¸Û´
ĠØ¢Ø¯Ø§Ø¨
Ġgratitude
ĠØ´ØªØ§ÙģØª
Af
Ġtip
itual
Ġmock
Ù¾Ø²Ø´
Ġlin
ulpt
ĠTit
ardo
ĠFront
Ġintimate
Ġagony
ĠØ§ØŃØ²Ø§Ø¨
claimed
Ġ38
ĠÚ©Ø´ÙĪØ±ÙĩØ§ÛĮÛĮ
ĠØ´ÛĮØ¨
ĠØ±ÙĨÚ¯ÛĮÙĨ
ĠØ¯Ø±ÛĮØ§ÙģØªÙĩ
ĠÙģÙĩÙħÛĮØ¯ÙĨ
ĠÙĦØ±Ø²ÛĮØ¯
ĠÛ±Û¹Û´Ûµ
Ġcounsel
ĠØ³ÙĪØ¦Ø¯ÛĮ
Ġagreeable
ĠÙħØ·ÙĦØ¨ÛĮ
ĠÙħØ³ÛĮØŃÛĮØª
Ġharvest
Ġcabin
Ġoccasions
gon
ØªØ¨
ĠØ³Ø³Øª
ĠØ¬Ø§Ø¨Ùĩ
ĠAmy
ĠBible
ĠÚ¯Ø±Ø§Ùħ
gered
ĠØªØ±ØŃÙħ
ĠÛĮØ§Ø¯Ø¨ÙĪØ¯
Ġemail
ĠØ¨Ø¨ÛĮÙĨÛĮ
Ġassigned
ĠØ³ØªØ§Ø¯
ĠÙ¾ÙĪØ´ÛĮØ¯ÙĨ
Ġsixth
Ġradical
ĠÙ¾ÙĪØ³ØªÛĮ
ĠÙĨØ§Ø®Ø§ÙĦ
Ġpanic
Ġtherapy
Ġbeaten
ĠØ§ÙħØªÙĨØ§Ø¹
Ġexecutive
ĠÙĨÙĪØ´ÛĮØ¯ÙĨ
ĠØ§Ø³ØªÙĪØ¯ÛĮÙĪ
Ġqueer
Ġdisagree
onomous
68
him
ÙĪÙģØ±
ÙĪÚ¯ÙĪ
ĠØ´ÛĮØ§Ø·ÛĮÙĨ
Ø¬ÙĪØ§ÙĨÛĮ
ĠÙ¾Ø´Ùĩ
ĠÙģÙĪÙĨ
ĠAP
Ø´Ø¯ÛĮØ¯
Ġju
ĠØ¨Ø¯ÙĨÙĩ
Ø¯Ø§ÙĨØ§ÙĨ
ĠÙħØ¬Ø§ÙĦ
ĠTheatre
ĠØ¯ÙĪØ³ØªÙħ
Ø®ÙĪØ§ÙĨØ¯ÙĨØ¯
Ġpreparing
Ġlaboratory
Ġcelebrated
Edward
Ġgathering
ĠØ´ÙĩØ±Ø¯Ø§Ø±ÛĮ
Bel
ĠÙħÙĪØ¯
orious
ĠÙģØ§ÙĦ
ĠÚ©ÙĨØªØ³
Ġagencies
ĠÛ±Û¹Û²Û°
ilda
ÙħØ¯ÙĦ
ĠUnivers
ĠÚ©ÙĪÚĨÙĪÙĦ
ĠArm
ĠÙ¾Ø§ÙĪÙĦÙĪ
ĠØªØ£Ø³Ùģ
ĠÙĦÛĮØ²
Ø¯Ø§Ø´ØªÙħ
idespread
ĠØ³Ø§ÙĨÚ©ÙĪ
Ġfatal
Ġattractive
ĠSystems
Ġstroke
ĠØ¨Ø§Ø²Ú¯Ø´ØªÙĩ
Upon
Between
Ø¢ÙĦÛĮÙĪØ´Ø§
¯į
Ð´
ĠÙħÛĮØªÙĪØ§ÙĨÛĮÙħ
Ġpup
enter
ØµØ§Ø±ÛĮ
Ø³ÛĮØ±ÛĮ
ĠBos
abil
Ġorange
Ġalter
Ġoutcome
ĠÙĨÛĮØ³
Ġscandal
ØªÙĪÙĨÛĮØ¯
Ġbloody
ĠProdu
prise
Ġoperated
Ġ1964
ĠÙħØ²Ø®
Ġtested
2006
ĠTehran
Ġencry
Ġreactions
ĠAssembly
Further
zo
à´
ĠÙħØ¸
ĠØ±Ø§Ø´
ĠÚ¯Ø³
ÙĪÙĨÙĪ
ldom
ĠØ³Ø±ÙĨÚ¯
Ġsovere
ÙĪÙħØ¹Ùĩ
ĠØ§ÙħÙĦØ§Ú©
assador
ĠÙħØ³Ø¯ÙĪØ¯
ĠØ´ÙĨÙĦ
Ġdecor
ĠØ¯ÙħØ´
ĠÚ©Ø±Ø§ÛĮÙĩ
ĠÙĪØ¨Ú¯Ø§Ùĩ
ĠÙħØ§ÙĩÛĮÚĨÙĩ
ĠSecretary
ĠÙĦÚ¯Ø¯
ĠÙħÙĪØ¨Ø§ÛĮÙĦ
eur
Ø§ÛĮÙĪØ§ÙĨ
ĠÙĪØ³Øª
ĠÙ¾Ø±Ùģ
otype
ĠÚĨØ§Ú©
ĠÙħØ¹Ø·
ĠKurd
ÙĪØªÙĨ
Ø¨Ø±Ø¯Ø§Ø±
ĠØ±ÛĮÙĪ
Ġdecent
ĠØ§Ø´ØªØºØ§ÙĦ
Ġopinions
Ġexpressions
Ġencouraged
break
ĠJustice
Ġcandidate
ĠCharlie
Ġhorizon
natural
ĠÙĤØ§Ø±ÚĨ
ĠØ³Ø¦ÙĪØ§ÙĦ
ØªØ¬
Ø§ÙĨÚ¯ÛĮ
Ġborders
Ù¾Ø±Ø³Ùħ
Ú¯Ø±Ø§ÛĮØ§ÙĨ
Ġsear
oples
ĠØ§Ø³Ùģ
ĠØ§Ø³Ú©ÙĦ
ĠÙ¾ÛĮØ´Ø®Ø¯ÙħØª
Ġamid
ĠStory
athan
Ġrecording
ĠØ´ÙħØ±Ø¯Ùĩ
obs
ĠØ¸ÙĦ
ÙĨÙĪØ´ØªÙĩ
ĠIndepend
Ġorganisms
ĠÙģÛĮØ³
ĠÙħØªÙĨÙĪØ¹
Ġdivine
Ġtroubles
ĠÙĤÛĮÙħØªÛĮ
Ġquarters
ĠØ´ÙģÙĤØª
Ġindicate
Ġporch
ĠØ§ÙĦÚ¯ÙĪÙĩØ§ÛĮ
ĠÙħØ¹ÛĮØ§Ø±
ĠÙĦÛĮÙĨÙĪÚ©Ø³
%.
aton
Ġchess
ĠØ¨ÙĩØ±
ĠØ³ÙħÛĮ
ÚĨØ§ÙĦÙĩ
Ġsup
ĠHere
ifications
Ġpleas
ĠÙħØªÙĨØ§Ø³Ø¨
Ġamounts
Ġdenied
ĠSerb
Ġthoroughly
Ġbewild
Bo
Life
ÛĮÙĪØ±Ú¯ÛĮØ³
ĠÙħÚ¯Ùĩ
Ġmast
ĠÙ¾ØªÛĮ
still
ĠÚ©Ø§Ø±ÙĪÙĦÛĮÙĨ
ĠØºÙĦÛĮ
Ġbuying
Ġheadquarters
ĠØ¨ÙĨØ¸Ø±
Ġcontinuous
ĠØ§Ø¹ØªØ¨Ø§Ø±ÛĮ
ĠSoft
ĠSwiss
Ġagriculture
ĠÚĨØ±ÚĨÛĮÙĦ
uv
Ġsang
ĠØ¯Ø±ÙĩØ§ÛĮ
ĠØ¢ØªÛĮ
ĠØ¢Ú¯ÙĩÛĮ
Ø±ÛĮÙģÛĮ
ÙĦØ§Ø´
ĠDelt
Ø§Ú©Ø§Ø±ÛĮ
ĠØ¯ÛĮØ¯Ú¯Ø§ÙĨ
Ġrepair
Ġdiscrim
ervation
Ġadvis
Ø¢ÙħØ±ÛĮÚ©
Ġlowest
ĠÙĪÛĮØ±Ø¬ÛĮÙĨ
ĠÙĨØ§ØªÙĪØ§ÙĨÛĮ
ĠÚĨÙĨÚ¯Ø§ÙĦ
ĠÙħØ¬ÙĩØ²
Ġtow
Ø¹ÙħÙĦ
Ġink
Ġheating
ĠØ¬Ø§Ùĩ
ĠÚĨØ³
irk
ĠLow
Ø§ÙĨØ¯Ø§Ø±Ø§ÙĨ
Ġfeather
Ġours
ĠÚĨÙĨØ¯ÛĮ
ovo
Ø¨ÙĦÙĨØ¯
phal
Ġgenerous
ĠÙħØ´Ú©ÙĦØ§ØªÛĮ
ĠÚĺÙĨÙĪÙħ
ĠØ¢Ø³ÛĮØ§ÛĮ
Ġ1965
Ġtopic
ĠEdmund
Ġsecretary
ĠØ³Ø¹ÙĪØ¯ÛĮ
ĠØ¯ÙħØ§Øº
ĠÙĨØ§Ø³Ø§
Ġpronounced
Ø§ÙĦØªØŃØµÛĮÙĦ
bury
ĠØ¯ÙĨØ¯Ùĩ
Ù¾Ø±ÛĮ
eting
rove
ĠSolar
ĠÙĦÙģ
ĠBan
ĠRou
ĠNet
ĠÙĨÙĪÛĮÙĨ
Ġarray
reek
closed
ĠØ¨ÙĦÚĺÛĮÚ©
Ġpoem
Ġdont
Ú¯Ø±Ø¯ÛĮ
Ġserves
ĠØ²ÙĨØ§ÙĨÛĮ
ĠÙħØºØ²Ø´
ĠÙĪØ§Ú¯ÙĨ
Ġestimate
ĠAdminist
Ġ1939
Ġportal
ĠØ´Ø§Ø¯ÙħØ§ÙĨ
ÙħØ§Ø¯Ø±Ø´
Ġterrorist
Ø²Ø§ÛĮÙĨØ¯Ùĩ
ĠÙħØ²Ø§ØŃÙħ
Ġtremendous
,,
Lord
ÙĨÚ©ØªÙĩ
ÙħØ±Ú¯
inth
Ġintern
ĠÙģÙĪ
ĠØ¢ÙĨØ§Øª
ÙĬØ§Ø±
ĠØ§ØŃØ¶Ø§Ø±
Ġsprang
Ġindifferent
ĠArag
anks
ĠØ³Ø§Ø²ÙĨØ¯
Ġinterior
ĠØ¨Ø¹ÛĮØ¯
Ġcleared
Ġextrem
ĠÙĩØ´ØªÙħ
Ġneighbour
ĠØ§Ø®ØªØµØ§Ø±
Ġparticipate
ĠØªØ¬Ø±Ø¨ÛĮØ§Øª
Ġconverted
wig
ĠÚ©ÙĪØ´ÛĮØ¯
ĠØ±ÙĤØª
oni
Ù¾ÙĪØ±Øª
Ġpoured
ĠØ³Ø§ÙĨØª
Ġnan
otte
ĠØ®ÙĪØ¯ÛĮ
Ġvib
ĠJud
Ġgenuine
Ġmodified
ĠÙħØºØ±ÙĪØ±
Ġextensive
ĠØ¢Ø´ÙĪØ¨
ĠØ§Ø±Ø²Ø´ÙħÙĨØ¯
Ġequations
ĠÙĪØ³Ø·ÛĮ
ĠØ®ÙĪØ±Ø§Ú©ÛĮ
Ġeleph
Ø¯Ø³ØªØ´
Ġhopeless
Ġfunding
rsula
Ġfrozen
ĠDarcy
Ġsustainable
ĠØ¨Ø§Ø±Ø¯Ø§Ø±ÛĮ
ĠÙħÚ©Ø±Ø±
Retrieved
Cons
Dor
Five
bul
},
Ġcher
Ġbars
Ù¾Ø§Ø¯
Ġ'.
former
Ġpartial
comes
Ġskull
ĠØ¨Ø§ÙĨÚ©ÛĮ
Ġrig
Ġviewed
Ġliterary
Ġemergency
ĠØ³Ø¹Ø§Ø¯
ĠSummer
Ġmurdered
Ac
ĠÙħØ§Ø²
Ġcub
ĠØ¢Ø±Ùĩ
icate
ĠÙģØ²Ø§ÛĮÙĨØ¯Ùĩ
ĠÙĦØ§Ø²
illes
ĠBudd
ĠØªÙĪØ§ÙĦØª
Ø´ÙħØ±Ø¯
ĠÙĨØ´Ø±ÛĮÙĩ
answered
Ġregiment
ĠØ§Ø¨Ø²Ø§Ø±ÛĮ
Ġexplicit
ĠØ¨Ø§ÙĪØ±ÙĨ
ĠØ¨Ø±Ø¯Ø§Ø´ØªÙĨ
ĠConference
Hermione
Ġcollapse
Ã¡n
Ġsavage
Ġinclined
Ġcodice
ĠÙħÙħÙĦÙĪ
ĠØºØ§ÙģÙĦÚ¯ÛĮØ±
hist
Ø¯Ø³ØªÙĩ
ĠÙħØ§Ø¨
ÙĦØ§Ø¨Ø¯
Ø§ÙĩÛĮØ±
ĠØ¢ÙĨØ³Øª
ĠSup
Ú¯Ø±Ø§ÛĮ
Ø°Ú©Ø±
uscript
ĠEle
Ġchart
ĠIsot
Ġdrama
although
ĠÙĪÙĦØ²
Ġ1941
Ġsensation
Ġà¯į
Ġsymbols
ĠÙĤÛĮØ§Ùħ
Ġpraise
Ġmicros
Ġnegoti
Ġcomprehens
Ġholiday
vo
zes
Ø§Ù¾ÛĮØ´
Ú¯Ø§ÙĦÛĮ
ĠRay
iva
ĠÙħØ¬Ø°
ĠØ¬ÙĨØ§ØŃ
Ø¨Ø¹Ø¯Ø§
Ġassault
Ġlandl
Ġsupports
ĠÚ©ÙĦÙħØ§ØªÛĮ
ĠManagement
Ġrespectively
Ġmarketing
Ġutil
ĠØ®Ø¯Ø§ÛĮØ§
Ġmixture
ĠÙ¾ÙĦØ§Ø³ØªÛĮÚ©ÛĮ
Ù¾ÛĮÚĨÛĮØ¯
ĠBrooke
Ġterrified
Ġtobacco
Ġtens
Ġdamp
adel
ĠIN
agan
ĠØ·Ø¹Ùħ
ĠØ¨ÛĮÙĨÛĮÙħ
ĠÙĨÙģØ±Ùĩ
ĠÚ©ÙĪÚĨÚ©Ø´
Ø§ÙģØªØ§Ø¯Ùĩ
Ġsituated
Ġdecline
ĠÙĩØ§Ø±ÙĪØ§Ø±Ø¯
ĠÚ©ÙħØ±Ø¨ÙĨØ¯
03
Until
mu
Ġtons
inus
ĠØ¯Ø§Ø´
ĠØ±ÙĪØ§ÙĨÙĩ
Ġnic
ĠGi
Ú©ÛĮÙĪ
ĠØ±ÙĪÛĮÙĩ
Ú©Ø³ÙĦ
Ġdistinction
Ġcenters
annels
ĠØ§ÙĨØ¯Ø§Ø®ØªÙħ
Ġrelevant
Ġangrily
ĠHarriet
ĠÙģØ±Ø§ÛĮÙĨØ¯ÙĩØ§ÛĮ
Ġsettlement
Ġdefeated
Ġpsychology
Ġproceeded
Ġtheorem
Ġadmiration
ĠØ¨Ø²Ø±Ú¯Ø³Ø§ÙĦØ§ÙĨ
ĠÙĨØ§Ø¨Ø±Ø§Ø¨Ø±ÛĮ
Ġalcohol
vironment
ÙħØ§Ùħ
Ú©ÙĦØ§
rea
Ġwidespread
ĠÙĨÚ©
edge
ĠÙħÛĮØ¯
Ġerect
ĠØŃØ±ÛĮÙģ
ĠAC
ĠAle
illo
opes
ĠBad
Ø§ÙĨÛĮØ§ÙĨ
Ġbye
Ġsuitable
ĠHom
ÙĪØ²ÙĨ
ĠØ¨Ø¯ÙĨÛĮ
iley
ĠÚĨÛĮØ²ÛĮÙĩ
orney
ĠØ¨Ø³ØªÙĨ
Ġ1962
Ġdealing
Ġeducated
Ġautomatically
ocolate
Ġisolated
ĠØ²ÛĮØ±Ø²ÙħÛĮÙĨÛĮ
Ã£o
ĠØ¯ÙĨØ¯
Ø²Ø¯ÙĩÙħ
Ġinch
Ġrejo
olph
ĠBureau
Ú¯ÛĮÙĦ
Ġshri
Ġliver
ĠÙħØ¹ÙĦÙĤ
ĠÙĨØ´Ø±
ĠØ§ØŃØ³Ø§Ø³Ø§ØªÛĮ
ĠÙħØªØŃÛĮØ±
ĠØ²ÙħØ§ÙĨÛĮÚ©Ùĩ
ĠØ³ÙģØ±ÛĮ
Ø¯ÙĪÛĮÙĨ
ĠÛ±Û¸Û¶Û
ĠÙĪØ§ØŃØ¯ÙĩØ§ÛĮ
Ġfacilities
ĠÙ¾Ø±Ø³ØªØ§Ø±
ĠÙ¾Ø±Ø³ØªØ§Ø±ÛĮ
Ġhastily
ĠRecords
ĠØ¹Ø¸ÙħØª
ĠFriday
ĠÛĮÙĪØªÛĮÙĪØ¨
04
Supp
hester
ĠÙĪØ±Ø¯
Ø¬Ø±ÛĮÙĩ
riages
ĠØ®ÙĪØ§Øµ
Ġsuffic
Ġchap
eller
Ġcompounds
ĠIns
Ġaccused
Ġaccustomed
ĠØ¬ÙĪØ§ÛĮØ²
ormal
ĠÙģÛĮØµÙĦ
Ġ1948
Ġoccupation
ÙĨØ®Ø³Øª
ĠÚ¯ÛĮØªØ§Ø±
Ġshocked
ĠÙħØ³ÛĮØŃÛĮØ§ÙĨ
Ġhesitated
Ġaccomplished
Ġrescue
http
Ã¥
Ø³ÙĪØ§Ø±
ouch
Ġcries
Ġcattle
Ø®Ø±Ùħ
ÙĪØ±Ø³
Ġgates
ĠÙĤØ§Ø·Ø¹
Ø±ÙĪÚ©
Ø¢Ø¯
ĠPu
ĠÙģØ±Ø´
ĠØ¯Ø³ØªØ§ÙĪØ±Ø¯
Ø´ÙĨØ¬
ĠØ·Ø±ÙģØ¯Ø§Ø±Ø§ÙĨ
ĠÙģÛĮÙĦØ¯
Ġâģ
Ġapproaches
Ġdimensions
ÙĤØ¨ÙĦØ§
Ø·Ø¨ÛĮØ¹ÛĮ
ĠÙĪÙģØ§Ø¯Ø§Ø±
ĠÙĨØµÛĮØ¨
ĠHospital
ØªØ§ÛĮ
Ġtough
Ø²ÙĪÙĨ
ÙĪØ±Ø§ÙĨØ³Ú©ÛĮ
ĠÛĮÚ©Ø³Ø±Ùĩ
Ø®ÙĪØ´Ø¨
ĠÙħØ³Ø§ÙĪÛĮ
ĠØ¨Ø§ÙĦØ´
Ġcovers
Ġindul
Ġreluct
ÙĪØ§Ø±Ø¶
ĠÙħØ¹ÙħØ§Ø±
Ġconfig
ĠGrace
Ġfurious
2003
ĠØ¶Ø±Ø±
ĠØ¢ÙģØªØ§Ø¨ÛĮ
ĠÙħØ§ØªØ±ÛĮØ³
ĠBoard
Ġclinical
ÙħØ³Ø¦ÙĦÙĩ
LL
MM
faces
Ø§ÙĪØ±ÛĮ
ĠØ´Ø§ÙĦ
Ġpound
Ø®Ø§Ø¨
ĠÛĮÚ¯Ø§ÙĨÙĩ
ÙĩØ§Ø³
ĠÙĦÛĮØ¯ÛĮ
ĠÚ©ÙĦØ§ÙĩØ´
issance
Ġapolog
Ġreasonable
ĠØªÙĦÙģÙĨÛĮ
Ġcorners
ĠØºØ±ÛĮØ²Ùĩ
Ġpassionate
ĠÙĨØ¯ÙĩØ¯
ĠWilson
ĠAtlantic
ĠHotel
ĠArgentina
jud
ÙĤØ§ÙĦ
iti
Ġharb
ĠØ¯Ø±Ø¯ÛĮ
arity
ĠÙĩØ§ÙĦÛĮ
ÙĪØ±Ø§ÙĨÙĩ
ĠÙĤØ§Ùĩ
Ġ(;
Ø§Ø²Ø¯ÙĩÙħ
Ø§Ø³ØªØ§Ø²ÛĮ
Ġloyal
ÙħÛĮÙĨÛĮ
ĠÛ±Û¹Û´Û°
ĠChief
ĠØ§Ø·ÙĦØ³
ĠÚĺØ±Ùģ
Ġscattered
ĠØªØ¹Ø¸ÛĮÙħ
never
ĠAlf
ĠÙ¾ÛĮØ´ÙĨÙĩØ§Ø¯ÛĮ
ĠØ³Ø±ÛĮØ¹ØªØ±
Ġreducing
Ġphilosopher
ĠÚ©Ø§ØªØ±ÛĮÙĨØ§
Ġgallery
ĠDarwin
Ġembrace
highlight
GO
NU
iop
ĠØ¨ØµØ±ÛĮ
Ø§Ø±Ø¬
ĠØ³Ø¨ÛĮÙĦ
lete
uled
ĠPict
through
Ġshares
ĠØ¯Ø³ØªØ§ÙĨ
ĠØºØ±Ø´
ĠÙħØ´Ú©ÛĮ
perm
Ġclosing
ÙĨØ¬Ø§Ø±
ĠØ¢ÙĦÚ©Ø³Ø§ÙĨØ¯Ø±
Ġawa
Ġgloom
ĠÙħÙĪÙĤØ¹ÛĮØªÛĮ
ĠMountain
Ø¯ÙĪÙħÛĮÙĨ
Ġpilot
Ġlantern
ĠHitler
rained
western
ĠÙĨØªÙĪØ§ÙĨØ¯
Ġfert
Ġming
ÙĪÙĨÛĮØ§
uther
ifference
ĠØµÙĪÙħØ¹Ùĩ
ÙĦØ§Ø¦Ùĩ
ĠDun
ĠWhere
Ġpasses
Ġinsurance
ĠReal
ÙħØ±Ø¯Ø§ÙĨ
Ġpatience
ironments
ĠØ§Ø´Ø®Ø§ØµÛĮ
Ġpollution
Ġsubsequently
Ġhospitals
ĠÙĨØ§Ø§ÙħÛĮØ¯ÛĮ
did
eenth
inates
Ø´ÛĮØ¯Ùĩ
ĠØ±ÙĤÛĮØ¨
itudes
Ġbay
ĠIce
ĠÙĦØ§Ùħ
umbling
ĠDantes
ĠHig
Ġjer
Ġ34
Ġentreprene
Ġpassengers
Ġbelieves
ĠMarx
Ġannounce
Ġmerc
Ġcollar
Ġfunds
Ġsignificance
Ġclimb
Ú©Ø¨ÙĪØª
Ġcalculated
Ġembarrassed
Ġsyntaxhighlight
Ber
PM
di
rand
µÛ²
ÙħØ±Ø¨
ĠØ¨ØªÙĨ
Ø²Ø¨ÛĮ
ĠÙĨÚ¯Ø±ÙģØª
Ġdraft
ĠØ¨Ø±ÙĨØ¬
ĠØ¨Ø±Ø§ÙģØ±ÙĪ
ĠÙĤØ¨Ø§ÙĦ
ĠØ§ÙĪÚ©Ø±Ø§ÛĮÙĨ
Ġseldom
ØºØ¯
ĠHart
Ú©Ø§Ø±ÙĩØ§ÛĮ
Ġperception
Ġgoodness
Ġlightly
Ġassign
except
Ġcharges
ĠØªØ±Ø³ÛĮÙħ
ĠØªØ®ÙĦÛĮÙĩ
Ø´ÙĪÙĩØ±
ĠMedical
ĠØ§ÛĮØ¯Ø²
ĠRosamond
Ġtransformed
Ġfolded
Ġtenderness
ographer
ĠÙĦÛĮØ¨Ø±Ø§ÙĦ
ĠIndonesia
Ø¨Ø±Ø®ÙĦØ§Ùģ
Dervish
Ø¯ÙĤÛĮ
ĠÙĨÚ©Ø´ÛĮØ¯
ĠÙ¾Øª
ĠScient
ags
ĠHollywood
acking
ĠØ®Ø·Ø§ÛĮ
ØªÙĪÙĨÙħ
ĠÚ¯ÛĮØ³
Ġfootst
Ġeyebr
Ġrepresenting
ĠÙħÛĮÚ©Ø±ÙĪØ³
Ġtraveling
Ġtrembled
ĠØ±Ø¯ÛĮØ§Ø¨ÛĮ
Ġimprovement
Ġcontempl
ĠÚ¯ÙĪØ¯Ø§ÙĦ
ĠØ¨Ø§Ø²ÙĨØ´Ø³ØªÙĩ
Ġlecture
Ø®ÙĪØ´Ø¨Ø®Øª
xic
eras
ĠÙ¾ÚĨ
Ġreverse
Ġweird
ĠCe
Ġvice
Ġtwisted
ĠVenezuel
ĠØ³ÙĪØ¦ÛĮ
ĠØ¨Ø§Ø²ÛĮØ§Ø¨ÛĮ
Ġ48
ĠÛĮØ§ÙģØªÙħ
ĠØ®ÙĪØ§Ø³ØªÙĨØ¯
ĠConvention
Ġsummon
ĠPolice
ĠØ¹ÙħÛĮÙĤØ§
Ġwealthy
Ġblew
Ġsubstance
ĠØ´ÙĩØ±Ø¯Ø§Ø±
bably
ĠÙħÙĤØª
Ø§ÛĮØ´ÛĮ
Ġciv
ĠÙħÛĮØ´ÙĨ
acent
Ġneuro
ĠÙģØ±Ø§Ø±ÛĮ
ĠNa
ĠOS
ÙħÙĦÙĦ
ĠÙĤØ¯Ø±ØªÛĮ
Ġsolved
ĠØªØ±Ú©ÛĮØ¨Ø§Øª
Ø§ØºÙĦ
Ġ1966
2007
Ġsurvival
ĠØ®ÙĦØ¨Ø§ÙĨ
Ġruined
Ġintegrated
ĠØ³ÙĦÛĮÙĤÙĩ
ĠÙĨÛĮØ§ÙģØªÙĩ
Ġswiftly
ĠØ§Ø³ØªØŃÚ©Ø§Ùħ
HA
dimensional
ji
nut
ØªØ£
ĠØ±Ø¨Ø¹
Ġrows
ĠØ§Ø³ÙĨÛĮÙ¾
ĠØ¯Ø§Ø¯Ø³ØªØ§ÙĨ
ĠOl
Ġcompare
ressing
ÙħÙĪØ§Ø²ÙĦ
ĠÙģÙĦØ§ÙĨ
ĠÚ¯Ø±ÙħØ§ÛĮÛĮ
Ġcrypt
Ġdemocratic
Ġbeliefs
Ġcriticism
pher
sis
wall
Ú©Ø¬Ø§
ĠØªÙĦÙĩ
ĠØ¢Ø´ØªÛĮ
Ø±ÛĮØ§ÛĮÛĮ
ĠAud
Ø¢Ø±Øª
ÙĨÚ¯Ø±Ø¯
ĠÙħØ§Ø´ÛĮÙĨÛĮ
ĠTy
ĠÙħØŃØ§ÙĦ
Ġscen
ĠØ³ÙĪÙ¾Ø±
neath
Ġimpressed
Ġ55
Ø¨Ø±ÛĮØ¬
ĠÙĨÙĪØ´ØªÙħ
ĠÙħØ¹ÙĨØ§ÛĮÛĮ
ĠHeritage
ĠÚĨØ±Ø¨ÛĮ
Ġbriefly
Ġobservations
ĠÙĨØ¹Ø±Ùĩ
ĠØ¢Ø±Ú©Ø§Ø¯ÛĮ
ĠFootball
Cam
bet
ÙĩØ§ÙĨ
ĠÙĩÙĦÛĮ
ĠØ®Ø·ÙĪØ±
Ġconvey
ĠLie
Ġtrap
Ġdaylight
ĠØ§Ø¨ÙĨ
Ġwalks
Ġdesigner
Ġcorruption
shire
ĠØªÙĦÙģØ¸
ĠÙĦÙĩØ¬Ùĩ
ĠØ¨Ø§ØºÚĨÙĩ
ĠØ§ÙĨØ¬ÛĮÙĦ
ĠÙħÙĤØ§ÙĪÙħ
Ġregularly
ĠÙĦØ²ÙĪÙħØ§
Ġcasual
HT
mi
ĠÚ©Ø§Ø¯
Ġwicked
ĠØ±ÙĩØ§ÛĮÛĮ
Ù¾Ø±Ø³Ø¯
ĠGame
outheast
ĠÙĨÙħØ§ÛĮÛĮ
ĠØ®ÛĮØ±ÛĮÙĩ
ussian
Ġsecondary
aneous
ĠÛ±Û¹Û¸Ûµ
ĠØ¨Ø§ÙħØ¯Ø§Ø¯
Ġsynthesis
Che
mod
rates
Ġawards
Ġmasters
ĠÙĩÛĮØ±
ÙĪØ§ÙĨØ³ÛĮÙĪÙĨ
ĠÙĦÙĪØ³
Ġnotable
ĠÚ©Ø§Ø±Ø¨Ø±ÛĮ
Ø§ÙĨØ¯Ú©ÛĮ
ĠÙħØ´Ú©ÙĪÚ©
ĠØ±Ø³Ø§ÙĨÛĮ
ĠÙĩÛĮÚĨÙĪÙĤØª
ĠØ¨Ø§Ø±Ø§ÙĨÛĮ
Ġcooking
ĠØ¬ÙħØ§ÙĩÛĮØ±
ĠÙĨØ§Ú¯ÙĪ
Ġsculpt
ĠØªØ¹Ø¨ÛĮØ±
ØºÛĮØ¨
Ġcurrency
ĠÚ©Ø§ÙĨØ§Ø¯
Ġseparation
Ø³ÛĮÙĦÙĪØ§ÙĨ
ĠÙĨÛĮØ±ÙĪÚ¯Ø§Ùĩ
Ġpersuade
Ġgalaxy
Ġabruptly
ĠÙħØ±ÛĮÙħ
Ø³Ø§ÙĦÛĮ
Ġles
acon
ĠÙħÙĨØ¬
ĠCA
ĠÙĦØ±
ĠBaker
ĠØªØ±Ø§ÙĨ
Ġflav
ĠØ§Ø¹ÙĦÛĮ
ĠÛĮØ§Ø¯Øª
ĠÙħØ§Ø¯Ø±Ø§ÙĨ
ĠAnne
ĠØ¨Ù¾Ø±Ø³ÛĮØ¯
ĠÙĨÛĮÚ©ÙĪ
ĠÙģÛĮÙĦÛĮÙ¾ÛĮÙĨ
ĠGreece
ĠÙ¾ÙĦØ§Ø³ØªÛĮÚ©
ĠÙģÙĦØ³Ø·ÛĮÙĨÛĮ
phew
ĠØ¨Ø§Ø²Ø§Ø±ÛĮØ§Ø¨ÛĮ
ĠÙħÙĪØ§ÙĨØ¹
ĠÙ¾Ø§ÙĪÙĦÙĪÙĪÛĮÚĨ
Gl
MP
OW
âĢĮ...
Ġwishing
ĠÙĪÚ¯Ø±
ĠØ¨Ø±Ú¯Ø±ÙģØªÙĩ
Ġnephew
ĠØ§ÙĦÙħÙĦÙĦÛĮ
ĠØ¨Ø§ÙĦÛĮÙĨÛĮ
Ġgrows
formula
ĠÙĨØ³Ø¨
Ġcrimes
ĠØ¸ÙĦÙħ
ĠØ¨ÙĢØ±
ĠTrade
ĠØ§Ø«Ø§Ø«
ĠØ¨Ø¯Ø§ÙĨÛĮÙħ
Ġmagnific
Ġinteractions
Ġresponded
ĠÚ¯ÙĨØ¯Ùħ
ĠØŃÙħØ§ÙĤØª
Ġsaddle
uit
ÙĨØ¨Ø§ÛĮØ¯
Ø¨ÙĨÛĮ
ĠÙĩÙĪØ±Ùħ
Ġinward
ĠØ²Ø±Ùĩ
rior
arer
Ġenable
Ġcountess
Ġaccum
ĠØ¬Ø§ÙħØ¯
Ġvex
Ġobjective
Ġcultiv
ĠPeggotty
ĠNatural
Ġphysician
Ġshelter
oir
Ú©ØªÛĮ
ĠØ¨Ø¨Ø®Ø´ÛĮØ¯
ÛĮÙĨÛĮØ§
ĠØªØ¨Ø§Ø±
Ġgam
ĠÙĤÙĪØ·ÛĮ
ĠSnape
ĠBroad
Ġshops
Ø¹ÛĮØ§ÙĨ
berry
ĠÙ¾ÛĮØ´Ø±ÙĪÛĮ
ĠOt
Ġdisgr
ĠÚ©ÙĦÙĨØ¯
ĠØ²ÛĮØ§Ø¯Ùĩ
Ġflies
Ġbund
ĠÚĨÙĩØ§Ø±Ø¯Ùĩ
Ġtempt
Ġtrous
ØªØŃÙĤÛĮ
Ġdeny
ĠEngineering
ĠØªØŃÙĤÙĤ
lic
Ġtie
ĠÙħØ£
Ø³Ø§ÛĮÛĮ
ĠÙħÛĮØ±Ùħ
Ġpile
ĠØ¬ÛĮÙĨÛĮ
ĠØ²Ø±
rah
ĠØ§ÙħØ§Ùħ
fere
ĠØ±Ø³ÙħØ§
forth
ĠØ¨Ø§Ø±ÙĪÙĨ
ĠØªØŃØµÛĮÙĦÛĮ
ØªÙħÙĨØ¯ÛĮ
Ġmathematic
ĠÙħØ³ØªØ¹Ùħ
Ġputs
Ġinspiration
Ġfrust
ĠÙħØ§Ø±Ø´
ÙĥØ±
ĠØªØµÙħÛĮÙħØ§Øª
ĠÙ¾ÙĪØ´ÛĮØ¯
ĠÙħØ²Ø§ÛĮØ§ÛĮ
Ġcontrols
Ġtraveled
ĠDenmark
Ġastonishment
Ġignorance
ĠØ¯Ø§ÙĦÛĮ
ĠØªØ§Ø±Ø§
Ġmaps
especially
ĠØ¨Ø§Øª
Ġeh
ĠØŃÙĪÙĦ
amis
ĠBing
ĠØªÙĪØ³Øª
ĠTs
ĠFle
ĠEqu
ÙĪØ²ÛĮØ¯
ĠKent
iph
ĠÙĨÛĮØ¬Ø±ÛĮÙĩ
ĠØ§ÙĨØ¬Ø§ÙħÛĮØ¯
Ġtransformation
ĠØ§ÙĨØªØ®Ø§Ø¨Ø§ØªÛĮ
Ġvisits
ĠÙģØ±ÙħØ§ÙĨØ¯Ø§Ø±
Ġswept
ĠÛ±Û¹Û·Û³
ĠSteven
ĠCPU
ĠØªØ·Ø¨ÛĮÙĤ
ĠØ¨Ø§ÙĪØ±ÙĨÚ©Ø±Ø¯ÙĨÛĮ
uity
ĠØªØ³Ùĩ
alis
ÙĪÛĮØ§ÙĨ
etary
Ø§Ø¨ÙĦØ§
ĠÚ©ÙĨÛĮØ§
Ġprohib
Ġunderground
ĠØ¯ÛĮØ¯ÙĨØ´
orship
Ú¯ÛĮØ±ÛĮØ¯
Ġsubt
Ø§ÙĨÚ¯Ø´Øª
ĠÚĨÙĩØ§Ø±ÙħÛĮÙĨ
Ġsket
orthos
aska
Ġtracks
Ġmotionless
Ġinfected
Similar
ĠAthos
Ġå
ĠÚ©ÙħØ§ÙĨ
ĠØªÙĪÛĮÛĮ
orical
ĠÙģØ§Ú©ØªÙĪØ±
Ø´ØªÛĮÙĨ
ĠØ²ÙĦ
ĠØ²ÙĬ
ĠÙĤÙĪØ§ÛĮ
ayed
Ġ""
ĠØ³Ø±ÙĤØª
ĠWikipedia
Ġtheme
Ú©ÙĦÛĮÙĨ
ĠYe
Ġinvasion
Ġblog
ĠØ¢Ø´ÙģØªÚ¯ÛĮ
ĠØ¬Ø±Ø¦Øª
ĠØ±ÛĮØ§Ø¶
Ġsurvived
ĠÙ¾ÚĺÙĪÙĩØ´ÛĮ
ĠOnline
ĠÙĨÙĪØ¬ÙĪØ§ÙĨØ§ÙĨ
ĠDivision
Ġdefinitely
Video
race
uum
vid
Î±
ishers
ĠÙĨØ®ÙĪØ§ÙĩÛĮØ¯
ĠÙĦØ§ÙħÙ¾
ĠBat
ĠBuck
aba
ĠRNA
ĠLim
Ú©ÛĮÚ©
ĠØŃØ§ÙĦØ§Øª
Ġ1900
Ġdetailed
Ġtemporary
Ġdreamed
Ġpeaceful
ĠÙħÙĨØŃØ±Ùģ
Ġmathbf
Ġeagerly
Ġastonished
Ġdisturbed
Ġinequality
ĠAmazon
aus
aire
rust
ĠØ¨Ú¯ÛĮ
Ġwives
ĠÙĪÙĦÙĪ
Ġthri
ĠMade
ĠTuring
ĠØ±ÙĪÛĮØ§
ĠØ§ÙħØ¶Ø§ÛĮ
ÙĪØªÙĪ
ĠØ¢Ø²Ø±Ø¯Ùĩ
ĠÙħØ³Ø§ÙģØ±Ø§ÙĨ
Ġfrequent
Ġdamn
ĠÙħØŃØ¯ÙĪØ¯ÛĮ
Marius
ĠAlexandrovna
ussell
ĠÙħØŃØ±ÙħØ§ÙĨÙĩ
PG
could
Ø³Ø±Ø¯
ifer
ĠRio
ĠØºÙĪØ·Ùĩ
ĠKoch
Ġpeak
Ġsmiles
Ġfounder
ĠÙĤØ·Ø¨ÛĮ
Ú¯Ø´ØªÙĨØ¯
ĠØ§ÛĮØ±ÙĦÙĨØ¯ÛĮ
ĠÙĪØŃØ´
ĠShow
Ġsingular
Ã©s
Ġprotests
ĠØ§ÛĮÙħÙĨ
Ġlawn
loyment
ÙħÛĮØ±ÙĨØ¯
Ġdocumentary
Ù¾Ø§ÙĨÚĨÙĩ
ĠÚ©Ø§Ø¨ÙĪØ³
ĠSocialist
Ġdescended
ĠSilver
Ù¾Ø§Ø³Ø®
LD
Sil
ĠØ§Ø¨ÛĮ
Ú¯ÙĬ
ĠST
ĠØ¯ÙĦØ§ÛĮÙĦÛĮ
ĠØ¯ÙĦØ³ÙĪØ²ÛĮ
Ġtraged
Ġwherever
Ú¯Ø±Ø¯ÛĮÙħ
ĠÙħØ±Ø¬
Ġbehalf
Ġ95
Ġlanded
ĠØ§Ø·Ø±Ø§ÙģØ´
Ġdescribing
2002
Ġpotentially
ĠButler
ĠØ§Ø®ØªØµØ§ØµÛĮ
ĠÙħØªØ£Ø«Ø±
Ġcategories
Ġowl
ĠTemple
rows
ÙĪØ§Ø²
ÙħÙĪÙĦ
ĠØ§Ø¦Øª
Ġcaut
Ġhired
aron
alty
Ġheap
ĠÙĩÙħÙĪØ§Ø±
ÙĪÙĦÙģ
ĠÚ©Ø§Ø±Ø§Ú©
ĠÙħØ¹Ø§ÙħÙĦ
Ġcomprom
Ġcontents
ĠØ´ÛĮÙĪØ¹
ĠÙĥØ±Ø¯ÙĨ
Ġenvironments
ĠÛ±Û¹Û¸Û¶
Ġemployment
ĠØ¬Ø§Ø¨Ø¬Ø§
Ġsubsequent
Ġrhyth
ĠÙħØªÙĪØ§ÙĦÛĮ
EA
rage
wed
xide
Ø³Ø±ÙĪ
ington
ĠÛĮØ§ØªØ§
ĠÚĨÛĮØ¯Ùĩ
Ġstolen
ĠSud
Ġexport
uese
ĠChristians
ĠØ¹Ø¨ÙĪØ³
ĠÛ±Û¹Û·Û´
Ġinfluential
ĠØ´Ø§ÙĨÙĪÙĨ
ĠÙĪÙĤØ§Ø±
ĠÛ·Ûµ
Ġnarrative
Ġvessels
GS
iary
Ġtries
ĠØªÙĪÙĨÙĩ
aro
Ġpave
ĠØ¨Ø§ØªØ±ÛĮ
Ġwashed
ĠØ§ÙĪØ¨
ĠØ®ÙĪØ´Øª
ĠØ³Ø±ÙĪØ§ÙĨ
ouses
ĠØ¯Ø§ÙĨÚ©ÙĦØ§Ø±
Ġrecru
century
Ġpopulations
ĠMargaret
ĠØ®ÙĪØ±Ùĩ
Step
Ġpressing
ĠÛ±Û¹Û·Ûµ
ĠEncyclopedia
ĠÙĩÙĪÙĦÙĨØ§Ú©
Ġfetch
ĠÙĪØµÛĮØª
Ġcigarette
Ø¹Ø²ÛĮØ²Ùħ
Med
cond
po
ĠØ±ÛĮØª
ĠØ®Ø±Ø³ÙĨØ¯
Ġnerves
ĠÚ¯ÙĨØ¯Ùĩ
ĠØ¨Ø±Ø¢ÙħØ¯
ØµØ§Ùģ
ĠSi
usk
ĠBishop
ĠBoston
abs
ĠDro
ĠHop
ĠØ¹ÙħÙĪØ¯ÛĮ
ĠÙĨØ²Ø¯Ùĩ
Ġconsisted
Ġslaves
Ġhumor
ĠØ¢Ø²Ø§Ø¯Ø§ÙĨÙĩ
ĠSeries
Ġreveal
ĠØ§ÛĮÙĪØ§ÙĨÙĪÙĨØ§
ĠØ®ÙĨØ«ÛĮ
ĠDenis
Ġassembly
ĠÙħØ´Ø§ÙĪØ±Ùĩ
ĠOlympics
ĠÙģÙĤØ¯Ø§ÙĨ
DF
hard
Ġtape
Ġboss
ĠÙħÛĮØ§ÙĨÛĮ
ĠØ´ÛĮÙĨ
Ġgonna
ĠMum
ĠØ¨ÛĮØ§Ø¯
Ġrape
Ġjur
gins
ĠÙĨÙħØ§ÛĮØ´ÛĮ
ĠÙħØ®Ø²ÙĨ
Ġdrum
ĠØ®ÙĪØ¯ÙħÙĪÙĨ
Ġsolitary
unications
Ġtribes
Ø§ÛĮØ³ØªÚ¯ÛĮ
Ġdrops
Ġcamels
Ġprevented
à¤¾
cadio
ĠØµÙħÛĮÙħØ§ÙĨÙĩ
Ġinterpretation
Bill
gas
mates
ĠÙħÙĪØ±Øª
Ø³Ú¯
ĠÙĪØ§Ø³ÛĮ
ĠØ¢Ø¯Ø§Ùħ
Ġdiverse
ĠØ³Ø±Ø³Ø±Ø§
elia
ĠDad
ĠLine
Ø¨Ø±ÛĮØ¯
ĠØ¨Ø¯Ø´
Ġquarrel
Ġthreats
ĠVolume
ĠÙĤÙĩØ±ÙħØ§ÙĨØ§ÙĨ
ĠÙħØ·ÙħØ¦ÙĨØ§
ĠÚ©Ø§Ø³Ùĩ
General
ĠÚ©Ø´ÙħÚ©Ø´
Ġbin
ÚĨÙĨ
ĠÙ¾ØªÙĪ
Ġnit
ĠØ¬ÙĪÛĮÛĮ
ĠÙĩÙħÚ¯Ø§ÙĨ
ĠØ§ÙĪÚĺÙĨ
Ġstadium
ÙĪØ§ÙĨØ§
Ġvoy
ĠÙħØ§Ú©Ø³
ĠExt
Hello
Ġflut
Ġeyed
ĠÙĨÛĮØ±ÙĪÛĮÛĮ
ĠDead
ĠØ¢Ø´Ù¾Ø²ÛĮ
fortune
ĠØ¨Ø±Ø§Ø¯Ø±Ùħ
ĠØ¨Ø§Ø²Ø§Ø±ÙĩØ§ÛĮ
Ġmistakes
ĠÙĥÙĨÙĨØ¯
Ġqualities
Last
Ġtran
Ø¹ÙĦØ§
ĠØ¨Ø§Ø®Ø¨Ø±
ĠØ¬Ø§ÙĨÛĮ
ĠÙģØ§ÙĨÙĪØ³
ete
ĠØªÙĪÙħ
ĠØŃØ§ÙĦÙħ
ÙĪØ²ÙĪÙħ
itionally
Ġindicated
Ġglow
ĠØªÙĦØ§Ø´ÛĮ
Ġrivers
ĠØ§ÙĨØ³Ø§ÙĨÛĮØª
ĠØ¯Ø³ØªÛĮØ§Ø±
Ġconvict
Ġstirred
Ġdivorce
Û¶
ÙģØ§ÛĮ
ĠÙĨÙĩÙħ
Ġdates
Ú¯Ø±Ø§Ùĩ
ĠGill
Ú©ÛĮØªÛĮ
Ġchannels
ÙģØ±Ø´
Ġintu
ĠØ¯ÛĮÚ¯Ø±Ø´
ondra
hedral
ĠØªÙĨØ§Ø±Ø¯ÛĮÙĩ
Ġquad
ĠÙĩÛĮÚĨÛĮ
Ġcoff
Ø³Ø§ÙĨÚ©ÙĪ
Ġrecall
ĠØµØŃØª
Ġapple
Ġgenome
ĠØ´ÛĮØ¡
Ġchecked
Ġstops
ĠÙ¾ÙĨÛĮØ±
Ġmajesty
Ġselfish
ĠÙħØ¨Ø§Ø¯ÙĦÙĩ
ĠÙĤØ´Ø±
ĠØ±ÛĮØ²Ø´
Ġpsychological
Ġabandon
ĠØ¨ÙħÛĮØ±Ø¯
Ġdecrease
usalem
Ġmerchant
Trans
two
ÙħÙĪØ³
Ú©Ø´ØªÛĮ
isons
ĠÙĨØ±Ø³ÛĮØ¯
rolled
Ġatom
ĠØ¨Ø§Ø²Ø±Ø³ÛĮ
ÙĬÙī
ranean
Ġnoon
ĠØ§ØŃÙħØ¯
ĠØªØµÙħÛĮÙħÛĮ
ĠStock
ÙħØªØ£
ĠØ³ÛĮØ±ÛĮ
Ġactors
Ġcolonel
Ġpublication
ĠâĢĿ.
Ġepid
ĠNorway
Ġconcealed
ĠÙĨØ§ÙĤØµ
Ġjacket
Ġtournament
Love
Ġá
Ø±ÙĨØ¯
ĠÛĮÚ©Ø³Ø§ÙĨÛĮ
ĠSav
Ġorche
ĠØ¯Ø³ØªÚ¯ÛĮØ±ÛĮ
apore
Ġmanuscript
ÙĭâĢĮ
ĠÚ©ÙĦØ±
Ġdownstairs
Ġentitled
Ġexpense
lessness
Ġcream
ĠØªÚ©ÙĦÛĮÙģ
Ġvisiting
Ġequilibrium
ĠØ¨ÙĦÙĪØ·
ÙģØ±Ø³ØªØ§Ø¯
Ġquantity
GB
link
Å«
ĠÙĨÙĪØ¯
Ġfury
Ġmales
ĠAmb
ĠMP
ĠBangl
loved
ĠØ¬ÙħÙĦØ§Øª
ĠØ´ÙħØ³ÛĮ
Ġcharity
ĠØ¨ØŃØ±Ø§ÙĨÛĮ
ĠÙ¾Ø³Ø±ÙĩØ§
atson
Ø´ÙĨØ§Ø³ÛĮÙħ
ĠÙĩÙĨØ±Ù¾ÛĮØ´Ùĩ
ĠÚ¯Ø°Ø´ØªÙĨØ¯
Ġeducational
agnetic
ÙħØ§Ø¯Ø±Ùħ
ĠÙĪÙģØ§Ø¯Ø§Ø±ÛĮ
ĠForest
Ġtightly
ĠÙĪØ§Ø´ÙĨÚ¯
Ġroubles
onymous
Remember
ĠÙĨØ§Ø®Ø§ÙĦØµ
Hel
Mary
RNA
uan
Ñı
ĠAhab
olia
Ġdeaf
ĠGulf
ĠHor
ĠNotes
ĠØ°ÙĪØ¨
ĠØ¬Ø§ÙĩØ§ÛĮÛĮ
2010
Ġdiagram
Ġstrip
Ġdelightful
ĠÙĩØ§Ø±ÙĪÙĦØ¯
Ġuneas
Ġhypothesis
ĠØ®ÛĮØ§Ø¨Ø§ÙĨÛĮ
dam
dri
eke
main
ĠÙħØ±ÙĪ
ÙĤØ³ÙħØª
ĠØªÙĪØ±Ùħ
Ġfare
Ù¾ÛĮØ¯
Ø®Ø§Ø±ÛĮ
Ø®Ø§Ø°
ĠØ§ÛĮÙĨÙĤØ¯Ø±
ÙĦÛĮÙĪÙĨ
ÙĪÛĮØ¶
Ġhaz
ĠØ¯ÙĪÛĮØ¯ÙĨ
Ġrats
Ġwheels
ĠNaval
ĠOur
ÙħØªØ§Ø³Ùģ
ĠChildren
Ġrecovery
Ġbehave
Ġpurple
Ø³ÙĪØ§Ø±ÛĮ
ĠÛ±Û¹Û¸Û²
vania
ĠÙĦØ±Ø²Ø´
reshold
ĠØ¯Ø§Ø±ÙĪÙĩØ§
Ġinvention
ĠÙħÙĨØ§Ø³Ø¨Øª
olitan
ĠÙĨÙĪÙħÛĮØ¯ÛĮ
Ġpoliticians
ĠPhysics
ĠÙħØ¬Ø°ÙĪØ¨
Fran
Mod
Ste
uis
ÙħØ¯Ø±
omon
ĠÛĮØ§Ø¨
Ġgif
ĠØ²ÙĩØ±
Ġhabits
Ø§Ø³ØªÛĮ
ĠÚ©Ø§Ø±Ú©Ø±Ø¯
ĠLas
ÙĩÙħØ±Ø§Ùĩ
Ġparted
Ø³Ø±Ø§ÛĮ
Ġrelatives
Ġdisturb
ĠÙ¾Ø´ØªØ´
brid
Ġmagical
Ġ1963
ĠÙ¾ÙĨØ§ÙĩÚ¯Ø§Ùĩ
ĠÙĨÙģØªÛĮ
ĠMilitary
Ġinvestigation
ÙĦØ·ÙģØ§
ĠWalter
cert
fax
sed
ĠÙħØ²ÛĮØª
ĠØ¯Úĺ
ÙģØ¯Ø±
ĠØ§Ø³ØªØ§Ø¯ÛĮ
Ġeternal
ĠØ¹Ø§Ø²Ùħ
ĠSnow
ĠMalfoy
Ø¢ØªØ´
Ġrings
antin
Ġsho
ĠDVD
Ġalph
ĠFund
ĠEinstein
ĠÙħØ³Ø§ÛĮÙĦ
uend
ĠÙĨØ´Ø³ØªÙħ
Ġdesires
Ø³Ø±Ø¹Øª
Ġinsert
pson
Ġexperimental
ĠØ³Ø±Ø¯Ø±Ú¯
ĠØºØ°Ø§ÙĩØ§ÛĮ
ÙħØ³ÙĦ
ĠÃī
Ġ1929
Ġoptions
ĠÙħÙĩÙħØ§ÙĨØ§ÙĨ
ING
Ġspectrum
EP
Great
run
via
ĠØ§Ø¨ÙĦ
Ø¨Ø¯ÛĮ
ĠÙĪØ§ÛĮØª
ĠÙĩØ´ÛĮ
ĠØ³Ø§Ø³
ĠAIDS
ĠØªØ§Ø®Øª
ĠDC
ĠÙħØ¹ÛĮÙĨÛĮ
ĠÙ¾ÛĮØ´Ø§Ù¾ÛĮØ´
ĠØ²ÛĮØ§ÙĨ
ĠØºÛĮØ±ÙĨØ¸Ø§ÙħÛĮ
Ġembed
apsed
Ġinfer
Ø§ÙĨØªØ®Ø§Ø¨
Ġbeds
ĠØ¨Ø±Ø¯Ø§Ø´ØªÙħ
ĠÙ¾Ø±ØªØºØ§ÙĦÛĮ
Everybody
ÙĨØ¸Ø±ÛĮÙĩ
Ø§Ø¹ØªÙĨØ§
Ġmolecule
ĠØ¨Ø®ÙĪØ±ÙĨØ¯
Ġagricultural
Ġcondemned
ĠCarolina
ĠÙĪÚ¯Ø±ÙĨÙĩ
41
OP
your
Ġfaded
Ø±Ø¯Ø§Ø±ÛĮ
Ø·Ø±Ø§ØŃÛĮ
ĠØ¹Ø§Ø¯ÙĦØ§ÙĨÙĩ
ĠÙĦØ§ÙĨÚ¯
Ø§Ø±Ø¯ÙĪ
Ġdisaster
ĠØ§ÙĦØª
ĠØªØ±ØºÛĮØ¨
Ġbuff
ĠØ³Ø§Ø²Ú¯Ø§Ø±ÛĮ
ĠÙħØ®Ø§Ø±Ø¬
Ġreprodu
Ġdrivers
Ġ1936
ĠÛ±ÛµÛ°
ĠÙģØ¯Ø±Ø§Ø³ÛĮÙĪÙĨ
Ġfeedback
ĠÙ¾Ø´ÛĮÙħØ§ÙĨ
Ġpregnant
Ġpowder
chers
oa
pre
uish
ÙģÙĪÙĤ
Ġbri
Ġinject
Ø§ÙħÚ©Ø§ÙĨ
ĠCape
ĠPoint
osph
ĠGad
Ø¯ÛĮÚ¯Ø±ÛĮ
ĠLew
ÙĨÛĮÙĩ
arded
ĠKnow
ĠOk
Ġdisput
ĠThird
Ø§Ø¦ÛĮÙĦ
ĠØ¨Ø¯ÙĨØ¨Ø§ÙĦ
Ø®ÙĪØ¯Øª
2008
ĠÛ±Û¹Û¶Û¸
ÙĪØ§ÙĤØ¹
ĠÙħÙĤØ¯ÙħÙĩ
ĠØºØ¶Ø¨
power
ĠØ±Ø§ÚĨØ³ØªØ±
ĠÙ¾ÙĪØ³
Ġnest
Ø§ØªÙģØ§ÙĤ
ĠCome
ÙĨÚ¯Ø§ÙĩÛĮ
ĠØ®ÙĪØ¨Ùĩ
Ġvital
Ġchapter
ĠNature
ÙĪÙħØ±
ĠØ§Ø³Ú©ÙĨØ¯
actions
ÛĮÚ©Ø§
ountered
ĠÙħØ¬Ø±Ø¯
Ġresidents
aterina
before
Ġcounting
tenance
chester
ydney
ĠÙĤÙĦØ¨Ùħ
Ġauthent
Ġdemands
Ġconvince
ĠØ¨ÙĨÚ¯ÙĦ
ĠÙĤØ²Ø§ÙĤ
David
FI
lle
Ġsway
ĠÙħÛĮØ¯Ø§ÙĨÛĮ
Ġdil
ĠØ¹ÙĪØ§Ø±Ø¶
Ø°Ùĩ
ĠGDP
ĠLloyd
ĠFried
ĠÙĩÛĮØªÙĦØ±
ĠVar
Ġcontest
cliff
ĠÙĩØ§Ú¯ÙĪ
Ġflame
ĠØ¬ÙĪØ¬Ùĩ
ĠØ´Ú©ÙĦØ§Øª
ĠÙħØ´ØªÙĤ
Ġ99
Ġadmire
ĠØ³ÙĪØ§ÙĦØ§Øª
University
EEE
Ġelderly
ÙħØ±Ø¯Ùĩ
Ġbot
Ù¾Ø§Ø±Ùĩ
Ġdense
ĠÙ¾Ø¯Ø±ÛĮ
icism
ĠØ¬ÙĩØ§Øª
ĠØ¬ÙĪØ²Ùģ
Ø·Ø§ÙĨÛĮ
Ġshield
apor
Ġindifference
Ġstartled
ĠBeck
Ġrepresentative
Thanks
Ø¨ÙĨØ¯Ùħ
ĠÙĤØ§Ø¹Ø¯
Ġwarned
Ġentertainment
ĠØ§Ø¨Ø±ÛĮØ´Ùħ
ĠØ¹Ø§Ø·ÙģÛĮ
ĠØµØ§ØŃØ¨Ø§ÙĨ
ĠEugene
Ġtunnel
MR
flu
ÙħØ®ØµÙĪØµØ§
Ġtub
Ú¯Ø²Ø§Ø±Ø´
ĠØ¯Ø±Ø¨ÛĮ
Ù¾ÙĨØ¯
ĠØ¹ÛĮØ¯
ÛĮÙħØª
ĠMarsh
unting
ĠÙħØ¹ÙħØ§
ĠÙĨÙĪØ§Ø²
ĠÙħØ¯ÛĮØ±Ùĩ
ĠØ³Ø§Ø®ØªÛĮÙħ
Ġcrushed
whose
Ġbush
Ġelectrons
ĠØ±ÙģØªØ§Ø±Ø´
Ġprompt
Ġdeadly
ĠÛ±Û¹Û·Û¶
Ġbelongs
Ġpresidential
Ø³Ù¾Ø§Ø³
ĠLebanon
Mat
mir
page
Ø§ÛĮØ¨
Ġcant
ĠØ³ØªÛĮ
ĠSaf
ĠPope
ĠBil
ĠDown
ĠÚ¯ÙģØªÛĮØ¯
iang
Ġdeserve
ĠØ¬ÙĨÚ¯ÙĦÛĮ
Ġendure
Ġ42
ĠÙħØµØ±ÛĮ
Ġlightning
ĠØªÙģØ§ÙĪØªÛĮ
ĠÙģØ±ÛĮØ§Ø¯ÛĮ
ĠHeath
ĠCommand
ĠÛ±Û¹Û¸Û³
Ġsensible
ĠØ´Ø§ÙĨØ²Ø¯Ùĩ
ĠAnton
ĠWilliams
ĠÛĮÙĪØ§Ø´
ĠØ¬ÙħØ¹ÛĮØªÛĮ
ĠPublishing
ĠPhilippines
ĠÙģØ§Ø³Ø¯
Wait
ĠØ¨Ø´ÙħØ§Ø±
Ø§ÙĨØ¬
oust
ĠÙ¾Ø§ÙĩØ§
ĠÚ©ÙĨÛĮÙĨ
ĠÚ©ÙĨØ§Ø±ÛĮ
agle
Ġshone
Ġloop
ĠØ§ØªØ®Ø§Ø°
Ġunderneath
ĠØªØ¬Ø³Ùħ
Ġcarp
ĠØ³ÙĦØ·Ø§ÙĨ
ĠÚ¯ÙĪØ§Ùĩ
Ø¨ØŃØ«
ĠØ®ÙĪØ±Ø¯ÙĨØ¯
Ġpublicly
ĠØªÙĪÙĨÛĮØ¯
ĠMissouri
Ġvolt
scale
ĠØ±Ø§Ø³Ú©ÙĦÙĨÛĮÚ©Ùģ
Ġcollaboration
Ġpurchase
Listen
Rober
may
ĠØ¨Ø®ÙĪØ§ÙĩÛĮ
Ø³ÙģØ±
Ġfence
Ġlately
ĠÙħÙĨØ§Ø¸Ø±
ĠHarr
Ġmarble
Ġrival
ĠSerge
ĠÙħÛĮØªÙĪÙĨÛĮÙħ
plicity
Ø®ÙĪØ´Ø¨Ø®ØªØ§ÙĨÙĩ
Ø³ÛĮÙĦÙĪØ§ÙĨÛĮØ§
Euro
Ú¯Ø´
Ġmarsh
ĠØ¢Ø«
ĠÚ¯Ø²Ø§Ø±
ĠØ§Ø³ØªØ¹Ùħ
otal
ĠÙģÙĩ
ĠÙĤØ¶Ø§
urred
ÙĨÚ¯Ø§Ø±Ø§ÙĨ
quer
Ġvivid
ĠLive
ĠHans
Ġplung
ĠØ¹ÙħÙĪÛĮ
Ġamused
ĠÙħØ«ÙĦØ«
Ġrecy
Ġemissions
Ġparish
Ġdivide
Ġmisfortune
ĠÙħØ§ÛĮÙĦÛĮ
ĠÛ±Û¹Û¸Û¸
Ġtemperatures
Ġroutine
ĠControl
ĠÙģÙĦÙĪØ±ÛĮØ¯Ø§
ĠÙĨØ§Ø®ÙĪØ´Ø§ÛĮÙĨØ¯
";
None
warts
Ø§Ø¹Ø¯
Ġmand
ĠÙ¾Ø³ØªØ§ÙĨ
ĠÚ©Ø§Ø±Ø´ÙĨØ§Ø³ÛĮ
ĠGab
Ġalien
Ø§ÙģÚ©ÙĨØ¯
ĠÚ©ÙĪÙĦÛĮ
angel
Ġquestioned
Ġproposal
ĠForces
Ġfacult
Ġsafely
ĠÙħØŃØªØ§Ø·
Ġrebell
iasm
Ġaccompany
ĠÚ¯Ø´Ø§Ø¯
Ġconservative
Ġlaser
Ġvulnerable
Ġinsects
ĠOttoman
ÙĨØ§Ø®
ĠÙĪØ¨Ø§
ativity
Ġcens
ĠØªØ«
ĠØ¯Ø±Ùħ
Ø¬ÙħÛĮ
ĠØ¨Ø§ÙĬØ¯
ĠØ¬Ø§Ø´
ĠCrit
Ġ120
agged
ĠÚ©Ø§Ø±Ø¯
ĠTest
ĠWars
ĠWolf
ĠJr
ĠÙħØ¹Ø´ÙĪ
Ġnowhere
ĠØ²ÛĮØ±Ú©
Ġtrunk
Ġstrings
ĠØµØ¯Ø§ÙĤØª
Ġextension
Ġcontinent
ĠÙĦÙĪÚ©
Ġclassroom
ĠØ§ÙĨØªØ¸Ø§Ø±Ø´
airo
ĠØ³Ø§Ø¨ÙĤØ§
Ġcharacteristic
Ġslightest
Ġlogical
Ġdelivery
Ø®ÙĪØ±Ø´ÛĮØ¯
ĠÙ¾ÛĮÙĪØ³ØªÙĨ
Ġlicense
ĠNazi
Cal
bat
Ø¬Øª
ĠÚ¯Ø±ÛĮÙģ
Ø§ØªÙĪÙĨ
ĠMike
ĠØµØ¹ÙĪØ¯
Ġkick
outs
Ġgover
ĠÙĲ
Ġpreserved
ĠAirports
Ġ600
Ġpatri
Ġcreativity
ĠÛ±Û¹Û¸Û·
Ġpaths
Ġballs
ĠÙħØ®ÙģÛĮØ§ÙĨÙĩ
Ġjournalists
warf
Ġregistered
ĠÚ©Ø§ÙĨØ§Ø¯Ø§ÛĮÛĮ
hal
yers
Ø³Ø§Ø±ÛĮ
ĠÚ©Ø§Ùģ
ĠÙħÛĮØ®ÙĪØ§ÙĩÙħ
Ø§Ø²ÙĪÙĨ
ĠMult
ĠÙĦØ§ÛĮØ¯Ú¯ÛĮØª
ĠØ±ÙĪØ¨
illance
ĠDictionary
Ġchances
ĠØ¨Ø¯ÙĨÙħ
ĠÙĨÙĪØ§Ø²ÙĨØ¯Ùĩ
Ġunderlying
Ġcounted
ĠThor
Ġmodest
Ġlighting
ĠØ§Ø±ÙĦØ§ÙĨØ¯ÙĪ
Ø´Ú©Ø³Øª
Ġsciences
Ġactivists
Ġprivacy
Ġfatig
ÙĪØ¦ÙĦØ§
ĠÙĦÛĮÙĨØªÙĪÙĨ
forcement
Ġstrategies
06
Count
uction
ÛĮØ§Ø¨ÙĨØ¯
Ġtack
ĠÚĨÙĨ
ĠÙĤØ¯ÛĮ
Ø¶Ø±
ieve
Ú©ÙĦÙħÙĩ
ĠÙĨØ§ÙħØ·
achi
ÙħØªÙĪÙĦØ¯
ØªÙħØ§ÙħÛĮ
Ġcommun
Ġinches
ĠÙħÙĦØ§ÙħØª
Ġpossibilities
ugs
ĠÚĨÙĨØ§ÙĨÚĨÙĩ
ĠØ¹ÙĪØ§Ø·
ĠØ¨Ø³ØªØ±ÛĮ
ĠØ§Ø¨ØªÙĦØ§
ĠÙ¾Ø±ØªØºØ§ÙĦ
ĠØªØ±ØªÛĮØ¨ÛĮ
Ġsteep
inois
ĠAlexandra
ĠÚ©Ø´Ø§ÙĪØ±Ø²Ø§ÙĨ
Ġawareness
Ġexhaust
ĠDuke
ĠØ¢Ú©Ø³ÙģÙĪØ±Ø¯
ĠØ²ÙĨØ§Ø´ÙĪÛĮÛĮ
ĠSupreme
Due
inn
Ġwaved
orable
ĠÚ¯ÙĪÛĮÙħ
ĠØ²Ø±ÛĮÙĨ
urable
oln
ĠØ¯Ø§Ø±ØªÛĮÙĨ
ĠÙħØ§Ú©
ĠHo
ĠFang
ĠØ¯Ø³ØªÙ¾Ø§
ĠÙħØ¹Ø§ÙĦ
ĠØªØ±ÙĤÛĮ
Ġdidnt
ĠØ¨Ø²Ø±Ú¯Ø´
olding
ĠØªØ£Ø«ÛĮØ±ÛĮ
ĠØµØ¯ÙĪØ±
Ġclassified
ÙĨØ§ÙħÙĨØ¯
Ġencountered
ĠÙ¾Ø§ÙĨØµØ¯
Ġbelonging
Ġflee
ĠÙĥÙĨÙĬØ¯
ĠBulgar
Ġfanci
ĠØ¬Ø§Ø³ÙĪØ³ÛĮ
Ġparameters
ĠImperial
ÙħØªØ£Ø³Ùģ
Cor
Ma
Ú¯Ø§ÙĦ
Ġcough
ĠØ³Ø§ÙĨØ¯
ĠØ§Ø²Øª
ĠCur
ĠCost
andy
ÙĦØ§ÙĤÛĮ
Ġkings
ĠØ³Ø±Ù¾Ø±Ø³Øª
Ġexagger
ĠØ¯Ø³ØªÚ©Ø´
ĠÙħØªØ¹ÙĩØ¯
Ø§Ú©Ùħ
ĠØ¹ÙħÙĪÛĮØ´
ĠØ¹ÙĨÚ©Ø¨ÙĪØª
issy
cedes
Ġ44
ĠÙĦÛĮØ±Ùĩ
ĠÙħÙĨØ¸ÙĪØ±Øª
ucked
ØŃØ³Ø§Ø¨
ĠØ§Ø³Ø±Ø§Ø±Ø¢ÙħÛĮØ²
ĠSquare
Ġpursuit
Des
Jamie
Tur
Time
Ġhorm
Ù¾Ø°ÛĮØ±Ø¯
Ġdow
Ø±ÛĮØ²Ø¯
Ġrevel
ĠSign
ĠNad
ĠØºØ§Ø±Øª
Ġscrew
ĠØ¨ÙĨÙĪ
ĠØ´ÙĪÚ©
ĠWhit
Ã©e
ĠØ§Ø¨ØªÚ©Ø§Ø±
ĠØ¨Ù¾Ø°ÛĮØ±
ienna
ĠÙħØªØ±ÙĪ
Ġinvolving
Ġprayers
ĠÙĦØ§ÛĮØŃÙĩ
ĠÙĨÙĬØ³Øª
Ġunfortunate
sometimes
cons
fish
mes
Û´Û
ĠØ¨Ú¯Ø±ÛĮ
Ġgut
ĠÙĤØµ
ĠRot
Ø¯ÛĮÚ¯Ùĩ
Ġchicken
ĠNord
ĠØ§ÛĮÙĦÛĮ
ĠÙħØ¹Ø§ÛĮÙĨÙĩ
ĠVern
ĠØ¨Ø®ÙĪØ±Ùħ
Ġbackward
ailing
Ġ39
Ġbelt
ĠÙĥÙĨÙħ
ĠÚ¯ÙĦÙĪÛĮØ´
Ġfilter
Ġ1961
Ġfearful
Ġpicking
Ø§Ú©Ø³ÛĮØ¯
ĠØ³ÙĪØ²ÙĨ
ĠØ¬ÙĪØ±Ø¬ÛĮØ§
ĠØµÙĦÛĮØ¨ÛĮ
writer
igenous
ĠØ§ÙģØ±Ø§Ø·ÛĮ
Ġinevitable
ĠMonday
Say
uctor
ĠØ¯Ø§ÙĪØ±
ĠÚ©Ø´Ø§ÙĨ
Ġpairs
Ø¹Ø§ÙĤØ¨Øª
ØŃØ§Ùħ
ethe
ĠSel
ÚĺÙĪ
Ġchat
Ġovert
Ġreserve
Ø·ÙĪØ±Ùĩ
ĠInst
ĠØ¨Ø®Ø´ÛĮØ¯Ùĩ
ĠØ¬ÛĮØ¨Ø´
ĠØ¢Ø³ÛĮØ§ÛĮÛĮ
Ġbarric
ĠØ¬ÙĨØ³ÛĮØªÛĮ
Ù¾Ø¯Ø±Ùħ
ĠÙħØŃØ¨ÙĪØ³
ĠÙħÙĪØªÙĪØ±ÙĩØ§ÛĮ
ĠRepublican
ĠØ±Ú©Ø§Ø¨
ĠØ±ÙĪÛĮØ¯Ø§Ø¯ÙĩØ§ÛĮ
ĠJerusalem
ĠNikolay
ØµØŃØ¨Øª
ĠÙģØ¯Ø§Ú©Ø§Ø±ÛĮ
!!
Er
RA
Ġ@
Ø³ÙĨØª
Ġtheatre
Ġsession
Ú¯ÙĪØ±ÙĨ
Ġhier
ĠØ¬Ú©Ø³ÙĪÙĨ
ÛĮÙħØ§
ÙĨÚ¯Ø±ÛĮ
ĠØ±ÙĪÙħØ§ÙĨ
ĠPsych
ĠØ¯ÙĪÚ¯Ø§ÙĨÙĩ
Ġorph
Ġalert
ieu
Ġflights
Ġworlds
Ġyoungest
ĠWebsite
chell
Ġcircles
Ġ1944
Ġ1959
ĠÚ¯ÙĨØ¬Ùĩ
ĠØ¯ÙĪØ³ØªØ§ÙĨÙħ
ĠØ®Ø´ÙĨÙĪØ¯
APTER
Ø§ÙĪÙĦÛĮÙĪÛĮÙĩ
Ġpersuaded
ĠØ¹Ø±ÙĪØ³Ú©
ĠÙĩØ¯ÙģÛĮ
Ġslavery
TH
master
ĠØ¨ÙĪÙĦÛĮ
itory
Ġbind
ĠØ¨ÙĩØ§ÛĮ
ĠØ³Ø²
ĠÙ¾ÙĨÛĮ
Ġgoss
ÙħÛĮØ´ÙĨ
Ġitem
ĠØªÙĪÙħÙĪØ±
ĠØ´Ø¨ØŃ
ĠYah
Ø±ÙģØªÛĮÙħ
ĠShah
Ġdoorway
Ġbarrel
syl
Ġpayment
ĠØ§Ø¸ÙĩØ§Ø±Ø§Øª
Ø¬ÙĨØ¨
ĠLuke
Ġsemi
Ġtheoretical
Ġignorant
Ġshrugged
ĠÙĪØ§Ø´ÙĨÚ¯ØªÙĨ
BO
Ä«
Ø±ÙĨ
ÙģÙģ
ĠÚ¯Ø±Ø§ÙģÛĮ
Ġgross
ĠSom
ĠÚ©ÙĨØ§ÛĮÙĩ
Ġcomedy
ĠRams
ĠÙħØ³Ø±Øª
Ġampl
Ø£Ø³
ĠArcadio
ĠÛĮØ§Ø¯Ø¢ÙĪØ±
ĠÚ¯Ø±Ø¯ÙĨØ¯
Ø§Ø¶ÙĦ
ĠØªØ£Ø«Ø±
ĠØªÙģØµÛĮÙĦ
ĠÙģØ¶Ø§ÙĨÙĪØ±Ø¯
Ġmarched
ĠØ§Ø¹ØªØµØ§Ø¨
Ġspeaks
ĠÙģØ±ÙĪØ´ÙĨØ¯Ùĩ
ĠÙĪÙĦØªØ§Úĺ
Ġactivist
Ġdestiny
Ø±Ø§Ø³ØªÙĪÙģ
Ġprinting
Ġscreaming
ĠVictor
ĠØ¬Ø§Ø¨Ø¬Ø§ÛĮÛĮ
ĠØ®ÙĢÙĪØ¯
ĠÙĪÛĮØ¯ÛĮÙĪ
Ġrelieved
QL
uate
world
ĠØ§Ù¾ÙĦ
ĠÙĨØ¨Ø§Ø´ÙĨØ¯
ĠØªØ§Ø¨ÙĦ
Ġdirt
Ø§ÙĦÛĮÙĨ
ĠÙ¾Ø§Ø¨
ĠÙĦÙĪÛĮ
ĠØ³Ø±Ø¨Ø§Ø²ÛĮ
ĠDer
Ġchip
ĠNumber
Ġplus
Ø´ÙĨÙĪÙħ
ĠOther
Ġgrade
ĠÙĨØ§Ø®ÙĪØ§Ø³ØªÙĩ
ØªÙħÙĦ
aware
Ġpreserve
Ġinvitation
ĠÚĨØ±Ø®ÛĮØ¯
Ġmerry
Ġtargets
ĠØ¨ØªÙĪÙĨÛĮÙħ
mill
äº
ĠØ¨ÙĪÙħ
ÙģØ§ÛĮØ¯Ùĩ
ÙĨØ¯ÙĪØ±
ĠÙħÛĮÚ©Ø±Ø¯Ùħ
ĠÙĩÙĤ
ØµÙĨØ¯
emal
ĠÙ¾ÛĮÚ©Ø§Ø±
ĠØ§ÛĮØ³
ensed
ĠØ·Ø±ÙģÛĮÙĨ
ĠÙĪÙĤØªØ´
ĠØ³ÙĦØ·Ùĩ
ĠØ¢Ø±Ø§ÛĮÙĩ
Ġexplaining
ĠØŃØ¯ÙĪØ¯Ø§
ĠØ¹Ø²ÛĮÙħØª
Ġ1947
ĠØ¢ÙĩÙĨÚ¯ÛĮ
ĠMyr
Ġregardless
Ġrocket
ersonal
Ġplainly
Ġrevolutionary
Ġranks
ĠMexican
ĠConfed
Ġreproach
ĠÙĩÙĨØ¯ÙĪØ³ØªØ§ÙĨ
mm
ĠÚ©ÛĮÙĨÚ¯
Ġsau
Ġbark
Ġborr
Ġhunt
ĠØ®Ùģ
Ø§ÙĦÙħÙĦÙĦ
ĠAld
rived
keys
ĠPippin
ĠGa
ĠGib
ĠLog
ĠNi
ĠÙħØªÙĪØ³
inda
ĠØ§Ø³Ø§ÙħÛĮ
ĠØ°Ø§Øª
ĠØ´ÙħØ§Ø±ÛĮ
oby
Ġintervals
Ø±ÙĪØ²ÙĨØ§ÙħÙĩ
Ġclassic
ĠØ¨Ù¾Ø°ÛĮØ±Ø¯
Ġmusician
2009
Ġautumn
ØªØµØ§Ø¯
gressive
ĠÙĦØ²ÙĪÙħ
Ġgraduate
ĠØ®Ø±Ø§Ø´
Ġgalaxies
ÙħØ·ÙħØ¦ÙĨÙħ
ĠÙĪÛĮØ±Ø¬ÛĮÙĨÛĮØ§
Fort
Jac
Pa
iÄ
Ø¯ÙĨØ§
Ġward
Ù¾Ø§Ø´ÛĮ
Ø¹ÛĮÙĨ
ĠSn
Ø¢ÙĤØ§
ĠØ¨ÛĮÚ©
ĠØµØ±Ø§ØŃØª
Ġcooperation
ĠØ®Ø·Ø±Ø§Øª
Ġpolar
Ġglimp
ĠØ§ÙĩØ¨
Ġcourts
ÙĦØ³ÙĦ
ĠØ³Ø·ÙĦ
Ø§ÙģØªÙĨØ¯
Almost
ĠØµØ¯Ø§Ø¦ÛĮ
Ġcorp
Ġsteal
ĠÛ±Û¹Û·Û¹
Ġstrangely
Ġobserving
ĠØ¯Ø§ÙĪØ±ÛĮ
ĠØ§Ø®ØªÙĦØ§ÙĦØ§Øª
ĠØ¨ØªÙĪÙĨÙħ
ÙĪÚ¯Ø±Ø§ÙģÛĮ
Ġexplosion
Ġdiscipline
Ø·ÙĪØ¨Øª
Ġglimpse
08
Ġtrop
ÙĦØ±Ø¯
ĠÙĨØ®ÙĪØ§ÙĩÛĮÙħ
Ġdumb
Ġninet
ÙĩØ§Ø´
illery
orer
ĠRussell
Ġabilities
Ø§ÙĪØ¨
Ġbutt
Ø§Ú©Ø§
ĠÙħÙĩØªØ§Ø¨
Ġinstalled
Ġ47
Ġcheese
Ġfinite
central
Ú¯Ø±ÙģØªÙħ
Ġvector
ĠØ§ÙĦÚ©ØªØ±ÙĪÙħ
Ġspreading
Ġtrusted
Ġconsisting
Ġdisappointed
ĠØ¨Ø®ÙĪØ§Ø¨Ø¯
George
Black
Ġpursued
ĠØ¬ÙĪÙĦÛĮØ§
ĠBelgium
Sch
iology
ĠØ¨Ù¾ÛĮÙĪÙĨØ¯
ĠÙĨÚ¯ÙĪ
Ġfist
Ø¬Ø§Ø¨
Ø·Ø§Ø±
Ġreass
ĠSex
ĠLast
Ú©ÙĪÙģ
Ġretrieved
Ġpresents
ĠÚ¯ÙĦØ®Ø§ÙĨÙĩ
Ġexamination
Ø¨ÙĨØ§Ø¨Ø±
ĠØ®Ø¯ÙħÙĩ
ĠÙĪÙĨØ²
Ġspeaker
Ø³ÙĪÙĨÛĮØ§
Ġmutual
ĠØªØ±ÙĪØ±ÛĮØ³Øª
ĠHogwarts
ĠÙħØ²Ø®Ø±Ùģ
mad
ti
Ġtin
atisf
anes
ĠØ´Ø§ÛĮØ³ØªÚ¯ÛĮ
ĠØ³Ø§ÙĨØ³
Ġstake
Ġweigh
ĠÙħÙĨÙĤ
ĠMost
ÙĨÚ¯ÙĪ
ĠÙĦØ¨Ø§Ø³ÛĮ
ĠØ¯Ø§Ø±ÙĪÛĮÙĨ
ĠHoney
ĠED
ĠØ§ÙĦØªØŃ
Ġboot
ĠØ¶Ø®ÛĮÙħ
Ġartistic
Ġoppon
ĠØ§ÙĨØ¯Ø§Ø®ØªÙĨØ¯
Ġlegit
Ġ1949
ĠTokyo
ĠYankees
sylvania
law
ĠÚ©Ø¨ÙĪØ¯
erving
Ù¾ÙĪÙĦÛĮ
ĠÚĨØ±Ø¨
roc
ĠSP
Ú©ÙĨÛĮÙĨ
ĠPut
ĠÙ¾ÛĮØ§Ù¾ÛĮ
ĠØºØ´
Ġunre
ĠÚ©Ø±Ø¯ÙĨØ´
Ġaccent
ĠØ¯Ø®ØªØ±ÙĩØ§ÛĮ
ĠÙħØ±Ø²ÛĮ
hips
Ġrested
Ġtechnological
Ø®ÙĪØ§ÙĨÙĨØ¯
Ġrib
ĠÙħØ§ÙĦÙģÙĪÛĮ
ĠØ³ÙģØ±Ùĩ
Ġtemple
ĠÙħÙĢÙĨ
ĠÚ©ÙĪØ¯Ú©Ø§ÙĨÙĩ
ĠØªØ±Ø§Ø´Ùĩ
Ġruled
Ú©ÛĮÙĨØ²
Ġignored
Ġwandering
Ġcorresponding
Ġbathroom
Ġattributed
quisite
Natasha
Ġenthusiasm
Ġarrangement
Ġmanifest
Little
Ø¯Ø§ÙħÛĮ
Ġtang
ĠØ¨ÙĤ
Ġbust
ĠØ¯Ø±Ø§ÛĮÙĨ
Ø®Ø¯Ø§ÙĪÙĨØ¯
ĠÚĨØªØ±
imb
idance
ĠPoly
ĠGra
Ø¯ÛĮÙĪÛĮØ¯
Ġsheets
Ø¬Ø§Ø¹
ĠÙħØ±Ø¯Ú¯Ø§ÙĨ
ÙĪØ§ÚĺÙĩ
ĠØ¯ÙĪØ±ÙĪ
weight
oody
Ġcarpet
Ġimpulse
ĠAlger
ĠProp
Ġtrill
Ġtrials
ĠØ®Ø§Ú©Ø³ØªØ±
ĠÙĪÙĦØ§ÛĮØª
2001
Ġ1938
Ġeighteen
Ġindustries
ĠMedal
ĠØ¬Ø³ÙħØ§ÙĨÛĮ
ÃŃa
Ġaccomplish
Ġpursue
Ġancestors
ĠIllinois
ĠMajor
ĠQuran
Ġï¼Į
uin
ĠÚ©Ø±Ø³ÛĮ
Ø§ÛĮØ³
Ġmourn
Ġyeah
iza
ĠÚ©ÙħÛĮÙĨ
ĠÚ¯Ø±ÙģØªØ§Ø±ÛĮ
Ġflows
ĠØ§Ø¹Ø²Ø§Ùħ
endar
ĠÚ©Ø³ÙĦ
ĠÙħÙĦØ§ÙĦ
Ġexpand
ĠZe
ĠØ¢ÙĩÙĨÛĮÙĨ
ĠØ¨ÙĢØ±Ø§ÛĮ
ĠÙĦÙĪØ¦
ĠÙ¾ÙĨØ³ÛĮÙĦÙĪØ§ÙĨÛĮØ§
Ġlayers
Ġ1946
ĠØ§ÙĪØ±Ø³ÙĪÙĦØ§
ĠÙħØŃØ¨ÙĪØ¨ÛĮØª
ÙħØ¬Ø¨ÙĪØ±
Ġhousing
Ġstruggled
ĠØ±ÙħØ²ÙĨÚ¯Ø§Ø±ÛĮ
ĠØ§ÛĮØ¯Ø¦
ĠØ±Ø£Ø³
ĠÙ¾ÙĩÙĨØ§ÛĮ
ÙħØ§Ø±ÛĮØ§
ĠØ®Ø¯Ø§ØŃØ§ÙģØ¸
ĠCollins
Ġcrystal
ĠAffairs
Ġtranqu
Raskolnikov
Ġvel
Ġmig
Ù¾ØªÛĮ
Ġdried
Ġthreshold
ĠÙĤØ§ÙħØª
ĠØ¯ÙĪØ´ÙĨØ¨Ùĩ
osity
ĠTai
Ġloft
ĠNort
ĠWalk
ĠOF
ĠØ¬ÙħØ¬ÙħÙĩ
Ø®ÙĪØ§Ø³ØªÛĮÙħ
onto
Ġbelieving
ĠØ§ÙĤÙĦÛĮØª
ÛĮÙĨÚ¯ØªÙĪÙĨ
apel
Ġremembering
ĠÛ±Û¸Û´Û
ĠÙħÙģØµÙĦ
ĠAbd
Ġcritics
ĠÙħÙħÙĨÙĪ
Ø¢Ø±Ø§ÙħÛĮ
Ġcontributed
ĠØ³ÙĨØ¬Ø´
ĠÙĪÙĪØ¯ÙĩØ§Ø³
Ġuncertainty
Ġsoup
Ġdioxide
Dear
lad
wick
Ø¯Ø§ÙĦ
ĠØ¨Ø®ÙĪØ§ÙĩÙĨØ¯
Ø³Ø±Ùħ
Ġcable
Ġbicy
ĠØ´ÙĪÙĨ
Ġbeloved
ĠMell
ĠØ³Ø±Ú©Ø§Ø±
Ġpeoples
Ġspider
ĠVall
ĠØ¨ÛĮÙĨÙĪØ§
ĠØ¨Ø®ÙĨØ¯
Ġflushed
Ġintervention
Ø§Ø¦ÙĦÛĮ
Ġcaps
ĠØŃØ§Ø¶Ø±Ùħ
ĠÙħØ§Ø±Ú¯Ø§Ø±Øª
Ġoperator
ĠÙħØ±Ø¨ÙĪØ·Ùĩ
Ġlowered
untary
ĠÙ¾Ø±Ø³ÛĮØ¯Ùĩ
ØµØ¯Ø§ÛĮØ´
ĠÙĨÙĩØ§Ø¯ÙĩØ§ÛĮ
ĠMcC
Ġdetection
Ġconsistent
Ġcoward
ĠGallery
ĠÙĩØ§Ø¨ÛĮØª
Kate
cut
front
ØªØ±Ø¯
ori
ĠØ¯Ø±Ú¯Ø§Ùĩ
Ġtore
ĠØ³ÙĨÛĮÙĨ
ĠÛĮÙĪØ±ÙĪ
ĠÚ¯Ø±ÛĮØ³Øª
Ġrevers
roid
ĠBou
ĠÙģØ±Ø¶ÛĮ
Ġwholly
Ġplates
ĠKnight
ipes
ĠÚĺÙĨÛĮ
Ġconsol
arson
Ġphones
Anna
ĠÙħØ±ØªØ¨Ø§
ĠØ·Ø¨Ø¹
ĠØªÙĪØ§ÙĨØ³ØªÛĮÙħ
Ġpacked
Ġforests
Ġevolutionary
ĠÙ¾Ø§Ø´ÙĨÙĩ
ĠFrancis
ÙĨÛĮØ±ÙĪÛĮ
ĠMiller
Ġdeliberately
ĠÙħÚ©ØªØ¨
ĠØ¨ÙĪØ¦ÙĨØ¯ÛĮØ§
aternal
Ben
human
saw
ui
ÙĨÙģ
Ø´Ø§Ø®
Ġcaval
ĠØªÙħØ§ÛĮØ²
Ġlaz
ÙĪÛĮÙĦÛĮ
ÛĮØ±ÙĪ
ĠMid
ĠKansas
Ġarbit
Ù¾ÛĮØªØ±
ĠØªØ¨Ø³ÙħÛĮ
Ġelbow
ĠØ¨Ø´Ú©Ùĩ
mee
ĠÙĦØ¨Ø§Ø³Ø´
Ġprocessor
Ġimportantly
2011
ĠØ´Ø®ØµÛĮØªÛĮ
Ġ1942
Ġimmigrants
Ġsuspended
ĠÙĩÙĪØ§Ù¾ÛĮÙħØ§ÛĮÛĮ
Ġnovels
Ġdetected
Ġparking
ĠØ§ÙħØ¶Ø§Ø¡
Ġheavens
ĠMagazine
ĠØ¯Ú¯Ø±Ú¯ÙĪÙĨÛĮ
Ġcandidates
Ġcertific
Ġfierce
Martin
Ġtrousers
Ġfancied
rine
ÑĮ
ĠÙĨØ®ÙĪØ§ÙĩÛĮ
Ġcott
Ġfir
Ġtooth
Ġthirst
amation
ĠAL
ĠCab
ĠPap
ĠBuend
ĠÚ©Ø§Ø±Ú¯Ø±ÛĮ
Ġaltered
Ġloaded
ÛĮØ§Ú©Ùģ
ĠØ¯ÙĩÙĦÛĮ
ĠOp
ĠÙħÙĤØ¯
Ġadap
Ġresolve
Ġcooper
Ġlonged
ĠØ¨Ø§Ø²ÛĮÚ¯Ø±ÛĮ
ĠØ¨ÙĨÙģØ´
Ù¾Ø§ÙĪÙĦ
Ġmarvel
Ġadmired
ĠCoast
ĠØ§ÙģÚ©Ø§Ø±Ø´
Ø§ÙģØ²Ø§Ø±ÙĩØ§ÛĮ
uddy
ĠÙĨØ§Ø²ÙĨÛĮÙĨ
ĠÙħØ¹Ø§Ø¯ÙĦØ§Øª
CHAPTER
Ġgraduated
ĠØ§Ø±Ú¯Ø§ÙĨÛĮ
ĠVictoria
ĠØ¯ÛĮÙĪØ§ÙĨÚ¯ÛĮ
ĠÙħÙĦØ§ÛĮÙħØª
ĠØ¬ÛĮÚ©ÙĪØ¨
GC
ÙĮ
ĠØ¨ÙĪØ´
ĠØªÙĪØ±ÛĮ
anna
Ù¾Ø§Øª
Ø®Ø§ÙħØª
ĠÙģÙĪØ§
ĠØŃØ±ÛĮÙħ
ĠØ¹ÙĢ
ĠØ®ÙĪØ§Ø¨ÛĮ
ĠBeth
rypt
ĠÚ©Ø´ÙĨØ¯Ùĩ
ĠØ²ÛĮØ±Ø³Ø§Ø®Øª
necess
ĠÚĨØ´ÙħÙħ
ĠØªØºÛĮÛĮØ±Ø§ØªÛĮ
ĠØ³Ø¨Ø¯
ĠØ·Ø¨ÙĤØ§Øª
nected
ĠØ´ÙĨØ§Ø³Ùĩ
ĠValentine
ĠÙħÙĨØŃØµ
Ġmiracle
Professor
Ġsymmet
ĠSimon
ĠÙħØ¹Ø§ÙħÙĦØ§Øª
Ġalphabet
ĠÙħØ¹Ø´ÙĪÙĤÙĩ
,\
Aud
Comm
Jack
Official
}.
ÙĨÙģØ±
Ġtube
Ú©Ø´Øª
ĠØ¨Ø§ÛĮØ±
ĠØ¨ÙģØ±ÙĪ
ĠØ¯Ú©Ø§ÙĨ
Ġbanned
ĠØ¢ÙĨØ²ÛĮÙħ
Ġwebs
ĠAT
ĠCulture
Ġrice
ige
ĠÙģØ±Ø¨Ùĩ
Ġproc
Ġchocolate
ĠÂ£
ĠJoh
ÙĪØ¨Ú¯Ø§Ùĩ
Ġincon
ĠØ¨Ø´ÙĪÛĮ
ÙĪÙĦÙĪÚĺÛĮÚ©
ĠÙĨØ§Ø±ÙĨØ¬ÛĮ
Ġwarmth
ĠMoses
ĠServer
ĠØ´Ø±ÙħÙĨØ¯Ùĩ
fortunately
ĠCircle
Ġsoph
Ġwre
ĠØ®ÙħÛĮ
ĠÙ¾Ø®ØªÙĩ
ĠØ¨ÛĮÚ©Ø§Ø±ÛĮ
ÙĦØ§Ú©Øª
Ø«Ø±ÛĮ
ĠLat
ĠÚ©ÙĪØ¨Ø§
ĠØ§ÙĦÙĦ
Ø§Ø¨ÙĦØ§ÙĨØ³Ú©ÛĮ
azed
ĠØ¯Ø®ØªØ±Ùħ
ĠØ§Ø·ÙĦØ§ÙĤ
upon
ÙħØ±Ø¯ÛĮØ§Ú©Ùģ
ĠAnderson
ĠØ²ÛĮØ¨Ø§Ø¦ÛĮ
ĠÛ±Û¹Û·Û¸
Ġfacility
ĠÙģØ¶Ø§ÙĩØ§ÛĮ
ĠIvanovitch
Ġsequences
Ø´Ø§Ø¡
Ġhalted
ĠØ¯ÙĬÚ¯Ø±
Ġsteadily
Ġsufficiently
ĠÙĩØ§Ú¯ÙĪØ§Ø±ØªØ²
cific
sing
xy
erick
Ġdat
ĠØ¬Ø§Ø±
Ġbees
ĠÚĨÛĮÚ©
ĠÙĤÙĪØ±
ĠSydney
ĠAy
ĠÙĦÛĮØ¯
ĠØµÙĢ
ĠBird
ĠRoss
iege
Ġresent
Ġhappily
Ġincomp
ĠGermans
Ġdisplayed
ĠÙģÛĮØ¨Ø±
Ø¬ÙħÙĩÙĪØ±ÛĮ
Ġaccessible
ĠÛ±Û³Û·Û
Ġtitled
Ġexchanged
ÛĮØ§Ø¯Ùħ
ĠJulia
ĠØ¨Ø±Ø§ÙĨÚ¯ÛĮØ®ØªÙĩ
Ġpreparation
ĠSoftware
Has
IF
Work
Ġtid
Ú¯Ø§ÛĮ
ĠØ´Ø§ÙĩÛĮ
ĠØ¨Ø±Ø³Ùħ
emet
ĠTen
ĠÙģØ±Ø¹ÛĮ
ĠÙħØ¬Ø§Ø±Ø³ØªØ§ÙĨ
ĠÙĪØ¬ÙĪØ¯ÛĮ
ĠØ§ÙģØªØ®Ø§Ø±ÛĮ
ĠØ¸Ø±Ø§ÙģØª
ĠØªØ¨Ø±ÛĮÚ©
Ġsubtle
Ġinvite
ĠÙħÙĩÙħØªØ±
Ġvisitor
ĠBeach
ĠØ¹Ø¶ÙĪÛĮ
ĠÚ¯Ø±ÛĮØ³
ynch
Ġsatisfy
ĠØ¶Ø±Ø¨Ø§Øª
Ġbags
Ġventure
ĠPortuguese
ĠØ²Ø§ÛĮÙħØ§ÙĨ
ĠPennsylvania
Much
rac
arter
ĠÙĩØ²
ĠØ³Ø§Ú©
ĠÙ¾ÙĦØ§Ø³
immer
ithm
ĠSky
ØºØª
Ġexert
oused
acts
rup
ĠÙħÙĤØµØ±
ĠÚ©ÙĦÚ©
Whatever
Ġprey
ÙģÛĮØ³
ĠÙ¾Ø¯Ø±Øª
ĠÙħØ±Ø¶
Ġfourteen
ĠÛ±Û¹Û¶Û¹
Ġtransportation
Ġspatial
fire
Ø²ÙħÙĩ
ĠØ¬ÙĢ
ĠØŃÙĢ
ĠCode
ĠÙĦÙĪØ±
ĠØ¨ÛĮÙĪÙĦÙĪÚĺÛĮÚ©ÛĮ
Ġconvention
ĠRub
ĠRuth
Ġvoc
ĠØ¨Ø§Ø²Ú¯Ø±Ø¯Ø¯
udder
ĠØ¹ÙħØ¯Ø§
ĠØ³Ø§Ø®ØªÙħ
ĠØ§ØµÙĪÙĦØ§
ĠØªÙĤÙĦØ§
Ġslide
Ġguilt
ouncing
ĠØ§ÙĤÙĦÛĮÙħ
Ø¨Ø¹Ø¯ÛĮ
Ġsixteen
ĠÙħØ´Ø®ØµÙĩ
ÙĤÛĮÙħØª
Ġsecretly
ĠÙĬÚ©
Ġemerging
ĠØ¨Ø®ÙĪØ§ÙĨÙħ
ĠÙĤØ±Ø§Ø±Ø¯Ø§Ø¯ÛĮ
ĠÙ¾Ø±ÚĨÛĮÙĨ
ĠMichigan
Ġinquiry
Ġdemonstrated
ĠØŃÙĪØ§Ø³Ø´
Ġpillow
Ø®Ø¯Ø§ÛĮØ§
bourg
Ġprovinces
ĠØªØ¯Ø§Ø±Ú©
Six
wering
Ã«
ÙħØŃÛĮ
ĠØ¨Ø¨Ø®Ø´
Ø´Ø§ÙĨÙĩ
ĠÚ©Ø¨ÛĮØ±
ĠÙĨØ±Ø¯
Ġhind
Ø¬Ø§Ø±
ĠØ¨Ø§Ø®ØªÙĩ
ĠØ¨Ø±Ø¹ÙĩØ¯Ùĩ
ĠØ²ÙĦØ²
Ġwhales
keley
ĠBack
ĠBang
ĠØ³Ø§ÙĦØ®ÙĪØ±Ø¯Ùĩ
ĠWild
ÙĬØ´
ĠØ§Ø³ÙĦÙĪ
ĠØ§ÙģÚ©ÙĨØ¯Ùĩ
ĠÙĨØ´Ø§ÙĨÚ¯Ø±
ĠØ¬Ø§ÙĪØ¯
ĠØ¨ÙĨØ²ÛĮÙĨ
ĠÙĦÛĮÚ©Ø±
ĠØ®ÙĪØ§Ø¨Ø´
ĠØªÚ©Ø«ÛĮØ±
ĠÚ©ÙĪØªÙĪØ²ÙĪÙģ
ĠØ®ÙĪØ±Ø¯Ùħ
Ġ1943
Ġrespected
Ġcircumstance
enesmee
Ġbehaviors
Ġcomrades
Ġencounter
77
Ser
ĠØ±Ø¶Ø§
Ø§Ø±ÙĨØ¯
ĠÙĨØªÙĪØ§ÙĨØ³ØªÙħ
Ø±Ø¯Ú¯Ø§Ø±
ØŃØ§Ø¶
ØªØ±Ø§
isting
ĠÙ¾Ø±Ø³ÛĮ
ĠÙħÙĪØ±Ø¯ÛĮ
Ġwrink
ĠØ¨ÙĨØ§Ø¨Ø±
Ġexposure
ĠØ´ÙĪØ§ÙĦÛĮÙĩ
ĠØ§Ø±ÙĤØ§Ùħ
Ø²ÙĨÛĮÙħ
ollo
ĠØ¹Ø²Ùħ
ĠØ¨Ø±Ú¯Ø´ØªÙĨØ¯
Ġparticipation
Ġpositively
ĠØ¢ÙģØ±ÛĮÙĨ
Ġsamples
ĠStrick
ĠØ¨Ø±Ø³Ø§ÙĨÙĨØ¯
Ġpistol
ĠÙħÙĨØªÙĤØ¯Ø§ÙĨ
ĠØ²ÙĦØ²ÙĦÙĩ
French
Pre
ĠÙħÙģØ±
ĠÙĩØ§ÙĨÛĮ
ĠØ³ÛĮÚ©
Ġongoing
ĠMind
ĠØ±ÙĪÙħØ§ÙĨÛĮ
ĠPorthos
ĠBand
ĠØ³Ø±ØŃØ§ÙĦ
quet
ĠTalk
ĠÙĩØ±Ú©Ø³ÛĮ
lose
ĠØ¯ÙĩÙĤØ§ÙĨ
ĠOnt
ĠVideo
Ø§Ø®ÙĪØ±ÛĮ
Ġbrush
iversary
ĠØªØµÙĪØ±Ø§Øª
Stud
Ġfigured
ĠÛ±Û¹Û·Û±
Ġthrone
Û±Û¹Û¸Û
Ġcopper
ĠÙħÙĤØ±Ø±
ĠØ¯Ø²Ø¯Ø§ÙĨ
Ġdisappointment
ĠMichel
Ġforbidden
ĠØ´Ø±Ú©ØªÛĮ
Ġathlet
ĠÙħØ¶ØŃÚ©
Ġfossil
Ġrigid
ĠØªØ³ÙĩÛĮÙĦ
CS
Rep
ÙĤØ¯Ùħ
ÙĨØ¯Ø±
ĠØ§Ø²Ùħ
ĠSondra
ĠÚ©ÙĨÙĪØ§ÙĨØ³ÛĮÙĪÙĨ
ĠØ®ÙĪØ§Ø¯
ĠBumble
Ġjet
asser
ĠKutuzov
ĠÙ¢
ĠØªØŃØ±ÛĮÙħ
ĠYears
Ġpresently
Ġtransmit
Ġanimation
ĠÙ¾ÙĩÙĨØ§
ĠÛ±Û¹Û¶Ûµ
Ġhistoric
ĠÙħØ§Ø³Ùĩ
ĠØ§ÙĨØ¹Ú©Ø§Ø³
ÚĨØ´ÙħØ§ÙĨØ´
ĠÙĨÙĪÙħÛĮØ¯
ĠÙħØ¹Ø§Ø´Ø±Øª
ĠMedicine
ĠÚ©Ø§Ø±ÙĪÙĦÛĮÙĨØ§ÛĮ
Ġfootsteps
Long
ÙĦÙĪØ§ÙĨ
âĢ¬
Ø¨Ø¨ÛĮÙĨÛĮØ¯
Ġwages
ĠØªØ®ØµØµ
Ġpatch
Ġine
ĠØ®Ø§Ø³Øª
ĠØ¢ÙĨØªÙĪÙĨÛĮ
Ġrender
ĠÙĤØ§ÛĮÙħ
urches
ĠDirect
iga
ĠÙģØ±ÙĤÙĩ
Ġoutcomes
Ø±Ø³Ùĩ
actory
assy
anges
ĠStadium
ĠØ³ÙĪØ§Ø±Ùĩ
ĠØµÙĪØ±ØªÙħ
ĠØ³ÙĩÙħÛĮ
Ġendless
ĠØ´ÙĩØ§ÙħØª
Ġmining
Ġsquad
Arab
ÙĪØªÛĮÚ©
ĠÛĮØ®ÚĨØ§ÙĦ
ĠÙħÙĪØ³ÙĪÙħ
Ġcooling
ĠÙģØ±Ø³ØªØ§Ø¯ÙĨ
incoln
Ġsuspicious
ĠÛĮÙĦØ¯Ø§
ĠØ¢ØªØ´ÛĮ
ĠHTML
BL
away
first
has
ĠÚ©ÛĮÙħ
Ú¯ÙĪÙĦ
Ġbite
Ù¾Ø±Øª
ĠØ§Ø²Ø§ÛĮÙĨ
icular
llen
Ġrely
ĠCru
olving
Ġintensity
ĠVel
ĠÙĨØ§ÙħÙĨ
Ø§ØµØ¯
ĠØ§Ø¬Ø²Ø§
issa
Ġindirect
ĠØ±ÛĮÛĮØ³
Ġpassenger
upin
ĠÙħØ±Ú¯Ø¨Ø§Ø±
ĠÙĪØ³Ø¹Øª
Ġmilit
ĠWeek
ĠÙĨÚ¯Ø±Ø´
ĠØ¬Ø³Ø§Ø±Øª
Ġindependently
Ġpackage
Ġdetermination
ĠSupp
Ġconcentrated
Ġperceive
Ġwitnesses
ĠÙħØ·Ø¨ÙĪØ¹Ø§Øª
Ġdiagnosis
ĠÙĤÙĪØ§Ø¹Ø¯
ĠStrickland
MT
Paul
Ð¼
ĠÙĪØ§ÙħÛĮ
ÙĤÙĦÙĪ
ĠØªØ¯ÙĪÛĮÙĨ
ĠÙħÛĮØ¯ÙĩÙĨØ¯
Ġharp
Ġfiring
Ġpul
Ġling
Ġlingu
Ġwasted
ĠMR
abe
ĠØ¨Ø§Ø²Ú¯ÙĪ
Ø±Ø³Ø§ÙĨ
Ø¬ÙĩØª
Ġuncon
ĠØ¯ÛĮØ¯ÛĮØ¯
Ġreconst
ĠØ´ÙħØ§Ø±Ø´
Ġsubstit
Ġzo
ĠAntar
ĠIntel
ĠØ´Ú©Ø§Ø±ÚĨÛĮ
Ø§ÙģØ²ÙĪØ¯
ĠØ¨Ø§Ø²ÙĨØ´Ø³ØªÚ¯ÛĮ
ĠAragorn
ÙĦØ¹
Ø¨ÙĤ
Ġcake
Ġcents
Ġstout
ĠSher
rip
ĠCre
ÙħØ§ÙĨØ³Øª
ĠÙĦØ§Ø´
ĠLang
ĠFa
Ġleap
ĠÙ¾Ø§ÛĮÛĮØ²
ĠØ§ÙĨØªØ¸
velength
ĠÙĥÙĨØ¯
Ø®ÙĪØ±Ø¯Ú¯ÛĮ
Ġstrain
Ġfinance
ĠØ¨ÙĢÛĮ
Ġrisen
Ġ1937
ĠØ®ÙħÛĮØ¯Ùĩ
Ġbanking
Ġdamaged
Ġamazement
Ġsurviv
Neither
Ġcalmly
ĠÙĨØ¹ÙħØª
ĠBoris
ĠÙ¾Ø´ÛĮÙħØ§ÙĨÛĮ
ĠThenardier
ĠØ³Ø§ÙĤÙĩ
ĠMotor
yard
Ã¦
åħ
Ġbid
Ġhut
ĠØ³ÙĪØ±ØªÙħÙĩ
Ø±ÛĮØ¨ÛĮ
rogen
oda
Ġconvert
Ġmankind
Ġdisorders
ĠØ§ØŃÛĮØ§
weg
Ġgrant
ĠØ§ÙģÙĤÛĮ
Ġpoems
Ù¾ÛĮÚĨÛĮ
ĠØ±ÛĮØ³ÙħØ§ÙĨ
ĠÛĮÙĩÙĪØ¯
ĠSpir
Ġexplains
ĠØ§Ø¨Ø±ÙĩØ§
ĠÙĤÙĦØ§Ø¨
Ġ1935
ĠÎ±
Ġboundaries
Ġthreatening
cosystem
Ġcontribute
Ø§ÙĪÙĦÛĮÙĪØ±
Ġcurtain
Ġavoided
Ġwiped
Ø§Ø¡
ĠØ¨Ú©Ø´ÛĮØ¯
ÙģØ§Ú©Ø³
ĠÙĨØ±ÙģØª
Ġmate
ĠØ´ÙĨÛĮ
Ġtomb
ascus
ĠØ¨Ø§ØªÙĦØ±
Ġheels
ĠØ§Ø³ØªØ§Ø±
Ø§ÙĩÙħÛĮØª
irrel
irteen
ĠÙħÙĨØµÙģ
ĠMD
Ġcomments
ĠRy
ĠØ¯Ø§Ø´ØªÙĨÛĮ
ĠÙĨÛĮÙĪÙħ
ĠØ¨Ø³Ø§
ĠØ¹ÙĪØ§ÙĤØ¨
ĠÚĺÙĨØªÛĮÚ©
Ġillum
ĠRussians
ĠÙĤÙĩÙĤÙĩ
ĠMerry
rified
ĠSingapore
ĠÙ¡Ù
ĠÙħØ¹Ø·ÙĪÙģ
Ġeyebrows
Ġmagnificent
EF
Fred
eh
ÙħÚ¯Ùĩ
âĢĮ!
ĠØ¨Ø±ÛĮØ²
ÙģØªØ±
Ġsty
ĠÙĦÙĪÛĮÛĮ
ainment
ÙĪÙħØª
Ġgrain
ĠØ¨ÙĦØ§ÛĮÛĮ
ØµØ¯Ø§ÛĮÛĮ
Ġrepublic
ĠÙ¾ÙĪÙĦØ´
ĠØ¹Ø¶ÙĦØ§Øª
Ġposter
Ġrespectable
ĠÛ±Û¹Û´Û¸
Ġcamps
Ġdisposed
ulsion
ĠØ¨ÙģØ±Ø³ØªØ¯
Ġcurtains
ĠÙħØ±ÙħÙĪØ²
Ġgrammar
mont
till
Ãª
ĠØ¨Ø¬Ø§
including
ĠØ±ÙĦÛĮ
ĠØ±Ø§ÛĮØª
ĠØ¯Ø±ÙĩØ§
Ġmm
Ø¬ÙĦÙĪ
ÛĮØ¯Ú¯ÛĮ
Ø§ÙħØ´Ø¨
Ġreception
ĠSome
ophers
ĠÚ©Ø§Ø±Ø¯ÛĮÙĨ
ĠHas
Ø§ÛĮØ¯Ø§Ø±
ciation
acked
Ġench
ĠVienna
Ġperm
Ġpercept
Ġbron
Ġconspir
Ġrelate
pector
ĠØ²Ø¨Ø§ÙĨØ´
ĠØ¨ÙĨÙĪÛĮØ³Ùħ
ĠSeg
ĠØ§Ø¹ØªÙĨØ§
Ġcommanded
ĠÚ©Ø´ÛĮØ´ÛĮ
ĠMorrel
Really
ĠØ±ÙħØ²Ú¯Ø°Ø§Ø±ÛĮ
Ø¢Ø²ÙħØ§ÛĮØ´
ĠØ§ÙħÙ¾Ø±Ø§Ø·ÙĪØ±ÛĮ
burgh
Ø³Ø±ÙĩÙĨÚ¯
Ġpolitician
Ġenvelope
Ġtragedy
Japan
Mel
oen
rade
Ø¯ÙĦÛĮ
ÙĦÙĪØ¯
ÙĤØ§ÛĮÛĮ
isure
ĠØ´ÛĮÙħ
ĠØ®ÙĬÙĦ
Ġthumb
ĠÙģØ§Ú©Ø³
Ġweeping
ĠCook
ĠØµØ¯Ø±
Ø§ÙĤØ¹ÛĮ
ĠTam
ĠForm
ĠÚ¯Ø±Ø§ÙĨØ´
Ġroses
ĠÙ¾Ø§ÛĮÛĮÙĨÛĮ
Ġdesir
neg
ĠØ²ÙĨÙħ
ĠØ¬Ø§ÙĨØ³ÙĪÙĨ
Ġrestore
Û±Û¹
Ġdepressed
Ġtempor
Ø§Ø¯ÙĦÙĨ
Ġempire
ĠÛ±Û¹Û¸Û±
ĠØ¶Ø±Ø¨Ø§ÙĨ
ĠØ³ÛĮÙĨÙħØ§ÛĮÛĮ
Ġmadness
ÙħØ±Øº
ĠMalays
Ø§ÙĦÙĪÚ¯
ĠØ¹Ø§ÙĤÙĦØ§ÙĨÙĩ
ĠObama
Ġshriek
ÙģØ¯Ø±Ø§Ø³ÛĮÙĪÙĨ
jamin
ÙĪÙĨØ¯Ùĩ
ĠÚ©Ø±Ø§ÙģØ±Ø¯
Ø§Ø±Ø¨Ø§Ø¨
ĠÙĨØ·
ĠÙħÛĮÚ¯ÙĪÛĮÙħ
Ġfake
Ġpadd
Ġpione
Ġnost
ayer
ĠSlo
ĠLook
ĠLiter
ĠEric
ĠØ§ÙĦØŃ
ĠØ¨ÙĦÙĪØ±
ĠØ¨Ø®Ø±Ø¯
ĠØ¨Ø§Ø´ÛĮÙĨ
ĠÙ¾Ø±ÙĪØ³Ùĩ
Ġhumble
ginal
ĠDecl
ĠØ¨Ø§ÙĨÙĪØ§ÙĨ
ĠØ¹Ø§ÙĦÛĮÙĩ
Ġpercentage
Ġ1958
Ġtrading
ĠFlorentino
ĠBarb
uclear
ĠØ±Ú©ÙĪØ¯
Ġtherm
Ġwandered
Ġfascinating
ĠUrb
Ġbombs
Ġol
ĠÙĪÛĮØ²
ĠÙĨØ®ÙĪØ±Ø¯
ĠÙħÛĮØ³Ø±
ĠØ¯Ø±Ú¯Ø°Ø´ØªÙĩ
ĠÚ¯ÙĢ
ĠØ§Ø³ØªØ§
ĠImp
etics
Ø³ÛĮÙĩ
ĠØ·Ø§ÙĦ
ĠØ³Ø±Ø·Ø§ÙĨÛĮ
ÙĨÛĮØ§Ø²
ĠØ¨Ø§Ø²Ø¯Ùĩ
Ø´ÙħÙĨÛĮ
Ġresident
ĠØ°Ø±Øª
Ø§Ø¶Ø¹
ĠÙħÛĮØ²ÙĨØ¯
ĠÙĦÛĮØ²Ø±
Ġconfirm
Ġsolving
ĠProfile
Ø§ÙĨØªØ¸Ø§Ø±
Ġautonomous
ĠÚ©Ø¯ÙĩØ§ÛĮ
Ø¨Ø±Ø§ÙĨØ§Ø¨ÙĪØ³
ĠÙħÙĨØ§Ø·ÙĤÛĮ
ylum
ĠÙĨØ§Ø®ÙĨ
ĠØ´Ø§Ú¯Ø±Ø¯Ø§ÙĨ
Ġporter
Ġcolonial
ĠPolitical
ØºØ¯ØºÙĩ
ĠØ§ÙĪØ¨Ø§ÙħØ§
emetery
Î»
Û·
ÙĨÚĺ
Ġties
ĠØ±Ø·ÙĪØ¨Øª
Ġpear
ĠÙ¾Ø§ÙĦØª
ĠÛĮØ§Ø¨ÙĨØ¯
ÙĦÛĮÙĤÙĩ
Ġstub
ĠMand
those
Ġdefect
ĠBart
ĠØªØ§Ú©Ø³ÛĮ
unken
Ġneural
Ø¨Ø±Ø¹Ú©Ø³
arest
Ġemperor
ĠØªÚ©Ø§ÙħÙĦÛĮ
Ġexpectations
Ġmaintenance
Ġdestination
Ø¨ÛĮØ±ÙĪÙĨ
Ø³Ø§Ø®ØªÙħØ§ÙĨ
Ġcamel
gheda
Ġphilosophical
ÃŃn
Ġparticipated
inceton
Ġaimed
Ġbillions
Ġrefugee
Ġpuzzled
Ġdiamonds
Ġdramatic
Ġintentions
Ġlinen
ĠÙĦØ§Ø²ÙħÙĩ
96
NS
ho
rm
²Û²
Î¿
ÙħØ±Øª
âĢĵ
Ġcats
ĠÙħÛĮØªÙĪØ§ÙĨÛĮØ¯
ĠÚ¯Ø§Ø±
Ø§ÙĩÙĩ
ĠÙĤØ§ÙĦÛĮ
Ø§Ø±ÛĮÙĪ
ĠØªÙĪØ£Ùħ
Ġritual
ĠRain
ĠDur
ĠTara
Ġchains
ĠWatson
aku
ĠØ§ÛĮÛĮ
ĠÙĤØ±Ø§Ø±Ùĩ
Ú©ØªØ¨Ø§ÙĦ
ĠÙ¾Ø§Ø¦
ĠØŃÛĮÙĦÙĩ
Ġdefence
ĠØ§Ø±ÙĪØ§ØŃ
Ġsuggestion
Ġpredicted
Ġassets
ĠModel
Ġseventh
Ġinherit
Certainly
ĠBingley
Est
having
ä¹
ĠØ¨ÚĨØ±Ø®
Ø¹Ø¸Ùĩ
ĠØ¢ÙĨÚĨÙĨØ§ÙĨ
ims
ĠØªÙĪØ¦ÛĮ
ĠÙħÙĤØ·
ĠØ§ÙĨØªÙĩØ§
ĠÚ¯Ø°Ø§Ø´ØªÛĮÙħ
Ġmetab
ĠØªÙĪÙĦÛĮØ¯ÛĮ
Ġdiscon
Ġexamine
Ġmoist
ĠØªÙĪØ¶ÛĮØŃØ§Øª
ĠØ¬Ø±ÙĤÙĩ
Ġdreaming
Ġ1933
Ġerrors
Ġpacket
ĠÙħÛĮÚ©Ø±ÙĪØ¨
ĠCorps
Ġepisodes
ĠÚĨÙħØ¯Ø§ÙĨ
Ġalleged
ÙħÙĨØ·ÙĤÙĩ
Ġsurveillance
ĠØ§Ø¨ÙĦØ§ÙĨØ³Ú©ÛĮ
rise
ÙħØ´Øª
ØªØ§ÙĦ
Ú¯ÙĪØ³
ĠÙĨØ§Ùģ
ĠÙ¾Ø´
ĠÙ¾Ø±Ú©
ĠÙģÙĦÙĪ
ĠØ²Ø´ØªÛĮ
Ġ1000
Ú©Ø±Ø§ÙĨ
Ø§Ø´ÙĨØ§Ø³ÛĮ
Ø§ÙģØ³Ø±
ĠØ®ÙĪØ§ÙĩØ±Ø§ÙĨ
izz
ĠUt
ĠØ§ÙĦØ²
Ú©ÙĦÙħ
Ø±Ø¨ÚĨÙĩ
Ġflames
ĠØ´Ø±Ø·ÛĮ
too
Ġappearing
Ġ800
ĠØ¨Ù¾ÙĪØ´
ĠÙħØ´Ø§ÙĩØ¯Ø§Øª
ĠÙĩÙħÚĨÙĨØ§ÙĨÚ©Ùĩ
ĠØ²ÙħØ³ØªØ§ÙĨÛĮ
Ġfaithful
ĠÚĨØ§ÙĤÙĪ
Ġharness
Ġhurriedly
ĠØ§Ø³ØªØ¹ÙģØ§
ĠÙħØªØ§Ø³ÙģØ§ÙĨÙĩ
ĠBangladesh
ĠÙĪÙĨØ²ÙĪØ¦ÙĦØ§
Ú©ÛĮÙĨÚ¯
Ø¨Ú¯ÙĪ
ÙģÙĪØ±Ùħ
oro
Ġthief
ÚĨÙĪ
Ġgre
ÙĪÙĨØ²
Ø§ÙĩØ¯ÛĮ
ĠØ¹Ø§ÙħÛĮ
Ø§ØªÙĪ
ĠAfter
ĠWW
ĠØ§ØªÙĪ
ĠØ´ÙħØ§ÙĩØ§
Ġopens
ĠÙĥÙħ
Ġinterval
Ġdefines
Ġdesigners
ÙģÙĦÙĪØ±
ĠEnvironment
Ġfemales
Ġcandles
ĠAgain
Ġoptical
profit
ĠØ¯Ø±Ø¨Ø§Ø±Ø©
ĠEllen
ĠPortugal
ĠØ¹ÙĪØ§Ø·Ùģ
ĠVernon
ĠØ§ÙĦÚ©ØªØ±ÙĪÙħØºÙĨ
Ø²Ø§ÛĮÛĮ
ĠÙĪÙĩ
Ø·ÙĪÙĦ
ĠØ¹Ø±Ùģ
ilis
ĠØ§ÙĨÙĩØ§
ĠØªØ§Ú©ÛĮØ¯
ĠLen
ĠFox
Ġdisk
osexual
ĠØ¨ÛĮÙĨÙĩ
ĠØ¨Ø§Ø±Ø´
ĠÙħØ§ÙĩØ±
ĠâĶ
Ġhearted
Ġfathers
Ġorgans
Ġclassification
Ġbias
Arch
ĠØ§ÙģØ³ÙĪØ³
Ġconflicts
ĠÙĤÛĮØ§Ø³
Ġsavings
Ġappreciate
ĠÙħØ±Ø®ØµÛĮ
ĠØ§ÙĨÛĮÙħÛĮØ´ÙĨ
ĠØªÙĪÙĤØ¹
ĠÙħÙĨØ¬ÙħØ¯
ĠÙĩÙĪØ±ÙħÙĪÙĨ
Es
Ġwolves
ÙģØ±Ø§
ĠÙĨØ´Ø¯ÙĨØ¯
ĠÚĨØ±ÙĪÚ©
ĠÙħÙĪÙĩ
Ø®ÙĪØ§ÛĮ
Ġchronic
ciples
ĠØ³ÛĮØµØ¯
ĠØ§Ø·ÙģØ§ÙĦ
Ġacute
ĠØ§Ø±Øº
ĠØ¨Ø³Ø§Ø²Ùħ
Ġcontinuing
Ġtopics
ĠØ¨Ø²Ø±Ú¯Ø±Ø§Ùĩ
Ġ1956
Ġbreaks
Ġvert
ĠÙ¾Ø±Ø³ØªØ´
ĠÙħÛĮØªÙĪÙĨÛĮØ¯
Ġblessed
Ġecst
ĠØ³ÛĮØ²Ø¯Ùĩ
Near
viol
ØªØ¹Ø¯Ø§Ø¯ÛĮ
onomy
Ø¹Ø§ÙĨ
Ġbending
aders
roche
ĠØ®ÙĪØ¯Ø®ÙĪØ§Ùĩ
Ø¢ØªÙĪØ²
ĠØ¯ÙĪÙĤÙĦÙĪ
abl
Ø§ÙĪØ§Ø±
ĠÚ¯Ø±Ø§ÙħÛĮ
Ġleisure
Ø´ÙĨÛĮØ¯Ùħ
Ġpermit
Ġworker
ĠÙĨÛĮÚ©ÛĮ
Ġgrid
Ġgrasp
ĠÚĨØ´ÙħÚ¯ÛĮØ±ÛĮ
ĠØªØ¬Ø§Ø±
ØªÙĪÙĨÙĨ
ÙĪÙħÛĮØ®ÛĮÙĨ
Ġanswering
Stop
ĠBeaut
Ġlaying
ĠØ¯Ø¹Ø§ÛĮ
ĠØ§Ø´ØªØ¨Ø§ÙĩØ§Øª
ÙĨÙħÙĪØ¯ÙĨØ¯
ĠÙģØ±Ø§ÙħÙĪØ´ÛĮ
Ġstructural
Ù¾Ø±Ø¯Ø§Ø²ÙĨØ¯
ĠØ§ÛĮØ³ØªØ§Ø¯ÙĨØ¯
Ġjudges
ĠCooper
ĠØ¶Ø¹ÛĮÙģÛĮ
Ġmechanisms
regular
Ġdimin
ĠJersey
ĠÙĨØ¨Ø§Ø´ÛĮØ¯
ĠHTTP
Ġbattles
Jo
Whether
rice
Ð¹
Ġwider
ĠØ¢Ø±ÙĪ
Ø§ÙĩØ§Ùħ
Ġrect
ĠØ¨Ø±Ø§ÛĮÙħØ§ÙĨ
Ø±ÙĪÙħÙĪ
Ø´Ø¯Øª
orts
ÙģØ±Ø³ØªÙħ
rouch
Ġresign
orne
ĠUnix
undo
ĠÛ±Û°Û°Û°
ĠØ®Ø§ØµÛĮØª
Ġdrives
ĠÙĩÙĪØ§Ù¾ÛĮÙħØ§ÙĩØ§ÛĮ
ĠØ±ÛĮØ®ØªÙĨ
ĠÚ©Ø§ÙĨØ¯ÛĮØ¯
ĠÙĦØ¨Ø§ÙĨØ´
Ġearthquake
Û¸
ĠØ¨ÙĨØ¯Ùĩ
Ø§ÙĨÙĪÛĮ
ĠÙĨÚ©Ø§Øª
icious
ĠÚĨØ±Øª
Ø¯ÙĩÙĨØ¯Ú¯Ø§ÙĨ
ĠØ¹Ú©Ø³ÛĮ
ĠØ¹Ú©Ø§Ø³
ĠSus
Ú¯Ø±ÙĩØ§
Ø±Ø§ÙĤÛĮ
odge
Ġalpha
ĠHard
okhov
ĠØ¨Ø§Ø²Ø®ÙĪØ±Ø¯
Ġunnecess
ĠØ±Ø³ÙĪÙħ
Ġclients
Ġreserved
Ġpretended
erto
Ġincent
psy
ĠØ®ÙĪØ§Ø³ØªÚ¯Ø§Ø±ÛĮ
Ġcertainty
ĠØªØ±Ø³ÛĮØ¯Ùĩ
ÙģÙĩÙħØ¯
ĠØªÙĪØ±ÙĨ
Ù¾Ø±Ø¯Ø§Ø²ÛĮ
Ġattempting
Ġaffects
Ġamazed
Prin
Ġpurchased
Ġstretch
ĠScottish
ĠØ¨ÙĦÛĮØ·
Human
mail
Ú©ÙĪØ²Øª
Ġhalt
ĠØ³ÙħØ§
Ġdun
ĠØ§ÛĮÙĨÚĨ
Ġecosystem
Ġwashing
Ġstew
ÙħØ§Ø´ÛĮÙĨ
ĠGrey
ounted
ĠØªØŃØ±ÛĮØ±
Ġhappier
ĠØ´ÛĮÙģØªÙĩ
Ø¯Ø§ÙħØ¨ÙĦØ¯ÙĪØ±
vernment
Ú¯Ø°Ø§Ø±ÛĮÙħ
Ú©ÙħÚ©
ĠAnat
ØªØ³Ø¨ÛĮ
ĠÙħØ§Ø¯Ø±Øª
ĠÛ±Û¹Û¶Û·
Ø¬ÙĨØ³ÛĮ
ĠØ¨ØªÙĪÙĨÙĩ
guard
Others
ĠServices
ĠØ¨Ø®ÙĪØ±ÛĮÙħ
ĠØ·Ø±Ø§ØŃØ§ÙĨ
Ġtumor
ĠAviation
Ġgossip
Early
Larry
Make
Often
bu
nest
ÙħØ§ÙĦÛĮ
ĠØ³ÙĬ
otis
Ġwept
ĠMun
ĠPage
ĠRaskolnikov
ĠLam
ources
ĠÙħØ±Ø¯Ø¯
Ġcourses
ĠØ³ÙģØ§Ø±Øª
ĠØ¯Ø³ØªÙĪØ±Ø§Øª
ĠØ¯ÙĪÙĨÛĮØ¯
Ġcommands
Ġ250
ĠØ³Ø§ÙħØ§ÙĨ
Ġurged
Ġremarks
Ġdesperately
ĠStanford
Ġsupplies
Ġenthusi
ĠÚ©ÙĪÚĨÙĪÙĦÙĪÛĮ
ĠÚ©Ø§Ø±Ø§Ú©ØªØ±
Ġrhythm
:"
lif
Ġhither
Ġpir
ĠØ®ÙģØªÙĩ
ÚĨÙħ
ĠÙ¾Ú¯Ø§ØªÛĮ
ĠRail
ĠFinal
Ġunemp
ĠØ§ÙĨØ¯Ø§Ø²Ø¯
Ġperf
Ġcoinc
ĠChannel
Ġoffensive
Ú¯ÙĪÚĺÛĮÙĨ
ĠØ®ÙĪØ¯Ø´ÙĪ
ĠÚĨØ±Ø§Ú©Ùĩ
Ġresting
ĠØ¨Ø³ÙĬØ§Ø±
Ġapproval
ÙĨØ³Ø¨Øª
untarily
ĠØ²ÛĮØ³ØªÚ¯Ø§Ùĩ
ĠÙħØ®ØµÙĪØµÛĮ
ĠØªÛĮÙ¾
Ġtraditions
Ä±n
ĠMediter
ĠÙħØŃØªÙĪØ§
ĠØ¹Ø¨Ø§Ø±Ø§Øª
Ġkilometers
ĠNigeria
ĠUkraine
Ġtoilet
ĠÙħØ¹Ø§ÙĦØ¬Ùĩ
63
ĠØ¨Ø·ÙĪØ±ÛĮ
ĠØ¨ÙĪØ³ØªÙĪÙĨ
inals
ĠØ±Ø¦
ĠÙĨÙĨÚ¯
ĠØ¨Ø§Ø·
sts
ĠSI
ĠAV
ĠØ¨ÛĮÙģ
agne
ĠØ³Ø±Ø®ÛĮ
Ġshrew
Ġshorter
ĠEarly
izer
Ġtwe
Ġperfection
Ġflashed
ØºÛĮØ§ÙĨ
Ġpharm
azines
ĠÙĥØ±Ø¯Ùĩ
ĠÙ¾ÙĪÙĦØ¯Ø§Ø±
Ġelectrom
Ġdefault
Behind
ĠGreater
ĠÙĩÙħØ³Ø±Ùħ
Ø®ÙĪØ´ØŃØ§ÙĦ
ĠØ¨ÙģÙĩÙħÙĨØ¯
ĠChristianity
ÙģØ¹Ø§ÙĦ
Ø¬ÙĪØ±Ø¬
Ġadventures
ĠBrook
Ġcorporate
olmes
Ġrevenge
ĠChemical
Ġunfortunately
ĠØªØ´Ø±ÛĮÙģØ§Øª
har
produ
ĠÚ©Ø«
Ġoath
Ġwizard
Ġpall
adays
ÙħÛĮØ±Ø¯
ĠCart
Ġanch
ushes
ĠØªØ§Ø¬Ø±
Ġraid
ĠØ¢ÙħØ§Ø²ÙĪÙĨ
ĠÙħØŃÚ©ÙĪ
Ġspons
ĠÙĨÙĩÙĨÚ¯
ĠÙĩÛĮÚĨÚ¯Ø§Ùĩ
Ġbrick
ĠÙĨØ²Ø§Ú©Øª
Ġwrath
ĠØ¬ÙĪÙĩØ±
Ú©ÙĪØ¨ÛĮ
ĠØ¬Ø§ÙĨØ´
Ġguidance
Ġ1952
Ú¯Ø°Ø´ØªÙĨØ¯
ĠAustrian
Û±Û¹Û·Û
ĠSteve
ĠØ¢Ú¯Ø§ÙĩØ§ÙĨÙĩ
Ø´ÙĨØ§Ø®ØªÙħ
ĠÙĨÙĪØ±ÛĮØ³
Ġlungs
ĠPavlovitch
ĠØ¸ÙĦÙħØª
43
93
ÛĮØµ
Ġtune
ĠØ¨Ø¬ÙĨÚ¯
ĠØ¯Ø§ÛĮÙĨ
Ġbills
Ġfans
Ù¾Ø±Ø¯Ùĩ
ÚĨÚ¯ÛĮ
Ġlest
ĠØ¨Ø§Ú©Ø³
ĠÚĨÙĪÙ¾
ĠÙģÙĥØ±
Ú¯Ø±Ø§Ø¯
ĠØµØ±Ø¨
ĠPascal
Ġorb
orting
ĠEU
Ġcannon
Ġpert
ĠÚĨÙĪÙĨÚ©Ùĩ
Ú©ÙĪÙ¾ÛĮ
Ġincap
grade
ĠAlt
ĠØ®ÙĪØ§ÙĨÙĨØ¯Ú¯Ø§ÙĨ
Ø²ÙĨÛĮØ¯
ĠMinnes
Ġfailing
ĠÛ±Û¹Û·Û²
ĠØ·ÙĦØ§ÛĮ
ĠØºÙĦØª
Ġaudio
Ġpencil
Ø´ÙĨØ§Ø®ØªÙĨØ¯
ĠÙĩÙĦÙĨ
ĠØ¨Ù¾Ø±Ø¯Ø§Ø²ÙĨØ¯
Ġidiot
Ġeldest
ĠØ·Ø±Ø²ÛĮ
Ġneutral
ÙħØ±Ø¨Ø¹
GA
Min
boy
je
å¤
ÙĩØ§Ø±
ØªÙĨÙĩ
ĠØ§Ø±ÛĮÚ©
ĠØ§Ø±Ø¯ÙĨ
Ġpulse
Ġbend
Ġ(,
ĠØ®ÙĪØ¯ÙħÙĪ
Ġexquisite
ĠGolf
ĠNast
Ġagitation
Ú¯ÛĮØ±ÙĨØ¯Ùĩ
Ġcriter
ĠÚ©ÙĪÚĨÚ©ØªØ±ÛĮÙĨ
ĠÙħÙĦÚ©ÛĮ
Ġfollowers
Ġopenly
ĠØ³Ù¾ÛĮØ¯Ùĩ
ĠØ¨Ø³Ú©ØªØ¨Ø§ÙĦ
Ø´ÙĪÙĨÙĪ
ĠØ®ØµÙĪØµØ§
ĠGrant
Ġ1953
ĠÚ©ÙĪÙĩØ³ØªØ§ÙĨÛĮ
Ġà¥
Ġsends
Û±Û¹Û¶Û
Ġmeantime
Ġwarming
ĠPalace
Ġignore
Ġultimate
ĠÚ¯Ø°Ø±Ú¯Ø§Ùĩ
Ġpriority
Ġexerc
ĠØ®ÙĪØ´Ø¨Ø®ØªØ§ÙĨÙĩ
Ġrecollect
ĠFernand
Ġfabric
ĠØ¨Ø±Ø§ÙģØ±ÙĪØ®ØªÙĩ
ÙħØ³ÙĦÙħØ§
97
Av
si
Ġfu
Ø§ÙĦØ¯ÛĮÙĨ
ĠÙ¾ÙĪÛĮ
Ø³ÛĮØ§Ùĩ
ØªÛĮØ§Ø¯
ĠØ¨ÛĮÙĨØ¯ÛĮ
ĠÙħÙĪØ§ÙĤØ¹ÛĮ
uster
ĠNP
ccer
Ġoverhead
ĠØªØµØŃÛĮØŃ
ÙĪØ§Ø¶
Ġresidence
Ġcoin
Ġgenus
ĠÙħØ³ØªÛĮ
Ġsignature
ĠØ¯Ø±ÙĪÙĨØ´
ĠÙĤØ¯Ø±Ø¯
ĠClar
ropolitan
ĠÙħØ³ÛĮØ±ÙĩØ§ÛĮ
ĠAbout
ĠÛ±Û¹Û·Û·
ĠÎ²
ĠMademoiselle
ĠØ¬Ø¹ÙĦÛĮ
Ġmagnitude
Ġarrange
ĠØ³Ø§ÛĮØ±ÛĮÙĨ
Ġadvantages
ĠØ¨ÙĬØ´ØªØ±
ĠPalestine
ĠØ¨Ø§Ø²Ú¯Ø´ØªÛĮ
Ġcompositions
ĠChemistry
ĠÙĩÙħØ³Ø§ÛĮÚ¯Ø§ÙĨ
Ġluxury
Ter
nia
à¯
ÙħÙĪÙħ
ĠØ§Ø±Ø§
encing
Ġfitted
Ġpaces
Ø§ÙĩØ¨
Ġreaches
ĠCEO
Ġjaw
Ġspy
avan
ĠØ²ÙĨØ¯Ú¯Ø§ÙĨÛĮ
Ø¯ÛĮØ¯ÙĨ
Ġbride
Ġtragic
ĠØ§Ø¹ÙĦØ§ÙĨ
Ġappointment
obby
Ø¨Ø±ÛĮØª
Ġcomputation
ĠØ´Ø¹Ø§Ø¹
ĠExpl
ĠØ±ÙĪØŃØ´
Ġspecialized
ĠÙģØ¹Ø§ÙĦØ§ÙĨ
ĠBaron
Ġcatching
ĠØ´Ø¨ÙĩÙĩ
ĠKarl
ĠØ³Ø§ÙĦÛĮØ§ÙĨÙĩ
ĠStephen
Ġbitterly
writing
Ġprivilege
ĠDigital
Ġsurrender
Current
GP
Half
Ori
Rel
eous
ÚĨÙĦ
Ø§ÙħÙĨ
ĠÙĩÙħØ¨Ø³ØªÚ¯ÛĮ
Ġascend
ĠAuthor
ifier
Ø¢ÙĨØ¬
Ø¨ÛĮØ³Øª
ĠRaz
ĠÙ¾ÛĮØª
Ġdoct
Ġsoot
Ø§ÙĪØ±Ø¯Ùĩ
ĠÙĩØ±Ø²
ĠÙħØŃØµÙĪØ±
arya
Ú©ÙĦÙĨØ¯
Ú©Ø§Ø±ÙĦ
ĠÙ¾Ø±ÙĨØ³
ĠChild
Ġlongest
Ġblowing
neys
Ġdevelopers
ĠÙĨÙģØ³ÛĮ
Ġwavelength
ĠØ¢Ø³ÙĪØ¯Ú¯ÛĮ
nothing
Ġ700
ĠÙħØ³ÛĮÙĪ
Ġmusicians
ĠØªÙĦÙģØ§Øª
ĠÙģÛĮØ³Ø¨
Ġposts
loyed
ĠÛ±Û¹Û¶Û´
Unfortunately
Ġfortnight
Ġdispute
Ġcontributions
Ġtaxes
ĠCongo
Ġindicates
ĠØ´ÙĩØ±ÙĪÙĨØ¯ÛĮ
ĠÙĨÙĪØ²Ø§Ø¯Ø§ÙĨ
Ġadvertising
Ġelegant
Europe
?...
ÙĨÙĪØ´
ØªÙĦÙģ
ĠØ¯Ø´ÙħÙĨÛĮ
ĠÙĨØµ
Ġcage
ĠÙħÛĮÚ©Ø±Ø¯ÙĨØ¯
Ġpuff
Ø®Ø·Ø±
ÙĩØ§ØªÛĮ
ĠÙĤØ±ÛĮØ¨
ĠSN
cephal
ĠÚ©ÙĨÚ¯ÙĪ
Ø¨Ø§ØºÙĩ
ĠÚ©ÙĪÙ¾Ø±
ĠØ³ÙĩÛĮÙħ
Ġmayor
Ġswung
annah
Ġ85
ĠÚĨØ´ÙħÛĮ
ĠØ¨Ø±Ú¯Ø´ØªÙĨ
ĠÎ¼
ĠDonald
ĠØ¯ÙģØªØ±ÚĨÙĩ
ĠÚ¯Ø§Ø²ÙĩØ§ÛĮ
arca
Ù¾ÙĪØ´ÛĮ
ĠØ¯Ø±ØŃØ§ÙĦÛĮÚ©Ùĩ
ĠÙģÙĨÙĦØ§ÙĨØ¯
Ġmarrying
ÙħÙĨØªØ¸
Ġmanufacturer
ĠLaurie
Ø§ÙĨØ¬ÙħÙĨ
ĠRamsay
bear
give
Äį
inny
ĠÚ©Ø§Ø´Øª
Ġbald
ĠÙħÛĮØ¯ÙĨ
Ġmunicipal
Ø¹Ø±
Ø¬Ø±ÛĮØ§ÙĨ
Ġnaval
ĠØ¨Ø±Ú¯Ùĩ
otus
imm
rod
roe
ĠÙĤØ±Ø§Ø¦
ĠÙħÙĪØ¹Ø¸Ùĩ
resist
ĠTol
Ġchuck
ĠØ¨Ø§Ø²ÙĪØ§ÙĨ
Ø¨Ø§Ø±ÛĮØ¯
ĠØ¢Ø±ÙħØ§ÙĨ
Ġfraction
ĠÙģØ¶Ø§Ù¾
Chapter
Ġanimated
Ø´Ø¨Ú©Ùĩ
ĠÛ¶Û°Û°
Ġ1955
ĠÙħØ§Ø¯ÙħÙĪØ§Ø²ÙĦ
ĠØªØ±Ø¯ÛĮØ¯ÛĮ
ĠØ¨ÛĮØ§ÙĪØ±ÛĮÙħ
ĠØ¨ÙĦÙĪØº
ommod
Ġaims
Ġexhibition
ĠØ¨Ø¨ÙĨØ¯Ø¯
Ġstrategic
Ġbetrayed
Ġchampion
ĠFIFA
ĠÙħØ§Ø±Ø´Ø§ÙĦ
ĠÙĪØ§Ø³ÛĮÙĦÛĮ
Ġcoffin
ĠMinnesota
Around
Red
burn
dem
might
tail
ĠØ¨Ø´Ùħ
ĠØ§ÙĤØ±Ø§Ø±
itations
ĠÙģÙĢ
Ø±ÛĮØŃÛĮ
Ġrendered
Ġweeke
ĠSA
andra
ĠØ±ÙĪØ§
ĠPR
ĠBed
romo
ĠGry
Ġvoted
ĠLincoln
ĠEnt
Ø§Ø´Ú©
Ġdislike
ĠØªÙĨØ§ÙĤØ¶
oving
bek
ĠÙĨØ²Ø§Ø¹
Ġcourty
Ġcrept
Ġsolitude
ĠÙĪØ§Ú©ÙĨ
ĠØ¢Ø´ØºØ§ÙĦ
ĠÙħØ§ÙĦØ²ÛĮ
ĠØ¨Ù¾Ø±Ø³Ø¯
ĠBeau
ĠÚ©Ø±Ø§ÙĨÙĩ
ĠÚ©ÙģØ§ÛĮØª
ĠPavel
Ġcollecting
Ġconsumed
ĠØ§Ø³Ø±Ø§Ø¦ÛĮÙĦÛĮ
Ġmeasuring
Ġviruses
Ġclubs
ĠØªØ¨ÙĦÛĮØºØ§ØªÛĮ
Ġbullet
Ġalarmed
Ġbonds
ĠÚ©Ø§Ø±ÙĩÙĨÛĮÙĨ
ĠVenezuela
ĠSudan
Ġjuris
98
ME
Ø´ÙĪÙĤ
ouver
ĠÙħÛĮÙĩ
ĠÙħÛĮØ´Ùħ
Ġhay
ĠÚ¯ÚĨ
ĠMeth
ĠCant
ilm
umm
Ø¦Ø§ÙĨ
Ġalike
ĠÚ¯Ø±ÙħØ§ÛĮØ´
cile
ĠÙħØ¹ØªØ±
Ġ1910
ĠÙ¾ÛĮØ´Ø±ÙĪ
Ġenabled
ĠKa
anga
Ú¯Ø°Ø±Ø§ÙĨ
ÙĦÙĪØ³ÛĮ
version
ĠÙģØ±ÙĪØ®Øª
ĠÙģÛĮÙĦÙħØ¨Ø±Ø¯Ø§Ø±ÛĮ
Ø¯ÙĨØ¨Ø§ÙĦ
ĠØ¬ÙĦØ§ÙĦ
Ġopera
ĠØ´Ø¹Ø§Ø±
Ġbreathed
door
ĠÛ±Û¹Û¶Û³
Short
Ø³Ú©ÙĪØª
ĠÚ¯ÙĨØ§ÙĩÚ©Ø§Ø±
ĠBiography
ĠØªØ§ÙĨÚ©
ĠØ¨Ø±Ø§ØªÙĪÙĨ
Ú©ÙĪØ¯Ú©
Ġtransparent
Ġoffended
ĠØ§ÙĦØ¬Ø²Ø§ÛĮØ±
ĠBennet
ĠGadfly
ĠØªØ«Ø¨ÛĮØª
Ġtat
ĠØ§Ù¾Ø±Ø§
Ġbosom
Ġnort
ĠÙģØ§Ø¶ÙĦ
ĠÙĤÙĢ
ĠSor
usively
Ġlighter
Ġsuited
ortion
ĠØ¢ÙħØ¯ÛĮ
ĠØ¯Ø§Ø¯ÛĮØ¯
ĠÙĨÙĪØ¬ÙĪØ§ÙĨÛĮ
Ġdisrupt
ĠÙħØ³ÙĦØ³ÙĦ
Ġamp
ffind
Ġcoarse
ĠØ§Ø¬Ø¯Ø§Ø¯
ĠÙĨØ´ÙĪÙĨØ¯
ĠØ¯ÙĪØ³ØªØª
ĠØ´ÛĮØ®
ĠÙĪØ±Ø§ÛĮ
Ġfarmer
ĠØ®Ø¨Ø±ÙĨÚ¯Ø§Ø±
Ġreporting
ĠOrlando
Ġlimbs
ĠÙĨÙģØ³Ø´
Ġversus
ĠØªÙĪØ±ÛĮÙĨÚ¯
ĠØ¨Ø¯ÛĮÙĩÛĮ
Ġresponses
Ġcivilian
Ġcameras
Ġhistorian
Ġfeeding
glas
Ġterritories
Ġchallenging
ĠCarlisle
Ġdialogue
ĠØ±ÙĪØ¨Ø±ÙĪÛĮ
ĠØ¯ÙħØ´ÙĤ
ĠÙĦÛĮÚ©Ø±Ú¯Ø³
HO
fold
pin
Ġsab
ĠØĮ...
ĠØªØ±Ø³ÛĮØ¯
ĠØ¬Ø§ÙĩØ§
section
Ġstif
ĠMme
Ø¢Ø±Ø²
arte
Ġchampionship
ĠØ§ÙĨØ¯Ø±Ø³ÙĪÙĨ
ĠÙ¾Ø±ÛĮÙĨ
Ġ43
Ġsimplicity
ĠÙĪØ±ÙĤÙĩ
Ġreadily
ĠÙĨØ®ÙĦ
Ġwinds
Ġoperates
ficial
Ġreasoning
µÛ¶
ĠØªØ£Ø«ÛĮØ±Ø§Øª
headed
ØµÙĪØ±ØªØ´
Ġdistinctly
ØŃØ¯Ø§ÙĤÙĦ
ĠÙħØªØ£Ø³ÙģÙħ
ĠKenya
Ġantibiot
ĠØ²ÛĮØ¨Ø§ØªØ±ÛĮÙĨ
ĠDenisov
BR
HP
HS
Mother
Note
Pat
cat
came
ØªØ¦
ĠØ¨Ø¨ÙĪØ³
ĠÙħØ§Ø±Øª
ĠÚ©Ø§
Ġwax
ÙģØ§ÙĦØª
ĠÙĨØ¨ÙĪ
ĠÙĩØ±Ø¯
Ø¹ÙħÙĩ
ĠØ®ÙģÛĮÙģ
Ø³ÛĮØªÙĩ
odox
estion
ĠÙħØªÚ©ÛĮ
Ġcanvas
Ġdisgu
Ġbackwards
Ġprejud
ornis
ÙĨØ§Ù¾
Ġblows
Ġappet
ĠØ¹ÙĦÙĦ
ĠÙħØ®Ø§Ø¨Ø±
Ġrestored
ĠÙħÙĪÙģÙĤÛĮ
ĠÙĦÙĪØ¦ÛĮ
Ú¯Ø±ÙģØªÙĨ
----
Ġ1954
Ġ1957
Ġutility
Ġbottles
ĠØ®ÙĪØ¯Ø±ÙĪÙĩØ§ÛĮ
ĠQueens
ÙĨÙĤØ´Ùĩ
ĠØ¢ÙģØ±ÛĮÙĨØ´
ĠÙĦØ¹ÙĨØª
Ġirritated
ĠØ§Ø±ØªÙĤØ§Ø¡
Ġcontroversial
Ġjewel
ĠØ·Ø±ÛĮÙĤÛĮ
ĠTreaty
ĠAlfred
Ġdisgrace
Ø³Ù¾Ø§Ø³Ú¯Ø²Ø§Ø±Ùħ
ĠMediterranean
Ten
hot
zens
Ø±Ú©Ùĩ
Ø³ÛĮØ¯
ĠØªØ´ÙĨØ¬
ĠÙħÛĮØª
ĠÙĩØ±Ø§
Ø¬Ø±ÛĮ
ĠÙ¾Ø§Ùģ
owl
ĠÙĩÙħÙĩÙħÙĩ
Ġ(@
ĠFu
ĠFriend
ĠÚ©Ø´Ø´
ĠKy
ĠKir
ÙħØ§ÛĮÙĦÛĮ
resses
forward
ĠÙħØ¬ÙĦØ§Øª
ĠØ³ÛĮØ§Ø±Ø§Øª
Ġneedle
ĠØªØ´ÙĪÛĮØ´
ĠØŃÙĤÛĮØ±
ĠØªÙĪÙĦÛĮØ¯Ú©ÙĨÙĨØ¯Ùĩ
ĠØ³ÙĨÚ¯Ø§Ù¾ÙĪØ±
Ġdrowned
Ġlawyers
ĠÙħØ¯ÛĮØªØ±Ø§ÙĨÙĩ
Ø®Ø±ÛĮØ¯
ĠØªÙĨØ¯Ø±
ĠÙħÙĩÙĨØ¯Ø³Ø§ÙĨ
Ù¾Ø²Ø´Ú©
Ġconception
ÙħÙħÚ©ÙĨÙĩ
ÙĨÙħØ§ÛĮÙĨØ¯
Ġbells
ĠÙħÙĤØ¯ÙħØ§ØªÛĮ
Ġseventy
Ø¬ÛĮÙħØ²
Ġpavement
Ġembedded
ĠÙĨØ§ÙħÙĨØ§Ø³Ø¨
Ang
NET
Put
wich
isen
alion
omes
ĠÛĮØ£Ø³
ĠÚ¯Ø¯
Ø´ØªØ§Ø¨
ĠSix
Ġsections
ØºØ±ÛĮ
Ġjury
raf
Ø´ÙĨØ§
ĠØ§ØµÛĮÙĦ
ĠØªØ¹ØµØ¨
ÙħÙĪÙģ
ĠØ§Ø¨Ø±ÛĮØ´
ĠÙĪØ±ÙĨÙĪÙĨ
Ġminded
Ġediting
ĠÙħØ´ØªØ±Ú©ÛĮ
Ġdesigning
Ġspecified
ĠØ¯Ø±ÙĪÛĮØ¯Ø§
ĠØªÛĮÙħÛĮ
Ġtreaty
ĠØ³ÙĪØ¯ÙħÙĨØ¯
Ø§Ø¹ØªÙĨØ§ÛĮÛĮ
ĠØ¯Ø±ÙħÛĮØ§ÙĨ
worthy
ĠÙĩÙħØ¯ÙĦÛĮ
Ġimpatient
ĠØ§ÙģØ±Ø§Ø·
ĠÙħØ±Ø³ÙĪÙħ
ĠPetrovitch
ĠBurgos
ĠØ§Ø³Ú©ÙĦØª
Ġdiscrimination
ĠHeathcliff
rising
Ġze
ÙĨÙĪÛĮ
ØªÙĦØ§Ø´
Ġlamb
ĠØ¨Ø±ÛĮÙĨ
Ġwhip
ĠAS
oline
Ġseas
Ġseeds
iae
ĠÙĨÙĪØ±Ø¯
ĠÙħØ³Ø§Ø¦ÙĦÛĮ
Ġspots
ÙĪÙĨØ¯ÙĪ
ildred
ĠÙĨÙģØ±ÛĮÙĨ
ĠÙ¾Ø±ÙĪØ±Ø¯Ú¯Ø§Ø±
owski
ĠÙģØ¹Ø§ÙĦÛĮ
ĠÙħØ®ØªØµØ±ÛĮ
ÙĦØ³ÙĪÙĨ
ĠÙĨÚ¯ÙĩØ¨Ø§ÙĨÛĮ
ĠAncient
ĠØ§ÙĤØ¯Ø§ÙħÛĮ
ĠØ§Ø²Ø¯ØŃØ§Ùħ
Shall
Ø¬Ø²ÛĮØ±Ùĩ
Ġvanity
ĠØ¬Ø§Ø³ÙĪØ³
Ġrestricted
Ġshifted
ĠGilbert
pherd
LP
Vol
fix
name
wart
Ġtut
Ġcul
ĠØªØ´Ø¯ÛĮØ¯
orms
Ø§ÙĦÛĮØ³Øª
ÙģØªÙĨ
Ø§Ø¨ÙĪÙĨ
Ø±ÙĪØ´ÙĨ
ĠDream
Ġleaped
Ġ1918
onda
pling
ÙħØ¯Ø§Ø±
ĠÙĨØ¯Ø§Ø´ØªÙĨ
Ġslipp
Ġmemb
ĠÙħÙĨØªÙĤØ¯
pending
Ø®ÙĨØ¯Ø¯
Ġcomputational
Ġawoke
ĠØ¢Ø²ÙħØ§ÛĮØ´Ú¯Ø§ÙĩÛĮ
ĠBrad
Ġillusion
Ġdropping
ĠÚĨØ±ÙħÛĮ
ĠÙħØªØ®ØµØµØ§ÙĨ
ĠØ¨Ø§ÙĦØ§ØªØ±ÛĮ
Ġingen
Ġbreeze
Ġsearched
ĠDrogheda
Ġvoltage
ĠØ§Ø¨Ø±ÛĮØ´ÙħÛĮ
ĠØ§Ùī
eric
ĠÙ¾ÙĪÛĮØ§
Ø§ØªØ§ÙĨ
Ġstole
ceans
ĠMurd
Ġanat
ĠâĢĭ
ĠØ³Ø±Ø³Ø®Øª
emis
ĠGord
ĠRest
Ġvamp
ĠØ§ÙĦÙħ
ĠØ±Ø³Ø§ÙĨÛĮØ¯
ĠÙĨÙĩØ§ÙĨ
Ġbacks
Ġhandful
ÙħØ¯ÛĮØ±
Ġfounding
Ġ46
ĠÙħÙĦÙĪØ§ÙĨ
ubb
iolet
Someone
ĠÙħØ²Ø¨ÙĪØ±
ĠØ§ØŃØªÛĮØ§Ø¬ÛĮ
Ġfilling
Ġcease
ĠÎĶ
Ġhosts
Ġtitles
Ġdiscussing
Ġfocuses
Ġchemicals
ancouver
ĠØ¨Ø±Ø³Ø§ÙĨÙħ
ĠKennedy
Ra
piece
ĠØ¦
ĠÙħÙħÙĦ
Ġsnapped
ĠØ±ÙĤÛĮ
ĠÙĨÚ¯ÙģØªÙħ
Ġfog
Ù¾ÙĦÛĮØ³
ĠØ´Ø±ÛĮ
ĠØ¢Ø±Ø¯
alo
ĠØ±Ø§Ø¯Ø§Ø±
amine
ĠØ¨ÛĮØ§ÛĮÛĮ
agall
Ġneuros
ĠDid
ĠTaj
Ġchill
Ø§ÙĨØ¯Ø§Ø±
ĠØ§Ø³Ø¨ÛĮ
Ġresigned
Ø¨Ø§ÙĨÙĪ
Ġprecip
iban
Ø±ÛĮÙĨÚ¯
Ġdevast
Ġpublishing
Ġidle
Ġprocedures
ĠÚ©ÛĮÙĦÙĪÚ¯Ø±Ùħ
Actually
CT
ÙĪÙĪÙĨ
ĠØ§Ú¯
ĠÙĪØ±Ùħ
ĠÙĨÛĮÙĨ
ĠÙħÛĮØ¨ÛĮÙĨÛĮØ¯
Ġdang
ØŃØ¯Ø³
Ġgreed
Ġgodd
riel
ĠÚ©ÙĨÚ¯
ĠRand
Ġvot
oker
Ġloan
ichael
Ø¹ÛĮÙģ
Ġ1914
Ø´ÙħØ§Ø±Ùĩ
International
ĠÙħÙĪØ±Ø¯Ø´
Ġaccommod
ĠÙħØºÙĦÙĪØ¨
ĠØ¯ÙĤÛĮÙĤÛĮ
ĠÙĨÚ©Ø±Ø¯ÙĨ
ĠØ®ÙĪØ§Ø¨ÛĮØ¯ÙĨ
Ġmedal
ĠØ¢Ø´Ø§Ùħ
ĠØ¢ÙĩØ³ØªÚ¯ÛĮ
Û±Û·Û
bye
ĠØ®Ø·Ø±ÙĨØ§Ú©ÛĮ
Ġbasin
Ġviolently
ĠFeisal
Ġimproving
Ġterribly
ĠÙ¾ÙĨØ§ÙĩÙĨØ¯Ùĩ
ÙĦØ²Ùħ
Ġpanel
ĠÙħØ§Ø³Ú©
ĠÙħÙĦØªÙģØª
Ġnervously
ĠØµÙħÛĮÙħÛĮØª
ĠØ´ØªØ±ÙĩØ§
ĠÚ¯Ø°Ø±Ø§ÙĨØ¯ÙĨ
Ġoverwhelming
Ø¶ÙħÙĨØ§
Ġdiplomatic
Ġdominant
AX
CI
Elect
Ob
uke
ĠÕ
Ø³ÙĨØ¬
Ø²ÙĨØ¯Ùĩ
Ø§ÙĨØ§ÙĨ
Ú¯Ø§ÙĪ
encia
ĠÙħÛĮÙĩÙĨ
ĠØ¨Ø§Ø´ÙĨ
oton
ĠSin
ĠMi
Ø¢Ø®Ùĩ
ĠPed
ÙĨÛĮÚ©ÙĦØ§ÛĮ
Ġlob
ĠØ¨Ø§Ø²ÙħØ§ÙĨØ¯Ùĩ
Ġ',
Ġcliff
Ø±Ø¨Ø±Ø¯Ø§Ø±ÛĮ
ĠØ³ÙĪÙħÛĮ
ĠÙħØ·Ø§Ø¨
ighters
Ø±ÙģØªØ§Ø±
ĠRev
Ġhighway
ĠØ®ÙĪØ§Ø¨ÛĮØ¯
ĠÙģØ±Ø§Ú¯ÛĮØ±
ĠØªØ®ÛĮÙĦÛĮ
ĠColor
ĠTeam
ĠØ²ÛĮØ¨Ø§Ø³Øª
Ġ1951
ĠÙ¾Ø³ØªØ§ÙĨØ¯Ø§Ø±Ø§ÙĨ
ĠØ´Ø§ÙĨØ³ÛĮ
ĠÛ¶Ûµ
Ġlosses
ĠInterview
Ġscholar
ĠBertram
Ġvaccine
Surely
Ø§Ø·ÙĦØ§Ø¹Ø§Øª
Ġvoyage
ĠØ§Ø±ØºÙĪØ§ÙĨÛĮ
Mor
gov
Ø³Ø¯
ĠÙħÛĮØ²ÛĮ
ĠØ¨Ø±Ø¢ÙħØ¯Ùĩ
ĠØ§Ø³ØªÙĪÙĨ
ĠØ¢ÙĨØªÙĪØ§ÙĨ
ĠIEC
ĠÙĦØ´
Ġnoticing
agging
ĠBall
rape
Ġpeer
Ġard
Ø¨Ø§ÙĨÚ©
Ø¨ÛĮÙĨÙĪ
Ġscorn
ĠØ³ÙĪÙĤ
ieties
brother
attan
idding
ÙģÙĩÙħÛĮØ¯Ùħ
ĠÛ±Û¹Û´Û±
ĠØ±ÙģÙĤØ§ÛĮ
Ġdisposition
etermin
Ġsadness
Ġbelly
ĠÙĩØ¬Ø±ÛĮ
ĠHamilton
ypes
Ġrevenue
ĠÙĩÙģØ¯Ùĩ
ĠÙħØ¤Ø¯Ø¨Ø§ÙĨÙĩ
ĠØ¬ÙĨØ¬Ø§ÙĦ
""
Micro
National
gments
ÙĪÙĪØ§
ÙĦÛĮÙĨÚ¯
ĠÙĪØ¯
ĠØ±Ø¨Ùĩ
Ġgran
ĠÙģØ§Ùħ
ĠIEEE
ĠPass
ĠBra
umih
ĠØ³Ø±Ù¾Ø±Ø³ØªÛĮ
ĠÙģØ±ÛĮØ¯
Ġchurches
ĠNep
Ø´ÙĨØ§Ùħ
Ġtwins
Ġobed
Ġmagazines
Ġspacecraft
Ġbarg
ĠÛ±Û¹Û´Û·
ĠØ¨ÙĩØ¨ÙĪØ¯ÛĮ
ĠÚ©Ø§ÙħÙ¾ÛĮÙĪØªØ±ÙĩØ§ÛĮ
ĠÙħÙĪØ§Ø¬ÙĩÙĩ
Ġchoosing
Ġwithdrew
Ġembarrassment
ĠØ¨Ø®Ø´ÛĮØ¯ÙĨ
Ġjealousy
ĠHungary
ĠSerbia
Ġplunged
,...
Û¶Û
ĠÙħØ®ÙĪÙģ
Ø³Ø§ÛĮÙĩ
ĠÙĪØ¯Ø§
ĠÙĨØ§Ø³ØªØ§Ø²ÛĮ
ĠØ³ÙĤØ·
Ġduck
ĠØ¬Ø§ÙĪØ§
sex
ilian
ĠØ±ÙĪØ§Ø¬
ĠØ¯ÛĮÚ©Øª
ĠLike
ÙĢØªÙĩ
ĠÙĨØ¯ÙĪ
rug
Ġdisli
Ġarise
ĠÙĨØ§ÙħØ²Ø¯ÛĮ
ĠØ§ØµØ§Ø¨Øª
ĠØ³ÙĪØ§ÙĦÛĮ
ocols
ĠÙģØ±ÙĪÙ¾Ø§Ø´ÛĮ
Ġregul
Ġpatent
ĠØ¬ÙĪØ±Ø§ÛĮÛĮ
ÚĨØ§Ø±ÙĦØ²
Ġorient
Ġoriginated
apper
ĠÙª)
ÙħØ´Ø®Øµ
Ġjudged
Ġsadly
ĠØ¨Ø±Ø¯Ø§Ø±ÛĮØ¯
Ġacknowledge
Ġobscure
Ġexpedition
Sy
trans
ÙĨÛĮØ²
ÙĪÙĤÙĩ
ĠÙħÛĮÚ¯ÙĨ
orient
esome
Ġdanced
ĠØ±Ø§ÙħÛĮ
ĠØ¨ÛĮØ§ÛĮ
ĠPitty
ĠÙ¾ÛĮÚ¯ÛĮØ±ÛĮ
ĠTell
ĠHur
ĠFau
ĠÙĨØ¯ÛĮØ¯Ùħ
Ġcompat
Ø§ØµØ·
ĠÙ¾Ø±ØªØ±Ùĩ
ĠØ¶Ø§ÛĮ
ĠÚ¯ÙĦØ¯
ĠØ¨Ø´ÙĪÛĮØ¯
2012
ĠÙĪÙĦØ¯
ĠPlace
ynasty
Ġstatements
Ġmadame
ĠMercedes
IPS
Ġtricks
Ġhorizont
Ġarrangements
Ġassembled
ÙħØ³ØªÙĤÛĮÙħ
Ġchaos
Ġbewildered
ĠØºÙĦÛĮØ¸
Ġmingled
ĠÚ¯Ø±ÛĮÙģÙĨØ¯ÙĪØ±
umihin
62
Air
Back
var
Ú©Ø§Ø¨
ĠÙĨÚ©ÙĨÛĮ
ÙĪØ¯Ø¢Ú¯Ø§Ùĩ
Ġhi
ĠØ§ÛĮÙĨØ·ÙĪØ±ÛĮ
stood
Ġstability
ĠBush
Ġrude
Ġshudder
ĠNon
Ø¬ÙĩØ§ÙĨ
Ġdishes
ĠÙĨØ´ÛĮÙĨÛĮ
ĠÚĺØ±
ĠØ§Ø¹ØªÛĮØ§Ø¯
ĠØ¶ÛĮØ§ÙģØª
Ġnevertheless
akespe
Ġtrend
Ġtribe
uffled
ĠØ¨Ø§Ø¯Ø¨Ø§ÙĨ
ĠÙħØªØ±Ø¬Ùħ
Ġ1934
Being
ĠÙ¾ÙĪØ´Ø§ÙĨ
Ġmorality
Ġimmort
ĠÛ±Û¹Û´Û²
ĠÚ¯ÙĪØ±Ø³ØªØ§ÙĨ
ĠJustine
ĠØ¬Ø§Ø¯ÙĪÛĮ
ĠØ¯Ø²Ø¯ÛĮØ¯Ùĩ
Ġownership
ĠEthiop
Ġsubstantial
ĠØ²ÛĮØ±Ø¯Ø±ÛĮØ§ÛĮÛĮ
ĠØ§Ø¦ØªÙĦØ§Ùģ
Ġsophistic
ĠÚ©ØªÛĮ
Ġsinking
ĠÙ¾ÙĦÙĪ
ĠØ¨Ø§ÙĤÛĮÙħ
Ġbears
ÙĪÛĮÚ¯
ĠÙĤØ§Ø·Ø±
ĠBir
Ø´Ø¯ÛĮÙħ
Ġlovers
Ġintrig
Ġagitated
ĠÙĨØ¨ÙĪØ¯ÙĨ
awl
Ġacids
Ġslope
ĠÙĤØ¨Ø§ÛĮÙĦ
ĠÙĪØ§ÙĦØ§
cover
ĠØ¢Ø³ÛĮØ§Ø¨
Ġsensors
Ġsnake
ylon
Ø¬Ø§ÛĮØ²Ùĩ
ĠÙģØ±ÙħÙĪØ¯
ĠBerkeley
1999
ĠÙħØ§Ø³Ø§ÚĨ
yrics
Ø¹ÙĦØª
ĠØªÛĮÙĦÙĪØ±
Ġemphasis
Ġcortex
61
Script
ÙĨØ§Ø±
heel
Ø¨Ùħ
Ġsi
Ġbio
Ġmant
Ø¬Ø³ØªØ§ÙĨ
ĠÙ¾Ø®Øª
ÙĪÙĨÛĮÙħ
ĠÚĨÚ¯Ø§ÙĦÛĮ
Ú¯Ø±Ø§ÙģÛĮ
Ø±Ø§Ø¬Ø¹
ĠGarth
arting
ĠFall
Û°Û±
ĠAramis
ĠÙħØ³ØªÙĦØ²Ùħ
ĠÙĦÛĮØ¨ÛĮ
Ġdiscont
ĠØ§Ø±Ø¬Ø§Ø¹
ollen
uset
........
Ġveil
Ġglobe
ĠØ¨Ø§Ø²Ú¯Ø´ØªÙĨØ¯
Ġborne
Ġmanufactured
Ġestimates
ĠØªØ®ØµÛĮØµ
ĠÙħØªØ§Ø³ÙģÙħ
ĠØ®ÙĦØ§ÙĤØ§ÙĨÙĩ
ĠArchitecture
ĠLewis
Ġtrillion
ĠÙģÙĪØ§ØµÙĦ
ĠÙ¾Ø§ÙģØ´Ø§Ø±ÛĮ
wind
whether
Ø§ÙĬ
Ø±Ø´ØªÙĩ
Ġpic
ÚĨÛĮÙĨÛĮ
ĠÚ¯Ø§ÙĦÛĮ
ĠØ¨Ø±Ø§ÙĨØ¯Ø§Ø²
Ġreferences
ĠØ²Ø§Ø±ÛĮ
ĠÚ©ÙĨØªØ±
ĠDal
ĠØ¯Ø³ØªÚ©Ø§Ø±ÛĮ
ĠÙħØŃÚ©ÙħÛĮ
rys
ĠÙħØ¹ÙĤÙĪÙĦ
ĠØ§Ø³Ú©ÛĮ
inked
ĠÙĩØ§ÙĬ
ĠØªØ¹ÙĪÛĮØ¶
Ø¬Ø±Ø¨Ùĩ
ĠØ¢ÙħÙĪØ²Ú¯Ø§Ø±
ĠÚ¯ÙĨØ§ÙĩÛĮ
Ø²ÙĦØ²ÙĦ
ĠØ¨Ø§ÛĮØ³ØªØ¯
Ġphrases
occup
ĠDamascus
ĠÙĨÚ¯Ø°Ø§Ø´ØªÙĩ
ĠLaboratory
Ġamusement
Ġâģ¡
LT
tw
ĠÚ©ÙħØ§
ĠÚ©ÙĪØ±Øª
ĠØ±ÙĪÙĦ
anim
ĠØ¢Ø¬Ø±
Ġdual
ĠØ±Ø§Ø¯
ĠØµÙģØª
Ġprosecut
ĠFut
Ø¨Ø§Ø¹
Ġupright
ĠØ§ÙĦÙĤØ§
ĠØ³ÙĪØ§Ø±Ø§ÙĨ
Ġindigenous
Ġdepict
Ġtrail
Ġreceiver
ÙħØ«Ø§ÙĦ
Ġimaging
ĠÙħØ²ÙħÙĨ
ttes
ĠØ¢ÙĩÙĨÚ¯Ø³Ø§Ø²
Ġstatistical
Ġrobes
Ġurgent
Ġaddresses
Ġcompete
ĠÙ¾Ø§Ø±Ú©ÛĮÙĨÚ¯
Ù¾ÙĪØ³ØªØ§ÙĨ
Ġclimbing
ĠØŃØ§Ú©ÙħÛĮØª
ĠØ¨ÙĨÚ¯ÙĦØ§Ø¯Ø´
ĠÙħØ·Ø§Ø¨ÙĤØª
Ha
Peter
dad
æľ
Ø¯Øª
ĠØ¨Ø¨
ĠÙħØ¨Ø§ÙĦ
Ø³Ù¾Ø§Ø±
erated
ĠØ±Ø¯Ø§ÛĮ
Ġfount
ĠØ´ÛĮÙĦ
utive
eta
Ú¯Ø±ÛĮØ¯
ilight
ÙħØ§ÙĨÙħ
Ø§Ø³Ø§Ø²ÛĮ
ĠGerald
Ġvocal
ĠÙģØ±ÙħØª
ĠHug
ĠHipp
ĠÙħØªÙĪÙĨ
Ġleague
ĠÙħØ¹Ø´ÙĪÙĤ
Ø´ÙĨØ§Ø®ØªÛĮ
ÛĮÙĦØª
ector
Ġhumour
ĠÙģØ±Ø§Ø®ÙĪØ§ÙĨÛĮ
Ġpatron
ĠØ§Ø¹ØªÙĨØ§ÛĮÛĮ
ĠØ±Ø§Ø³ØªØ§ÛĮ
ĠBeat
µÛµ
Ġveloc
Ú¯ÙĨØ§Ùĩ
Ġdestro
vanced
ĠÙģØ§Ø±Ø³
Ġfacil
Ġhistorians
Ġpunish
ĠÚĨØ§ÙĤÛĮ
Ġlibraries
Ġdeparted
Ġscreamed
ĠÙĩÙĪØ´ÙħÙĨØ¯Ø§ÙĨÙĩ
ĠÙĨØ¨Ø§Ø´Ùĩ
ĠØ³ÛĮØ¯ÙĨÛĮ
ĠÙĩÙĪØ´ÛĮØ§Ø±ÛĮ
ĠØ³ÛĮØ§Ø³ØªÙħØ¯Ø§Ø±Ø§ÙĨ
Ġcontradict
Ù¾Ø²Ø´Ú©ÛĮ
CN
cz
fig
ÏĤ
ÙĩÙģØªÙĩ
ĠØ§ÙħÛĮØ±
ĠÙħÙĪØ±ÛĮ
ĠØªØº
asi
ĠØ¨Ø§Ø³
lyn
ĠMong
Ø¢Øº
Ġdeeds
Ġraces
ersion
ĠEye
Ġ1915
ĠØ®ÙĪØ§ÙĩØ±Ùħ
ĠÙ¾ÛĮØ´Ùĩ
achuset
ĠØªØµÙĪØ±ÛĮ
Ġcoverage
ĠØŃÙĦÙĤ
comp
ĠÙ¾Ø§Ø±ÙĪ
ĠÙĨØ§Ø±Ø§Ø¶ÛĮ
Ġadvised
Ġspeakers
ĠÛ±Û¸Û³Û
ĠØ¨Ø±Ø¬Ø§ÛĮ
Ġvolumes
Ġcombine
1998
ĠØªÙĪÙ¾Ø®Ø§ÙĨÙĩ
Ġharmony
Ġphenomena
ĠØ¬ÙĪØ§ÙĩØ±Ø§Øª
ĠÙĨÛĮÙĪØ²ÛĮÙĦÙĨØ¯
akespeare
ĠÙħØ§Ø³Ø§ÚĨÙĪØ³Øª
Journal
heres
ĠÚ©Ø±Ú©
Ġsque
Ġwagon
erals
ĠØ±Ø´
itational
ĠØªØ·
ĠØ´Ø³ØªÙĩ
Ø§ÙħÙĪ
llers
ĠØ§Ø³ØªØ®Ø±
star
ĠÙģØŃØ´
ĠIng
Ġwelf
ĠCreat
usha
antry
ĠLinton
ĠTun
ĠWick
asso
ĠÙĨÛĮØ§ÛĮØ¯
Ġbacked
ĠØ¢ÙĪØ±Ø¯ÛĮÙħ
Ġglancing
Ġ53
Ø¯Ø§Ø´ØªÙĨ
ĠØ¢Ø³ÙģØ§ÙĦØª
Ã©n
ĠØ¯Ø±ÛĮØ§Ø¨Ø¯
ĠÙĦØ°ØªÛĮ
ĠTrust
ĠØªØ±ÛĮÙĦÛĮÙĪÙĨ
ØªØµÙĪÛĮØ±
ĠÛ±Û¹Û¶Û¶
ĠMadrid
Ġpanels
ĠØ¨Ø±Ø§ÙĨØ§Ø¨ÙĪØ³
Ġhideous
ĠØ´ÛĮØ·ÙĨØª
ĠFermina
ĠÙĨØ§ÙĤÙĪØ³
Ġastronom
ĠØ®ÙĪÙĨØ³Ø±Ø¯
achusetts
THE
rator
uated
Ú©Ø§ÛĮ
ĠØ§Ø´ÛĮ
Ġarous
ĠØ¯Ø¨
ĠØ¢ÙĪØ±Ùħ
ĠMovie
ifully
ĠÙĦÚĺ
ĠBit
ĠØªÙĪÙģØ§ÙĨ
eland
ĠFat
Ġthereby
ĠÚ©ÙĪØ³Ùĩ
ĠÚ©ÙħØ¨Ø±ÛĮØ¬
ĠØªÙĨØ¨ÙĦ
Ġcompiler
inted
Ġmetres
Ġhighlight
ĠØºØ±ÙĪÙĦÙĨØ¯
ÙħÛĮØ²Ø§ÙĨ
Ã©t
Ġcontrolling
Ġlively
ĠØ¢ØªØ´ÛĮÙĨ
ĠÙ¾ÙĦØª
ĠØ³ÙģØ±ÙĩØ§ÛĮ
Ġsummit
Ġradi
Ġposted
Ġacquainted
ĠÙģÙĩÙħÛĮØ¯ÛĮÙħ
Ġringing
ĠØ¬Ø°Ø§Ø¨ÛĮØª
ĠÙħÙĨØµØ±Ùģ
Ġvulgar
Ġcolumns
ĠØ§Ø¯ÛĮØ§ÙĨ
ĠSonya
ĠÙģÛĮØ³Ø¨ÙĪÚ©
LC
sch
ÛĮØ§Ø¨
Ø´Ø§Ùħ
ĠØªØ§Ø²ÛĮ
ĠØ¯Ø±Ø¨Ø§ÙĨ
Ù¾Ø´
ĠØ³ÙĪÛĮÛĮ
Ġinjust
leine
ÙĪØ±Ùĩ
imony
Ø¢ÙĨÛĮ
Ġhaired
ĠBran
ĠØªÙĪØ´
ĠHassan
outed
ĠÙħØªÙĤ
iah
Ġunsu
ĠObs
ĠÙ¾Ø³Ø±Ø¨ÚĨÙĩ
ÙĪØ³Ø§Ø²
Ġclergy
cled
ĠØ³ÙĨØ³ÙĪØ±
Ġelabor
Ġdrown
anni
elson
ĠÙħØ·Ø§ÙĦØ¨ÛĮ
ĠØªÙĩÙĪÛĮÙĩ
Ġwinners
ØµÙģØŃÙĩ
Ġboundary
ĠØ¨ÙĪØ±Ø³
Ù¾ÙĪØ´Ø§ÙĨØ¯
Ġinquir
Ġjournalism
Ġcrops
ĠÙĨÚ¯Ø§Ø±Ø´
Ú©ÙĪÚĨÚ©
Ġswallowed
Ġfortunate
ĠStatistics
Ġdoubts
ĠØªØ§ÛĮÙĦÙĨØ¯
ĠÚ©Ø§Ø±Ø¯ÛĮÙĨØ§ÙĦ
Ġwelfare
Mill
Sub
new
ÙĩØ°Ø§
heard
Ø§ÙĨØ±ÚĺÛĮ
Ġfiber
Ġmice
Ù¾ÙĪØ´ÛĮØ¯
Ġlem
stru
idable
opic
ĠBecause
ĠØ§ÙĨÙģØ±
ĠØ³Ø±Ø¨
oslav
ĠDom
ĠDaddy
ĠNov
Ġoverl
ĠØ§Ø¬Ø¨Ø§Ø±
Ú©Ø³Ù¾ÛĮØ±
Ġdiffer
Ġ_,
ĠÙĨØ³ÛĮÙħ
Ġattorney
ĠÚ¯ÙĪØ´Ùħ
Ġsurgeon
Ġairpl
Ġreaders
ĠØºØ°Ø§Ø®ÙĪØ±ÛĮ
Ġdefic
Ġwarfare
Ġpropos
ĠØªÙĪØ±ÙĪ
Ġreligions
Ġmembership
Ġvertical
ĠDavis
ĠØ³ÛĮÙĨÙħØ§ÛĮ
ÙĨÚ¯Ø±ÛĮØ³ØªÙĨØ¯
Ġshopping
ĠØ§Ø¶Ø·Ø±Ø§Ø±ÛĮ
ÙģØ±Ø§ÙĨØ³ÙĪÛĮ
ĠØ¢Ú©ÙĨØ¯Ùĩ
Ġinfections
Ġvaguely
Ġcomprehe
Ġremoval
ĠAdministration
ĠÙĤÙĩÙĤÙĩÙĩ
ĠUrbino
Hence
Û±Û°
ĠÚ©Ø´Ø§ÙĨØ¯
oning
oub
Ġmu
Ġdub
ĠÙ¾Ø§ÛĮÛĮ
ĠØ¬Ø±Ø§Øª
Ġgn
ĠÚĨØ§ÙĦÙĩ
ĠØ®ÙĪØ¯Ø®ÙĪØ§ÙĩÛĮ
ĠPont
Ġmeals
ĠØ¨Ø§Ø²ÙĪÛĮØ´
ĠØ§Ø³ÙħØ§
ĠÙħØ´Ø§ØºÙĦ
asses
Ġcompact
ĠÙħØ§ÙĨØ¹ÛĮ
Ġactively
ĠÙĩØ§ÛĮØ´
Ġlonging
Ġchildish
ventually
ĠRef
Ġtraff
Ġcellular
Ġexpectation
ĠØ§ÙĨÚ¯Ø´ØªØ§ÙĨØ´
Ġcompliment
ĠÙħÙĩØ§Ø¬Ùħ
ÙĪØŃØ´Øª
ĠØ³ÛĮÙħØ§ÛĮ
ĠCrus
ĠØ§ÛĮØ²Ø§Ø¨ÙĦØ§
ĠApollo
ĠToronto
ĠConserv
ĠØ³ÛĮØ§Ø³ØªÙħØ¯Ø§Ø±
ÙħØºØ²
ĠØ§ÙĨÙĤØ±Ø§Ø¶
Ġhedge
FS
Lou
brew
liness
ÛĮÙĤÛĮÙĨ
isse
itative
ĠÙĨÚ¯Ø°Ø´ØªÙĩ
Ġbol
Ø§ÙĦÙģ
ĠØ¢ÙĨØ¬Ø§Ø³Øª
ÙħÛĮØ³
Ġconject
ĠGrigory
ĠLt
ĠFare
ĠØªÙħØ§ÙħØ§
ÙĪÙĩØ§ÙĨ
ometer
ĠUniverse
ĠØ¢ÙĦØª
Ġdistances
grat
Ġfraud
Ù¾Ø±ÛĮØ¯
Ø¯ÛĮÚ¯Ø±Ø§ÙĨ
ounia
ĠZh
ĠÚ©Ø§ÙĨØ²Ø§Ø³
ĠÙģØ±Ø³ØªÙĨØ¯Ùĩ
ĠÛĮÙĪÙĨÛĮÚ©Ø³
ĠPeru
ĠAngel
Ġvariations
ĠMoz
ĠMilan
Ġrubber
Ġphysicist
ÙłÙł
Ġimpatiently
Ġticket
ĠÙĪÛĮÚ©ØªÙĪØ±ÛĮØ§
ĠØ±Ø¨ÙĪØ¯Ùĩ
Similarly
ĠÚ¯Ø±Ø§ÙģÛĮÚ©ÛĮ
Ġcavalry
Ġcourtyard
ĠØ¨Ø§ÙĤÛĮÙħØ§ÙĨØ¯Ùĩ
!.
LE
ĠÙĪÙĤÙģ
Ø§Ø±Ø¶
Ġnick
owered
ĠMes
ĠÙĦÙ¾
ØºÙħÙĩ
Ġracing
Ġkin
ĠRFC
ÙĪØ±ØªÙĨØ³
Ġdescent
ĠØ¢ÙĨÙĩØ§Ø³Øª
ÙĨØ§Ù¾ÙĦ
ĠØµØŃØ±Ø§ÛĮÛĮ
ĠInn
Ú¯ÛĮØ±Ùĩ
Ú©ÙĪÙĪØ±
ĠThurs
ĠÙħÛĮØ²Ø¨Ø§ÙĨÛĮ
Ġmetals
insula
ĠNewton
ĠÙ¾Ø§Ø±Ø³
Ġadvances
ĠØ³Ø±Ø¯Ø¨ÛĮØ±
Ġpropose
ĠÙĨØ´Ø¯Ùħ
ĠØŃÚ©ÙĪÙħØªÛĮ
ĠØ¢ÙĪØ±ÛĮÙħ
Reg
Ù¾ÛĮØ±Ø²ÙĨ
ĠØ±ÙĪÙĨÙĤ
Ġalbums
ĠÛ±Û¹Û³Û¹
Ġplanted
Ø§ÙĦÙĪØ®ÙĪÙģ
ÙĨÙĤØ´
Ù¾Ø§ÙĨØ²Ùĩ
Ġtorment
BSD
ĠØªÛĮÙĦÙĨÛĮ
achelor
Ġadjacent
92
Ev
Pyth
ÅĦ
Ø¯Ø§Ø¯ÛĮ
Ú©Ø§ÙĨÛĮ
Ú©ÙħÙĩ
Ġbarn
Ġpains
ĠØ§Ø³ØªØ±ÙĪ
urrection
ĠÚ©ÙĨØ´
Ġathe
Ø¨ÙĩØ±
Ġsuck
Ġvoting
ĠÙħØªØ§Ø¨
ĠJasper
pert
ĠØªØ±Ø³ÛĮ
ĠØªØ±ÙħÛĮÙħ
ailand
Ġregulations
ØªØ§ÙĨÙĦÛĮ
Ġexpon
ĠÙħØ®ÙģÙģ
ieth
ĠÚ©ÛĮÙģÛĮ
ĠØªÙģÚ©ÛĮÚ©
ĠÙħÙĩÙħÙĩ
Ġdrunken
ĠÙħÚ©ÙħÙĦ
Ġvariation
bedeff
ĠÙĦÙĪØŃ
pring
ÙħÙĤØ¯Ø§Ø±
Ġbaron
ÚĨØ±Ø§Øº
ĠØ®Ø¯ÙħØªÚ©Ø§Ø±Ø§ÙĨ
Ġarmies
ĠØªÛĮØºÙĩ
Ġutmost
Ġrepeating
Ġderiv
Ġenjoyment
Ġfrost
Ġranked
ĠØµØ§Ø¯Ø±Ø§Øª
Ġmythology
ĠÙģÛĮØ±ÙģØ§Ú©Ø³
ephal
Ġbubble
ĠØ§ÚĺØ¯ÙĩØ§
Ġdismissed
Ġsovereign
gage
giving
viously
ÙĪØ§Ú©
ÙħÙĤÛĮ
Ġpix
ĠØ³Ø§Øª
ÚĨÙĨÚ©Ø§
Ø§ÙĦÙĨ
ĠÛĮØ®ÛĮ
ØµØ§ØŃØ¨
roit
Ġ((
than
estyle
ĠHave
ĠHalf
ĠHoll
ĠÙĩÛĮÙĪÙĦ
merdy
ovich
bean
Ġimposed
Ġsubmit
ĠØ³ÙĨØ§ØªÙĪØ±
ÛĮÙĩÙĪØ¯ÛĮ
ĠØ®ÙĪØ¯ÙħØ®Øª
ĠÚ¯Ø±ÛĮØ®Øª
Ġdivisions
ĠAbb
ĠJuan
ĠØ¢Ø±Ø²ÙĪÙĩØ§ÛĮ
ØªØ±Ø³ÛĮØ¯Ùħ
Shannon
ĠØ¨ÙħØ¨Ø§Ø±Ø§ÙĨ
Ġmeasurements
Ġrenamed
Ù¾Ø±ÙĪÚĺÙĩ
ĠÙĨØ§Ø³Ø²Ø§
Ġmortality
ĠØ§ÙĨØŃØ±Ø§Ùģ
ĠRochester
ĠÙħÙĨØ´Ø£
Ġnegotiations
ĠÙĤÙĪØ±Ø¨Ø§ØºÙĩ
58
Bar
Mac
ÛĮÙĪÙĨ
ÙĩØ²ÛĮÙĨÙĩ
ĠÙħØ§Ø¯ÙĦÙĨ
inence
Ø´ÙĦÛĮÙħ
ĠØ¯Ú©ÙĦ
Ġsits
Ġwounds
ĠÙħÛĮØªÙĪØ§ÙĨÙĨØ¯
ĠÙħÛĮÚ¯ÙĪÛĮÙĨØ¯
ĠÙĤØ§Ø´ÙĤ
ĠÙħÙĨØ§ÙĤ
ĠMord
ĠMaur
ĠÙĦØ§Ø³Øª
ĠGav
Ġsphere
ĠØ¯Ø§ÙĨÙĨØ¯
ĠÚ¯Ø±ÙĪÚĨÙĨÚ©Ø§
Ġentreat
Ġpassive
ĠØ³ÙĨÚ¯ÙģØ±Ø´
ĠÚ¯ÙĦÙĪÛĮ
[...]
