#version: 0.2 - Trained by `huggingface/tokenizers`
Ġ Ø
Ø §
Û Į
Ù Ĩ
Ø ±
Ù ĩ
Ù Ī
Ù ħ
Ø ¯
Ø ª
Ġ t
Ú ©
ĠØ ¨
ĠØ §
h e
Ġ a
Ġ Ùħ
Ù Ħ
Ø ³
i n
Ġ â
Ġâ Ģ
Ġ Ú©
ĠØ ¯
ĠâĢ Į
Ø ´
Ø ²
Ġt he
Ø§ ÙĨ
r e
Ø ¨
Ġ o
Ġ s
Ġ w
Ú ¯
Ù ģ
Ġ ÙĪ
Ø§ ÛĮ
e r
ĠØ ±
n d
Ġ Ùĩ
a t
Ø§ Ø±
Ø³ Øª
ÙĨ Ø¯
Ù Ĥ
o n
i s
ĠØ ª
Ġ ÙĨ
ĠØ Į
o u
i t
Ġ c
e d
Ġ b
ĠØ ´
e n
ÛĮ ÙĨ
ĠÙħ ÛĮ
ÙĪ Ø¯
Ġ h
Ġ f
o r
ĠØ¯ Ø±
Ġ m
ĠØ¨ Ùĩ
a n
in g
Ġo f
Ù ¾
e s
ĠØ ¢
ĠÚ© Ùĩ
Ġt o
ĠØ ®
ĠØ ³
a r
Ġ p
Ø ¹
Ø± Ø¯
Ġ in
Ġ d
a l
ĠØ± Ø§
Ġa nd
a s
Ġt h
Ú Ĩ
Ø ®
ĠØ§ Ø²
Ø§ Ø¯
Ġ l
Ġ Ù¾
ÛĮ Ø¯
Ø ¬
ĠØ¨ Ø§
i c
Ġ Ú¯
o m
Ġ ÛĮ
Ø§ ÙĦ
Ø§ Ùħ
l e
Ġ n
Ø Ń
ÙĪ Ø±
l l
ĠØ¨ Ø±
i on
ĠØ§ Ø³Øª
Ġ he
ĠØ§ ÛĮÙĨ
ĠØ ¬
Ġ g
Ġ e
ĠØ¨ ÙĪØ¯
Ġb e
l y
Ùģ Øª
Ġ ÚĨ
ÙĪ ÙĨ
Ø§ Ùĩ
o t
s t
Ġ Ùģ
a d
Ø ·
v e
Ø´ Øª
en t
o w
u t
ĠØ¢ ÙĨ
ĠØ ²
Ø± ÛĮ
ĠØ Ń
i m
ÙĦ ÛĮ
i d
Ġ re
ĠÚ© Ø±Ø¯
s e
ĠØ´ Ø¯
Ġth at
Ø µ
ÛĮ Ùħ
ĠÙĩ Ùħ
Ġ y
l d
a c
ÛĮ Ø±
Ġ I
e t
Ġw as
Ġo n
ĠØ ¹
r o
ÙĪ ÛĮ
ĠÙĩ Ø§ÛĮ
Ġ is
g h
Ġ ÙĤ
Ø§ Ø¨
v er
ĠÛĮ Ú©
a y
Ġ u
Ġ it
Ùħ ÛĮ
i r
Ø§ Øª
Ġy ou
a m
u r
ĠÚ© ÙĨ
Ġf or
Ġw h
Ġ (
Ø§ Ø²
T he
ĠØ§ ÙĪ
it h
Ġs t
Ġw e
ÙĪ Ø§ÙĨ
ĠÙĩ Ø§
ĠÙħ ÙĨ
Ø³ ÛĮ
c t
Ġ S
Ġ Û
c e
Ġw ith
Ġa s
Ġ A
r i
t er
c h
Ġ M
' s
Øª ÛĮ
ĠØ® ÙĪ
Ġ C
Ġa n
Ø¯ Ø±
Ú¯ Ø±
a nd
ÙĦ Ø§
o l
ĠØ§ ÛĮ
at ion
he r
i l
ĠØ® ÙĪØ¯
ĠØ¨Ø± Ø§ÛĮ
Ø® Øª
Ùħ Ø§
Ġh is
Ø± ÙĪ
Ø± Ø§
Ø ¶
i f
Ø§ Ø´Øª
Ġa t
Ø§Ø± ÛĮ
ĠØ± ÙĪ
gh t
ÙĪ ÙĦ
ĠØ§ ÙĨ
ÛĮ Ø²
k e
Ø§ÙĨ ÛĮ
ĠØ¨ ÛĮ
Ùĩ Ø§
Ġn ot
Ø§Ø¯ Ùĩ
Ø ¸
Ġh a
ĠØ µ
o d
Ø °
Ġs e
ĠØ ·
u l
Ġ ÙĦ
Ġh ad
ou ld
a in
ĠØ¯ Ø§Ø±
Ġ "
Ġ 1
ĠÙħ ÙĪ
Ġ P
t h
Ġd e
i ll
a g
u s
o p
Ġhe r
Ø º
Ø¯ Ùĩ
ĠØ´Ø¯ Ùĩ
Ġ B
Û °
o re
ĠØ¯ ÙĪ
Ø§ÛĮ ÛĮ
Ùħ Ø§ÙĨ
Ġm e
is t
Ú¯ ÛĮ
Ø «
es s
r om
. .
Ġc on
u m
ĠØª Ø§
Ġc om
Øª Ø±
p e
ĠØª ÙĪ
Ġ r
Ġ k
Ø¨ Ùĩ
ĠØ¯ ÛĮ
Ø§ÙĨ Ùĩ
Ø§ Ø³
Ġa re
a b
Ø ¦
ĠØ³ Ø±
Ġb y
re d
ĠÚ© Ø§Ø±
ĠÚ¯ ÙģØª
u n
Ø ¢
an t
Ġs h
Ġ *
Ġo r
e m
Ø¨ ÛĮ
Ġha ve
ÙĨ Ú¯
o s
Ø§ ÙĤ
e l
er s
Ġh im
Ġn e
Ú© Ùĩ
ĠØ Ł
Ġl i
Ġe x
q u
Ġth is
ĠØ¯ Ø§Ø´Øª
Ġ G
ĠÙ¾ ÛĮ
es t
ĠØª Ø±
Ġ R
Ġf rom
Ø§ÛĮ ÙĨ
Ġs u
Ġ D
± Û
p p
Ġd o
ĠÛĮ Ø§
Ġa l
at e
ĠÙħ Ø§
Ġ v
ÙĨ ÛĮ
i g
ĠØ¨Ø§ Ø´
ĠÚ© ÙĨØ¯
Ġs o
ĠÙģ Ø±
re s
it y
ĠÙĨ ÙħÛĮ
n t
Ġ L
Ġ T
Ùĩ Ø§ÛĮ
ar t
Ġp ro
ar d
al l
Ġa ll
Ġ H
ĠØ³ Ø§ÙĦ
ou t
or t
Ú¯ Ø§Ùĩ
Ø¯ ÛĮ
Ġg o
Ú© ÛĮ
u st
Ġ F
Ġ E
o k
ĠØ¯ Ø³Øª
Ġa b
Ġl o
Ú ĺ
Ø¨ Ø±
a p
Ġc h
ĠÚ¯ Ø±
ic h
Ø§ ÙĪ
Ú© ÙĨ
Ġthe y
Ġ 2
Ġw or
a u
ĠØª ÙĪØ§ÙĨ
ĠØ¢ Ùħ
ÙĤ ÛĮ
ĠØ¯ Ùĩ
Ġs he
om e
Ùĩ Ø±
Ø§ÛĮ Ø¯
ÙĦ Ùĩ
ĠÙĨ ÛĮ
Ø¹ ÛĮ
ĠØ´ ÙĪØ¯
ĠØ¯ Ø§Ø¯
ĠØ§ Ùħ
Ġ =
Ø§Ø± Ùĩ
ĠØ§ ÙĨØ¯
Ġw he
i ve
Ġwe re
i e
al ly
ÙĨØ¯ Ùĩ
ĠÙĩ Ø±
' t
Ġ Â
Ġ N
ÛĮ Ø§
Ġs a
Ġm y
H e
ĠÙħ Øª
ĠØ¨Ø§ Ø²
ver y
Ġ W
ou r
r ou
Ø´ Ø§ÙĨ
i es
a k
Ø¨ Ø§
Ùģ Ø±
Ġc an
Ġon e
Ġin t
ĠÙĩ Ø³Øª
as t
ĠÛ ±Û
Ø¹ Ø¯
ÛĮØ¯ Ùĩ
Ġu p
Ġk n
i ght
am e
ĠÙħ ØŃ
g e
ou s
Ġl e
Ø± Ùģ
0 0
ĠØŃ Ø§ÙĦ
ĠØ º
r y
Ø§ Ø®Øª
on g
in d
e ll
ÙĪ Ø´
Ú© Ø±
Ġ j
c i
Ġwh ich
i v
ac k
ĠØ®ÙĪ Ø§Ùĩ
id e
Ġo ut
ÙĪ Ùħ
Ø¨ Øª
Ġ J
ĠÚĨ ÛĮØ²
ĠØ§ Ø³
ĠÙħ Ø¹
Ùħ ÙĨ
m ent
on e
ÙĪØ± ÛĮ
ĠÚĨ Ùĩ
r a
Ù Ĭ
Ġwh o
Ġw ould
Ùĩ Ùħ
Ġthe m
Ġu s
ĠÚ© Ø´
Ġb ut
A nd
Ù Ģ
u re
I t
Ø§ Ø³Øª
ĠØ¨ Ø¯
ĠØ± ÙĪÛĮ
Ú© Øª
o st
ÙģØª Ùĩ
Ġm an
t her
ÙĪ Ø²
in e
ÚĨ Ùĩ
f e
Ġp l
Ġ1 9
u d
ĠØ´ ÙħØ§
ĠØ¯ÛĮ Ú¯Ø±
Ù ĭ
Ġthe re
Ġab out
ĠÙ¾ Ø±
p t
ĠØ§ ÙĦ
Ġthe ir
ĠØ± Ø³
Ġ ÙĨØ¯
Ġ -
ow n
ĠÚ©Ø±Ø¯ Ùĩ
Ù Ķ
Ġwh at
ĠØ§ Ø´
Ø§Ø¯ ÛĮ
ĠÙĩÙħ Ùĩ
Ø¬ Ùĩ
ĠØ¯ Ø§ÙĨ
ac e
ĠØ¨Ø§Ø´ Ø¯
e ar
Ø§ÙĦ ÛĮ
ĠÙħ Ø±Ø¯
ĠÙ¾ÛĮ Ø´
ĠÙħ Ø±
r an
ĠÙĨ ÙĪ
ĠÙĨ Ø¸
Ġbe en
l o
ĠÙĤ Ø±
T h
ĠÛ ²
at ed
i a
b er
im e
Ġn o
¹ Û
se l
Ø§Ø± Ø¯
ĠÚ¯ Ø°
Ġsa id
c k
ĠÚ©ÙĨ ÙĨØ¯
Ġ '
ÛĮ ÙĦ
Ø¬ Ø§
Ġli ke
ĠØ¯Ø§Ø± Ø¯
Ġm ore
Ø® ÙĪ
a ke
a re
i an
ĠÙĩ ÛĮ
ĠØ¨ Ø²
ic e
ÛĮ ÙĦÛĮ
Ġ im
o nd
ĠØ± ÙģØª
ÙĨ Ø§
ĠÚ© ÙĪ
Ø§Ùħ Ø§
ac t
Ġu n
ĠÙħ Ø´
ag e
Ġa g
p l
ÙĤ Øª
ĠÙĨ Ø§Ùħ
it t
o g
in k
Ø§ Ùģ
as s
Ġ en
I n
.. .
Ġ K
Ġp e
p er
ĠÚ© Ùħ
Ġ O
ĠâĢ ĵ
Ġc ould
v en
Ø¹ Øª
ĠÙĨ Ùħ
Ø´ ÛĮ
i z
ion s
Ġwhe n
it e
h ing
r u
ĠÚ©ÙĨ Ùħ
Ġ U
Ġo ther
ĠØ§ Ø±
ĠØª ÙĨ
he d
Ø¬ ÙĪØ¯
Ġd is
ĠØ§ Øª
Ġa r
i p
ĠÙħ Ø³
s o
Ø§ÙĨ Ø¯
ou nd
ĠØ§ ØŃ
Ġh as
ĠØ±ÙĪ Ø²
ar y
Ġ if
Ġcom p
Ġint o
Ùħ ÛĮÙĨ
Ġs ome
en ce
Ùħ ÙĪ
Ġ ro
Ø¹ Ùĩ
ĠØ¨ÙĪØ¯ ÙĨØ¯
ĠØ¨ ÛĮÙĨ
Ø± Ùĩ
ĠØª Ùħ
Ġ qu
Ġs p
re at
Ġyou r
ĠØ³ ÛĮ
Ġt ime
ĠÙĨ Ùĩ
b le
Ġt w
e p
ĠÙĨÛĮ Ø³Øª
Ġan y
ab le
Ø¯ Ùħ
ic al
Ø³Øª Ùĩ
c c
Ġkn ow
ĠØ´ ÙĪ
ĠÙĨ Ø´
ĠÙ¾ Ø³
ĠØ² ÙĨØ¯
Ġf e
ÙĨ ÛĮÙĨ
Ġw ill
ĠÙĪ Ø§ÙĤ
Ġbe c
Ø¯ Ø§
B ut
Ġd id
ÙĤ Ùĩ
ĠÙĨ Ø§
Ġlo ok
au se
sel f
Ø´ Ùħ
Ġa f
op le
ou nt
res s
re e
is h
ĠØ¨ Ø³ÛĮ
ĠØ±Ø§ Ùĩ
Ú© ÙĦ
Ø±Ø¯ Ùĩ
ĠØ² ÛĮ
ĠÙħ ÙĤ
ĠÂ »
i re
Ġ V
Ġa d
an g
Ġo ver
ay s
a v
ÛĮ Ú©
ĠØ Ľ
Ø´ Ùĩ
Ġp r
ĠÚ© ÙĦ
o se
ĠÙħ Ø¯
Ġth an
Ø± Ú¯
ĠØ§ ÙħØ§
t e
Ù¾ Ø³
ĠØ¨ Ø§ÛĮØ¯
f or
Ġc l
Ø§ Ø·
ÙĪ Ø³
ÙĤ ØªÛĮ
Ùģ Ø§Ø¯Ùĩ
ir st
ÙĨ Ø¬
re n
Ø³Øª Ø§ÙĨ
i le
ÙĪÙĨ Ùĩ
ig n
Ø§ÛĮ Ø´
nd er
ĠØ´ Ø±
ĠØ´ ÙĨ
Ø§Ø² Ùĩ
Ġpe ople
ing s
ĠÛ±Û ¹Û
Ġp er
ĠÙĨØ¸ Ø±
Ø§Ùħ Ùĩ
ÙĦ ÙĪ
Ġ very
ot her
ĠÙħ Ø«
t he
ac h
Ġse e
i ld
ĠØ§Ø³Øª ÙģØ§Ø¯Ùĩ
Øª Ø´
ĠØ¨ Ø¹Ø¯
ur n
ĠÙĪ ÛĮ
Ø¬ Ø§Ùħ
Ø§Ø¯ Ø±
ĠØ¹ ÙĨ
Ú© Ø§Ø±
ĠÙ¾ Ø§ÛĮ
ĠÙĩÛĮ ÚĨ
ĠÚ¯Ø± ÙģØª
Û° Û
v ed
ĠØ¨ Ø§Ø±
ÙĨ Ø§ÙĨ
Ġ Ù
ĠÙĪ Ø¬ÙĪØ¯
ÙĪ Ø§
ĠÙħ Ø¬
ad e
ĠØ§ Ùģ
ĠØ¨ Ú¯
Ġcon t
ĠÙĤØ± Ø§Ø±
e ct
ul t
Ġth ou
or y
Ġp art
Ø§Ùħ ÛĮ
ĠÙĨ ÛĮØ²
Ø¨ Ø§Ø±Ùĩ
ĠØª Øµ
Ġy ear
p ort
b l
Ġon ly
ĠØ³ Ø§Ø®Øª
ÙĨ Ùĩ
an ce
ĠØ¯ ÙĪØ±
Y ou
ĠØ¯ ÛĮØ¯
ĠÚĨÛĮØ² ÛĮ
ation s
ĠØ¬ Ùĩ
ĠÙģ Ú©Ø±
Ġt e
Ø² ÛĮ
Ġf irst
Ġo ur
ĠÙĩØ³Øª ÙĨØ¯
ÙĤ Ø·
Ġa m
f f
ĠØ¬ Ùħ
ĠÚĨ ÙĨØ¯
Ġre s
Ġc o
Ġj ust
ĠÂ «
ĠØ® ÛĮÙĦÛĮ
Ø´Øª Ø±
ĠØª ØŃ
Ġtw o
Ø´Øª Ùĩ
Ø® Øµ
ĠÙĨ Ø¨
ĠØ§ÙĨ Ú¯
Ġwor k
ĠS t
u e
ĠØ¹ÙĨ ÙĪØ§ÙĨ
ĠØ§ Ø¬
Ø² Ø§Ø±
Ø¨ Ø§ÙĨ
c l
ic k
ĠÙħÙĪ Ø±Ø¯
w n
Ú¯ Ùĩ
Ġ- -
ÙĪØ± Øª
ĠÙħ Ø§ÙĨ
ĠC h
Ġthe n
Ġs pe
w e
Ġn ow
ĠØ§ Ú¯Ø±
ÙĪ ÙĦÛĮ
ĠØ¹ Ùħ
Ġth ink
Ġg r
ÛĮ Øª
ĠØ¨ Ø®
ÙĪ Ø±Ø¯
S he
at er
ĠØªÙĪ Ø³
Ø¢ ÙĨ
ĠÚ©Ø±Ø¯ ÙĨØ¯
Ø´ ÙĨ
Ġb o
ĠØ¨ ÙĦ
Ġof f
Ø§ Øµ
ĠØ²ÙĨØ¯ Ú¯ÛĮ
Ġh ow
ĠØ² ÛĮØ±
ĠâĢ ¬
ĠØ¨Ø² Ø±Ú¯
ĠØ¯ ÙĦ
ĠØ¯ Ø§Ø¯Ùĩ
ar k
b ut
W h
Ùħ Øª
Ġf o
if e
ĠØ§ÙĨ Ø¬Ø§Ùħ
Ġal so
ri ght
en s
ĠØ§ Ø·
ĠØ³ ÙĪ
Ġe very
Ġag ain
ĠÙĪØ§ÙĤ Ø¹
or d
ter n
ĠÚ©ÙĨ ÛĮÙħ
ĠÛĮÚ© ÛĮ
ĠØ· ÙĪØ±
Ġd es
Ġbe t
ÙĪ Ùĩ
Ø¦ ÛĮ
Ġg et
Ġb r
f t
ĠØ¨ Ø±Ø¯
ĠØ² Ø¯
Ġp o
e w
ĠØ¨Ø³ÛĮ Ø§Ø±
ct ion
ĠØ§ÙĨ Øª
m er
S o
Ø§ ØŃ
ĠØ§ Øµ
Ġu nder
Ġthe se
i al
f ore
Ġb ack
Ġs m
Ú© Ø§ÙĨ
al k
Ø³ Ùĩ
Ġ /
ve l
ÙĦ Ø¨
Ú¯ Ø±ÛĮ
The y
ĠØ³ Ø§Ø²
ver s
ĠÙĨ ÙĤ
ic t
Ġ Úĺ
ĠØ® Ø§ÙĨ
as e
u ch
Ú© Ø³
ĠØ§ÛĮÙĨ Ú©Ùĩ
Ġw ant
Ġit s
ÙĪ Øª
ĠØ¯Ùĩ Ø¯
ĠØ´ ÙĩØ±
ĠÚ©Ø±Ø¯ ÙĨ
Ġh and
on s
ÙĪÙĨ ÛĮ
o v
ĠÙĨ Ú¯Ø§Ùĩ
ĠØ§ ÙģØª
Ġ2 0
ĠÙĩÙħ Ø§ÙĨ
om et
Ø¯ ÛĮØ¯
i ed
ĠÚ©Ø±Ø¯ Ùħ
Ø³Øª Ùħ
Ø±ÛĮ Ú©
ĠØªÙħ Ø§Ùħ
Ġp re
ĠØ¬ ÙĨ
ĠØ¢Ùħ Ø¯
or n
w ard
i ous
n g
Ø £
' re
Ġt r
d u
Ùģ ÛĮ
ĠØ® Ø§ÙĨÙĩ
Ø§Ø± Øª
Ġs c
Th is
Ġd own
ĠÚ©ÙĨ ÛĮØ¯
Ø¯ Ø§ÛĮ
Ø§Ùħ ÙĦ
itt le
Ø¶ ÛĮ
Ġa ct
he n
ĠÙĩØ§ÛĮ ÛĮ
at her
ĠØ±Ø³ ÛĮØ¯
Ġw ay
Ġs ay
or s
Ġ2 00
Ø§ Ø®
ĠØ¨ÛĮ Ø´ØªØ±
ĠØ§ÙĪ ÙĦ
it ion
in t
ĠÚ¯ Ø±Ø¯
Ùħ Ø§ÙĨÛĮ
Ġ The
ĠØ§ Ø¯
W e
c es
Ø§Ø¨ Ø±
Ġm ost
is s
Ġaf ter
Ġwhe re
Ġe ven
ÙĪ Ø¨
Ø³ Ø±
at h
Ø¨ ÙĦ
) .
ĠØ®ÙĪØ§Ùĩ Ø¯
ĠØ¯Ø§Ø´Øª Ùĩ
ĠØ¢ÙĨ ÙĩØ§
ĠÙĩÙħ ÛĮÙĨ
Ù Ĳ
Ø§ Ú©
Ġl ittle
m an
Ġne w
Ġf l
ĠØªÙĨ ÙĩØ§
u ll
rou gh
Ġs y
p le
i ly
Ġl ong
ĠØª Ø¹
Øª Ùħ
ĠÙĩ ÙĨ
o od
ĠÙħ Ø·
o ve
Ġb l
rou nd
Ġcom m
ĠÙħØ« ÙĦ
Ġsu ch
b e
w ay
ĠØ´ Ø¨
ĠØ¬ Ø§ÛĮ
ĠØ² ÙħÛĮÙĨ
Ġm uch
Ùħ Ùĩ
ĠØ² ÙĨ
Ġwor ld
Ġgo ing
Øª Ø§Ø¨
ĠØŃ Ø±Ùģ
ÙĤ Ø§ÛĮ
Ġre m
Ø¸ Ùĩ
Ġd on
ĠÙĨØ¨ ÙĪØ¯
ĠÙĨ Ø²
Ø® ÛĮ
ĠÙħ Ø±Ø§
Ġm ade
Ø³ Ø§ÙĨ
ĠÙĪ ÙĤØªÛĮ
ĠØ´ÙĪ ÙĨØ¯
Ġ right
c ed
ĠØªÙĪØ³ Ø·
ĠØ ¶
Ú¯ Ø§ÙĨ
at es
Ġbe fore
g an
Ġd if
Ġbec ause
n e
Ġfor m
ĠÚ¯ ÛĮ
ĠØ§ ÙĪÙĨ
ĠØ¬ Ø§
ĠÚ©ÙĪ ÚĨ
os s
Ø§Ùĩ ÛĮ
ent s
ĠØ¢ Ø±
Ø¨ Ø§ÙĦ
ĠU n
Ġth rough
Ġc all
Ø§Ø¨ ÙĦ
f ul
ØŃ ÛĮ
ou gh
Ġyear s
a il
in ce
ĠÚĨ ÙĪÙĨ
Ġ _
Ġsh ould
y s
ĠØµ ÙĪØ±Øª
Ġin d
Øº ÛĮ
Ġthou ght
ĠA r
Ø§Øª ÛĮ
ĠØ³ Ùĩ
ĠØ¨Ø§Ø² ÛĮ
Ġgo od
Ġw r
Ġm ay
Ġs omet
Ùħ Ú©ÙĨ
Ġ 3
Ġs er
a ve
Ø§ Ú¯Ø±
ĠØª ÙĤ
v ing
Ġhe re
Ġre c
ĠÙĨ Ø³
Ø³ Ø§Ø³
ÙĨ Ø§ÙħÙĩ
for m
" .
Ġd ay
an s
er t
ĠØ®ÙĪ Ø§Ø³Øª
ĠÙĦ ØŃ
Ġcon s
ĠØ¢ Ø¨
Øª Ø§
it ed
ĠØ¢ Ø²
ĠÙĨ Ø´Ø§ÙĨ
ar s
re nt
n ess
ÙĨØ¯ ÛĮ
ĠÛĮ Ø§Ø¯
ĠØ´ Ùħ
ĠØ¢ ÙĪØ±Ø¯
ĠØ² ÙħØ§ÙĨ
Ġe y
Ġm ake
ĠÙħÛĮ Ø§ÙĨ
Ġl ife
ĠÙģ ÙĤØ·
Ø¬ ÛĮ
ÙĪÛĮ ÛĮ
e nd
ĠØ³ Ø§
ation al
is e
t y
ĠÚ¯ ÙĪ
Ġa pp
le ct
ĠÙĩÙħ ÚĨ
ĠØ¨ ÛĮØ±
ÛĮØ¯ Ø§
Ø± Ùħ
Ġ20 1
Ø¨ ÛĮÙĨ
a w
i gh
Û° Û°
au gh
v es
Ġo wn
Ø§ Ø´
ĠØŃ Ø¯
ĠÚ¯Ø± ÙģØªÙĩ
ĠÙĦ Ø¨
Ġne ver
u al
Ġo ld
ĠÙĨØ¯ Ø§Ø´Øª
u ally
Ġc ount
Ú¯ Ø²
ĠÚ©Ø´ ÙĪØ±
The re
ĠØ® Ø·
ÛĮ Ø´Ùĩ
Ø³Øª ÛĮ
ÙĪ Ø¹
ĠØªÙĪØ§ÙĨ Ø¯
Ġwe ll
Ùĩ ÛĮ
ĠØ§ Ø¹
ĠØ¯Ø§Ø± ÙĨØ¯
Ġman y
Ùħ ÙĦ
ĠI n
ol og
Ġg en
ĠÙĨ ÙģØ±
a ir
Ġat t
ĠÚ© Ø³ÛĮ
ĠØ¬ ÙĪ
Ġg reat
ĠÙħØ±Ø¯ Ùħ
ĠØ®ÙĪ Ø´
' m
ĠØ´ Ú©
i ble
j ect
Ġp h
ÙĦ Ùģ
Ġcom e
Ġre l
ĠØ¢Ùħ Ø±ÛĮÚ©
ĠØ¯Ø± Ø¨Ø§Ø±Ùĩ
Ø² Ùĩ
ĠØ °
ĠØ®ÙĪ Ø¨
Ġse c
Ø§Ø· Ø±
Ġ Y
Ġs ame
Ġb u
ou se
Ġth ose
ĠØŃ Ø±
ĠØµ ØŃ
i b
Ġus ed
Ġa cc
ÛĮØ± Ùĩ
Ùģ Ùĩ
Ø³ Ùħ
ĠØ¨ÛĮØ± ÙĪÙĨ
ĠÙĤ Ø¯Ø±
Ġha pp
ĠÚĨ ÙĨÛĮÙĨ
Ø§ÛĮ Øª
ĠÚĨ Ø´Ùħ
ĠÙħ ÙħÚ©ÙĨ
ØªØ± ÛĮÙĨ
ĠØ¢ ÙĦ
ak ing
Ø¬ Ø±
ri ed
Ġw om
l es
Ġbe ing
Øª ÙĪØ§ÙĨ
ow er
ĠØ· Ø±Ùģ
ĠÚ© Ø³
o b
ĠÙĪ ÙĦÛĮ
ĠØ§ØŃ Ø³Ø§Ø³
Ġc r
Ù¾ ÛĮ
ĠØ¨Ø§ ÙĦØ§
a z
ĠØ´Ø¯ ÙĨØ¯
ĠØª ØºÛĮ
od y
i x
Ġto o
ĠØ¬ ÙĨÚ¯
Ø¹ÛĮ Øª
Ġas k
Ø· ÙĪØ±
Ġa c
Ġbe l
ĠÙ¾ Ø±ÙĪ
Ġe nd
Ġt urn
ĠØª Ø´
Ø±ÙĪ Ø¹
ĠÚ© Ø§Ùħ
ĠÙħØ§ÙĨ ÙĨØ¯
Ø®Øª Ø±
st em
ĠØ¯ÙĪ Ø³Øª
ĠÙĪ ÙĤØª
ĠØ¯ÛĮ Ú¯Ø±ÛĮ
he s
Ùĩ ÙĨ
an k
th ing
ØŃ Ø§ÙĦ
' ve
o ld
Ġe m
Ġ ke
Ġm ust
ĠÚ¯ Ø±ÙĪ
ĠØ¨ Ø¯Ùĩ
m s
ic s
Ġne ed
a id
Ġs l
o c
Ġw ent
ot h
Ø¨ Ø§Ø±
ĠØ´ Ùĩ
Ú© ÙĪ
ĠØŃ Ø³
ĠØ¹ ÙĦ
u bl
ĠÙģ Ø±ÙĪ
ĠÙ¾ ÛĮØ¯Ø§
ÙĪ ÙĤ
Ġc ar
ĠØº ÛĮØ±
ĠØ¨ ÙĨ
ĠØ¨ÙĪØ¯ Ùħ
Ø§Ø² ÛĮ
ĠÙĪ Ø±
e c
ĠØªØºÛĮ ÛĮØ±
ĠØ¨Ø§ ÙĦ
p h
Ġl et
we en
Ø± ÛĮÙĨ
Ø² Ø´
Ġc ame
Ġch ild
at ing
ĠØ· ÙĪÙĦ
ĠØ´ Ø±ÙĪØ¹
Ġo b
Ġth ree
Ġhe ad
pe ct
Ġh um
ĠÙģ ÛĮÙĦ
Ø´ Ø¯
t ing
Wh at
ĠØ¢ÙĨ Ø¬Ø§
ĠØ¨ÙĪØ¯ Ùĩ
ĠØ ¸
Ø§ÛĮ ÙĦ
c ess
ÛĮÙĨ Ùĩ
ĠØ¯Ø§ÙĨ Ø´
l and
ĠÙ¾ Ø´Øª
ĠØŃ ØªÛĮ
Ġ ent
im es
l ed
ÙĪ Ø§Ø±
ÛĮÙĨ ÛĮ
ĠØ¨Ø± Ú¯
a red
Ġdif fe
Ġst ill
on t
ĠÛĮ Ùĩ
Ġhim self
en ed
ĠØ® Ø§Ø·Ø±
Ġt ake
ĠÚ¯ ÙĪØ´
ĠÛ² Û°
ÙĪØ¯ ÛĮ
Ø« Ø±
ĠM r
Ġsomet hing
g in
ĠØª Ø§Ø±ÛĮ
ĠÚ© ØªØ§Ø¨
ĠØ®ÙĪØ¯ Ø´
Ġf ound
ci al
v ent
ĠÚ¯Ø° Ø§Ø´Øª
Ġg ot
fe ct
Ġo p
ÛĮÙħ ÛĮ
ad y
n ing
ĠÙħ Ùĩ
Ġd ist
g et
ĠÚ©ÙĪÚĨ Ú©
Øª ÙĪ
Ø§ Ø¶
) ,
Ġbet ween
i er
Øµ Ø¯
' ll
ĠØ¨ ÛĮÙħ
Ø®ÙĪ Ø§Ùĩ
ĠÚ©Ø´ ÛĮØ¯
ĠÙ¾ ÙĨØ¬
Ġse em
Ġre g
ĠØ¨ÛĮ Ø´
ran s
Ġe ar
ĠØ² Ø¨Ø§ÙĨ
augh ter
Ġl ast
Ġth ings
Ġa way
Ġey es
ĠØ «
Ġin c
Ġp ers
ĠØ³ ÙĦ
ĠØª Ø¨
x t
ĠÙĨØ² Ø¯ÛĮ
Ġim p
Ġin st
ĠØªÙĪØ§ÙĨ Ø³Øª
Ġs ur
Ġt ell
ul ar
Ø§ÛĮ Ùĩ
ÙĦÛĮ Ø³ÛĮ
ĠØªØ± ÛĮÙĨ
g g
ĠØ§Øª Ø§ÙĤ
Ġst art
ro s
Ġs et
Ġm ight
ĠØ§ÛĮÙĨ Ø¬Ø§
as ed
ĠÙ ĥ
Ġwor d
ĠÙħ Ø§Ùĩ
ĠØ³ ÙĨ
ĠÚ© Ø§Ø±ÛĮ
Ġu se
¸ Û
ur ing
ĠØ¯ ÙĨ
Ø¹ Ø§Øª
r ic
Ġre ally
if ic
u nd
Ġ {
Ġt alk
Ġsy stem
e re
ow s
ce pt
ĠØª ÙĪÙĦ
w h
Ùģ Ø§
ĠØ¬ Ø²
ĠØ§ Ø®
Ġt er
ĠÙĨ Ú©
ĠÚ©ÙĨ Ø§Ø±
ĠØ³ Ø®
Ġ 4
ĠØ¨Ø¯ ÙĪÙĨ
Ú¯ ÙĪ
Ø§Ø¨ ÛĮ
Ġfe el
Ø± Ø¨
ĠØ§ ÙģØ±
ĠÙ¾ ÛĮØ±
Ùħ Ø¯
ĠØ® ÛĮ
Ġf am
. "
Øª ÙĪÙĨ
ĠØ¯ Ø®ØªØ±
it ies
Ġc ol
Ġp ass
Ø³ ÛĮØ¯
ĠØ§Ø· ÙĦØ§
g r
Ġm at
Ġp ol
ĠÛ² Û°Û
ĠØ´Ø¯ ÙĨ
Ġsu pp
ĠÙ¾ Ø§
ĠØ¬ Ø§ÙĨ
id ent
ĠØ¯ ÙĨÛĮ
a h
Ġro om
Ġre t
or k
Ġde c
ĠÙħ Øµ
Ġwith out
Úĺ ÛĮ
al s
ÙĦÛĮ ÙĦ
Ø¨Ø± Ø§ÛĮ
ĠÙĤ Ø·
Ġp ut
ÙĪ Øµ
ĠØª Ø£
Ġg l
e red
ĠØ± ÛĮ
ĠØ´Ø± Ú©Øª
Ġa p
ĠÙħ Ø§Ø¯Ø±
Th at
Ġp res
e ver
ĠÙ¾ Ø¯Ø±
Ġsu b
³ Û
Ù¾ Ø±
ch o
is hed
Ø¯ Ø§Ø±
ĠØ® ÙĪØ§ÙĨ
ĠØ¬ Ø¯ÛĮØ¯
Ġin ter
Ùĩ ÙĨÚ¯
I f
ĠÚ© ÙĦÛĮ
Ġf ace
Ġn um
ĠØ¯Ø± Ø³Øª
ĠÙħ ÙĦ
c y
Ġe ach
l i
ar ch
ÙĤ Ø§
Ġst ud
w ays
Ø® Ø§ÙĨÙĩ
ĠÚ© ÛĮ
al e
ĠØ¯Ø§Ø± Ùħ
ĠA ir
ĠÛ ±
ĠØ¨Ø® Ø´
cl ud
Ø§ÙĨ Ø³
Ġa round
Ġs im
ĠØ´ Ø®Øµ
ĠØ¬Ùĩ Ø§ÙĨ
ĠØ¯Ø± ÛĮØ§
ĠÙħ Ø³Øª
ĠØ¢ ÛĮ
u p
ĠÙĨÙħ ÙĪØ¯
it s
ĠØŃ ÙĤ
ĠÙĩ ÙĨÚ¯
Ø± Ø§Ùĩ
Ġm en
Ġex p
ĠÙĩÙĨ ÙĪØ²
at ive
ĠØ¹ ÙĤ
ĠÚĨ Ø±Ø§
ĠØ¨ Ø´
re t
Ġl ar
Ġg u
ĠÚ¯Ø±ÙĪ Ùĩ
Ġcall ed
Ø¨ ÙĪØ±
ĠØ§ Ùĩ
ow ing
ĠT h
Ġhe l
Ġin s
Ġth ing
Ú© Ø²
u res
Ġdo es
ĠØµ Ø¯Ø§ÛĮ
Ġpro du
Ġgen er
W hen
ĠØ§ÛĮ Ø§ÙĦ
ĠØ¨ Ø¹
Ġ ÙĦÛĮ
ĠØ® Ø§Ø±
ter s
Ġre al
ĠØ¨ ÚĨÙĩ
Ġle ft
ĠØ® Ø±
ĠÙħÛĮ Ø²
Ġm et
Ġan other
ĠÛ²Û° Û°Û
ĠÙħ Ø®
ĠØ§ Ø¹Øª
ĠØ¬ ÙĪØ§ÙĨ
ĠÚĨÙĩ Ø§Ø±
t en
ĠÛĮØ§ ÙģØª
ĠÙĨØ²Ø¯ÛĮ Ú©
p s
ar m
Ġdiffe rent
u b
he re
Ġm on
Ù ī
ĠØ± ÙĨÚ¯
ÙĪ ÙĤØªÛĮ
Ġc our
Ġ1 8
Ġt rans
Úĺ Ùĩ
Ø§ Ù¾
Ġ 5
ĠØ¨ÙĦ ÙĨØ¯
is m
ĠØµØŃ Ø¨Øª
ĠR e
Ġm od
ri end
i vers
Ø´Øª ÛĮ
ĠÚ©Ùħ Ú©
ĠØªÙĪ Ø¬Ùĩ
Ġad d
Øª ÙħØ§
ĠÙħÙĪ Ø¶
Øª Ø§ÙĨ
ĠÙħØª ØŃ
Ġin v
an ge
ĠØ¨Ø± ÙĨØ§ÙħÙĩ
Ġf ind
Ġpl ay
A s
Ø¯ Ø§Ùħ
1 9
ĠØ²ÛĮ Ø§Ø¯ÛĮ
ĠÙħ Øº
Ġm om
Ġst r
ĠÙģÛĮÙĦ Ùħ
Ġlook ed
o y
n er
Ùĩ Ø§ÛĮÛĮ
ĠÚ© ÙħÛĮ
ĠÙĨ ÛĮØ±
Ġh ouse
ĠØ³Ø§ Ø¹Øª
ut ion
ĠÛ² Û
ĠØ§ÛĮ Ø³Øª
h ip
vel op
Ø¯ Ø§ÙĨ
Ø±Ø§ Ùģ
ĠÙĦØŃ Ø¸Ùĩ
ĠØ¢ ÙĤØ§ÛĮ
ÙĪ Ø·
il ity
Ġf r
ĠØ¢ÙħØ±ÛĮÚ© Ø§
Ú©ÙĨ ÙĪÙĨ
ĠØ§Ø± Øª
ĠØ³ÛĮ Ø³ØªÙħ
ĠØ± ÙĪØ¯
ĠØŃØ± Ú©Øª
ĠØ¨Ø§Ø´ ÙĨØ¯
Ø° ÛĮØ±
i o
Ùģ Ø§ÙĤ
ĠØ®ÙĪ Ø±Ø¯
Ø¬ Ø§Ø¯
Ġc he
Ġto ok
F or
Ġli ght
ĠØŃØ§ÙĦ ÛĮ
Ġwh ile
ĠØ¯ ÙĤÛĮ
Ġm in
ĠØ§ÙĨØ¯ Ø§Ø²Ùĩ
ow ed
Ġpl ace
ĠØªÙĪÙĦ ÛĮØ¯
Ġ ÙĦØ§
al f
Ġbel ie
ÙĤ Ø§Øª
ĠØ§ÙĪÙĦ ÛĮÙĨ
ĠÚ¯ ÙĪÙĨÙĩ
g er
ĠØ®ÙĪØ§Ùĩ Ùħ
Ġlo ve
Ġme m
Ġn ight
Ġf act
in ess
H ow
Ġk ind
mer ic
ĠØµ Ø¯
Ġal ways
ĠÙĪ Ø§Ø±Ø¯
iz ed
Ġc ent
ĠØ¢ Ø´
Ø±ÙĪ Ø²
ĠØ§ÙģØª Ø§Ø¯
d en
Ġre p
Ġe v
ĠÙħ ÙĩÙħ
ĠÙ¾ Ø±Ø¯
Ġnot hing
ĠØ§ÙĨØª Ø®
ist s
O n
ĠØ§ Ø¨
ros s
ĠØ®Ø§ÙĨ ÙĪ
Ø´ ÛĮØ¯
Ú¯ ÙģØª
Øª ÙĨ
ĠÙħÙĪ ÙĤ
Ġre f
d er
ĠØ¯ ÛĮØ¯Ùĩ
Ġf in
Ùħ ÛĮÙħ
l ess
Ġa ir
ĠÙģ Ø¹
Ġfo ll
ĠØ¯Ùĩ ÙĨØ¯
m in
ĠÙĨÛĮ Ø§Ø²
ĠÙħ Ø®Øª
ĠØ³ Ø¨
Ġpo int
ĠØ´ ÛĮ
Ú¯ÛĮ Ø±ÛĮ
er n
Ġyou ng
ĠØ®Ø§ÙĨ Ùħ
Ġc ur
Ġup on
el t
Ġf riend
ĠL e
ĠØ§Øª ÙģØ§ÙĤ
ĠØ§ÛĮ Ø¬Ø§Ø¯
ĠØ§ÙģØ± Ø§Ø¯
Ġsa w
Ø®Øª Ùĩ
am p
Ġin clud
ĠØ§ÙĨÚ¯ ÙĦÛĮØ³ÛĮ
Ġc ap
ĠØ¯ÙĨ Ø¨Ø§ÙĦ
Ġp oss
Ú¯ Ø°
g y
ĠØŃ Ùħ
Ġunder st
Ġ ide
Ġsm all
ĠØ¢ Ø®
ain ed
e k
ĠÚĨ ÛĮ
Ġdis c
t ed
' d
ĠØª Ø¬
Ġpers on
ÙĨØ¯ Ø§ÙĨ
t o
ver n
ĠØ´ Ú©ÙĦ
ĠØŃ Ø¶
ĠØª Ùģ
Ġ19 9
ment s
Ġbe h
an y
ot e
ĠÙĩÙħ ÛĮØ´Ùĩ
ĠØ§Ùģ Ø²
ĠÛ²Û°Û ±Û
Ø§Ø®Øª Ùĩ
i et
ĠØ§ÙĨØªØ® Ø§Ø¨
ĠâĢ İ
Ġg iv
c hed
t s
ubl ic
ĠØ³ ÙĪÛĮ
ĠØª Ú©
ĠÙĨØ³ Ø¨Øª
Ø¨ Ø¹Ø¯
ar ry
Ġc re
ag es
at a
Ø§ Ø¦
n a
ĠØ§ÙĨ Ø³Ø§ÙĨ
ĠØ¢Ùħ Ø¯Ùĩ
ĠØ¹Ùħ ÙĦ
ĠØ² ÙħØ§ÙĨÛĮ
ĠØ¯ Ø§Ø®
N ow
Ġhel p
ĠØ¯ ÙĪÙĦ
ĠA l
ĠÙĩØ§ÛĮ Ø´
ĠØ¯ÙĪ Ø¨Ø§Ø±Ùĩ
r ist
ĠI s
ĠA meric
ĠC om
Ġagain st
Ġfe w
Ġkn own
Ġhum an
Ø ¡
ĠÙĨØ¯ Ø§Ø±Ø¯
ĠÙħÙĪØ¶ ÙĪØ¹
Ġh igh
ĠÙĤ Ø¨ÙĦ
ĠÙ¾ ÙĪÙĦ
ĠÚ© ÙĪØ¯
ÛĮØ² ÛĮ
ĠÙĪØ§ÙĤØ¹ Ø§
· Û
ĠØ§Ø¯ Ø§ÙħÙĩ
cho ol
ĠÙĩÙħÚĨ ÙĨÛĮÙĨ
ĠØ³ Ùģ
ĠÙħÛĮ ÙĦÛĮ
s he
ÙĪ ÙĨØ¯
ou n
ĠØŃØ§ÙĦ Ø§
ĠÙģ Ø±Ø¯
ÙĤ ÙĦ
Ġex am
ĠÙħÙĨ Ø·
a x
Ú¯ ÙĪÙĨÙĩ
ØªÛĮ Ø¬Ùĩ
ĠØ± ÙģØªÙĩ
ĠÚ¯ ÙĦ
ĠÙĨØ¯ Ø§Ø±
Ġon ce
Ġcon f
Ø¨ Ø§ÙĨÛĮ
Ġthou gh
Ġm ind
ĠØ¨Ú¯ ÙĪ
Ø¨ Ø·
ap h
Ġe ver
Ø¯ÛĮ Ú¯Ø±
Ø¹Ø¯ Ø§Ø¯
ĠÙĨ Ùģ
ĠØ¢ Ø¯Ùħ
i k
ÙĨ Ùħ
u c
Ġbe gan
o ice
ĠØ¨ Ø¨ÛĮÙĨ
ĠØ®ÙĪ Ø§Ø¨
en se
Ġf our
Ġst and
r it
Ġmom ent
ut e
ÙĪ Ø³Øª
Ġbet ter
olog y
ĠÙĤ Ø¯
ÙĨ Ø´
s aid
d ay
Ġs ign
ĠÙĤ Ø§Ø¨ÙĦ
Ġ ed
i red
ĠD e
Ġde velop
ĠÙĪ Ø§
ĠÙĩÙħ Ø±Ø§Ùĩ
ĠÙħÛĮ ÙĦ
Ġar t
ir l
c on
as h
ĠØ¬ ÙĦÙĪ
ert ain
ic ally
Ø± Ø®
ou th
ch n
us s
ul a
Ġb oth
ie ld
Ġn ame
in es
ĠØ³ Ø±ÛĮ
ĠØ³ ÛĮØ§
Ø¨Øª Ùĩ
Ø§ÙĪ Øª
ÙĪÛĮ Ø³
os ed
ĠØ¨Ùĩ ØªØ±
Ġp ower
ÙĪÛĮ Ø´
ÙĦ Ø³
A t
Ġh ome
ĠÙģ Ø±ÛĮ
al ity
ĠØ§ ÛĮÙħ
ĠAir port
ut h
ĠØŃ Ø§Ø¶
ÙĪØ¯ Ùĩ
Ġh ard
Ġw ater
ĠØ´ Ø§Ùĩ
ĠØ¹ ÙĦØ§
Ġe l
ic es
Ø§Ø¨Ø± Ø§ÛĮÙĨ
Ġd ire
Ø¹ ÙĨÛĮ
ĠØ±ÙĪ Ø´
ĠØ¨Ø± Ø§Ø¨Ø±
ĠØ¯ ÙĦÛĮÙĦ
re w
Ġsec ond
ĠÙĪ ØŃ
ĠØ®Ø§ÙĨÙĪ Ø§Ø¯Ùĩ
Ġg ive
ĠØ®ÙĪØ¯ Ùħ
ĠÚ¯ÙģØª Ùĩ
Ġd r
Ġf il
00 0
ie w
ĠØ¯Ø§Ø± ÛĮÙħ
ĠÙĨ ÛĮÙħ
Ġas s
Ø§ ÙĪØ±
ĠØ¢ Øº
Ġhe art
L aughter
ĠØ¨ ÙĪ
Ġc are
ĠØŃ ÙĦ
Ø§ÙĨ Ú¯
ur al
´ Û
ĠØ¢ÙĨ Ú©Ùĩ
ĠÚ¯ Ø±ÛĮ
ĠÚ©ÙĨ ÙĨØ¯Ùĩ
Ġpro v
Ġcomp le
ĠÚ©ÙĨ ÛĮ
ĠÙĤ Ø¨
ar n
Ġme an
ĠØ³ ÙĨÚ¯
Ġre st
ĠØ§ ÛĮØ±
ĠÚĨ ÙĨØ§ÙĨ
ĠÙĨ ØªÛĮØ¬Ùĩ
Ġre ad
e x
m ost
ĠØ¯ Ø§Ø³Øª
Ġqu est
Ø³ Ø§
ĠØ² Ø¯Ùĩ
Ġap pe
Ġbo ok
ĠÙħ Ø¯Ø±
¶ Û
u g
Ø¹ Ø«
ÛĮØ¯ ÛĮ
ĠÙħØ¯ Øª
Ġm other
ÙĤ Ø¯Ø±
ĠØª Ø§Ø¨
Ġs w
ĠÛ µ
Ġf ather
Ø± Ø´
ĠÙĩ ÙĪØ§
Ø§Ùģ ÛĮ
Ġkn ew
in ed
Ġto ld
Ø§Ø² Ùħ
ĠØ³ Ø·
Ø§ÙĦ Ùĩ
ĠÙĨ Ø®
ĠØ³ Øª
ĠØ¯Ø§ÙĨ Ø³Øª
Ġf elt
ĠÙ¾Ø§ÛĮ ÛĮÙĨ
ĠØ´ Ø§ÛĮØ¯
ÛĮØ¯ ÙĨ
al th
Ġseem ed
Ġdid n
ent ly
ĠØ§Øµ ÙĦÛĮ
Ùħ Ø±Ø¯
Ġb lo
ĠÙħ Ø§Ø±
Ø§Ø¨ Øª
er ing
o h
in s
o ck
o ok
ĠØ³Ø§Ø®Øª Ùĩ
ĠØ¨ Ú©
ĠÙĤ Ø§ÙĨ
Ġask ed
Ø¬ Ø¨
ĠÙħ Ø§ÙĨØ¯
en e
ĠØ¯Ø§Ø´Øª ÙĨØ¯
ÙĩØ± Ùĩ
c om
Ø± Ø²
Ġt ry
ĠØ¢Ùħ ÙĪØ²
or m
ĠÙĪ Ø¶
Ø± Ø³ÛĮ
Ġs k
ĠØ¬ÙĪ Ø§Ø¨
ap s
ĠØ¨ ØªÙĪØ§ÙĨ
Ġb us
Ġ 6
ĠØ¢ÙĨ ÚĨÙĩ
ĠN ew
Ġnum ber
in a
Ø ¤
Ġd et
ang u
is ed
ĠØ¨Ø§ Ø¹Ø«
Ġc le
Ø¨ Ø±ÛĮ
ĠÙģ Ø¶
ĠÙģØ± ÙĪØ¯
Ù¾ Ø§
Ú¯ Ø±Ø¯
as on
Ġw alk
Ġpart ic
N o
Ġlo c
ĠÚ¯Ø° Ø´ØªÙĩ
Ġwom en
Ġ Z
ward s
ak es
Ġs ol
em ent
Ġv is
Ú© ØªØ±
Ø® ÙĨØ¯Ùĩ
at ure
ĠÚ¯ ÛĮØ±
ÙĦØ§ ØŃ
Ġs ide
ĠÙĨ Ú¯Ùĩ
ĠÙħÙĨ Ø¸
one y
W ell
ĠØŃ ÛĮ
ir d
er v
Ġs ince
Ġin f
Ġex t
ĠØ³ Ù¾
Ùħ Ø²
ĠØŃ ÙĤÛĮ
ĠØ´ Ø§ÙħÙĦ
Ø¨ Ø§Ø²
ĠS h
Ø· ÛĮ
b r
Ġch ar
Ø¨ ÙĨ
un g
ĠØ¨Ø³ÛĮ Ø§Ø±ÛĮ
Ġact ually
Ø±ÛĮ Ùģ
ĠÙ¾Ø± Ø³ÛĮØ¯
ĠÙħÙĨ Øª
ant s
Ø¨ Ø¯
Ġm ed
ivers ity
H is
Ġw ind
Ġunderst and
ĠÙģØ± Ø§ÙĨ
ĠUn ited
Ġim port
it her
c ri
at ch
ate ly
iz e
ĠÚ©Ø±Ø¯ ÛĮÙħ
ĠÙħØ± Ú¯
Ø² ÛĮØ±
Ġfam ily
ĠØ® Ø§Øµ
ĠÙĨÙĪ Ø¹
Ġex per
ĠÙħØª ÙĪ
Ø±ÛĮ ÙĤ
Ġhand s
ain s
ĠÙĨØ§Ùħ Ùĩ
Ġu nt
Ġlook ing
ÚĨ ÙĪÙĨ
c ent
ĠØ§Ø·ÙĦØ§ Ø¹Ø§Øª
Ġd one
ĠÙ¾ Ø§Ø³
Ġo cc
Ġm o
ĠØ¯Ø± Ø¢
ĠØ´ Ø§ÙĨ
Ġop en
m e
le y
Ġs ing
an n
Ġse en
Ġl ess
ĠS e
Ġs il
ĠØ¢ ÛĮØ¯
Ġh alf
Ġen ough
et s
Ġdo or
The n
ĠØº Ø°
ĠH e
Ġchild ren
ĠS p
m ed
Ġg rou
ĠØ® Ø¯Ùħ
it ing
Ġret urn
ĠØ¬ Ø§ÛĮÛĮ
Ġbu ild
ĠÙģ Ø±Ø§
ĠØªØµ ÙħÛĮÙħ
ĠØ¬Ùĩ Ø§ÙĨÛĮ
ĠÙħØªØŃ Ø¯Ùĩ
ĠØ² ÙĨØ§ÙĨ
Ġb re
ĠØª ÙĦ
ĠØ®ÙĪ Ø¨ÛĮ
ĠP ro
" ,
ĠØ³ Ø®Øª
ĠØ§ Ø«Ø±
ĠÙħØ´ Ú©ÙĦ
ÙĪÙĦ ÙĪ
ĠA nd
Ġg irl
ĠØ± Ùĩ
Ġl ater
Ġh our
r al
op e
ĠÙĨ ÙĪØ±
ĠØ¯Ø§Ø¯ ÙĨ
l ing
Ġl ist
Ù ĥ
ĠÙ¾ Ø§Ø±
ĠØ· Ø¨ÛĮ
Ġt re
Ġhe ard
Ġr un
ere st
re am
ĠÙģ ÙĩÙħ
Øµ ÙĦ
Ġm ar
ri es
ĠØ¯ÙĨÛĮ Ø§
Ø§ÛĮ Ø±
ur y
ĠÙħ Ú©
u ro
ĠØ¬ Ø§Ùħ
ÙĦÛĮ Ùĩ
a j
Ø±ÛĮ Ø¨Ø§
Ġto get
Ġpro ble
ÙĨ ÙĪ
ĠØ® ÙĪØ±
ĠÙ¾ Ø°ÛĮØ±
le t
ĠØ§ÛĮØ§ÙĦ Ø§Øª
r on
Ġtoget her
em ber
Ú© Ùħ
ĠÙĩØ± Ú¯Ø²
ĠØ¢Ø± Ø§Ùħ
ĠÙ¾Ø§ÛĮ Ø§ÙĨ
Ø§Ùħ Øª
Ġ Q
ÙĬ ÙĨ
ru ct
Ġf ar
Ġd ays
ĠØ³ ÙħØª
Ø§Ùĩ Ø§ÛĮ
Ġne xt
Ġany thing
Ø´Øª Ø±ÛĮ
Ġgo vern
Ġ1 0
ĠÙ¾ ÙĪØ´
Ø§ÛĮ ÙĨØ¯
ĠØ¨Ú¯ Ø°
Ø¯ÛĮ ÙĦ
d e
Ġm us
Ġw a
ĠØ¢ Ùĩ
ĠE ng
ÙĩÙħ Ùĩ
ĠØº Ø±
Ġof ten
Ø¨ Ø¹
ĠI t
Ġle ad
it al
ĠØ¹ Øµ
ĠØ§Ø³ Ù¾
Ġd uring
ĠØ® Ø´
Ġwom an
Ø§ÙĨ Ùħ
Ġe lect
ĠØª ÙĪÙĨ
ĠÙħØ¹ ÙħÙĪ
Ġwh y
Ġne ar
Ġs at
Ġex pl
Ø´ ÛĮÙĨ
id ed
un ic
pp ed
Ġde f
A n
f ter
ill ion
Ġint erest
pe nd
Ġan s
ĠØ¢ Ø³
ÙĪ Ùģ
Ġp at
Ø§Ùħ Ø¨Ø±
Ġturn ed
Ġt y
Ġlar ge
Ġs chool
ĠØ¨ Ø³
ĠØ±ÙĪ Ø´ÙĨ
Ø±Ø§ ØŃÛĮ
ĠØ§ Ø´Øª
th at
ÙĨ Øª
Ġcont in
ĠÙĨ Ø§Ø±
ar ing
Ø±Ø§ Ø¦
am es
ĠØ¯Ø§Ø³Øª Ø§ÙĨ
ĠÙħØ³ Ø¦
Ġde m
Ġdes ign
ab ly
Ġte chn
ĠØ§Ø¬ Ø§Ø²Ùĩ
Ġcount ry
ÙĦØ§ Ùģ
Ú© Ø§
ÙħÛĮ Øª
ĠA s
ĠØŃØ¯ ÙĪØ¯
Ġp le
ĠØ¢Ø² Ùħ
ÙĦ Ùħ
u es
Ú© Ø±Ø¯
ĠØ§ÙĨØ¯ Ø§Ø®Øª
ĠØ³Ø§Ø² ÙħØ§ÙĨ
ull y
ĠØŃØ§ÙĦ Øª
ĠØ® Øµ
ØªÙħ Ø§ÙĦ
o ll
Ø¨ ØŃ
ain t
ĠP r
form ation
ĠØªØ§Ø±ÛĮ Ø®
ĠØ§ ÙĤØª
Ġl ot
Ġv ar
ĠØ³ÛĮ Ø§Ùĩ
ĠI nd
ĠØ¯Ø§ÙĨØ´ Ú¯Ø§Ùĩ
id es
ĠÙĦØ¨ Ø§Ø³
ĠØª ÙħØ§
or th
ĠP h
ĠØ¬Ùħ Ø¹
Ġv oice
Ġm ove
at t
Ġcour se
Ġl angu
ĠÙ¾ÛĮ ÚĨ
Ø§Ùħ ÙĪØ´
Ġspe c
Ġp op
ak en
ĠØ§ ÙĤ
Ø« ÛĮØ±
Ø¨ Ø±Ø¯
ĠØ¢ ÙĪ
Ø± Øª
ĠÙħØªÙĪ Ø¬Ùĩ
ØŃ Ùĩ
ĠG od
n ot
Ġpro cess
Ġb ro
Ġ19 8
Ø² Ø§Ø¯Ùĩ
Ġb est
Û ±Û
a ut
ĠØ³ Ø±Ø§
er man
ÙĦ Ø§Ùħ
ĠØ¯ÙĪÙĦ Øª
ĠÙĩ Ø²Ø§Ø±
ĠØ±Ø§ Ø³Øª
ĠØ¨ÙĪØ¯ ÙĨ
Ġf ore
Ø¨ÛĮ Ùĩ
Ġword s
gr am
ĠØ¢Øº Ø§Ø²
ĠÙ¾Ø³ Ø±
ĠØªØ¨ Ø¯ÛĮÙĦ
ĠÛ ³
ÙĪØ§ Ø¬
Ġc ond
Øµ ÛĮ
ĠÙĦ ÙĪ
Ġke ep
Ġv al
Øª Ø±ÛĮ
ĠØ¯ÙĪ Ùħ
ĠÙĩØ³Øª Ùħ
r ow
ĠÙħØ± Øª
Ġwho le
ĠÚ©ÙĪ Øª
Ġc lo
ĠØŃØ§Ø¶ Ø±
ĠÙĩ ÙĪ
u red
ĠØ§Ø±Øª Ø¨Ø§
Ġt ri
ĠA n
ĠÙħØ¬ ÙħÙĪ
ĠØ§Ø¬ ØªÙħØ§
Ġdire ct
ĠØªØŃ Øª
Ġst op
ĠÙħÙĨØ· ÙĤÙĩ
ra w
ĠØ´Ø¯ Ùħ
ĠÙħÙĪ Ùģ
Ġunt il
Ġf ive
Ġal most
Ġe qu
b ody
b ed
ĠÚ¯ Ø³Øª
y ing
ĠØ¯Ø§Ø® ÙĦ
ĠÙģ Ø´
Ġor gan
Ġf un
Ø¯ ÙĪ
ĠÙħ ÙĦÛĮ
Ġm oney
ĠØ¨ ÙĢ
ĠÙħÙĪ Ø¬ÙĪØ¯
Ø¹ Ø§
Ø³Øª ÛĮÙĨ
Ġc ertain
m y
Ġ 7
ĠF ran
og r
ĠØª ÙĪÛĮ
ĠÙĤØ¯Ø± Øª
ĠW h
ĠØ³Ø® ÙĨ
ĠØ¹ ÙħÙĪ
ĠØ¹ Ø±
Ú© Ø§Ø±ÛĮ
Ø§ÙĨ Øª
et y
Ø± Ø§Øª
Ġform ula
ĠØ® Ø¨Ø±
ĠØ²ÛĮØ± Ø§
ĠÚ© Ø±ÛĮ
Ġst ate
Ġw ar
Ġser v
Ġ 8
Ġ 9
Ġs ci
ĠÙĪ Ø§ÙĦ
ĠØ¨ÙĦ Ú©Ùĩ
ÙħÛĮ Ø²
el s
Ġbec ame
ĠØ§ Ø±ÙĪ
ĠÙħØ®Øª ÙĦÙģ
b ers
Ġch ange
ĠØ¢ ÛĮØ§
ĠØªÙĪØ§ÙĨ ÙĨØ¯
ĠØ¯ Ùħ
us ed
ĠØ¯Ø± Ø¯
Ø± Ø³
t on
g ed
sel ves
ØŃØ§ÙĦ Ø§
Ø§ÙĨÛĮ Ø§
Ġexam ple
Ø¯ Ùģ
ac es
ĠØ²ÛĮ Ø§Ø¯
Ġad v
Ø®ÙĪ Ø±Ø¯
ĠÙĨ Ú¯Ø±
ĠØ¨ Ø³ØªÙĩ
Ġt ru
tern ational
ĠØ¯Ø±ÛĮØ§ ÙģØª
ĠÚ©Ø§Ùħ ÙĦØ§
Ø¨ Ø§Øª
Ġha ving
Ġde p
Ġapp ro
Ġqu ite
Ã ©
Ġt imes
ĠØ³Ø§Ø² ÛĮ
ĠÚ¯ÙĪ ÛĮØ¯
Ġt ra
un e
ĠØ¯Ø§Ø± Ø§ÛĮ
ĠÛĮ Ø¹ÙĨÛĮ
u ck
ĠØª ÙĦØ§
Ġpr ot
ĠØ§ Ú©ÙĨÙĪÙĨ
ĠØ§ÙĤØª Øµ
ĠØ±ÙģØª Ø§Ø±
ĠØ®Ø§Ø± Ø¬
Ġy et
Ġch ang
or ld
A l
ĠØ± ÙĤ
Ġp ur
er y
an e
ĠCh rist
ĠØ¨ Ø§ÙĨ
Ġwant ed
con om
ĠÚ© Ø§ÙĦ
ĠM ar
ÙĦ ÙĤ
ĠØ´ ÙĪØ±
ĠÚĨ ÙĩØ±Ùĩ
ĠØ¹ Ø´
Ø¦ ÙĨ
ĠØ¯Ø± ÛĮ
ĠSt ates
Ġhis t
ĠØ³Ø± Ø¹Øª
Ġsh all
f fect
ĠØ®Øµ ÙĪØµ
as k
ĠØ¯Ø§Ø¯ ÙĨØ¯
Ù ı
Ġd ri
Ġab le
Ġb ig
ĠÙħØ· Ø§ÙĦ
ent ion
ÙĪÛĮ ÙĤ
ĠØ¨ ØŃ
Ø§Øµ ÙĦÙĩ
ĠØ· Ø¨
ĠÙĪ Ø³
ĠØŃÙĤÛĮ ÙĤØª
ĠØªÙĤ Ø±ÛĮØ¨Ø§
ÙĤ Ø±
Ġwith in
y le
Ġde ath
ĠÚ¯ÛĮ Ø±ÛĮ
Ġl aw
ren ce
Ġp ri
Ġc or
is ion
ĠÙħØª Ùģ
Ġd ark
ĠØ®ÙĪØ§ÙĨ Ø¯
Ġimport ant
i um
as ter
Ø§Øª Ø±
Ø§Ùĩ Ø´
ĠØ³Ø· ØŃ
Ú¯ Ø§Ø±
Ø¸ Ø±
iv ed
Ġcon st
w ork
o f
Ġmon th
ĠØ® Ø¯Ø§
Ġde l
Ġs ound
Ġb ody
Ú¯Ùĩ Ø§ÙĨ
ĠØ§ Ø®Øª
ØŃ ØªÛĮ
ĠÚ© Ø´ØªÛĮ
Ú©ÛĮ ÙĦ
ĠØ¬ ÙĦ
ĠÚ©ÙĨ Ùĩ
Ġ 0
pl ay
ĠØª Ø§Ø²Ùĩ
ĠØ® ÙĪÙĨ
ĠØ¹ ÙĪ
ĠØ´ÙĨ Ø§Ø³
Ġdo ing
is ter
Ġm il
ĠØ¸ Ø§Ùĩ
ĠÙ¾Ø§Ø³ Ø®
Ġbl ack
Ú¯ ÛĮØ±
ĠA f
Ø³ÛĮ ÙĤÛĮ
Ġal ong
ĠØ§ØŃ ØªÙħØ§ÙĦ
ĠØ¢ÙĨ Ø§ÙĨ
Ġres ult
b s
ĠØ§Ø´ Ø§Ø±Ùĩ
ĠØ¨ Ø³Øª
ĠÚ¯ÛĮ Ø±Ø¯
Ġl and
ĠÙĨ Ø®ÙĪØ§Ùĩ
ĠØ¨ÛĮÙħ Ø§Ø±
re en
Ġk ill
ÛĮÙĨ Ú¯
Ġe as
ĠÙĨÙĪ Ø´ØªÙĩ
ĠØ³Ø± Ø´
o ke
e e
ĠØ¨Ø± Ø®ÛĮ
ĠE uro
Ø± ØŃ
Ø§ Ø¬
ĠØµ Ùģ
Ġ{ \
Ġ +
Ġpol it
ĠØ§Ø² Ø¯
at s
r act
Ġcont ro
Ø ©
Ġd ata
ĠØªØµ ÙĪØ±
ĠØª Ø¹Ø¯Ø§Ø¯
Ġide a
m en
Ġm ark
ĠØªØ± Ø³
Ġo pp
ĠÙĩÙĨÚ¯ Ø§Ùħ
M y
ĠØ§ Ø¶
Ø¬ ÙĪ
p ed
Ġre qu
ĠØªÙĪØ³ Ø¹Ùĩ
ÙĪØ§ÙĨ ÛĮ
Ġevery thing
is on
ĠØ· Ø±ÛĮÙĤ
Ġc ity
ĠÙħÛĮÙĦÛĮ ÙĪÙĨ
ĠÙħØ« Ø§ÙĦ
Ġp ublic
ĠÙĪ ÙĨ
Ġbelie ve
ĠÙħÛĮ Ú©ÙĨ
Ø² ÙĨ
Ø±ÛĮ Ø§ÙĨ
Ġbe gin
Ġe le
w here
Ġ est
Ġg ave
ĠÚ¯ÙģØª Ùħ
ĠÙħ Ø§ÙĦ
as es
Ø° ÛĮ
ĠØªØ± Ú©
p r
ĠÚĨ Ú¯ÙĪÙĨÙĩ
ul ation
ĠÚ© Ø§ÙħÙĦ
iz ation
ĠØ§ÙģØ² Ø§ÛĮØ´
u se
ĠØ´ ÙĨØ§
Ġother s
Ø´ ÙħØ§
Ġcl ass
ĠØ¨ÛĮÙħ Ø§Ø±ÛĮ
Ù ĳ
ĠØ³Ùģ ÛĮØ¯
Ġp ar
Ġc ell
ĠØ· Ø±Ø§ØŃÛĮ
Ø± ÚĺÛĮ
Ġf ell
ff ic
Ø¸ Ø§Ø±
Ġli ve
Ġp os
ĠØµ Ø¯Ø§
ĠUn iversity
Ġgiv en
A ll
Ġ es
ĠØ¢ ÙĪØ±
ĠS o
ĠâĢ Ļ
ĠØ³ Ø§Ø¯Ùĩ
O ne
ĠÙĨÙħ Ø§ÛĮØ´
Ġen g
ĠÚ¯ Ø§Ùĩ
d den
on y
ĠØ¢ ØªØ´
ĠØªØ± Ú©ÛĮ
it ch
Ú© Ø±ÛĮ
ĠØ§Ø±ØªØ¨Ø§ Ø·
ĠØ¯Ø± Ø®Øª
ÙĦØ§ Ø³
ĠG erman
ĠØ¯Ø± ØµØ¯
Ġor der
ÙĪ Ø¨ÛĮ
Ġso on
ĠØ¯Ø± ÙĪÙĨ
Ġo per
ĠÙĩ ÙģØªÙĩ
Ġ19 7
ress ed
Ġs ent
ĠÙ ¬
orn ing
Ġpres ent
Ġe ffect
ĠÙģØ±ÛĮ Ø§Ø¯
Ġbec ome
c le
ĠØ¬Ùħ Ùĩ
ĠØª Ùĩ
Ġmy self
Ġsh ort
a pe
Ġs ort
Ø¯ Ø§Ø±ÛĮ
i ent
ĠÙĨÙĤ Ø´
Ġs ix
ĠØ¨Ø§ ÙĪØ±
Ùħ ÙĨØ¯
C h
ĠÚ© Ø§ÙĨ
ĠÚĨ Ø·ÙĪØ±
ĠÙħØ± Ø¨
ĠØ³Ø± Ùħ
Ġ ri
Ġstart ed
Ġher self
Ø¬ Ø§ÙĨ
Ø§Ø¨ Ùĩ
ĠEuro pe
Ġre ce
Ġsu dden
ĠÙģØ±ÙĪØ¯ Ú¯Ø§Ùĩ
Ġsu re
ĠØ¯Ø§ÙĨ Ùħ
Ø´ ÙħØ§ÙĨ
Ġquest ion
- -
Ø¯ ÙĪØ¯
i ver
Ġto wn
ÙĩÛĮ ÚĨ
ĠØ¨ Ø§ÛĮ
Øª ÙĦ
Ø§ Øº
Ġcomm on
Ġres p
ĠÙĪ Ø³ÛĮ
or ies
Ġoff ic
Ġb it
ĠØ¢ÛĮ ÙĨØ¯Ùĩ
ØªØ± ÙĦ
ĠÙĪØ§ÙĤ Ø¹ÛĮ
ÙĨ ÙħÛĮ
Ġwe ek
re ady
Ġpro f
ÙĨØ§ Ú©
Ġbeh ind
ĠÙĨØ´ Ø¯Ùĩ
ĠØ¹ Ø²
ĠØ¬Ùħ ÙĦÙĩ
ot t
Ø§ Ø¹
ĠW orld
ĠÙħÙĤ Ø§Ø¨ÙĦ
ĠØ®ÙĪØ§Ùĩ ÙĨØ¯
Ġs it
ĠØ§Ø¬ØªÙħØ§ Ø¹ÛĮ
Ġsh ow
u ed
ØŃ Øª
ÚĨ ÙĨØ¯
ĠÙĪØŃ Ø´Øª
Ø§ ÙĪÙĨ
O h
ĠÙħØ¬ÙħÙĪ Ø¹Ùĩ
Ø±ÛĮ Øª
Ġle g
i ence
id d
ĠW e
ĠØ± Ø§ÛĮ
Ø³ ÙħØª
ÛĮØ² Ùĩ
ĠØ¨Ø±Ø¯ Ø§Ø´Øª
Ġb ed
Ġm orning
Ġgovern ment
ĠÙĨ ÙĪÛĮØ³
S t
Ġse ver
Ø® Ø´
Ġde v
ÚĨ ÙĨÛĮÙĨ
Ġbus iness
Ġpro gram
ĠØ¬Ùĩ Øª
A fter
ĠAmeric an
ĠÚ¯Ø° Ø´Øª
ĠØ´ Ø¨ÛĮÙĩ
Ġp ain
Ġs le
Ġposs ible
en g
Ġam ong
Ġpl an
ogr aph
e ad
ĠÛĮØ§ ÙģØªÙĩ
Ġcomp ut
ĠØµ Ø¨ØŃ
ĠØ´ÙĨ Ø§Ø®ØªÙĩ
ĠØ§ÙĨ Ø±ÚĺÛĮ
Ġinc re
Ġwh ite
od e
i or
Ġst ory
qu e
Ġf ull
ĠÙ¾ ÙĦ
ĠÙħØ±Ø¨ ÙĪØ·
Ġdis play
ĠØ¬ ÙĪØ±
ĠØªÙĦØ§ Ø´
ĠØ§Ø²Ø¯ ÙĪØ§Ø¬
ac y
Ġa w
ÙĦÛĮ Ø³
Ø¦ÛĮ Ø³
m a
ĠØ² ÙĪØ¯
cc ess
A pp
Ø§Ø¨ Ø§ÙĨ
ĠÙĤØ§ÙĨ ÙĪÙĨ
Ġin formation
ren ch
ĠØ³ Ù¾Ø³
Ġr ather
z e
Ġt aken
ĠÙ¾ ÙĨ
Û ²
ĠÚ¯ ÙĪÛĮ
ĠÙħÙĪ Ø³ÛĮÙĤÛĮ
ĠØ§ÙģØª Ø§Ø¯Ùĩ
ĠØ³ Ø¹ÛĮ
ĠØ§ÙĨØª Ø¸Ø§Ø±
Ġw on
Ùħ Ø¹
h a
ĠØ¢Ø² Ø§Ø¯
Ġh old
Ġp rom
Ġ &
Ø®ÙĪ Ø¨
ol ution
ÛĮØ¯ Ùħ
f ort
Ġle ast
ĠØ§ Øº
ct or
ĠÙħØ¹ Ùħ
ĠâĢĮ .
Ġh or
ĠØ¨Ø§ ÙĤÛĮ
th ough
ĠÙĨÙĪ Ø´Øª
ĠÙĨØ§ Ù¾
ĠÙħØ¯Ø± Ø³Ùĩ
Ġc ase
ĠØ§Ùħ Ø±ÙĪØ²
h aps
ĠØ§ Ø¨Øª
Ġâ Ļ
ÙĪÙĨ Øª
ĠØ¨Ø± ÙĪ
Ø§Ø¨ Ø¯
ian s
Ġre se
l ish
re ad
Ø¢ ÛĮØ§
ĠÙĦ Ø§Ø²Ùħ
ĠÙģØ± ÙħØ§ÙĨ
am ed
k s
ĠÚ©ÙĨ ØªØ±ÙĦ
Ø§ÙĦ Øª
ĠÙħØ´ Ø®Øµ
o le
ion al
b y
ĠØ§Ùħ ÛĮØ¯
ĠØ§Ø³ Ø§Ø³
ĠØ®Ø· Ø±
T o
Øµ Ø±
ĠØ¯ Ø´
ÙĪ ÛĮØ±
Ġsever al
s ide
ĠØ³ Ø±Ø¯
Ġal ready
Ø¯ Ø§Ø´Øª
ard s
Ġm aking
ĠØ¯Ø§Ø´Øª Ùħ
ĠØ¨Ø¯ ÙĨ
ĠÙħÙĪÙĤ Ø¹
ĠØ¯ÙĪØ± Ùĩ
ir on
Ġus ing
it er
Ġe conom
r or
ĠØ¯ÙĤÛĮ ÙĤÙĩ
at ic
ĠÚ© Ø§ÙģÛĮ
ĠØ² ÙĨØ¯Ùĩ
Ġm ag
Ø§ Ø³ÛĮ
Ø±ÛĮ Ùĩ
Ø§ÙĨ Ø´
Ġel se
Ø§Ùĩ Ø§
Wh y
ĠØ· ÛĮ
Ġind e
ĠØ¹Ø´ ÙĤ
ĠÙĨØ´ Ø³Øª
ĠØ¬Ùħ Ø¹ÛĮØª
ĠÙĥ Ùĩ
ĠØ¨ÛĮ Ø´ØªØ±ÛĮ
ÙĪ ÙĩØ§ÛĮ
Ġle arn
ĠØ¢Ø²Ùħ Ø§ÛĮØ´
ĠÙħÙĨ ØªØ´
ĠâĢ Ķ
Ġs ays
n ect
Ġa v
ac ed
ĠØµ ÙĨØ¯
Ġme ans
ĠØ¯ Ø§Ø±ÛĮ
ot s
ÙĪ Ø§Ø±Ùĩ
Ġfil m
ĠÙĨØ§Ø± Ø§ØŃ
ĠØ§Ø³ Ø¨
The se
ĠØ¨Ú¯ ÛĮØ±
ĠØµ Ø±Ùģ
ĠØ§ÙĦ ÙħÙĦ
ÚĨ ÛĮ
ÚĨ Ø§Ø±
ĠÚ¯Ø± Ùħ
ĠØ° ÙĩÙĨ
f ic
ĠØ¯ ÙĪÙĨ
er gy
Ġear ly
et h
ĠÚ© Ø§ÙĩØ´
c he
ĠÚ© Ø±
i en
ĠÙħ Ø³ÛĮ
Ø§Ø³ Ø¨
Ġspe ak
ĠÙħØ¹ÙħÙĪ ÙĦØ§
ĠÂ» .
ĠÙ «
Ġac ross
ĠÙħÙĨØªØ´ Ø±
Ø§ÙĦ Ø¨
ĠØ¹ Ø¬ÛĮ
are nt
Ġsupp ort
ĠÙħØº Ø²
ĠÙ¾Ø±Ø¯ Ø§Ø®Øª
Y es
Ġr ound
ĠÛ ´
Ø§ÙĦÛĮ Øª
Ġhe ar
Ø³ Ø§ÙĦ
Ġgrou p
Ġmat ter
ĠØ§ÙĨØª ÙĤ
ĠÙĨØ´ Ø³ØªÙĩ
Ø¨ÙĨ Ø§Ø¨Ø±Ø§ÛĮÙĨ
s h
w er
ĠØ¹ÙħÙĪ ÙħÛĮ
f ully
Ġf all
ĠØŃÙħ ÙĦÙĩ
ĠØªÙħØ§ Ø´
ĠÙħØ§ Ø´ÛĮÙĨ
Ġf ree
Ġph ys
Ġo ri
ĠP ar
rou ght
ĠÙģ ÙĦ
ĠÙĩ Ø¯Ùģ
l ause
und red
ri but
ĠÛ±Û¹Û ¹Û
ĠÙĤ Ø³ÙħØª
ĠÚĺ ÙĨ
r ict
o ber
ĠØ¯ÛĮÚ¯Ø± Ø§ÙĨ
ĠØ´Ø¨ Ú©Ùĩ
Ġclo se
ĠØ¨Ø§Ø´ ÛĮØ¯
ĠØªÙĪØ§ÙĨ Ùħ
Ø²ÛĮØ± Ø§
ĠØ³ ÙģØ±
ĠØ¬Ø§Ùħ Ø¹Ùĩ
ĠØ§Ùħ Ú©Ø§ÙĨ
ous and
ĠØªØ´ Ú©ÛĮÙĦ
id er
ĠØ§ ÛĮØ¯
ĠØ¨Ø± Ø§Ø¯Ø±
un ity
ĠØ¨Ø± ÙħÛĮ
op h
ÛĮØ¯ ÙĨØ¯
ĠØ¢ Ø³ÛĮ
.. ..
Ġ ÛĮÙĨ
ĠØ® Ø§Ú©
c o
ĠØ¶ Ø±
ĠØ¨Ùĩ ØªØ±ÛĮÙĨ
Ġ1 5
ress ion
ĠØ¬ Ø¯Ø§
Ġre d
ĠC l
ĠØ§Ø³ Ùħ
ĠÙħØ´ Øº
Ġre pl
ĠØ¹ÙĦØ§ ÙĤÙĩ
Ġre ason
e an
ro p
ĠØ¯Ùĩ Ùħ
ĠÚĨ Ø±Ø®
Ġ19 6
ÙĪÛĮ Ùĩ
ĠØ¹ÙĤ Ø¨
m ber
ĠØ¯Ø³Øª Ùĩ
er al
Ġp ast
ĠØ¯Ø± Ú©
ĠØ¨ÛĮÙĨ ÛĮ
ĠØ¨ ÙĨØ¯
ĠØª Ø®
te nd
g en
Ġob s
ĠØ¯Ø± ÙĪ
Ġw ond
Ġl ow
Ø³ Ù¾Ø³
iv es
Ġhe alth
ĠÙħ Ø²
Ġc ir
ĠØª Ø¬Ø±
ĠB e
ĠØ¯Ùĩ Ùĩ
Ġ X
Ġf lo
Ġt able
Ġm illion
Ġpartic ular
oh n
Ġre le
Ġt em
Ø± Ø§ÙĨ
ĠÙħØŃ ÛĮ
a i
ain ing
Ġs un
ĠØªØ¹ Ø±ÛĮÙģ
a im
ĠÛĮÚ© Ø¯ÛĮÚ¯Ø±
Ġh undred
Ø¶ Ø§ÛĮ
App lause
ĠØªØ± ØªÛĮ
ou d
ĠØ¯Ø§Ø± ÛĮØ¯
Ġme et
Ġlangu age
Ġproble m
c ing
Ġal one
Ġc a
ĠØ¬ Ø³Øª
ĠØ±ÙģØª ÙĨ
ĠØªØŃ ÙĤÛĮ
ĠC on
ĠØ¬ ÛĮ
ĠMr s
ÙĪÛĮ Øª
Ġf re
Ø² ÛĮÙĨÙĩ
ĠÚ©Ø³ Ø§ÙĨÛĮ
ĠØ¢ ÙĪØ±ÛĮ
Ġcom ing
en ing
2 0
ĠØ¨ÛĮ Ø§ÙĨ
Ġto p
Ġso cial
ious ly
Ġstr ong
Ġsing le
e v
ac hed
ĠØ·Ø¨ÛĮ Ø¹ÛĮ
u ff
Ø§ÙĨ ÙĪ
Ġsu ccess
ĠÙħØ´Øº ÙĪÙĦ
Ġfriend s
Ġth ousand
Ø´ Ø§ÛĮØ¯
ĠØªÙĪØ§ÙĨ ÛĮÙħ
ĠÙħØ¹ ÙĨÛĮ
ĠØ¯Ø§Ø± Ùĩ
ĠÚ©ÙĦ ÙħÙĩ
Ġa ge
Ġex pect
µ Û
le x
Ġqu ick
Ġ ve
ÛĮ Ú©ÛĮ
ĠÙģØ¹ Ø§ÙĦÛĮØª
Ġmus ic
ĠØ§Ø· Ø±Ø§Ùģ
ĠØ§ÙĦÙħÙĦ ÙĦÛĮ
Ø® ÙĨØ¯
ĠÙģØ± Ø³Øª
ĠF rench
Ġl ay
as ure
Ġf ire
ĠÚĨ Ø´ÙħØ§ÙĨ
ĠÙħØ§ÙĨ Ø¯Ùĩ
Ġn at
ac ter
c er
ĠÙģØ±ÙĪ Ø´
l f
Ġen ergy
ĠØ¨ Ú©ÙĨ
ĠC ol
ĠØ¹ Ø¶
Ùħ Ø±
ĠÚ¯ Ø´Øª
Ġc reat
ÙĪÙĨ Ø§
Ġob ject
ĠØ¨Ø² Ø±
ĠÙĨÚ© Ø±Ø¯
ÙĪÙĦ Ùĩ
re et
ĠØ³ ÙĪÙħ
Ø§Ø¯ Øª
ap er
Ġg one
ĠÙ¾ Ø²Ø´
Ġdes cri
ĠØ³ÛĮØ§ Ø³ÛĮ
Ġab s
Ø± ÙģØª
ĠB r
Ùħ Ø«
ĠÙĨÙħ Ø§ÛĮ
Ùģ Ø±ÛĮ
Ø®Øµ ÙĪØµ
ĠØ¯Ø³Øª ÙĪØ±
ĠØ§ Ø±Ø§Ø¦
ĠØ¬ Ø±ÛĮØ§ÙĨ
itt ing
ÙĨØ¯ Ú¯Ø§ÙĨ
og n
Ø® Ùĩ
Ø± Ø§ÙĦ
if ied
Ġcount ries
ĠÙĤ Ø¯Ùħ
ĠØ§Ø±Ø§Ø¦ Ùĩ
Ġst ep
l er
Ú¯Ø§Ùĩ ÛĮ
ĠØª Ø³
Ġbo y
Ġ You
Ġhe ld
Ġan im
y d
ĠØ¨ Ø§Ø¯
ĠÙħØŃ ÙĦ
Ġd i
Ġto day
ĠCom m
Ġl ine
s on
Ġbe aut
Ġe ither
ĠE m
Ġ ill
Ġb ad
ĠØ´Ú© Ø³Øª
l u
Ġd ou
ĠØŃØ¶ ÙĪØ±
Ø³Øª Ùģ
Ġb rought
Ġf ield
b al
us h
ÙĤØ· Ùĩ
Ø¨ ÙĪØ¯
ĠØª Ø±ÛĮ
Ø® Ø¨
Ġthink ing
Øª ÙĤ
Ġpro b
ĠÙ¾ÙĨØ¬ Ø±Ùĩ
Ġr is
ĠØ§ÛĮØ± Ø§ÙĨ
Ġfr ont
ĠØ¨Ø± Ø³
ĠÚĺ Ø§ÙĨ
ĠØ±Ø³ Ø¯
ĠØ¹ Ø§ÙĦÛĮ
Ġs on
ĠÚ¯ Ùĩ
Ú© ÙĪÙħ
Ø´ Ø§Ùĩ
ĠÙĨÛĮØ± ÙĪÛĮ
ĠØ± Ø¯
n ow
ou l
Ġw all
ĠÛ °
ĠØ¨Ø§Ø´ Ùħ
Ú© Ø´
ĠØ¢ÙĪ Ø±Ø¯Ùĩ
S ome
Ġso ft
ĠÙĨ Ø¬
ĠØŃÙĤ ÙĪÙĤ
Ġbr other
on es
ĠÙħØ¯ ÙĦ
ĠÚ© Ø¬Ø§
it ions
ĠÙħÙĨØ¸ ÙĪØ±
ĠØ§Øº ÙĦØ¨
Ø§ÙĦ Ø¨ØªÙĩ
ĠØ§ ÛĮØ¯Ùĩ
Ġthem selves
Ġde ad
Ġm aj
ĠØ¨Ø§Ø² Ú¯
ĠØ¨Ø¹ Ø¶ÛĮ
ĠÚ©Ùħ ØªØ±
ĠØ³Ø± Ø®
ĠØ§Ø¹ ÙĦØ§Ùħ
ĠØ± Ø´Ø¯
Ġst e
Ø§Ùģ Ùĩ
st yle
ord ing
ĠS c
Ùĩ ÙħØ§ÙĨ
Ú© Ø³ÛĮ
Ø¢ ÙĤØ§ÛĮ
Ú© ÙĨØ¯
Ġle ave
ci ety
ØªØ´ ÙĪÛĮÙĤ
ĠÙħÙĪ Ø§Ø¯
ĠØ§ Ø¨Ø±
Ġwhe ther
Ġr a
ĠØ³ÙĦ ÙĪÙĦ
ĠÙĩØ³Øª ÛĮÙħ
Ġf ear
Ġori gin
ĠØ®ÛĮ Ø§ÙĦ
H er
he m
ĠÙĤ ÙĦØ¨
Ġag o
ĠØªÙĪØ§ÙĨ ÛĮØ¯
Ġim ag
Ġgener al
ĠØ´Ø®Øµ ÛĮ
ĠØ¯ÛĮØ¯ ÙĨ
c hes
Ġan n
ĠÙħØ´ Ø§Ùĩ
Ġbr ain
ĠØ¯ÙĦ Ø§Ø±
ĠE x
Â «
ĠØ¢Ø® Ø±ÛĮÙĨ
ĠØ´Ø± Ø§ÛĮ
Ġw ife
ĠÙģØ±Ø§ÙĨ Ø³Ùĩ
ĠÙĨ Ø±Ùħ
ĠÙĤØ± ÙĨ
Ġsp ace
ĠR uss
ÙĨ Ú¯ÛĮ
Ø¨ Ø§Ùĩ
il t
Ø±ÙĪ Ùģ
Ġcomp any
un t
ĠØ¨Ø§ÙĦ Ø§ÛĮ
ĠG r
iss ion
at or
ĠÚ©ÙĪØª Ø§Ùĩ
ĠØ± ÛĮØ§
ĠØªØµ ÙĪÛĮØ±
Ġwork ing
ĠÙħ Ø§ÙĦÛĮ
Ø¨ Ø´
ĠW ar
N ot
ag ed
Ġst ran
Ġnew s
Ø¬ Ø¹
p ar
Ġfo ot
Ġb ar
Ġtru e
o on
o int
p ut
Ġst ood
ÙĨ Ø³
ĠØ³Ø§Ø®Øª ÙħØ§ÙĨ
idd le
ĠØ¹ Ø¨
ĠØª Ú©Ø§ÙĨ
ĠÙħØ¬ Ø¨ÙĪØ±
ÙĦ ØŃ
Ġm ov
Ø² Ø¯
ĠØ§ÙĦ Ø¹
Ø® ÙĪØ¯
Ùħ Ø§ÙĦ
ĠØ¯Ø± Ø§Ø²
ĠØ® ÙĪÛĮØ´
ie f
it ive
ĠÙģØ± Ø²
k y
a e
ĠØ· ÙĪØ±ÛĮ
ĠÙĩÙħÚĨ ÙĨØ§ÙĨ
ĠØ´ Ø´
Ùģ Ú©Ø±
ĠØªØ±ØªÛĮ Ø¨
ĠÙħ Ø°
id s
Ġh ope
ĠÙĨÚ© Ø±Ø¯Ùĩ
ĠÙĨ ÙĩØ§ÛĮ
ĠÙĨ ÙĤØ·Ùĩ
Ø® Ø±Ùĩ
ĠØ´ Ø¹
ĠØ³Ø§ÙĦ Ùĩ
Ø¸ ÛĮÙħ
ĠØª ÛĮÙħ
Ġcomple te
ĠÚ¯Ø° Ø§Ø±ÛĮ
ĠØ¨Ø²Ø± Ú¯ÛĮ
air s
Ġcon nect
ĠI ran
ĠÚ©Ø´ ÛĮØ¯Ùĩ
Ġc al
Ġs um
Ġre v
ĠÚ© Ùģ
i ol
Ø® ÛĮÙĦÛĮ
ore d
D o
ĠØ±Ø§ Ø¨Ø·
ĠÙ¾ ÙĪ
ĠÙ¾ÛĮØ´ ÙĨÙĩ
Ġtry ing
Ø± Ø§ÛĮ
Ġwh om
ĠÙĩ ÙģØª
Ø³ ÙĪÙĨ
ro du
ÙĤÛĮ Ùĩ
Ġv ill
ĠØ²ÙħÛĮÙĨ Ùĩ
ĠØ±ÙĪ ØŃ
ĠØ¢Ùħ Ø§Ø¯Ùĩ
Ùħ ÙĤ
ĠAf ric
, "
Ġdisplay style
ÙĪÙĦÙĪ ÚĺÛĮ
Ġm ain
Ú© Ø§Øª
ĠØª ÙĦÙģ
iv id
Ġatt ack
ĠÙħÛĮ Ø¯Ø§ÙĨ
Ġre port
Ø¨ÛĮ ÙĦ
Ġper cent
ĠÙĩ ÙĨØ¯
Ø§ Ø´ÛĮ
ĠØ¨Ø±Ú¯ Ø±Ø¯
ĠÙĨØ® Ø³ØªÛĮÙĨ
ÛĮ Ø´
ĠØ§ÙĦ Ø¨ØªÙĩ
in ation
ĠØ¨Ø± Ø®ÙĪØ±Ø¯
W ith
ĠØ®Ø¯Ùħ Øª
Ġcle ar
ĠÙĩÙĨÚ¯ Ø§ÙħÛĮ
ÙĦ ÙĪÙħ
Ġcontro l
ÚĨ Ø±Ø§
ĠØ¨Ø± Ø±Ø³ÛĮ
Ġf ut
ĠØ§ÛĮØ³Øª Ø§Ø¯Ùĩ
ĠÚ©ÙĦ Ùħ
et work
Ġle vel
Ġt est
Ġex ist
ĠØ§Ø± Ø²Ø´
st er
b o
Ø´ ÙĪÙĨ
Ġsay ing
Ġf ur
ĠØªÙĪ Ø¶ÛĮ
ĠâĻ «
ĠØ´ ÛĮØ±
Ġg round
Ġlo st
ĠØ¨Ø± Ø®
ÙģØ§ Ø¹
ĠM iss
ĠØ¯Ùĩ ÛĮÙħ
Ø§Ø¯ ÙĦ
Ġinclud ing
Ø§Ø² Ø¯
Ġper form
ĠØ´ÙĩØ± Ø³ØªØ§ÙĨ
ĠØ¨ ÙĨØ¯ÛĮ
ĠÙĦ Ø°
i us
ĠÚ¯Ø°Ø§Ø´Øª Ùĩ
ÙĤ ÛĮÙħ
Ġde ep
Ø²Ø§Ø± Ø´
Ġli ving
ĠÙĪ ÙĦ
Ġpo or
ÙĩÙħ ÚĨÙĨÛĮÙĨ
ĠØ§Øµ ÙĦØ§
y ou
ĠØ²Ø¯ ÙĨ
it ary
Ġv iew
ÙĦ ÙĨØ¯
ĠØ¨Ø± ÙĪØ¯
ĠÚ¯Ø±Ø¯ Ø¯
an ces
Ġpro ject
Ú¯ÛĮ Ø±Ø¯
Ġc ult
ut es
Ú¯ ÙĪÙĨ
ĠØ³ Ú©
ĠØ®ÛĮ Ø§Ø¨Ø§ÙĨ
Ø§ÙĤ ÙĦ
ĠT r
Ġpro p
ĠØ¯ÛĮ ÙĪØ§Ø±
ĠÚ© Ø¯Ø§Ùħ
ĠÙĨØ§ Ú¯ÙĩØ§ÙĨ
Ġst ay
How ever
r ing
Ġcan not
ent al
pt ion
Ġh on
w ith
ĠØ¯ Ø§Ùħ
ĠG e
N A
ĠØ¨Ú¯Ø° Ø§Ø±
ĠØ¹ Ú©Ø³
ĠB l
fic ult
ĠØ´ÙĪ ÙĩØ±
ĠØ¢Ø® Ø±
ĠØ¢ÙħÙĪØ² Ø´
ĠÙģØ± Øµ
ÙĪ Ø§ÙĦ
ĠS y
ĠØ¹ Ø¯
ĠÙĨÙģ Ø³
ĠÙħØ· Ùħ
ĠØ§Ø±ÙĪ Ù¾Ø§
Ø¨ Ø§ÛĮØ¯
Ġlong er
ĠØ¨Ø¯Ùĩ Ø¯
Ġsudden ly
ĠÙħØªÙģ Ø§ÙĪØª
au ght
Ġdif ficult
ĠÙĦ Ùĩ
I S
Øª ÙĪØ±
Ġit self
Ø® ØªÛĮ
for d
Ù İ
Ġto wards
ĠØ¹Ùħ ÙĦÛĮ
ĠC ount
Ġ1 7
ĠØ® Ø´Ùħ
ĠØ¯ Ø¹
Ġhist ory
c um
s y
en n
ĠÚ© ÙĢ
ĠØ¯Ø§Ø¯ Ùħ
ĠØ¨Ø±Ú¯ Ø´Øª
ĠÙ¾ Ø§Ú©
ÙĪØ² ÛĮ
ĠÙĨ Ú¯Ø±ÛĮ
i od
os p
ĠØ± ÙĨØ¬
Ùģ ÙĤØ·
Ġar m
Ġan g
ĠO r
ĠØ¨ Ø±Ø¯Ùĩ
ĠØ´Ø¯ Øª
so ci
ĠØ±Ø³ ÛĮØ¯Ùĩ
ĠÚĺ ÙĪ
ĠÙĪ Ø¨
Ġl ab
Ġb as
ÙĬ Ø¯
m b
Ġblo od
ur g
ĠÙħØ³Ø¦ ÙĦÙĩ
Ġw atch
Ġsomet imes
2 00
ĠØ§ÙĨÚ¯ ÛĮØ²
ĠE d
Ġl a
ĠÙ¾ Ø§Ø¯
Ø§Ø¨ Ø¹
ĠÙĨ Ú©ÙĨ
Ġ19 4
Ġfe et
ĠÛ ³Û
ĠÙħØ´Ø§Ùĩ Ø¯Ùĩ
our n
Ġp ay
ĠÙĩ ÙĪØ´
ĠØ§ÛĮ Ø´Ø§ÙĨ
ĠØµ ÙĪØ±
Ġpass ed
Ġmaj or
ud e
Ġfeel ing
ĠEng lish
ĠÙħ ÙĩØ±
c ul
ÙĤ Ùģ
Ġm ot
Ġp ie
ĠØ®ÙĪØ§Ùĩ ÛĮÙħ
ĠØ³ Ø§Ø¨
ĠØµ ÙĨ
ĠÚĨ ÛĮÙĨ
Ġse lf
ĠÙĪØ³ÛĮ ÙĦÙĩ
ĠÙĤ Ø§Ø¯Ø±
ĠÙħØ±Ø¯ ÛĮ
Ġbr ing
M r
Ġex c
ĠÙħØ± Ú©Ø²
the y
Ġans wer
unic ip
ĠØªÙĪØ¶ÛĮ ØŃ
Ġhapp ened
Ġrem ember
ĠØ¨Ø±Ø§ÛĮ Ø´
Ġmonth s
ĠÙģ ÛĮ
Ġapp l
ĠØ§ÙĨ Ø³
ÙĬ Ùħ
ĠÛ ¶
Ø³ ÛĮÙħ
ĠM an
Ġpolit ical
tern al
Ø®ÛĮ Øµ
Ø±Ùģ ÛĮ
ĠØ·ÙĪÙĦ Ø§ÙĨÛĮ
ĠÛ±Û ¸Û
ĠØ¬ÙħÙĩ ÙĪØ±ÛĮ
Ġw in
ĠØ§Ø¬ Ø±Ø§
ĠØªÙĪ ØµÛĮ
Ġsystem s
ir t
ĠJ ohn
ĠØ¢ÙħØ±ÛĮÚ© Ø§ÛĮÛĮ
ĠØ± Ø¦ÛĮØ³
Ġha ir
Øµ ÙĪÙĦ
ĠÙ¾Ø±ÙĪ ÚĺÙĩ
ĠØ¹Ø² ÛĮØ²
res ent
Ġfut ure
ĠØ¨Ú¯ÙĪ ÛĮÙħ
Ġact iv
Ġs ense
ur s
ĠØªØ£ Ø«ÛĮØ±
ĠØ± Ø®
Ġh ur
ĠØ±ÙģØª ÙĨØ¯
ĠY ork
ĠÙģ Ø§ØµÙĦÙĩ
Ġl im
ĠØŃØ³ Ø§Ø¨
Ø« ÛĮ
ri e
ĠÚ© Ø§Øª
l ine
ĠÙħØŃÛĮ Ø·
ĠØ³Ø±ÛĮ Ø¹
t t
ĠØ§ ÙĬÙĨ
ĠC ar
ĠP ol
Ġso ld
ĠØªØ¬Ø± Ø¨Ùĩ
Ø² ÙħÛĮÙĨ
Ġg lo
ĠÙħ Ø¯ÛĮ
ĠÚĨ ÙĤØ¯Ø±
id ence
a f
ĠÙħØª ÙĨ
Ġtalk ing
il ar
Ùħ Ø³
Ġhour s
Ø®ÙĪ Ø§Ø³Øª
Ġfo od
ĠÙĨÙħ ÙĪÙĨÙĩ
ĠÙħ ÙĦØ§
ĠT e
ĠÙĪØ¶ Ø¹
al y
Ùģ Ø¸
ĠPh il
Ġd iv
ĠØ¯ÛĮØ¯ Ùħ
ĠÙĤ ÙĦ
p or
ĠÚ¯ Ùħ
Ġro ad
ĠÚ¯ Ø§ÙĩÛĮ
Ġa ut
b it
itt en
ĠA d
ap an
Ùĩ Ø±ÛĮ
Ġpro per
Ùħ Ø§Ø¯
ĠÙħ Ø§ÙĩÛĮ
Ġc ut
ĠÙħØŃ Ø¯ÙĪØ¯
ĠÙģØ´ Ø§Ø±
ci ous
ĠÚ¯ ÙĨ
Ġr ad
Ġcon c
ĠG en
Ġf ig
ĠC an
ĠÚĨÙĨØ¯ ÛĮÙĨ
b and
ĠØ® ÙĨØ¯Ùĩ
ab ility
Ġfoll owing
Ġgr ow
ĠØ¨Ø¹ Ø¯ÛĮ
Øµ Ùĩ
ĠØŃØ¶ Ø§Ø±
ĠB rit
Ø³ Ø¨
ou ght
Ġb i
ĠÙĩÙĨ Ø±
Ġ1 2
ci ally
f er
ĠM in
ĠÙħÛĮÙĦ Ø§Ø¯ÛĮ
Ġ #
Ġty p
ĠØ¢ ÙĩÙĨÚ¯
ĠÙĨÙĩØ§ÛĮ Øª
Ø§Ø¯ Ø§
Ø§Ø´ ÙĤ
Ġm ass
em pt
Ġte am
ĠM e
ĠN ational
ĠÙ¾ÛĮØ´ÙĨÙĩ Ø§Ø¯
ĠØ¯ Ú©ØªØ±
ĠØ®ÙĪØ± Ø´ÛĮØ¯
il le
ĠØ¹ÙĪ Ø¶
ĠÙĪ ÛĮØ±
. ,
il ed
Ġpr act
ĠØ´Ø±Ø§ÛĮ Ø·
ĠØ§ ÙĪØ±
Ú¯ ÛĮÙĨ
ĠØ±Ø§Ø¨Ø· Ùĩ
Ġc ost
Ġab ove
bl ed
ĠG o
Ġs qu
Ġd ream
ĠØ§Ø® ØªÛĮ
ĠÙħØ·Ø§ÙĦ Ø¹Ùĩ
ĠP l
ĠÙĨ Ø¨Ø§
ĠÙ¾Ø§ÛĮ Ùĩ
ĠØ¯ Ùģ
ĠØ§ÛĮÙĨ ØªØ±
Ġt ried
Ġget ting
ĠØ¨ Ù¾
Ġ1 6
op he
ÙĩÙħ ÛĮÙĨ
a pp
ĠÙħ Ø¤
the n
y n
ĠØ¯Ø± ÙħØ§ÙĨ
an a
ĠØ§Ø´Øª Ø¨Ø§Ùĩ
" )
Ġg ent
ĠØ¯ÙĪØ± Ø§ÙĨ
ĠÚ¯Ø±Ø¯ ÛĮØ¯
ĠÙĩ Ø²ÛĮÙĨÙĩ
ĠØ® Ùħ
ĠÙĨØ¯Ø§Ø± Ùħ
ĠØ¨Ø® Ø´ÛĮ
ÙĩØ± Ø³Øª
ĠØ§Ø·ÙĦØ§ Ø¹
ĠØªØ´ Ø®ÛĮØµ
ĠØ®ÙĪØ§Ùĩ ÛĮØ¯
ĠÙĨØ¸ Ø§ÙħÛĮ
ĠØ§Ø³Øª Ø®
av ing
ĠØ¨Ø± ÛĮØª
Ø§Ùĩ Ùħ
Ġ vers
Ġ ident
ĠÙħØ³ ÛĮØ±
ĠØ¯ ÛĮØ±
o ver
Ġbuild ing
ĠØ§ Ø«
A r
Ġb ased
ĠÙħ Ú©Ø§ÙĨ
Ġco ld
ĠØµÙĨØ¯ ÙĦÛĮ
ØŃ Ø§ÙĦÛĮ
Ġs our
Ġg ame
ĠØ¨ØŃ Ø«
ĠÙħØ±Ø¯ Ø§ÙĨ
ĠØª ÙĪØ±
Ġp ict
Ġn on
ĠØ¢ Ø¨ÛĮ
ĠÙ¾ ÙĪØ³Øª
Ġsle ep
Ú¯ ÙĨ
ll ed
ÙĦ Ø§ÙĦ
ĠÙĩ Ø±ÛĮ
Ġt aking
ĠØ¬ Ø±
ĠÙħ Ùģ
ĠC ent
ĠÙħÙĤ Ø¯Ø§Ø±
ĠIn ternational
Ø§Ø± Ø§ÙĨ
Ø§ ÙĪÙĦ
Ø´ Ø¨
ĠØ¨Ø¯ Ø§ÙĨ
ĠS outh
Ġent ire
Ġcent ury
Ġa uth
ĠØ¢Ø² Ø§Ø¯ÛĮ
ĠÙ¾ ÙĨÙĩ
Ø§ÛĮ Ùħ
ĠÚ¯ Ø²Ø§Ø±Ø´
ÙĪØ§ÙĨ Ùĩ
Ġrel ations
Ġd est
Ġ19 5
ĠØºØ° Ø§
ĠÙĪÛĮ ÚĺÙĩ
g est
ĠÛ± Û°
ive ly
Ø¬ ÙĪÛĮ
Ø· Ø§ÙĨ
Ġ19 3
Ġp ost
ĠÙĤØ¯ ÛĮÙħÛĮ
ĠU S
Ġt en
Úĺ ÙĨ
ĠØ¨Ø§Ø´ ÛĮÙħ
ĠØ³Ø±Ø§ Ø³Ø±
Ġst at
ĠØª ÛĮ
ĠØ¨Ø§Ø²Ú¯ Ø´Øª
Ġl ate
her n
ÙĪÙĦ Ø¯
ond on
ĠØ²ÛĮ Ø¨Ø§
Ġrec ogn
g or
ĠØ¨ Ú¯ÛĮØ±Ø¯
ĠÙĨÚ¯Ø±ÛĮ Ø³Øª
ĠÙĩÙħ Ø³Ø±
Ø¨ Ø§Ø¨
ĠØ¢ÙĦ ÙħØ§ÙĨ
Øµ ÛĮÙĦ
Ġsu per
Ø§Ø± Ø´
Ġp ort
ater ial
Ġper haps
ĠØ¯Ø³Øª Ø´
Ġen v
te red
ĠØ¢Ùĩ Ø³ØªÙĩ
Ġst ru
ĠÚĨ Ù¾
ĠØ±Ø³ ÙħÛĮ
g es
ĠÙĨØ³ Ø®Ùĩ
Ø§ Ø¸
ĠÙħ Ø§ÛĮ
ĠØ¨ÙĨ Ø§Ø¨Ø±Ø§ÛĮÙĨ
Ġm is
ĠÚ©Ø´ÙĪØ± ÙĩØ§ÛĮ
ĠÙĨÙĤ Ø´Ùĩ
ÛĮÙĦÛĮ Ù¾
ĠØ¨ ÙĤÛĮÙĩ
Ø³Øª Ú¯ÛĮ
ivid ual
Ġis s
Ġdoes n
Ġeven ing
ĠØ® ÙĨØ¯
Ġd ro
ĠØ® ÙĦØ§
ĠØ§Ø³Øª Ø§ÙĨ
ĠØ§ÙĤØªØµ Ø§Ø¯ÛĮ
ĠÙħØ¹ ÙĨ
Ġp ubl
Ġor d
Ġbre ak
ĠH arry
ĠÙģØ± Ø§ÙħÙĪØ´
ĠÙħÙĪÙģ ÙĤ
Ġf ail
Ġd raw
Ġde al
ĠÙĩØ³Øª ÛĮØ¯
al es
ĠÙħ Ø®ØµÙĪØµ
ĠÙģØ± Ø§ÙĨØ³
ĠØŃÛĮ ÙĪØ§ÙĨ
Ġth ird
Ġed uc
B N
B y
ĠØ® ÛĮØ±Ùĩ
ĠØµÙģ ØŃÙĩ
ent y
Ġar ri
ĠØŃ ÙħÙĦ
ĠØ¸Ø§Ùĩ Ø±
re l
ĠÚ©Ø§Ø± ÙĩØ§ÛĮ
Ġwr ong
ĠÙħØ³ Ø§
Ġh us
ĠÚ¯Ø±ÙģØª ÙĨ
Ġde ar
Ġh ig
wh ich
Ġstud y
Ġhow ever
ĠØ´Ø§Ùĩ Ø²Ø§Ø¯Ùĩ
ĠØ³Ø±Ùħ Ø§ÛĮÙĩ
ĠØ§ÛĮ Øª
u ge
ne y
ÙĤÛĮ Øª
ĠÙĨÚ¯Ø§Ùĩ ÛĮ
Ġem p
ĠØ´ ÙĪÙħ
ĠØ±ÙĪ Ø³ÛĮ
iv il
ĠÙħ Ø§Ø±ÛĮ
ĠØ¨ ÙĨÛĮ
ĠØ³ Ø§ÙĨ
ĠÙģ ÙĪÙĤ
ĠÙĦØ¨ Ø®ÙĨØ¯
ĠØ¨ ÛĮØ¯
Ġsub ject
Ġcom es
ĠM y
ĠØŃ ÙģØ¸
ĠÙħØŃ ÙĦÛĮ
Ġper iod
Ø¢ÙĨ ÙĩØ§
he ad
1 0
Ġmin utes
² Û
Ø¬ Ùħ
Ø¨ Ø³ÛĮ
ĠÙĤ ÛĮÙħ
ĠÚ¯ ÙĪÛĮÛĮ
Ġmo ved
ĠÚ©Ø´ Ùģ
ĠT ur
Ø· Ø±
ĠØ¨ ÙĦÙĩ
Ġb ur
ĠÚ©ÙĪØ¯ Ú©Ø§ÙĨ
Ø§Ø± ÙĩØ§ÛĮ
ĠØ§Ø´ Ú©
B e
Ø¯ Ø³Øª
Ġn etwork
i ally
Ġhapp y
Ġ z
Ġmet h
Ø³ÛĮ Ø³
ĠÙĨØ®ÙĪØ§Ùĩ Ø¯
Ġm ach
ĠØ¯Ø³Øª Ú¯Ø§Ùĩ
itt ed
Ø§ÛĮ ÛĮØ¯
Ø§Ùģ Ø¸
ĠØ®ÙĪØ´ ØŃØ§ÙĦ
Ġmod el
Ø¶ Ø§
ĠØŃ ÙĪ
Ġnat ural
Ø§Ø¦ ÙĦ
ĠÙħ ÙĢ
Ġsec ret
Ġc ry
i pp
if ul
Ú©Øª Ùĩ
Ù¾ ÛĮÙħ
Ú©Øª Ø±ÛĮ
Ø² ÙĪ
ĠÙĨØ² Ø¯
ĠJ apan
Ġb reat
ĠØ´ÙĨØ§ Ø³ÛĮ
ĠØ¯Ø§Ø´Øª ÙĨ
ĠØ¹Ø¬ÛĮ Ø¨
Ġpre t
Ø§ÙĨÛĮ Ø§ÛĮÛĮ
ĠØŃÙħ Ø§ÛĮØª
Ġare a
ĠÙ¾ Ùĩ
Ġf ight
Ùģ ÙĦ
ĠØ§ÙĪ ÙĦÛĮÙĩ
ĠØ§ÙĦØ¹ Ø§Ø¯Ùĩ
ĠÙĨ Ø§Ø¨
ĠØ¬ Ø§Ø¯Ùĩ
ĠØ´ ÛĮÙħÛĮ
Ø³Øª Ø±
ÙĦÛĮ Ùħ
Ġrese arch
Øª Ùĩ
Ġt reat
ĠP et
Ġt rou
ĠA ust
Ġex act
Ġinv ol
Ġchar acter
Ġins ide
ĠØ¯ÙĪ Ø´
ĠØ²ÛĮ Ø¨
ĠØ·Ø¨ ÙĤÙĩ
v al
Ġpr in
Ø§ÙĨ Ø¬Ø§Ùħ
ĠØ¬ÙĨ ÙĪØ¨
ĠØ¨ ÙħØ§ÙĨ
ar th
Ø§Ø¯ Ú¯ÛĮ
ĠÛ±Û¹Û ¸Û
Ġcur rent
p ly
Ġl ink
Ġind ividual
ĠÙ¾ÛĮ Ø§Ø¯Ùĩ
ĠØ²ÛĮ Ø³Øª
Ġan t
Ġke pt
ĠÛ ¸
Ġwind ow
ĠG u
ĠØ¬ÙĨ ÙĪØ¨ÛĮ
Ġsl ow
ĠØ§Ùĩ ÙħÛĮØª
L et
ĠÚ© Ø´Øª
ĠØ± Ø´ØªÙĩ
Ġgent le
Ġe ight
p ri
Ġout side
Ġacc ount
ĠØ§Ø¶ Ø§ÙģÙĩ
ĠÙħØµ Ø±Ùģ
id ge
ĠØ±ÙĪØ² ÙĨØ§ÙħÙĩ
unicip ality
ĠÚ©ÙĪ Ùĩ
ĠØ¨Ø§ÙĨ Ú©
Ġs ens
ar r
ĠØ² ÙĨÛĮ
ĠÙĦ Ø±Ø²
ĠÚ©Ø§Ùħ Ù¾ÛĮ
ec ause
Ġm ult
ĠØ¨Ø± Ø¬
ĠÙħØŃ ØµÙĪÙĦ
Ġt ou
act ion
Ġad m
ĠØ§Ø®ØªÛĮ Ø§Ø±
Ġd aughter
Ø¨Ø± Ø§ÙĨ
ĠØ¨ÙĪØ¯ ÛĮÙħ
ur ity
Ġrec ord
Øª ØŃ
Ġl ed
ĠØ¯Ø±Ø¢ ÙħØ¯
Ġres pect
ĠÙħØ± ØŃ
Ġd ied
ĠØ¬Ø§ÛĮ Ø²Ùĩ
Ġv iol
ĠÙ¾Ø± Ø³
ĠÙĨØ¨ Ø§ÛĮØ¯
ĠØª Ø±Ø§
ol s
Ġen c
Ġm akes
is ing
Ġe vent
ĠÙĩ Ø´Øª
w are
Ġ3 0
Ġear th
Ġj ob
I s
Ġh ot
ĠØ¹ ÙħÛĮ
um p
ÙĨØ¯ Ú¯ÛĮ
Ġm aterial
ĠØ¯ÙĪ Ø³ØªØ§ÙĨ
led ge
in o
ĠØ±Ø§ Ø¬Ø¹
Ġpri v
ĠØ¬ Ø°
ĠÚ¯ÙģØª ÙĨØ¯
Ġprodu ct
Ġvill age
Ú¯Ø± Ø§ÙĨ
Ġst ruct
Ø² ÙĦ
ĠØ¬ÙĨ Ø³ÛĮ
ĠÙħØ³Øª ÙĤÛĮÙħ
ad es
ĠÙħ ØªØ±
Ø¯ Ø±ÛĮ
Ø´ ÙĪ
ce ed
ĠÚ© ÙĪØ´
Ġhus band
am m
ĠØ§ØŃ ØªÛĮ
av es
u le
Ø® Ø§ÙĨÙħ
ĠÙģ ÙĪØª
ĠØ§Ø³ ÙĦ
ĠÙĨ Øª
Ġ er
v an
ĠÙĨÛĮÙħ Ùĩ
k en
ĠØ¹ Ø§Ø´ÙĤ
Ġne cess
Ġs we
ĠØ¨Ø¯ Ø³Øª
Ø³ ÙĪ
Ġ1 3
Ġsur pr
ĠÙħØ± Ú©
ĠÚ© Ø¯
ĠÙħØª Ø¹
ĠÚĨÛĮØ² ÙĩØ§ÛĮÛĮ
Ġwho se
ĠCh ar
ĠØ§ÙĨØ³ Ø§ÙĨÛĮ
b t
ĠØ³ÙĪ Ø§ÙĦ
Ġtechn ology
ur ch
ĠR ep
Ø³Øª Ø§ÙĨÛĮ
ĠØ® Ø§ÙĦÛĮ
ĠA ll
Ġar ms
ĠÚĺ Ø§Ù¾
Ġyour self
id ing
ĠA m
ĠØ§ÙĦ Ø§ÙĨ
Ġ1 1
ĠF e
â Ģ
ÙĪØ± Ø§
fe rence
st it
Ġb orn
ĠÙĦ Ø§Øª
Ġv ol
ĠE l
at ter
pl es
Ġpop ulation
li ke
ĠÙĨØ¬ Ø§Øª
Ã ³
ĠÙħ ÙĬ
ĠØ¬ Ø¯ÛĮ
Ø² Ø¨
ĠÙħØ¯ ØªÛĮ
ĠA b
Ġex cept
ren ces
ĠÙĤ ÛĮØ§
Ø¦ ÛĮÙĨ
ĠS w
Ġph ot
ĠÙ ª
Ġrel ig
Ġ à
ĠØ´ Ú¯ÙģØª
Ġappe ar
ĠØ¨ Ùħ
ĠØ¨ Ø®ÙĪØ§Ùĩ
Ġlet ter
att le
ĠÙĨÛĮØ³Øª ÙĨØ¯
med i
Ġcon vers
ĠÙħØ³ Ø§Ø¨
ĠØ¨ÛĮ Ø³Øª
od es
Ø§Ø± Ú©
ĠØ§Ùħ ÙĨÛĮ
Ġey e
ÙĪ ØªØ±
Ġprot ect
ĠØ· Ø±ØŃ
Ġus ually
ĠÙħ Ø±ÛĮ
Ġli ves
Ġpret ty
ĠØ®Ø± ÛĮØ¯
ĠØ¹Ø¨ Ø§Ø±Øª
ĠA lex
Ġm er
Ġ( "
Ġsim ple
ell ig
ĠØ¹ÙĦ Øª
ĠØ¹ÙĦ ÙħÛĮ
ri age
ĠÚ¯Ø° Ø±
ĠØ§ÛĮØ³Øª Ø§Ø¯
Ġm ess
ap t
Ġwr itten
ĠØ§ Ú©
in ary
Ġs n
ĠØ±ÙĪ Ø³Øª
in ing
g s
ide red
Ġdet er
he l
Ġf a
ĠÛĮ ÙĪÙĨ
ĠØ¹ ÛĮÙĨ
ant ly
ĠØª Ú©Ø±
Ġc ross
Ġre du
Ġ i
ĠÙģØ±Ø§ÙĨØ³ ÙĪÛĮ
Ġp ress
is hing
Ġcom b
re st
om s
il i
ĠÙģØ± Ø§Ø±
ĠÙĨØ´ Ø¯
ĠM ay
Ġmeth od
Ġrep resent
ĠÙħÙĨØª Ø¸Ø±
Ġsci ent
es e
ĠØ§Ø± ØªØ´
ĠÙħØ±Ø§ ÙĤ
r ation
Ø± ÙĪÛĮ
Ġb ene
Ø§Ø¯ ÙĪ
ĠØ´Ùħ Ø§ÙĦ
ĠÙħ Ø¨Ø§Ø±
Ġb ank
ĠØ§Ùģ Ø³
ĠØ¨Ø± ÙĤ
Ġte le
ĠÙģØ±Øµ Øª
Ġm or
ent ial
ĠÙĨÙĪ Ø¹ÛĮ
Ġc orn
ĠÙħÛĮØ² Ø§ÙĨ
} }
Ġc ou
E very
Ġg ra
op s
ÙĨÛĮ Ú©
Ġpos ition
m p
ĠØ¨ Ùģ
ÙĪØ± Ú©
ĠØ§Ùħ Ø±
ĠØ´ Ø§Ùħ
Ġac cept
Ġdec ided
ĠJ u
Ġcomput er
v in
ĠÙĤØ¨ ÙĦØ§
w hen
ĠØ´ÙĨ ÛĮØ¯Ùĩ
Ġl augh
Øª Ø³
ĠÙĤØ· Ø¹
Ġrece ived
ĠÙħÙĦØ§ ÙĤØ§Øª
Ø¶ÛĮ Ùĩ
l ight
oc r
Ġprob ably
Ġ1 4
ĠØ³ÛĮØ§ Ø³Øª
Ø¨ ÙĦÙĩ
Ġeng ine
ĠØ¨Ú¯ÙĪ ÛĮØ¯
ĠØ¹Ø± Ø¶
ist ic
ĠÙĤÛĮØ§ ÙģÙĩ
Ġinst ead
pe cially
ÙĪØ±ÛĮ Ùĩ
om an
im ate
g ot
Ġauth or
ĠÚ¯ÙĪØ´ Ùĩ
ÙĨ ØªÛĮ
ĠØ§ÙĨÚ¯ ÙĦ
ĠØ¢ ÙħÛĮØ²
Ġwas n
olog ical
Ø§ÛĮ ÙĤ
Ġar g
Ġar ch
ĠK ing
ĠÙĨ ØŃ
Ġsm ile
Ġsome one
ĠÛĮ ÛĮ
ĠØª ÙĩÛĮ
ĠØ§ Ú©Øª
ĠÛ±Û¹Û ·Û
Ġtr uth
ĠÚ©ÙĪØ¯ Ú©
ĠØ¨Ø± Ø¢
ĠL ondon
Ġwalk ed
Ø§Ø± Ùħ
ĠÙħÙĨ Ø§Ø¨Ø¹
ĠÙĨØ§Ø±Ø§ØŃ Øª
m ing
Ø³ Ú©
ĠØ¢ ÙĦØ¨
ĠØ§ÙĦ Ú¯
Ġinv est
ĠØªÙħ Ø§ÙħÛĮ
Ġn or
Ġ ÙĬ
ĠØ´ÙĨ Ø§Ø®Øª
Ġsim ilar
B ecause
Ġcould n
ĠP e
ĠÙ¾Ø¯Ø± Ø´
ĠÙĨ ØªÙĪØ§ÙĨ
ĠÙ¾ÙĨÙĩ Ø§ÙĨ
Ġs ong
Ġspe cial
ĠÙĤ ØµØ¯
Ġn ature
ĠØ®ÙĪØ¯ Ø´Ø§ÙĨ
Ġhe av
ĠØ¨ØªÙĪØ§ÙĨ Ø¯
ĠÙĦØ° Øª
ĠÙĨ Ø±
Ġquick ly
Ġp aper
iv al
ĠØ« Ø§Ø¨Øª
ĠØ´Ø¯ ÛĮØ¯
h ow
ĠØ¯Ø± Ø¬Ùĩ
Ġso ciety
Ġp arent
ĠØ¨Ø§ Øº
Ø¨ Ø²
Ġmem bers
ĠN orth
ĠÚ© ÙĦØ§Ø³
ous ly
ide o
Ġsp ir
Ġmark et
ÙĩÙĨÚ¯ Ø§ÙħÛĮ
ĠØ³ Ø§ÛĮØ±
ĠØ¯Ø³Øª ÛĮ
Ġto t
ĠØ¯Ùĩ ÛĮØ¯
Ġop ened
ĠØ¹Ø¶ ÙĪ
ad a
Ġdevelop ment
lo y
ĠÙĩÛĮ Ø¬Ø§ÙĨ
Ġser ies
ĠØ¯ ÙĤØª
am ent
ove red
Û°Û° Û°
ÙĪÛĮ ÙĦ
ĠW ill
g o
Ùħ Ø´
Ġn ational
ĠØ¨Ø§ÛĮ Ø³Øª
ĠØ¨Ø§Ø² Ø§Ø±
ĠØ±ÙĪ ÙĨØ¯
ĠÙħØ¹ ÙĦÙĪÙħ
ĠØ®ÙĪØ§Ø³Øª Ùħ
ÙĨÚ¯ Ø§Ùĩ
Ġp ick
ĠÛ ·
ĠØ±ÙĤ Øµ
ØªÙĨ ÙĩØ§
Ġinf lu
her s
il ing
Ġfun ction
ĠØº Ø±ÛĮ
ĠØ³ Ø§ØŃ
ĠF or
Ġcons idered
Ø¯ ÛĮÙĨ
Ġthe ory
ÙĪÛĮ Ø²ÛĮ
Ġind ust
Ġbu ilt
ĠÙ¾Ø±ÙĪ Ø§Ø²
i ke
ĠÙĤ ÙĪÛĮ
ĠAr ab
Ġw ish
ĠÙħ ÙĪØ±
Ġf ill
Ġj o
Ġim m
Øº ÙĦ
ĠÚĨÛĮ Ø³Øª
Ø¨ ÛĮØ±
ĠØ³ÙĪ Ø§Ø±
ĠØ³Ø± Ø¨Ø§Ø²
ĠÙģØ¹ Ø§ÙĦ
Ġreturn ed
Ġc amp
Ġfor ward
ĠØ® Ø§ÙħÙĪØ´
ĠÚĨÛĮØ² ÙĩØ§
ĠØ´ÙĨ ÛĮØ¯
ĠÙ¾ÛĮÚĨ ÛĮØ¯Ùĩ
u z
Ġfor ce
un ch
ĠH er
Ġke y
ĠÙħÙĨ Ø§Ø³Ø¨
ÙĪØ² Ùĩ
iron ment
Ġm ist
Ú¯ Ø§ÙĨÙĩ
ÚĨ ÙĨØ§ÙĨ
Ġse x
if t
ĠØ§ÛĮØ§ÙĦ Øª
ĠÚ¯Ø³Øª Ø±Ø¯Ùĩ
ĠÚ© ÛĮÙĦ
ĠN o
Ø¦ ÙĪ
ĠI I
Ġsh ip
ang er
i res
l am
Ġc e
Ġdis e
ĠØ§ÙĨØªÙĤ Ø§ÙĦ
ĠÙģØ± Ùħ
He re
o e
Ø§Ùģ Ø¸Ùĩ
Ġloc al
o ot
ĠØ§Øª ØŃ
ĠØ¹ Ø¨ÙĪØ±
Ġserv ice
ĠØ±ÙĪØ² ÛĮ
Ġcre ated
± Û°
Ġadd ed
Ġ1 00
Ġper fect
f ace
Ú¯ ÙĦ
Ġy es
ĠÙħÙĪ Ø§Ø±Ø¯
Ġ201 0
Ġbegin ning
Ġsci ence
u ct
Ġp ot
Ġcomp an
ĠØ§Ø¹ Ø¶Ø§ÛĮ
Ġs oul
Ġchang ed
Ġc ried
Ø¯ ÙĨ
ĠAmeric a
ĠQ u
ĠÙħØ§Ø¯Ø± Ø´
Ġwond er
Ø§ÙĨÚ¯ ÙĦÛĮØ³ÛĮ
ĠØ§ØŃØªÙħØ§ÙĦ Ø§
ĠÙĨØ¸ Ø±ÛĮÙĩ
Ġw ide
Ø±Ø§ Ø³
Ġspec ies
ĠÙħØ·Ùħ Ø¦ÙĨ
Ġth r
ĠÙħØ® Ø§ÙĦ
Ù¾ÛĮ Ø´
ĠÙģØ± Ø§ÙĩÙħ
Ġ ut
Ġmem ory
ĠØ§Ø¨Øª Ø¯Ø§
v iew
Ġgr and
ĠØ¯Ø± Ø³
ĠØ¯ÙĨÛĮ Ø§ÛĮ
y ond
ĠØ± Ø§ÙĨ
ĠÚ© Ø´ØªÙĩ
ĠØ± ÙĩØ§
ĠØ¨ Ø§Ø±ÛĮ
Ġs us
en ces
Ø¨ÛĮ ÙĨØ¯
gg est
Ġcol le
ĠÙħØ±ØŃ ÙĦÙĩ
ĠÙĪ Ø§ØŃ
Øº Ø§ÙĦ
Ġs itting
ĠÚ©Ø³ Ø¨
ĠØ¯ ÛĮÙĨ
Ù¾ Ùĩ
Ġg reen
Ġtr ad
ĠØ³ Ú¯
ĠI S
ĠØ§Ø³Øª Ø§ÙĨØ¯
Ø¯Ùĩ Ø§ÛĮ
Û Ģ
Ġimp ro
D on
ĠØ§ÙĨ Ø¬
ÙĨØ¯ ÙĨ
ĠCount y
Ġr an
ĠØ¹ Ùĩ
Ġloc ated
Ø±Ø§ Ú©
h ood
ĠÙ¾Ø´Øª ÛĮ
ĠÙĨÙħ Ø§ÛĮØ¯
ĠÙħ Ø´Øª
Ø§ØŃ Ø¨
ÙħÛĮÙĨ Ø§ÙĨ
ĠÙħÙĨ Ø¬Ø±
Ġcomm and
ag n
ĠØ®ÙĪØ§Ùĩ ÛĮ
Ġmil itary
Ø§Ø±Øª ÛĮÙĨ
Ġpr ison
ĠØ®ØµÙĪØµ ÛĮ
Ġs ir
igh b
Ùģ Ø³
ĠØ³ ÛĮÙĨÙĩ
ur d
ĠØ§ÙĨÚ¯ÙĦ Ø³ØªØ§ÙĨ
Ġcre ate
ĠØªØ±Ú©ÛĮ Ø¨
ĠÛĮ Ø§Ø¨Ø¯
Ø¹ ØªÛĮ
ĠØ¨Ø² ÙĨ
Ø± Ø§Ø±
ĠØ§ Ú¯Ùĩ
Ø§Øµ ÙĦ
Ġbook s
Ġprof ess
1 1
ĠØª ÛĮØ±
ÚĨ ÛĮØ²ÛĮ
ĠÙħ Ø§Ø¯
Ġatt ention
ĠØ³Ø¨ Ø²
ĠÚĨ ÙĪØ¨
ĠÚ©ÙĪÚĨ Ú©ÛĮ
c us
ĠÚ© ÙĪØ±
Ġm ount
ĠØ¯ ÙģØª
ĠØ¢Ø³ ÙħØ§ÙĨ
ĠÙħ Ø´ØªØ±
b on
ict ion
ĠØ« Ø±ÙĪ
ĠØ¢ ÙģØ±ÛĮ
Ġm iss
Ġsu ggest
Ġacc ess
ĠØ³Øª Ø§Ø±Ùĩ
ĠÚ¯ÙĪÛĮ ÙĨØ¯
um e
Ġstran ge
Ġ ir
Ġd ue
ØŃÛĮ Ùĩ
ĠÙĪ Ø¸
ĠØªÚ©Ø± Ø§Ø±
ad d
ĠØ§ÙĨÚ¯ Ø´Øª
Ġfoll owed
ÙħØ« ÙĦ
Ġwork ed
Ø¸Ùĩ Ø§Ø±
ĠÙĤÛĮÙħ Øª
ĠØ§ ÙĦÛĮ
o x
Ġre ady
Ġse nd
ĠØ§Ø® ÙĦØ§
Ø² Ø§
ĠÛ±Û µ
i am
r id
u k
Ä ±
Ġfur ther
ĠÚ©ÙĦ Ø§Ùĩ
Ġest ab
ĠPar is
an ced
Ġdo ll
ĠÛ±Û ³Û
ĠØ¨Ø¨ÛĮÙĨ Ùħ
ar a
im ent
ĠÙħØ¹ Ø±ÙģÛĮ
Ø« Ø§Ø±
Ġco ll
Ġgo ld
ĠGe or
ĠØªÙĪØ§ÙĨ Ø§ÛĮÛĮ
ĠØªÙĦ ÙĪÛĮØ²ÛĮ
ra ft
ĠÙĩÙĪØ§ Ù¾ÛĮÙħ
ĠØ¨ Ø¯ÛĮ
Ġw ays
Ġst ri
Ġli ved
ĠØ§ÙĨØ¯ Ú©ÛĮ
Ġb ott
Ġte ac
ĠÙĨØ¯Ø§Ø± ÙĨØ¯
ĠØ² ØŃ
ĠÙħØ±Ø¯ Ùĩ
Ùħ ÙĪÙĨ
ĠÙħÙĨ Ø§Ø·
Ġw ood
om en
ĠØ§ÙĤ Ø¯Ø§Ùħ
Ġf ing
ĠH ar
Ø¹ÛĮ ÛĮÙĨ
ĠØª Ø®Øª
ĠF l
ck s
ĠÙħÙĪÙģ ÙĤÛĮØª
ĠØª ÙĨØ¯
ĠØŃ Ø²Ø¨
Ġpart y
Ġcap t
Ġocc ur
g ing
Ø² Ø§ÙĨ
Ġd om
ĠÙĤ ÙĪØ§ÙĨ
ĠP art
ear s
Ġwr ote
Ġdevelop ed
es tern
ĠØ´Ùħ Ø§ÙĦÛĮ
ĠÙ¾ Ø³Øª
ĠØ¨Ø±Ø® Ø§Ø³Øª
ĠØ¢ ÙħÛĮ
en cy
Ġ x
us hed
ist an
ru ction
Øµ Ùģ
ĠÙĦ Øª
ĠÚ¯ÛĮØ± ÙĨØ¯
E D
Ġt ree
Ġe ff
Ø®ÙĪ Ø§Ø¨
ĠØ±ÙģØª Ùħ
Ġqu iet
ĠØ¯ ÚĨØ§Ø±
ĠÚ© Ø§Øº
ĠØ±Ø§ ØŃØª
Th ank
ĠØ± ÙĪØ§ÙĨ
ĠØ´ Ø§ÙĨÙĩ
Ġse par
ĠÚĨÛĮØ² ÙĩØ§ÛĮ
ĠØ§ØŃ ØªØ±
ĠØ¯Ùĩ ÙĨØ¯Ùĩ
ĠØ®Ø§Øµ ÛĮ
ĠØ³Ø¨ Ú©
et ic
ĠÛ ¹
Ġre pe
ĠÙĦØ§Øª ÛĮÙĨ
Û±Û ¹Û
ĠFran ce
Ġsit u
art ment
ĠØµØŃ ÙĨÙĩ
Ġcom pl
ci ent
it ude
Ġse ven
Ġaf f
Ġexper ience
Ã ¼
ĠÚ¯ Ø´
Ù¾ Ø¯Ø±
ÙĦÛĮ Øª
Ġf av
Øµ Ø¯Ø§ÛĮ
ĠÙĪ Ø§Ø±
Ġsu ff
Ġcell s
Ġc ause
ĠBrit ish
i que
ĠØ¢ Ø¯
Ġbeh av
Ø´ÙĨ Ø§Ø³
Ġbeaut iful
Ø¯ Ø³
ĠÙħ Ø§Ø¯Ùĩ
re me
ĠÚ¯Ø±ÙģØª ÙĨØ¯
Ø® Ø±
ĠØ¬ÙĦ ÙĪÛĮ
ra id
ĠØ¨Ø±ÛĮØª Ø§ÙĨÛĮØ§
ĠÙĨØ¯Ø§Ø´Øª Ùĩ
Ø§ ÙģØª
Ġche m
Ġp ull
ĠØ®ÙĪ Ø±Ø¯Ùĩ
Ġval ue
b all
k ed
ra z
Ġstop ped
om b
Ġobs er
ĠØ§ Ø¸ÙĩØ§Ø±
ĠÙħÙĪ Ø¬Ø¨
Ġcons ider
Ġsim ply
Ġint rodu
ing ly
Ġcr it
y l
Ġty pe
ĠØ· ÙĦ
F rom
ĠÙħ Ø¨Øª
Ø§Ø±ÛĮ Ø³
ĠØ¢ÙħØ¯ ÙĨØ¯
Ġt ill
Ġf ast
ĠM arch
Ġatt empt
ĠÙĤØ¨ ÙĪÙĦ
Ġmove ment
Ġre ached
Ġ2 5
ĠØ§Ø· ÙħÛĮÙĨØ§ÙĨ
se qu
Ġvar ious
ĠØª Ø¹ÛĮÛĮÙĨ
Ġbec om
ĠØªØŃ ÙħÙĦ
ØªÙħ ÙĨØ¯
ĠÛ ´Û
Ġappe ared
d o
ĠØ§ÙĤØªØµ Ø§Ø¯
Ġcontin ued
ĠØ® Ø¨
ĠÚĨÙĨØ¯ Ø§ÙĨ
ĠÚ¯ÙĪ ÛĮÙħ
Ġfor mer
Ġin n
ĠÙĨÙĤ ÙĦ
Ġgl ass
ĠÙħÛĮ Ø´
Ġ Î
Ġro b
ĠØ²ÙĨØ¯ Ø§ÙĨ
ow ers
ĠØº Ùħ
Ġkill ed
ĠE n
Ġn amed
ĠÛ±Û¹Û ¶Û
ag ue
Ġ Ã
Ú© Ø±ÙĪ
ic le
ĠÙħØ¯ÛĮ Ø±ÛĮØª
ĠØºØ± Ø¨ÛĮ
ĠØª Ú©ÙĨ
Ø§ÙĪ Ø±Ø¯
Ġes c
Ġstand ing
u el
ÙĪ ÛĮÙĨ
ĠØº ÙĦ
Ġim medi
ĠØªØŃÙĤÛĮ ÙĤ
Ġs or
Ġb es
ĠV al
ĠÙ¾Ø²Ø´ Ú©ÛĮ
ĠØ¬ Ø¯
Ġbl ue
ĠM us
ag ement
ĠØ´ Ø§Ø¯
ll ing
Ġg e
Ġcomm unity
Ġgirl s
ĠÙħ Ø¨
Ġâ Ī
ĠM ad
Ġter ri
ĠÙ¾ ÙĦÛĮØ³
ĠÙģØ± ÙĩÙĨÚ¯
s c
ill s
ĠÙħÙĤ Ø§Ùħ
ĠÙĩÙħ Ú©Ø§Ø±ÛĮ
am a
ĠÙĨØ´ Ø§ÙĨÙĩ
ourn al
S h
ĠØ§Ø¨ Ø²Ø§Ø±
ĠÙ¾ÛĮØ´ Ø±ÙģØª
ØªØ´ Ø§Ø±
ĠØ±Ø³ Ø§ÙĨØ¯
ĠB ut
in ct
Ø§Ø¨ Ø·
Ġf ine
ĠH ist
ite ct
Ġdist rict
ib ility
ĠØ¯Ø§Ø® ÙĦÛĮ
ĠØ¢ ÙģØª
Ø§ Ú©ÛĮ
Ùĩ ÙĪØ±
ic a
Ġm iddle
h is
ĠØªÙĪØ§ÙĨ Ø³ØªÙħ
ĠØ´ Ø§ÛĮ
Ġst reet
ĠÙħÙĤ Ø§ÛĮ
A S
ÙĪ ÛĮØ¯
Ø¯ Ø§Ø¯
us ion
t a
Ġse a
Ġm outh
ĠÙĤ Ùĩ
the re
ĠØ§Ùģ Ø²Ø§Ø±
ĠØ¯Ø± Ø®
wh o
ĠØ®Ø§Ø± Ø¬ÛĮ
Ġf if
Ġpubl ished
Ġne ighb
Ġme ant
ĠØ§Ø¹Øª ÙħØ§Ø¯
Ø³ Ø§ÛĮ
ĠM ed
Ġj ud
we red
Ġd ie
Ġter m
ÙĪØ± Ø§ÙĨ
ĠÙĨÙĤ Ø§Ø´ÛĮ
ĠØ®ÙĪØ¯ Øª
ĠJ une
r ay
is f
ĠÙħÙĤØ§ÛĮ Ø³Ùĩ
ĠØ¨ Ø¨ÛĮÙĨØ¯
Ø± Ø§ÙĨÛĮ
Ġ ver
Ġspec ific
Ú©ÙĨ Ø´
ĠØŃÙĦ ÙĤÙĩ
ĠØ³ ÙĪØ¯
ĠÙĨØ§ Ø®
n y
ĠØ³ Ø§Ùħ
ĠØªØ¹ Ø¬Ø¨
ĠÚ¯Ø³Øª Ø±Ø´
Ø³ Ø§Ø²ÛĮ
Ġsee ing
ĠØ§ØŃØ³Ø§Ø³ Ø§Øª
ĠØ³Ú© ÙĪØª
H arry
ĠÙĨÛĮØ± ÙĪÙĩØ§ÛĮ
Ġp ath
ĠØ´Ø®Øµ ÛĮØª
Ġde pend
ĠØ¨Ø² ÙĨØ¯
ĠØ§ÙĪ ÙĤØ§Øª
ĠÙħØ¹Ùħ ÙĪÙĦ
Ø§Ø± ÙĪ
e y
ĠÙħ ÙģÙĩ
ĠØ´ Ø§Ø®
ĠØ³ ÛĮÙħ
a ven
ĠÙħØ³ ÙĦ
ĠØ²Ø¯ ÙĨØ¯
Øª Øµ
Ø³ ÙĦ
Ġde cl
Ġwork s
Ø§Ø¯ Ø«
ĠÙĩØ³Øª ÛĮ
ĠØ¨ÛĮ Ø§ÛĮØ¯
Ġpur p
ĠÚĨ Ø§Ø±
ĠØ¨ Ø¨
Ø§ÙĨ ÙĪØ³
ĠØªÙģ Ø§ÙĪØª
ĠØª Ú©Ùĩ
ĠÚĨ Ø§Ù¾
ĠØ± Ùģ
ÙĤØ± Ø§Ø±
Ġb ab
ĠJ an
in al
Ø¬ Ø§Ø³Øª
ĠØ¹ ÙĦÛĮÙĩ
ĠØ§ÙĨÚ¯ Ø§Ø±
ĠØ§Ø³Ù¾ Ø§ÙĨÛĮØ§
ĠÛ±Û¹Û ´Û
Ġmay be
ight s
ĠAfric a
ĠÙĪ ÛĮÙĨ
Ġaf raid
ĠÙ¾Ø±Ø¯ Ø§Ø²
ĠR es
ĠC al
ĠØŃØ±Ùģ Ùĩ
ĠÚ© Ø±Ùĩ
ĠØ§ÙĨ ÙĤÙĦ
ĠØ® Ø³ØªÙĩ
ĠØªÙĤ Ø³ÛĮÙħ
ĠInd ia
ĠØª Ø¦
ĠØ¬Ø² ÛĮØ±Ùĩ
Ġflo or
ĠØ§Ø® ÛĮØ±
Ġav ail
ĠÙģ ÙĦØ³
u ary
Ġproble ms
ĠÙĪ ÙĤ
Ú¯Ø° Ø§Ø±
Ġd in
ĠØ¯Ø§ÙĨ ÛĮØ¯
ĠÚ©ÙĦÙħ Ø§Øª
C A
ØŃ ÙĦ
ĠØ¯Ø±ÛĮ Ø§ÛĮÛĮ
Ġenv ironment
Ġknow ledge
Ġ201 2
1 8
Ġ $
pt ember
Ġf ix
em y
ĠØ³Ø§Ø² Ø¯
y a
ĠÙĨ Ú©ØªÙĩ
ĠE arth
ĠØ¹Ùħ Ø±
Ġes pecially
ĠØ« Ø¨Øª
ĠÙĩÙħÚĨ ÙĪÙĨ
Ġright s
ĠØ¯Ø§ÙĨ Ø¯
ĠD on
ru pt
ĠØ¢ ÙĩÙĨ
ĠÙģØ± Ø§ÛĮÙĨØ¯
Ġoff ice
ĠØªÙĩÛĮ Ùĩ
Ġwr ite
Ġinclud e
Ġa st
Ú© Ø´ÛĮ
Ġcomple x
Ø´ Ø±
ĠÙĩÙĪ Ø§ÛĮÛĮ
Ġresp ons
Ġlearn ed
Ġbe yond
ĠÙ¾ÛĮ Ø§Ùħ
ĠS ec
ĠØ§Ø· Ø§ÙĤ
ĠÙĤÙĪØ§ÙĨ ÛĮÙĨ
oun ced
ch ie
ĠØ¬ Ø§ÙĦØ¨
w o
ĠÙħ ÙĩØ§
ĠÙģØ¶ Ø§ÛĮ
Ġs ister
ch an
Ġset t
ĠÙħØ´ Ø§Ø¨Ùĩ
ĠÙģ ÙĨØ§
ĠÙĨÙĩ Ø§Ø¯
ĠS an
ĠÚ©Ø§Ø± Ø¨Ø±Ø¯
ĠÙĪØ§ÙĤ Ø¹ÛĮØª
ÙĪØ± Ø´
Ġh op
ĠØ¨Ø´ ÙĪØ¯
o ices
ĠÙħØ´Ú©ÙĦ Ø§Øª
Ø³ Ùģ
ĠØ§ÙģØª Ø¯
Ġcar ry
ĠP a
ĠÙĨÛĮ ÙĪÛĮ
Ġc ivil
ĠÙģ Ø§Ø±
Ġ5 0
Ġrepl ied
ĠÙĪ ÛĮÙĦ
Ġf und
ĠØ¨Ø¯ ÛĮÙĨ
Ú¯ Ø§Ø±ÛĮ
Ø§Ø² Ø¯Ùĩ
ag er
Ġp red
it or
ĠØ¨Ú¯ ÙĪÛĮ
os ing
ition al
ĠØ§ØªÙģØ§ÙĤ ÛĮ
Ġtw enty
if f
ĠÙĦ ÙĨØ¯ÙĨ
Ġeff ort
Ġpe ace
Ġmod ern
U n
Ø³ Ú©Ùĩ
ĠØ¬ÙĨÚ¯ ÙĦ
u f
Ã ¡
ĠØ®Ø´ Ú©
Ġdes p
Ġexact ly
ĠÙħØ±Ú© Ø²ÛĮ
ĠC ity
ĠØ±ÛĮ Ø®Øª
ĠÚ©ÙĨÙĨØ¯ Ú¯Ø§ÙĨ
Ġcl aim
ĠØ¨ÛĮØ¯ Ø§Ø±
ĠØ¬ Ø³
ÙĪÛĮ ÚĨ
Ù¾ ÙĦ
ĠÙ¾ÙĨ Ø§Ùĩ
ĠÙĨ ÙĪÛĮ
lo ck
Ġevery one
re ed
Ġpre v
ĠØ§Ø¯ Ø§Ø±Ùĩ
ĠØªÙĦÙģ ÙĨ
at ors
ĠØ¢ÙĦ ÙħØ§ÙĨÛĮ
it es
ÙĪØ§ Ø¹
Ø¨Ø² Ø±Ú¯
Ø¨ Ø§Ø±ÛĮ
Ġas soci
Ġrele ased
ĠâĢ Ŀ
ĠØª Ø§Ùħ
be c
Ġany one
ĠØ³ÙĨ Øª
ĠØ¨ÛĮ ÙĨØ¯
ĠØ¨Ø§Ø´ Ùĩ
Ġtre es
ĠÚ©Ø±ÛĮ Ø³ØªÙģ
ĠØ´ÛĮÙħÛĮ Ø§ÛĮÛĮ
ĠÙħØ¯ Ø§Ø±
ĠØ³ ÙĪØ²
ĠÛ±Û ¹
ĠÚ©ÙĦ Ø§ÛĮØ¯
ĠC o
ĠØ¢Ø³ÛĮ Ø¨
eng th
ĠØ¢ÙĦØ¨ ÙĪÙħ
as c
ĠØ¨Ùĩ Ø±Ùĩ
ĠØ¯Ø¹ ÙĪØª
Ġw at
Ġm aster
res h
Ġeas y
ĠØ³Ø§ÙĦ Ú¯ÛĮ
tern et
ĠÙĨÛĮØ³Øª Ùħ
Ġcol lect
ĠÙĤ ÙĪÙĦ
ĠÙħØ¯ ÛĮØ±
Ġsp oke
ograph y
Ġ Ð
ĠÙĤ ÙĩØ±
ĠØ³ ÙĪØ±
ĠØ§ÙģØ± Ø§Ø¯ÛĮ
ĠÙħØ° Ùĩ
ĠÙħ Ø§ÛĮÙĦ
ĠÙĨ Ø§Øª
d om
Ùħ Ø§Ø¯Ø±
Ġhapp en
ĠØ´Ùĩ Ø±ÛĮ
ĠØ§Ø³Ù¾ Ø§ÙĨÛĮØ§ÛĮÛĮ
Ġoffic ial
ar ily
Ġfor t
r am
Ġneed ed
Ø§ÙĨÛĮ Ùĩ
ĠÙħÙĨØ§Ø· ÙĤ
Ġto ward
Ġreg ard
ĠØªÙĪØµÛĮ Ùģ
ĠØ¯ÙģØª Ø±
ÙĪ ØªÛĮ
Ġk ing
ĠÙĤØ± ÙħØ²
ĠÙģØ±Ø² ÙĨØ¯
ĠØ§ÙĨ ØªØ´Ø§Ø±
Ġ200 8
i ant
ĠChrist ophe
ĠÙ¾ Ø§Ø±ÛĮØ³
Ø§ÙĦ ÛĮØ§
ĠÙĩØ± ÚĨÙĩ
Ġmar ried
ĠØ® Ø±ÙĪ
ĠØªØŃ ØµÛĮÙĦ
Ġ201 1
Ġf ac
ĠB er
ow d
ĠÙ¾ Ø§ÙĨ
se t
Ġwh is
Ġdo ctor
O f
ĠØ¹ÙĤ ÛĮØ¯Ùĩ
ĠØªÚ©ÙĨ ÙĪÙĦÙĪÚĺÛĮ
ĠØª Ø±Ø¯
gor ith
ĠÚ¯ ÙħØ§ÙĨ
Ġwould n
ĠØŃ Ú©ÙĪÙħ
Ġdou bt
iver se
ĠÙ¾ Ø®Ø´
ĠØ±Ø³ÛĮØ¯ ÙĨ
ĠÚ©ÛĮ Ùģ
ĠØ¨Ø±Ú¯ Ø²Ø§Ø±
Ġquest ions
Ġsh are
Ġ200 9
ug ust
Ġc ast
r is
Ø±ÙĪ Ùħ
Ø³ ÛĮÙĨ
Ġin ternational
ĠÙģ ÙĤ
ir th
ĠÙħÙĪÙĤ Ø¹ÛĮØª
ĠØ¹ÙĦ Ùħ
Ġst ra
o ly
Ġsp ent
ĠØ¯Ø³Øª Ø±Ø³ÛĮ
ct ober
b an
ĠM on
ĠØ§Ø³ Ø§Ø³ÛĮ
Ġcomm unic
ĠÙĪØ¶ Ø¹ÛĮØª
ĠÚ©Ø§ÙħÙ¾ÛĮ ÙĪØªØ±
Ø±Ø§ ÙĤ
ĠØ¯Ø´ ÙħÙĨ
ĠÙħØŃ Ø¨
Ġide as
Ġappl ic
ĠØ§Ùģ Ú©Ø§Ø±
Ø¯ Ø§ÙĪ
Ú© ÙĦÛĮ
ic ro
Ġwor th
A T
c il
ĠP ress
Ġpr im
ĠØ¨ Ø¨Ø±
ĠØ±Ø§Ùĩ ÛĮ
Ġcont r
ĠSe ptember
Ġinde pend
ĠRuss ian
ĠÚ¯Ø° Ø§Ø±
ĠÙĪØ± ÙĪØ¯
ĠØ¹ Ø§Ø¯ÛĮ
ĠØ®Ø¯Ùħ Ø§Øª
1 2
Ú© ØªÛĮ
ĠÚ¯Ø±ÙģØª Ùħ
Ġexp ression
Ġdr ink
ĠD av
ĠØ¯ÙĤÛĮ ÙĤ
Ġd ig
Ġp ack
Ø¯ ÙĪØ±
Ġs al
Úĺ Ú¯ÛĮ
ĠØ¨Ø´ Ø±
? "
Ġpol ic
ĠØ²ÛĮØ¨ Ø§ÛĮÛĮ
Ġe at
i ers
ĠØ§ÙĨØ¯ ÛĮØ´Ùĩ
Ġpie ce
ren g
ØªÙħ Ø§Ùħ
ĠEurope an
ĠØ§ÙĦ Ú©ØªØ±
Ġd anger
fe rences
r um
ĠW est
ĠØ¬Ø¯ÛĮØ¯ ÛĮ
Ġwa iting
ĠGerman y
Ġf air
ĠØ¢ ÙĨØ¯
ĠØ±ÙĪØ¯ Ø®Ø§ÙĨÙĩ
ĠJ ew
ĠØ³ ÛĮÙĨ
Ġd a
ĠØ±ÙĪ Ùħ
wh at
ir m
Ø±ÛĮ Ùħ
Ø¬ Ø§ÛĮ
ĠØ§ÛĮÙĨ Ùĩ
ĠJu ly
Ġmean ing
ĠÙĨÛĮÙĪÛĮ ÙĪØ±Ú©
ĠØ¨ÛĮÙĨ ÛĮØ¯
Ġc op
Ġrelations hip
ĠÙĦ Ø·
Ġinde ed
ĠØ¹ Ø§ÙħÙĦ
ĠA t
ĠÙħØ¹ ØªÙĤ
Ġtem per
ĠØª Ø§ÙĨ
Ú©ÙĨ Ø§ÙĨ
fe red
ĠØ±ÙĪØ³ÛĮ Ùĩ
Ø§Ø¯Ùĩ Ø§ÛĮ
ĠÙħ Ú¯Ø±
Ø¦ ÙĪÙĨ
us es
Ġu r
ĠØ§Øµ ÙĦ
ĠØ§Ùĩ ÙĦ
ĠØ¢Ø´ Ú©Ø§Ø±
Ġh y
Ġsil ence
Ø´ Ú©
Ġs ize
ĠØ³Ø§Ø¨ ÙĤ
ĠÙħØ¨Ø§Ø± Ø²Ùĩ
ly ing
Ġlo ved
Ġch ance
Ġbo x
Ġhor se
Ġcomplete ly
Ġm id
il os
ĠÛ° Û°Û°
ĠN e
Ġeduc ation
om p
n ed
Ø¨ Ø±ÙĪ
ĠEng land
Ø§ Ú©ÙĨÙĪÙĨ
he t
ĠÙħÙĤ Ø§ÙĪ
ĠØ³Ù¾ Øª
Ġb urn
Ġn orm
ĠØªØµ Ø§Ø¯
Ġ201 3
ĠÙ¾Ø±ÙĪ Øª
ĠÙĪØ³ Ø·
ĠP res
ĠØªØ§ Ø«ÛĮØ±
ĠÙħØ´ØªØ± Ú©
ĠÙģ ØµÙĦ
ĠÙħÙĩ ÙĨØ¯
Ġcap ital
ust om
Ġam ount
ĠØªØ§Ø±ÛĮ Ú©
ĠØ§ ÙĦÙĩ
Ġlar gest
Ø¬ Ø²
ĠØ¬ Ø¹
ĠØ§ÙĨØ¯ ÛĮ
ib ly
Ġreg ion
Ġrun ning
ĠØ³ Ø§ÛĮÙĩ
b um
ĠØ´ÛĮ ÙĪÙĩ
k a
ĠP er
Ġaf fect
pri l
ĠØ¢ Ø«Ø§Ø±
ĠÚ©Ø±Ø¯ ÛĮ
Ġcon cept
ĠØ¯ÙĦ Ø´
Ġch air
Ġconvers ation
Ġlook s
ÙĦ Ø²
ÙĤ Ø§ÙĨ
ĠÙĨØ§Ùħ ÛĮØ¯Ùĩ
Ġ >
Ġh ost
ĠÙĩØ§ÛĮ Ø´Ø§ÙĨ
oss ible
ĠØªØ¬ Ø§Ø±ÛĮ
Ġse arch
bs ite
Ġ ÙĢ
ĠÙħØŃ Ø¶
Ġstud ents
Ġc oun
Ġprin ci
Ġw arm
ĠØ³Ø® ÙĨØ§ÙĨ
Ġparent s
ĠØªØºÛĮÛĮØ± Ø§Øª
Ġm unicipality
ĠØ¯ ÙģØ§Ø¹
ĠØ´Ùħ Ø§Ø±Ùĩ
ÙĪØ± Ùħ
ĠØ³Ø± Ø²ÙħÛĮÙĨ
iz ing
Ġgo es
Ġs ight
ĠÙģÙĨØ§ ÙĪØ±ÛĮ
w ell
in y
ĠS am
Ġb and
ĠØ²ØŃ ÙħØª
ĠØ® Ø¯Ø§ÛĮ
Ú©Ø± Ùħ
Ø¨ Ø®Øª
bl ing
ove mber
ĠØ§ÙĪÙĨ ÙĩØ§
land s
ĠØ·Ø¨ÛĮ Ø¹Øª
Ġprodu ced
a ur
ĠØ¯ÙĤÛĮ ÙĤØ§
ÙħÛĮ ÙĦ
ĠÙĨØ§ Ø´ÛĮ
ĠØ³ Ø¤
Ø® Ø§Øµ
Ú¯ Ø§ÙĨÛĮ
Ġst ates
Ġc am
o id
ĠØ± ÛĮØ²
ĠCh ina
ĠØ®Ø´ ÙĪÙĨØª
Ġis n
Ø¹Ø¯ Ø§Ø¯ÛĮ
Ġavail able
Ġd ress
ĠÙĨØ¨ Ø±Ø¯
au d
ĠØªØ§Ø±ÛĮ Ú©ÛĮ
Ġmem ber
Ġin it
Ġ200 6
ĠØ¢Ø´ ÙĨØ§
Ġst reng
ĠØ³Ù¾Øª Ø§ÙħØ¨Ø±
Ġ [
g ress
Ġr ul
if y
ĠØ®ÙĪØ§ÙĨØ¯ ÙĨ
Ġsign ific
min ist
Ġf em
19 9
ĠØ§ØŃØªØ± Ø§Ùħ
Ø¦ Øª
Ġfig ure
al d
ĠÙĨÚ¯Ø± Ø§ÙĨ
ĠØ¨Ø¯Ùĩ Ùħ
ce mber
ĠÚ¯ÛĮ Ø§Ùĩ
ĠØµ Ø§ØŃØ¨
Ø§Ùģ ÙĤ
Ġe p
ĠP al
ĠØ¨Ùģ ÙĩÙħ
ĠÚ¯ÙģØª ÙĨ
ĠT om
ific ation
al ed
ic ed
Ġac qu
Ġperson al
Ġweek s
Ġeconom ic
E R
ĠØ¨ Ø·
ard en
m it
ĠØ¶ Ø¹ÛĮ
ĠØ³Ø® ØªÛĮ
ĠO ctober
Ġphys ical
ĠAust ral
Ã ¶
ro om
ĠÙĤ Ø§ÛĮÙĤ
ĠÙĨÙħ Ø§ÛĮÙĨØ¯
Ġpart s
ĠØ¬ Ø´ÙĨ
ĠØ±ÛĮØ§ Ø¶ÛĮ
ĠÙħØŃ Ú©Ùħ
Ġbro ad
Ġr ate
ĠØ¯ÛĮ Ú¯Ùĩ
Ġl iter
D uring
Ġc ode
ĠÙĤ Ø¶ÛĮÙĩ
Ġnear ly
ĠØª ÛĮØ±Ùĩ
Ø±ÙĪ Ø²Ùĩ
ĠØŃ Ø§ØµÙĦ
Ġcr owd
um b
O r
ĠM or
Ġem ot
Ġa ction
ĠÚ© ÙĦØ§
Ø§Ø± Ú©Øª
ĠS he
ellig ence
ÙĪ ÙħÛĮ
Ġcl ot
g hed
Ø§ Ø¬Ùĩ
Ġw ild
Ø¢ Ùĩ
ĠÙĪÛĮ ÚĺÚ¯ÛĮ
ĠB ar
k n
ĠØ¨ ÙĪÛĮ
ĠØ§ÙħÛĮØ¯ ÙĪØ§Ø±
a ff
ĠØ§ÙĨØ¯ Ø§Ø²
Ġtra vel
Ġt it
er o
ĠØ§Øµ Ø·
Ġent ered
ĠØ§ÙĨ ÙĪØ§Ø¹
Ġgrou ps
ĠÙģØ±Ø³Øª Ø§Ø¯
ĠØ¹ ÙĦÛĮ
ĠÚ¯Ø±ÛĮ Ùĩ
ĠÙħØ³Ø§ ÙģØ±
ĠÚ¯ Ø§Ø²
ĠØ¶ Ø¯
Ġex ec
Ġv ideo
ĠÛ±Û ²
ĠÙ¾Ø± Øª
ĠØ§ÙģØª Ø®
Ġa ud
ad ed
Ġsat isf
ĠØ¨Ø²Ø±Ú¯ ØªØ±ÛĮÙĨ
w as
Ġstra ight
ĠÙħØ³ Ø§Ø¦ÙĦ
Ġro le
ĠØŃØ¯ Ø§ÙĤÙĦ
Ú© ÛĮÙĨ
ĠÙĩÙĨ Ø±ÛĮ
ĠA ugust
Ġvers ion
Ġde g
ĠD r
ĠØ±ÙĪ Ø§Ø¨Ø·
ĠÙħ ÙħÙĨ
Ġlike ly
Ġpict ure
P h
Ġl ady
ĠM ary
Ġsl ight
ĠA pril
ĠØ¸ Ø±Ùģ
Ġt akes
at ory
un k
Ġall ow
Ġadd ress
ĠØ¯ Ø³
Ġal gorith
Ġv ict
Ġspe nd
wh ile
ĠÙĪØ§ØŃ Ø¯
Ġl if
ĠÙĨÙĪÛĮØ³ ÙĨØ¯Ùĩ
Ġmov ing
re y
ĠØ§ÙĨØ¬ ÙħÙĨ
ĠÙĩØ³Øª Ùĩ
ol ute
ate ver
Ġa chie
Ġseem s
ĠÙģÙĩÙħ ÛĮØ¯
Ġfre qu
Ú© ÙĪÙĦ
ÚĨ Ø´Ùħ
Ġl ad
Ġd am
ĠØ§Øª ÙĪÙħ
Ø£ Ùħ
ĠØ±Ø§ Ø¯ÛĮ
ĠØ³Ø§ØŃ ÙĦ
h am
Ú¯ ÙĪÛĮ
Ġrem ained
ÙĪ Ø³ØªÙĩ
ĠÙħÙĪ ØªÙĪØ±
ĠØ¹Ùĩ Ø¯Ùĩ
ĠÙĤÙĩ ÙĪÙĩ
ut ions
Ġon es
ĠÙĪ Ø¬Ùĩ
Ġopp ort
ĠM c
ĠØªÙĩ Ø¯ÛĮØ¯
Ġris k
ll a
Ġpol ice
ĠØ¨Ø¨ÛĮÙĨ ÛĮØ¯
ĠØ¬ ÙĦØ¨
ĠÙħØª Ø´
ĠØ³ÙĪ Ø®Øª
ĠØ¬Ø§ÛĮ Ú¯Ø²
ĠÙħØ¬ ÙĦØ³
ĠAlex and
ĠSp ain
Ġdem and
ĠÙĨ ÙĪØ´
ĠM os
Ġhig her
! ...
ĠØ¨ Ø·ÙĪØ±
Ġc y
ĠÚ¯ÙģØª Ú¯ÙĪ
Ġ |
Ġh at
ĠÙĪØ§ Ú©ÙĨØ´
Ġcom fort
ĠØ§Ùħ ÙĪØ±
ÙĪÙĦÛĮ Øª
ĠÙħ ÙĪÙĨ
ĠÙĪ Ø§Ø¨
ĠØ´Ùħ Ø§Ø±
Ġvis it
ĠØ¯ÙĪØ´ ÛĮØ²Ùĩ
ĠÙ¾ Úĺ
Ġsh owed
Ú¯Ø±Ø¯ Ø§ÙĨ
ĠØ´Ø± ÙĤÛĮ
ĠØ® ÛĮØ±
ĠØµÙĪØ± ØªÛĮ
Ú©ÛĮ Ùĩ
Ġst ar
Ġconc ern
Ġ200 7
5 0
ĠØªÙĪ Ù¾
ĠØªÙħØ§Ø´ Ø§
Ġpl aces
ĠÚ©Ø§Øº Ø°
ar i
ĠØ³Ø§Ø®Øª Ø§Ø±
ĠØŃ ØªÙħØ§
ĠE ast
Ġfe at
Ġplay ed
Ġans wered
as ant
ĠÙħØ¹ Ø±ÙĪÙģ
Ġro ck
Ġall owed
Ġl ower
ens ive
Ġdisc uss
Ø§ÙĪÙĦ ÛĮÙĨ
ĠÙĦØŃ Ø§Ø¸
u ght
ist ed
Ġwe ak
ĠÚ©Ùħ Ø§ÙĦ
ĠÙĩ ÙĢ
Ġbelie ved
ĠØ³Ø¨ Ø¨
Ġstand ard
ĠDe cember
ĠØ´ Ø§Ø¯ÛĮ
ĠØ² Ùħ
ĠÚ©Ø§ÙĦ Ø³Ú©Ùĩ
ĠØ¯ ÙĨØ¯Ø§ÙĨ
Ġra ised
J ust
ĠN ovember
ĠØ¹ÙħÙĦ Ú©Ø±Ø¯
R e
ĠÚĨ Ø±
Ġcomp et
ĠÚ©ÙĦ ÛĮØ¯
Ġb ound
ÙĪØ±ÛĮ ØªÙħ
ra el
ĠØ§ØŃ ÙħÙĤ
ĠØ§Ø¬ Ø±Ø§ÛĮ
Ġb all
ĠØ¨Ùĩ Ø¨ÙĪØ¯
ĠØŃÛĮÙĪØ§ÙĨ Ø§Øª
c ome
ĠØ¯ÛĮ ÙĪØ§ÙĨÙĩ
ĠÙ¾ ÙĦÙĩ
il ities
ĠÙĨ Ø§Ùĩ
ĠØŃ Ø§ÙģØ¸Ùĩ
ĠØ¹Øµ Ø¨Ø§ÙĨÛĮ
Ġdeter min
Ġp en
Ġter ms
ĠL ord
ĠÙħØŃ Ø§Ø³
ĠØ° Ø®
Ġ19 2
Ġknow s
ĠØ¨ÛĮ Ø§ÙĪØ±
Ġdise ase
re ct
Ġg rew
ĠÙ¾ÛĮ ÙĪÙĨØ¯
on st
ĠÛĮ Ø®
Ġm ad
Ġgiv ing
ĠÙĩ Ø¯Ø§ÛĮ
Ø¬ ÙħÙĩ
Ġde fe
Ġmach ine
ĠØŃÚ©ÙĪÙħ Øª
an i
ÙĨ Ø§Ùħ
Ø§ÛĮ Ø²
an ish
Ø¹ Ùħ
ber t
ĠØ¨ÙĢ Ùĩ
ĠA nt
ĠØ¯Ø±ÙĪ Øº
ĠÙħÛĮ Ø¯Ùĩ
ÛĮ ÙģÙĩ
ĠÙ¾ ÛĮÙħ
ĠØ´ ØªØ§Ø¨
Ġm ut
Ġsour ce
Ġ200 5
as ion
ab les
Ð °
Ú© Ø¯Ùĩ
ar let
Ġdisc overed
ĠØº Ø±Ø¨
Ġchang es
Ġslow ly
ÙĦØ§ ÙĪÙĩ
ĠRep ublic
Ø±Ø¯ ÙĪ
Ġref er
ĠG reat
l im
Ġd en
Ġsh out
ĠØ§Ø¹ ÙħØ§ÙĦ
ĠJan uary
Ġ <
iet y
Ġtot al
Ġemp loy
Øº Ø§ÙĨ
ĠÛ³ Û°
Ġanim als
ĠÙģ ÛĮÙĦÛĮÙ¾
ĠØ¨Ùĩ Ø´
ĠÚĺÙĪ Ø¦ÙĨ
Ġcol or
Ġu nd
ĠØ¹ÙĦ ÙĪÙħ
as ing
Ġare as
Ġro se
Ġsp read
ĠÙĩÙĪ Ø§ÛĮ
Ø§ÙĦ Ùħ
m on
ch ing
os ition
Ġst ories
Ġimp ossible
it ation
ĠØ® ÙĦÙĤ
Ġth us
ĠØ®ÙĪØ±Ø¯ ÙĨ
sy ch
Ġun c
Ġwa it
ĠØ¨ ÙĦÙĪ
ĠÙģØ±Ø§ÙĨ Ú©
Ġcorn er
ĠØ³Ø§ÙĦ Ùħ
l ict
Ġd ru
ĠØ¨ÛĮ Øª
Ø³ÛĮ ÙĦ
ĠR ober
Ġqu ar
Ġcl osed
Ùħ ÙħÚ©ÙĨ
ĠÙģ ÛĮØ²ÛĮ
Ġal though
Ġter ror
ĠÙħÙĪ Ø³
ci ence
Wh ile
Ġfell ow
Ùħ ØŃ
ĠØ§ ÙĤÛĮ
Ø· Ùĩ
Ġman ner
A cc
ÙĪ Ø§ÙĤ
ĠØ¹ÙħÛĮ ÙĤ
er a
ĠÛĮ Ø±
ke y
Ġspe ed
ĠØ¨ ÙĪØ³
ir ty
ĠØ´ÙĪ ÛĮÙħ
ĠØ§Øµ ÙĦØ§ØŃ
k ing
en ess
ic ated
ĠØ®ÙĪØ¯ ÙħØ§ÙĨ
Ġle ar
ci a
Ġpre p
Ġpre vent
ĠÙĨØ³ ÙĦ
Ġph ilos
ĠÙħØ® ÙģÛĮ
Ġch all
ĠÙħ ÛĮÙĨ
ĠØªØµ ÙĪÛĮ
ĠØ¢ ÙĪÛĮ
ĠÙģ ÙĩØ±Ø³Øª
ÙĦØ§Ùģ Ø§ØµÙĦÙĩ
ĠÙħØ±Øª Ø¨Ø·
ĠWh at
ĠØ§ÙħÙĨÛĮ Øª
Ġdin ner
Ġc ases
hem at
ĠØ¨ Ø§Ø±Ùĩ
ĠØ§ÛĮÙĨØªØ± ÙĨØª
ĠPart y
Ġl au
ĠØ§Ø³ØªØ§ÙĨØ¯ Ø§Ø±Ø¯
Ġg as
i ents
ÙĪ ØŃ
ĠØ®ÙĪØ§Ùĩ Ø±
Ø² ÙħØ§ÙĨ
ÙĤ ÛĮÙĨ
ĠSt ate
ion e
ĠØ¹ÙħÙĦÛĮ Ø§Øª
ĠÙħÙģÙĩ ÙĪÙħ
ĠØ¬ÙĨ Ø¨Ø´
ĠÛĮÙĩ ÙĪØ¯ÛĮ
b ing
ver age
ĠØ§Ú©Øª Ø¨Ø±
Ġdoll ars
o es
Ġnum bers
Ġimmedi ately
ĠÙħ ÙĪÙĦ
Ġarch itect
Ġm ention
Ġth reat
ok ing
Ġprodu ction
ĠØ³ÙĨÚ¯ ÛĮÙĨ
ĠØ¢ÙģØª Ø§Ø¨
ĠØ¢Ø±Ø§Ùħ Ø´
Ġnecess ary
ĠÙħØ±Ø§ÙĤ Ø¨Øª
u x
ÙĨÙĪ Ø¹ÛĮ
Ġpop ular
Ø§Ø® Ø±
ĠØ¢ÙĦ ÙĪØ¯
k i
Ġthought s
Ø±Ø§ Ø¶
f ield
ĠØ± Ø²
Ġhe at
ĠÙħÛĮÙĦÛĮ Ø§Ø±Ø¯
Ġsa fe
ĠØ¨Ø§ÙĦ Ø§ØªØ±
Ġdist ribut
ĠÙ¾ÙĪØ´ ÛĮØ¯Ùĩ
Ġlo g
ĠÙģØ±ÙħØ§ÙĨ Ø¯Ùĩ
Ġgl ad
Ġam az
ĠÙħÚ© Ø§ÙĨÛĮ
an cy
ĠØ¹ Ø±ÙĪ
ĠÚ¯Ø± Ø§ÙĨ
ĠÙĦØŃ ÙĨ
ĠØ¯Ø± Ø®ÙĪØ§Ø³Øª
ri a
ĠØ´ÙĪ ÛĮØ¯
ĠÙħØ§Ø± Ø³
ĠS er
ĠØ±Ø³ Ø§ÙĨÙĩ
ĠÙħØ¬ Ø¯
ĠØ¨ ÙĨØ§
ĠØ¯ ÙĪØ¯
ĠÙĨØ¯ ÛĮØ¯Ùĩ
Ù¾Ø± Ø§Øª
ĠÙħ Ùī
Ġc at
Ġfin ally
ĠØ± ÙĪÙĨ
Ú¯Ø± Ùħ
Ġc and
Ġr ap
ÙĨ Ø²
ĠÙħÙĤ Ø§ÙĦÙĩ
ĠIs lam
Ġte xt
ĠAr t
ĠØ³ Ø¹
Ġwr iting
ĠØ³Ø§ Ú©Øª
ĠØ³ÙĦ Ø§Ùħ
ĠÙħØ¹ÙħÙĪ ÙĦÛĮ
ĠÛ²Û°Û ±Û°
ĠØ¹ Ø¸ÛĮÙħ
ar c
ĠØ¢ÛĮ ÙĨØ¯
ĠÚ©ÛĮÙĦ ÙĪÙħ
Ġli ps
Ġlink s
ĠØ® Ø±Ø¯
uc le
Ġh osp
Ġe mer
ĠÙħÙĩØ§ Ø¬Ø±
Ġcar ried
Ġme chan
Ġmin ute
Ú© Ø§Ùħ
ro v
ct ions
ĠÙĤØ§ÙĨ ÙĪÙĨÛĮ
j oy
Ø² Ø¯Ùĩ
W here
Ø³ÛĮ ÙĪÙĨ
ĠØ¨Ø§Ø´ ÛĮ
ail s
Ġdist ance
Ġpriv ate
Ġd er
ĠØ´Ø¯ ÛĮÙħ
ĠÚ©ÙĨ ÙĨ
Ø¨Ø± Ø®ÛĮ
ĠÙħØ´ Ø§Ø±Ú©Øª
ĠØ³Ø¤ Ø§ÙĦ
ĠØ´ÙĩØ± ÙĩØ§ÛĮ
Ġimag ine
ĠÚ© Øª
ĠÙħÙĨ Ø²ÙĦ
Ġtre m
ĠØ¢ ÙĤØ§
Ġg un
ĠÙħÙĪ Ø¬
is es
ĠØ±ÙĪ ÛĮØ¯
ĠÚĺØ§Ù¾ ÙĨ
re g
ĠD NA
e es
i ation
n ers
ĠÚ¯ÙĪ Ø´Øª
ĠPhil ip
Ø³Øª Ø±ÛĮ
ÛĮ Ùĩ
ĠPres ident
ap pe
ĠØµØ¯ Ø§ÛĮÛĮ
ĠØ² ÙĨÚ¯
ĠØ¨Ø±Ø³ Ø¯
ĠØ§ÙĨ Ø¨
Ġdo cum
ĠØŃ ÛĮØ±
ĠÚ©Ø§Ø± ÙĩØ§
Ġm ur
Ġext reme
ĠØ³ Ùħ
ĠØ¨Ø± ÙĪÙħ
ĠØ´Ø± ØŃ
ĠÙĨÚ¯Ø± Ø§ÙĨÛĮ
I I
v ision
Ø¯ ÙĦ
ĠÙħÙĪ Ø§Ø¬Ùĩ
ÙĪÙĤ Ùģ
b ru
Ã Ń
Ġn orth
Ġl ength
ĠØ§Ø®Øª Øµ
Ġglo bal
Ġdiffe rence
ĠØ´ Ø§
Ġar my
Ġext ra
Ø±ÛĮ ØŃ
ĠM art
ĠÚ©Ø´ Ø¯
Ġm ine
Ø¨Ø± Øª
Ø§Ø¯ÛĮ Ùĩ
Ø¨ÛĮÙĨ ÛĮ
ĠI nt
ĠØ¹ Ø§Ø¯Øª
Ø¹ Ú©Ø³
Ø±Ø§ Ø¬
S ince
Ġcons cious
Ø§ÛĮ Ø¬
ĠÙĨ Ø§ÙĨ
ĠÙħÛĮ Ø´Ùĩ
ĠØ² Ø§
ĠHist ory
Ġsec urity
Ġfin al
Ø³ Ú©ÛĮ
ĠM er
Ġal bum
ÛĮØ§ Ø·
ĠÙ¾Ùĩ ÙĦ
Ø´Ø§Ùĩ Ø²Ø§Ø¯Ùĩ
ĠA g
ĠÚ©Ø´ Ø§ÙĪØ±
ĠØ´ÙĨ ÛĮØ¯ÙĨ
Ù¾ ÛĮØ±
Ú©Ø±ÛĮ Ø³ØªÙģ
Ú¯Ø° Ø§Ø±ÛĮ
Ġmed ia
Ġo pt
Ø¨ ÙĪ
ĠØ¯ Ø§ÙĨÛĮ
Ù¾ Ø²
ĠÙĤ Ø§Ø¨
ĠÚ©Ø§ÙĨ Ø§Ø¯Ø§
ĠØ§ÛĮØª Ø§ÙĦÛĮØ§
ĠØ¨Ø± Ùĩ
ĠÙ¾Ø§Ø± Ú©
Ġcou ple
ĠÙħÛĮ ØªÙĪØ§ÙĨ
Ø§Ø¯ Ø§Ø±
Ġk ids
Øº ÛĮØ±
Ġhist or
il es
ĠØ®ÙĪØ¯ ØªØ§ÙĨ
rie f
ar ies
Ġbro ken
ĠØ± Øª
Ġe t
Ġst uff
Ġrem ark
ĠØ¨Ø± ÛĮ
te en
Ġbel ong
Acc ording
Ġpurp ose
ĠCom p
e ch
Ø± Ú©Ø²
Ġwe bsite
ĠÙħÙĩ ÙħØ§ÙĨ
Ø¯Ø§ÙĪ ÙĨØ¯
it iz
ĠØ¬Ø² Ø¦ÛĮ
Ġo il
ly de
ĠÙħØ· Ø±ØŃ
Ġy ell
Ø¸ Ø§Ùĩ
ĠBl ack
ÙĪ Ø§ÛĮ
ĠØ² Ø®
ĠS m
Ġsur face
Ġparticular ly
l in
Ġem b
ĠÙ¾ Ø±ÛĮ
ĠØ· Ø±Ø²
Ġbreat h
ĠÛ ¶Û
Ġdis p
ĠØ¹Ø¯ Ø¯
1 5
Ġc aught
ĠÚ©ÙĢ Ùĩ
ol f
er ve
ĠØªÙĤ Ø§Ø¶
ĠØ¨ Ú©Ø§Ø±
Ġprov ince
Ġexpect ed
ĠØ±Ø§ ØŃØªÛĮ
ÙĨØ§ Ú¯ÙĩØ§ÙĨ
Ġheav y
ĠØ¬ ÛĮÙħ
ĠÙĨÙĪ Ø§ÙħØ¨Ø±
ord er
Ġbel ow
ĠØ³ÙĦ Ø§ÙħØª
ĠØª ÙĨÚ¯
Ġp al
ĠØ¹ Ø¯Ùħ
ĠÚ©ÙĦÛĮ Ø³Ø§
ĠØ¢ Ø±ÛĮ
Ø§ ÙĪÛĮ
ĠÙĪØ± ÙĪØ¯ÛĮ
Ø¯Ø± Ø³Øª
ĠÙ¾ ÙĨØ¯
ĠÙħÙĨ ØŃ
ĠØµ Ø¨Ø±
ist ry
ĠÚ©Ø§Ø± Ø´
Ġstreng th
ĠÙĤ ÙĦÙħ
ĠÙħØ³Øª ÙĤÙĦ
ĠØ± ÛĮØ´Ùĩ
ĠÙħÙĤ Ø¯Ø³
ĠÙħÙĩ ÙħÛĮ
ÙģØ§ Ø¸
ĠIs rael
Ġim age
Ġsur v
M any
Ùħ Ø·
ast ic
1 3
ĠØ¨ Øª
ar p
om m
est s
ĠØ¯ÙĪÙĦ ØªÛĮ
ÙħÛĮ ÙĪÙĨ
ĠØªÙĪØ§ÙĨØ³Øª ÙĨØ¯
ĠÙĨØ§ ØŃÛĮÙĩ
Ġple asure
Ġop in
ĠÙ¾Ø´ØªÛĮ Ø¨Ø§ÙĨÛĮ
ĠØ± Ùħ
ĠØ± Ú©
ÙĩØ§ÛĮ Ø´
ĠÙĪ Ø§Ø³
Ġstep s
Ġp p
ĠÙħÙĨ Ø¨Ø¹
Ġres our
Ġdef in
Ġsil ent
Ġ4 0
ĠØ¯Ùĩ Ø§ÙĨ
Ġneed s
ĠØ¹Ø²ÛĮØ² Ùħ
n o
ĠÙģØ± Ø¶
Ġspir it
iv ity
ĠÚĨ Ø§ÙĦ
ier re
ĠØ¹Øµ Ø¨ÛĮ
ĠÚ¯ÙĨ Ø§Ùĩ
Ġb illion
ĠÙĤØ· Ø¹Ùĩ
Ġread ing
ĠÙĩØ¯Ø§ÛĮ Øª
d d
Ġb irth
Ġan x
ĠØµ ÙĦØŃ
Ġspe aking
c hen
Ø± Ú©
Øµ Ø¨
ĠÙ¾ÛĮ ÙĪØ³ØªÙĩ
Ġsk y
ĠØ¨ Ø´ÙĨ
ĠÙħØª ÙĪÙĤÙģ
ĠÙĦ Øº
Ø¬ Ø§ÛĮÛĮ
ĠØ¯Ø³ Ø§ÙħØ¨Ø±
ĠØ§Ø´ Ø®Ø§Øµ
ĠÙħØ³Ø§Ø¨ ÙĤÙĩ
al ys
ĠØ¨Ø±Ø§ÛĮ Ùħ
Ġdirect ly
ĠÚ©ÙĪ ÚĨÙĩ
Ġposs ess
Ġorigin al
l t
Ġm ill
ĠØ¯ Ø§Ø¦
Ġtr ust
ĠÙĪØ¸ ÛĮÙģÙĩ
ĠØ¶Ø¹ÛĮ Ùģ
Ġsoft ware
ĠÙ¾Ø± Ø³Øª
Ø§ÙĨØ³ Ú©ÛĮ
ĠØ¯Ø§ÙĨ Ø´Ùħ
Ġco ol
ĠØ¢ÙģØ±ÛĮ ÙĤØ§
Ġfor get
ĠØ¨ÛĮÙĨ Ùħ
ĠØ¶ ÙħÙĨ
ÛĮÙĨ ÙĪ
ĠØ°Ø® ÛĮØ±Ùĩ
M ost
ĠÙĩÙĨ Ø±Ùħ
M D
ĠÙ¾ Ø±Ø¯Ùĩ
ĠØ¹ ÛĮ
ĠØ³Ø§Ø®Øª ÙĨ
Ġ ess
Ø¢ ÙĨÚ¯Ø§Ùĩ
Ġt ears
ve red
fe ction
ĠÙħ Ø¶
ÙĤ Ø§Ø¯
et her
Ġj oy
be red
Ġo ught
Ø§Ùħ ÛĮØ¯
ĠØ§Ø³ Ú©Ø§Ø±
Ġturn ing
Ø§ÛĮ Ø¯Ùĩ
ÙĨØ§ Ø³ÛĮ
Ġpo ck
ĠÛ± Û°Û°
Ġgu ess
ĠØ·Ø¨ ÙĤ
Ġestab l
Ġen joy
Ġpr ince
ĠØ¨Ø¯Ùĩ ÛĮØ¯
ĠØ±Ø³ÛĮØ¯ ÙĨØ¯
Ġtrou ble
Ø§Ùħ ÙĪÙĨ
ĠÙħØ± Ø²
ĠÙģØ±Ø¯ Ø§
ĠØ§ÙĨÙĤÙĦ Ø§Ø¨
b es
ĠØ²ÙĪØ¯ ØªØ±
Ġme re
ĠØ´ ÛĮØ´Ùĩ
ĠØ§ÛĮÙĨ ÙĩØ§
Ġtalk ed
gy pt
Ġinterest ing
Ùħ Ø¬
ĠØ¨Ø§ÙĦØ§ Ø®Ø±Ùĩ
i os
am b
Ġmag n
E ven
ro y
bru ary
ĠÚĺØ§ÙĨ ÙĪÛĮÙĩ
Ù¾ Ø§Ø±
Ġgr owing
ĠØ¬ÙĦÙĪ Ú¯ÛĮØ±ÛĮ
Ġfor ces
ĠS u
ĠØªØŃ ÙĦÛĮÙĦ
ĠØªÙĪØ¬Ùĩ ÛĮ
ĠØ¬ÙĪØ§ÙĨ ÛĮ
b ook
ĠA ng
Ġk iss
Ġh ous
ore s
ĠØ¹ÙĦØ§ ÙĪÙĩ
Ø¢ ÙĪØ±ÛĮ
Ġfill ed
ound s
Ġne g
ĠØ¯ ÙħÙĪ
ÙĪØ± ÙĨ
ĠÙĨØ²Ø¯ÛĮ Ú©ÛĮ
Ø±Ø¯ ÛĮ
ri g
ĠØ¶Ø± Ø¨Ùĩ
ĠÛ²Û µ
Ġev idence
Ġstruct ure
ck ed
tend ed
Ù¾ Ø§ÛĮ
ĠÚ©Ø´ ÛĮØ´
ĠØ¢ÙħØ¯ ÙĨ
ĠØ¨ÛĮÙħØ§Ø± Ø³ØªØ§ÙĨ
à ¤
Ø±ÛĮ Ø¨
ĠS te
ĠØ§ÙĨØ¯ Ø§Ø®ØªÙĩ
ÙĪ ÙĤØª
er ation
ĠØ· ÙĦØ§
Ġ2 4
et er
ĠØ§ÙĨØªØ®Ø§Ø¨ Ø§Øª
ĠØ§ÙĦÚ¯ ÙĪØ±ÛĮØªÙħ
ĠØ¨ ÙĦØ§
ĠIn ternet
Ġch o
bec ause
ab or
Ġcult ure
ĠÙĨØ¨Ø§ Ø´Ø¯
Ø¨ Ø®ØªÛĮ
Ġf at
Wh o
Ú©Ø± Ø§Øª
Ġgreat er
ĠØ§ÙģØªØ® Ø§Ø±
ĠÙħØ®Øª ÙĦ
ĠØ®ÙĨØ¯ ÛĮØ¯
ØŃ Ùħ
ĠØ§Ø³Øª Ø§Ø¯
ĠÚ¯Ø±ÙĪ ÙĩÛĮ
ver t
ĠØ³Ø± Ø§ÙĨØ¬Ø§Ùħ
ĠÙģØ±Ø¯ ÛĮ
r s
ÛĮ Ø¹ÙĨÛĮ
ĠØ® ÙĦ
Ġair port
ĠÙ¾ Ø§Ø±Ùĩ
ĠÚ¯Ø±Ø¯ Ø´
Ġcertain ly
Ġstru gg
ĠØ´ Ùģ
Ġgener ally
Ġlangu ages
ĠØ¯Ø± ØŃØ§ÙĦÛĮ
Ġcon v
ax im
Ġsk in
ĠÚ© Ø±Ø¨
ĠØ¢ÙĨ ÙĤØ¯Ø±
Ġt ask
Ġcons um
ĠÙħØŃ Ø§ÙģØ¸
Ø¨ÙĦ Ú©Ùĩ
ÙĩÙĨ Ú¯ÛĮ
ĠÙĨØ® Ø³Øª
A R
ĠØª Ù¾Ùĩ
Ġ200 0
Ø±Ø§ ÙģÛĮ
Ø± ÙĪÙĨ
ÙĪ Ø§Ø±ÛĮ
Ġsh ut
Ġtrans l
Ø¯ Ø®ØªØ±
Ø¨Ø¹ Ø¶ÛĮ
z er
Ġh om
ĠØ§ÙĪ Ø§Ø®Ø±
Ġr ain
ĠÙħØŃ Ø¨Øª
Ġ2 1
ØŃÛĮ ØŃ
ĠÙĨÙĪØ´Øª ÙĨ
A m
Ġsh ad
ĠØ¯Ø§Ø´Øª ÛĮÙħ
Ġem pt
ast e
Ġdescri bed
as hing
Ġab ility
ple ment
Ġb right
Ġex cl
Ġpr ay
ĠDav id
ĠÙħÙĤØ§ÙĪ ÙħØª
Ġfre ed
Ø® ÛĮØ±
ĠØ§ÙĤÛĮ Ø§ÙĨÙĪØ³
ĠØ¢ Ú¯Ø§Ùĩ
ĠØ¢ Ø³Ø§ÙĨ
b orn
ĠØ³ Ø§ÛĮØª
ĠØ´ Ú©Ø§Ø±
Ġh uge
ĠØ³ Ø±ÙĪ
ĠÛ±Û ¸
ĠÙĪØ± Ø²Ø´
P er
ĠØ³Ø± Ø·Ø§ÙĨ
ĠØªØ¬ Ø§Ø±Øª
ud d
Ġfor got
ĠØ®ÙĪØ§ÙĨ Ø¯Ùĩ
Ġev ents
Ġdire ction
Ġcompan ies
ĠØ± ÛĮØ²ÛĮ
ĠØªÙĪ Ø²ÛĮ
Ġgr ad
ĠÚ¯Ø±Ø¯ ÙĨ
p ing
ĠS chool
Ġfo cus
ĠÙģØ¶ Ø§
ĠØ¨Ø± ÙĨØ¯Ùĩ
Ġlear ning
Ġs ick
E S
ĠÙĪ Ø²ÛĮØ±
Ġb ird
ĠØ¯Ø± ÙĨÚ¯
ĠS ch
ĠR oman
ĠÙĨØ¯ Ø§Ø¯
ĠØ³ÛĮ Ø§Ø±Ùĩ
ph a
Ġocc up
) :
r ain
ĠÚĨ Ú©
ve re
Ġme asure
Ø§ Ú¯Ùĩ
ĠÛ±Û¹Û ³Û
bl es
Ġevery body
ĠAr men
Ùħ Ø§Ø±
Ġsa ve
Ġdesign ed
ĠØª Ø¯Ø±ÛĮ
Ġst ation
Ġpl ant
ĠØªØŃÙĤÛĮ ÙĤØ§Øª
Ú¯ ÙĪÛĮÛĮ
ĠÙĩØ§ Ø³Øª
ĠØªÙħ Ø±Ú©Ø²
end ed
ĠÙħ Ø§Ùħ
Ġde li
ĠØ¢ÙĪØ±Ø¯ ÙĨ
Ġpower ful
g ar
Ġbo ys
w ise
Ġd im
ap ed
ĠØ§Ø± Ø²
Ġsum mer
ĠØ¨ Ù¾Ø±
ĠÚ©Ø§Øª Ø±ÛĮÙĨ
ĠÙħ Ø´ØªØ±ÛĮ
ĠØ´Ø§Ø® Ùĩ
Ġthere fore
use um
ÙĨÛĮ Ø§
ĠØ¯Ø§ÙĨ Ø³ØªÙħ
z a
Ġbab y
Ø§Ø± Ø§
Ġre ach
Ġ201 4
Ġsitu ation
ĠÙħØ¹ÙĨ Ø§ÛĮ
ĠÙĪ ÛĮØ¯
Ø¨Ø± Ú¯
ĠØªØ±Ø¯ ÛĮØ¯
ĠÙħØª ÙĪØ³
Ġsupp ose
Ġresult s
Ġcent er
Ġunderst ood
Ġfore ign
Ġdel ight
as ons
ĠØ¯Ø§Ø¯ Ú¯Ø§Ùĩ
lect ed
Ġmeet ing
Ø¯ÛĮ Ùĩ
ri ll
Ø±Ø§ Ø³Øª
Ġcan cer
ĠÙħÙĪÙĤ Ø¹ÛĮ
Ġn ice
Ġr ich
Ø§ÙĪ ØªÛĮ
ĠÙ¾Úĺ ÙĪÙĩ
um an
ĠØ´ ÙĦÙĪ
ĠÙĨ Úĺ
Ġh all
ĠØ¹Øµ Ø±
ĠR on
iv ing
Ġt ar
Ġelect ric
ĠÙĨØ§Ø±Ø§ØŃ ØªÛĮ
ĠØ®ÙĪØ§Ø³Øª Ùĩ
ÙĩÙĨ ÙĪØ²
Ø³ ÙĨ
Ġad minist
ĠFe bruary
ĠØª Ø¹Ø¯Ø§Ø¯ÛĮ
ĠÙĨ Ø§Ø²
ĠØªØ§Ø±ÛĮ Ø®ÛĮ
ĠÙĪ Ø²
ĠØ¯Ø§Ø± ÙĪ
ĠØ« Ø§ÙĨÛĮÙĩ
Ø¦ÛĮ Ùĩ
Ġarri ved
ap ers
Ġ200 4
M ay
ĠÙĪØ± Ø²
Ġprov ide
ĠØ¨Ø± ÙĨØ¯
ÙĪØ±ÛĮ Øª
ĠØ¯ Ø®Øª
ĠØ¨Ø® ÙĪØ§ÙĨ
Ġpartic ip
ĠØºØ± ÙĤ
ĠØŃ Ø°
im ately
ÙħÙĨ Ø¸
ĠØ¨Ùĩ Ø¯Ø§Ø´Øª
ĠÛ²Û°Û±Û ±
Ø¨Ø³ÛĮ Ø§Ø±
ĠØ¨ ÙĪØ±
ĠÙħÛĮ Ø¯
Ø±ÙĪ Ø¨
ĠØŃØ¯ Ø³
ĠJ ames
ÙĢ Ø±
o o
ĠØ¨Ø± ÙĤØ±Ø§Ø±
Ġhard ly
r ons
ĠÙĪØŃ Ø´ÛĮ
ĠØ¹ Ø¬
ĠÙģÙĪØª Ø¨Ø§ÙĦ
ĠØ¢ÙĪØ±ÛĮ ÙĦ
he st
ĠÙĩØ§ÛĮ Ùħ
ĠC or
Ø±Ø§ ØŃØª
Ø±Ø§ÙĦ ÛĮØ§
ÙĪ Ø°
ĠØ± ÙħØ²
ce ll
Ø¨ÛĮ Ø´ØªØ±
ĠÙħØ±Ø§ Ø³Ùħ
ĠÙģÛĮØ²ÛĮ Ú©ÛĮ
ĠÚ¯ Ø²
ĠØŃØ§ÙĦ ØªÛĮ
Ġfoll ow
oph y
ĠWill iam
Ġ ign
Ø°ÛĮ Ø±ÛĮ
Ùħ Ø¯Ùĩ
or ing
ĠØ¨ÙħØ§ÙĨ Ø¯
ĠÙ¾ Ø¯ÛĮØ¯
Ġwor se
ĠØ¯Ø§Ø¯ ÛĮÙħ
Ġhapp ens
Ġg az
Ø¢ ÙĦ
Ġdri ve
al ian
ĠØ¯Ø±Ø¢ ÙĪØ±Ø¯
1 4
e en
Ġf right
ot ed
Ġacc ording
min a
Ġs outh
Ġwh atever
I N
c raft
Ġcond uct
ĠÙħØ¹ØªÙĤ Ø¯
Ø§ Ø¦ÛĮ
c ies
Ġform ed
Ġbe ar
ĠØ§ØªØŃ Ø§Ø¯ÛĮÙĩ
ÙĦÛĮ Ú©
ĠÙĤ Ø³Ùħ
Ġmar riage
ĠÙħØ°Ùĩ Ø¨ÛĮ
Ġar ran
Ø´ÙĨ Ø¨Ùĩ
Ġexper ien
ĠGen eral
Ġbehav ior
h ab
ĠØŃ ÙģØ§Ø¸
ĠÙĩÙħ ÙĪØ§Ø±Ùĩ
ate g
Ø¨ÛĮ Øª
ĠØ¯Ø³Øª Ø±Ø³
le ction
ÛĮØ² ÛĮÚ©
Ġb attle
ÙħØ§ Ø³
ĠØ¬ÙħÙĩ ÙĪØ±
h ad
Ġg arden
ĠØ² ÙĪØ¯ÛĮ
ÙħØ§ÙĨ Ùĩ
ĠØ§ÙĦ Ú©ØªØ±ÛĮ
ĠØ§ÙĨØ¯ÛĮ Ø´ÛĮØ¯
Ġmil es
Ġdo g
Ġplay ing
ĠØ¨ ÙģØ±
ÙĦ ÛĮÙĨ
ĠØ³Ø§ÙĦ ÙĨ
Ġdes ire
ĠØ¨Ú© ÙĨØ¯
ĠÛ ·Û
ĠØ§ÛĮØ³Øª Ú¯Ø§Ùĩ
id den
ĠD o
ort hern
ak er
ĠØ¬Ø§ÛĮÚ¯Ø² ÛĮÙĨ
ĠØ§Ø³ Ø±Ø§Ø¦
Ġcont ent
Ø· ÙĪØ±ÛĮ
ĠCan ada
ĠÙħÛĮ Ø±
ĠØªØ£ Ø³ÛĮØ³
i qu
ĠØ±Ø³ Ø§ÙĨ
ĠØŃ Ú©Ùħ
c ise
re m
ÙĤ Ø§Ø¨ÙĦ
Ġtr ack
Ġrem em
arlet t
ĠÙħ Ø¨ÙĦ
Ġcond ition
ĠØ¯ ÙĦÛĮ
Ø§ÙĨ Ø¯Ø±
ĠØ¨Ø± Ùħ
Øº Ùĩ
Ø¦ Ùĩ
ĠRe ferences
ĠØª Ø§ÛĮ
Ġtell ing
ĠØŃØ§ÙĦÛĮ Ú©Ùĩ
ĠØ³Ø®ÙĨ Ø±Ø§ÙĨÛĮ
Ġann ounced
ĠØŃÛĮØ± Øª
Ġn ames
Ġre ve
ĠÚ¯Ø± Ùĩ
alys is
E x
ĠÙħ Ø§Ø±ØªÛĮÙĨ
ĠØ´Ø± ÙĤ
ĠÛ±Û¹Û µÛ
1 6
s u
ak ed
Ġin vent
is c
ĠÚ©ÙĨ Ø¬
ĠÙĪØ§ ÚĺÙĩ
on se
ĠÙĨ ÙĪØ²
Ø§Ùħ Ø¯
ĠØŃ Ú©
ĠÙħØ¬ ÙĦÙĩ
ĠØªÙĪØ²ÛĮ Ø¹
ĠØ¨ Ú¯ÛĮØ±ÛĮ
Ġim plement
Ġaf tern
Ġmed ical
ĠÙħ Ø¨Ùĩ
ØŃ ÙĤ
ĠÚĨ Ø³Ø¨
ĠØ² Ø±Ø¯
ĠØ§ÙĨØ¯ ÙĪÙĩ
ĠØªÙĨ ÙĩØ§ÛĮÛĮ
Ġcle an
Ġp an
ĠÙģ ÙĪØ±ÛĮÙĩ
Ġpos itive
ar b
out hern
Ġun iverse
Ġthousand s
Ø¨ÛĮ Ø§
ĠØ¯ÙĦ Ùħ
ĠØ´Ø§Ùĩ Ø¯
Øº Ùħ
ĠØ¯Ø±Ø®Øª Ø§ÙĨ
et t
Ġcour t
Ġrequ ire
Ġlau ghed
Ġatt ract
Ġhapp iness
ĠÚ©Ø§Ø± Øª
ĠØ¯Ùģ Ø¹Ùĩ
ell a
ĠÙħØ§ÙĨ Ø¹
Ġpoint s
Ġbu y
Ġs ad
Ġaut om
ĠØ¯Ø± ÙĩÙħ
ĠØ²ÙĨØ¯ Ø§ÙĨÛĮ
Ġc ustom
ĠUn ion
ĠÙħØ®Ø§ÙĦ Ùģ
Ġc ities
ĠØª Ú©ÛĮÙĩ
ĠØ§ÙĪ ÙĦÛĮ
Ġabs olute
Ú¯ Ø³
ĠÚ¯Ø° Ø§Ø±Ø¯
ic o
r ated
Ġl oss
ĠØ¨Ø§Ø± Ø§ÙĨ
Ø¬ÛĮ ØŃ
ĠØ§ØµØ· ÙĦØ§ØŃ
ĠÙĤ Ø¶
ĠE gypt
ĠÙĨÙģØ± Øª
Ø±ÙĪ Ø´
ag ing
ers on
ĠÙħØ´ ÙĩÙĪØ±
ĠÙĤØ¯ Ø±ÛĮ
Ġrequ ired
ĠGeor ge
j ust
ĠØ§Ø®ÙĦØ§ ÙĤÛĮ
i pped
ĠÚĨ ÙĨÚ¯
ĠÙħØ¯Ø± ÙĨ
Ġrem ain
Ġdec ision
N e
Ġth ick
ĠØ´ÙĨØ§Ø³ Ø§ÛĮÛĮ
Ġaw are
ÙģØª ÛĮ
ĠØªÙĨ Ø¸ÛĮÙħ
Ġsor ry
Ġfa ith
Ġcl oud
ĠØ¨Ø±Ø¯ Ø§Ø±ÛĮ
Ġreal ity
ĠØµÙĨ Ø¹Øª
ĠØ´ÙĪÙĩØ± Ø´
h ib
Ġs ite
Ġno vel
Ġco ver
Ġplan et
Ġc itiz
Ġm ix
Ġle aving
Ġexp ress
Ġlist en
A C
Ð ¾
Ġco vered
l s
ĠÛ²Û°Û±Û ²
, '
ÚĨ Ø±Ø®
ĠØ¬ Ø§Ø¯ÙĪ
ĠØ¯ÙĪ ÙħÛĮÙĨ
ĠØªÙħØ§ Ø³
ĠÙĤØ± Ø§Ø±Ø¯
c os
ĠÙħ Ø£Ùħ
ĠØ¯Ø´ ÙĪØ§Ø±
Ġbo ard
ĠIn stit
i ber
ĠB el
ĠD ep
Ġst age
Ġpl aced
ĠÚ©Ùħ Ù¾
Ġlead ers
ĠØ² Ø¯Ùħ
Ġcir cum
Ġeas ily
an cing
Ġwalk ing
ĠØ§ÙĪ Ø§ÛĮÙĦ
ce nd
Ġv an
ĠÙģØ± ÙĩÙĨÚ¯ÛĮ
Ġserv ices
ĠÙĤ ØªÙĦ
Ġsm iled
ĠÙħØ· ÙĦØ¨
ĠÙ¾ÛĮØ± ÙĪØ²ÛĮ
ÙĪ Ú©
Ø³ Ø§Ø²
il ies
ĠØ§Ùģ Ø³Ø±
Ġser ved
ĠÙĥ ÙĨ
ĠS ir
Ġ200 3
ĠB ab
ĠÚĺÙĪ Ø¦ÛĮÙĩ
om y
ĠØª Ú¯Ø²
l or
ÙĨ ÙĪØ§ÙĨ
ĠØ§ØŃØªÛĮ Ø§Ø¬
ĠØ´ ØºÙĦ
ĠÙĨØ¸ Ø§Ùħ
ĠØ´Ùĩ Ø±ÙĪ
Ùĩ ÙħÛĮ
ĠÙģ ÙĨ
Ġqu ant
ĠÙĨØ¯Ø§Ø´Øª ÙĨØ¯
Ġincre ase
Ġt ro
al t
ĠØ¬ Ø±Ùħ
ĠÙ¾Ø± ÚĨ
Ø®ÙĪ Ø§ÙĩÛĮ
Ġus ual
ĠI van
ol a
Ġme as
ĠØ§Ùħ Ù¾Ø±Ø§Øª
ra q
ĠÚĨØ±Ø§ Øº
ĠØ¯ Ø§
ĠØ§Ø¹Øª ÙĤØ§Ø¯
ffic ient
ÛĮ ÛĮØ¯
Ġp age
ÙĢ Ø¯
Ø§Ø´Øª Ùĩ
ÙħØ± Ú©Ø²
S omet
Ġl ack
ist ics
ĠH ouse
Ġlet ters
ĠIS BN
ÙħØ§ÙĨ ÙĨØ¯
Ġdet ect
a el
ĠD em
ĠØ¨Ø²Ø±Ú¯ ØªØ±
Ġpres ence
ĠÛ ¹Û
Ú¯Ø° Ø´Øª
ÙĤ Ø¨
p ir
Ġst re
Ġr ange
kn own
Ġth in
ĠÙĦ Ø§ÛĮ
ĠØ³ ÙĪÙĨ
Ġgrow th
ÚĨ Ø§Ø±Ùĩ
am s
Ġsh own
ĠChar les
Ġh ung
ĠÙħØŃ Ø³
Ġh arm
ĠÙ¾ÛĮ ÙĪØ³Øª
1 7
P e
ĠØ¯ÙĪÙĨ Ùħ
g u
Ġcent ral
b ack
ĠÙħÙĨØª ÙĤÙĦ
Ġtyp es
Ġestabl ished
E C
ĠTh at
ĠPa ul
Ġfor ced
ĠÙĪØ§Ø¨ Ø³ØªÙĩ
o ch
ĠÙĨ Ø§Ø¯
ĠØ¯Ø± ÙħÛĮ
Ġour selves
in c
Ġunderstand ing
ĠEx ternal
Ġwatch ing
ĠØ§ÛĮ ÙĪØ§ÙĨ
Ġinterest ed
ĠØªÚ¯Ø² Ø§Ø³
Ø±Ø§ ØŃ
Ġst one
Ġv irt
ĠâĪ Ĵ
Ġrap id
ĠÚ©ÙĪØ¯ Ú©ÛĮ
Ġstru ck
ĠØª Ø§ÙĦ
Ġm arry
os es
Ġf resh
ĠØ§Ø±Øª ÙģØ§Ø¹
ĠÚ¯Ø± Ø³
ĠV ol
Ġadd ition
On ly
Ġchem ical
Ġwat ched
Ġp sych
Ġcont ribut
ĠÛµ Û
ĠØµÙĪØ± ØªØ´
Ġindust ry
ac hing
ĠØ® Ø¯Ø§ÙĪÙĨØ¯
ĠØ§Ø³Øª Ø±Ø§ÙĦÛĮØ§
Ġform s
ĠØŃÛĮ Ø§Øª
in ated
Ø³Øª ÙĨ
ĠH ow
ĠÙĨÙģ ÙĪØ°
Ġn ucle
ĠØ±Ùĩ Ø¨Ø±ÛĮ
Ġfix ed
ĠÚ©ØªØ§Ø¨ Ø®Ø§ÙĨÙĩ
ĠÙ¾ÛĮÚĨ ÛĮØ¯
Al though
ĠØ² ÙĨØ¬
ok ed
Ġus es
ĠÙħØ¹Ùħ Ø§Ø±ÛĮ
A b
c ad
ri al
O S
Ø¬ ÙĨ
ĠÙħØµ ÙĨÙĪØ¹ÛĮ
ÙĪ Ù¾
ist ance
Ġ201 5
ĠÙĨÛĮØ± ÙĪ
Ġfin ished
ĠØ¨Ú©ÙĨ Ùħ
Ġbe g
Ġsh op
ĠØªÙĪØ§ÙĨ ÛĮ
ĠÙħØ¬ Ø§Ø²
Ġrel ated
Ġn one
Ø§ÙĪ ÛĮØ±
Ø§ÙĦÛĮ Ø§ÛĮÛĮ
ÙĪ Ø³ÛĮ
ĠG ree
Ġprodu ce
ĠØ¢Ø¯ ÙħÛĮ
ing u
il s
all ed
ĠØ¨ÛĮ Ø§
ant a
ĠÙĤØ¨ ÙĦÛĮ
ĠÙ¾ÙĪØ´ Ø´
Y our
Øµ ÙĪØ±Øª
ĠC lyde
ĠÙħØ±Øª Ø¨
ĠÙĨØ§Ù¾ Ø¯ÛĮØ¯
Ġhum ans
Ġinvol ved
Ġf ro
od d
Ġorgan ization
ĠØ®ÙĪØ¯ Ø±ÙĪ
ĠØªØ± Ø§ÙĨÙĩ
ĠL a
ĠØªØ£ ÛĮÛĮØ¯
ĠØ¬Ø¹ Ø¨Ùĩ
an cial
ĠÙĤ Ø§
Ġli e
ĠW in
Ġte nd
Ġser ious
ĠØ®Ø± Ø¬
ĠØ¸Ø§Ùĩ Ø±Ø§
I V
ĠØ§ÙģØ² ÙĪØ¯
ĠÙĨØª Ø§ÛĮØ¬
Ġbes ide
Ġf aces
Ø®Øµ Øµ
in i
ĠØ§Ø± Ø¨Ø§Ø¨
ĠØ¢ Ø´ÙĨ
ri an
Ġpat tern
Ġfav or
Ġ iron
Ġple ase
Ġri ver
Ġnorm al
l ier
ĠØ¨Ø¯ Ùħ
ĠØ¨Ø¯ ØªØ±
A N
Ġbene f
Ġm aint
ĠK h
µ Û°
ĠÙĨØ¸Ø± Ùħ
Ġcond itions
ĠØ´Ú© Ø³ØªÙĩ
ĠInd ian
ĠØ³ ÙĤ
ĠØ±ÙĪØ² ÙĩØ§ÛĮ
Ġget s
Ġreg ular
y ear
ĠÂ ·
ĠØ§ Ú©Ø³
ĠÙħ Ø§Ø³
Ġleg s
ĠØ¨ ÙĦØ§ÙģØ§ØµÙĦÙĩ
ĠRe g
ĠFran k
C an
ran k
i j
ĠØ¬ ÛĮÙĨ
Ġse qu
ÙĢ ÙĨ
Ġinflu ence
Ġterri ble
Ùħ ÛĮØ±
Ġclot hes
ĠÛ±Û ¶
ed ia
Ġp aid
Ġsh ot
ĠÛ±Û¹Û ±Û
Ġbro ke
Ġopport unity
Ġn ine
te xt
ĠÙħØ« Ø¨Øª
Ġaftern oon
ĠÙĩÙħØ³Ø± Ø´
A h
ĠÚ©ÛĮÙĦÙĪÙħ ØªØ±
f ess
Ġd ut
ĠÛ±Û ±
ĠÚ¯ ÙĪÙĨØ§
Ú©Øª ÙĪØ±
ĠØ± Ø¯ÛĮ
Ġswe et
Ġj our
Ġreal ized
o ff
Ġh un
Ġne ck
ĠÙħØªØŃ Ø¯
L e
Ø± Ø¶
ĠØ¨Ø² ÙĨÙħ
ors es
ĠÙħÛĮ Ú©Ø±Ø¯
Ġl ines
ĠÛµ Û°
pp ing
Ġw it
or g
ĠØ¹ÙĤ ÙĦ
Ġnot ice
Ġconf lict
n ight
ĠØ³ ÙĨØ¬
ĠP ri
r ate
Ġf irm
Ġgentle man
Ø§Ø¯Ø« Ùĩ
Ġlead ing
Ġbott om
ĠÙħØ³Ø¦ ÙĪÙĦ
ĠØ®Ø§Ú© Ø³ØªØ±ÛĮ
w ood
IS BN
a it
ÙĪ ÙĦØ§
ĠÙĨÙĤ Ø§Ø·
ĠØ§Ø¯ Ø¨ÛĮ
ĠJapan ese
g round
ĠÚĨØ´ÙħØ§ÙĨ Ø´
a ign
ĠC ast
ĠP ort
Ġch ief
ĠÙĨØ¸Ø± Ø´
Ġte eth
ĠPr ince
Ġnot e
ĠÛĮØ§ÙģØª ÙĨ
ĠØºØ° Ø§ÛĮÛĮ
ĠØª Ø¶
Ø´ Ø§
Ġp ale
ol es
if orn
Ġspe ech
Ġsur round
ĠÙħÙĦ Øª
ul f
ines e
Ġimpro ve
ĠÙħ Ø§Øª
Ġo bl
ĠØ¢ÙĪØ±Ø¯ ÙĨØ¯
ĠN or
Ġa verage
Ġfo ol
Ġappro ach
ĠÙĨØ¨ÙĪØ¯ Ùĩ
ĠØ§ØªÙĪÙħ Ø¨ÛĮÙĦ
ĠÙħØ§ Ø¬
is ions
ĠÙĦ Ø±
ĠÙħÙĦ ÙĦ
Ġwall s
f l
ĠÙģ ÛĮØ²ÛĮÚ©
ĠI m
Ø§ÙĪ Ùĩ
gg ed
ĠØ¢Ø´ Ù¾Ø²
Ġanim al
Ġthrough out
ÙĪ Ø§Ø±Ø¯
ĠØŃØ° Ùģ
ĠÚ¯ Ø§Ùħ
ro ad
Ġne ither
Ġv ir
ĠØ¯Ø§ÙĨ ÛĮÙħ
ĠØ¹ÙĦ Ø§ÙħØª
uf act
ve y
ĠÚ©Ø±Ø¯ ÛĮØ¯
ĠØ§ÙĪ Øª
pp er
E T
ÙĪØ´ ÛĮ
Ġsp ot
Ġhold ing
Ġdraw ing
ĠÙ¾ Ø§ÛĮØ¯
Ġfreed om
ĠÙħØª ØµÙĦ
ĠØ¢Ø± Ø§ÙħÛĮ
ĠRuss ia
The ir
ĠØªØ± ÙĪØ±ÛĮ
s hip
Ġtr ain
P r
gh an
Ġ2 3
Ġd rew
Ġch urch
Ġ2 2
Ġint e
ash ion
Ġempt y
ĠÙģ ÙĪØ±Ø§
ĠØ³ÙĦ Ø·
âĢ Į
Ch rist
ĠØ¨Ø¹Ø¯ Ø§
Ġinst it
ĠÙģØ¶ Ø§ÛĮÛĮ
ĠØ¨Ø³ Ø§Ø²
ĠØ® Ø´ÙĨ
¹ Û°
Ġb od
ĠØ³ ÛĮÙĦ
ĠÙģ Ú©Ø±ÛĮ
ĠØ§ÙĦ Ùģ
ĠÙĨ Ú¯
Ġdis appe
ĠAr ch
Ġrepe ated
Ġstud ies
Ġexpl ain
ĠÚĺÙĨ Ø±Ø§ÙĦ
Ġp un
Ġmat hemat
Ġfing ers
C ome
ĠÚ©ÙĨ Øª
un ities
Ġent er
Ġadv ant
Ø¢ Ùħ
ĠÚ© Ø§ÙĦÛĮ
ĠÙĨÙĪ Ø§Ø²
ĠChrist ian
ĠØªØ± Ø¬ÛĮØŃ
ÙĦ Ø§Øª
ic les
ĠB o
ĠF il
ĠÙĨÚ¯Ùĩ Ø¯Ø§Ø±ÛĮ
Ø¯ Ø§Ùģ
at in
ce an
Ġlar ger
Ġmess age
Ġst ars
ĠO n
ĠØ§Ùħ ØªØŃ
Ġs ac
ag on
ĠÙĨÛĮ Ú©
ĠÙĨØ§Ù¾ Ø°ÛĮØ±
h old
Ġc ru
Ù¾ Ø§ÛĮÛĮ
ĠP ark
ag o
ĠØ³Ø±Ø§ Øº
Ġtar get
ĠØ¨ Ø¨Ø±Ø¯
ĠI raq
ĠÛ±Û ´
Ø§Ùģ Ø¹
Ġreport ed
ĠÙħ Ø¹Ø¯
ĠØ± Ø¶
ĠÙħÙĨ ÙĪ
ĠÙħÙĨ Ùģ
ØªÛĮ Ú©
us ing
Ġsh ape
Ġcon ce
ĠØ¯ÛĮØ¯ Ø§Ø±
ĠØ¬ÙĨ Ø¨Ùĩ
Ġmult ip
Ġpract ice
ĠÙħÛĮ Ø®
ĠØªØ± Ø³ÛĮØ¯
Ùģ ÛĮÙĦ
Ġf le
Ġbe ll
ĠØ¯ÙĪ Ø³ØªÛĮ
ĠJ ean
ĠØ³ÙĪ Ø¦
m ore
Ġbeaut y
Ġbl ind
ĠØ¨ÙĪ ÙħÛĮ
Ø¨Ø³ÛĮ Ø§Ø±ÛĮ
ĠÙĤÙĩØ± ÙħØ§ÙĨ
O ther
ĠÙĨ ÙĪØ±ÛĮ
ĠC oun
ail ed
ĠM ich
G o
u ous
ĠØ¹ Ø°
ĠÚ©Ø´ÛĮØ¯ ÙĨ
Ġpress ure
Ġopin ion
Ġfore st
Ġresp onse
ĠÙħ ÙĨØ¯
ĠØ±Ø§ Ø¶ÛĮ
ĠB ill
ĠâĢ ľ
Ø¬ ÙĪØ§ÙĨ
Ú©ÙĨ ÙĨØ¯Ùĩ
ÙħØ±Ø¯ Ùħ
Ġli ked
Ġfam ilies
h ouse
Ð ¸
ĠÙģ Ø¯Ø±
se c
Ġrelig ious
Ġin qu
Ġend ed
ĠØ§Ø¶ Ø·Ø±
ĠØ¯Ø± Ùĩ
Ġbo at
ĠÛ²Û°Û°Û ¸
ĠÙģØ±Ø³Øª Ø§Ø¯Ùĩ
D e
c ast
Ġh orses
ÙĦÙĪ Øª
ĠÛ²Û°Û°Û ¹
on el
ĠØ® Ø§ÙĦ
ĠØŃ ÙĪØ²Ùĩ
ĠÙĩØ²Ø§Ø± Ø§ÙĨ
Ġb al
os ite
ĠØ´Ú© ÙĦÛĮ
19 8
Ø´ ÛĮØ±
Ġm ir
Ġvar i
Øº Ø±
Ġ19 0
ĠÙĨØ¯Ø§Ø´Øª Ùħ
Ġmo le
iforn ia
ot es
ant ic
ĠÚ©Ø´ ÛĮ
Ġdest roy
Ġpass ion
ĠØ§ÙĪ Ø³Øª
ĠL F
ĠSp anish
Ġsm ell
Ġtr ade
ĠÚĨÙĩØ§Ø± Ùħ
ĠØ´Ø¹ Ø±
T wo
ĠÙĪÛĮ Ú©ÛĮ
Ġincre ased
ĠØ³ ØªÙĪÙĨ
ĠØ±Ø§ Ø³ØªÛĮ
Ġinclud ed
ĠØ¨ ÙĪÙĦ
Ġrel ative
ĠØªØ´ ÙĪÛĮÙĤ
Ø´ ÙĩØ±
Ġc red
ĠØ¬Ø³Øª Ø¬ÙĪ
ĠØŃ Ø¯ÛĮ
ĠØŃ Ø§Ø¯Ø«Ùĩ
ÙħØ§ÙĨ Ø¯Ùĩ
Ġli ber
Ġactiv ity
ac ing
ĠØ¨Ø±ÙĪ ÛĮÙħ
ĠÙ¾Ø§ÛĮ Ú¯Ø§Ùĩ
ĠØ¯ÛĮØ¯ Ú¯Ø§Ùĩ
Ġask ing
ĠÙĬ Ùĥ
Ù¾ Ø±Ø§
Ġca used
oll y
Ġl uck
Ġgr aph
Ġperform ance
Ġtele vision
Ġact ive
Ġlab or
k ay
m ione
Ùħ Ù¾
Ġ( )
ĠC r
ound ed
ĠØ§Ùģ ØºØ§ÙĨ
ÙĪÙĨ Ùħ
Ġle an
Ġmed ic
ĠÙħÙĩØ± Ø¨Ø§ÙĨ
Ġtreat ment
Ġcom mer
ĠØ¨Ú¯Ø° Ø§Ø±Ø¯
z en
Ø² ÙħØ§ÙĨÛĮ
ĠØ® ÙĦØ§Ùģ
Ġnot iced
ĠÙĨÙħÙĪØ¯ Ùĩ
ĠØŃÙģØ§Ø¸ Øª
p ro
ĠØ¨Ú¯ÛĮØ± ÛĮØ¯
Ø§ÙĨ Ø§
ĠØ¹ Ø±Ø¨
Ġpl ain
iz ations
ĠÙ¾ÛĮØ± ÙħØ±Ø¯
ĠØ¨Ø±Ø¬ Ø³ØªÙĩ
Ġcon sequ
B C
ĠØ¯Ø± Ú¯ÛĮØ±
ĠÙĦ Ø§ÛĮÙĩ
ĠØªÙħØ§Ø´ Ø§Ú¯Ø±
is ters
I D
M S
Ġ" (
pe red
Ġgiv es
Ġ ï
Ġsy mb
Ġob v
A re
at ives
ĠÙ¾ ÙĦØ§
Ġon line
Ġyou th
Ġsh ows
ĠJ ack
ĠØ±Ø§ÛĮ Ø§ÙĨÙĩ
ĠØ§Ø·ÙĦØ§Ø¹ Ø§ØªÛĮ
ĠØ¢ Ø²Ø§Ø±
and a
ĠL ist
ĠT ED
ĠÙħØŃØµÙĪÙĦ Ø§Øª
D id
Ùģ ÙĩØ±Ø³Øª
Ø® ÙĨØ¯ÛĮ
Ġst ick
Ġr id
Ø¦ ÙĦ
ĠIt alian
ĠAfric an
Ġtou ch
ĠÚ¯Ø°Ø± Ø§ÙĨØ¯
¸ Û°
Ø¨ Ø§Ø²ÛĮ
Ġr are
ian o
Ġcl im
y r
Ġ ^
ĠG lo
Ġfe ed
ĠTh is
ĠIt aly
ĠØ² ÙĪØ±
Ġwe ight
Ġch oice
ĠØ®ÙĪØ§Ùĩ Ø´
ĠØ±Ø§Ùĩ ÙĨÙħ
ĠØ¬Ùħ Ø¹ÛĮ
ĠÙĨÙĪÛĮ Ø³ÛĮ
ĠÙħ ÙĦØ§ØŃ
ĠÙħØµ Ø±
ĠØ¹Ø¬ÛĮ Ø¨ÛĮ
ĠØ¢ Ù¾
Ġre n
Ġ200 2
Ġthe r
Ú©Ø§Ø± Ø§ÙĨ
or row
Ġl aid
ÙĨÙĪ Ø´Øª
ĠØ±ÙĤ Ø§Ø¨Øª
Ø® Ø¯Ø§
ĠØ¨ÛĮ ÙģØª
7 8
y m
it able
Ġf it
Ġf arm
ĠÚĨ Ø§ÙĤ
st e
Ø§Ø´ Ø§
C l
ĠØ® Ø¨Ø±ÛĮ
ĠØ¯Ø§ÙĨ ÙĨØ¯
ĠØ¨Ø§ÛĮ Ø³ØªÛĮ
ĠØ§ÙĦÚ©ØªØ±ÛĮ Ú©ÛĮ
i ot
Ġh ang
ĠØŃØ±Ùģ ÛĮ
Ġb ran
Ġt one
Ġalgorith m
ĠÙĩ ÙĦ
ĠÛ±Û ³
el es
ĠØ§Ùħ ØªÛĮ
ĠØ¨Ø±Ø¯ ÙĨ
Ġsuccess ful
ĠÙĪ Ø¬
Ġbe at
ĠK ore
Ġpr int
ĠØ¬ÛĮ Ø¨
ĠÙħØ®ØªÙĦ ÙģÛĮ
Ġremem bered
ĠØ¢ÙĨ Ø§
ran ce
ĠØ±ÛĮØ§ Ø³Øª
ĠÚ¯ ÙĪØ±
ĠÙ¾ Ø¯ÛĮ
ĠØ¬ ÙģØª
Ã³ n
ĠÚ¯ ÛĮØª
ĠTh om
Ġt all
Ú© Ø¨
ĠØ§ÙĪÙĨ Ø¬Ø§
Ġold er
ĠÙħÙĩ Ø§Ø±Øª
ĠB ook
Ø¨Ø± ØªØ§
ĠSy stem
ĠÙ¾Ø§Ø¯ Ø´Ø§Ùĩ
Ġj ournal
Ġass um
ĠÙħØªÙĪØ³ Ø·
Ġman ufact
u nder
ol ved
ĠØªÙĪÙĦ Ø¯
rou d
ĠÙĨÙĤ Ø±Ùĩ
Ġscient ific
Ġobser ved
ĠAustral ia
ĠØ± ÙħØ§ÙĨ
Ġturn s
aim ed
Ø³ ÙĪØ±
Ġman agement
ĠÙĨÙĩ Ø§ÛĮÛĮ
· Û°
Ġan cient
ĠØ¨Ø¹Ø¯ ÙĩØ§
ĠØªÙĪÙĨ Ùħ
ĠØ§Ø®ØªØµ Ø§Øµ
P ro
ÙĨ Ø®
ĠØªÙĪ ÙĤÙģ
Ġsy nt
ĠÚ©Ø´ÙĪØ± ÙĩØ§
Ġsupp osed
Ġal ive
ĠØ¸ ÙĩØ±
ĠØ¯Ø±ÛĮØ§ ÚĨÙĩ
he red
ĠÚ©Ø±Ø¨ ÙĨ
: :
ĠÚĨ ÛĮÙĨÛĮ
ĠS pe
ĠÙħØ« ÙĦØ§
Ġ ÙĨØ¯Ùĩ
on ia
ar ian
Ġpro gress
ĠØ¹Ø±Ø¶ Ùĩ
Ġt ax
ĠâĢ ı
ĠØ¨Ø§ Ø¨Ø§
ĠØ¹ Ø¯Ùĩ
ĠÙ¾Ø± ØªØ§Ø¨
ĠØ²ÙĨ Ùħ
Ġr ule
Ġk it
Ġcare er
y e
ĠD ist
ĠW estern
ĠÙĨØ´ ÙĨ
ĠQ ue
Ø¦ ÛĮØ¯
Ġlo se
ĠØ¢Ø± Ø²
ĠÙĦÙĩ Ø³ØªØ§ÙĨ
ĠØ¨Ø§ ÙģØª
ĠCal ifornia
Ġar rest
Ġequ al
ĠS ov
ĠÙħØŃ Ø¯
Ġte a
Ġhous es
O ur
Ġl ying
Ø¬ ÛĮØª
ÙĪÙĦ Øª
Ġinclud es
Ø§Ø¨ Ø±ÛĮ
c ow
ĠØ¯ Ø§ÙĪ
Ġha ven
Ġex ch
Ġknow ing
Ú¯ÙģØª Ùħ
l a
ĠÙĤØ± Ø¨Ø§ÙĨÛĮ
ber g
Ġoff er
ĠØ¶ Ø±Ø¨
ĠØ³ÙĪØ± Ø§Ø®
ĠSov iet
ĠØ± Ø§ÙĨØ¯
ĠÙĦØŃ ÙĨÛĮ
b urg
ĠÙħÙĨ ÙģÛĮ
Ùħ Ú¯Ø±
Ø¹ Ø¯Ùĩ
ĠØ§Øª Ùħ
Ġimp act
Ġjour ney
ĠØ¯ Ø®
ĠÚ¯ ÙĨØ¬
ĠØ¨Ø± Ø§ÙĨ
ĠØ¹ Ø±Ø§ÙĤ
ĠR ed
Ġpres ident
ĠØ§Ø³Ø±Ø§Ø¦ ÛĮÙĦ
ĠØªÙħ Ø±ÛĮÙĨ
Ġpock et
ÙĤÛĮ Ø¨
ĠØªÙħ Ø§ÛĮÙĦ
Ġwant s
ĠÙ¾ÙĪ Ø´Ø§ÙĨ
s p
Ø§ÛĮ Ø§ÙĨ
ĠM at
Ġblo ck
Ġevent ually
ĠÚĨØ§ÙĦ Ø´
ĠØªØŃ ÙĤ
Ġspe ct
ĠØ¨Ú¯ÛĮØ± ÙĨØ¯
ash a
ĠÙ¾Ø°ÛĮØ± ÙģØª
ĠÚĨ Ø§ÛĮ
ĠÙħÙĪ ÙĩØ§ÛĮ
Ø¢ Ø¨
ĠH en
Ġst ock
ul s
ĠØªØ± Ø¬ÙħÙĩ
Ġint elligence
ĠØ´ Ø§Ø±
ĠØ§ÛĮÙĨ Ú©
ĠØ´ÙĪØ± ÙĪÛĮ
ÙĨ Ø¸
Ġw and
Ø±ÛĮ Ø´
Ġli br
ĠØ¨Ø¨ÛĮÙĨ ÛĮÙħ
al ing
Ú©ÛĮ Øª
ra wn
Ġpot ential
Ġg all
Ġme l
ÙģØ± Ø§ÙĨ
ĠØ¨Ú© Ø´Ø¯
ĠÙĤØ§Ø¨ ÙĦÛĮØª
Ø¯ Ú©ØªØ±
Ġc ard
e al
Ġc atch
Ġse at
ear ch
Ġdes ert
Ġre asons
ĠÚ¯ÙģØª ÛĮ
c lock
Ġl oud
ip s
ĠØ§Ø³ÙĦ Ø§ÙħÛĮ
ĠÙĩ Ø§Ø±
Ø¢ Ø±
as y
ĠC ong
ĠÙħÙĪ Ø²Ùĩ
ĠØªØ§Ø¨ Ø³ØªØ§ÙĨ
ĠÙĨØ§Ø¨ ÙĪØ¯
ĠØ®ÙĪ Ø§Ùħ
Ø² Ø§ÛĮ
Ġ200 1
cri pt
Ġo x
Ġb are
ĠØ³ÙĨ ØªÛĮ
ĠÙ¾Ø± ÙĪØ±Ø´
ĠN at
Ġang ry
Ġsurpr ise
Ø±Ø¯ ÙĨ
Ø¯Ùĩ Ùħ
Ú©Ø± Ùĩ
Ġsome body
Ġdocum ent
T r
ĠØªØµ Ø§ÙĪÛĮØ±
Ġintrodu ced
Ġfeat ures
ĠÙħØŃØ³ ÙĪØ¨
ĠÙ¾ ÙĪÙĦÛĮ
um bled
ÙĨØ§ Ú©ÛĮ
Ġ2 7
ĠØ¢ÙĨØ¯ Ø±Ùĩ
p ic
Ġh it
Ġe ast
Ø¢ ÛĮ
Ġocc asion
ri f
ÙĢ Ø§
ĠÙĨÚ© ÙĨØ¯
ĠÙħØŃØ§Ø³ Ø¨Ùĩ
Ø¹ ÙĦ
ĠÙ¾ÙĨØ¬ Ø§Ùĩ
Ġdeg ree
Ġfor th
ĠØµ ØŃÛĮØŃ
ĠR os
ĠCh inese
ĠÙĨØ¨ÙĪØ¯ ÙĨØ¯
ĠØ¨ØªÙĪØ§ÙĨ ÙĨØ¯
ĠØªÙĦÙĪÛĮØ²ÛĮ ÙĪÙĨ
en ge
Ġf ashion
ĠØ³Ø§ÙĦ ÛĮ
Ġhosp ital
ĠØ¯ Ø§ÛĮ
ĠÙģØ±Ø² ÙĨØ¯Ø§ÙĨ
ĠÙħØ¤ Ø³
Ġf al
ĠÙĦ Ø¨Ùĩ
o ved
Ġa im
Ġb ase
Ġcircum st
ĠÙĪ Ø²ÙĨ
Ġp ark
ĠØ±Ø§ Ø²
ĠØ¢Ùħ ÙĪ
pect ed
Ġr ing
ĠÙħØŃ Ú©ÙĪÙħ
ĠØ§Ø± Ø§Ø¯Ùĩ
ĠØ¨Ø±Ø¯ ÙĨØ¯
Ġfeel ings
Ġproper ty
ĠØ¬ ÙĪÙĨ
ol ic
ÙĪÙħ Ùĩ
Ġ8 0
v olution
Ġ6 0
Ġhur t
ĠÙĪ Ø§ÛĮ
ĠÙĩÙħ Ø³
el ess
ĠÛ ¸Û
Ġv ac
ĠT rans
Ġgu ard
ĠÙĨØ§Ùĩ Ø§Ø±
I T
Ġsp ite
ĠØ¨Ø¯Ùĩ ÙĨØ¯
Ġappear ance
ĠInstit ute
I C
ac ity
Ġear lier
ĠØªØ³ ÙĦÛĮÙħ
ĠÚ©ÙĨ Ø§ÙĨ
Ġsu c
ĠSw ed
Ġ199 0
ĠØ¢ÙĪ Ø§Ø²
u h
at ab
ĠS aint
Mr s
Ġsold iers
Ø¨ Ø³
ou red
ĠØ¬Ø§ÙĨ Ø¨
ĠØªØ£ ÙħÛĮÙĨ
Ġw ished
Ġb ag
Ġr ise
ĠØ¯Ø®ØªØ± Ø§ÙĨ
ĠPol and
ĠÙħØ§Ø±ÛĮ Ø§
ĠØ¨Ø±Ø¯ Ø§Ø±
ili ar
t ime
Ġsh ock
Ġhelp ed
Ø¬ ÛĮÙĨ
Ġcl os
ens ion
Ġviol ence
Ø§ÛĮÙĨ Ø¬Ø§
L ook
ĠØ´ Ø¨Ùĩ
ĠÚ¯ Ø§ÙĪ
ĠD or
ĠØŃØ§Ø¶ Ø±ÛĮÙĨ
Ġentire ly
rou p
ĠÙħØ± Øº
ĠÚ©Ø§Ø± Ø®Ø§ÙĨÙĩ
ĠØ®Ø·Ø± ÙĨØ§Ú©
ĠÙħÙĩÙĨØ¯ Ø³ÛĮ
ĠÚ©Ùĩ ÙĨÙĩ
ĠÛ²Û°Û±Û ³
Ġeconom y
yd ro
M ore
Ġpr ice
ĠÙģØ±Ø§ ÙĪØ§ÙĨ
Ġassoci ated
ĠØ³ Ø§ÛĮ
ĠÙĨØ¸ ÛĮØ±
ĠÙĪØ³ Ø§ÛĮÙĦ
Ġest im
Ġsignific ant
ĠØ¹Ø¬ ÙĦÙĩ
it he
Ġgo al
ĠÙħÙħÚ©ÙĨ Ùĩ
Ġsol ution
Ġpolic y
Øµ Ø§Ø¨
Ġf ish
ĠÙģ Ø§ÙĨÛĮ
ĠØ¯ÙĪ Ø§Ø²Ø¯Ùĩ
ok en
ĠWh ite
le br
Ġst ore
Ġele ments
ĠØ¨Ù¾ Ø±Ø¯
I nd
ĠP ers
ĠØ¯ÛĮ Ø¬ÛĮØª
ĠØ¨Ø§Ø´ Ú¯Ø§Ùĩ
Ø¯ Ø§ÛĮÛĮ
ĠÙħØ®ØµÙĪØµ Ø§
ign ed
Ø²Ø§Ø± Øª
ĠAf ghan
Ġsuc ceed
E ach
Ú© ÙħÛĮ
Ġse ason
ĠØ§Ø´Øª Ø±Ø§Ú©
Ġresour ces
ĠØ§ÙħØªØŃ Ø§ÙĨ
t te
ĠÙħÛĮ Ú©Ø±ÙĪ
Ġiss ue
ĠÙĦØ±Ø² ÛĮØ¯
c a
Ġd ry
ter ing
ĠÙħØ±Ø¯ ÙħÛĮ
Ġfam ous
Ġinter p
f fe
ĠR o
Ġr u
ÙĬ Ø±
ĠÙ¾ÛĮØ± Ø§Ùĩ
Ġbecom es
3 0
ĠT V
ĠØ§Ø¹Øª Ø±Ø§Ø¶
Ġiss ues
Ġyell ow
I P
ĠØ± Ø£
ĠÙħÛĮ Ø§Ø¯
ĠÚ©Ø´Ø§ÙĪØ± Ø²ÛĮ
Ú¯ÙĨ Ø§ÙĦ
Ġtit le
ĠÙħØŃ Øª
ĠÚ¯ÙĦ ÙĪÙĦÙĩ
Ġgreat est
ĠMus lim
ĠØ® Ø§Ø·
ĠØ§Ø± Ø²ÛĮ
ĠØ´Ø¨ Ø§Ùĩ
ĠØ®Ø± Ø§Ø¨
ĠØ§Ø¹Øª Ø±Ø§Ùģ
Ġdef ined
ĠÙĨ ÙĢ
itt ee
c u
Ùģ ÛĮÙĦÛĮÙ¾
ĠØ± ÙĨÚ¯ÛĮ
ĠØ¨ÛĮ ÙĦ
Ġesc ape
ĠØ§Ùħ Ø±ÙĪØ²Ùĩ
ĠØ§Ø´ ÛĮØ§
ord s
ĠØ³ÙĤ ÙĪØ·
Ġ* "
Ġrele ase
Ġobject s
ĠÙ¾ Ø¯
ĠÙħÙĪ Ø´
ĠØ¯Ùĩ ÛĮ
ĠØªÙĦÙĪÛĮØ²ÛĮ ÙĪÙĨÛĮ
Ø¶ Ø§Ø¹
ĠØ¨ÛĮ ÚĨØ§Ø±Ùĩ
ĠL ou
ĠØ¯ÛĮØ¯ ÙĨØ¯
Ġ ice
ĠÙĪ Ùģ
ĠÛĮ Ø§ÙĨ
ĠP ierre
ĠÙħØŃ ÙĤ
Ġfl at
ĠÚ©ÙĪØª Ø§ÙĩÛĮ
ĠØ§Ú© Ø«Ø±
Ġin j
ĠØ¶ Ø¨Ø·
Ø¨ÙĪØ± Ú¯
on ed
ĠR ich
Ġno ise
Ú© ÙĪÙĨÛĮ
Ġqu ality
Ø¨Ø¯ ÙĪÙĨ
ÙĪØ§ÙĤ Ø¹Ø§
ĠØ¢ ÙģØ±
ĠÛ²Û°Û°Û ¶
M A
ĠL aw
ĠÙħØŃ ÙħØ¯
ĠØ¯Ø§ÙĨØ´ Ø¬ÙĪÛĮ
Ġcontin ue
ĠÙħØªØ¹ ÙĦÙĤ
ĠØ² Ø§Ø¯Ùĩ
ĠØ¬Ø° Ø¨
Ġrul es
Ġstre ets
ÙĪ Ø§ÛĮÛĮ
Ø· Ø¨
ĠÙħØ³ Ú©ÙĪ
Ġgr ass
ĠØ¬ÙĦÙĪ Ùĩ
An other
ÙĦÛĮ Øº
ĠÙĦ ÛĮÙĨ
ĠCh urch
Ġind ic
G ood
Ø® ÙĪØ´
Ġfin ancial
Ġhon or
Ġpred ict
ĠM al
S c
ĠÙħÛĮ ØªÙĪÙĨ
Ø§ÙĦ ÙĪ
Ġe th
ĠØ§Ùģ Ú©ÙĨØ¯
ĠÙħØŃØ§ÙģØ¸ Øª
Ø± ÙĨÚ¯
ĠØ¨ÙĪØ¯ ÛĮ
ob ile
ĠÙħØ³ÙĦ ÙħØ§ÙĨ
ĠMart in
ĠD ay
Ġdark ness
ĠGo vern
m ission
ĠM el
res p
ĠÙħØ§Ø¯Ø± Ùħ
Ġsil ver
Ġbuild ings
N ew
ĠÙĩ ØªÙĦ
ĠØªØ§ Ú©ÙĨÙĪÙĨ
Ġad op
ĠØ¨Ø§Ø± ÙĩØ§
ĠØ³ÙĪ Ø¡
b ased
ĠØ¨Ø± Ú¯Ø²
our s
Ġag ree
ÚĨ ÛĮØ²
ĠØ¢Øº ÙĪØ´
Ġfem ale
ac hes
Ġwe alth
It s
Ġpr ote
ars h
ĠØ§ÛĮÙĨØªØ± ÙĨØªÛĮ
ĠØ±Ø¶ Ø§ÛĮØª
¶ Û°
ĠØ³ ÛĮØ±
ret ched
Ġed ge
ĠM iddle
ĠØµ Ø§Ùģ
ĠÙĤÙĦ Ø¹Ùĩ
er ous
Ġre b
ĠC am
Ġr ace
Ġcal m
ĠØµÙĨ Ø¹ØªÛĮ
L ike
a ult
Ġto m
ĠTur k
Ġw is
ĠØ¬ ÙĪÛĮ
ĠØ¢ÙħØ±ÛĮÚ© Ø§ÛĮ
Ġrev olution
6 0
ĠØ¯ÙĪ ÛĮØ¯
ĠH igh
Ġun ivers
Ġcamp aign
ĠØªÙħØ§Ø´Ø§Ú¯Ø± Ø§ÙĨ
ĠØ¹ Ùģ
ĠM o
ĠSt ud
Ġlist ening
Ġdro pped
Ġrelig ion
ĠÙĨ Ø±Ø®
Ø§ÙĦ Ø§ÙĨ
Ø³Ø§ Ø³ÛĮ
ĠMos cow
ĠM ac
Ġph one
Ġfind ing
Ġlaw s
ĠCoun cil
a res
ĠÙĪ Ø§Ø¶
Ø¨Ø¯ ÛĮÙĨ
Ùħ ÙĨÛĮ
ĠØ¨Ùĩ ØªØ±ÛĮ
Ġle aves
Ġinc red
ĠÙĩÙħ Ú¯ÛĮ
Ø¢ ÙħÛĮØ²
Ġinst ance
ĠØ¨Ø§ Ùĩ
ĠØ§ÙĨØ¯ Ø§Ùħ
Ġoffic er
Ġconnect ed
k es
ĠØ¨Ø± Ø§
ĠØ±ÙĪØ² ÙĩØ§
ĠÙ¾ÚĺÙĪÙĩ Ø´
ĠS un
ĠÙħØª Ø¹Ø¯
Ġim ages
ĠØ²ÙħÛĮÙĨ ÛĮ
Ġplay er
Ġcor rect
Ġleg al
Ġjo ined
Ġwe b
Ġr ank
ÙĢ Øª
Ġcl ub
ĠÙħØ³ÛĮ ØŃÛĮ
ĠG mina
um n
Ġpat ients
ĠØ¨Ú¯ÛĮØ± Ùħ
Ġmot ion
MD b
ĠÚ©Ø§ÙĦÛĮ ÙģØ±
ĠØµ Ø§Ø¯Ø±
Ġal t
Ġco at
ĠØ§Ùĩ Ø¯Ø§Ùģ
ÙħØ² ÙħÙĩ
ÙħØ« ÙĦØ§
Ġfield s
Ġopp osite
Ð µ
ĠÙ¾Ø± ÙĨØ¯Ùĩ
Ġsm iling
Ġ18 9
ĠAs soci
ĠCent er
ĠM ont
Ġcar bon
Ġap art
Ġpull ed
ffic ial
Ġenc our
ĠÙ¾Ø³ Ø±Ø´
Ġsy m
ĠØ³Ø±Ø¨Ø§Ø² Ø§ÙĨ
ĠÙĪ Ø²Ø§Ø±Øª
Ġst ream
ul ated
Ġdem ocr
ĠÙĩ Ø¬
ĠØª ÙĪØ¯Ùĩ
ĠØ¢ Ø°
Ø±Ø§ Ø¹
ĠÚ©ÛĮÙģ ÛĮØª
Ø´ ÛĮÙħ
Øµ Ø§ÙĦ
ĠØ¯Ø³Øª Ú¯ÛĮØ±
Ġd ance
ĠT er
ĠÛ±Û ·Û
ĠØŃØ³ Ø§Ø¨ÛĮ
Ġinter view
ĠØ± Ø³Øª
ĠM il
ĠØ§Ùħ Øª
Ġsound s
ĠØ¢Ø²ÙħØ§ÛĮØ´ Ú¯Ø§Ùĩ
Ġkit chen
r ont
ĠØ± Ø¤
ĠÙĨ Ú¯Ø§Ø±
Ø§Ø¨ ÙĤ
ĠØ§ÙĨØª ÙĩØ§ÛĮ
Ġshould er
up id
Ġart icle
Ġelect ron
Ø° Ø§
cl es
n am
pl ic
Ġstart ing
Ġhon est
Ø® ÙĪØ§ÙĨ
ĠÙĤØ· Ø§Ø±
ĠØ§ÛĮØ± Ø§ÙĨÛĮ
ĠØµÙĨØ¯ ÙĪÙĤ
Pe ople
ĠØ§Ø³Øª ÛĮ
Ġpo et
Ġs and
Ġd read
ĠF ed
ĠØ¨Ø±Ø¢ ÙĪØ±Ø¯
ĠÙħØ§Ø¯ Ø§Ùħ
ĠØº ÛĮ
Ġsp ort
ĠØ¢Ø± Ø²ÙĪ
ĠØ§ÛĮÙħ Ø§ÙĨ
e ff
Ø¹ ÙħÙĦ
Ø¹ ÙĦØ§ÙĪÙĩ
Ġis land
ĠÛ±Û ·
ĠSo ciety
Ġexist ence
ĠÙĨØªÙĪØ§ÙĨ Ø³Øª
ĠØ¯ Ø²
Ġ198 0
Ġob t
ĠØ¨Ø¹ ÙĨÙĪØ§ÙĨ
Ar t
ĠØ´ Ø§ÙĨØ³
ĠØ¨Ø§ Ø¨
av al
Ġp a
Ġval ues
ĠÚ©ÙĦÛĮ Ø³Ø§ÛĮ
Ġrad io
ar ia
as hed
ĠAr my
Ġmag ic
ĠØ¬Ø° Ø§Ø¨
Ġin form
ĠØ¨ÛĮ Ø§ÙĪØ±Ø¯
Ġthan k
Ġgr own
Ġtyp ically
Ġg ames
Ø±ÙĪ Ø²ÛĮ
ĠØ³ÛĮ Ú¯ÙĨØ§ÙĦ
Ġsc ar
Ø³Ø± Ø§ÙĨØ¬Ø§Ùħ
Ø§Ú¯Ø± ÚĨÙĩ
ĠØ¬ÛĮÙħ Ø²
Ġw est
ĠÙħÛĮ Ø§ÙĨÙĩ
ĠØ¹Ùħ Ø¯Ùĩ
ÙģØ± Ø§ÙĨØ³
Ġput ting
Ġbecom ing
ĠÙĨ Ø§Ø³
Ġon to
ĠØ·ÙĦ Ø§ÛĮÛĮ
Ø³Øª ÙĪÙĨ
Ġof fered
Ø§ØŃ Ø³Ø§Ø³
ĠØ§Øµ ÙĪÙĦ
ĠØ¨Ø§Ø²ÛĮ Ú©ÙĨ
ĠPet er
Û ±
ĠÙħÙĨ Ø§Ø³
ĠA ct
Ġinst ant
ĠÙħÛĮÚ©ÙĨ Ùħ
Ġlaugh ing
Ġachie ve
m et
Ø³ Ø§Ùħ
ar row
Ġmat ch
ĠÙĨ ÙģØª
ĠAnd rew
Ø± Ø§ÛĮÛĮ
ĠÙħÛĮØ´ ÙĪØ¯
Ġindepend ent
Ø® Ø¯Ùħ
ant ed
ĠIs land
ĠØ§ÙħØªÛĮ Ø§Ø²
ĠØ® ÙĨ
ĠØª Ø§Ø±
ian a
ĠØ¨ Ø®ÙĪ
Ø¨ ÚĨÙĩ
ĠD es
ĠØ®ÙĪØ§Ø³Øª ÙĨØ¯
ĠØ¬Ø³Øª Ø¬ÙĪÛĮ
ĠÙģÙĤ ÛĮØ±
e per
ĠØ§Ø³Øª Ø¯
Ġde b
ĠØ´Ø± Ùħ
Ġav oid
e ah
ĠØªÚ© Ø§ÙħÙĦ
ĠØµ ÙģØ±
ĠR oy
Ġsmall er
ĠÙĩÙĪØ§Ù¾ÛĮÙħ Ø§
Ġbod ies
Ġcont act
Ġhapp ening
ann ed
Ġeffect s
Ġno se
Ġche ck
Ø§ÙĨØª ÛĮÙĨ
ĠGlo bal
Ġt aught
ĠØ¯ÙĪØ± Ø¨ÛĮÙĨ
Ø§Ùĩ ÛĮÙħ
id ae
ĠL ib
Ġ2 8
ĠØ± Ø®Øª
ĠO h
ĠØ¢ÙĪØ± ÙĨØ¯
Ġmod els
ĠGr and
ĠØ§Ø³ØªØ® ÙĪØ§ÙĨ
ĠØ´ Ú©ÙĨ
le ep
ĠÙĤ ÛĮ
ĠÙĨØ¸ Ø±ÛĮ
ĠØ§Ø¨Ø± Ø§Ø²
ĠÚ©ÙĪØ´ ÛĮØ¯
ĠÙħØŃØ¨ ÙĪØ¨
Ú¯ Ø²Ø§Ø±
ĠØª ÙĪÙĨÛĮ
ĠÙĩÛĮ Ø¦Øª
ĠÛ±Û¹Û ²Û
Ø¯Ø§Ø± Ø§ÙĨ
ĠØ±ÙĪØ´ÙĨ Ø§ÛĮÛĮ
gen cy
Ġwe ap
ĠÙħÙĨØ· ÙĤÛĮ
ĠPro v
ØŃ Ø±
ĠÙħÙģ ÛĮØ¯
ĠÙĨØ´ ÙĪÙĨ
Ġa ward
Ø· Ø¨ÛĮ
ĠÛ²Û°Û°Û ·
g ent
ĠÛĮ ÙĪ
ĠÛĮØ§Ø¯ Ú¯ÛĮØ±ÛĮ
ĠÙģ Ø§ÛĮØ¯Ùĩ
Ġha bit
Ġsp ring
Ġev il
Ġt iny
Ġp et
ĠÛĮ ÙĤÛĮÙĨ
Ġun cle
Ġappro x
Ġcho ose
Ġ id
ĠØ¨ Ø§ÙĨØ¯
ĠÙĨ Ø§Ø¯Ø±
Ġd ust
ĠØŃ ÛĮØ§Ø·
ick ed
Ġsour ces
ĠØ§ÙģØºØ§ÙĨ Ø³ØªØ§ÙĨ
Ġf ol
Ø¹ Ùģ
ĠØ· ÙĦØ¨
ĠØ§Ùħ Ø¶Ø§
Ġsome where
Ġtw ice
Ġche ek
Ú¯ Ø§
Ġhe aven
ĠØ¬ Øº
Ø±Ø§ Ø³ÛĮ
Ġbur st
Ùģ Ø±Ø¯
Ġperfect ly
ĠØ³ ÙĦØ§ØŃ
ĠÚ©Ùģ Ø´
Ġsqu are
ÙĦØ§ Ú©
Ġtr aining
ĠÛ²Û°Û°Û µ
ĠÛ²Û°Û±Û ´
ĠØ§ØŃØªÛĮ Ø§Ø·
ĠÙħØ§Ø¬ Ø±Ø§
Ġm icro
ĠØ¨ÛĮ Ùĩ
ĠÙħØ· ÙĦ
vent ion
ĠS al
um ent
ĠÙħÙĤ Ø±
Ø²ÛĮ Ùĩ
ĠÚ©ÛĮ Ø´
ĠØ¯ Ø¹Ø§
ĠØ´ Ø¬Ø§
Ġd ate
ĠØ¹ Ø¸
ĠTh ank
ĠØ¨ØŃ Ø±Ø§ÙĨ
ĠIran ian
bo ard
ÛĮØª Ø±ÛĮ
S A
Ġu lt
ĠÚ©Ø´ÛĮØ¯ ÙĨØ¯
Ġwind ows
i h
ĠØ§Ø¯ Ø¹Ø§
Ġproduct s
Ú© Ø§ÙĦ
Ġth ro
ĠØ¯Ø§Ø± ÙĨ
ĠØ¬ÙĨ Ú¯ÛĮ
Ġprev ious
Ð ½
ĠØ§Ø³Øª Ø±Ø§Øª
Ġshould ers
us hing
Øª Ø§Ùħ
ic ide
ĠØ±ÛĮ Ø´
ĠÙħØ³ÛĮ ØŃ
Ġf ly
and ing
ĠÙħØ§ Ø³Øª
ĠØªØ¨ ÙĦÛĮØº
fess or
ÙĤÙĦ Ø§ÙĦ
Ġpie ces
ĠØ§ÛĮØª Ø§ÙĦÛĮØ§ÛĮÛĮ
ĠD en
ĠÙĨØ³Ø¨Øª Ø§
ĠØªØ§Ø¨ Ø¹
Ġfight ing
ĠØ±Ø§ Ø³
ĠØ³Ø± Ø²
ĠW ind
Ġen emy
Ú© ÛĮØ¯
ĠØ¨Ø± ÙĪÙĨØ¯
Ú©ÙĪ Ù¾
b re
Ġc ars
Ġto ols
ĠØ§ÙĨ Ùģ
ĠÚ©Ø§Ø± Ú¯Ø±
ian ce
Ġchar ge
ĠØŁ "
Ġhead s
Ġlist ened
ĠØ´ Ø§Ø¹
ĠØ³ Ø§Ø¯Ú¯ÛĮ
ĠØ§ÙĪ Ùĩ
Ġrec ent
Ġstud ent
Ġindividual s
Ø§Ùĩ Ø§ÛĮÛĮ
ur b
Ø¢ÙĨ ÚĨÙĩ
Ùħ Ø§Ø±ÛĮ
ØŃ Ø§ÙģØ¸
Ġcont ract
Ġpat ient
ĠEd ward
Ġhig hest
Ġre action
ĠJ ust
Ġfound ed
Ġcal cul
Ġbas ic
c her
Ġe ld
Ø· ÛĮÙĦ
ĠØ¯Ø³Øª Ùħ
Ġdetermin ed
ĠÙ¾ Ø§ÙĦ
Úĺ ÛĮÚ©
Ġ197 0
Ġd u
Ġsc ale
Ġk id
ĠL u
oint ed
Ġmaterial s
Ġce lebr
Ġadvant age
ĠÙħØª Ø£
Ġsc ene
Ġg ate
Ġas se
ĠØªÙĪØµÛĮ Ùĩ
ĠØ¨ÛĮÙħØ§Ø± Ø§ÙĨ
Ġobl ig
ĠØ¨Ø± Ø²
olog ies
ĠÛĮÚ© Ø³Ø§ÙĨ
Ġf ile
ĠÙĩÙħ Ø¯ÛĮÚ¯Ø±
ĠØ¨Ú¯ÛĮØ±ÛĮ Ùħ
C on
j o
p ire
ĠØ¯ Ø¨ÛĮØ±
ĠØ¢ÙĨ Ú¯Ø§Ùĩ
ĠØ³ÛĮ Ú¯Ø§Ø±
ĠØ¨Ø® Ø§Ø·Ø±
Ġinter act
ĠÙĨØ¯Ø§Ø± ÛĮÙħ
Ġlevel s
Ġrecogn ized
ĠØ¨Ø± Ùģ
ĠS erv
Ġdep art
Ġslight ly
Ġs pl
ĠM ag
Ġr ub
ĠØ§ÙĨÚ¯ ÛĮØ²Ùĩ
ĠÙĦÛĮ Ø³Øª
O N
Ø± ÙģØªÙĩ
ĠØ¯ Ø§Øº
Ø² Ø§Ø¨Øª
ĠÙħØª Ùħ
ĠÛĮ Ø§Ø¨
se e
ir ing
Ġwe ar
Ø¨Ø§Ø² Ø¨ÛĮÙĨÛĮ
ĠCent ral
el ve
Ġ2 6
Ġt ired
ĠØ¯ Ø²Ø¯
ĠE r
Ġamaz ing
i i
Ġp air
ĠØ§ÙĪ Ø¶Ø§Ø¹
ĠÙĨØ§ Ú¯Ùĩ
u be
Ġun f
Ø§ Ø¹Øª
ĠÙħÛĮ Ú©ÙĨØ¯
ĠØ¨Ùĩ Øª
Ġr out
Ġsh ook
ĠÙĪØŃØ´Øª ÙĨØ§Ú©
Ġmultip le
ĠÙħ ÙĤÛĮ
Ġprov ided
Ġc art
ĠÚ©Ø§Ø± Ùħ
ĠÚĨÛĮ Ùĩ
ĠØ§ØŃ Ø³Ø§Ø³ÛĮ
ĠAs ia
ĠÙħÙĪØ¬ÙĪØ¯ Ø§Øª
Ġinte gr
Ġan alysis
Ġfl ag
ĠÛĮØ§Ø¯ Ø¯Ø§Ø´Øª
Ġmethod s
Ġp roud
ĠØ§ÙĦÙĩ Ø§Ùħ
ĠDep artment
ĠÙĪ Ø§Ùħ
Ġf ully
ĠØ® ÙĪÛĮ
ĠØ¯ÙĪØ³Øª Ø´
Ġhigh ly
ĠÙħØªÙģ Ø§ÙĪØªÛĮ
ĠØª Øº
Ġst ro
ĠÙħÙĤ Ø¯Ø§Ø±ÛĮ
ĠØ§Ø« Ø¨Ø§Øª
ĠC our
Ġcomp on
ĠÙħØ³Ø¦ ÙĪÙĦÛĮØª
ĠÙħØ¹ Ø±Ø¶
ĠK ar
Ġbre ast
ĠÙ¾Ø±Ø³ Ø´
Ġinvest ig
Ø¬ Ø§Ø±
ĠÚ¯Ø± Ú¯
ÙĦÙĪ Ø¨
Ø£ Øª
ĠØ§Ø®Øª ÙĦØ§Ùģ
ĠÙħÛĮÚ©ÙĨ ÙĨØ¯
Ġr ough
ĠÙħÙĤ Ø¯Ùħ
ĠÛ²Û ´
ĠØ¨Ùħ Ø¨
A P
ĠÙ¾Ø±ÙĪ ÙĨØ¯Ùĩ
Ġsurpr ised
Ġsepar ate
p en
Ñ Ģ
Ġs now
ĠB ank
ĠØ¨Ø® ÙĪØ±
Ġgener ation
ĠRober t
re es
ĠØ§Ø³Øª ÙĤÙĦØ§ÙĦ
ĠÙħØª ÙĪÙĦØ¯
Ġcar riage
Ġlad ies
Ġn erv
Ġcon cent
ĠÙ¾Ø¯Ø± Ùħ
ĠÙ¾ Ø§Ø´
ĠÙħØ³Ø§Ø¨ ÙĤØ§Øª
Ġtemper ature
May be
ĠÙĨØ§Ú¯Ùĩ Ø§ÙĨÛĮ
i as
n es
ĠW ell
er ved
Ġp ure
ĠÙĨØ´ ÙĪØ¯
az ine
Ġlim ited
ĠÚ© Ø§
ĠÙĪ ÛĮÙĦÛĮ
ĠØ¢ Ø±Ø§
ĠØŃ Ø§Ú©
Ġas pect
ol id
ĠØ®ÙĪØ¯ Ú©Ø´ÛĮ
ĠÙħØª ÙħØ±Ú©Ø²
ĠÙ¾Ø± ÛĮØ¯Ùĩ
ĠÛ² Û°Û°Û°
ĠØ¯Ø§ÙĨØ³Øª ÙĨØ¯
ad ing
ĠÙģØ± ÙĤ
Ġhundred s
ed s
Ġoccur red
raz il
Ġb le
le ge
ĠØ§ÙĨØ¯ Ø§Ø²ÛĮ
Ø§Ø® Ø±Ùĩ
ĠSc arlett
ĠMin ister
ĠØ®ÙĪØ±Ø´ÛĮØ¯ ÛĮ
ro do
Ø±Ø§ ÙģØª
ĠØ¯ ÙĪÛĮ
Ġst yle
ĠÙħØ¨Øª ÙĦØ§
a fter
Ġ They
ĠØ¨Ø® Ø§Ø±ÛĮ
ĠØ¯Ø±ÙĪ Ø§Ø²Ùĩ
ĠØ¢ Ú©
Ġn ation
ul ations
ĠW il
ĠØ§ Ø¹Ø¯Ø§Ø¯
ĠØ¯Ø± Ø³ØªÛĮ
em ic
Ġag reed
o ol
w ide
ĠØŃØ± Ø§Ø±Øª
Ġtrans form
Ġwonder ful
ens is
ĠØ° Ú©Ø±
Ġextreme ly
Ġm al
Ø´ ÙĨØ§Ø³ÛĮ
Ø¯Ø± Ø³
Ø§ÙĨÙĩ Ø§ÛĮ
Ġal tern
ĠÙħØ³ Ú©ÙĪÙĨÛĮ
ĠÙ¾Ø²Ø´ Ú©
Ġexec ut
I m
Ø§Ø± ØªÛĮ
2 5
ur a
ĠB en
Ġfam iliar
Ġtrans port
Ġkind s
Ø§ÙĨ Ø¯Ùĩ
ĠM ex
ĠÙĦ ÙĪÙĦÙĩ
ÙģÛĮ ÙĤ
Ġcurrent ly
Ġsuff ering
g ate
ĠÙ¾Ø± ÛĮØ¯
Ġuse ful
Ġt im
ÚĨ Ø·ÙĪØ±
ĠÙĤ Ø§ÙĦØ¨
ul ate
Ġall ows
ĠÚ©ÙħÛĮ ØªÙĩ
ĠØ®Ø§ÙĨÙĪ Ø§Ø¯Ú¯ÛĮ
ĠØ¢ÙħÙĪØ² Ø´ÛĮ
ĠM a
ĠÙħØµ Ø§ØŃ
Ġele ment
ill y
Ġrece ive
ĠØ¯ ÙħØ§
am ond
lo v
ĠØªÙģ Ú©Ø±
ĠØ§Ø±ÙĪ Ù¾Ø§ÛĮÛĮ
8 0
ĠA pp
Ġso le
ĠF red
ĠØ§Ùħ Ø´Ø¨
og le
ĠØºØ° Ø§ÛĮ
Ġnews p
Ġcoun ter
ĠØ¢Ø´Ù¾Ø² Ø®Ø§ÙĨÙĩ
Ġr at
ĠÚ©Ø§Ø± Ú¯Ø±Ø§ÙĨ
Ġun e
Ġsol ar
Ġclear ly
Ġg od
ur t
ĠM od
ÛĮØ² Ùħ
Ø¨Ø§ÙĦ Ø§Ø®Ø±Ùĩ
ĠÙĦØ¨ Ø®ÙĨØ¯ÛĮ
ĠÙģØ±ÛĮ Ø¨
Ġresp ond
Ø®ÙĪ Ø±Ø¯Ùĩ
ĠØ® Ø¬
ac he
ĠÙħÙĪ Ø§Ùģ
ÙĢ Ùĩ
Ø¹Ùĩ Ø¯
Ġroom s
Ġwin ter
ĠÙħØªØ´ Ú©Ø±Ùħ
ÛĮÙħ ÛĮØªØ±ÛĮ
ĠH all
Ġforgot ten
Ġcommer cial
ĠÙħØ¹ Ø§Ø¯ÙĦ
erv ish
ĠØ® Ø²
Ġhad n
Ġpass ing
Ġmere ly
Ġwor ry
Ġsub st
Ġmo on
Ġdanger ous
Ġc up
st on
ĠA ward
Ø§ÙĤ Ø¹
Ġno body
ens us
Ġbelie f
i pe
v ille
Ġf ed
ĠØ§Ø± Ø³Ø§ÙĦ
ĠØ± Ø¨Ø±ØªØ§
ĠÙĨ Ø§ÛĮ
st ead
em ents
Ġexc ited
Ġst upid
Ġcrit ic
ĠØ§Ø±Ø²ÛĮ Ø§Ø¨ÛĮ
t ies
on a
Ġh ar
Ø³ÛĮ Ú©
Ġev olution
ĠØ³Ø± Ú¯Ø±Ùħ
r ant
Ùĩ ÙĨÛĮ
ĠÚ© Ø§Ø¨
ĠM ark
ĠC ont
ĠR iver
ĠÙĨØ¯ Ø§
ĠØ¨Ø§Ø²ÛĮ Ú¯Ø±
ÙĪØ· Ùĩ
ĠÙĨÚĺ Ø§Ø¯
g a
ĠØ´ ÙĦÛĮÚ©
ĠØ¢ ÙĦÛĮ
Ġr ail
ĠØ³Ø± Øª
Ġsh ared
ĠD ar
per or
ĠØ§Ø¯ ÙĪØ§Ø±Ø¯
Ġcr is
Ú¯Ø± ÙĪÙĩ
Ø¢ Ø±ÛĮ
Ø¢ ÙħØ¯
ĠÙħØª Ø®ØµØµ
Ġvis ion
ĠÙĦØ· Ùģ
Ġcitiz ens
ĠÙĨÙĩ Ø§Ø¯Ùĩ
Ġconnect ion
ĠØ«Ø±ÙĪ Øª
ĠØ³ ÙĤÙģ
ĠR ome
ĠE up
On ce
ĠÛ²Û°Û±Û µ
ĠÚ¯Ø´ ÙĪØ¯
M ar
ĠÙ¾ ÙĩÙĨ
ĠØ±ÙĪ Ø¨Ø±ÙĪ
Ġgra ve
Øº ÙĨ
ĠÙħØ§ Ø¬Ø±
ĠO ne
Ú©Ø³ Ø§ÙĨØ¯Ø±
ĠG l
Ġh ate
ĠThe re
Ġmost ly
Ġafter wards
Ġpict ures
Ø³ Ø§Ø®Øª
en ced
th is
Ø§Ø³ Ú©Ø§Ø±
ĠØ´Ø± Ø·
Ġdev ice
f ast
Ø¨ Ø®
Ġre act
ĠÙģÙĦØ³ ÙģÙĩ
Ġrespons ible
ĠÙħÙĪ Ø²
ĠØ´ÙĨ ÛĮØ¯Ùħ
ĠÙħ Ø§ÛĮÙĩ
Ø² Ùħ
ĠØ¢ Ú¯Ø§ÙĩÛĮ
ot he
Ġam b
ĠØ¬ÙĪØ§ÙĨ Ø§ÙĨ
Ú¯Ø° Ø´ØªÙĩ
ĠØ¬ÙĦ Ø³Ùĩ
ĠØ¨Ø®ÙĪØ§Ùĩ Ø¯
Ġb ill
Ġth irty
ĠÙħØ±Øª Ø¨Ùĩ
Ġconst it
Ġa head
Ø§Ùħ Ø±ÙĪØ²
Ġinst ruct
ĠÙħØ·Ø§ÙĦ Ø¹Ø§Øª
Ġchang ing
ĠÙĨÙħØ§ÛĮ Ø§ÙĨ
ĠÚ©Ø§ÙĦÛĮÙģØ± ÙĨÛĮØ§
u ild
Ġg al
Ø§ÙĪ Ø²
Christ ophe
Ġs ides
Ġord ered
ĠÙħÛĮ Ø®ÙĪ
ĠÙħÙĦ Ú©Ùĩ
ĠØ±Øª Ø¨Ùĩ
r ative
Ùģ Ø´
Ù¾ Ø§ÙĨ
ĠØ¨Ø§ Ùħ
Ø§ÙĤ Øª
ĠÙĩØ± ÚĨÙĨØ¯
ult s
ĠÙħØº Ø§Ø²Ùĩ
ĠØ±ÙĪ Ø¨Ùĩ
Ġsh owing
Ø§Ø³Øª Ø§ÙĨ
im ents
Ġro of
Ġco ast
m ark
ĠC at
od ay
Ġse ll
ĠØ§Ø³ Ú©
ĠÙħØŃØ¯ÙĪØ¯ ÛĮØª
ĠÙħØ¹ ÙĦÙħ
ĠØ§ÙĪÙĨ Ø§
Ġtrans fer
ĠØ´ÙĪØ± Ø§ÛĮ
Ġaccept ed
Per haps
ĠDist rict
ĠØ¨ Ø°
Ġm ort
ĠØ§ÙĨ Ø¹
ĠÚ©Ø§Ø± Ø¨Ø±
ĠØ®Ø· ÛĮ
ĠØ¹Ø± Ø¨ÛĮ
ĠØ§Ø³ÙĦ ØŃÙĩ
and om
ĠØ¨Ø±Ø§Ø¯Ø± Ø´
Ġs am
ĠØ¬ Ø§Ø¯
ĠF in
itt y
Ġfr ame
ĠKing dom
ĠÙĪØ§Ø¶ ØŃ
ĠØª ÛĮØ²
Ġschool s
ĠÚĺØ§Ù¾ ÙĨÛĮ
am ing
ĠÙĨÚ¯Ø§Ùĩ Ø´
ĠIn ter
Ġfail ed
ink ing
Ġdist inct
Ġgu y
Ġm ale
ĠØ² ÙħØ²ÙħÙĩ
ĠF ore
Ġpl ants
W ill
ĠÙ¾ Ø§ÛĮØ´
ĠØ³Ø± ÙĨÙĪØ´Øª
Ġsp oken
ĠØŃØ± Ú©Ø§Øª
v est
Ġhe ro
ĠÙħØª ØºÛĮØ±
ĠØ´ÙĪ Ø®ÛĮ
Ġsc r
Ġart ist
Ø§Ùĩ Ø¯
Ø§Øª ÛĮÚ©
Ú¯Ø± Ùĩ
ov na
ĠØ³ÙĨ Ú¯ÛĮ
ĠÙģÙĦ ÙĪØ±
ĠØ¨Ø±Ú¯Ø±Ø¯ Ø§ÙĨØ¯
Ġref lect
ĠÙħÛĮÚ©ÙĨ Ùĩ
Ġscient ists
ĠØªØµØ§Ø¯ ÙģÛĮ
ĠAssoci ation
Y et
à ®
ĠØ±ÛĮ Ø®ØªÙĩ
Ġprogram s
ĠØ¹ Ø§ÙĦÙħ
ĠÙ¾ÛĮØ± Ø§ÙħÙĪÙĨ
ĠÙģÙĩÙħ ÛĮØ¯Ùħ
Ġm ental
em s
Ġint ended
Ġper ce
M e
Ùħ ÛĮØ¯
ĠØ± ÛĮØ¯
ĠØ§Øµ Ø±Ø§Ø±
Ġfl ight
ĠØª Ø²
ĠÙĨ ØµØ¨
Ù¾ Ø±ÙĪ
ĠÙĩÙħ Ø§Ùĩ
Ġdr ag
Ġexper iment
Ġb ul
Ø¬ ÙĨØ³
ĠT w
ĠF ather
Ġsc reen
Ġfl u
Ġche st
Ġev ident
ĠØ§ÙĦÚ©ØªØ± ÙĪÙĨ
2 2
Ã ¤
ĠÚ© Ø«ÛĮ
Ġm ath
ĠØ®Ø· ÙĪØ·
ĠÚ¯ ÙĨØ¯
ÙĢ ÛĮ
Ġany body
Ġrem ind
Ġus er
g l
Ø´ ÙĪØ±
Ġe ars
ur ies
ÙĨØ§ Ø·ÛĮ
ĠO ff
oc ol
ithe cia
o very
Ø§Ø¯ ÙĤ
Ġfor g
ĠEup ithecia
in et
Øº Ø§Ùħ
ĠÚ©ÙĪ Ø¨
Ġmajor ity
ĠØ¢ÙħÛĮ Ø²ÛĮ
Ġd ressed
ver se
ĠÙ¾ÛĮØ´ Ø§ÙĨÛĮ
ĠÙĨÙĪ Ú©
Ġpre fer
ĠÙģØ´ Ø±Ø¯
Ġvict im
ĠØ§Ø³Øª Ø±Ø§ØŃØª
ĠØ² ÙĪ
Ġdis m
Ġrec ently
ĠÙ¾Ø§ Ø¦ÛĮÙĨ
Ġdem onst
ĠÚ¯ÙĪÙĨØ§ Ú¯ÙĪÙĨ
z y
ÙĪ Ø±Ø¯Ùĩ
er able
Ġb rief
Ø§Ø³ Ùģ
ÙĬ Ø²
Ġdis s
ĠØ«Ø±ÙĪ ØªÙħÙĨØ¯
ĠÚ© Ø§Ø´
en a
Ġus ers
ĠU N
ĠØ²ÙĨ ÙĨØ¯
ĠÙĨØ®ÙĪØ§Ùĩ Ùħ
Ġt ight
ĠÛ²Û ±
ĠØ¨Ú¯Ø°Ø§Ø± ÛĮØ¯
Ġfil ms
ĠØªØ® Ùħ
ĠÚ© Ø´Ø§ÙĨ
ĠÙĩ ÙĪÛĮØª
as tern
ĠØªÙĪ Ø§ÙģÙĤ
ĠØ³Ø§ Ú©ÙĨ
ĠØµØ¯ ÙĩØ§
ĠØ¬ÙĪØ± Ø¬
Ġsex ual
en es
Ø§Øª Ø§
ĠØ´Ø¨Ø§Ùĩ Øª
ĠF irst
Ġd rawn
Ġkn ock
ĠØ¨ÛĮÙĨ ÛĮÙħ
Ġdig ital
ĠØ§Ø³ØªØ¯ ÙĦØ§ÙĦ
Ã §
ĠÚ© Ø§Ù¾
ĠØ¬ Ø§ÙĦ
Ġsm art
li ament
ĠÚ¯ÛĮØ§Ùĩ Ø§ÙĨ
Ġfal se
Ġopen ing
ĠÙĩÙħ Ø²ÙħØ§ÙĨ
ol ar
ĠÚĨØ´Ùħ Ø´
ĠØŃÙĪ Ø§Ø³
ĠÙħÙĨ Øµ
ĠÙ¾Ø¯ ÛĮØ¯Ùĩ
o is
Ġt or
ĠØ¨ÛĮØ´ØªØ± ÛĮÙĨ
O R
ĠJ er
ĠØ¯Ø±Ø® Ø´Ø§ÙĨ
ĠØ§ÙħÙ¾Ø±Ø§Øª ÙĪØ±ÛĮ
ĠÚ¯Ø± Ø¨Ùĩ
Ú©ÙĨ Øª
ere lla
Ġref uge
ĠØ¨Ø±Ø¯Ø§Ø´Øª Ùĩ
a is
ĠÛ´ Û°
Ġbene ath
Ġrefer red
Ġc ab
Ġwe ather
ĠÙĩØ§ Ø¦ÛĮ
Ø¯Ø§ Ø®
cept ion
Ġneighb or
Ġa in
ĠÚ¯Ø°Ø§Ø´Øª ÙĨØ¯
Ġwa ited
atab ase
4 0
Ø´ Ø§ÙĩÛĮ
ĠØªØ¬ Ø²ÛĮÙĩ
Ġw ave
Ø§ÛĮ ÙĦÛĮ
Ġh ast
ĠØ¨Ø§Ø² Ø³Ø§Ø²ÛĮ
Ġcl imate
ĠØ¯ÙĦ Ø§ÛĮÙĦ
ÚĨØ±Ø® Ùĩ
Ġwit ness
g ers
ĠÚ¯Ø± Ø§ÛĮÛĮ
ĠØªØ±Ú©ÛĮ Ùĩ
Ġobs erv
ĠØªØ§ÙĦ Ø§Ø±
r as
ent ed
Ø³ÛĮ ÙĦÙĩ
Ġprop osed
ĠTe chn
ÙĩÙħÛĮ Ø´Ùĩ
s s
Ġapp arent
Ġexpl ained
Ġple ased
ĠØ¨Ø± ÙĪØ²
ĠÙģ Ø§ÛĮÙĦ
Ġsc ream
Be fore
Ġhe aring
ĠB i
ĠØ±ÙģØª ÛĮÙħ
Ġco ffe
ĠØªØŃ Ø³ÛĮÙĨ
Ùģ ÙĨØ¯
ter day
ĠB razil
ĠØ³Ø± ÙĪÛĮØ³
ĠR ec
Ġwor st
Ġmat ters
ĠØ§ÙĨØ¨ ÙĪÙĩ
ĠJ o
ĠØµØ¯ Ø§ÛĮØ´
Ġjo in
ĠÙħÙĤÛĮ Ø§Ø³
F A
Ø§Ø± ÙĨ
Ø¦ ÙĪØ±
iz ab
ĠØ®Ø§Ø·Ø± Ø§Øª
ĠØ¢ÙħÙĪØ² Ø§ÙĨ
ĠÙĪÛĮØ± ÙĪØ³
Ġapplic ations
ĠH am
ĠÙħÙĢ ÛĮ
ĠThom as
D P
ĠÙĨ ØµÙģ
Ġh ide
Ġpro s
Ġorgan izations
Ġh ole
ĠÙĤ Ø¨ÛĮÙĦ
Ø¢ Ø®Ø±
ĠCol lege
Ġshad ow
g n
Ġun known
ish ment
ĠÙħÙĨØ¸ Ø±Ùĩ
Ġo dd
Ġpart ies
Ø³ Ø±ÛĮ
Ġman aged
k in
ÙģØ± Ùħ
Ġcont ains
An y
ĠÙĨÙħØ§ÛĮ ÙĨØ¯Ùĩ
ĠÙ¾ ØªØ±
Ġ2 9
ĠØ¨Ø³Øª Ú¯ÛĮ
ad s
ĠG reen
ĠÙģØ±ÙĪØ´ Ú¯Ø§Ùĩ
ĠÙħÙĪØ§Ùģ ÙĤØª
Ġe ager
ĠÚĨÙĩ ÙĦ
Ú©Øª Ø§Ø¨
ĠÙĪØ§ÙĦ Ø¯ÛĮÙĨ
r ical
s pe
ĠÙĨØ§ ÚĨØ§Ø±
Ġfl ow
apt ain
ĠØ¨Ú¯ÙĪÛĮ ÛĮØ¯
H E
ct ors
ĠØ§Øª ØµØ§ÙĦ
ult ure
Ġt ong
ĠØ³ ÙĪØ±ÛĮÙĩ
ĠØ° ÙĩÙĨÛĮ
amp ions
ĠØ§ÙĦÛĮ Ø²Ø§Ø¨Øª
ĠÙ¾Ø±ÙĪØª Ø¦ÛĮÙĨ
or ough
Ġen s
ĠÙħØ³ Ø®Ø±Ùĩ
ÛĮÙĨ Ø§
ĠØ³ ÙĦÛĮ
Ø¹ Ø´
Ġacc ident
Ġdut y
ĠÙĩ ÛĮØ¯
ul ous
ÙģØ± ÙĪØ¯
ĠØ§Ø®Øª Ø±Ø§Ø¹
ĠØ¶Ø± ÙĪØ±ÛĮ
ĠØ¯Ø±Ø® Ø´ÛĮØ¯
ĠØ¯Ø®Øª Ø±ÛĮ
r im
Ġnot es
ĠØªØ¹ ÙĦÙĤ
Ġcons ist
ĠØ¨Ø§Ø±ÛĮ Ú©
ĠØªØµÙĪÛĮ Ø¨
c an
ĠÙĨ ÛĮÙħÛĮ
Ġlead er
ĠÙĨØŃ ÙĪÙĩ
Ġ ÛĮØ¯
ĠØ§ÙĨ Ø¨Ø§Ø±
ĠØ§Ø³ ÙĦØ§Ùħ
Ġcall ing
ĠØªÙĤ ÙĪÛĮØª
ĠØ¨ Ø¯Ø±
Ġs en
ĠÙ¾ Ø°ÛĮØ±ÛĮ
ĠÙĩÙĪØ´ ÙħÙĨØ¯
ĠAt l
F irst
ÙħÛĮ ØªÛĮ
Ġas h
ĠØ§ÛĮ Ø²
Ġv ast
Ġbr own
ĠØºÛĮØ± ÙĤØ§Ø¨ÙĦ
ĠØ±Ùĩ Ø¨Ø±
Ġconst ruct
Ġve h
ĠØ§ØªØŃ Ø§Ø¯
. '
m ar
ĠØ¨ ÙĪØª
Ùģ ÙĪØ±
Ġpl at
Ġstud ied
ĠSo cial
Ġdou ble
Ġmention ed
b a
Ġw ine
it a
Ġcon vin
ĠJ ac
iz es
ĠÙ¾Ø±ÚĨ Ùħ
ĠØ§ÙĨ ØŃ
Ġpri or
Ġord ers
Ġcoffe e
Ø§Ø± ÙĩØ§
ĠÙħØ³ ÙĦØŃ
ĠØ±Ø§ÛĮ Ø¬
fort un
Ġcult ural
yn am
m itted
Ġt our
ĠØ¨Ø§ Ú©ØªØ±ÛĮ
ĠØ§ÙĪ Ø¬
Ġat tend
Ġinst rum
ĠMy cos
pha erella
ĠMycos phaerella
Ġst ated
ĠØª ÙħÛĮØ²
Ġsh oot
ath y
ĠØ¬ÙĪ Ø§Ùħ
ĠÙĩÙĨØ±Ùħ ÙĨØ¯
ÙĦ Ø§ÛĮÙĨ
ĠDe f
ĠÙĪ Ùħ
Ġf ru
ĠS cience
Ġfif ty
Ġsett led
Ø§Ø¯ ÙĦÙĩ
ĠØ®ÙĪ Ø´ÛĮ
Ġsign al
ĠØ¯ Ú¯Ø±
az a
ĠHer mione
ĠComp any
ĠÙĤØ±Ø§Ø±Ø¯ Ø§Ø¯
ĠG old
ann y
ĠØ¬Ø²Ø¦ÛĮ Ø§Øª
e ed
Ġs ch
ĠØ±Ø§ Ùħ
ent ially
ĠØ´Ø± Ø§Ø¨
ĠØ´ÛĮ Ø·
Ġcare fully
ĠÙħØ·Ùħ Ø¦
ĠÙ¾Ø±Ø¯Ø§Ø² Ø´
Ġlibr ary
ĠØ§Ú¯Ø± ÚĨÙĩ
Ġtrad itional
Ġarchitect ure
ĠÙĪÛĮÙĦÛĮ Ø§Ùħ
ly mp
ĠB est
ĠØ§ÙĤ Ø§ÙħØª
m n
Ġmom ents
Ú©Ø§ ÙĪÛĮ
ĠÚĨØ§Ø± ÙĦØ²
Ġmill ions
resp ond
N ever
ĠØ´ ÙĢ
Ġdo ors
ĠÛ²Û°Û°Û ³
n ik
es h
id a
ĠØ§ÙĨØ¯ Ú©
ĠØ§Ø³ Ø±Ø§Ø±
ĠÙ¾Ø°ÛĮØ± ÙģØªÙĩ
ĠS und
Ġli es
Ġpresent ed
ĠØ° Ø±Ùĩ
ĠLe vin
ĠØ§Ø®Øª ÙĦØ§ÙĦ
ĠØ±ÙĪØ³Øª Ø§ÛĮÛĮ
ĠÚ©ÛĮØ´ ÙĪØª
ĠØ§ Ù¾
ÙħØ§ÙĨ Ø¯
Ø¨ÛĮ Ø´
ĠØ¹Ùħ Ø¯
ĠØ¨ÙĦ ÙĨØ¯ÛĮ
ĠØªØ¦ ÙĪØ±ÛĮ
ĠØ§Ø¶Ø·Ø± Ø§Ø¨
Ġb ought
Ġhe ll
Ġv oices
Th us
ĠU K
Ġgl ance
S ee
ã ĥ
Ġrem ains
Ġapplic ation
Ú© Ø§Ø³
est ival
ĠØ´ÙĩØ± Øª
ĠØªÙģ ÙĨÚ¯
ĠÙ¾Ø°ÛĮØ± Ø§ÛĮÛĮ
ĠFil m
E E
r ary
is co
Ġm ap
ĠØ¢ Ùģ
og ether
Ġdis app
ĠÙĩÙħØ§ÙĨ ÙĨØ¯
Ġabsolute ly
nd ing
ĠL atin
ÙĩØ± ÚĨÙĨØ¯
Ġdevelop ing
ĠØ§Ø±ØªØ¨Ø§Ø· Ø§Øª
ĠÙ¾Ø§ÛĮØ¯ Ø§Ø±
ÙĤ Ø¨ÙĦ
Ġh idden
Ġen orm
ÙĨØ¬ ÛĮ
ĠAn na
Ġconst ruction
w in
ĠØ¬Ø§ÛĮ Ú¯Ø§Ùĩ
Ġdirect ed
Ġoper ation
an c
Ġso ci
ĠÙĨØ´ ÛĮÙĨ
ĠØ®ÙĪØ´ Ø´
ĠØ³Ù¾ Ø§Ø³
É Ļ
ĠÙĨ Ø±ÙĪ
ĠØ§Ø³ Ú©Ø§Øª
ĠÙĩÙħØ§ÙĨ Ø·ÙĪØ±
Û² Û°
ĠÙĪÙĤ ÙĪØ¹
Ġhy p
ĠØ²Ø® Ùħ
Ġwas te
Ġr ot
ĠÙħØ±Ø§ Ø¬
Ù¾ ÙĪØ´
ĠØ¹ ÙĦÙģ
Ġun it
ĠÚ©Ø§ÙĨ Ø§ÙĦ
Ġpro ceed
ĠJ ane
ĠØ¯Ø§ÙĨØ´Ùħ ÙĨØ¯Ø§ÙĨ
Ġsh arp
ĠPr ot
Somet imes
n et
ØŃ Ø¯ÙĪØ¯
ĠØ§Ø³Øª Ø«
Ú¯Ø± ÙģØª
ĠSt reet
ann el
Ġfun ctions
Ġperform ed
Ġd ying
Ø¬Ùĩ ÛĮØ²
Ġinter rupt
Ġfour th
Ġappe ars
Ġmor al
ĠÙ¾ÙĨØ¯ Ø§Ø´Øª
ĠS en
Ġposs ibly
ĠØ¨Ø³Øª Ø±
Ġp or
Ø§Ùħ ÙĦÙĩ
ĠA cad
est ic
ĠÙħØ® Ø§Ø·
Ġoper ating
Ġca uses
ØªÙĤ Ø±ÛĮØ¨Ø§
ĠIslam ic
Ġ ÙģØª
os en
ĠJ ose
Ġbre ad
re p
Ø§ÛĮ Ø´ÛĮ
ĠÙĤ Ø´
ĠØ±ÙĪ ØŃÛĮ
av a
ĠÙħØ¬ÙħÙĪ Ø¹
Ġprep ared
ĠRoy al
ĠØ± ØºÙħ
ĠÙĩ ÙĪÙĦ
Ġare n
ÙĩØ± Ø§ÙĨ
ĠÙĤØ¯ ÛĮÙħ
A M
Ġth rew
ĠØ¨Ø±ÙĪ ÛĮØ¯
ĠØ´ÛĮØ± ÛĮÙĨ
ĠØŃ ÛĮÙĨ
Ġst ared
ĠC O
Ġex cell
Ġwork ers
ste in
ĠN ow
Ġreal ize
ĠÙħØ² Ø±
Ġconf ess
Ùģ Ø¹
Ġad vent
Ġdisc over
ĠØ¨ÙĪ Ø³ÛĮÙĦÙĩ
Ġfoot ball
Ġpick ed
ĠØª Ø§Ø²
Ġf aster
ÙĨØ§ ØµØ±
19 7
Ġ196 0
H ave
ĠÙĨØ¸ Ø§Ø±Øª
ĠV o
M us
Ġs in
ĠØ² Ø§ÙĨÙĪ
Ø§ Ú¯ÙĪ
Ġear n
Ġsuggest ed
ĠØ²Ùħ Ø³ØªØ§ÙĨ
ĠÙ¾Ø¯ÛĮ Ø§
Ġf lying
ĠÙ¾ Ø§ÙĩØ§ÛĮ
ill a
Ġsh ame
ĠÙħØ´ Ø§ÙĪØ±
Ġcr im
ĠØŃÙĤÛĮ ÙĤÛĮ
g al
p et
Ø¢ Ø®
Ġinc ome
br idge
Ø¯ÙĪ Ø¨Ø§Ø±Ùĩ
Ġdev ices
in ite
ÙĦØ§ ÙĤ
ĠØ§ÛĮÙħ ÙĨÛĮ
Ġactiv ities
Ùħ ØªØ´
ĠØ¨Ø± ÛĮÙħ
is l
Ġal arm
ÙĩØ± Ú¯Ø²
ĠÙĨØŃ ÙĪÛĮ
at us
ĠØ§Ø² Ø´
Th ose
ĠSt r
ĠRe volution
Ġgentle men
ĠÙħÙĩØ§Ø¬Ø± Øª
S e
ĠÙĩ Ø¯ÛĮÙĩ
ĠM ount
Ġcomp ared
Ġ199 1
ĠØ®Ø´Ùħ Ú¯ÛĮÙĨ
ĠÙĨÚ©ÙĨ ÛĮØ¯
om in
ĠÙĨÛĮØ§Ø² ÙħÙĨØ¯
ĠÙ¾Ø§Ø¯ Ø´Ø§ÙĩÛĮ
i ently
l iv
Ġw id
k er
ri er
Ġrec omm
Ġcr ack
Ġdirect or
Ġprom ise
Ġw arn
Ø§ÛĮ Ø¹
ĠÚ¯ Ø±Ø§Ùģ
Ġch arm
ÙĪØ´ Ø§
ĠJ ul
ĠØ®ÙĪØ´ ØŃØ§ÙĦÛĮ
ĠPr in
ĠØ¨Ø±Ø®ÙĪØ±Ø¯ Ø§Ø±
ĠÚ©Ø§Ø± Ø¨Ø±Ø§ÙĨ
ĠØªØ¹ Ø·ÛĮÙĦ
ĠÙĤØ¯Ø± ØªÙħÙĨØ¯
ĠØ®ÙĪØ§ÙĨ ÙĨØ¯Ùĩ
Ġhe s
ĠØµ Ø§Ø¯ÙĤ
ĠO lymp
ĠØ¯Ø±ÛĮ Ø§ÛĮ
Ġcris is
. ;
Ġsa f
Ġ199 9
ĠØªØ¦ Ø§ØªØ±
ac le
ĠC he
ie ur
ep ing
Ġcommon ly
ĠØ¯Ø§Ùħ ÙĨÙĩ
ĠÙħØ®Ø§ÙĦ ÙģØª
Ġm ission
ur ally
ĠG roup
ĠÙģØ± Ø³
Ġser ve
Ġcreat ing
ĠØ¨ÙĨÛĮ Ø§Ø¯
Ġquar ter
Ġl atter
Ġfo ld
ĠÙħØ· Ø¨
Ġsu st
Ġcap able
Ġcap acity
ĠØ°ÙĩÙĨ Ø´
m as
Å Ł
ÙĦ Ø§ÙĨØ¯
ĠØ§Ø³Øª ÙĤ
Ġjust ice
Ġmin im
Ġsus pic
and er
ĠØ§ÙģØ³ Ø§ÙĨÙĩ
ĠGree k
Ã ¨
ÚĨ ÛĮÙĨ
Ġr ang
ĠÙħØ´ Ú©ÙĦÛĮ
Ġtr ick
ĠØ¯Ø®ØªØ± Ø´
ĠÛ¶ Û°
Ġprofess ional
ĠÙħØ¤Ø³ Ø³Ùĩ
ĠÙĩÙħØ³ Ø§ÛĮÙĩ
ÙĨ Ø§ÛĮÛĮ
ĠÛ²Û°Û°Û ´
ĠØ´ÛĮ Ø·Ø§ÙĨ
Ġoffic ers
Ġextra ord
ÙħØ· Ùħ
is ms
Ġas leep
ĠÂ °
ĠÛ±Û¹Û ¹Û°
Ġwhis pered
Ġcommunic ation
ĠÙģØ¯Ø± Ø§ÙĦ
Ø³ ÛĮØ±
ĠØ¨ØªÙĪØ§ÙĨ ÛĮÙħ
ĠM useum
um ber
ĠÙħØª ÙĩÙħ
Ġte ach
Ġquiet ly
ĠØ¨ ØªÙĪÙĨ
ĠØ¢ÙĨ Ø±Ø§
own ed
ĠØ±ÙĪØ² Ø§ÙĨÙĩ
ĠÚ¯ÛĮ Ø¬
art s
ĠØ¨Ø¯ Ø§ÙĨØ¯
ÙĨÛĮÚ© Ùģ
al a
om ic
Ġgr ay
Ġp aint
ĠØ¨Ø± ØªØ±
Al so
Û ³
ÙĦ Ø§ÙĨ
ĠP at
os h
ap ole
ĠØ¹ÙĪ Ø§ÙħÙĦ
Ø°ÛĮ Ùĩ
i ar
ĠÚ© Ø§Ø³Øª
ĠÙģ ÙĤØ±
A d
P D
ĠØ¯Ø± ÙĪÙĨÛĮ
ĠH is
Ġcircumst ances
ĠÛĮÚ© Ùĩ
ĠS at
ĠØ¯Ø®ØªØ± Ú©
ĠÙħØ° Ø§
ĠØºØ±ÛĮ Ø¨
it ter
ĠÙ¾ ÛĮÙĨ
ĠB ul
al og
ĠÙģØ±Ùħ ÙĪÙĦ
Ġmount ain
ĠMad ame
w ing
Ø¨ Ø®Ø´
ĠØ¯ÙĪ Ø®Øª
Ø« Ø§
est ed
ĠØªØŃ Ø±ÛĮÚ©
ĠØ´Ùħ Ø´ÛĮØ±
ĠM et
Ø¸ ÙĩØ±
ĠÙ¾ÛĮ Ú©Ø±
Ġqu al
Ġfing er
ÙħÙĪ Ø±Ø¯
Ġimport ance
Ġeffect ive
ĠÙĤÙĦ Ø¨ÛĮ
ĠØ³Ø±Ø² ÙĨØ´
v a
it ated
ons ieur
Ø´ØªÛĮ Ø§ÙĤ
ashing ton
ĠÙ¾ÛĮØ±Ø§Ùĩ ÙĨ
Ø§Ø± Ùģ
Ġaud ience
Ġnucle ar
ÛĮ Ø±ÛĮ
ĠØ¬ ÙĪØ´
Ġcomp ar
ĠØ¨ Ø´Ùĩ
ĠÙħÛĮ Ú©
ĠÙĨÙħ Ø§Ø¯
ĠØ¯ÙĨØ¨Ø§ÙĦ Ùĩ
Ġkeep ing
ĠÙĤØ¶ Ø§ÙĪØª
Ġbeg un
c ular
ĠØ¯ Ø§ÙĨÙĩ
un ched
ÙĪÙħ ÙĨØ¯
Ġwill ing
ĠØ¨ÙĨÛĮ Ø§ÙĨ
ĠFor ce
ĠØ§ Ø´ØªÛĮØ§ÙĤ
Ø· Ø±Ùģ
Ġair craft
ĠØµ Ø®Ø±Ùĩ
ĠØ¯Ùĩ Ú©Ø¯Ùĩ
ĠÙĨÛĮ Ø§Ø²ÛĮ
ĠØ±ÙĪÛĮ Ø´
ang l
Ġchall enge
) )
Ġd rop
Ġun able
Ġsecond s
ĠØªÙĪÙĨ ÛĮÙħ
Ġattack s
ĠÙħÛĮ Øª
es p
ĠØ®ÙĪ Ø´Ùħ
ĠØµ ÙĦÛĮ
Ġte nder
Ġdist ingu
Ġdream s
ĠØ§Ø³ØªØ® Ø¯Ø§Ùħ
ĠAfghan istan
ĠØ´ ØªØ±
ĠØ¯Ø± ÙħØ§ÙĨÛĮ
Ġevery where
Ġrem oved
ĠÙĩÙħ ÙĪÙĨ
Ġfl owers
ĠMich ael
ĠØ¨Ø§ Ø³ØªØ§ÙĨ
ĠÚ¯ Ø±Ø§
Øµ ÙĪØ±
ĠØ§Ø³ ÙĨ
Ú¯ÙĪÙĨ Ú¯ÛĮ
ĠOr gan
ĠØª Ø¬ÙĩÛĮØ²
Ġf urn
Ġvar iety
Ġappl ied
apole on
w ers
Ú© Ø±Ø§Ø³ÛĮ
ÙĦ Ø¦ÙĪÙĨ
Ġcreat ure
ĠÚ© ÛĮØª
ed d
Ġh o
ĠÛĮ ÙĪØ±
el le
ĠØ¨ÙĪ Ø¬ÙĪØ¯
ĠØ®Ø¯Ø§ ØŃØ§ÙģØ¸
Ġdel ic
ĠØ· ÙĨ
Ġsu icide
ĠØ®Ø±ÙĪ Ø¬ÛĮ
Ġdru g
Ġt on
ĠS im
Ø§Ø³ÛĮ ÙĪÙĨ
ĠØ³ ÙĨØ¯
ÙĩÙħ ÚĨÙĨØ§ÙĨ
C H
ĠA p
Ġbr idge
ĠRes earch
ĠØ¬ÙĪØ§Ùħ Ø¹
C O
f a
y th
ÙĪ ÛĮÙħ
ĠØ± Ø¨Ø§Øª
ĠÙ¾ Ø±Ø§Ú©
ol as
ĠProv ince
Ġun iversity
ire ct
ĠÙ¾Ø§Ø± ÚĨÙĩ
) ".
Ø³ Ù¾
Ġb ow
ĠØ´ Ú©Ø±
Ġp apers
Ø³Ø± Øª
ĠØ¨ØªÙĪØ§ÙĨ Ùħ
Ġfall ing
ĠHen ry
E m
ÚĨ ÙĪØ¨
ĠB ro
ĠØ§ÙĦ Ú¯ÙĪ
ĠÚ©ÙĦØ§ Ø³ÛĮÚ©
ĠÙħÙĦØ§ØŃ Ø¸Ùĩ
ÙĦ ÙħØ§ÙĨ
Ġne are
ĠF er
ci p
Ph il
ĠCong ress
ĠLou is
ĠSm ith
ĠH el
Ġother wise
Ġref used
Ġple asant
por ary
ĠÚ¯ ÙĪØ±ÛĮ
Ġn arrow
ĠØ³ÛĮ Ø¨
hen s
ĠGo ogle
B S
Øª ÛĮÙħ
ĠÛĮ ÙĦ
Øµ Ø±ÛĮ
ĠÚ©Ø§Ø± ÙĩØ§ÛĮÛĮ
Ġ .
ĠØ¨ Ø®Øª
ĠÚ© Ø§ÙħÛĮ
re ement
om er
Ġse vere
Ġsome how
Ġdistribut ion
Ġst airs
ol t
Ġcon text
ĠÙħØŃ ÙĦÙĩ
ĠØªÙĨ Ùĩ
Ġtell s
ĠÛĮÙĪÙĨ Ø§ÙĨÛĮ
ĠØ¯Ø± Ú¯Ø°Ø´Øª
ent h
Ġpers u
ĠØ®Ø± Ø³
am ily
Ġst ir
ĠØŃØ¶ Ø±Øª
ĠAs h
Ġprim ary
izab eth
S uch
ĠØª ÙĢ
b its
i est
ĠÚ©Ùħ ØªØ±ÛĮ
ÙħÙĪ ÙĤ
Ġwond ered
B oth
u gg
Ú¯ ÙĨØ¯
ĠØ¢ Ø³Øª
ĠG al
Ġsa ke
ĠØ§ÛĮÙĨ Ø·ÙĪØ±
Ġapp re
ĠÙģØ¹ ÙĦÛĮ
Ġfall en
Ġris ing
Ġrev iew
Ġ201 6
Ġclos er
ÛĮ Ø§Ø¯
ĠØ¯Ø± Ø¨Ø§Ø±
id ents
Ġcr ime
Ġengine ering
Ġneg ative
ĠN ations
ĠØ³ÙĪ Ø§Ø±ÛĮ
Ġend s
ĠØ¨Ø§ÙĦ Ø§Øª
ĠØ§ Ø¹Ø¯
all s
ĠØ¢Ùħ Ø§Ø±
Ġcont ain
ather ine
Ġcolle ction
ĠØ¨ ÙĬ
ĠØ® ÙĦÛĮ
Ø³ÛĮ Ø³ØªÙħ
Ú©Ø² ÛĮÚ©
9 9
Ġb acter
Ġto ol
om ys
ÙĪÙĦ ÛĮÙĨ
Ġdes cend
Ġpo ly
ĠFran c
Ġopt im
Ġadminist rative
Ú© Ø¯Ø§Ùħ
Ġin put
Ø§ÙĦ Ø§Øª
ĠØ¬ ÙĪØ±ÛĮ
and s
ÙħÙĨ Øª
ĠÙģØ§Ø± Øº
ĠØ§ Ø¯Ø±
Ùģ ÙĪØ±Ø¯
ĠØ§Ùħ Ù¾Ø±Ø§
ÙĪØ² Øª
ĠÙĨÙĪ Ø§Ø®Øª
Ġconst ant
E d
u a
Ø¨ ØªÛĮ
ĠØ± ÙĪØ§ÙĨÛĮ
Ġp ity
Ġim per
Ġex er
Ġsa v
ĠÙ¾ÛĮØ´ ÛĮÙĨ
ĠØ®ÙĪØ´ Ø¨Ø®Øª
Ġyes terday
Ġut ter
Ġdo gs
ĠÙħØŃ ÙĪ
Ġtw elve
Ġpoint ed
ĠØ¢Ø³ÛĮ Ø§
ĠØ§ Ø±Ø¯ÙĪ
Ø³ ÙħÙĩ
in ate
ĠN ot
ĠÙĨØ¯ Ø§Ø¯Ùĩ
Ø§Ùģ ÙĦ
Ġdro ve
Ġtou ched
Ġwide ly
ĠØªØŃÙĤ ÛĮØ±
j ean
ĠA h
ĠH IV
ĠØ§ÙĦÚ©ØªØ± ÙĪÙĨÛĮ
ĠØ¨ÛĮÙģØª Ø¯
ĠÙħØ²Ø± Ø¹Ùĩ
Ġ9 0
Ġast on
f ather
Ġwe aring
ĠS il
ĠT imes
ĠØ¢ÙĦ ÙĪØ¯Ùĩ
ĠÙħØ¬Ø¯ Ø¯
ĠØ¨ÛĮ Ø§ÛĮÛĮØ¯
Ġv ent
ĠÙĨÛĮ Ø§Ùħ
ĠØ§Ø³ Ú©ÙĨ
Ġrep ly
Ġbas is
ĠRich ard
Ø¨ ÙĦÛĮ
ĠØ±ÙĪ Ø³
os is
ĠØ®ÙĪØ§Ùĩ Ø±Ø´
ĠÚ©Ùħ ÙĪÙĨÛĮ
ĠØ¨Ø¯Ùĩ ÛĮÙħ
Ġsign ed
Ġas ide
um ped
ĠØ§Ø® Ø¨Ø§Ø±
C om
ak istan
Ġcor respond
Ñ ģ
Ù¾ ÙĨØ¬
ÙħÙĨ Ø³ØªØ§ÙĨ
ĠØªØ¹ ÙĤÛĮØ¨
ĠWind ows
T P
ĠÙĨÛĮ Ø´
Ġpain ting
ĠÙħØ¬Ø¯ Ø¯Ø§
ĠØ¬ Ø§ÛĮØ´
ce ly
ĠÙģØ± Ø§ØªØ±
ĠÙħØ¯ Ø§ÙĪ
ĠØ¬ÙĨ Ø³
ĠØ¨Ø¯Ùĩ ÛĮ
Ġ7 0
Ġshout ed
Ġc ous
uz z
ĠØ±Ø£ ÛĮ
Ú© ÙĪØ±
ĠÚĨ Ú¯ÙĪÙĨÚ¯ÛĮ
Ø±ÙĪ ØŃ
ĠØ§ÙĨÚ¯ ÛĮØ²ÛĮ
ĠÙģØ´ Ø±Ø¯Ùĩ
Ġproject s
ĠÙĩÙħ Ú©Ø§Ø±
ÙĩØ§ Ø¦ÛĮ
ĠØ¯ÙĪ ÚĨØ±Ø®Ùĩ
Ġinn ov
Ġcarry ing
m ine
Ä ģ
Ú¯ÛĮ Ø³
ÙħÙĪ ÙĨØ¯
Ø¯Ø§ÙĨ Ø´
ĠØ§Ø¬ØªÙħØ§ Ø¹
Ġch osen
Not hing
ĠØ³ÙĦØ§Ùħ ØªÛĮ
T om
Ġh ydro
Ġ" .
ĠÙħØ¹ Øª
Ġany where
ÙĪØª Ø±ÛĮ
het ic
Ġf an
Ġf ran
ĠØ³ ÙĩÙħ
ĠÙĤ ÙģÙĦ
ate ll
Ø¯Ø§ Ú©
ĠÛ±Û¹Û ¸Û°
Ø± ÙĤ
Ġexp ressed
rie ved
c s
Ø± Ø§Ø¨
Ùħ Ø±Ø§
Ġh ill
ØŃ Ø³
ĠF rodo
rou s
Ġorigin ally
ĠÙħØ¤ Ø«Ø±
Ġ Ï
ĠÙĪ ÙĪØ¯
ĠÛĮ Ø§Ø±
Ġsu it
ĠÙħØ´Øª Ø§ÙĤ
g ment
ĠÙħÙĪ Ø§ÙģÙĤ
ĠØªØ¬ Ø¯ÛĮØ¯
ĠL ife
Ġun ique
ĠÙĨØ´ ÛĮÙĨÛĮ
Ġcour age
Ġcolle ge
Ġeffort s
ĠØ±Ø¯ÛĮ Ùģ
ĠØ§Ø¹Ø¯ Ø§Ùħ
8 6
Ġin cl
ĠØªÙĪØ§ÙĨ Ø³ØªÙĩ
Ġpr ide
ĠØ³Ø±ÛĮ Ø§ÙĦ
ĠÙħØ¨ Ø§Ø¯Ø§
Ġthro at
ĠÚĨ ÙĪØ¨ÛĮ
ĠØ§ØŃÙħÙĤ Ø§ÙĨÙĩ
Ø¯ ÙĪØ´
ĠØª ÙĩØ±Ø§ÙĨ
ĠØŃ Ø´
ĠØ¬ÙĨ Ø§Ø¨
ĠØ³Ùĩ Ø§Ùħ
Ġfort une
ĠØ± ØŃ
ĠØ¢ÙĨ ÙĦØ§ÛĮÙĨ
ĠÚ¯Ø±ÙģØª Ø§Ø±
Ġyoung er
Ġdiv ided
Ġsuff er
o or
ÙĪ Ø¹ÛĮ
ĠØ¨Ø± ÙĨ
ro l
ĠEm pire
iqu es
Ġplat form
3 2
Ú¯ ÙĪÙĨÛĮ
Ġab and
ĠW omen
Ù¾Ø³ Ø±
ĠØªØŃ ÙĪÛĮÙĦ
Ġpo ll
ĠØ¨Ø§ÙĦ Ø§ÛĮÛĮ
y er
ĠÙħÛĮ ÙĪÙĩ
ÙĬ ÙĦ
Ġpl ans
Ġsol id
Ġadv anced
Ġprogram ming
Ġcomput ers
Ġredu ce
ĠÙĪ Ø§Ø¯Ø§Ø±
at ically
Ġc odes
Ġn orthern
if ying
ĠØ§Ùħ ÙĪØ§Ø¬
Ġkn ees
Ġacc omp
ĠÙħÙĩØ± Ø¨Ø§ÙĨÛĮ
P l
Ø´ ÙĨØ¯
Ġb an
le ment
Ġaf fection
ĠØ§Ùĩ ÙħÛĮØªÛĮ
ĠSe e
Ġoper ations
Ġconcern ed
F C
ÙĦ Ø·
ĠØ³Ø± ÙĪØ±
Ø§ÙĪ ÙĦÛĮ
ĠØ¨Ø§Ø² Ø¯ÛĮØ¯
Ġlight s
ĠØªÙħØ§Ø´ Ø§ÛĮ
Ġphys ic
ĠØ§Ø« Ø±ÛĮ
Ġsaf ety
I A
Ø¯ ÛĮØ±
ĠÙģ ÙĪÙĦ
ill ed
ĠÛ²Û ²
Ġvis ual
ĠÚ© Ø¬Ø§Ø³Øª
Ġc ere
Ù¾ ÙĪ
E N
ĠÚ¯ ÙĦÙĩ
ut ch
ay a
am ber
ĠØ®ÙĪØ¯ Ø¯Ø§Ø±ÛĮ
Ġcrit ical
Ġphilos ophy
Ù¾ Ø°ÛĮØ±
ĠÙ¾ ÛĮØ¯
ĠÙĩØ± ÙħÛĮÙĪÙĨ
ĠØ¬ÙĨ Ø§ÛĮØª
Ġact ions
ĠØªÙĤ ÙĦ
hes is
Ġdifficult y
ĠØ¬Ø± Ø£Øª
ĠOff ice
ad or
ĠØŃØ± Ú©ØªÛĮ
ĠÙħØ® ÙĦÙĪ
ĠØ§Ø®ÙĦØ§ ÙĤ
Ġb ra
ĠØ® ÙģÙĩ
ver ty
ĠØ±ÙĪ ØºÙĨ
ĠÚ©ÛĮ Ø³Ùĩ
ĠØ¹Ø± ÙĤ
ÙħØ¹ ÙħÙĪ
ha pp
Ġprotect ion
ĠØ±Ø§ÙĩÙĨÙħ Ø§ÛĮÛĮ
Ġter rit
ĠØªØ±Ú©ÛĮ Ø¨ÛĮ
ÙĨ Ø§Øª
ĠØ±ÙĪ Ø´ÛĮ
Ú©ÙĦ ÙĨÛĮÚ©Ùģ
Ø§Øµ ÙĦØ§
Ġpo verty
Ø±ÛĮÙĤ Ø§ÛĮÛĮ
Ġdescri be
Ġmov ie
x ford
ph one
raz y
ĠØ§ÙħÛĮØ¯ÙĪØ§Ø± Ùħ
un n
ĠÙĦØŃ Ø¸
ĠØ®ÙĦØ§ ØµÙĩ
ĠÛ±Û¹ Û°Û
ĠÙ¾Ø§ÙĨ Ø²Ø¯Ùĩ
Ùħ ÛĮÙħÛĮ
Ú© ÙĪØ³
Ġs outhern
ed y
ĠSt ep
ĠØ®ÙĪØ±Ø¯ ÙĨØ¯
Ñ Ĥ
ĠÚ© ÙĦÙĩ
ĠI P
ĠØ¶ Ø¹Ùģ
Ġexpl an
ĠØ± Ø¹
ĠH uman
ÙĪÙģ Ø§ÙĨ
ÙĨ Ø§ÛĮ
Ø§Øª ÙĦ
Ø§Øª ÙĪØ±
ĠT ri
Ġdri ving
Ġtom orrow
ĠØ¨Ø±Ø² ÛĮÙĦ
Ú© ÙĪØ¨
ĠâĢ ¦
Ø±Ø¯ Ú¯ÛĮ
Ġg ro
Ú©ÙĦ Ø§ÛĮ
Ġsupp ly
ĠÚĨØ±Ø® Ùĩ
Ġfright ened
ĠÚ© Ø§ÙĪ
Ġm axim
Ġact ual
Ġloc ation
ĠÚ©ÙĨØ¬ Ú©Ø§ÙĪÛĮ
Ġhe ight
Ø· ÙĨ
un ist
Ġphys ics
ĠØªØµÙĪÛĮ Ø±ÛĮ
ĠÙĤØ³Ùħ ØªÛĮ
Ø¬ ÙĨÚ¯
le g
ĠAlexand rov
ĠC as
ĠØº ÙĪÙĦ
ĠÙħØŃÛĮ Ø·ÛĮ
ĠØ§Ø³ØªØ±Ø§Øª ÚĺÛĮ
Ġenorm ous
G od
ĠÚ¯ ÙĪØ³
Ø§Ø³ Ø±
Ġv ia
ĠØ§Ø³ ÛĮØ¯
Ġprom ised
ĠØµØ±Ùģ Ø§
ĠÙħØŃØ¯ ÙĪØ¯Ùĩ
ĠÚ© Ø§Ø²
ĠØ¢ Øª
st airs
ĠØ¨Ø¯ Ø¨Ø®ØªÛĮ
Ø§ØŃ Øª
ĠØ§Ø¨ Ø¯Ø§
Ġmach ines
y al
Ø´Øª ÙĨ
ĠØ®Ø· Ø§Ø¨
ÙģØ§ Ø¹ÛĮ
ĠØºØ± ÙĪØ±
Ġbit ter
ĠØ§Ø´ÛĮØ§ Ø¡
Ø± Ø§ÙĩÛĮ
ĠÙħØª Ø±ÛĮ
Ġcount y
ĠØ³ÙĪØ¦ Ø¯
M L
b el
f fered
Ùħ Ø§ÛĮ
ĠØ¹ Ø§Ùħ
ĠÙĥ Ø±Ø¯
T oday
m osp
Ø¯ ÙĪØ³Øª
ĠR at
ap es
ĠØº ÛĮØ±Ùĩ
ĠÙĨÙĪ Ø§Ø±
ĠÙĦØ§ Ø³
Ġ199 8
ĠØ®Ø§Ø· Ø±Ùĩ
ĠÚ© Ø§Ø®
Ø² ÙĨØ¯Ú¯ÛĮ
Ø§Ø± Ø§Øª
Ġe gg
ĠÚ©ÙĨ Ú¯Ø±Ùĩ
ØªÛĮ Ú©ÛĮ
Ø¢ ÙĪØ±
Ø¨ Ú¯Ø°Ø§Ø±
ĠØª Ø¸Ø§Ùĩ
Ġst aff
ĠÙĦ Ø¹
ig er
ĠL os
ĠÚ¯Ø° Ø±Ø¯
ĠØªØ¹ Ø§Ø¯ÙĦ
ĠÙĨØ¨ÙĪØ¯ Ùħ
Ġele ction
Ġexcl aimed
ĠØ¯Ø§ÛĮ Ø±Ùĩ
Ġdes per
ĠJew ish
Ġdefin ition
Ġbird s
ĠØ¯ÙĦÛĮ ÙĦÛĮ
ĠØ³ÙĦØ· ÙĨØªÛĮ
Ø³ Ø§Ø¯
it z
ĠØ§ÛĮÙĨ Ø³Øª
Øµ ÛĮØ±
ĠI f
Ġan ger
Ġprocess es
ĠØ¨Ø±Ø³ Ø§ÙĨØ¯
Ġmur m
. )
s es
v ant
Ø¨ Ø§Ø¯
ĠØº Ø±ÙĪØ¨
Ġun less
Ġbreak fast
ĠØ±ÙĪÛĮØ¯ Ø§Ø¯
ĠØ¯ÙħÙĪ Ú©Ø±Ø§Øª
ĠØ´Ú©ÙĨ Ø¬Ùĩ
ĠÙħØ·Ø¨ ÙĪØ¹
ĠØ¯Ø± Ø´Øª
ĠVal jean
O ver
Ġp ages
om pl
ĠØ§Ø³Øª ÙĨ
ĠØªØ¬ Ø§ÙĪØ²
Ġlot s
ĠÙħØ¨Øª ÙĨÛĮ
Ġcop y
ĠPri ze
6 4
V ery
ĠØª Ø®ØªÙĩ
ĠØ³Ø± Ø³
ĠÙģØ±ÙĪ Ø´ÛĮ
Ġdep th
ÙħØªØ´ Ú©Ø±Ùħ
ĠØ§Ø³Øª ÙĪØ¯ÛĮ
am ental
Ú¯Ø± ÙģØªÙĩ
Ú¯Ø± ÚĨÙĩ
op er
Ġr andom
ĠÙģØ± Ø§Ø²
Ø§ÙĨØ¯ Ø§Ø²
ĠÙĩÙħÛĮÙĨ Ø·ÙĪØ±
Ġ201 7
Ġda ily
ĠÙĩÙĢ Ùħ
ĠÚ¯Ø±Ø³ ÙĨÚ¯ÛĮ
S S
Ġo cean
ĠÙĤ Ùģ
ĠL ong
ĠT o
ĠÙ¾ÛĮØ´ Ø±ÙģØªÙĩ
ĠÚ©ÙĦ Ø¨Ùĩ
ÙĩÙĨÚ¯ Ø§Ùħ
Ġcir cle
ĠÙħØ³ØªÙĤÛĮÙħ Ø§
ĠØ² Ø´Øª
Ġse m
ons cious
Ġcall s
ov itch
Ùħ Ùħ
Ø§ÙĦ ÛĮØ²
Ø§ÙĦ Ø¹ÙħÙĦ
ĠW ashington
Ġacc ompl
Ġident ity
ĠØ§ ÙĬ
ĠÙĪ Ø§Ø´
Ġd are
ĠØ§Ø³Øª Ø±
Ġsu ffered
ĠØ¨Ø§Ø² Ú¯Ø±Ø¯
Ú© Ø´Ø§ÙĨ
ĠØ¯Ùĩ Ø§ÙĨØ´
Ġphot ograph
ĠÙħØ¯Ø§Ø± Ø³
ĠØ¹Ø±ÙĪ Ø³ÛĮ
ĠØªØº Ø°ÛĮÙĩ
Ø¨ Ø§ÛĮ
ĠØ´Ø§ÛĮ Ø³ØªÙĩ
ic ago
ĠÙĩØ³Øª ÙĨ
ĠÚ©ÙĦ Ø§Ùħ
Ġreg ions
ĠØ¹Ø¯ Ø§ÙĦØª
ĠØ§ÙħÙĨÛĮ ØªÛĮ
ĠDem ocr
Ġnerv ous
ĠÙĪ ØµÙĦ
ĠÙ¾ ÙĦÛĮ
ĠR ad
Ġsm oke
ĠØ§Ø±ØªØ¨Ø§ Ø·ÛĮ
Ġgra v
ĠØ´ÙĩØ±ÙĪ ÙĨØ¯Ø§ÙĨ
b ly
w w
ĠÚ© ÙĪØ§ÙĨ
ĠÙĩ Ø´Ø¯
ĠØ® Ø³ØªÚ¯ÛĮ
Ġp it
Ġn arr
ĠØ¯ÛĮ ÙĪÛĮØ¯
Ġcomm unities
Ġac id
Ġburn ing
ĠÙĩÛĮØ¯ Ø±ÙĪ
ÙĨ ÙĤ
ĠÚ© Ø¬
ĠØŃ Ø§ÙĪÛĮ
Ġmur der
ĠÙ¾Ø±Ø§Ú© ÙĨØ¯Ùĩ
ĠÙĤ Ø§Ø±Ùĩ
Ø§ÙĤ Ø¨Øª
ĠØ§ÙĨØ¯ Ø§Ø²Ø¯
Ġcre ation
ĠÙħÛĮÚ©ÙĨ ÛĮÙħ
Ġcapt ain
Ġpro of
Ġdes k
ĠÚ¯Ø±Ø¯ Ø§ÙĨØ¯
l ow
ĠB ur
ĠPro fessor
Ġz ero
ĠC aptain
ran g
Ġant i
Ġn odd
Ġsol ve
Ø¯Ø§Ú© Ø«Ø±
ĠØ¢ÙĨ Ø¬
Ġse vent
Th ough
ĠÙĨØ§ Ø´ÙĨ
Ġrequ ires
i able
z ed
ĠÙħ ÙĪÛĮ
ass ion
Ġb omb
ut s
ĠÙħÙĩÙħ Ø§ÙĨÛĮ
Ġconf idence
Ġtro ops
Ġa id
Ġa unt
ĠØ´Ø¯ ÛĮØ¯ÛĮ
ĠÛ±Û¹Û ·Û°
Ġacc ur
ĠÚ©ØªØ§Ø¨ ÛĮ
ann on
ĠTurk ish
ĠØ§ ÙħØ§ÙĨ
ĠÙĨ Ø¹
Ġb ent
ens ity
ĠØ¬ÙĨ Ø¨
ĠY es
Ġadv ice
Ġpolit ics
Ġstay ed
Ġth row
Ġdecl ared
Ġin fect
ĠØ¬ Ø§Ø±ÛĮ
ĠA ri
Ġsy mp
Ġ198 6
ĠÙĪØ§Ø³ Ø·Ùĩ
ĠØ§Ø¯Ø¨ÛĮ Ø§Øª
Ùħ ÙĪØ±
ic y
ĠÙĨØ§Ùħ Ø²Ø¯
ÙħØ±Ø¯ ÛĮ
Ġhot el
Ġgrad u
ĠØ´Ø§Ø¹ Ø±
ĠÙħ Ø¹ÛĮ
Ġp ig
ĠÙħØ± Ø§Øª
ĠØ´ÙĨ Ø¨Ùĩ
Ġord inary
Ġcontr ast
ĠÙĤØ´ ÙĨÚ¯
7 0
k ins
ĠØ¯ ÙĪÙĨÛĮ
Ġw ore
an o
and ed
ĠØªØ® ÙħÛĮÙĨ
Ġinit ial
ĠÙħØµØ§ØŃ Ø¨Ùĩ
ØŃ ØªÙħØ§
ĠÙħØ± Ø¨Ø¹
Ġass ist
Ġabs or
Ġteac her
Ġtong ue
M iss
ĠØª ÙĪÙĨÙĩ
ĠØ³ ÙĢ
ĠØ¨Ø± Ø³Ø§ÙĨ
ĠØ®ÙĪ Ø§Ø±
ĠÙħØ¬ Ø³ÙħÙĩ
Ġprov ides
Ġindust rial
ÙħØ¹ÙħÙĪ ÙĦØ§
y p
Ú¯ ÙĪØ´
ĠØ¹ ÙĨØ§ØµØ±
Ġan aly
ĠÙ¾Ø± Ùĩ
Ġbl ank
ĠØ§Ø¹Øª Ø¨Ø§Ø±
Ø§ÙĨÚ¯ Ø§Ø±
Ġinterp ret
ÙĨØ§Ø·ÛĮ Ø³ÛĮ
Å į
Ùħ Ø±ÛĮ
Ġt aste
ÙĤ Ø§Ø¨
ĠÚ©Ø´ Ùħ
ĠÙĪØ³ÛĮ Ø¹
G r
ĠØ± Ø¯Ùĩ
en ger
ĠØ® Ø§ÙĦÙĩ
Ġwr iter
Ġlim it
ĠÙĨ Ø§ÙĦÙĩ
Ġp hen
ĠÙĩÙħ ÛĮØ´
Ġfor ty
Ġfact ors
ĠØªÚ© ÙĨÛĮÚ©
arr ass
Ġrapid ly
ĠØ¯ÛĮØ¬ÛĮØª Ø§ÙĦ
ĠØ¯Ø± Ø´
ĠØªØ¹ Ø§ÙħÙĦ
ĠÚ¯ÛĮØ± ÙĨØ¯Ùĩ
Ġst aring
ust ed
Ġpre cise
ÙĨ Ø¸Ø±
Ø¯ ÙĪÙħ
Ġemot ion
r ich
ĠØª Ø³Øª
ĠV er
Ġcomple ted
Ġeas ier
urg is
Ġteac hing
ĠØ¯ÙĪ Ø®ØªÙĩ
ĠØ±Ø³ Ùħ
Ġrecogn ize
Ġfa ult
Ġdesp ite
ĠØªÙĤØ§Ø¶ Ø§
ĠØ¨ ÚĨ
le ase
ĠÚ©Ø§ÙĦ Ø¬
Ġin ternal
rom e
ĠØ¨Ú¯ Ùħ
Ġ199 4
ĠØ¨Ø¨ÛĮÙĨ ÙĨØ¯
b ur
ĠØ± Ø¨
Ġli qu
gg ie
E l
i ro
Ä Ł
Ġl aughter
Ġre ject
Ø®Øµ ÛĮ
ĠØ¹Ùħ ÙĤ
Ġcoll abor
Ġconscious ness
Ġconvin ced
ac ters
ĠC amp
ĠP akistan
ĠØ´ÙħØ§ Ø³Øª
ĠØ° Ø±Ø§Øª
ĠâĢĮ :
ĠÚĨ ÙħÙĨ
ĠD el
ĠØ´Ú© Ø§Ùģ
ĠØªØ´ Ú©Ø±
ĠÛ²Û ³
Ġrese arc
ĠÙħØ² Ø§ØŃ
ĠÙĨ Ú¯ÙģØª
Ġcost s
Ġinn oc
ĠÙħÙĤØ§Ùħ Ø§Øª
ĠÙ¾ÛĮÙħ Ø§ÙĨ
or a
ĠÙĩÙħ Ø¯
Ø¦ Ùħ
Ġout put
are n
ĠÙģÚ©Ø± Ø´
u ing
Ġdet ails
at tered
ĠØ§ÛĮÙĨ Ú©Ø§Ø±
ĠÛĮÚ© Ø´ÙĨØ¨Ùĩ
ĠØªØ§ Ø¬
ĠÙħØª ÙĤØ§
Ġun ex
Ġfact or
Ġfail ure
Ġrob ot
ĠÙħÙĪÙĦ Ú©ÙĪÙĦ
p ired
s k
w ar
ĠØ´ ÙĪÛĮ
ĠØ³ ÛĮØ¯
ĠC ath
Ġat mosp
Ġche er
Ġstat us
A L
ĠØ¨ÙĪØ¯ Ø¬Ùĩ
ĠÙģ ÙĪØ±ÛĮ
Ġform al
ĠØ³Ø¹ Ø§Ø¯Øª
w orth
ĠE conom
ĠÙĨÚ¯Ùĩ Ø¨Ø§ÙĨ
Ġdeep ly
ĠØ§Ø´Ú© Ø§ÙĦ
Ġstrugg le
Q u
en cies
al le
Ġg rey
est y
Ø§Ø³Øª ÙģØ§Ø¯Ùĩ
ĠØ§ÙĦ ÙĦÙĩ
Ġph r
Ġincre asing
Ġra ise
ĠÚ©Ø§Ø±Ø¨Ø±Ø¯ ÛĮ
Ġcred it
Ġapprox imately
Ġp ra
ĠØ¹ÙĨ ØµØ±
Ġcont em
Ø§ØŃ ØªÙħØ§ÙĦ
ĠØ§ÙĨØªÙĤ Ø§Ø¯
ĠØ¨Ú©ÙĨ ÛĮÙħ
ĠÛ¸ Û°
S P
o z
ĠÚ©Ø§Ø± ÙĦ
ig hed
ĠØ¹Ùħ Ùĩ
Ġvis ible
Ġtru ly
ĠØ´Ø¹ ÙĦÙĩ
Ġir rit
ĠÙĪ Ø¹Ø¯Ùĩ
ĠØ§Ùħ ÙĨ
ĠØ§Ø´ ØºØ§ÙĦ
In stead
Ġ199 6
Ġla unched
Øª Ø®Øª
ĠØ¨Ø§ Ø¨Øª
ĠÚ¯Ø° Ø±Ø§ÙĨ
Ġaf ford
Ġsymb ol
Ġthe ore
ĠF ree
Ġmove ments
ĠØ¬Ø¯ ÙĪÙĦ
Ġv ul
Ġaffect ed
Ġdestroy ed
Ø§ÙĦ Ø¨Ø§
Ġpro ve
Phil ip
Ù ł
ĠØ§ Ø°
ĠÙĨ Ø±Ø³
ÙģØ± Ùĩ
ĠK e
Ġsee k
ĠØ§Ø³Ø§Ø³ Ø§
Ġestab lish
Ġextraord inary
S p
Ġ ing
Ġc od
Ù¾ ÙĨ
Úĺ ÛĮÙħ
ĠØ¨ ÙĨÚ¯
ive red
pl ace
ip ment
Ġset ting
ĠØªØ¬Ø± Ø¨ÛĮ
ĠØ³Ø§Ùħ Ø§ÙĨÙĩ
ĠJew s
Ø® Ø¨Ø±
ĠØŃ Ø³Ø§Ø³
ĠØ· Ø±Ø§ØŃ
Ġbus y
ĠØ³Ù¾ Ø±ÛĮ
Ġtechn ologies
Ġexch ange
Û²Û° Û°Û
Ùĩ Ø¯Ùģ
Ġb en
ĠØ³Ø§ÙĦ Ø§ÙĨÙĩ
ap ter
if orm
ĠØªØ§Ø² Ú¯ÛĮ
Ø§Ø¨ ÙĦÙĩ
Ú¯Ø± ÙħÛĮ
ĠØ¨ÙĨ Ø§Ùħ
Ġpass age
ĠSe a
ĠÙħØ¬Ø§Ø² Ø§Øª
ĠÙĩÙħÛĮØ´ Ú¯ÛĮ
S I
ÙĦÛĮ Ú©ÙĨ
ak s
Ġeng aged
ĠÙģØ±Øµ ØªÛĮ
ĠÙħÙĨØŃ ØµØ±
ĠÙĨØ§Ø¯ ÛĮØ¯Ùĩ
ĠØ¨ ØµÙĪØ±Øª
ĠØ§Ø³Øª Ø¹Ø¯Ø§Ø¯
Ġse ized
ĠN ob
ÙĪÙĦÛĮ Ú©
ĠÙĪØ¶ Ø¹ÛĮ
Ø¨ Ø¨ÛĮÙĨ
ĠÙĨÙĪ Ø¬ÙĪØ§ÙĨ
Ġexam ples
ĠGeor g
ĠÚ¯ ÙĪØ¯
ĠÙģ ÙĨÛĮ
ĠT ex
Ġanx ious
Ġt ail
Ø±Ø§ Ø³ØªÛĮ
ĠÙħÙĨØ· ÙĤ
Ġdi agn
ĠØ¢Ùģ Ø±ÛĮÙĤØ§ÛĮÛĮ
d a
ÙĤØ§ÛĮ ÙĤ
yd gate
Øª Ø¹
Ø§ÛĮ Ùģ
im a
Ġwith d
ĠF ound
ĠØŃØ³ ÙĨ
li ver
Ġcy cle
Ġdefe nd
ĠØ§ÙĦÚ©ØªØ±ÙĪÙĨÛĮ Ú©ÛĮ
Ġ Å
Ġre ck
ri ff
Ġch ain
ĠØ§Ø± Ø²Ø§ÙĨ
ĠV oices
ĠÙĨÙħÙĪØ¯ ÙĨØ¯
Ġhur ried
ĠØŃÙĪ Ø§Ø¯Ø«
Ġsong s
Ġdru gs
e ven
ĠØ´ ÙĦ
Ġf ancy
ĠØ¯Ø± Ú¯ÛĮØ±ÛĮ
ĠØ±Ø³ÛĮØ¯ ÛĮÙħ
Ġstart s
Ġdec ide
Ġnetwork s
i at
ĠØ§Ùħ Ø±ÛĮÚ©
ÙĬ Øª
ĠØ¢Ø²Ùħ ÙĪÙĨ
ĠØ±ÙĪØ³Øª Ø§
Ø¬ Ø¯
ÙĪÙĨ Ú¯
Úĺ Ø§ÙĨØ³
av y
ĠÙħÛĮØ² Ø¨Ø§ÙĨ
Ġhuman ity
Ġchar acters
Ġsing ing
Ġhealth y
Ġbrother s
ĠØ§ÙĤØ¯Ø§Ùħ Ø§Øª
Ø´ Ø¯Ùĩ
ĠØ¢Ùħ Ø¯Ùħ
ĠØ§Ø± Ø´Ø¯
ĠØ¯Ø§ÙĨØ´ Ú©Ø¯Ùĩ
E n
Ø¨ ÙĨØ¯
ĠØ¨Ø§Ø² ÙĪÛĮ
ĠÛ±Û ¶Û
ĠÙģÙĦØ³ Ø·
ĠÛĮÙĩÙĪØ¯ÛĮ Ø§ÙĨ
ĠAcad emy
Ġa x
Ġw et
Ġc ro
Ø§Ø³ Ùħ
Ø§ÙĨØ¯ ÙĨ
Ġmet al
ĠØ¯Ø³ØªÙĪØ± Ø§ÙĦØ¹ÙħÙĦ
ĠØ³Ø§Ø¨ ÙĤÙĩ
ĠQu ix
ĠÚ¯ Ø´ØªÙĩ
ĠØ¬ Ø³Ùħ
ĠØµ ÙħÛĮÙħ
ĠØº Ø§ÙĦØ¨Ø§
Ġbl ow
ĠØ±Ùĩ Ø¨Ø±Ø§ÙĨ
Ġadv ance
Ġstruct ures
Ġemb arrass
Ġestim ated
ar l
Ġe ffic
Ġne ur
e qu
ã ģ
Ġt um
Ġt ort
ĠØ¬ Ø±Ø§ØŃÛĮ
ĠÚĨ Ø§Ø¯Ø±
ÛĮØ§ ÙģØª
ØªØµ ÙĪØ±
Ù Ĵ
ĠÚ©Ø§Ø± Ùĩ
Ø¯ÛĮ Ú©
Ø§ØŃ ÛĮ
Ġbl ess
Ġworld wide
ĠØ¢Ø´ÙĨ Ø§ÛĮÛĮ
Ġw aves
Ġcon clud
Ġmy ster
Ø³Ø§ Ø¹Øª
Ġfig ures
Ġrecord ed
Ġsym pt
A g
Ù¾ Ø´Øª
om a
ult ural
ĠAr k
ĠTur key
ĠØ¸Ø±Ùģ ÛĮØª
se y
ĠØ±ÙĪ Øª
ĠÚ©ÙĪÚĨ ÙĪÙĦÙĪ
Ġset s
tt p
ĠØ¯ÙħÙĪ Ú©Ø±Ø§Ø³ÛĮ
on ic
Ġc razy
ĠØ¨Ø±Ø§ÛĮ Ø´Ø§ÙĨ
ĠØ¹ÙħØ¯ ØªØ§
ĠØªØ¬ÙĩÛĮØ² Ø§Øª
ĠQuix ote
A D
W ould
in ent
is p
ĠÙĨ ÙħØ§ÙĨØ¯Ùĩ
Ġf ond
ar ge
ĠA re
ĠM en
Ġsw im
ĠÙģØ±Ø§ ÙĪØ§ÙĨÛĮ
Ġfore ver
ĠØŃÙħÙĦ Ø§Øª
ĠÚ©Ø§ÙħÙ¾ÛĮ ÙĪØªØ±ÛĮ
Ø§Ø· Ø¹
ĠØ§Ø¶ Ø§ÙģÛĮ
ien cy
ÙħÙĨØ¸ ÙĪØ±Ùħ
n ic
Ġf et
Ġp ushed
il a
ĠL ake
ad ian
ĠØ²ÙĨ Ø´
Ġstr ate
Ġrepl aced
U s
ĠÙħ Ø¬Ø§
ĠØ± ÙģÛĮÙĤ
ĠÙĨ ØµÛĮ
ĠØ¬ Ú©
ĠB or
Ġpur ch
ĠÙģÙĦ Ø²
Ġbas ically
Ġstrate gy
ÙĦ Øª
ic an
ĠÚ©ÙĨ ÙĪÙĨÛĮ
ack s
Ġtre ated
ĠØ§Ø³Ø¨ Ø§Ø¨
ĠKore a
er ves
ĠØ³Ø± ÙħØ§
el lect
av ed
ĠÙħØ¯ ÙĨÛĮ
ĠØ¨ÙģØ± Ø³Øª
s ome
Ġt al
Ġg ather
ĠC ap
iv odes
ĠÚ©Ø´ ÙĪØ±ÛĮ
ĠÙĤØ· Ø¹Ø§
ĠØ¯Ùħ Ø§ÛĮ
ĠÙĤÙĦØ¨ Ø´
ĠÙĨÙĪØ´ ÛĮØ¯
ivodes hip
ĠØ¯ Ú©
Ø±ÛĮ Ø²
ĠB ay
ĠB ig
ĠØ±ÙģØª Ø§Ø±ÛĮ
ĠÚ¯ÛĮØ± Ùħ
Øª Ø±ÙĪ
ĠA v
Ġfr ag
Ġhor ri
Ġsupport ed
ĠÙħØ¹ ÙĨØ§
Ġun com
ĠØªÙĪØ§ÙĨØ³Øª ÛĮÙħ
Ġnum erous
Ġadd itional
Ġequ ival
Ġf aint
ÙħØ§ ÙĤ
ĠØ³ÙĨÚ¯ ÛĮÙĨÛĮ
ĠØ¬ÛĮ Øº
ĠServ ice
Ø§Øª ÙĪÙĨ
ĠÙħØ¹ Ø§ÙħÙĦÙĩ
ĠÙ¾Ø± ØªÙĪ
ĠØ¢ÙĪØ±Ø¯ Ùħ
Ø§ÙĨÚ¯ ÛĮØ²
ĠØ§Ú©Ø³ ÛĮØ¯
ĠÙħ Ú©Ø²ÛĮÚ©
on ly
Ġwhe el
Ġsa ved
pect ive
ĠØ¢Ø³ Ø§ÙĨÛĮ
Ġ195 0
ĠÚ©ÙĪØ´ Ø´
ĠØ¯Ø§ÙĨØ´Ø¬ÙĪÛĮ Ø§ÙĨ
ĠÚ©Ø«ÛĮ Ùģ
Ø¯ Ø§Ø³ØªØ§ÙĨ
ĠØ± ØŃÙħ
Ġl at
ot ion
Ġex hib
Ġclose ly
ÙĦØŃ Ø¸Ùĩ
Ġcand id
C C
ch ief
Úĺ Ø§ÙĨ
ĠÙĪØ± ÙĤ
ĠÛ²Û°Û°Û ²
Ġ199 5
Ġdev il
ĠØªÙĤØ§Ø¶ Ø§ÛĮ
ĠØŃ Ø¯Ø§Ú©Ø«Ø±
ĠC up
Ġserv ant
ĠBr own
Ġauthor ity
ĠÙħÙħÙĨ ÙĪØ¹
ĠØ¨ ØºÙĦ
is her
ĠF ace
mb ly
ĠØ¨Ø· Ø±ÛĮ
Ø® ÙĪØ±
Ø§Ùħ Ù¾
im p
ĠPro ject
ĠSec urity
Ø± ÙĪÛĮÛĮ
ĠÚĨ Ø§Ø±Ùĩ
ĠØ®ÙĪØ¯ Ú©Ø§Ø±
Ġun its
ĠÛ²Û°Û°Û ±
Ġmag azine
Ġdisappe ared
c ase
ĠØ¨ Ø®ÙĪØ±Ø¯
ĠØ¨Ùĩ Ø§ÙĨÙĩ
ĠØ³ Ú©Ùĩ
Ø¬ÛĮ Ø¨
ĠØªÙģ Ø³ÛĮØ±
ĠØªÙĦ ÙĤÛĮ
ĠÙĨØ§Ù¾ ÙĦØ¦ÙĪÙĨ
ÙĤ Ø¯
ĠÛĮ Ø§Ø²Ø¯Ùĩ
Ġe ating
ĠÚ©ÙĨ ÙģØ±Ø§ÙĨØ³
ĠJ ournal
ĠØ±ÙĪØŃ Ø§ÙĨÛĮ
Ġmot or
z ing
ing ing
ot a
et te
ĠS ur
ĠC P
Ø´ÛĮ ÙĨØ¯
so ft
Ġ18 6
Ġtra ffic
Ġjud ge
ĠSund ay
ĠØ¨ ÛĮØ²
ĠO fficial
Ġfe ver
ĠÚ¯Ø±Ø¯ ÙĨØ¯
ĠÙ¾ÙĨØ¬ Ùħ
Ġhur ry
Ġcross ed
ĠVo ivodeship
B es
Ġw ww
ĠØ² Ø§Ø±
Ġr um
Ġcur ious
ĠWe b
ampions hip
Ġc ig
ÙĪÛĮ Ø§
ĠØ¨Ø¯ ÙĦ
ĠØ¸ Ø±ÛĮÙģ
ĠÙħÙĨØ¸ Ùħ
ĠPers ian
O L
at re
ĠØ¨Ùĩ Ùħ
ÚĨ Ø´ÙħØ§ÙĨ
ĠÙħÙĤ Ø§Ø¨ÙĦÙĩ
Ġaff airs
Ġchall eng
ÙĪ ÙĤÛĮ
ĠM ic
ak h
ose tte
ĠØ®Ø§ÙĨ Ú¯ÛĮ
Ġill ness
Ġmedic ine
ĠØ±Ø³Øª ÙĪØ±Ø§ÙĨ
Ġp owers
ĠÚ¯ Ø§ÙĦ
ĠØ¨Ø± ÙĪÛĮ
ĠØ§ÛĮ ÙĢÙĨ
ĠØ³Ø§Ø² ÙĨØ¯
ĠØ´Ú© Ùħ
Ġac ad
Ġhon our
Ġc ow
Ø¯Ø± Ø¨Ø§Ø±Ùĩ
ĠØ±ÙĪ ÛĮÙħ
Ġso il
Ġ199 7
Ġsign s
ĠEm peror
ĠÙħØ±Ø§ÙĤ Ø¨
Ð¾ Ð
Ú¯ ÙħØ§ÙĨ
Ġmind s
Ġarrest ed
ĠØŃ Ø¬Ùħ
Ġreg ret
ĠCar l
Ġmiss ing
y et
ÚĨ Ø§Ø±Ø¯
ur ance
ĠS um
ÙĩØ§ Ø´
ĠÙħØ§ÙĦÛĮ Ø§Øª
Ġdesp air
Ġf asc
ig r
ĠÚ¯Ø±ÙģØª ÛĮÙħ
ĠÚ¯Ø°Ø§Ø´Øª Ùħ
Ġdec re
Ġinv ited
ĠMex ico
othe a
v is
Ø§Ùĩ Ø§ÛĮØ´
ĠO ld
ĠØ¨Ø® Ø§Ø±
Ú©Ø§ÙĨ Ø³
ĠØ¢ÙĪØ± Ùħ
ĠCl ub
Ġhistor ical
t ical
ĠØ§ÛĮÙĨ Ø¬Ø§Ø³Øª
Ġwe l
ĠR ights
ĠØ¯ÙĪØ³Øª Ø§ÙĨÙĩ
Ø§Ø´ÛĮ Ùĩ
ĠØ¢ÙģØ±ÛĮ ÙĤØ§ÛĮ
Ġeld er
p art
ĠØ¨ÙĪØ¯ ÛĮØ¯
th ur
Ġk m
os a
Ġdo zen
ĠØ§ÙĦ ÙħÙ¾
ĠÙĨÛĮÙħ Ú©Øª
Ġprof ound
Ġbur ied
ĠÙħØ¨Ùĩ Ùħ
Ġinstit utions
ĠØ¯ Ø´Øª
ØŃ Ø§Øª
am ma
ĠG ood
lo g
ĠØ§Ø± ÙħÙĨØ³ØªØ§ÙĨ
ĠÛĮØ§ÙģØª ÙĨØ¯
Ġcur t
Ġredu ced
Ġmist ake
B M
ĠØ¨ Ø¬Ø§ÛĮ
ĠÚ© Ø§Ø³
Ġu pper
Ġcon ver
ĠÙ¾ÛĮ ØªØ±
Ġman age
Ø§Ø±Øª ÙħØ§ÙĨ
ĠGovern ment
2 4
s ky
Ġm urd
Ġin hab
ĠÙ¾ ÙĪØ±Øª
Ġint ention
ud ge
ĠÚĨÙĨØ§ÙĨ Ú©Ùĩ
Ġmount ains
ĠPal est
ĠTex as
³ Û°
ĠÙĨ Ø§ÙĤ
ĠØ² Ø§ÙĨ
ĠC D
ÙĢ Ùħ
Ġdec ades
cul iar
ĠÙĨÛĮ Ø§
ĠØ¨Ø¯ ÛĮÙħ
ĠØ¨Ø¯ ÙĨØ´
Ġsc ri
Ġem br
Ġinst inct
ĠÙħØº Ø²ÛĮ
ask ed
ĠØ¯Ø§ÙĪ Ø·
3 3
f rom
Ġl it
ĠE lect
ĠÛĮØ§Ø¯ Ùħ
ĠØ´Ùĩ Ø±Ø¯
ĠØ¨Ø®Ø´ ÛĮØ¯
ograph ic
Ġhor ror
Ġsequ ence
Ġg ar
ĠÙģ Ø§
ĠÙĦ ÙħØ³
ĠÙĤÙĦÙħ Ø±ÙĪ
ĠØ¬ Ø¨Ùĩ
ĠC ivil
Ġfund amental
C P
Ø§Ø¯ ÙħÛĮ
Ø¬ ÙĪØ±
Ø¯Ùĩ ÛĮ
ĠØ§Ø¬ Ø±Ø§ÛĮÛĮ
Ø°ÛĮ Ø±Ø¯
ĠØªØµØ§Ø¯ Ùģ
Ġm ic
Ġg ay
ĠÚ©ÙĨØ¯ Ùĩ
ĠÛ² Û°Û°
Ġcry ing
Ġviol ent
Ġrepresent ed
or ation
ĠS ar
ÙĪÙĦ ÛĮØ¯
Ġpro ved
be y
Ġ5 00
ĠÙĨØ¯Ø§Ø± ÛĮØ¯
ĠÚĺÙĨ ØªÛĮÚ©ÛĮ
ĠØ§Ú© Ø«
ĠØ§Ø³ØªÙĤ Ø¨Ø§ÙĦ
u pp
ÛĮÙĨ Ø²
ĠÙĤ Ø¨Ø±
Ġst orm
ge nd
ĠØ§Ø± ÙħÙĨÛĮ
ĠÙħØ±Ø§ ØŃÙĦ
ĠØ¬Ø³ Ø¯
Ġprinci ple
ĠArmen ia
ĠÙĨÙĪØ² Ø§Ø¯
ĠØ³Ø±Øª Ø§Ø³Ø±
Ùħ Ø§Øª
Ø³Øª ÛĮÚ©
ĠØ¢ Ø¯Ø±Ø³
Ġy e
ĠP ublic
ĠL et
Ġcomp osed
Ġco ach
ĠÙĨÙģ Ø¹
ĠØ´Ùģ Ø§Ùģ
Ġreve aled
Ġf aced
Ġd ign
Ġun happ
ĠØ¬Ø² Ø§ÛĮØ±
Ġstand ards
ĠÙ¾Ø§Ú© Ø³ØªØ§ÙĨ
Ġre ference
ĠØ¨Ø§Ø² Ø¯Ø§Ø´Øª
ost ov
Ġpe culiar
for ce
Ġthr own
ĠØŃÚ© Ø§ÛĮØª
ĠÙħÛĮ Ø®ÙĪØ§Ùĩ
ĠÙĦ ÙĨ
ĠØ¯ÛĮ ÙĪØ§ÙĨ
ud den
ĠØ²ÙĨØ¯ Ú¯
ĠÙĪØ§ÙĤ Ø¹Ùĩ
ĠÙĨÙħÙĪØ¯ Ø§Ø±
ĠØ¨Ú¯Ø°Ø§Ø± Ùħ
ĠÚ¯Ø°Ø§Ø± ÙĨØ¯
Ġdam age
ĠÙĨØ¸ Ùħ
ĠV ict
ĠÙ¾Ø°ÛĮØ± Ø´
Ġequ ipment
Ġstran ger
ĠØ¢ÙħÛĮ Ø®ØªÙĩ
Ġphen omen
Øª Ø§Ø²Ùĩ
Ġd ed
Ġse ction
Ġrem aining
ĠÙ¾Ø±Ø³ÛĮØ¯ Ùħ
Ġsh oes
ĠN apoleon
Ġim pl
Ġ3 5
Ġdec isions
ĠLe ague
Ġet c
Ø§ÙħÛĮØ¯ ÙĪØ§Ø±
ÙĨ ÛĮÙħ
Ø´ Ø§Ø±
Ġp ill
um ph
Ø§Ø³ Ø§Ø³
ord ers
Ù¾ Ø±Ø¯
Ġn ations
Øµ Øª
Ġstr ing
ĠØ³Ùģ Ø§Ø±Ø´
n ie
ĠÙħÙĪ Ø§Ø¸
Ø¢ Ø¯Ùħ
ĠT or
less ly
Ġcontr ary
Ġfrequ ently
rons ky
² Û°
ĠÚ© ÙĪÙĦ
ĠØ± ÚĺÛĮÙħ
Ġp ressed
ĠØ² Ø¨
ag rid
Ø¢ ÙĨØ§
ĠÚ©ÙĪÚĨÚ© ØªØ±
Ġbig gest
ĠEm ma
ĠØªØ®Øª Ø®ÙĪØ§Ø¨
c op
ĠØ¨ Ø§Ø±Ø¯
ÙĦ Ú©ÙĨ
Ø³ Ø§ÛĮØª
ĠØ¬ Ø±ÛĮ
ĠÙĦ Ø´
Ø« Ùĩ
ĠØ§ÙĦ ØªØŃ
ĠO K
ĠÚ©ÙĦ ÛĮØ¯ÛĮ
Ġres istance
ĠIn formation
ĠÚ¯Ø°Ø§Ø´Øª ÙĨ
Ġclass es
ĠComm ittee
ĠØ¯ÛĮØ± ÙĪØ²
B r
ĠØ® Ø±Ø§
ĠØ¬ Ø§Ø³
ĠL ove
ĠPe ople
Ġcam era
Ġweap ons
ĠÙĩØ´Ø¯ Ø§Ø±
v ard
at hered
Ġwh ale
ĠÚ¯ÙĪ Ú¯ÙĦ
Ġtri al
ĠØ¨Ø¨ ÙĨØ¯
ĠØ±ÛĮØ§Ø¶ÛĮ Ø§Øª
ĠÙ¾ÙĩÙĦ ÙĪØ§ÙĨ
Ġadop ted
Ġt iss
Ġs ought
ĠØ³ Ø¯Ùĩ
Ġqu e
ĠØ¨Ø¹Ø¯ Ø§Ø²
Ġwr it
ĠÙ¾Ø§ Ù¾
Ġdel ay
es sel
ĠØ¯Ø§Ø± Ø§ÛĮÛĮ
Ø®Øª ÙĨ
ĠØ§ÙĦ Ú©Øª
ĠO pen
Ġocc urs
ĠØ¯Ø±Ø¢ ÙħØ¯Ùĩ
Ø®Ø¯Ùħ Øª
ĠØ¬Øº Ø±Ø§ÙģÛĮ
Ġbe ings
id ers
ĠØ¹ Ø¨Ø¯
ĠØ±Ø§Ùĩ Ø±ÙĪ
ĠÚ©Ø´ÛĮØ¯ Ùħ
ĠØ®ÙĦÛĮ Ø¬
Ġp il
Ġd ynam
ÛĮØ¯ Ø§ÙĨ
le ts
ĠØ¬ Ø§Ø¨
Ġst ress
ĠÚ¯Ø± ÙħØ§
ĠØ²ÛĮ Ø³ØªÛĮ
ĠÛ²Û ·
Ġposs ibility
ĠÛ²Û°Û±Û ¶
ĠØ±Ø§Ø³Øª Ø´
ĠÙĩ Ø±Ø§Ø³
ĠØ® Ø±Ø¯Ùĩ
ĠØ³ ÙĦÙĪ
ĠØ¯Ø§Ø³Øª Ø§ÙĨÛĮ
T S
m al
an ia
ĠØ® Ø§ÙĪØ±
ĠØ§Ùģ Ø±Ø§
Ġmor row
c ried
s m
Ġar med
Ġpers ons
Ġaff air
Ġb order
ot ing
Ġcon vent
Ġ3 1
Ġproper ties
ad o
ĠÙĩÙħ Ø±Ø§ÙĩÛĮ
ĠÛĮÚ© Ø³
ĠD ervish
ĠE st
ĠW ood
ĠÙĤØ± Ø¶
Ġdist ant
ĠÙģÙĩÙħ Ùħ
Ġexperien ced
Ø¯ÙĪØ´ ÛĮØ²Ùĩ
) ;
B A
Ø³ Ø¹ÛĮ
Ø³ Ú©ÙĪ
Ġm ood
Ø§Ø¯ ÛĮØ±
ĠÚ¯ ÙĦÛĮ
Ġg est
Øµ Ø¨ØŃ
Ġplay ers
Ġgovern ments
ĠØ³ÙĪÙħ ÛĮÙĨ
Ġfavor ite
Ġbenef it
ĠØ§ÙĨÙģ Ø¬Ø§Ø±
re te
Ø§Ø± Ø³ØªØ§ÙĨ
ØŃ Ø¯
am ie
Ġany way
ĠØ¨ÙĨ ÙĪÛĮØ³
ĠSy ria
ĠÙĦØ± Ø²Ùĩ
I M
ÙĪ ÚĨ
at o
Ø§Ø± Ø¯ÛĮ
Ġdom estic
U p
Ùĩ Ø§Ùħ
ĠÙħØ¯ Ø§Ùħ
ĠCh icago
Ġbegin s
Ġprev iously
Ġinstruct ions
m other
ĠÙĨ Ú¯Ø°
ĠØ´ ÛĮÚ©
Ġl unch
Ø±ÛĮ Ø³
ĠÙĤØ· Ø¹Ø§Øª
Ġ199 2
stit ution
ĠCast ile
Ġw estern
sel ess
ĠÙħØ³ Ø§ÙĦÙĩ
Ġexp ensive
ĠØ®ÙĦØ§ Øµ
uild ing
W as
i ated
ĠÚ© Ø±ÙĪ
Ġc ateg
st one
ĠI r
ĠR el
ĠW ork
ĠØŃØ§ÙĦ Ø´
ĠÙħØ§ÙĨØ¯ ÙĨ
ĠØ¨Ø±Ø® ÙĦØ§Ùģ
Ġà ¤
ĠØ§ÙĦÙħÙ¾ ÛĮÚ©
ĠØ§ÙĨÚ¯ ÙĦÛĮØ³
Ġent rance
ĠØªØŃØµÛĮÙĦ Ø§Øª
Ġep is
2 3
ĠØ¢ ÛĮÙĨÙĩ
Ġp ounds
al u
Ø§Ùħ Ø±ÙĪØ²Ùĩ
ĠØ¬ Ø§Ø³Øª
Ġro ll
ild ren
F in
c ont
Ġb rill
ĠP an
ÚĨÙĩ Ø§Ø±
Ġcompet ition
ios ity
4 5
ĠØ¨Ø± ÛĮØ¯
ri et
ĠÙ¾Ø§ÛĮ ØªØ®Øª
ĠÙħØ§Ùĩ ÙĪØ§Ø±Ùĩ
cy cl
Ġplan ning
ĠØ§Ø¨Øª Ø¯Ø§ÛĮÛĮ
Ġrelative ly
Ø§Ùĩ ÙĪ
Ġimp at
Ġsub s
Ø¨ÙĨ Ø§ÛĮ
ĠâĻ ª
Ġcir cu
Ġliter ature
T ell
ĠØ§ ÙĦØ§
Ġd ial
ÚĨ ÙĩØ±Ùĩ
Ġg ain
th rop
ĠÚ©Ø§Ø± Ú©ÙĨØ§ÙĨ
ĠÚ¯ÙĪ Ø¦ÛĮ
ĠÙħÙĨØ¸ÙĪØ± Ùħ
Øª ÛĮÙĨ
ĠÙħØŃ ØªØ±
ĠØ´Ùħ Ø¹
Ġgen etic
ĠÙĨÛĮØ§Ùħ Ø¯Ùĩ
ĠÙħØªÙĤØ§ Ø¹Ø¯
ol it
ĠØ¨ÛĮ Ú¯Ø§ÙĨÙĩ
ĠB a
ĠJ es
Ġstat ement
Ġfav our
ĠØªØ¯Ø±ÛĮ Ø¬
M ad
ĠÙĩ ÙĦÙĨØ¯
ĠL ady
ĠØ¯Ø¨ÛĮØ± Ø³ØªØ§ÙĨ
ĠÙħ Ú¯ÛĮ
ĠØ¨Ùĩ Ø§Ø±
ĠØ³ Ø¯
Ġy ield
Ø¯ÛĮ ÙĤ
Ġro de
Ġ4 5
ĠØ¨Ú©ÙĨ ÛĮØ¯
Ġrecord s
Ġfif teen
Ġmathemat ics
udden ly
ĠØ¨Ø§Ø² ÙĨØ´
ĠÙħÙĦ Ø§ÛĮÙħ
ĠØªÚ© ÙħÛĮÙĦ
ĠÙħØ±ÛĮ Ø¶
ĠØ¯ ÙĪØ±ÛĮ
Ø¹ Ø§Ø±
ĠP ot
ĠV ir
Ġbring ing
ĠBrit ain
ĠÙħØ§ÛĮ Ø¹
ĠChar l
Ġda wn
´ Û°
ÙĦ ÙĨØ¯ÛĮ
ĠØ¨Ùĩ ÛĮÙĨÙĩ
Ø§Ùħ Ø§ÙĨ
Ġcon cl
Ø¨Ø§ ØŃ
ĠØ¨Ø²ÙĨ ÙĨØ¯
ĠØºÙĦ Ø·
Ġwhis per
nik ov
ĠØŃ Ø§Ø´ÛĮÙĩ
iv eness
Ġcomp os
Ø¢ÙĨ Ø¬Ø§
ĠØ§ÙģØªØ§Ø¯ ÙĨØ¯
Ġmult i
ĠSwed en
T e
ÙĪ Ú¯Ø±
Ġh al
ĠÙĨØ´ Ø§ÙĨÛĮ
ĠÙĨÙĪÛĮØ³ Ø¯
ĠØ¨Ø§Ùĩ ÙĪØ´
o oth
ĠÚ©ÙĨ ÙĪÙĨ
ĠS ing
ĠM icro
ĠC ons
ĠÙħØ¹ Ø¬
Ġser iously
ĠÛ²Û ¸
Ġcent uries
ÙĨØ® Ø³ØªÛĮÙĨ
h i
Ġ rom
ĠØ§ Ú©Ø³ÛĮ
Ġf uel
Ġl ic
Ġsome what
ĠÙħØ§Ø¯Ø± Ø¨Ø²Ø±Ú¯
Ġtechn iques
ĠWh o
Ġjob s
Ġf ought
ĠÙħÙĪ Ø´Ú©
ĠØ¹Ùħ Ø§Ø±Øª
Ġbr and
Ġgu ys
ĠNew s
ĠTr acy
Ùģ ØµÙĦ
ÙĤ ÙĦØ¨
ĠØ¨Ø±Ø¯ Ùħ
ĠØ´Ø¨ Ø§ÙĨÙĩ
Ġserv ants
amm ad
ĠEl izabeth
ÙĪ Ø§Ø³
Øª ÙĪÙĨÛĮ
ÙĪØ¯ ÙĪØ±
Ġm obile
ĠØ¨ÙĨ Ø´ÛĮÙĨ
Ġchild hood
ĠØ±ÛĮ Ø³Ú©
ĠØ¢Ø´ ÙģØªÙĩ
ipp ing
2 1
Ø³ ÙħÛĮ
Ù¾ ÙĪÙĦ
se ct
ĠÙĦ Ú©Ùĩ
Ġag ric
ĠØ¬Ø¯Ø§ Ú¯Ø§ÙĨÙĩ
Ġsoft ly
ĠArmen ian
Ġquant um
Ab out
Ø² Ø¨Ø§ÙĨ
ĠØ· Ø±
Ġme at
Ġr ide
ra ham
Th ree
ĠÙĨØ´ Ø§Ø·
Ġunc ertain
ĠØ´ÙĦÙĪ Ø§Ø±
ĠØ¯ ÛĮÙħÛĮØªØ±ÛĮ
Ġb ond
as p
Ġfo c
ĠØ¯ÙĨØ¨Ø§ÙĦ Ø´
Ġelect ed
Ġdri ven
ĠSu per
ĠØ¨Ø§Ø² ÙħÛĮ
ĠÙħØ± ÙĪØ±
Ġrelationship s
Ġur ban
L ater
w ater
Ø§ ÙģØ±
el ing
Ġj ump
Ġpr on
ĠØ§Ø¯ Ø¹
ĠÙħÙĪØ¶ ÙĪØ¹ÛĮ
Ġfru it
D r
Ġs atell
le nd
ĠØ² ÛĮÙĨ
ens ions
Ġcons erv
Ġarg ument
ĠØ¨ÛĮÙĩ ÙĪØ¯Ùĩ
ĠÙħØ±Ø§Øª Ø¨
Ġs isters
Ġw ounded
ĠØ§Ø³Øª Ø¹
ĠÙģ Ø§Ø¬
ĠØ§Ùħ Ø±ÙĪØ²ÛĮ
ĠJ im
Ġgr at
ĠÙħÙĨ Ø§ÙģØ¹
Ġflo od
T ake
Ø§Ùħ ÛĮÙĨ
Ġfe ature
ĠØ¨Ø±Ú¯ Ø´ØªÙĩ
Ġenvironment al
Ġcomfort able
ĠÙĪÛĮØ¯ Ø¦
ĠØ®ÙĨ Ú©
A F
ÙĨ ÙĦ
Ø¨Ùĩ ØªØ±
Ġv ote
Ø¨Ø± Ø§Ø¯Ø±
Ġcl in
ĠÙĨÙģ Ø±ÛĮ
Ġcle ver
Ġhands ome
C R
Ùħ ÙĪØ¯
ÚĨ Ú¯ÙĪÙĨÙĩ
ĠÙĩÙħ Ø¬ÙĨØ³
Ġshe l
Ġsa il
Ġsort s
cul es
Ġsold ier
ĠÚ© Ø¨
Ġo w
ĠÛ±Û¹Û ¶Û°
Ġcons ists
Ġart ists
Ġsol utions
ĠØ´ÙĪØ± Ø´
ĠØ§ÙĨØªÙĤ Ø§Ùħ
Ú©Ø§Øª Ø±ÛĮÙĨ
ĠÙħØ³Ø§ÙģØ± Øª
ĠÚ© Ù¾ÛĮ
ĠÙĤ ØµÙĩ
Ġcom ment
ĠN ik
ĠØ´ÙĩØ± ÙĩØ§
Ġsatisf ied
Ġ" *
ĠÙħØŃ ÙĪØ±
ÙħØ¯ Øª
Ġcol on
Ġref ers
ĠHe alth
Ġtri p
Ġindepend ence
ĠÙ¾ÙĩÙĦ ÙĪÛĮ
ĠØ¬Ø§ÙĦ Ø¨ÛĮ
ÚĨ Ø³Ø¨
Ġsy n
Ġbig ger
ĠØŃØ§Ú© Ùħ
j an
s uch
ĠÛĮ Ø§Ø±ÛĮ
Øº ÙĦÛĮ
ĠØ¢ÙĤØ§ÛĮ Ø§ÙĨ
ĠØ¢ÙĪÛĮ Ø²Ø§ÙĨ
ĠJose ph
A meric
in em
in ating
it ement
Ġf ant
ar ly
Ġp in
Ġex ha
Ú¯Ø² ÛĮØ±
Ġsub sequ
Ġmin or
Ġbehav i
Ġl od
op her
ĠÙħØ¬ Ø§Ø²ÛĮ
ÙĨØ´ ÛĮÙĨ
Ġbott le
ĠØ¢Ø³Øª Ø§ÙĨÙĩ
ĠØ± Ú¯
ri x
ĠØ±ÙĪ ÙħÛĮ
ĠE v
ĠÚ¯Ø± ÚĨÙĩ
Ġgl anced
Ġed ition
Ġmark ed
Ġprob ability
is hes
ĠØ¨Ø±Ø§ÛĮ ØªØ§ÙĨ
Ġr ates
ĠÙĨÙĪ Ø¨Øª
ĠØ®ÙĪØ´ Ø¨Ø®ØªÛĮ
Ġ18 8
ØªÙĨ Ø§Ø¨
Ġrest rict
Ġstrong er
ÙĨ ÙĪÙĨ
ĠØª ÙĨØ¯ÛĮ
Ġy ard
ĠØ¹ Ø·
ĠÙħØ¬ Ø³Ùħ
ĠØ§Ø¯ Ø¨
ĠØ®ÛĮ Ø³
ĠØªÙĦ Ø®
ĠMar ius
Ġdeter mine
G e
ĠÚ© Ø±Ø§Ùģ
ce l
Ġem ph
ĠÙ¾ÛĮØ± ÙĪØ²
Ú¯Ø±Ø¯ Ø§ÙĨÛĮ
ĠSec ret
B l
Û µ
Ġv essel
Ġint ellect
ĠØ¯ÙĪØ± ØªØ±
ĠØ¸ ÙĩÙĪØ±
ĠØ¹ÙĤ Ø§ÛĮØ¯
Ġpur s
ĠØ®Ø¬ Ø§ÙĦØª
Bes ides
ĠØ´ Ø±ÛĮÚ©
al ph
ĠA wards
ĠØ¯ÛĮ Ú¯
Ġmy st
Ġyour s
Ø¨ÙĦ Ø¯ÙĪØ±
Ġimp ression
oun ce
ĠÙħØ§ÙĨØ¯ ÙĨØ¯
Ġtra ve
ĠØ¬Ø´ÙĨ ÙĪØ§Ø±Ùĩ
Ġsucceed ed
ĠCour t
Ø¹ ÙĦÛĮ
Ġn ative
ĠÙĪØ± Ø§ÙĨØ³Ú©ÛĮ
ĠØªÙģ Ø±ÛĮØŃ
ask et
ĠØµØ¨ØŃ Ø§ÙĨÙĩ
ĠÙĨØŃ ÙĪ
ĠAng eles
Ġunex pected
Ø§ÙĤ ÛĮ
ĠG and
ĠR ob
ish op
az z
Ġins pired
ĠØ¹ÙħÛĮ ÙĤÛĮ
ĠMus ic
Ġclaim ed
ĠØªØ¶ ÙħÛĮÙĨ
Ġash amed
ĠÙĩ Ø±Ø¯ÙĪ
Ġb ath
ĠÚ¯Ø±Ø¯ Ø§ÙĨ
ĠPhil os
Ġobv ious
ÚĨ ÙĤØ¯Ø±
ĠØŃ ÙĪØµ
Ġre form
ĠÙĨØ§Ùħ Ø´
ren e
ĠIs lands
ĠØ§Ø³Ùħ Ø´
Ġregard ed
Ġprinci ples
ĠØ·ÙĨ Ø§Ø¨
ĠÚ©Ùĩ Ú©Ø´Ø§ÙĨ
ĠØŃ Ø§Ú©ÛĮ
ĠY our
ĠØªØ§Ø¨ ÙĦÙĪ
Ġkiss ed
Ø® Ø¯Ø§ÛĮ
ĠM unicipality
ĠÙĦ Ø±Ø¯
ort ed
ĠÙĨØ¯ Ø§Ø±ÛĮ
ĠÙĪØ¶ ÙĪØŃ
Ġfore head
Ġprote in
Ùħ Ø³ÛĮ
Ø§Ø± Ú¯Ø§ÙĨ
ĠÙ¾ ÙĪÙĨØ¯
Ġis ol
ĠÙĦ Ú¯
ĠÙħÙĪ Ø«Ø±
ĠØ¢Ø³ ÙĪØ¯Ùĩ
ĠØ®Ø±ÙĪ Ø¬
Ġacqu aint
ĠØ¬Ø¨Ùĩ Ùĩ
ĠØ± Ø¨Ø·
ĠC y
Ø¢ ÙĨØ§ÙĨ
ÙĩØ± ÙħÛĮÙĪÙĨ
ra v
ĠÙħØ¨ÙĦ Øº
t r
ĠÚ© Ø±Ø§
ĠÚ© Ø±Ùħ
ĠØ® ÙĢ
if fe
Ġde ce
ĠØ³Ø± ÙĪØ¯
ĠF amily
Ġun w
ick ing
Ġfoll ows
Ø¨Ø±Ø¯ Ø§Ø±ÛĮ
Ú© Ùģ
ĠØ® ÛĮØ²
ĠÙ¾ÛĮ Ø§ÙĨÙĪ
the less
Ġback ground
ĠØ¨ÙĢ Ø§
ĠØ²Ø® ÙħÛĮ
Mus ic
ĠS ub
ĠÙħÙĪ ÙĤØª
Ġr ou
ĠÙħØ· ÙĦÙĤ
ĠÚ©ÙĨØ§Ø± Ø´
ĠWh y
ĠØµØ±Ùģ Ùĩ
Ġreport s
liv ier
Ġm arch
ĠØ®ÙĪ Ú©
ĠÙ¾Ø± ÙĨØ¯Ú¯Ø§ÙĨ
velop ment
Ġlog ic
ĠØ¹Ø¸ ÛĮÙħÛĮ
P S
ĠØŁ ...
ĠØªØ£ Ú©ÛĮØ¯
Ġappro ached
Ġrequ est
ĠÙħØ§Ø±ÛĮ ÙĪØ³
ĠØ±Ø§ÙĨ ÙĨØ¯Ú¯ÛĮ
Ġteac hers
Ġrespons ibility
ĠØ¯Ø§ÙĨØ´Ùħ ÙĨØ¯
f all
ĠÙĩØ± Ú¯ÙĪÙĨÙĩ
ci pl
Ġbr ains
Ġact or
Ġgood s
ĠØ¯Ø§Ùħ ÙĨ
ĠÙĦØ±Ø² Ø§ÙĨ
Ġliter ally
ĠÙĪÛĮØ¯ Ø¦ÙĪ
Ġf ate
Ġstud io
ĠÙĪØ±Ø² Ø´ÛĮ
c est
ĠÙĩ Ø§ÙĨ
ĠÙĨ ÙĪÙħ
ĠÚ©ÙĦÙħ Ø¨ÛĮØ§
ĠØ¹Ø¨Ø§Ø±Øª ÙĨØ¯
Ø´Ø± Ú©Øª
Ġnodd ed
p al
Ġt ear
ĠØ¬ÙĪ Ø§Ø¨ÛĮ
ĠÙĦØ§ ØºØ±
ĠØ§ÙĦÙĩ ÛĮ
ĠØ²Ø§ ÙĪÛĮÙĩ
Ġdeli ver
ĠLib rary
Ġg athered
ÙģØª Ú¯ÛĮ
ur se
ĠØ¨ÛĮ Ø³ØªÙħ
ĠÙħØŃ ÙĪØ·Ùĩ
ĠØ¨Ø¯ Ø¨Ø®Øª
Ġconf used
ĠØ¨Ø¨ Ø®
ĠØ¹ØµØ¨Ø§ÙĨÛĮ Øª
ĠÙħØ£Ùħ ÙĪØ±ÛĮØª
ot ic
Ġsh aking
ov a
Ġapp ointed
Ġcol umn
ĠÙĨÚ©Ø±Ø¯ Ùħ
Ġhop ed
ĠØ¢ÙĪÛĮ Ø®ØªÙĩ
Ġoccup ied
Ġï »
Ġsympt oms
ad ium
ĠL in
ĠN ich
Ġdisc overy
Ø·Ø¨ ÙĤ
Ú¯Ø²Ø§Ø± Ùħ
G en
ĠØ² Ø¨Ø§ÙĨÛĮ
ter m
un ction
Ġgo als
ĠÛ¹ Û°
a ul
a wn
ĠÙĩ ÙĪØ³
Ġhand ed
ĠCom put
Ġdri ver
ĠMin istry
S im
or ial
Ġnot ed
ĠØ³ÙĪ Ø³ÛĮ
ĠØ¯ÙĩÙĨØ¯ Ú¯Ø§ÙĨ
ĠØ´ÙĨØ§Ø³ Ùħ
Ġdeg rees
ĠØªØ¯Ø±ÛĮ Ø³
ĠØ¹Ø° Ø§Ø¨
ĠA k
ĠÙĨØ¯ Ø±Øª
ĠØ´ÙĪ ÙĤ
Ġper man
ĠSt u
Ġinf inite
ĠÙĨÙĪÛĮØ³ ÙĨØ¯Ú¯Ø§ÙĨ
ĠCan adian
ĠØ±Ø§ÙĨ ÙĨØ¯Ùĩ
Ġast ron
ĠÙ¾ÛĮÚĨÛĮØ¯ Ú¯ÛĮ
ĠØ¨ÙĪØª Ùĩ
Ġw edd
ÙĤ ÙĪÙĦ
Ġc as
Ġp ush
ĠB as
Ġwor n
Ġfl ower
ĠÙĥ Ø§Ø±
Ġ9 78
Ġnat urally
D A
Øª ÙĪÛĮ
ĠØ¯Ø± Ø®Ø´
ĠÚ¯ ÛĮÙĦ
ir med
am in
em en
Ġcomm itted
Ġbre aking
Ġclo ck
Ġste el
U S
h and
m ond
Ġs an
ic ing
ĠL ittle
ĠÙħØ±Ø¯ ÙĩØ§
Ġhouse hold
Ġkill ing
Ġlay er
Ġstri ke
p oint
he tt
st ro
Ġun p
Ġun like
Ġapp ly
ĠÛ²Û ¶
Ġcre w
Ġaltern ative
cycl op
ÙĪ Ø§Øª
Øª Ø¹Ø¯Ø§Ø¯
ĠØ® Ø§Øª
Ø³ÛĮ ÙĦÛĮ
ĠØ±ÙĪ Ø¨ÙĦ
ĠØªØ± Ø¨ÛĮØª
ÙĬ Ùĩ
Ġag reement
ĠØªÙĨ Ø´
Ġdr unk
Ġill ust
Ġexc itement
ĠGen us
Ġpro ced
ĠF r
ĠØ¯ÛĮØ¯ ÛĮÙħ
Ġadm it
ĠÚ©ÙħÙ¾ Ø§ÙĨÛĮ
Ġexcell ent
ã Ĥ
Ġl osing
ĠØ¹ Ø§ÙĤÙĦ
Ġrel ief
Û±Û ³Û
Ġvol ume
ĠÛ· Û°
Ġtrad ition
e f
ĠØ¨Ø¯ Ø§ÙĨÙħ
ick s
Ġdiffe rences
Ġinc or
Ġox y
Ġneighbor hood
Ġg ri
ĠM other
ĠR ue
ĠØ®Ø· Ø§
Û±Û ¸Û
ĠÚ©Ø§Øª ÙĪÙĦÛĮÚ©
Ġmass ive
Ġheav ily
Ġw ire
ag ues
Ġex ists
ĠØ´Ú© Ø§ÛĮØª
Ù¾Ø± Ø³Øª
ĠâĢİ .
Ġsk ills
Ġcru el
Ø¢Ø® Ø±ÛĮÙĨ
Ġg iant
Ġv ague
Ġpl ane
Ø´Ùħ Ø§Ø±ÛĮ
ĠÙħÙĤ Ø§Ø¯ÛĮØ±
ĠÙħØ·Ø§ÙĦ Ø¨
Ġgrand father
ĠÙĨÙħØ§ÛĮÙĨØ¯ Ú¯Ø§ÙĨ
ĠÙĨØ§Ø² Ú©
Å Ĥ
ĠÙĪ Ú©ÛĮÙĦ
Ġd ull
ÛĮÙħ ÙĨ
ac les
ÙħÛĮ ÙĦÛĮ
ĠÙĪÛĮ ÙĨØ¯
ĠÙĪØ¬ÙĪØ¯ Ø´
Ú©Ø³ ÙĪÙĨ
Ġnewsp aper
ĠØ´ ÙĪÙĨ
an ie
Ġpl ate
ĠØ¨Ø±Ø¯ Ø§Ø±Ø¯
ĠÙ¾Ø¯Ø± Ø¨Ø²Ø±Ú¯
Ġfact s
ĠÙ¾Ø±Ø¯ Ø§Ø²Ø¯
ĠØ·ÛĮ Ùģ
Ġdise ases
Ġalgorith ms
E L
w rit
ĠØŃ Ø±ÙĪÙģ
ĠÙĦ Ø§Ø±ÛĮ
ĠØ´Ø®Øµ Ø§
Ġship s
Ġign or
O K
ĠØ¨ Ø¨Ø±ÛĮ
ĠØ¨ Ø®ÙĪØ§Ø¨
ĠØŃ Ø¨Ø³
ĠÙĩØ§ÛĮ ÙħØ§ÙĨ
Ġst ones
Ġown ed
Ġatt ribut
Ġph ase
ĠÙĪØ§ Ú©Ø³
Ġport ra
ĠÚ©Ø´Øª ÙĨ
ĠØªØŃÙĤÛĮÙĤ Ø§ØªÛĮ
ĠInt elligence
ĠÙħÙĨØ§Ø³ Ø¨ÛĮ
Ġin ner
ĠØ§ÙĨ Ú©Ø§Ø±
Ġfl esh
Ġob st
ĠÙĦÛĮ Ø²
Ġbran ch
i y
ĠØ±Ø³ÛĮØ¯ Ùħ
Ġsust ain
ĠÙħ Ùħ
ĠÙĨÛĮ ÙĪ
ĠO b
ĠÙĨÛĮØ³Øª ÛĮ
Ġelect rical
Ġabs ence
ĠØ´Ú¯ÙģØª ÛĮ
Every thing
Ġfrequ ency
ĠÙ¾ Ø´ÛĮÙħ
Ġint ellig
Ġsp in
ĠØ§Ø¬ ØªÙĨØ§Ø¨
Ġcur iosity
Ã³ w
ĠNat asha
Ùħ Ø¯ÛĮ
ĠØ¯ ÙĬ
Ġprison ers
Ġdrink ing
Ġanx iety
Ġpa used
Ġscar cely
Ġcous in
ĠÙĨØ§Ø´ÙĨ Ø§Ø®ØªÙĩ
n or
Ġst iff
ĠØ¨Ø§Ø² Ø±Ú¯
ĠÙħØ¹ Ø°
ĠØ§Ø´ ÙĦÛĮ
Ġcreat ures
ĠØ±Ø³ ÙĨØ¯
Ġact ing
olog ist
Ġsim pl
Ġfriend ly
Ġlif ted
Ġelectric ity
ĠØ§ÙĦ ÙħØ§Ø³
ck now
ĠThe n
ĠØ§Ø¹ ØµØ§Ø¨
Ġdem on
Ġste pped
ĠSc ot
Ġprim arily
ĠØªØ±ÙĪØ±ÛĮ Ø³Ùħ
ĠØ¢Ø±Ø² ÙĪÛĮ
Ġexplan ation
h us
o cc
ĠD u
ĠU r
Ú©ÙĦ Ø§ÛĮØ¯
ĠÙħØ±Øª Ú©Ø¨
Ġbed room
ĠØªØ® Ø±ÛĮØ¨
ĠØ¨Ø¯Ø§ÙĨ ÛĮØ¯
Ġsatisf action
Ġvict ory
ĠØ¨Ø³Ø§Ø² ÛĮÙħ
ĠÙħ Ú¯
ÙĦ Ø°Ø§
Ġp uzz
Ø³ÛĮ Ø§
ØªØ± Ø³
ĠØ¨Ú¯Ø°Ø§Ø± ÙĨØ¯
ĠÙĨØ§Ø® ÙĪØ´
ĠFound ation
b itt
Øµ ÙĪØ¯
Ø®Øª ÙĨØ¯
ĠP o
ĠÙĨÙĪ Ø§ØŃÛĮ
Ġinterest s
Ġhor iz
Ġs ons
Ġk il
Ġfeel s
ĠÙĨÙĪØ§Ø² Ø´
2 8
h ost
y pe
ÙĤ ÙĪÙĩ
Ġwor ried
ĠJ eff
ĠÛĮØ§Ø¯ Ø¢ÙĪØ±ÛĮ
ific ial
ĠØ¬Ø² Ø¡
Ġsw ord
Ġsent ence
Ġbal ance
Ġequival ent
Ġf art
Ġst or
os ha
Ġres olution
Ġfin ish
angu age
Û² Û°Û
Ġident ified
Ġdemocr acy
Ġatmosp here
I R
Ġb its
ĠÙħÛĮ Ø±Ø§
ĠÙģØ± Ú©Ø§ÙĨØ³
Ø§ÙĪ Ø§
ĠÙ¾Ø±ÙĪ ÙģØ³
ĠØ³Ø· ÙĪØŃ
Ġpri est
ĠØ®ÙĪÙĨ Ø³
Ġtrem bling
ĠØ¬Ø§Ø¯ ÙĪÛĮÛĮ
ĠÚ©Ø±Ø§Ùģ Ø±Ø¯
ĠØ¯Ø± ÙħÙĪØ±Ø¯
ar io
Ġch ose
Ġpre m
ĠÙ¾ÙĦ Ú©Ø§ÙĨ
ĠÙħØªØ¹ Ø¬Ø¨
ĠØºØ±ÛĮ Ø¨Ùĩ
ĠÙģØ§Ø± Ø³ÛĮ
ĠÙħØ¹Ø¯ ÙĨ
2 7
Ú© ÙĪÙĩ
or ter
ĠØµ Ø¯Ùħ
ĠH T
ĠØ±ÙĪØ² Ùĩ
ĠØ¯Ø®ØªØ± ÙĩØ§
ĠØ¨Ø´ ÙĪÙħ
ĠØµÙĨ Ø§ÛĮØ¹
Ġcompon ents
ĠØ¨Ø¹Ø¯Ø§Ø² Ø¸ÙĩØ±
ĠØª Ø¯
ĠÙ¾ Ø§Øª
ĠÚ¯ Ø²ÛĮÙĨÙĩ
Ġlo ose
Ġcomp assion
ĠÙħØ¯ Ø§ÙĦ
Ġstud ying
ĠÚ©ÛĮ ØªÛĮ
Ġide al
Ġcor por
ÙħØ¹ ÙĦÙĪÙħ
Ġsuper ior
Ġgal ax
J ean
Ġres ist
Ġco ord
Ġgr in
ĠØ³Ø§ Ø¹ØªÛĮ
ĠLe Ã³n
Ġsurround ed
Ø² ÙĨØ§ÙĨ
er k
ĠØ±Ø§ Ú©
ell y
ÙĢ Ø§ÙĨ
ĠØªÙħ Ø³
Ġgen e
oth y
ØªØ±ÛĮ Ø³ÛĮ
ĠØ¬ÙĦ Ø¯
app ing
ĠCath olic
Ġfoc used
ĠÙĪ ÙĤØ§ÛĮ
Ġc ore
Ġmy th
ĠÚ©Ø§Ùħ Ù¾
Ú©Ø² ÛĮÙħ
ĠII I
ĠÙĪ Ø§ÙĨÙħ
Ġin du
ol m
Ġr ow
Ġgreat ly
ĠAmeric ans
Ġexperien ces
ĠØ®ÙĪÛĮ Ø´ØªÙĨ
V al
ĠÚ¯ ÙĦÙĪ
Ġre ven
ol ve
ĠØ¨ÛĮ Ø§Ø¨
ain e
ĠF ar
Ġrem ote
el a
ak ers
Ġpract ical
ĠØ¨Ø²ÙĨ ÛĮØ¯
ĠØ¨ Ø§Ø¯ÛĮ
Ġa cknow
Ġm useum
Ø¨ÛĮ ÙĦÙĩ
ÛĮØª Ø§ÙĨ
Ġdep artment
ĠØ´ÙĨØ§ Ø®ØªÛĮ
Ġaw ful
Ġteam s
Ġbank s
Ġauthor ities
Ġprofess or
ĠØ´ÛĮØ· Ø§ÙĨÛĮ
ĠÚ© ÙĪÛĮ
ed ing
ĠØ³ Ø±Ø¯Ùĩ
ĠÙħÙĨ Ùĩ
Ġne got
ĠÙģØ± Ø¢ÛĮ
ity a
Ġro lled
Ġpolit ic
Ġspir its
ĠSec ond
2 9
ĠØ±ÙĪÛĮ Ú©Ø±Ø¯
ĠÙĤØ± Ø¢ÙĨ
Ġgr ate
Ġ193 0
Ġn ode
st anding
ĠÙĨÙĤ Øµ
ĠPh ys
ĠØ¨ÙĨØ¯ Ø±
Ġarri val
ĠØ¨Ø®ÙĪØ§ÙĨ Ø¯
Ġhang ing
ĠØ¨Ø§ ÙĩÙħ
Ġse lected
op ing
ĠB on
Ġcon qu
ĠO xford
ĠØ±ÙĤ Ùħ
ĠÙĨÙħØ§ÛĮØ´ Ú¯Ø§Ùĩ
ĠÙĨØ§Øª Ø§Ø´Ø§
eal ous
is ation
Ġwere n
Ġsec ure
ĠØªØ±ÛĮ Ø³ÛĮ
Ġobv iously
umbled ore
ĠØ§Ø±Ø¯ÙĪ Ú¯Ø§Ùĩ
Ġbe ast
ĠÙģ ÛĮØ±
ut ation
Ø§Ø¨ ÙĩÛĮ
ÙĩØ§ Ø³Øª
Ġthink s
du c
ĠÚĨØ´Ùħ Ùĩ
Ġgold en
ĠØ²ÙĨØ¬ ÛĮØ±Ùĩ
Ġton ight
4 8
ĠØ· ÙĪÙģØ§ÙĨ
ill ing
Ġsh ru
ĠE astern
Ġlo ck
ran ge
Ġbo ld
Ġbl ame
Ġ18 7
ĠChrist mas
Ġview s
ĠØ¨ÙĩØ¯Ø§Ø´Øª ÛĮ
ĠØ²ÙĪ Ø¬
ĠÙĪØ§ÙĨÙħ ÙĪØ¯
e very
Ø¸ Ùħ
Ø¢ Ú¯Ø§Ùĩ
Ġpro port
Ø§Ø±Ùĩ Ø§ÛĮÛĮ
Ġco ok
Ġheart s
5 5
C ol
Ġw ake
ul se
ĠÙĦ ÙĨÚ¯
ĠR ock
ĠN orthern
ĠØ´ÙĪ Ø§ÙĩØ¯
Ġsle pt
bo x
ĠØ¨ÙĨÛĮ Ø§Ø¯ÛĮ
agn an
ĠØ±Ø¤ ÛĮ
ĠPrin cess
ÙĨ ÛĮØ±
ĠM em
ĠÙĦ Ø³
ĠB ol
Ġwor ship
ĠV iet
ĠØ®Ø§Ø± ÙĤ
ĠØ¹ÙĦØ§ ÙĤ
Ġfun ny
ĠØ¯Ø±Ø¯ Ø³Ø±
ØªÙĦ Ø±
ĠQue en
c ope
Ġ q
Øª Ø§Ø±ÛĮ
ĠÙĪ ØµÙģ
ØŃ Ø´
ag ger
ĠØº Ø§Ø±
ĠØªØ¹ ÙħÛĮØ±
ĠÙĦÛĮ Ú¯
Ġdi amond
ĠComm ission
ĠØ¢Ú© Ø§Ø¯ÙħÛĮ
L ist
P C
t le
Ø§Ø± ÛĮØ¯
ĠØ´Ø¯ ÛĮ
Ġsh irt
Ġall owing
ĠW al
Ġun us
ĠÙĨØ§ Ú¯Ø²ÛĮØ±
ĠÙ¾Ø±ÙĪØª Ú©ÙĦ
Ġresearc hers
ÙĪ Ø¬Ùĩ
ic it
ØŃ Ø±Ùģ
ĠØªÙĪ Ùĩ
ĠPl an
Art agnan
l ife
it ure
ĠØ§ÛĮÙĨ ÙĪ
ut ed
ĠA zer
ĠØ³Ø± Ú¯Ø±ÙħÛĮ
ĠT own
ĠØªØºÛĮ ÛĮØ±ÛĮ
Ġstr ateg
Ġimag ination
Ġincred ible
p ass
Ð º
Ú© ÙĪÙĨ
ĠÙĪ Ø§Øª
al so
ĠØ¨Ø± ÛĮØ¯Ùĩ
st r
ĠC atherine
ĠJ oe
Ġelect ions
Ġmanufact ure
Ġscri pt
ĠØ³ÙĦÙĪ ÙĦÛĮ
r ors
ĠØ® Ø§Ø³Øª
ĠØ³ ØŃØ±
Ġg ained
ĠØŃ Ø¬
ĠÛĮÚ© Ù¾Ø§Ø±
ĠM ill
ĠL iber
ÙĬ Ùĥ
ĠØ¨Ø¯ ØªØ±ÛĮÙĨ
Ġun s
ĠÚ©ÛĮ Ø³Øª
Ġtechn ical
ogr ap
Ġprofess ion
ĠÙĤÙĩØ± ÙħØ§ÙĨÛĮ
Ġarran ged
E M
Ġc ert
or ia
ĠØ²ÛĮØ± Ø²ÙħÛĮÙĨ
ĠØ¹ÙĦØ§ Ø¦Ùħ
ĠØ³Ù¾ Ø±Ø¯Ùĩ
k o
Ã ¸
ĠØª ÛĮÙĦ
ly osha
ĠÚĨ ÙĬØ²
ĠØ®ÙĪØ¯ Ø±ÙĪÛĮÛĮ
ĠØº Ø§ÙģÙĦ
Ġno ble
ĠØªÙĨ ÙĪØ¹
ĠØ®Ø´ Ú©ÛĮ
Ø§Øº ÙĦØ¨
ĠØ§Ø³ØªØ® Ø±Ø§Ø¬
ĠØ§ÙħØª Ø¯Ø§Ø¯
Ġsport s
ĠÙ¾Ø±ÙĪÙģØ³ ÙĪØ±
Ġm ac
um ed
ap y
Ġcompl icated
ĠÙħØªØ£ Ø³Ùģ
ĠS outhern
ĠP op
Ġdo ctors
ĠØ§ÙĦ ÙĨ
ĠÚ©Ùħ ØªØ±ÛĮÙĨ
Ġsm ooth
ĠÙħØ³Øª ÙĨØ¯
ĠØ±Ø®Øª Ø®ÙĪØ§Ø¨
ĠÙħØ¯Ø§ÙĪ Ùħ
Ġvis ited
ĠØ´ÙĨØ§ ÙĪØ±
Ġevident ly
Ø§Øª Ø´
Ġpart ner
ĠIn c
ĠÙĨØ´Ø³Øª ÙĨØ¯
ĠØ§ÙģØ³ Ø±Ø¯Ú¯ÛĮ
ĠÙħØªØ¹Ø¯ Ø¯ÛĮ
w est
Û ´
Ø¹ ÛĮØ¯
Ġg le
ĠØ¨Ø±Ø§ÛĮ Øª
ĠD is
ĠØ§Ø¬ Ø§Ø±Ùĩ
man n
ĠÚ¯ÙĪØ´ ÛĮ
ĠØ³Øª Ø§ÛĮØ´
ĠÙ¾Ø¯ÛĮØ¯ Ø§Ø±
Ġmaint ain
Ġexer cise
ĠÙĤ Ø´ÙĪÙĨ
op ed
Ġ' '
ĠÙ¾Ø³ ÙĨØ¯
Ġcont empt
ĠÛ± Û°Û
Ġtest ing
ĠØ¨Ú¯ÙĪÛĮ ÙĨØ¯
ĠÙħÛĮØ¯Ùĩ Ø¯
Ġd ancing
om ach
Ġst uck
ĠB y
ĠR ose
ĠL y
Ġlo cked
ÙĪØ¨ ÙĪØ³
Ø¨Ø§ÙĦ Ùĩ
Ġsw ift
ĠÛµ Û°Û°
ĠÙģÙĩÙħ ÛĮØ¯Ùĩ
Ġliqu id
ÙĪ ÙĩØ§
as ters
ĠØ¨Ø± Ø¹Ú©Ø³
il ty
ĠR og
ĠE ve
Ġpl ays
ĠÛĮÙĪÙĨ Ø§ÙĨ
Ġcomb ined
Ġalt ogether
I L
ĠÙħÛĮ Ø´Ø¯
Ġf ier
et ime
ĠP re
ĠP ost
Ġex tended
ĠØ´Ú© ÙĪÙĩ
ĠØ®ÛĮ Ø§ÙĦÛĮ
ĠØ³Øª Ø§Ø±Ú¯Ø§ÙĨ
Ġwond ering
ĠFace book
U nder
ĠØ® ÙĦÙĪØª
ig en
ĠØ¨Ø±Ùĩ ÙĨÙĩ
Ġbacter ia
S ec
Ø³ ÙĪÙħ
ĠØ¬ ÙĪÛĮÛĮ
ÙħÙĪ Ø³ÛĮÙĤÛĮ
ĠV an
Ġconst antly
Ġrese m
Ġfriends hip
Ġmain ly
ĠÙħØ°Ùĩ Ø¨
B et
Ø§ÛĮ Ø§
or al
ĠÙ¾ Ø±Ø§
Ġfor b
Ġse es
ĠB ella
ap ing
ĠØ¯ÙĦ Ø³
ĠØ¨ÙĢ ÙĪØ¯
Ġsleep ing
Ġcomb ination
ĠØ§ÙĦÚ¯ ÙĪÛĮ
ĠAustral ian
ĠØ®Ø¯Ø§ØŃØ§ÙģØ¸ ÛĮ
! "
in ter
ĠØ¬ Ø¨Ø±Ø§ÙĨ
ad er
T V
Ġp ause
Ø§Ùħ ÙĦÛĮ
ĠL ydgate
Ø¨Ø± ÙĨØ§ÙħÙĩ
Ġro ot
ĠØ¹Ùħ ÙĪÙħ
Ġfran cs
Ġv ary
ĠSt and
ĠØŃØ³ Ø¨
ĠØ¯Ø±Ø¯ ÙĨØ§Ú©
Ġemot ions
ĠØ¯Ø® Ø§ÙĦØª
6 5
C M
ĠØ§ ÚĨ
ant e
Ġ198 9
ĠØ®ÙĪØ´ØŃØ§ÙĦ Ùħ
1 00
ĠÚ© ÛĮÙĨ
it ar
ĠØŃ Ø³ÛĮ
Ġse ated
ĠT ime
Ġconc ert
ĠØ±Ø§Ø¯ÛĮ ÙĪÛĮÛĮ
Ġcloud s
Ġmathemat ical
4 7
Øª Ùģ
Ġf er
Ġr h
lo c
pl ess
ĠØªØµ Ø¯ÛĮÙĤ
ĠSt an
Ġrel ation
oc al
ĠÙħÙĪØ¶ÙĪØ¹ Ø§Øª
ĠÙħØ¯Ø± Ú©
Ġpattern s
) }
Ùħ Ø±Ùĩ
ĠÚ© ÙĪØ²Øª
Ġh int
ro g
ĠÙĦ Ú©
ĠJ urgis
ĠÙħØ¹ ÛĮÙĨ
ĠÙħØ´ Ø§Ø¨ÙĩÛĮ
ĠÙħÙĨØª ÙĩÛĮ
ĠØ³Ø±Ø´ Ø§Ø±
Ø§Ø¬ Ø§Ø²Ùĩ
ĠØ²ÛĮØ¨ Ø§ÛĮ
ĠØ´Ø§ Ú¯Ø±Ø¯
Ġhung ry
ĠÙĤØ§ Ø¶ÛĮ
Ġre ward
ĠÙħÙĪ Ø§ÙĤØ¹
Th rough
aw s
Ġent ertain
ĠÙħØº ÙĨØ§Ø·ÛĮØ³ÛĮ
ĠØ¯Ø§ÙĨØ´Ú¯Ø§Ùĩ ÛĮ
ĠPet ers
Ġess ential
Ù¾ Øª
Ġg ently
Ġst ret
el f
ĠÙħØ¹ Ø·
Ġun iform
Ġexist ing
ĠØ¹Ø§Ø´ÙĤ Ø§ÙĨÙĩ
S ever
Ġthe e
ing er
ĠÙĤ Ø¨ÛĮÙĦÙĩ
Ġan cest
ess ion
ĠÙ¾ÛĮØ± ÙĪÛĮ
ĠØªÙĦ Ú¯Ø±
Ġwood s
ĠØ¨ÙĪØ³ ÛĮØ¯
ĠØ®Ø§Øª ÙħÙĩ
Ø³ Ø§Øª
Ø² ÙĨÛĮ
Ġex ternal
ĠO liver
ĠØ°ÙĩÙĨ Ùħ
ĠÙħØ£Ùħ ÙĪØ±
Ø¦ÙĪØ± ÙĦÛĮ
Ġappre ci
Ġt orn
ĠÙĪ Ø§Ø¯
ĠØª Ø§ÛĮÛĮØ¯
Ġc ards
ĠI MDb
ĠØ³Ø§Ø®Øª ÙĨØ¯
Ġold est
ĠÚ©ÙĦÛĮ Ùģ
Ġdr am
ĠEng ine
Ġlarge ly
ev in
Ġprison er
ĠAlexand er
O T
ĠÙħ Ø§Ø¯ÛĮ
al i
em ies
ĠØ§Ø³ ÛĮØ±
Ġdepend s
ĠØ§Ø®ÛĮØ± Ø§
ĠØ¨ ÙħÛĮ
ĠÙĨ Ø§ÙĪ
it ors
ĠØ® ÙĦØ§ÙĦ
ĠØ¢ÙĨ ØªÛĮ
ĠM onsieur
ul es
ĠR a
Ø§ÛĮÙĨ Ú©
ĠÙħØª Ø±ÙĪ
Ġcomp re
Ġind ex
ĠØ¨Ú© ÙĨÛĮ
ĠÙĪØ¸ Ø§ÛĮÙģ
Ø¸Ø§Ùĩ Ø±Ø§
Ġs ales
ĠØª Ù¾
ĠÚĨ Ø´
ac ific
um ents
os m
Ø®ÙĪ Ùģ
Ġ3 00
ĠØ§Ø® Ø±Ø§Ø¬
ĠØ¨ ÙĦÛĮ
ĠÙĨ ÙĬ
ĠM ars
il er
ĠH aw
ĠÚ©Ùħ Ú©ÛĮ
ĠÙĨÙħ Ú©
Ġburn ed
ĠØ¯Ø§Ø¦ ÙħÛĮ
ĠM oon
ĠÙħØª Ø§Ø³Ùģ
ĠØŃØ±Ùģ Ø´
ĠPro gram
Ġtechn ique
ĠØ¨Ø¨Ø± ÙĨØ¯
Ġgun s
Ġperce ived
b ra
ĠÙĩ ÙĨØ¯ÛĮ
ic ation
Ø· Ø§Ùģ
id el
ith s
ĠA li
Ġad vert
ĠÙĪÛĮ ØªÙĨ
ĠSt ar
ĠØªÙĪÙĨ ÛĮØ¯
ĠSc ott
Ġdaughter s
ĠBer lin
ĠØ¨Ø±Ø§ÙĨ Ú¯ÛĮ
Ġapparent ly
Ùħ ÙĩÙħ
he ast
ĠÙĪ ØªÛĮ
ĠØ± ÙĨ
ar se
ĠD an
ĠØ¯Ø³Øª ÙħØ§ÙĦ
ĠÛ±Û µÛ
ons ense
Ġshould n
Ġunhapp y
O C
Ġt ick
Ø³ ÙĦÙĩ
it zer
ĠØ§Ø² Ø§ÛĮ
Ġe ase
ir y
ur ation
ĠØ®ÙĪ Ø§Ø¯
ĠL ab
Ġpart ners
ĠÙĤØ· Ø¹ÛĮ
ÙĪØ· ÛĮ
ĠPr ime
Ġhom es
ĠØ²ÙĨØ¬ ÛĮØ±
0 5
ĠØª Ø±ÙĪ
ÚĨ ÙĨ
Ġshe ep
ÙħØ§Ø¯ Ø§Ùħ
Ġclaim s
ĠØ¯Ø§ÙĪØ· ÙĦØ¨
, ;
b ai
Ġst im
qu is
ĠD utch
ĠØŃÙĤ ÙĪÙĤÛĮ
Ġart icles
Ġpar am
Ġadm ir
Ġsor row
ĠØ¬Ø¯ Ø§ÛĮÛĮ
ĠÙħÙĪØ³ Ø³Ùĩ
ĠÙħÛĮ Ø³
ĠØ¯Ø± Ø³ØªÙĩ
Ø® Ø·
ĠÚ©ÙĨ Ø³Ø±Øª
us al
Ġsh if
ĠE nd
Ġatt ached
ĠSp ace
ÙģÛĮÙĦ Ùħ
ĠOrgan ization
b ar
ÙĪ Øº
ĠÙĩ Ø¯
ĠA ut
ĠE ll
R um
Ġb atter
Ġm aid
ĠO ri
Ø§Øµ Ø±Ùĩ
Ġcons ult
ik ip
ĠØ®ÙĪØ§Ø¨ ÛĮØ¯Ùĩ
Ġpartic les
Ġprocess ing
Ġtot ally
ĠØ´Ø§ Ø®Øµ
Ġmix ed
J ohn
ĠØ´ ØªØ§
ĠÛĮ ÙĪÙĨÛĮ
Ø§ÙĦ Ø¯
Ġkn ife
ĠÙħØ³Øª ÙĤØ±
ĠÙ¾ÙĨ Ø¬Ùĩ
ĠÙħØ§ÛĮ Ú©ÙĦ
Ġoblig ed
l ong
Ġw ise
Ø® Ø§ÙĨÙĪ
ĠM axim
ÙĪØ² Ùģ
ĠØ« Ø¨Ø§Øª
Ġprot est
Ùĩ Ø§ÙĨ
ĠØ¨Ø± Ø§ÙĨÚ¯ÛĮØ²
Ġy ards
Ġint ense
ĠÙħØŃ Ø§Ú©
Ġj ealous
ĠÙĤØ· Ø¨
ĠÙħÙĦ Ú©
Ġlead s
ĠÙ¾Ø§Ø¯ Ø§Ø´
ĠØ¯Ø±Ø´ Ú©Ùĩ
Ġwedd ing
ĠØ¯ ÛĮÙĨÛĮ
ĠL oss
ĠÙĨÛĮØ± ÙĪÙħÙĨØ¯
Ġmem ories
Ġfact ory
Ġtru ck
ĠØ¸Ø§Ùĩ Ø±ÛĮ
Ġbes ides
ĠÙħØ³ÙĦÙħØ§ÙĨ Ø§ÙĨ
Ġelectron ic
ĠØ¢ÙĨØ¬ ÙĦØ³
d own
r ast
Ø¹ Ø¨
Ø¨Ø§ Ø·
Ġbi ological
ĠÚ¯Ø±Ø³ ÙĨÙĩ
Ġconsequ ence
ĠØµÙĦÛĮ Ø¨
ĠÙħØ¬Ø§ ÙĪØ±
b i
y an
Øª Ø²
Ġg rief
ĠS ol
ĠB ob
ĠD iv
ĠØ§Ø¹Øª ÙĨØ§
ĠNob el
Ġhorri ble
Ġp ipe
Ġst able
ĠC oll
ĠÙĦ Ø·ÛĮ
Ġch annel
ep h
Ġthan ks
ĠÙĨÙĤ Ø¯
Ġsupp l
Ġexpl os
Ġpain ful
Ġaward ed
G et
Ø¹ Ø§Ø¯
Ġe c
ĠØ¯ÛĮ ÙĪ
ĠØ¢ÙģØ± ÛĮÙĨ
Ġpoet ry
ĠØ§ÙħÙ¾Ø±Ø§ Ø·ÙĪØ±
P A
Ú© Ø§ÙĪ
on na
ĠØ¨Ø§ Ø³ØªØ§ÙĨÛĮ
us se
ĠT em
Ġab st
Ġbo ots
Ø®ÛĮ Ø§ÙĦ
Ġappro pri
Ġeas tern
Ġsac rif
Ġinterrupt ed
esp ite
Ġch amber
Ø§ÙĨØ¯ Ø§Ø²ÛĮ
Ġrest aur
in ations
im ental
ore nt
Ġle ct
ĠÚ©Ùħ Ø¨ÙĪØ¯
ĠØ¨Ø´ Ø±ÛĮ
ony m
ille fort
ĠØ®ÙĦØ§ ÙĤ
ĠØ§ÙĨÙĤÙĦ Ø§Ø¨ÛĮ
Ġassum ed
ikip edia
S pe
Ġt ank
ĠØ¬ Ø§ÙħÙĩ
Ø§Ø² ÙĨØ¯
ĠH ot
Ġgen es
ĠØ§ÙģØ² Ø§Ø±ÛĮ
ĠÙħØ§ÙĦ Ú©ÛĮØª
ĠØ®Ø¯ÙħØª Ú©Ø§Ø±
Ġfle w
er g
Ġl as
ĠÚ¯ ÙĪÙĦØ¯
ĠM ass
ost er
ØªÙĪ ÙħÛĮ
Ġans wers
Ġcontro lled
Ġvers ions
Ùħ Ø§Ø±ØªÛĮÙĨ
ĠØ³ ÛĮÙĦÛĮ
ĠÚĨ Ú©Ø§Ø±
ĠØ±ÙĪ ØŃÛĮÙĩ
are t
Ġwhen ever
ĠØ§ØŃ ÙĪØ§ÙĦ
Ġover all
ĠØ³ÙĦ Ø³ÙĦÙĩ
ĠÙĤØ· Ø±Ùĩ
ger y
Ġsign als
ĠØ´Ø±Ø§ÛĮ Ø·ÛĮ
ĠÙĩÙĪØ´ ÛĮ
ĠØ³ÛĮÙĨ ÙħØ§
Ġvir us
ĠØ¨Ø§ÙĦØ§Øª Ø±ÛĮÙĨ
n at
p he
Ùĩ ÙĪØ§
ĠÚ©Ùĩ ÙĨ
Ġto ler
Ø±Ø¯ Ø³Øª
ĠØ¨Ø± Ø§Ùģ
Ġre ar
ĠP ubl
ĠF re
Ġdes ired
ĠØ±Ø§Ø¯ÛĮ ÙĪ
0 1
N at
ĠØ¨ Ø´Ùħ
ĠØ® ÙĪÙĨÙĩ
ĠI ll
Ġcent re
Ġext ract
Ġmus ical
Ġmil k
Ġachie ved
M an
ĠÚ¯ Ø§Ø±Ø¯
ØŃ ÙĤÛĮ
urn ed
Ġgu ide
Ġ199 3
Ġclass ical
ĠØ±Ú© ÙĪØ±Ø¯
ĠÙĩÙĨØ±Ùħ ÙĨØ¯Ø§ÙĨ
' '
ĠØ§ Ø¯Ø§
it ants
ĠC hem
os al
Ġv ain
pl om
Ġhand le
Ø³Ø± Ø´
ĠØŃÙħ Ø§Ùħ
ĠÚ¯Ø°Ø´Øª ÙĨØ¯
Ġprin cess
Ġfac ing
Ġdiscuss ion
R I
l ines
ÙĨ ÙħØ§
ĠÙħØŃ Ø±ÙĪÙħ
ĠK ate
ĠØ¨Ø§ÙĦ ÙĤÙĪÙĩ
ĠØ§Ø«Ø± Ø§Øª
Ġer ror
Ġmeas ured
Ġcheek s
ĠVir gin
ĠÙħ Ø¨Ø¯
ĠÙĩ ÛĮÙĦ
ĠØ´ ØºÙĦÛĮ
ĠL and
ĠY ear
ruct ure
Ġconduct ed
Ø§ØŃØªÙħØ§ÙĦ Ø§
ĠØ² Ø§Ø¯
ÙĩØ± ÚĨÙĩ
ĠÙĨØ§Ùħ ÛĮØ¯
Ġspe ll
Ġtri umph
ĠÚ©ÛĮÙĦ ÙĪ
Ġbroad cast
ĠÛĮØ§Ø¨ ÙĨØ¯
ĠÙĦØŃØ¸ Ø§Øª
Ġs ke
Ø§ÛĮ ØªÛĮ
Ø§Ùħ ÙĪÙĨØ¯
ur rent
um es
em ed
ĠH ell
ĠN etwork
ĠØ¬ÙĪ Ø§Ùĩ
Ġhold s
with out
ĠØ¢ÙĦÙĪØ¯ Ú¯ÛĮ
ÙĨØ² Ø¯ÛĮÚ©
Ġforg ive
Ġcrim inal
I MDb
ÙĨ ØªÛĮØ¬Ùĩ
ĠS l
Ġne ut
ĠH im
Ġshe ll
ĠØ¶ Ø®
Ġatt itude
Ġter min
Ġpar ad
Ġpain ted
Ġcomb at
Ġdefin ite
3 5
Ġw ra
is ible
Ø¹ ÙĪØ¯
ĠØ¨Ø± Ø´
Ġat tended
qu ar
ĠF estival
ĠÙĩØ± Ú¯Ø§Ùĩ
Ġun fortun
ĠØ³Ø§Ø² Ú¯Ø§Ø±
ÙģÛĮ Ø«
ĠÙħØ±Ø§ Ú©Ø²
Ù¾Ø± Ø³ÛĮØ¯
ĠØŃÛĮ Ø§ØªÛĮ
ĠPort ug
ĠÙĪÛĮÙĨØ¯ ÙĪØ²
Ø®Ø§ÙĨÙĪ Ø§Ø¯Ùĩ
ĠÙĪ Ø§ÙĨ
ĠÙħÛĮ Ú¯
or ge
ot o
Ġr ushed
ĠN az
ĠÙħÙĤ ØµØ¯
ick en
Ġgr ace
ĠÙħÛĮØ§ÙĨ Ú¯ÛĮÙĨ
Ġ201 8
ĠØ³Ø· ØŃÛĮ
iffe rent
ĠS qu
ĠÙħØŃ Ø§ÙģØ¸Ùĩ
Ø§ÙĨØ¯ Ø§
Ú¯ÙĪ Ø³Øª
Ġpur su
Ø¬Ùħ Ø¹ÛĮØª
Ġfif th
Ġrid ic
ĠÙħØ§Ø¬Ø± Ø§ÛĮ
ĠMicro soft
Ø¨ ÙĪÙĦ
Ġn om
Ġex tend
Ġcare ful
Ġdem ons
ĠÙ¾Ø±Ø¯Ø§Ø² ÙĨØ¯Ùĩ
Ġunivers al
ĠØ±Ø¹ Ø§ÛĮØª
ĠØ±Ø§ Ø¨Ø±Øª
ĠÙ¾ ÙĬ
ĠØ¹ Ø§Ø·
ce ler
ark s
ĠØ±ÛĮ ÚĨØ§Ø±Ø¯
Ġsit es
ĠØ¨Ø®ÙĪØ§Ùĩ ÛĮØ¯
ĠØ®Ø§ÙĦ Øµ
ĠÚ©ÙħÙĪÙĨÛĮ Ø³Øª
Ġï» ¿
Ø´ ÛĮÙĨÛĮ
ĠÙĩ Ø§ÙĦ
Ġm a
ĠØ¨Ø± Ù¾Ø§
ĠØŃ ÙħØ§
ĠØ³Ø± ÙĩÙĨÚ¯
ĠÙĨÛĮ ÙģØª
Ġgu ests
ĠÙĩØ¬ ÙĪÙħ
Ø§ÙħÛĮØ¯ÙĪØ§Ø± Ùħ
Sever al
3 9
Ġst omach
ĠÙĦ Ú©ÙĨ
Ø§ÛĮÙĨ Ú©Ùĩ
Ġpl anned
ru ption
ĠØ§Ø¬ Ø¨Ø§Ø±ÛĮ
Ġ3 2
ĠÛ²Û°Û±Û ·
Ġdet ail
Ġexec ution
ĠÙħØŃØ§Ø³ Ø¨Ø§Øª
i ate
ÚĨ Ø³ØªØ±
ĠÙĩØ§ ÙĬ
ĠP av
Ġpl ot
Ġcont ained
port s
Ġact s
Ġent hus
Ġext ent
ĠØ§Ú©Ø³ÛĮ ÚĺÙĨ
ĠØ® Ø§Ùħ
ĠÙħØ¹ Ø§ÙĪÙĨ
ĠÙħØ¬ Ø±ÙĪØŃ
ĠÙħ Ø¬Ùĩ
ĠÙĪ ÛĮØ¯ÛĮ
Ġst retched
ĠH a
Ġmod e
ĠØ¢Ø³ Ø§ÛĮØ´
ĠComm unist
0 9
Ùģ Ø§ÙĨ
ĠØ± ÙĦ
ab ilities
Ġsp r
ang ed
olog ists
Ġrun s
Ġdelight ed
ĠDor othea
3 7
ĠØ® Ø³
ĠØ³ ÙĪØ§
om ed
Ġe fficient
ÙĪÙĦ Ùģ
ĠØ³Ø± Ø´Ø§ÙĨ
Ġman ager
Ú©ÙĦ Ø§Ø±
ĠRe view
ĠØ¨Ú©ÙĨ ÙĨØ¯
add y
Ġbrill iant
Øª Ø§ØŃ
ĠØ¢ ÚĺØ§ÙĨØ³
ĠC op
ĠØ§ÛĮ ÙĦ
Ġ" ,
ĠR alph
ĠÚ¯Ø± ÛĮÙĨ
Ġsee king
ĠÙħØ· Ø§Ø¨ÙĤ
Ġreturn ing
Ġsepar ated
ĠMc G
Ġinvent ed
Ġhyp ot
P ar
R on
ĠÙħ Ø¨ÙĨØ§ÛĮ
ĠØ´ Ø³Øª
Ġher s
ĠF anny
Ġint ent
ure l
Ġpre gn
Ġhelp ing
Ġdeli ber
b our
Ø¨ ÙĪÙĨ
ĠØ´ Ø·Ø±
Ġlove ly
Ġemot ional
Ġdemand ed
ĠDo ctor
Ġobt ained
Ġoxy gen
Ġnot ion
ĠF ort
ĠÙĨÙĩ ÙģØªÙĩ
Ú¯Ùĩ ÛĮ
ĠØ®ÛĮ Ø§ÙĨØª
Ġsubject s
Ġinvest ment
ĠSan cho
n ce
Ø§Ø¨ ÙĪØ³
ĠM aj
ik h
ĠCon f
Ġmass es
ĠMe ggie
ĠØ¬Ø± Ø¬
ĠArab ic
Ġmyster ious
ĠØ§ÙĦØªØŃ ØµÛĮÙĦ
Ð »
Ø± ÙĪØ±
Ġb ones
ĠØ´ Ø±Ø§ÙģØª
an ab
Ø§ÙĦ ØªÛĮ
um s
ĠD ire
ĠH u
ru e
Ġsp lend
ĠÙħØ®ÙĦÙĪ Ø·
Øª Ú©
ĠÚ© ÛĮÙĨÙĩ
ĠÙĨ ÙħØ§
Ġd atabase
ĠØ§ÙĪ Ø§Ø³
ĠR ostov
ĠØ±Ø³ Ø§ÙĨÛĮ
Ġdis ag
ĠØ¨ÛĮÙĨ ÙĨØ¯
Ġsc ore
ĠØ§Ø¨Øª Ø¯Ø§ÛĮ
ĠCol onel
ĠÙĨÚ©ÙĨ Ùħ
ĠØ¨Ø±ÛĮØª Ø§ÙĨÛĮØ§ÛĮÛĮ
Ġpossess ion
ĠAsh ley
Ġp iano
Ġth y
ĠÙĨÛĮØ³Øª ÛĮÙħ
ĠV en
ÙĨØ¬ Ø§ÙĨ
ĠØ·Ø±Ùģ Ø¯Ø§Ø±
Ġcreat ive
ĠÙħØ¨ ÙĨÛĮ
R S
à ¸
Ø³ Ø¯
ĠØ³ Ù¾Ø±
ag ers
ant ing
Ġown er
Ġpers pective
Ġstr ict
ĠÙ¾ÙĪØ´ ÛĮØ¯
Ġequ ally
ĠÙ¾Ø²Ø´ Ú©Ø§ÙĨ
ĠÙĪØ¨ Ø³Ø§ÛĮØª
Ġident ify
go ing
Ġthr ust
Ġcast le
AT A
Ġfed eral
ĠØ³ Ø§ÙĤ
ĠC a
Ġsl ipped
ĠØ§ÛĮØ§ÙĦ ØªÛĮ
ĠÚ¯ÛĮØ±ÛĮ Ùħ
Ġstrong ly
ĠØ§Ø³ØªØ§ÙĨØ¯ Ø§Ø±
Ġmut tered
S uddenly
Ġal le
ĠÙĨÙħ Ø§Ø²
ĠØ§Ø± Ø§Ø¨Ùĩ
Ġover w
ĠØ²ÙĨ Ø§ÙĨÙĩ
ĠØ§Ø¹ Ø·
ĠØ° ÙĪÙĤ
ĠÙħÙĦ ØŃÙĤ
Ind eed
o j
Ø± ÛĮØ¯
Ú¯ Ø§Ø±Øª
ĠÙĩÙħ Ú¯Ø§ÙĨÛĮ
ĠØ¹ Ø¨Ø§Ø±
ĠC raw
ol nikov
ĠÙħÙĪ Ø³ÛĮ
ĠB us
ĠÙĤØ± Ø¨Ø§ÙĨ
Ġcomm it
ask olnikov
Ġemph as
ĠÙĪÙĤØ§ÛĮ Ø¹
w an
Ġs igh
ĠØ® Ø±Ùħ
Ġd irty
Ø§Ø² ÙĦ
Ġr ag
ab et
Ġorgan ized
ĠÚ©Ø±ÛĮ Ø³
ÙħØ¬ ÙħÙĪ
Ġconsum ption
Ġmole cules
Ġlean ed
Ġaspect s
ÙĪ Ø¶
ĠØ§ Ø±Ø¯
ĠÚ© Ø§Ùĩ
nd ed
ĠÙħÛĮ ÙĩÙħØ§ÙĨ
Ø±ÛĮ Ø±
ĠÙħØŃ Ø§ØµØ±Ùĩ
ĠØ§Ø³ ÙħÛĮØª
ĠØ§Ùĩ Ø¯Ø§
ĠÙĨØ®ÙĪØ§Ùĩ ÙĨØ¯
Ġbreat hing
Americ an
b ow
Ġn urse
ĠØ¬ Ø§ÙĩØ§ÛĮ
ĠÙĩÛĮ Ø¬
ĠO per
ĠØ¬ÙĨ ÙĪÙĨ
Ú©ÙĪ Ú©
ÚĨÛĮ Ø§ÙĨ
v ol
ÙĪ Ø¸
Ġth read
Ġal oud
ĠH ill
Ú©ÙĨ Ø§Ø±
our se
Ġimag ined
Ġphot os
ÙĦÛĮ Ùģ
ĠB ert
ĠG all
Ġj ack
ĠÙĨØ§ Ø´ÙĨØ§Ø³
ĠAr gent
Ġgu ilty
ĠÚ©Ø±ÛĮ Ø³Øª
ØªÙĦ Ø§ÙĨ
Ġfair ly
ĠÙħØªØ¹Ø¯ Ø¯
ĠØ§Ø³ÙĨ Ø§Ø¯
ĠÙĨØ±Ø³ ÛĮØ¯Ùĩ
Ġfart her
ĠÙģØ±Ø¢ÛĮ ÙĨØ¯
S m
he im
Ġh ills
ud a
oint ment
Ġexist ed
Ġleaders hip
Ġt ied
re land
ĠÙħÛĮ ÙĦÙĩ
ĠÙħÛĮ Ú¯ÙĪ
Ġh olid
ÙĪØ± ÙĩØ§ÛĮ
ĠP ower
ĠØ±ÙĪØ² Ú¯Ø§Ø±
Ġqu een
St ill
Ġplan ets
Ġcry st
Ġmess ages
ĠÙĨØ´ÙĨ ÛĮØ¯Ùĩ
ĠØ¢Ø° Ø±Ø¨
Ġsole mn
ĠÚ©ÙĪØ§ÙĨ ØªÙĪÙħÛĮ
it age
Ġse lect
ĠØ³Ø± Ú¯Ø±Ø¯Ø§ÙĨ
ĠD ata
ind ing
ÙĪØ¨ ÙĨ
ĠÙģØ±ÙĪ Ø®ØªÙĩ
Ġrep ro
Ġocc as
ĠCl ass
ĠØ¨Ù¾ ÙĪØ´
ĠMon te
ĠÙħØ§Ùħ Ø§ÙĨ
E G
m at
Ġâ ī
ĠÙĤ Ø§Ø¦ÙĦ
Ġv on
ĠØ§Øª ÙħÛĮ
ĠØ§Øª ÙĪØ¨ÙĪØ³
Ġsp o
ĠÛ±Û¹Û µÛ°
ĠÚ¯ÙĪØ´ Ø´
ĠÙ¾Ø±Ø¯ Ø§Ø®ØªÙĩ
Ġmir ror
or ous
Ġth orough
Ġl ake
ĠN ic
ell ing
ÙĪØ±ÛĮ Ø³
ure au
lo yd
Ġpre c
Ġcol ors
ĠØ§ÙģØ² ÙĪØ¯Ùĩ
ĠÙħØªÙĨ ÙģØ±
Ġroad s
ĠØ¨Ø¨Ø± Ùħ
ĠÙħÙĤØ± Ø±Ø§Øª
S M
Ø§ Ø¬ÛĮ
Ø² Ø§Ùħ
at ures
Ġn et
Ġst air
ĠC ir
ĠÚ©Ø§Ø± Ú¯Ø±Ø¯Ø§ÙĨ
ĠØ³Ø§ÙĦ ÙĩØ§ÛĮ
Ġexper iments
ĠÛ±Û³Û ¸Û
Ġrepe at
Ġaccomp an
ĠØ¨ Ø¬Ø²
ĠÙħ ÚĨ
ÙĦ Ø±
Ġb ore
pe l
our ing
ect ion
ĠDe velopment
ĠØ§ÛĮØ± ÙĦÙĨØ¯
ĠÙ¾Ø±Ø¯Ø§Ø®Øª ÙĨØ¯
Ġdescri ption
ĠRober ta
uh ammad
Ġb at
ĠØ´ Ú©ÛĮ
as per
Ġr iding
ĠØ§ØŃ ØªÙħ
ĠØŃØ± Ø§Ø±ØªÛĮ
ĠÛ²Û ¹
ĠÙ¾Ø³Ø± Ú©
Ag ain
ĠØ¯ ÙģØ§Ø¹ÛĮ
Ù¾ Ø²Ø´
Ġp ink
ĠØ¨Ø± ÙĨÙħÛĮ
ĠØ¬ ÙĪÙĦÛĮ
qu es
ĠØ³ÛĮ Ø§ÙĩÛĮ
Ġprov iding
Ġce ased
ĠØ¨ÙĦÙĪ Ú©
ĠÙĪ Øµ
ĠÙħÛĮ Ø¨ÛĮÙĨ
ant es
ĠN AS
ĠO f
Ġdis order
Ġsc hed
Ġinc ident
Ġ4 00
Ġadd ressed
ĠÙĤØ¯ ÙħÛĮ
ĠÙħØ§ÙĦ Ú©
ĠØªÙĤÙĦ ÛĮØ¯
I nt
ic on
Ġg ig
ro se
ir a
us ive
Ø¢ Ø´
ĠØªÙħ Ø¯ÙĨ
ĠV ronsky
ĠÚ©ÙĦÛĮ Ùĩ
ĠÙħØ§Ø± ÚĨ
6 7
Ø¯ ÙĪÙĦØª
Ġwh ist
Ġj oint
ĠÙħØ´ Ø±ÙĪØ¨
ĠØ²ÙĨ Ø¨ÙĪØ±
ĠØªØ´ Ø±ÛĮÙģ
Ġstand s
ĠCol omb
ĠOr der
ĠØ¨Ø²ÙĨ ÛĮÙħ
Ú¯ ÙģØªÙĩ
um ble
ĠØ¯Ø§ÙĨ Ø³ØªÙĩ
Ġadv oc
ĠØªØ±Ø³ ÙĨØ§Ú©
Ġterri f
Ù¾ÛĮØ± ÙħØ±Ø¯
ĠJac ob
Ġsoci et
Ġ ille
un ning
res ents
ĠÙĨÛĮ Ø§ÙģØª
Ú©ÙĦ ÛĮÙĨ
ĠÙģØ±ÙĪØ¯ ÙĪ
ĠÙ¾Ø±ÛĮ Ø´Ø§ÙĨ
ĠØ§ÙģØ³Ø± Ø§ÙĨ
Ġbran ches
ĠÙĩÙħØ§Ùĩ ÙĨÚ¯
ĠØªÙħØ³ Ø®Ø±
D espite
f in
} \
ĠØ¨Ùĩ Ø´Øª
ĠØ§ÙģØª ØªØ§ØŃ
ĠY an
Ġge nder
Ġtransl ation
Fin ally
O M
l ar
Ø§ Ù¾ÛĮ
Ġs ighed
Ġsh aring
ÛĮÚ© Ø³
ĠØ±Ø³ÛĮØ¯ Ú¯ÛĮ
ĠØ³Ø±Ø¯ ÛĮ
Ġtele phone
Ġwood en
Ġmeas ures
ĠØŃÙĪØµ ÙĦÙĩ
urel iano
Ø´ Ø§Ø±ÛĮ
ĠØ² ÙĦÛĮ
ÙĪÛĮ Ø²
ĠT im
ĠN ether
ĠØ§Ø· Ø§Ø¹Øª
Ġresult ing
ĠØ§Ø¨Ø± Ø§ÙĩÛĮÙħ
reed om
ĠÙħ Ø¯Ø§Ø®
ĠÙĩ Ø§Ùħ
ll er
our ce
Ø³Ùħ Ø³
Ġann ual
Ġdiv ision
Ġer a
ĠØ®Ø±ÛĮØ¯ Ø§Ø±ÛĮ
Ġcollect ed
ĠCam bridge
Ġdign ity
Ø§ÙĨ ÙĪØ±Ø¯
Ġc ot
an cho
Ù¾ ÙĪØ³Øª
ĠØ±Ø§ ÙĦÙģ
Ġn ut
Ġex cess
ĠK en
ĠÙħØµ ÙħÙħ
ner gy
ĠÛ±Û¹Û¹Û ´
Ġunc onscious
Ġarran g
I G
p ress
Ø² ÛĮÙĨ
ĠØª Ø¨Ø±
ÙĪÙĨ Ø²ÛĮ
ĠØªØ± Ø³Ùħ
ĠL uc
ĠW ater
ĠÙĨØ¯ Ø§Ø±Ùĩ
Ġdis g
Ġnight s
Ġel im
Ġsw itch
Ġvac c
Ġspl it
P lease
S E
s omet
or gan
Ġg ift
Øµ Ø¯ÛĮ
ac her
ĠØ· ÙĨÛĮÙĨ
Ġcon ference
ĠH ome
ord an
ĠØ¬Ø§ Ø°
ĠÙĦÛĮ ÙĪØ§ÙĨ
Ġren ew
ĠØ¹Ùģ ÙĪÙĨØª
Ġfol ks
Ġmaxim um
ĠØ§ØŃØªÙħ Ø§ÙĦÛĮ
5 00
ĠØª ÙĦÛĮ
ĠW ith
ĠÙĨÙĪ Ø¢ÙĪØ±ÛĮ
Ġag ent
Ġbet ray
Ġent ry
Ġsupp er
Ġ198 5
ane ously
Ġav o
Ġmot iv
Ġtask s
Ġrough ly
ĠØª ÙĨÛĮ
ĠØ¨Ø± Ø§Ø¨Ø±ÛĮ
ĠÙģ Ø¯Ø§
ĠÚ©Ø§Ø± Ú¯Ø±Ø¯Ø§ÙĨÛĮ
ĠÙĨÛĮ Ø§ÙħØ¯
Ġunder t
iss ions
hes s
ĠØ¨ÙĨ ÙĪÛĮ
Ġart ificial
Ø«ÛĮ Ø±ÛĮ
ĠØ§Ø¨Ø²Ø§Ø± ÙĩØ§ÛĮ
Ġremark able
Ġluck y
Rum ex
ĠÙħØŃØ§Ú© ÙħÙĩ
ĠÙĨ Ø§Ø²ÛĮ
Ġad apt
ĠØ¨Ø±Ú¯Ø±Ø¯ Ø¯
Ġdistribut ed
Ġspirit ual
alle l
ĠØ§Ú©Ø« Ø±ÛĮØª
Ġh ated
Ġl an
ĠÙĦ Ø¦ÙĪÙĨ
ast y
gg er
ĠØ®ÛĮ Ø§Ø¨
ĠØ¹Ùĩ Ø¯
m und
ĠØ´ ØµØª
ĠÙĤ ÙĪÙħ
ĠØ¯ÙĪ Ø§Ùħ
ie ce
Ġj umped
ĠØ§Ø³ ÙĤÙģ
ĠÙħØ§Ø± Ú©
ĠAn n
Ġele v
ĠØ¨Ø´ÙĨ ÙĪØ¯
ĠØ§ÙĨØ¹ Ø·Ø§Ùģ
Ġveh icle
C L
ÙĨ ÙĪØ±
ÙĪØ¯ Ø±
ĠØ¢ Ø³ØªÛĮÙĨ
ĠI reland
ĠÚ©ÙĨ Ø§Ø±Ùĩ
ĠS a
ĠD ie
Ø§Ø· Ùĩ
ĠØ§Ø¹ ÙħØ§ÙĤ
Ġimp r
ĠØµØ¯ Ø§ÙĩØ§ÛĮ
Ġconf ident
Ġmark ets
Ġobs c
Ġla unch
Ġcapt ured
ĠÙħØ´ØªØ±ÛĮ Ø§ÙĨ
ÚĨ Ø§ÙĤ
Ġl ung
ØŃ Ø¶
un te
ĠÙħØ¹ ÙĦ
Ġpl astic
ens es
ĠÙģÛĮÙĦ Ø³
ĠØ³Ù¾ Ø±Ø¯
ĠÚ¯ Ø§Ø±ÛĮ
ĠØ¢ÙĨ ÛĮ
ĠØªØ± Ø´
Ġres c
Ġgr ab
Ġfl ash
Ġrem ov
ĠÙ¾ÛĮØ± Ø²ÙĨ
ĠØ³ÛĮØ§ Ø³ØªÙħ
Ġval u
ĠÙĦÙĩ ÙĪÛĮÙĨ
Ġgaz e
ĠØ¨Ø± Ø§Ø³Ø§Ø³
ĠE s
ÙĪØ³ Ùĩ
Ġco al
ĠÚ¯Ø±Ø¯ ÛĮØ¯Ùĩ
Ġmed ium
Ġann oy
Ġshad ows
Ġvictim s
ĠØ¬ØºØ±Ø§ÙģÛĮ Ø§ÛĮÛĮ
Õ ¡
Ġb one
ĠØ³ ÛĮÙĨÛĮ
as ia
ĠÙ¾ Ø³ØªÛĮ
am ps
ÙĩØ§ ÙĬ
ok es
ap se
ĠÙħØŃ ØªÙĪ
Ġcl ust
Ġmov es
Ġattack ed
ĠÚ©ÙĪØ± Ùĩ
ĠØ¨ÛĮØ§ÙĪØ± ÙĨØ¯
ani el
Ġgrad ually
ĠØ³ÙĪØ³ÛĮ Ø§ÙĦÛĮ
ĠØªÙĪÙĩ ÛĮÙĨ
r d
or ry
Ø· Ø±Ø¨
Ø¶ Ùĩ
od or
ĠØªÙĪ Ø§ÙĦÛĮ
ĠÚ©Ø§Ø± Ø§ÛĮÛĮ
ĠÚ©Ø§Ø± ÙħÙĨØ¯
ron ic
Ġele ven
ĠCol umb
Ġmis erable
Ġcompan ion
Ġspend ing
ÚĨØ´Ùħ Ùĩ
Ġsurv ive
ĠÙĤÙģ Ø³Ùĩ
Ġinnoc ent
g ly
Ø¯Ø± ØŃØ§ÙĦÛĮ
ĠØ§ÛĮ Ú©Ø³
Ø¢ ÙģØ±
Ġsu fficient
ĠDe ath
ĠØ¬Ø§Ùħ Ø¹
oll ow
Ġdep ression
ĠÙĦØ· ÙģØ§
ĠØ¨ÛĮØ§ÙĪØ± Ùħ
ĠØ´Ø¬Ø§ Ø¹
ĠÚ©Ø§ÙħÛĮ ÙĪÙĨ
b ird
ĠØ¨ Ø´ÙĨØ§Ø³
Ø§Ø± ÛĮÙĨ
le vel
ĠØ¨Ø± ÚĨØ³Ø¨
ĠÙģ Ø³Ø§Ø¯
ĠW ay
ĠØ³ÙĨ Ú¯Ø±
li est
ĠÙħÙĨØª Ø¸
Ġ198 4
ĠÙħÙĪØ¬ÙĪØ¯ ÛĮ
Ġcut ting
Ġhop es
L a
O U
ĠÙĨ Ø¬ÛĮØ¨
or se
Ġin her
Ġpre tend
ĠØ¨Ú© Ø´Ùħ
ĠÙ¾Ø§Ø± ÙĦÙħØ§ÙĨ
ĠØ¯Ø³ØªÛĮ Ø§Ø¨ÛĮ
Ġh oles
Ù¾ Ø§Ø³
ĠØ¨Ø± ÙĩÙħ
ur i
Ø§Ø² ÛĮØ±
ĠØªÙĪ Ø¬ÛĮ
ĠÙĨÙĪ Ø¨ÙĦ
ĠÚ©ÙĦ Ø§ÙĨ
ĠØ¨ÙĦ Ø¯
ĠØ¨ÛĮØ± ÙĪÙĨÛĮ
Ġconf irmed
ĠÙĤØ§ÙĨ Ø¹
Ġproper ly
ĠØ³ÙĪØ² Ø§ÙĨ
Ġb ud
Ġm ile
ĠÙ¾ ØªØ§ÙĨ
ch a
Ú¯ÛĮ Øª
ĠÙħØŃ Ø±
ĠÙħØ± Ø¨ÛĮ
ĠØ§Øª ÙĩØ§Ùħ
Ġsp aces
ĠØ¹Ùħ Ø±Ø´
ĠÙħØ® Ø¯Ø±
Ġless on
ĠTe le
Ġadm itted
ĠØ´Ø§ÛĮ Ø¹
ĠØ¨Ú¯ÙĪÛĮ ÛĮÙħ
ĠØ§ Ø¯ÛĮ
Ġm os
Ø¬ ÛĮØ¯
Ġn urs
ĠØ¬ ÙĨÛĮÙĨ
ĠØŃ Ø§ÙħÛĮ
ag ram
Ġsh ift
ĠÙħØ¬ ÙĪØ²
ĠØ³Ø§Ø² ÙĨØ¯Ùĩ
ĠØ§Ùĩ Ø§ÙĦÛĮ
ĠLe e
ĠÙħ Ø²Ùĩ
Ø±ÙĪ Ø³
pe lled
ĠG riff
ĠW hen
ep s
Ġkind ness
ĠØ§Ø¨ Ø±ÛĮ
Ġsw all
ĠPol it
ĠØ¨ÙģÙĩÙħ Ø¯
ĠÙħÙĨÙģ Ø¬Ø±
Ø§ Ú©Øª
he ther
ÙĦØ§ Ú¯
ĠB al
Ġpo ison
Ú¯Ø² Ø§Ø±ÛĮ
ib ilities
ĠØ¨ÛĮÙħ Ùĩ
ĠAl bert
Ġhard er
rodu ction
ĠAzer bai
Ġthe ories
Ġe cho
ad i
ĠC osette
Ġlo ad
Ø´ÙĨ Ú¯ÛĮ
Ġrec ol
Ġev alu
ĠØ±ÙĪØ´ ÙĨÛĮ
ĠØªØ³ ÙĦÛĮ
ÙħØ·Ùħ Ø¦
anab us
S T
ĠØ¨Ø§ ÙĩØ§Ø´
art ed
ĠE p
Ġhead ed
ĠÙħÚ© Ø«
Ġincre ases
ĠÛ±Û¹Û¹Û ±
Ġgaz ed
ĠØ¢Ù¾ Ø§Ø±ØªÙħØ§ÙĨ
3 8
Øª ÙĪÙħ
ĠÙħ Ú©Øª
ĠØ± Ù¾
Ø§Ø¯ Ø§Ø±ÛĮ
ĠØµ ÙĦØ§ØŃ
ĠP C
Ġab road
Ġlo ves
Ġen emies
Ġcomm ission
Ġdist ur
Ġsur vey
Ġve get
ĠPe ace
Ġder ived
Ġvari able
ĠNich olas
w ould
Øª ÙĪØ³
in ction
ĠÙĨ Ú¯Ø§Ø±ÛĮ
ĠØ® ÙĪÙĨÛĮ
ĠÙĤ ÙĦÙĩ
Ġat e
Ġpe asant
ĠÙħØ§Ùĩ ÛĮØª
Ġsing er
ĠPar liament
Ø®ÙĪØ¯ Ø´
sc ape
Ġmid st
Ġaband oned
ĠDemocr atic
Ġintellig ent
Û²Û°Û ±Û
n s
in ian
ĠÙ¾ ÙĪØ±
ic ip
ĠØ¨Ø± Ø§ÙĪÙĨ
ĠÚ¯Ø° Ø§Ø±Ùħ
ĠØ¯ÙĦ Øª
Ġdif f
ĠØ¢Ø± Ø§ÛĮØ´
Ø¨Ø§Ø± Ø§ÙĨ
Ġbad ly
ĠÚ¯Ø´ ÙĪØ¯Ùĩ
Ġwat ers
ĠÙħØªØ´ Ú©ÙĦ
ĠÙĪØ§Ø³ Ùĩ
j a
Ø¯ ÙĪÙĨ
ĠØ³ ÙĪØ³
ĠØ¨ÛĮ Ø§ÛĮÙĨØ¯
ĠØ§ØŃ Ø§Ø·Ùĩ
ĠØ§ÙĨØ¬Ø§Ùħ Ø´
ĠØ¨Ø§ÙĦ Øº
Ġret ired
Ġap artment
ĠØ¬ÙĦÙĪ ØªØ±
ĠÚ¯Ø±ÛĮ ÙģÛĮØ«
Ġoffic ially
Ġleg isl
ĠØ§Ú©Øª Ø´
Ġoverw hel
Ġt ent
Ø¨ ÛĮÙħ
it o
Ġm ouse
ĠØ¯ÙĪ Ú©
pt ed
Ġsynt ax
ĠFed eral
ĠFranc isco
ĠÙħ Ú©Ø±
Ùģ ÙĪÙĨ
ĠÛĮ Ø³
et ers
ĠØ· Ø¹
pl ied
Ġinv isible
ĠÙħÙĩÙħ ØªØ±ÛĮÙĨ
ĠÙĪØŃØ´Øª ÙĨØ§Ú©ÛĮ
Ġiss ued
Ġmer ch
Ġmiss ed
Ġsend ing
ĠEgypt ian
Ġphr ase
t es
Øª ÙĪÙĦÛĮØ¯
ĠR oc
ĠÚ¯Ø± Ø§ÛĮØ´
ĠØ¨Ø§Ø² Ø§Ø±ÛĮ
Ø²ÛĮ Øª
Ġask s
Ġmin ister
Ġnecess arily
ĠØ´Ø·Ø± ÙĨØ¬
) "
A lex
ĠØ¯ Ø§ÙĦ
Ġw olf
Ø§ÙĦ ÙħÙĩ
ĠØ§ÛĮÙĨ Ú¯ÙĪÙĨÙĩ
ÙĨÛĮ Ù¾
Ġtr ained
ĠØ®Ø§Ø± Ø¬Ùĩ
ĠÙĪØ³ÛĮ Ø¹ÛĮ
ĠØ¯Ùģ ÙĨ
Ġarg ue
ĠØºÙħ Ú¯ÛĮÙĨ
2 6
ÙĪ ÙĪ
ĠØ§ Ú©ÙĪ
Ġâ Ĩ
Øµ Ø¯Ø§
ĠØ¹ Ø§ÙĤØ¨Øª
ĠP acific
Ġex ceed
ĠÛ±Û ²Û
ĠØ¨Ø¯ ÙĪ
ĠÙĨØ§ Ú©
Ġpr ices
ĠØºÛĮØ± ÙħÙħÚ©ÙĨ
ĠÙĨÛĮØ§Ø² ÙĩØ§ÛĮ
Ġconf usion
Ġed itor
ĠØ±Ø§ÛĮ Ú¯Ø§ÙĨ
iction ary
Ġdocum ents
ĠÙħÛĮØ¯ ÙĪÙĨ
Ġrecomm end
S am
Ø¯ ÙĨÛĮ
Ġs ne
Ġb att
ĠØ³ Ø§Ø²Ùĩ
Ø® Ø§ÙĨ
ĠÙģ ÛĮÙĨ
ĠØ¢ÙĨ Ø¬Ø§ÛĮÛĮ
ac hel
ĠC rist
Ġr ab
ĠD ick
ĠV e
ĠØªÙĤ ØµÛĮØ±
Ġrep resents
ĠØ¢ÙħÙĪ Ø®Øª
ĠRo ad
R et
Ġbe ard
ĠÙħÙĨ Ùħ
ĠM ot
Ġr ational
ĠÙħØ¹ Ø§Ø´
ĠØ®ÙĪØ§Ø³Øª Ø§Ø±
Ġinst ruction
Ġdifferent ly
ĠQ ur
ĠAs s
ĠØ¯Ø´ ÙĪØ§Ø±ÛĮ
ĠØ±Ùħ Ø²ÛĮ
ĠIvan ovna
Ġacquaint ance
b ell
w a
Ú© ÙĪØ¯
ĠÚ© Ø§ÙĨØ¯
ĠØª Ø¹ÙĩØ¯
ĠØ¢ ÙĩÛĮ
Ġin ev
Ø¶ ÙħÙĨ
Øº Ø§ÙĦÛĮ
un s
ĠH oly
Ġlo ving
ak i
Ġad ults
Ø£ ÙĦÙĩ
gg ing
Ġopp osed
ĠÙĪÙĤ ÙģÙĩ
Ġnorm ally
ĠØ¨ÙĪØ³ Ùĩ
ĠBook s
Ġdread ful
ĠÙħÛĮØª ÙĪÙĨÙĩ
Ùħ Ú©
ut en
ĠA th
ĠÙħÙĤ ØµÙĪØ¯
ĠØ¬Ø² ÙĪ
Ġmon itor
Ġexc use
ĠFl or
Ġcharm ing
ĠÚ©Ø§ÙĪ Ø´
Ġintellect ual
Ã ±
ÙĦ Ø±ÛĮ
Ġd ared
ĠM ax
ol ars
ĠÙģØ± ÙĪØ±
ĠØ§ÙĦ Ø¢ÙĨ
ĠÙħØ±Ø¯ ÙħØ§ÙĨ
Ġdel ivered
Ġtest s
Ø®ÙĪØ§Ø³Øª Ùĩ
Ġrecogn ition
ĠÙĨØ± ÙģØªÙĩ
Ġattempt ed
ĠØºÙĦ Ø¨Ùĩ
ĠØ¢ÙħÙĪ Ø®ØªÙĩ
ĠTechn ology
Ø± Ø§ÙĨÙĩ
Ø® ÙĦØ§
Ġl one
Ġl ord
ĠØ¨Ø§ Ú©
ol ves
ĠØµ Ø±ÛĮØŃ
Ø§ÙĤ Ø¯
all ing
Ġfl ed
ĠØ§Ø¹ Ø±Ø§Ø¨
ĠÙĤØ· Ø±
ĠÙĦØ§ Ú©
ĠØ¨Ø§ÙĨ ÙĪÛĮ
ÛĮÙĨÚ¯ ØªÙĨ
Ġcomplex ity
II I
Ġinform ed
R es
S ir
V D
Ġs add
ĠØ¯Ø± ÙĪÛĮØ´
ĠÙĤ Ø§Ø±
ur ther
ĠÙħÙĨ Ø²
ĠØ³Ø± Ø§Ø²ÛĮØ±
ard ens
Ġown ers
Ġdec ade
19 5
ĠØµÙģ ØŃØ§Øª
Ġcommand er
Ġimmedi ate
ĠØ¹Ø° Ø±
4 4
Ġre aching
ĠG ould
Wh ich
ĠØ§ÙĪÙĦ ÙĪÛĮØª
Ġfl ung
ĠØ¨ÙĦÙĨØ¯ ØªØ±
ĠØªÙĪÙĨ Ø³Øª
Ġinvol ve
Ġmechan ical
ĠÙħØ±Ø§Ø¬ Ø¹Ùĩ
Ġtiss ue
ĠÙĪÛĮØªÙĨ Ø§Ùħ
z z
ÛĮ Ø³
ÙĨ Ø´Ø§ÙĨ
Ø¹ Ø§ÙĦÛĮ
ÙħÛĮ Ø²ÛĮ
ĠØ¯ÙĪ Ø²
ĠØªØ± ÙĨ
ĠÙģØ± Ø´ØªÙĩ
ĠT al
ĠÚ©Ø´ ÙĨØ¯
ĠØ¨Ú¯ Ø±Ø¯
ĠÙĦÛĮ Ø¨Ø±
ĠTur ks
Ġliber ty
Ġvul ner
ĠÙģØ§Ø¬ Ø¹Ùĩ
Ġgrate ful
r ations
Ø§ ÚĨ
ĠÙ¾ ÙĢ
ac ious
um ps
ĠG ames
Ø¨Ø§ Ø³ÛĮ
Ġpre par
ĠAr ts
ĠÛ±Û¹Û¹Û ¸
ĠÚĨØ±Ø® ÛĮØ¯
Ġtyp ical
pir ation
ĠAlexandrov itch
ĠÛĮÚ©Ù¾Ø§Ø± ÚĨÙĩ
B arb
Ø± Ø¦ÛĮ
as ingly
ĠD ec
ĠØµØŃ Ø±Ø§
ĠÙĨÙģ ÙĩÙħ
oll owing
ĠÚ©Ø±ÛĮ Ø³ÙħØ³
ÙħØ³ Ø¦
Ġbi ology
ĠÚ©Ø´Øª Ø§Ø±
Ġcapt ure
k ward
ÙĨ ÙĪØ¹
ĠÙ¾ Ø§ÙĩØ§ÛĮØ´
ir s
Ġv en
ard on
ĠØº ØµÙĩ
ĠJ ones
ĠO ut
Ġany more
ĠØ§Ø¯ Ø§Ø±ÛĮ
ĠØ§ÙģØªØ§Ø¯ Ùħ
Ø¬ÙĪ Ø§Ø¨
ĠØ³Ø§ÙĨ ØªÛĮ
ĠÙĨÙĪØ² Ø¯ÙĩÙħ
Ġcig are
Ø´ Ø§ÛĮ
ĠÙ¾Ø§ÛĮ Ø§ÙĨÛĮ
Ø§ÙħÛĮ Ùĩ
ĠÙĨÙĤ Ø§Ø´
ĠAs ian
Ġval ley
ĠÃ Ĺ
ĠÙħØ·ÙħØ¦ ÙĨÙħ
ĠØ´ÛĮÚ© Ø§Ú¯ÙĪ
ĠCraw ford
B I
Ú¯ ÙĦÛĮ
Ø® ÙĪØ§ÙĨÛĮ
ĠØ¯ÛĮ Ú©
ĠE duc
ĠAr thur
Ġexpl ore
Ġfall s
ĠØ¶Ø± ÙĪØ±Øª
Ġinit ially
ĠØ¬Ø§Ø¯ÙĪ Ú¯Ø±
ĠÚ¯ ÛĮØ±Ùĩ
ĠI BM
Ġsh ore
Ġdis cipl
Ø´Ùħ ÙĨØ¯
ĠØ§Ø±Øª ÙĤØ§
ev itch
ĠØ±Ùģ Ø¹
Ġimplement ation
ĠØªØ¹Ø·ÛĮÙĦ Ø§Øª
ÛĮ ÙĪ
Ø± ÙĩØ§ÛĮ
Ġh ob
ĠØ¢ ØªÙĦØ§ÙĨ
ĠØ¹ Ø¬Ø¨
ĠR am
Ġcomp ound
ĠÙħØ¯ Ø§ÙģØ¹
ĠØ§Ø¨ Ø²
Ġfil es
Ġinf l
Ġexc iting
ĠØ§ÙģØ³ Ø±Ø¯Ùĩ
Ġweak ness
ĠØµØ¯Ùħ Ùĩ
0 7
P R
S ure
c r
Ġv ig
ĠÙħØ³ Ø§ØŃØª
Ġinst antly
Ø§Ø¦ ÙĪ
ĠÛ³ Û°Û°
enn y
ĠÚ©Ø§Øº Ø°ÛĮ
Ġpolic ies
Ġcustom ers
Ġconsequ ences
Ġult imately
O ut
Ã ¢
Ø¨ Ø³ØªÚ¯ÛĮ
ĠØª Ø±Ø§Ùģ
ar ling
Ġl amp
ĠÙģØ± Ø·
Ġbu b
ĠÚ©Ø§Ø² ÙĪØ¨ÙĨ
ÙĪ ÙĪØ¯
Ú¯ Ø´Øª
ĠÙĪ Ø®
Ø§ÛĮ Ø§ÛĮ
ĠÙģ Ø§ÙĤØ¯
ĠÙħÙĨ Ø¹
ĠØ±ÙĪ Ø§ÛĮØª
ĠÚ¯ÙģØª Ø§Ø±
ÙħÙĪ Ø¶
ĠØ±ÛĮ Ùĩ
Ġbenef its
ÙģØ±ÙĪØ¯ ÙĪ
ĠJes us
Ø³ Ø±Ø§
Ø§ÙĨ Ø¯ÛĮ
ĠD am
ict ed
ĠØ§Ø¯ ØºØ§Ùħ
ĠSh annon
cri ption
Ġwa ist
ĠÛ±Û¹Û¹Û ¹
ĠBel g
Ġdeb ate
ĠÙĨØ§Ø¯Ø± Ø³Øª
ĠÙħÙĪØ§Ø¸ Ø¨
p ers
Ø¨ Ø±Ø§
ĠR en
Ø§ÛĮÙĨ ÙĩØ§
ĠÙĨÛĮ Ø§ÙĪØ±Ø¯
ĠØ®ÙĪØ§ÙĨØ¯ ÙĨØ¯
ĠÙħÛĮÚ©ÙĨ ÙĨ
Ġdi plom
Ø±Ø§Ø³ Ú©ÙĦÙĨÛĮÚ©Ùģ
Ġofficial s
Ġprinci pal
aud i
Ne xt
ĠViet nam
Ġo h
ĠÙĨ Ø®ÙĪØ±Ø¯Ùĩ
ĠÙĩØ§ Ú¯
ĠÙĦ Ø¨Ø§ÙĨ
Ġsu gar
ĠF air
Ġdis h
Ġimp ress
ĠØ´Ø§ÙĨ Ø²Ø¯Ùĩ
Ø¨Ø¹ ÙĦØ§ÙĪÙĩ
ĠØŃÙĪ Ø§ÙĦÛĮ
Ġw ars
ÙĪÛĮ Ø¬
ĠC ro
Ø¯Ø± ÙĪÛĮØ´
ĠT ra
ĠH agrid
Ġup set
az ar
ĠØ¯ÙĨÛĮ Ø§ÛĮÛĮ
ĠCon st
ĠØ´ÛĮØ± ÛĮÙĨÛĮ
ĠÙĪÛĮØ± Ø§ÙĨ
ĠØ¨ÙħØ§ÙĨ ÙĨØ¯
ĠÙħØ¶ Ø·Ø±Ø¨
ÙĦØ§ÙĨØ¯ ÙĪ
Em ma
4 9
Ġd ining
ĠØ§ÛĮ Ø§Ùħ
av ig
ĠØ³ÙĪ Ø®ØªÙĩ
ĠÙĨÙĤ Ø¶
Ġac celer
Ġhel ps
ØªÙħØ§ Ø³
Ġfind s
ĠØ¨Ú¯Ø°Ø§Ø± ÛĮÙħ
Ùħ Ø§Ùĩ
er ate
ĠØŃ Ø§ÙħÙĦ
ĠA ge
ĠØ¯Ø§Ø¯ ÛĮ
ÙĪØ§ Ø´
ĠØ´Ùħ Ø±Ø¯
ĠØ§Ø¹ ÙĦ
ik i
Ġprov in
ĠÛ±Û¹Û¹Û µ
Ġarg ued
Ġspecific ally
ĠØ¯Ø§Ø¦ ÙħØ§
m aking
Ġp ist
ĠØ¨Ø± ÙĪÙĨ
ac o
ĠB ah
em an
ĠL arry
ĠÙħØ¹ Ø§Øµ
Ġbr ings
ĠØ¬Ø§ Ø¦ÛĮ
Ġexp ans
ĠMar ia
ØªØµ ÙħÛĮÙħ
ĠÚĨØ§Ø± ÚĨÙĪØ¨
ĠØ¨ÛĮÙĨØ¯ Ø§Ø²Ø¯
Ġemploy ed
ĠØ§ØªÙħ Ø§Ùħ
ĠØ´Ø¬Ø§ Ø¹Øª
Ġneare r
ĠGeorg ia
d es
ä ¸
Øµ Ø§Ø±
ig ration
ĠÙĤØ± ÙĪÙĨ
Ġcond em
ĠÚ¯Ø´Øª ÙĨØ¯
ĠØ¯ÛĮÙĪØ§Ø± ÙĩØ§ÛĮ
n i
ĠØ¹ Ø«
ag g
Ġsc he
ÙħØ¯ Ø§Ø¯
ĠØªÙĪÙĨ Ø³ØªÙħ
Ġcor rid
cer ning
Ø§Ø¯ÙĪ Ø§Ø±Ø¯
Ġmagn etic
ĠÙ¾ØªØ§ÙĨ Ø³ÛĮÙĦ
ĠÙħ Ø§ÙĨÛĮ
ĠØ¨Ø± Ø§Øª
ÙħÛĮ Ø§ÙĨÙĩ
ĠØªØ¹ ÙĦÛĮÙħ
ĠØŃØ³ ÛĮÙĨ
Ġgener ate
Ú©Ø§ Ø³ÛĮ
Ġaw kward
ĠÙħØ§Ø¯ Ø±ÛĮ
Ġsett le
Ġasse m
ĠArk ady
itzer land
D L
U N
Ø± ÙĪØ¯
Ø¯ Ø³ØªÛĮ
Ø® ÙĦ
ÛĮØ± Ø§
ĠÚ©Ø§Ø± Ú¯Ø§Ùĩ
em p
Ġshe et
ÙĬ Ø§
ĠK itty
Ġent ering
Ġ198 8
Ġabs urd
ĠØ¨ÙģÙĩÙħ ÛĮÙħ
Somet hing
Ġconstit ution
ĠÙħØ°Ø§ Ú©Ø±Ùĩ
ĠPeters burg
l an
ÙĪ Ø¦ÙĦ
Ø³ ÙħØ§ÙĨ
ĠØ³ Ø§Ø±
ĠB ern
os ure
ĠG re
Ġte en
Ġ194 5
Ġpay ing
ĠØªÛĮØ± Ø§ÙĨØ¯Ø§Ø²ÛĮ
Ġesc aped
ĠIsrael i
Ġess entially
Ġf ulf
or r
ĠA gency
ĠØ±ÙĪ Ø¨Ø§Øª
Ġser ving
Ġprodu cing
ĠØ§ÙĨØ¯Ø§Ø®Øª ÙĨØ¯
ĠÙĨÙħØ§ÛĮ Ùħ
ĠMe g
ĠØ§ØµÙĦØ§ØŃ Ø§Øª
Ġt ables
Ø³ Ø·
or us
ag a
ÙĩØ§ÛĮ Ùħ
Ġout er
ĠÚ©Ùħ Ø±
ĠØ¢Ø± Úĺ
Ġsil k
ĠA R
Ø¨Ø± Ø®
Ġcons cience
ĠØ®Ø¨Ø± ÙĨÚ¯
Ġsle e
ĠÙĩÙĨØ¯ ÙĪ
Ġexcept ion
ĠØªØ§ÛĮ ÙħØ²
t ure
y stem
Ø¨ Ú©
Øµ ÛĮÙĦÛĮ
ĠØªÙħ Ø¬ÛĮØ¯
Ġgr anted
ĠØ§Ø¨ ÙĦÙĩ
ĠÙħØ´Ø®Øµ ÛĮ
ĠØ¬ÙĨØ³ÛĮ Øª
Ġà ®
3 6
D E
c oh
Ùģ ÙĪÛĮ
on om
ĠØ¨Ø§ Ø·
Ø§ÙĦ Ø§
ĠÚĨ Ø§Ùĩ
ĠÙħÙĨ Ø¹Ú©Ø³
ĠM ur
ĠÙħØŃ Ø±Ú©
ĠÙ¾ÛĮØ´ Ú¯ÛĮØ±ÛĮ
ĠØ±ÙĪØ² ÙħØ±Ùĩ
ĠZ eal
Ġsound ed
Ġconnect ions
Ġlink ed
Ġpriv ile
ĠØªØ§Ùħ ÛĮÙĨ
angl ars
Ø¦ÙĪØ±ÙĦÛĮ Ø§ÙĨÙĪ
Ùħ ÙĪØ²
re al
ĠÙ¾ Øª
ĠI ATA
am med
ĠM aster
ĠØ¨ÛĮ ÙĦÛĮ
ab out
Ġj ail
Ġad j
Ġcont aining
ĠCh ampionship
Ġprom inent
ĠØ¹Ø¶ ÙĪÛĮØª
Ġcand le
Ġgrav ity
Ġacad emic
H ad
Ùħ Ú¯ÛĮ
ĠÙĩ ÙĪØ±
Ġc ogn
ĠÚ¯ ÙĪÙĨ
ro ll
ĠD ark
ĠF ire
ĠJ on
ĠJ ava
lo oking
ĠØ³ÙĪ Ø¦ÛĮØ³
ĠÙħØµ ÛĮ
ĠÚ¯ÙĪÛĮ Ø§
ĠCar ol
ĠÙ¾Ùĩ ÙĦÙĪ
ĠÙĪØ¬ Ø¯Ø§ÙĨ
Ġbra ve
R em
Ġb asket
st an
ĠS anta
ĠÙģØ± Ø¶ÛĮÙĩ
ĠÙĩØ± Ú©Ø³
ast ed
pl ed
ØªØ§ Úĺ
ĠØ§Ø¹Øª ÙĨØ§ÛĮÛĮ
Ġelect ro
Ġ194 0
Ġstat istics
Ġport ion
Ġaccount s
Ġinflu enced
Ġbelong ed
e pend
g reg
ĠÙħÛĮ ÙħÙĪÙĨ
ĠØ¯Ø± Ø§Ùħ
im ens
ĠA z
ĠM ah
ĠØ· Ø¨Ø¹
Ġde eper
ĠÚ¯ÙģØª Ú¯ÙĪÛĮ
Ġpre cious
Ġrem ove
Ġblo cks
Ġcontin ues
Ġjud gment
Ġfol k
Ġconclud ed
ĠØ§ÙĪØ§Ø³ Ø·
Ġb owed
Ġg reet
Ġup stairs
ind er
ĠØ¨Ø²Ø±Ú¯ Ø³Ø§ÙĦ
There fore
Ġins ult
Ġeconom ics
Ġengine er
ĠØ§ÙĨÚ¯Ø´Øª Ø§ÙĨ
Ġcommunic ate
Ġprefer red
ĠØ§Ø³Ú©Ø§Øª ÙĦÙĨØ¯
Ġunus ual
k rain
Ùħ Ø³Øª
Ú© Ø§Ø´
Ġc ave
Ø¬ Ø§Øª
ĠÙĨÛĮ ÙĪØ²
Ġpl enty
Ġper mission
ĠØ³ÙĦØ· ÙĨØª
ĠGand alf
Ġsacrif ice
ĠZeal and
ĠÚ¯ÙģØª ÛĮÙħ
ĠW all
ĠØ¬Ùĩ Ø´
ĠØ³Ø§ Ú©ÙĨØ§ÙĨ
ĠAl ice
ĠØªØ® ÛĮÙĦ
Ġdest ruction
Ġï ¼
Ġneur ons
stro de
P L
Ġb om
ÙĪØ¯ ÙĨ
ÙĪÙĦ Ø§ÙĨ
ĠÙħÙĪ Ø§Ø±Ø¯ÛĮ
ĠB u
ĠD a
ĠÙĨØ§Ùħ ÛĮ
ĠØ¨Ø® Ø´Ø¯
Ù¾ÛĮ ÚĨ
ĠØ¨ÙĪ Ø¦
ĠÙ¾Ø§Ø± Ø§Ùħ
ĠÚĨØ³Ø¨ ÛĮØ¯Ùĩ
Ġhydro gen
T A
Ø¯ ÛĮÙħ
ĠØ¨Ø§ Ø®Øª
Ġup d
ĠV illefort
Ġover come
aw a
Ġcol our
na pe
Ġless ons
Ġ196 8
ÙĤØ§ÙĨ ÙĪÙĨÛĮ
ĠÙħØ¨Ùĩ ÙĪØª
Ġrare ly
R ight
Ø² ÙĪÙĨ
Ġs ou
ĠØµ Ø§ØŃ
ĠB ell
ĠT ay
ĠF ield
ĠØº ÙĨÛĮ
ĠÙħØ³ Ú©ÙĨ
ĠØ´Ùħ Ø§Ø±ÛĮ
ĠÙģÛĮÙĦ ØªØ±
Ġdef ine
Ġ198 7
ĠÙħØªÙģ Ú©Ø±
ĠÙģÙĦ Ø²ÛĮ
Ġfort un
Ġresour ce
Ġconcl usion
ĠGriff iths
s ince
in ity
Ø§Ø± Ø¯ÛĮÙĩ
Ġc ensus
Ġm ent
ĠØ¢ ÛĮÙħ
Ġin sect
Ø§Ø¯ ÙĨ
ĠØ¯ÛĮ ÙĪØ§Ø±ÛĮ
ÙĦØ¨ Ø§Ø³
Ġpoint ing
Ġtre asure
Ġcontro vers
ĠÙħÙģ Ø§ÙĩÛĮÙħ
Ġattempt s
ĠÙħØ¯ÛĮØ± Ø§ÙĨ
Ġpun ishment
ĠØ¯Ú© ÙħÙĩ
Ġchalleng es
Ø Į
Ġt u
ĠØ§Ø³Øª Ø±ÛĮ
ĠM ir
Ġse lling
ĠJ un
Ġres olved
ĠØªØŃ ÙĪÙĦ
ĠSt at
ĠØ¯Ø§ÙĨØ´ Ø¬ÙĪ
ĠØ§Ø¨ Ø¹Ø§Ø¯
ĠÙģØ±ÙħØ§ÙĨ Ø±ÙĪ
ĠTw itter
Ġterrit ory
Ġeffic iency
Ġinhab itants
ĠØ¹Ø¨Ø¯ Ø§ÙĦ
Ġt a
ĠâĢ į
ĠÚ© ÛĮÙħ
Ġw ound
or ic
ĠÙ¾ ÙĪØ²
ri ly
ri ve
ĠP y
Ġr ural
el ine
ĠÙħØ³ ÙĦÙħ
ĠØ¨ÙĨ Ø´ÛĮÙĨØ¯
Ġsim ult
Ġ18 5
ĠØªØ§Ø¨ Ø´
ĠØ¹ÙħÙĪ ÙħØ§
ĠPl ay
Û±Û¹Û ¹Û
Ġpurp oses
Ùħ ÙĪÙĦ
ĠÙħ Ø²Ø§Ø±
Ġh iding
ĠØ¯Ø± Ø¨
Ġm ud
ar ant
ĠÚ¯ ÙĪÙĦ
Ġn aked
ĠØ² Ø§ÛĮ
ĠØ² Ø¨Ø§ÙĦÙĩ
um in
Ġr age
Ġv ic
ĠÙĨÛĮ Øª
ide os
ĠÙħØ¹ Ú©ÙĪØ³
ĠÙħØ³ Ø£ÙĦÙĩ
ang le
ĠØŃØ³ Ø§Ø³ÛĮ
Ġreg ist
ĠBl ue
Ġconsider able
ĠÙħÚ©Ø§ÙĨÛĮ Ú©ÛĮ
Ġeth nic
g aret
Ġp ow
Ø¬ ÛĮÙħ
ĠM oh
ul ating
ĠÙĦ Ø²ÙĪ
ĠÙħØ±Ø¯ Ø§ÙĨÙĩ
ĠÙħÙĦ Ø§ÙĨÛĮ
Ġexper t
Ġpos itions
Ġvisit ors
Ġhosp it
ĠØ¯Ø§Ø¦ Ùħ
Ġadvent ure
Ġc ord
Ġb on
ÙĪØ¯ Ú¯ÛĮ
Ø§Ø¯ Ø´
il ib
ĠØ³Ø§ Ø¹Ø§Øª
ĠLe ban
Ġvirt ual
ĠØ¹Ø±Ø¨ Ø³ØªØ§ÙĨ
ĠKore an
Ġgod s
ĠØ¹ÙĦØ§ÙĤ ÙħÙĨØ¯
B ab
a ver
ĠØ¨Ø± ØªØ±ÛĮ
Ø§ÙĤ Ø¨
ĠÙĤØ± Øµ
ru b
ĠV in
ĠØ¹ÙĨ Ú©Ø¨
ĠØ¹Ùħ ÙĦØ§
ĠÛĮØ§Ø¯ Ø´
Ġexp lo
Ġtrans p
ĠÙĩÙħØ§Ùĩ ÙĨÚ¯ÛĮ
ĠÙħØŃØªØ± Ùħ
" :
h igh
Ġw retched
ĠØ´ Ø´Ùħ
Ġst raw
ĠM ess
ĠB attle
ĠÛ±Û ´Û
Ġkn ee
ĠØ§Ùģ ÙĤ
ĠØ¯ÛĮØ¯ ÛĮ
ĠØ§Ø¨ Ø¯
ĠØ§ÙĨØ¯Ø§Ø®Øª ÙĨ
Ġwar ning
ĠØ¨Ø§ÙĨ ÙĪ
ĠÙ¾ÙĦ Ú©
ĠØ§ÙħÚ©Ø§ÙĨ Ø§Øª
ĠØ§Ø« Ø§
Ġmis ery
Ġneighb ors
Ġacqu ired
Ġopport unities
Ġearn est
ĠÙĪ Ø·ÙĨ
ĠØª ÙĪØ±ÛĮ
Ġre nt
ÙĪÛĮ Ú©
ĠB re
ÙħÙĨ Ø§Ú©
ÛĮÙĦ Ø¯
Ġun ion
Ġfe ared
Ġche ap
ĠØŃÛĮ Ø«
ĠÙħÙĩÙħØ§ÙĨ Ø®Ø§ÙĨÙĩ
ĠÙĨÚ¯ ÙģØªÙĩ
d on
ĠØª Ø¨Ø§Ø±
ĠØ´ Ø±Ùģ
ÚĨ Ø±
Ġst ored
ĠT ok
og en
ĠO s
ĠØªØ§Ø¨ Ø³ØªØ§ÙĨÛĮ
ĠØ®ÙĪØ± Ø§Ú©
ĠÙĨÚ¯Ø± ÙģØªÙĩ
ĠØ³Ø§ØŃ ÙĦÛĮ
Ġglass es
Ġconcern s
Ø§ÙģØ± Ø§Ø¯
ĠØªÙĪØ¬ÛĮ Ùĩ
r ad
ĠÚ© Ø±ÙĪÙħ
Ù¾ Ø§ÛĮÙĩ
ĠÚĨ Ø§ÙĨÙĩ
ĠØ² Ùĩ
ĠD i
ig an
ĠE N
ĠÚ¯Ø±Ø¯ Ùħ
ĠÙģÛĮÙĦ ÙħÛĮ
com m
ĠÛ±Û¹Û¹Û ¶
Ġdescri bes
ĠØ¨Ø±Ø³ ÛĮÙħ
ĠÙħÛĮØ¯Ø§ÙĨ Ø³Øª
Ġdiv or
âĢ ľ
ÙħØ´ Ú©ÙĦ
ĠÙĩÙĪØ§Ù¾ÛĮÙħ Ø§ÛĮ
Ġintrodu ction
Ġworth y
ĠÙħØªÙħ Ø§ÛĮØ²
ĠÙħØ¯Ø§Ø® ÙĦÙĩ
A A
r ot
Ø¯ ÙĦÛĮÙĦ
ĠØ¢ ÙĦÙģ
Ġin ex
ĠØ¨Ø± ÙĤÛĮ
ĠØ§ÛĮ ÙģØ§
Ġr ac
Ġsm oking
ĠØ·Ø±Ùģ ÛĮ
ob ody
ĠØ³Ø§Ø²ÙħØ§ÙĨ Ø¯ÙĩÛĮ
Ġca using
ĠØ¹ÛĮ Ø¨
Ġfirm ly
ĠSwed ish
Ġsam ple
F l
Ġd iet
ĠD ou
ĠØ§ÙĦ Ø¬Ø²
ĠØªØ£ Ø®ÛĮØ±
Ġins isted
Ġopp osition
Ġsoon er
rel ated
Ġmount ed
Ġpray er
ĠÙħØŃÙĤ ÙĤ
Ġwis hes
ĠÙħØ¹Ø¬ Ø²Ùĩ
ĠâĢ ł
ĠÚĨ ÙĦ
ĠÛĮÚ© Ø¨Ø§Ø±Ùĩ
ĠR h
we re
Ġser ver
Ġrec over
ĠÚ¯ÙĪ Ø§ÙĩÛĮ
Ġra ising
ĠAll ah
Ġbirth day
ĠØ§ÙħØ±ÛĮÚ© Ø§
ÙħØ¬ÙħÙĪ Ø¹Ùĩ
H ist
c ol
p at
Ùģ Ø§ÙĨÛĮ
st ra
id ering
ĠA N
Ġle af
ÙĨØ§ Ø¹
Ġform ation
ĠØ¯ÙĪØ³ØªØ§ÙĨ Ø´
Ġwis dom
ĠÙ¾ÛĮØ¯ Ø§ÛĮØ´
Ġabst ract
ĠØ¬Ø§Ø° Ø¨Ùĩ
ĠØ¨ Ø§ÙĨÚ¯
Ġc ash
ur day
ĠB et
ĠØ¯ÙĪ Ø±Ø¯Ø³Øª
Ġj oke
ĠØ¯ÙĦ Ø§Ø±ÛĮ
ans as
Ġsk ill
ĠÛ±Û¹Û¹Û ²
Ġobser ve
Ġsal t
Ġcoun cil
Ġpossess ed
Am ong
Ġhun ger
ĠÙħØŃØª ÙĪÛĮ
ĠAri za
ĠÙ¾Ø±Ùĩ ÛĮØ²
Ġcircu it
ĠNAS A
ĠØªØ±Ø§Ùģ ÛĮÚ©
Ġc ure
ĠA lyosha
and al
Ġli p
ĠR om
ĠT ony
Ġch airs
int on
ĠØ§Ø¯ ÙħÙĪÙĨØ¯
ĠØ§Ø¨ Ø¯ÛĮ
Ġref use
Ø³Ø§ ÙģØª
Ġdri ft
Ġrad iation
Ġdom ain
ĠØ®Ø§ÙĪØ± ÙħÛĮØ§ÙĨÙĩ
Ġsatell ite
ĠPhilos ophy
Ġperman ent
m ony
nd s
Ø¬ ÙĪÛĮÛĮ
Ø§Ø² ÙĨ
ĠB ase
os om
ĠØº Ø¨Ø§Ø±
Th ink
ĠU nder
ĠØªÙĨ ÙģØ³
Ġlast ed
ĠDe v
Ú©Ø´ÛĮ Ø´
ĠÙĨØ§Øª ÙĪØ§ÙĨ
Ġuncom fort
ĠØ¨ Øº
ou ri
ĠØŃ ÙģØ±Ùĩ
ĠM uhammad
op eration
ĠL es
Ġind ign
ĠÚĨØ±Ø® Ø´
ĠGu ard
cyclop edia
i pt
Ġc raw
Ġof fe
Ø¹ Ø²
ĠÛĮ ÙĤÙĩ
ĠÙģ ÙĪ
ĠM as
ak a
ĠØ§Ø± Ø«
ĠÙħØ¹ÙĨ ÙĪÛĮ
Ġvol unte
m ers
Ġw ing
Ú¯ ÙĪØ±
Ġto wer
as ley
ĠØ³Ø± Ø´ÙħØ§Ø±ÛĮ
Ġpo ol
ØªØ§ Ø¬
Ġdist ract
Ġ7 5
Ġtown s
Ġenjoy ed
ĠÙ¾ÙĪØ´Ø§ÙĨ Ø¯Ùĩ
ĠØ¨Ù¾Ø±Ø¯ Ø§Ø²Ø¯
ĠØ¨Ø±Ø§ ÙĬ
ĠØªØ¨ÙĦÛĮØº Ø§Øª
Ġrail way
Ġens ure
ÙĨØ§Øª Ø§Ø´Ø§
ĠØ§ Úĺ
Ø² Ø¨ÙĪØ±Ú¯
is a
it ate
ĠØ§Ø³Øª ÙĪØ§Ø±
am i
ĠG h
ĠØ¬Ø§ÙĨ Ø¨ÛĮ
Ġequ ation
ze ch
ĠÛ³Û ±
ĠÙĨØ§Ø® Ø¯Ø§
ĠØ±Ø³Ø§ÙĨ Ø¯Ùĩ
Ġinnov ation
ĠØ§Ø° ÛĮØª
T ube
ĠI d
ĠA I
ĠB ag
au bon
Ġrep utation
ĠÙħØ³ÙĦ ÙħØ§
Ġemer ged
ĠKh an
ĠØ¯ÙħÙĪÚ©Ø±Ø§Øª ÛĮÚ©
f riend
k ind
m ade
ÙĨ Ø§Ø³
he rent
Ùģ Ø§Ø±
Ø® ÙĪØ±ÛĮ
Ġre in
ĠØ¯ÛĮ Ù¾
ĠØ¯Ø§Ø´Øª ÙĨÛĮ
ĠØº Ø§ÙĦØ¨
Ġpe as
ater n
ft en
Ġwant ing
ÙģÛĮ Ùģ
Ø³ØªÛĮ Ú©ÛĮ
Ġass ert
ÙĨÙĪ Ø§Ø®Øª
Ġ198 2
unicip al
Ġgrand mother
ĠÙĤ ÙĪØª
ĠÚ©ÙĨ ÛĮÙĨ
ĠS and
ĠA er
ch in
Ú¯Ø± Ø§ÛĮÛĮ
ĠÙĦ Ùħ
ab led
ĠH y
ĠØº Ø¶
ĠÙħØ¹ Ø§Ø¯ÙĦÙĩ
Ġrec on
ĠÙħÙĦ Ø§ÛĮ
Ġgener ations
ĠØ¢Ùĩ ÙĨÛĮ
unt il
Ġsus pect
ĠØ¨ÙģÙĩÙħ Ùħ
Ġliber al
ĠØ§Ø¯Ø± Ø§Ú©
Ġaccompan ied
r ating
Ø¨ ÙĨØ¯ÛĮ
ÛĮÙĨ Øª
Ġp ace
ĠØ¨Ø± ÛĮØ²
ĠB ox
ØªØ± Ùĩ
ĠÙĩÛĮ Øª
Ġper pet
ĠØ³ÙĪ Ùģ
Ù¾Ø± Ø³ØªÛĮ
ĠÙģØ¹ ÙĦØ§
Ġprof ile
ĠØ¨Ø±Ø³ ÙĨØ¯
ĠØ³Ú© ÙĪÙĨØª
Pr ince
ĠØ¨Ø¨Ø±ÛĮ Ùħ
T ER
Ø¯ ÙĩØ§
ĠØ¯ ÙĪØ§ÙĨ
le ys
ĠÚĨ ÛĮØ±Ùĩ
ve t
Ġu seless
Ġde bt
ĠØªÙĪ Ø§Ø¨Ø¹
ĠH ung
ĠE th
Ġj ew
ÙħÛĮÙĨ ÛĮ
Ġro ots
Ġref lected
Ġline ar
ĠØ¯Ø² Ø¯ÛĮ
Ø¨Ú¯Ø°Ø§Ø± ÛĮØ¯
Ġprecise ly
ĠØ²ÙĨØ¯Ú¯ ÛĮÙħ
F e
Ñ ĥ
ĠÙħ ÙģØ±
at ar
ĠÙĤ ÙĪØ§
ĠÙĤ Ø§ØªÙĦ
ri um
Ø§Ø±ÛĮ Ø§
Ġcom r
au x
Ġshe d
ful ness
Ġest ate
ĠSw itzerland
Ġimm ense
Ġimpro ved
Ġfem in
ĠÙħÙĪØ² ÛĮÚ©
ĠÙħØ¹Øª Ø¨Ø±
Ġwel come
. :
Ġw ings
Ġh am
ĠJ ordan
ĠØ±Ø³ ÙħÛĮØª
ĠÙĨØ§ ÚĨÛĮØ²
bl er
Ġinter face
ĠHe aven
Ġrece iving
Do es
ĠÙĨØªÙĪØ§ÙĨ Ø³ØªÙĩ
ĠÙħØ·ÙĦ Ø¹
t op
ĠÙĩ Ø§Ø¨
ĠØ´ Ø±ÛĮÙģ
ĠM itya
Ġab rupt
Ġ19 20
ĠK u
ĠØ§ÛĮÙħ ÛĮÙĦ
Ġ197 9
With out
ĠÛ±Û¸Û ¹Û
ĠÙħØ§ÛĮ Ú©Ø±ÙĪ
ĠGu ide
Ġcolle agues
ĠÙģØ±ÙħØ§ÙĨØ¯Ùĩ ÛĮ
ĠÙħØŃÙĤ ÙĤØ§ÙĨ
Ġinstrum ent
Ġmurm ured
I ran
Ùħ ÙĨØ¯ÛĮ
Ø¯ Ø¨
he ld
Ġa er
Ø§Ø± ÛĮÙħ
Ġn onsense
ĠC Y
ĠØ¯Ø§Ø± ÙĪÙĩØ§ÛĮ
ĠE ug
lo ad
Ù¾Ø± Ø³
Ø¨Ø¹Ø¯ ÙĩØ§
Ġkeep s
Ġdou b
ÙĪÙĦÙĪÚĺÛĮ Ú©ÛĮ
Ġinvol ves
atter ing
ĠØ¬Ø³ ÙħÛĮ
ĠÙħÙħÙĨ ÙĪÙĨ
Ġfool ish
ĠMel anie
Ġrefuge es
Y eah
Ġt ur
ĠÙģ ÙĨØ¬Ø§ÙĨ
ĠØµ ÙħÛĮÙħÛĮ
ĠØŃØ¯ ÙĪØ¯ÛĮ
ĠÙħÙĩ Ø§Ø±
ĠØ¨Ø´ ÙĪÙĨØ¯
ĠÙĦØ§ Ø§ÙĤÙĦ
Ø§Ø¹ Ø¯Ùĩ
Ġcreat es
ĠÙĨÙĩØ§ÛĮ ØªØ§
ĠÙĩÙģØª Ùħ
ØŃÙĤÛĮ ÙĤØª
Ø®ÙĦØ§ ØµÙĩ
6 6
Ġst ations
ag ine
ĠÚ©Ø§Ø± Ø´Ø§ÙĨ
ĠØ¯Ø§Ø´Øª ÛĮ
og ue
Ġpre ced
az e
ĠÙħØ®Øª ØµØ±
ĠInd ust
Ġpar allel
ĠAlex ey
ĠØ±ÙĪØ³Øª Ø§ÛĮ
Ġformer ly
ĠÙĪÛĮØ¯Ø¦ ÙĪÛĮÛĮ
ĠÙħÛĮØ±Ø§ Ø«
p a
in er
Ø´ Ø´
ĠØ¨Ùĩ ØªÙĪÙĨ
Ġso b
ĠØ§Ùħ Ø±ÛĮ
ĠSt ation
Ġact ress
Ġsy nd
ĠØ³Ø¨ Ø²ÛĮ
ĠØŃÛĮ ÙĪØ§ÙĨÛĮ
ĠÛ³Û µ
ĠÙħØ¹ØªÙĤ Ø¯Ùħ
ĠWin ter
ĠNether lands
Ġb unch
ĠM ach
ins on
ĠÙħØ±ÛĮ Ø®
Ġassoci ation
Ġemploy ees
ĠØ¯ÙĪÛĮ Ø³Øª
Ġincor por
Ġsociet ies
ĠÙħØ¹Ø§Øµ Ø±
Ġg host
im al
ĠC are
ol en
ĠØ§Ùħ ÛĮØ¯ÛĮ
ĠØ¨Ø§Ø² ÛĮØ§ÙģØª
Ġcons ent
ĠØ±ÙĨÚ¯ Ø´
Ġappro aching
ĠÙĥÙĨ ÙĬÙħ
quar ters
M ean
f ly
m o
at i
ĠØª ÙĦØ³
an z
ĠØ¢ Ú¯ÙĪØ³Øª
ĠÙĤ ÛĮØ¯
un a
Ġch in
ĠÙĩÛĮ ÙĪÙĦ
Ġar ts
ĠØ®ÙĪØ§Ø³Øª ÛĮÙħ
gr ad
ĠØ¢Ø²Ùħ Ø§ÛĮØ´ÛĮ
ĠÙĪÛĮØ± Ø§ÛĮØ´
ĠØ§ÙĪØ± Ø§ÙĤ
ĠØ®Ø¯Ø§ÛĮ Ø§ÙĨ
P ierre
Ġs ed
Ù¾ ÙĪØ±
Ø® ÙĪÙĨÙĩ
ic us
Ġbe ach
ĠØªÙĪ ÙħØ§Ø³
Ġsh ining
ĠD umbledore
ĠØ³ÙĪ ÙĨØ¯
ĠUn cle
ĠØ¢Ø¨ Ø§Ø¯
ĠÙ¾Ø³Ø± Ø§ÙĨ
ĠØ¨Ø±Ú¯Ø´Øª Ùħ
Sc arlett
Ġfurn iture
Õ¡ Õ
ĠØ¨Ùĩ Ø´ÙĪÙĨ
Ġp ed
Ġis lands
ĠH ind
00 00
ry ing
ĠØ§Ø´ Ø¹Ùĩ
ĠØ¨Ø² ÙĪØ¯ÛĮ
Ġfe e
Ġpr ime
ĠØªØµ Ø±Ùģ
ĠØ²ÙĨØ¯Ú¯ÛĮ Ø´
Ġsc ared
Ġatt ent
ĠÛ²Û°Û±Û ¸
Ġfell ows
Ġ197 5
Ġsure ly
Ġwin ning
ĠÙħÚ©Ø§ÙĨÛĮ Ú©
Ġt act
Ġs illy
ĠÙ¾ ÚĨ
Ġcon ven
ĠÙ¾ÛĮ ØºØ§Ùħ
ĠT our
ĠÙĨØ§ Ø§ÙħÛĮØ¯
Ġland s
pr int
ĠØ¨Ø¯Ø§ÙĨ ÙĨØ¯
Ġut tered
ĠIS O
Ø³Ø§Ø² ÙħØ§ÙĨ
Ġlean ing
ĠØ¨Ø±Ú¯Ø² Ø§Ø±ÛĮ
ĠCrist o
Barb us
Ã £
Ġs ank
ĠÙģ Ø§Ø²
ag in
Ġso fa
ĠF ern
Úĺ ÛĮÙĨ
ĠØ¨Ø² ÙĨÛĮ
ĠÙĨØ´ ÛĮÙħÙĨ
ĠØ§ÙĪÙĨ ÙĪ
ĠÙĨØ³ Ø¨ÛĮ
Ġgen ius
Ġdef ense
Ġdeath s
Ġphot o
Every one
ĠOlymp ic
Ġben ch
Ġappropri ate
b us
Ø§ÛĮ Ø¬Ø§ÙĨ
ir ts
ĠØ³ÙĪ Ú¯ÙĨØ¯
ĠØºÛĮØ± ÙĤØ§ÙĨÙĪÙĨÛĮ
ĠØ³Ùģ ÛĮØ¯ÛĮ
Ġmist ress
Ġdom in
ĠÙħÙģÙĩ ÙĪÙħÛĮ
Ġcompon ent
Ġminim um
8 5
C ould
u ously
Ġsh ake
ĠÙ¾ÛĮ Ú©
Ġal ign
ĠØ¨Ø§Ø² ØªØ§Ø¨
ĠÙĨÙħ ÛĮØ¯
ĠØ§Ø± Ú©
Ùĥ Ùĩ
Ġincred ibly
Ġcere mony
ĠØ´ØªØ§ ÙģØª
b ro
Ø¯ ÙĦÙħ
is k
ĠÙĨ Ú¯ÙĪ
ĠÙħÛĮ Ø±Ùħ
ĠØ¬ Ùģ
Ġre ign
ĠØ³Ø± Ú©ÙĪØ¨
ĠG il
ĠÙħØ¯ Ø¹ÛĮ
ĠØªØ¨ Ø¹ÛĮ
arch y
eng ers
oph ical
Ġant ib
Ġsurpr ising
ĠØ¨Ø¨Ø± ÛĮØ¯
ĠØ§ÙĨØ¨ Ø§Ø´ØªÙĩ
ĠØµØ§Ø¯ÙĤ Ø§ÙĨÙĩ
ĠSat urday
Ø± Ø¦ÛĮØ³
ĠØ¬ ÛĮÙħÛĮ
ch ar
ĠM ove
Ġsh r
ap a
ÙģÛĮ Ùĩ
Ġpar liament
Ġmyst ery
ĠÙħØŃØªÙĪ Ø§ÛĮ
Ġf ired
ĠØ³ Ø¦
Ġin ternet
ÚĨ Ø§ÙĦ
Ġbe w
ĠØ¨ÛĮ Ø§ÛĮÙħ
ĠÚ©Ø§Ø± ÙĪØ§ÙĨ
ĠÙĨØ§ Ø¸Ø±
Ġpart ly
ĠØ®ÙĪØ± Ùħ
ĠInd ones
Ø®ÙĪØ¯ Ùħ
Ġang le
Ġclim bed
ĠØ¨Ø±Ø§ Ùī
ĠÛĮÙĪØ± Ú¯ÛĮØ³
orent ino
Ġvalu able
Ġm ail
ll o
ĠÚ©ÙĦ ÙģØª
Ġgener ated
Ġfear s
ĠÚ©Øª Ú©
Ġknock ed
Ġpros pect
ĠØªØ¸Ø§Ùĩ Ø±
r in
al ia
ĠØ¨Ø± Øª
ĠÙĩÙħ Ø³Ø§ÛĮ
ĠÙĤ Ø§Ø¹Ø¯Ùĩ
Ġab use
Ġhas n
ĠÙĨØ§ Ø§Ùħ
ov ie
Ġcomm ittee
Ġsil ently
ĠÙĦØº ÙĪ
Ġshoot ing
3 1
b in
k h
Ø± ÙĩØ§
ĠØ§ Ø¯Ø§ÛĮ
ain ted
Ġsh ar
ĠÙħØ´ Ø±ÙĪ
ĠO livier
ĠØ³Ø§Ø² ÙħØ§ÙĨÛĮ
ĠÚ©ÙħÛĮ Ø³ÛĮÙĪÙĨ
ern el
ĠÚ¯ÙĪÛĮ ÛĮØ¯
ĠÙĨÙħØ§ÛĮ ÛĮØ¯
ĠÚĨÚ© ÙħÙĩ
ĠØ§Ø¨Ø¯Ø§ Ø¹
ÙĦ Ú©
Ø§Ø± Ø¬
is le
ĠØª Ø¯Ø§Ø±
it is
ĠØ¢ Ø¨Ø±
ĠØ¬ ÛĮÚ©
ĠS ci
ĠD ig
Ġke en
Ġtrans ition
Ġ197 6
ĠÛ±Û¹Û¹Û ·
ĠØ¨Ø®ÙĪØ§Ùĩ Ùħ
Ġrob ots
ĠÃ ĩ
Ġdepend ing
ĠØ§Ø±Ø² Ø´ÛĮ
Ġded icated
ĠFlor ida
8 9
F ollowing
N or
Ú© ÙĪÙĦÛĮ
ÙĤ Ø§Ùħ
ĠØª Ø·Ø¨ÛĮ
Ġh aste
om ing
ĠØ¬ ÙĦØ³
st ream
Ġat oms
Ġr ust
ĠR hett
ĠF oot
Ġch a
ĠÙĨÛĮ Ú©ÙĦØ§ÛĮ
ĠN ick
ĠÙĨØ¯ ÛĮØ¯
ĠÙĨØ§Ùħ Ø±Ø¦ÛĮ
Ġgot ten
Ø®ÙĪØ§Ùĩ Ø´
ĠØ§ØªØ§ÙĤ ÛĮ
Ġchar ged
ĠÚ¯Ø±Ùħ Ø§ÛĮ
Ġenc oun
ĠÙħÙĩÙĨØ¯ Ø³
ĠÙħØ±Ø² ÙĩØ§ÛĮ
Ġtransl ated
s en
y es
ĠØ¢ ÙĦÛĮØ³
se ud
ĠØ§ÙĦ Ú©Ø³Ø§ÙĨØ¯Ø±
Ġev olved
Ġhard ware
Ġinf ant
ĠUS A
ĠÙħØ¨Ø¯ ÙĦ
Ġ Ä
Ùħ ÙĦÛĮ
ĠØ± ÛĮÙĨ
ay ing
ĠB lo
ĠØ®ÙĪØ§Ùĩ Ø§ÙĨ
ud es
Ġlet ting
ĠÙ¾Ø§ Ú©Øª
Ġlaw yer
Ġincre asingly
ĠSy rian
Ġwin ner
Ġterror ism
Ġimplement ed
ÙģØ±ÙĪØ¯ Ú¯Ø§Ùĩ
ĠIr ish
H aving
Ø² ÛĮÙħ
ĠØ¢ Ú¯
Ú¯Ø± Ø§
ĠØ®ÙĪØ¯ ØªÙĪÙĨ
ĠB oy
ĠÙĨÛĮ Ú©ÙĪ
the ir
Ġwhere as
Ġrel ie
ĠØ¨Ø´ ÙĤØ§Ø¨
ĠÚ¯Ø³Øª Ø§Ø®
ĠØ³ÙĦÙĪÙĦ ÙĩØ§ÛĮ
ĠÙĦØ° Ø§
ĠÙĨØ§Ø¨ ÙĪØ¯ÛĮ
ĠØ§Ø³ØªØ§ÙĨØ¯Ø§Ø± Ø¯ÙĩØ§ÛĮ
Ġsche me
A nt
v als
ĠÙĩ Ùģ
as m
ĠØµ ÙĪØªÛĮ
od ed
ĠØªÙĪ ÙĤ
Ġbut ton
Ġro yal
ĠÙħØ· ÙĦÙĪØ¨
ĠØ¨Ø§Ø²ÛĮ Ú©ÙĨØ§ÙĨ
Ġear ned
ÙħØ¯ ØªÛĮ
Ġret reat
ĠØ§ÙģØªØ§Ø¯ ÙĨ
Ġ198 3
ĠØ¹Ø± Ø´Ùĩ
Ġ197 3
ĠÚ¯ÙĪÛĮ ÛĮÙħ
ĠØªØ³ ÙĦØ·
enn is
Ġmaint ained
re r
ĠÙĩ Ø§Ø±ÙĪ
ĠØ¯Ø± ØŃØ§ÙĦ
ar ation
ĠØ§Ø³Øª ÙĪ
ĠØ² ÙĨØ§
ÙĩØ§ Ú¯
Ġr ush
ĠT HE
ĠÙĨØ§Ùħ Ø¹
ĠØ¢Ø± ØªÙĪØ±
ĠØºÛĮØ± Ø¹
Ġhum ili
Ġrev ol
ĠRep ort
ÛĮØ§Ø· ÛĮÙĨ
ĠÙĨÚĺ Ø§Ø¯ÛĮ
ĠÙĪØ§Ø´ ÛĮÙĨÚ¯ØªÙĨ
c alled
Ø§ÙĨ ÛĮØ¯
ag u
Ġsp are
Ġeng age
Ġvill ages
ĠÙĨØ± ÙħÛĮ
Ù¾Ø¯Ø± Ø´
ÙģØ±Ø§ÙĨ Ú©
Ġprote ins
Ġdepart ure
ĠYan ke
ĠØ± Ø¬
ĠÙĨ Ø±Ø¯Ùĩ
ÙĪØ¯ Ø§
ĠØ¨Ø± ÙĦÛĮÙĨ
Ġu gly
ĠJ os
ĠÙĩÛĮ Ú©ÙĦ
ĠÚ©Ùħ Ø¯ÛĮ
ĠØ®Ø± ÛĮØ¯Ùĩ
ĠÙĪØŃ Ø´
ÚĨÙĨØ§ÙĨ Ú©Ùĩ
Ġbab ies
Ġhat red
ĠØªØ±ÙĪØ±ÛĮ Ø³ØªÛĮ
ĠStud ies
Ġsch olars
ker chief
d ed
Ġbe ating
ĠI CA
ĠE nergy
Ġle gend
ĠÙĨØ§Ùħ Ú¯Ø°Ø§Ø±ÛĮ
Ø±Ú¯ ÙĪØ´
Ġke ys
ĠØ®ÙĪØ± ÙĨØ¯
ÙģÛĮÙĦ Ø¯
Ġframe work
Ġsymp athy
f it
Ġst ern
ag en
ĠF our
ĠØ±Ø§Ùĩ Ø´
Ġsw ear
Ġnear by
ĠØ§Ø´Øª Ø¨
Ġscient ist
Ġmist aken
ĠArkady evitch
f oot
Ø§ÙĨ Ø³Ø§ÙĨ
ĠØ¢ Ú©Ø³
Ġ( -
Ġst ead
ĠA st
ĠC ross
ĠF ord
ĠÙħÛĮØ´ ÙĪÙĨØ¯
sec ut
Ġegg s
Ġportra it
Ġkil omet
Ġstor age
ØªØ§Ø±ÛĮ Ø®
9 0
ĠØ ¦
Ġw ip
ĠÙĩ Ø±ÛĮØª
ĠS em
Ø¨Ø§ ÙĪØ±
Ġbut ter
ĠØ¨Ø´ Ø±ÛĮØª
Ġass istance
ĠHe ad
Ch ar
ĠÙħØ³ÛĮ Ø±ÛĮ
Ġsignific antly
Ġdesper ate
ĠL au
Ġch rom
ĠN iger
ĠO cean
ØªÙĪ Ø¬Ùĩ
ĠAs se
ÙĤØ± Ø§Ø±ÛĮ
ÙģØ±ÛĮ Ø§Ø¯
Ġprotect ed
Ġsitu ations
Ġeat en
Ġcitiz en
ĠMuslim s
Ġveh icles
Ġcompar ison
Ð ²
Ġd ict
ac c
ĠØ¨ÛĮ Ø´Ùĩ
ĠÙĦ ÙģÙĪØ±
Ø¢ ÙĦÛĮ
Ú©Ùĩ Ø§ÛĮ
Ġen velop
ĠØ²ÙĨ ÙĨØ¯Ùĩ
Ġhel pless
ĠØŃØ§Ø¶Ø± Ø§ÙĨ
Ġsens itive
ĠÙħÛĮØªÙĪØ§ÙĨ Ø¯
ĠØ¢Ø±ÛĮ Ø«Ø§
ĠØ¹ÛĮ Ø³ÛĮ
ĠÙ¾ÙĪØ´Ø§ÙĨ Ø¯
Ġbare ly
ÙħÙĪØ¶ ÙĪØ¹
L ondon
ĠÙĨ Ù¾
ĠÙħÛĮ Ø®Ø§ÙĨÙĩ
as se
ÙĪØ§ÙĨ Ø´
ĠM ond
ĠØ®ÙĪ Ø´Ùĩ
ĠC zech
ĠØ¨ÛĮ Ø§Ùħ
ĠØ¯Ø³Øª ÙħØ²
Ġag ency
ĠU krain
ĠÙħØ³ ÙĨ
Ø§ÙĨØ¯ Ø§ÙĨ
Ġoff ers
Ġsmall est
Ġste ady
Ø¨Ø§Ø¨ Ø§
ĠDes ign
ĠÙĦØ¹ ÙĨØªÛĮ
ĠScot land
ĠØ¢Ø°Ø±Ø¨ Ø§ÛĮØ¬Ø§ÙĨ
W omen
i el
r ick
z h
ĠØ²ÛĮ Ø¨Ø§Øª
ĠØ³ÙĪ Ù¾
Ġhand kerchief
Ġfound ation
Ġexpect ing
Ġsearch ing
Ġshout ing
ĠØ¯Ú¯Ø± Ú¯ÙĪÙĨ
ĠGold en
Ġt unn
ĠØ¨ ÙĤØ§ÛĮ
ĠÙħ Ø¨Ø§ØŃ
Ġb ull
ĠØ· Ø§ÙĤØª
ĠB BC
ĠØªØ§ Ø³ÛĮØ³
Ġch amp
ĠÙħØŃ Ùģ
ĠÙĨØ´Ø³Øª ÙĨ
ÙĩÙħØ§ÙĨ Ø·ÙĪØ±
Ġsens es
ĠHar vard
Ġcop ies
Ø±Ø§Ø³Øª Ø´
Ġsurround ing
ĠÙħØ±Ø§Ø¬ Ø¹Øª
ĠØ¨Ø§Ø²Ø±Ú¯ Ø§ÙĨÛĮ
Ġh ack
ĠØ¯Ø± Ø§Ø²ÛĮ
ĠØ® Ø§Ú©ÛĮ
ĠM ason
ant ine
ĠØ¢Ùħ Ø§Ø±ÛĮ
ak ov
ĠÚ¯ÛĮ Ø§ÙĩÛĮ
ĠØªØ¨ Ø¹ÛĮØ¯
ĠØ±Ø§Ø³Øª ÙĪÙģ
ÙĤØ§ÙĨ ÙĪÙĨ
Ġpal ace
ĠØ¨Ù¾Ø± Ø³Ùħ
ĠCor por
ĠØ´ ÙĦØ§ÙĤ
ĠØ¬ ÙĪØ¯
ĠÙģØ± ÙĨ
ĠL i
ĠIn f
ĠTh ree
ĠÙĪØ§ Úĺ
Ġ197 4
Û² Û
Ġredu ction
Ø¨Ø® Ø´ÛĮ
ĠÙ¾ØªØ± Ø²Ø¨ÙĪØ±Ú¯
ĠÙĩÛĮØ¯Ø±ÙĪ ÚĺÙĨ
ĠPot ter
T R
ï »
nd ered
Ġf ib
ac co
ĠB C
ĠÙ¾ÛĮ Ø§ÙħØ¨Ø±
Ú©ÙĨ ÙĨØ¯Ú¯Ø§ÙĨ
ond er
Ġag es
Ġsp at
Ġoff ices
Ġacc ord
ik es
ĠØ¨Ø³ Ø§Ø²Ø¯
Ġshort ly
ĠÙħÙħÙĨ ÙĪÙĨÙħ
Ġinstit ution
ĠÙĪ Ø±Ø§
ĠM u
Ġat h
Ġsp ark
ĠØ³ÛĮ ØªÛĮ
Ġrel ax
Ġref lection
ÙĨÙħ Ø§ÛĮÛĮ
Ġass ured
ĠÙħÛĮÚ©ÙĨ ÛĮØ¯
ĠØ¨Ø±ÙĪ Ú©
ĠVal ley
ĠÚ©ÙħÙ¾ ÛĮÙĨ
Ġjournal ist
ĠAtl anta
Ùħ ØªØ±
ĠØ³ Ú©ÙĪ
ĠØ§ÙĪ ÙħØ¯
ĠC le
ĠØ· ÙģÙĦ
op ter
Ġman if
ĠØ§ÙĦ ØªÙĨ
Ġsur re
Ġsur gery
ĠØ§ÛĮØ± Ø§Ø¯
ĠÙģØ±Ø§ÙĨ Ø³ÛĮØ³
ĠØªÙĦ Ø®ÛĮ
Ġpri ze
ĠYou Tube
ĠBul strode
6 9
c ar
ĠÙħ ÙĪÙĨØª
Ø² Ø§Ø¨
Ġb ored
ĠØ´ Ø¨ÛĮ
Ø§Øª Ø§ÙĤ
ĠÙħÙĨ Ø´ÛĮ
ĠA unt
Ø±ÙĪ Øª
Ġat omic
Ġcon cerning
ĠÙĨÙĪ Ø¨Ùĩ
Ġadd ing
Ġz one
Ġdism iss
Ġsen ior
ĠØŃØ´ Ø±Ùĩ
E O
at ched
Ø¹ ÙħÙĪ
Ġth under
Ġse lection
Ġsh ade
ge on
iv ina
ÙħÛĮÙĨ Ø§
Ġro cks
ĠØ¨Ø¹Ø¯ Ø´
ĠØ§ØªÙģØ§ÙĤ Ø§Øª
Ġclo ak
ĠØ¯Ø±ÙĪ Ø§ÙĤØ¹
ĠÙĩÙĨØ± ÙĩØ§ÛĮ
Ġtou ching
Ø¯Ø®ØªØ± Ú©
Ġtim id
7 5
b or
v y
Ġs ink
Ø³Øª ÙħÛĮ
Ø® ÛĮÙĨ
ĠÙģ Ú©
ĠÙģ Ø§Ø´
ĠØŃ ÙĤØ§ÛĮÙĤ
Ġor bit
ĠL abor
Ġgr im
be ing
ĠØ§Ø¹ Ø¶Ø§
ĠPol ish
ĠÙħØ±Ú© Ø¨
Ġbud get
A dd
Ġc ared
ĠØ¢ÙĨ ÙĩØ§ÛĮÛĮ
Ġkn ight
Ġcl ient
Ġbu ck
Ġmus cle
Ġlone ly
ĠØ§ Ú©Ø±
en ance
Ġm ild
ĠÚ©Ø§Ø± Ú©Ø±Ø¯
Ø§ÛĮØ¯ Ú¯ÛĮØª
Ġsl ave
Ġgu arant
ÙĤØ¯Ø± Øª
Ġdep os
ÚĨÙĨØ¯ ÛĮÙĨ
Ġarri ve
Ġtrou bled
Ġcharacter istics
PD F
igr ants
K e
O D
Å ¡
ĠÚ© ÛĮÚ©
Ø¨ ÙĦØ§
Ġo kay
ĠÙĩÙħ Ú©Ø§Ø±Ø§ÙĨ
Ø§Øª ØŃ
ĠP en
ĠT re
ard ier
ĠK er
ÙĦÙĪ Ø¹
Ø®Øµ ØµÛĮ
Ġdist ress
Ġass ess
ĠØ¯ÙĪÙĨ ÛĮØ¯
Ġste am
ĠAd am
Ġlif etime
ĠÙĤØ§ ÚĨØ§ÙĤ
' .
Ã ł
Ø§ ÙĬÙĨ
ĠÙħ ÙħØª
Ø¹ Ø±
ĠÚ¯ Ø³
Ø· Ø¦Ùĩ
ĠÙĤ Ø§Ùĩ
ĠO tt
ĠU p
Ġad ult
uth or
ĠÙĨÙħØ§ÛĮØ´ ÙĨØ§ÙħÙĩ
ĠÙħØ¶ ØŃ
ĠÚ©ÙĨØ¬ Ú©Ø§ÙĪ
Ġdisappe ar
ĠÙģÙĦØ³Ø· ÛĮÙĨ
d is
n on
y odor
Ùħ Øº
Ġb ree
ĠÙ¾ Ø´ØªÙĩ
us ions
ĠB uilding
ĠR ight
ĠT wo
ĠÙĨÛĮØ³Øª ÛĮØ¯
ĠÚ©ÙĦ ÛĮÙĨ
ĠLe g
Ġarg uments
Ġsus pected
ĠØ´ÙĦÙĪ Øº
ĠEduc ation
i ac
re c
ĠØ¯Ø± Ø³ÛĮ
Ġm ob
ĠØ® ØªÙħ
ĠÙ¾ Ø§ØªØ±
Ø¬ Ú©
Ø¨Ùĩ ØªØ±ÛĮÙĨ
ĠÙ¾Ø± Ø³ÛĮ
ĠØªØ´ Ø±ÛĮØŃ
alf oy
ĠCl ivina
ĠPhil ipp
ĠAll en
ĠØ²ÙĨØ¯Ø§ÙĨÛĮ Ø§ÙĨ
Ġremind ed
Ġphenomen on
ĠÙ¾Ø§Ø±Ø§Ùħ ØªØ±
ĠØ¯ ÙĨØ§
Ú¯ Ø§Ùħ
ĠÙ¾ Ø´Ùħ
ĠÙĤ ÙħØ§Ø±
Ġst ack
Ġde but
Ġsh y
ĠØ¯Ø§Ø´Øª ÛĮØ¯
ĠR od
ÙĩØ§ÛĮ Ø´Ø§ÙĨ
ĠE G
ÙħÙĨ Ø·
ĠØ³ÙĪ Øª
ĠÚ©ÙĦÛĮ Ø³
Ġkind ly
Ġass ure
ĠBr other
ĠAb raham
ĠØºØ±ÛĮ Ø¨ÛĮ
ĠÙħÙĤØ§ÙĪ Ùħ
ĠØ§ÙħÙ¾Ø±Ø§Øª ÙĪØ±
Ø§ÙĦÛĮØ² Ø§Ø¨Øª
ĠÙĦÙĨ Ú¯Ø±
ĠLin ux
Ùħ Ø§Ùħ
Ġt eles
ĠÚ© Ø§Ø¨ÙĦ
ĠØ³ ÙĪØ²ÛĮ
Ø® Ø§
Ġn a
Ġg ang
Ø§Ø¨ ØªÛĮ
ĠÛĮÚ© Ùħ
ĠÙĦ ÙĤØ¨
ĠH it
ĠØ¬Ø§ÙĨ Ø´ÛĮÙĨ
ĠÚ¯Ø±ÛĮ Ø²
Ġ198 1
Ġlab el
Ġchem istry
Ġthe ater
ĠÙĨ Ú¯Ø±Ø¯
ĠC ard
ĠØ¯ÛĮ ÙĪØ§Ø±Ùĩ
ĠÚ©ÙĨØ¯ ÛĮ
Ø§ÙĦÛĮ Ùĩ
Ġbr ows
Ġeng agement
Ġ197 8
Ġeffect ively
ÙħØ§Ø±ÛĮ ÙĪØ³
Ġreck on
A ct
H ar
M en
d y
ĠØª ÙĩØ§
Ġh arsh
ĠH ay
ĠØ¯Ùĩ Ø§ÙĨÙĩ
Ġsa ving
ĠÛ±Û ±Û
ĠÙĨÙĪ Ø³Ø§ÙĨ
Ø¹Ùĩ Ø¯Ùĩ
Ø¯Ø§ ÙĪÙĦ
Ġcr own
Ġear liest
Ġsur ve
ĠØ¬Ø§ÙĨ ÙĪØ±Ø§ÙĨ
ĠÙģÙĦ Ø¬
ĠBab bitt
Ġconvent ional
Ġdisg ust
ĠÙħØ²Ø§Ø± Ø¹
ĠØªØ¨Ø¹ÛĮ Ø¶
O kay
S R
y o
Ùħ Ø§ÛĮÛĮ
er iana
ĠÙĩ ÙĤ
st and
Øµ ÙĦÛĮ
ĠÙĦ Ø±ÛĮ
ĠH ong
Ġint im
ĠÙ¾Ø± Ø´
ĠK at
ĠK ong
Ø§Ú© Ø§
ĠØ¢ÙĦ ÙĨ
ĠØ®Ø§Ø·Ø± Ø´
ĠÙ¾Ø§ ÙĪÙĦ
ĠØ¢Ø¯Ùħ ÙĩØ§
Ġdirect ions
Ġorgan ic
hem atic
h ind
Ø¨ ÙĨØ§
Ø§ÛĮ Ø´Ø§ÙĨ
an ed
Ġl ux
ĠØ¬ ÙĨØ§
ĠØ§ÙĨ Øµ
iz ard
Ġexp ed
ĠØªÙĪÙĨ ÙĦ
Ġrout e
ĠFore ign
ĠÚ©Ø§Ù¾ ÛĮØªØ§ÙĨ
Ġpaint ings
Ġepis ode
Ġsplend id
Ġstair case
ĠâĨ Ĵ
Mean while
S F
Ġo bey
Ġin fection
ĠØ§ÙĪ Ùħ
ĠS ab
ĠA cc
Ġr aw
ĠÙħØ± Ø¬Ø¹
ĠØ³Ø® ÙĨÛĮ
Ġ15 0
ĠØ´Ú©Ø³Øª ÙĨ
Ġpract ices
Ġant icip
Ġmer cy
Ġregard ing
Ġwrit ers
inem a
ĠÙĪØ§Ú©Ø³ ÙĨ
rast ructure
ĠØ¹Ø« ÙħØ§ÙĨÛĮ
Ùģ ÙĩÙħ
at ers
ĠÙĨ Ø§Ø¨Ø±
Ġb other
ĠØ® ÙĨØ¯Ø§ÙĨ
Ø§Ø¯ Ø±ÛĮ
ĠÛĮ Ø§Ø¨ÛĮ
ĠØ¹ Ø§Ø¬
Ġse ats
Ġme al
ĠH og
ĠØ§ÙĨØ¯ ÙĪÙĨØ²ÛĮ
Ġun ple
ĠØ¬Ø§ÙĨ ÙĪØ±
com ing
ĠÙ¾Ø§Ø³ Ø®ÛĮ
ÙĨØª ÛĮÙĨÙĪ
Ġdesign s
ĠØ³ÙĪÙĨ ÛĮØ§
olly wood
ĠØ¢Ø±Ø§ Ø³ØªÙĩ
Ġconstruct ed
Ġf ishing
ĠØ³ ÛĮØ²
Ġp ump
Ġd ies
ĠØ¬ ÙħØ§
Ġg ap
ĠØ¹ Ø§Ø¯
ĠØ§ÙĪ ÙħØ¯Ùĩ
ØªÛĮ ÙĦ
Ø¶ Ø§Ø±
Ġal coh
ĠØ§ÙĦ ØªÙħØ§Ø³
Ġad just
ÙħØª ÙĪØ¬Ùĩ
to ok
ĠØ³Ù¾ Ø§Ùĩ
ĠÙĦÙĪ Ø§Ø²Ùħ
Ġce iling
ĠÙĩÙĦ ÙĨØ¯ÛĮ
Ġobserv ation
ĠØ§Ø³Ú©ÙĨ Ø§Ø³
ĠPav lov
D av
S N
f ile
re plied
Ġhe m
ÙħÛĮ Ø§ÙĨ
ĠÙħÙĨ Ø´
ĠÙ¾ÛĮ Ø±ÛĮ
Ú©ÙĦ Øª
Ġwr ites
ĠØ®ÙĪØ¯Ø´ ÙĪÙĨ
Ġexp osed
ĠÙ¾ÙĨ Ø¨Ùĩ
ĠÚ©ÙĪÙĩ Ø³ØªØ§ÙĨ
Ġdoll ar
Ø² ÙĪØ¯
Ø² Ø§Ø³
Ù¾ Ø±ÙĪÙģ
ĠG er
ĠF I
Ġrec overed
ative ly
Ġfr own
Ġoper ate
ĠWe asley
Ø§Ø¯ÙĦ Ø§ÙĨÙĩ
ĠÙĨÙħØ§ÛĮÙĨØ¯ Ú¯ÛĮ
Ġtrem end
Ġexecut ed
Ġrat io
Ġutter ly
Ġexpans ion
Ġf lex
ro ph
ÙĪÛĮ Ø³ÛĮ
ĠS ul
ĠØ®ÙĪ Ø§Ø¨ÛĮ
ang ing
ĠÙĨÙĤ Ø´ÛĮ
ple te
ĠØªØ¹ Ø§Ø±Ùģ
Ġaw ake
ĠØ¹ÙħÙĦÛĮ Ø§ØªÛĮ
Ġlim its
Ġcompan ions
Ã¼ r
Ġuncomfort able
3 4
F our
G u
an ing
Ø® Ùħ
ĠÚ¯ Ø±Ø¯Ùĩ
ĠØ§Ø³Øª Ø±Ø³
ĠÙĨØ¸Ø± Ø§Øª
ĠÙħØ¬ ÙħØ¹
ple x
Ú©ÙĪ Ø¦
Ġprodu cer
Ġmet ers
ĠLe on
ÙħÙĨØ¯ Ø§ÙĨÙĩ
ÙģØ±Ø¯ Ø§
ĠÚ©Ø´Ø§ÙĨ Ø¯
Sec ond
c are
Ø³ Ø®
ĠØ¯Ø± Ø®ØªÛĮ
ĠØ¬ Ø¨Ø±
ĠØ¹ Ø§Ø±ÛĮ
ĠD et
Ġch oices
ĠÙħØ´ Ùĩ
ĠØ§Ø± Ùĩ
ĠØ§Øª Ø±ÛĮØ´
ĠØ¨Ú¯ ÙĪÛĮÛĮ
Ġam use
Ġbo ats
ĠØ´ÙĩØ± Ú©
ĠØ¨ÙĨ Øª
Ġmight y
Ġappro ved
ĠÙĪØ³ ÙĪØ³Ùĩ
ĠØŃÙĤÛĮÙĤØª Ø§
Ġ197 1
Ġprom ote
Ġelse where
ĠÙĨÚ©ÙĨ ÛĮÙħ
Ġsuggest s
ĠØ±Ùģ Ø§Ùĩ
Ġcustom er
ĠApp le
ĠØ¢ÙĦÛĮ ÙĪØ´Ø§
' ,
b b
v i
Ġh ttp
ĠS k
ĠÙĪÛĮ Ú©ØªÙĪØ±
Ġtalk s
ĠØ¯Ø±ÛĮ ÚĨÙĩ
Ġflo ating
ĠÛ±Û¸Û ¸Û
ĠØ¨Ø±Ø¢ ÙĪØ±Ø¯Ùĩ
ĠØ´Ø§Ø¯ ÙħØ§ÙĨÛĮ
ĠÙħØ§Ùħ ÙĪØ±ÛĮØª
Ġvirt ue
ĠÙĨÙĪØ´ÛĮØ¯ ÙĨÛĮ
ĠÙģÛĮÙĦØ³ ÙĪÙģ
ĠØ¢Ø±Úĺ Ø§ÙĨØªÛĮÙĨ
Ġpeas ants
ĠØ¬ÙĦØ³ Ø§Øª
c ers
m ary
in stein
ĠÚ© ÙĪÙħ
Ø¨ ÙĤÛĮÙĩ
ĠØ¨Ø± ÙĤØ±Ø§Ø±ÛĮ
ĠØ¬ Ø²ÛĮ
Ø±ÛĮ Ø§
Ġse ctor
Ø¦ ÙĪØ³
Ġlo ver
ĠÚ¯Ø± Ø§ÛĮ
ĠCh ris
Ġgu itar
Ġtrans mission
ene z
Ġ196 7
ĠØ®ÙĦØ§ ÙĤÛĮØª
ĠÚĨØ§Ø± ÙĦÛĮ
ĠÙĪØ±Ø²Ø´ Ú¯Ø§Ùĩ
ĠØ¨Ø±Ú¯Ø² ÛĮØ¯Ùĩ
Ġune asy
ĠÙĦØ´ Ú©Ø±
ancho ly
ĠÙĪ ÙĨØ¯
it arian
Ġc osm
ĠØ² ØºØ§ÙĦ
Ġwe ary
ĠS ant
ist ical
Ø¨ÛĮ Ø§ÛĮÛĮØ¯
ĠG or
Ġv ideos
ĠU s
urn ing
Ú©ÙĪ ÚĨ
ĠØ¨ÙĨ Ø§ÛĮ
ĠØ®ÙĪØ§Ø¨ ÛĮØ¯
ĠØ¨Ú© Ø´ÙĨØ¯
Ġauth ors
Ġimm une
Val eriana
R ec
t ion
ÙĪ Ø§Ùħ
Øµ Ø±Ùģ
Ġwas h
ke l
Ġne at
ĠD anglars
ĠH and
ĠF reedom
Ø¨Ø± Ùĩ
ÙĪØ² ÙĪÙģ
Ġamong st
ĠØ¨Ø±Ø§Ø¯Ø± Ø§ÙĨ
ĠÙħØ§ÙĩÛĮ Ú¯ÛĮØ±ÛĮ
ĠØ¹ÛĮÙĨ Ú©
Ġoccasion ally
Ġflu id
ĠÚ©Ø§ÙħÙ¾ Ø§ÛĮÙĦ
à ¥
ĠÙħ ÙĩØ±Ùĩ
ĠÙĪ Ø±ÛĮ
Ġn erve
ĠØ¯ÛĮ Ø´Ø¨
ĠÙĨÙĪ Ùĩ
ĠÚ¯Ø° Ø§Ø±Ø§ÙĨ
Ġag ed
ip her
ÙĦÙĪ Ú©
Ġform at
Ġinst all
ĠØ§ÙĨØªØ® Ø§Ø¨ÛĮ
ĠØ¨ØªÙĪØ§ÙĨ ÛĮØ¯
ĠØ´ÙĨØ§Ø³ Ø¯
Ø§ÙĪÙĨ ÙĩØ§
ĠÙħØ¹ÙĨ Ø§Ø³Øª
Ġcontr ad
ĠÚĨØ± ÚĨ
Ġrecomm ended
ĠØŃØ´ Ø±Ø§Øª
ĠStep an
Ġrestaur ant
Ġcot ton
n el
ÙĦ Ø§Ø²Ùħ
Ġf rank
an th
ĠA c
ĠM IT
ĠØ¯Ø§Ø± ÙĪÛĮÛĮ
ĠG ar
ĠH on
ĠÙĨÙħ Ø§ÛĮÛĮ
Ø³Ø§ÙĨ Ø³
wh y
let on
ĠØ¨ÙħØ§ÙĨ Ùħ
ĠMed ia
Ġhop ing
mit ri
Ġmechan ism
ĠJack son
Ġweap on
Ġproport ion
h ire
l ist
Ġt ap
Ø´ ÙĪÛĮÛĮ
Ġf ab
ĠÙ¾ ÙħÙ¾
ÙĦÛĮ ÙĦÛĮ
ĠC orn
ÙĩØ± Ú¯Ø§Ùĩ
ĠJ a
ĠÙħØ¯ Ø§Ø±Ú©
So on
Ġexam ined
Ġmother s
Ġris ks
ĠØ¨Ø±Ú¯Ø±Ø¯ Ùħ
ĠØ¯Ø§Ùħ Ø¨ÙĦØ¯ÙĪØ±
ĠØ´Ø§Ø± ÙĦ
ĠØ¯ÛĮØ¬ÛĮØª Ø§ÙĦÛĮ
Ġobt ain
Ġnewsp apers
T C
ĠÙħ ÙĪØ§ÙĨ
as ped
Ġit ems
ĠØ· Ø±ÛĮ
Ġman ners
ĠÙħØ± Ø·
ĠØ¬Ùĩ ÙĨÙħ
ĠØ¢ÛĮ ÛĮÙĨ
ĠÙĪØ§ Ú¯ÙĨ
Ú©Ø±Ø¯ ÙĨÛĮ
Ġdifficult ies
ĠØ§Ø´Ú© Ø§ÙĦÛĮ
Ġpen et
ĠReg ion
Ġwra pped
" ),
C ont
ĠÚ© Ø§ÙģÙĩ
at oes
ĠÙħÛĮ Ø´ÛĮ
Øµ ØŃ
ĠØ¹ Ø³ÙĦ
ĠC R
ĠÙħØ§ Ú©Ø²ÛĮÙħ
lo oked
ĠK r
ĠØ¬Ùħ Ø¹Ùĩ
ĠÚĨÙĨØ¯ Ø§ÙĨÛĮ
Ġsc an
amp ed
uck y
ĠÙĨÚ©Ø±Ø¯ ÙĨØ¯
ĠÙħØ¤ Ø¯Ø¨
ĠØ®ØµÙĪØµÛĮ Ø§Øª
ĠØ·ÙĦØ§ ÙĤ
L A
ĠØ¨ÙĪØ¯ Ú©Ùĩ
ĠI V
ĠS audi
ĠÙħÙĪ Ø¨
ØºÛĮ ÛĮØ±
ik a
Ġstay ing
ÚĺÙĨ Ø±Ø§ÙĦ
Ø³ÙĪ ÙĦØ§
ĠÙĬ Ø§
ĠÙĪØ§Ø¨ Ø³ØªÚ¯ÛĮ
Ġin equ
ĠC ub
ĠÙģØ± ÙĤÛĮ
ment ed
act or
act ive
ĠØªÙĤ Ø¯ÛĮØ±
ĠØ§Ø¹ Ø¸Ùħ
ĠÚĨØ´Ùħ Ø§ÙĨÛĮ
Ġgl ory
ĠHar old
ĠÛ´Û µ
Ø´ÙĩØ± Ø³ØªØ§ÙĨ
8 8
M art
T w
Ø² Ø§ÙĤ
ĠÙĤ ØµØ±
ĠF rid
ĠÙħÙĤ Ø§ÙĦØ§Øª
Ġgr amm
ĠØ¯Ø±Ø¢ ÙĪØ±Ø¯Ùĩ
ĠØ¢Ø³ ÙħØ§ÙĨÛĮ
Ġconsider ation
Ġairport s
h in
Ø¨ ÙĦØ§ÙģØ§ØµÙĦÙĩ
ĠÙĪ Ø³ØªÙĨ
Ġh oney
if ies
ĠØ¢Ùħ Ø§Ø¯Ú¯ÛĮ
ĠÙħØ¬ ÙĦ
Ġevery day
Ġsc enes
ĠÚ¯ÛĮ Ø³
ĠØ§Ø® Ùħ
ĠÙħØ®Øª Øµ
ĠØ§Ø±ÙĪ Ù¾Ø§ÛĮ
ĠMod ern
L evin
ÛĮ Ø¹
Ú© Ø¯
Ġst are
Ø§ÙĤ Ø¶
ĠØ¨Ø§Ø² Ùĩ
ĠÙħØŃ Ø§Ø³Ø¨
ĠÙħØ¹ Øµ
ine a
ĠÙĩÛĮ Ù¾
ren cy
ĠCh ile
Ġdev oted
Ġclot hing
Ġadminist ration
Ġattract ed
ĠØ¨Ø³Ø§Ø² ÙĨØ¯
Ġsac red
Tr acy
ĠØ§Ú©ØªØ´ Ø§Ùģ
G erman
w alk
ĠØ¯ ÙĨØ¯
Ùģ Ø§ÙĦ
ĠØª Ø®ØµØµÛĮ
ĠØ³ ØªÙħ
Ø® ÙĪÙĨ
Ġbe aring
ĠÛĮÚ© Ø¨Ø§Ø±
Ġst ages
ĠØ®ÙĪ Ø²Ùĩ
od ing
ĠØ³Ø± ÚĨØ´ÙħÙĩ
ĠD aza
ĠN avy
ÙģØ± Ø¶
cc a
ĠÛ±Û¹Û ³Û°
ĠÙĨÛĮØ² Ùĩ
ĠØªØŃ ÙħÛĮÙĦ
Ġtr ace
oc ation
Ġpol ite
Ġfr ac
ĠÙĪØ§ Ú¯Ø°Ø§Ø±
ĠÙħÙĨØ¸ ÙĪÙħÙĩ
Ġcontin ually
ograph ical
ĠÛ±Û¹Û¹Û ³
Ġcross ing
Ġrequire ments
Ġmel ancholy
ĠØ³Ù¾Ø§Ø³ Ú¯Ø²Ø§Ø±Ùħ
Ġdynam ic
Ġgest ure
ĠICA O
ĠØ¯ ÙĨØ¯Ùĩ
ĠÚĨ Ø§Ø¨
ĠØ· Ø§ÙĤ
ĠL aur
ast ing
Ġno is
ĠÙ¾Ø³ Ø±Ùħ
ĠØ§ØªØ§ÙĤ Ø´
ĠØ§Ø·ÙĦØ§ Ø¹ÛĮ
Ġval id
Ġ197 2
ĠÙĨÙĪØ´Øª Ùħ
Ġ196 9
ĠÛ±Û³Û ¹Û
ustom ed
Ġconcept s
Ġdepth s
Ġaccur ate
ĠTay lor
ĠØ¯ÛĮÙ¾ ÙĦÙħ
r at
Ġ 00
ÙĨØ¯ ÛĮØ§
Ġto ss
ot ty
ke eper
ĠT a
ĠÚ¯Ø± ÙħÛĮ
ĠÚ©ÙĪ Ú©
ĠÙħØ´ ÙĪØ±Øª
ĠÙĨØ² ÙĨ
atch ing
ĠØ¨Ú¯Ø° Ø±Ø¯
Ġsuccess fully
Ġbur den
ĠÙģØ±Ø§ÙĨØ³ÙĪÛĮ Ø§ÙĨ
Un like
ÙħØ·Ùħ Ø¦ÙĨ
C D
S O
ĠØ§ Ø¨Ùĩ
Ġo ption
Ùģ ÙĨ
Ġn avig
ĠØ· ÙĦÙĪØ¹
ĠB enn
Ø§ÙĦÛĮ Ø³Ùħ
ĠK im
Ġoff ering
Ġlight ed
ĠØªØ§Ø¨ ÙĪØª
ĠØ´ÙĨØ§Ø³ Ø§ÙĨ
ĠØ¬ÙĪØ± Ø§Ø¨
ÙħÙĪÙĤ Ø¹
Ġabsor bed
ĠØ§Ø¹Ø· Ø§
ĠØ³ÙĪÙĨØ¯ Ø±Ø§
e z
ĠÙħ Ú¯Ø³
Ø§ÛĮ ÙĨØ¯ÛĮ
Ġp y
ent ine
ĠØ§ÙĨ ÙĤ
ĠØ¨ÛĮ Ø§Ø¨Ø§ÙĨ
ĠD atabase
ĠL ad
Ú©ÙĨ Ùĩ
ĠThe ory
ĠØ¨ÙĩØªØ± Ùĩ
cri bed
Ġstrugg ling
f ree
ĠÙħ ÙģØª
Ø´ Ø±ÙĪØ¹
Ġd ensity
ĠÛĮ Ø§ÙĦ
Ġn odes
ĠØ¹ Ú©Ø§Ø³ÛĮ
Ġan alog
ĠB ru
ĠØ§Ø´ Ø±Ø§Ùģ
ĠØªÙĨ ÙģØ±
ĠØ§Ùģ Ø³ÙĪÙĨ
igh ter
ĠØªØ¨ Ø³Ùħ
clud ing
ÙĨØ³ Ø®Ùĩ
Ġbreat he
ĠÙħÙĪØ± ÚĨÙĩ
ĠÙĦØº Øª
ĠÙħØ¹ØªÙĤØ¯ ÙĨØ¯
Ġhun ting
Ġinj ury
Ġdistingu ished
ĠColumb ia
4 6
M on
t ailed
he nt
Ø´ Ú©ÙĦ
Ġd ad
ĠÙģ ÙĪØ±
se en
ĠS on
ĠØ®ÙĪØ¯ ÛĮ
un ted
ĠD ol
ĠL anguage
ĠN ight
Ġle ather
ĠK enn
ĠÙĨÙģØ± Ùĩ
Ġinter action
ĠØ¯Ø§ÙĨØ³Øª ÙĨ
ĠÙħÙĨØª ÙĤ
ĠÛ´ Û°Û°
ĠCon stitution
ĠØªØ³ Ø®ÛĮØ±
ĠØ¯ÛĮÙĪØ§Ø± ÙĩØ§
Ġang el
ĠJohn son
asc al
Ġhy per
ĠØ±Ø¨Ø· ÛĮ
M er
l Ä±
ut y
ĠÙĦ Ø²
ĠØªÙĪ Ø·Ø¦Ùĩ
ĠH ol
ell ow
ĠV ill
Ġcons idering
ĠØŃØ³ Ø§Ø¯Øª
ĠØªØ¨ Ø§Ø¯ÙĦ
Ġcomput ing
Ġfree ly
co at
ĠArab s
Ø´ÙĨØ§Ø³ Ø§ÙĨ
ĠMed ic
Ġneare st
Û ³Û
Ø¯ Ø§Ø±ØªÛĮÙĨ
it ating
an ian
ĠÙ¾ Ø°ÛĮØ±Ø¯
Ø§Ø² ÛĮÙħ
Ġr ic
ĠØµØ¯ Ø§ÙĩØ§
Ġnecess ity
ĠAm az
Ġmid night
ĠÙĪØŃØ´ÛĮ Ø§ÙĨÙĩ
ĠTrans port
Ġdrag ged
ĠVirgin ia
Ġsimult aneously
w ent
w ord
ĠØ¨ Ø®ØµÙĪØµ
Ø§Ùħ ÛĮÚ©
ĠØ¬ Ø§Ø±ÙĪ
et on
ĠØªØ§ Ø®Øª
ÙĦÙĩ ÙĪÛĮÙĨ
ell i
Ø§Ú© Ø«Ø±
ĠÙħÛĮÙĦ Ø§Ø¯
Ġloc ations
ĠÙ¾ÙĪ Ø³ØªÛĮ
Ġsubst ant
Ġreject ed
ĠÙĦØ·ÛĮ Ùģ
uten ant
I X
v as
Ø§ Ø«Ø±
ÙĨØ¯ ÙĪ
Ġp itch
Ø¹ Ø¬Ø¨
Ø° ÙĦ
ĠÙħÙĪ Ø§Ø²ÛĮ
Ø¨Ø§ Ø´
ĠØ§Ø¬ Ø²Ø§ÛĮ
Ġret ire
ĠØ®ÙĪØ±Ø¯ Ùħ
Ġread er
ĠØ¹Ø´ ÙĤÛĮ
ĠØ®ÙĪÛĮØ´ Ø§ÙĪ
ĠÙĪØ¨ ÙĦØ§Ú¯
ĠÙģÛĮ ÙģØ§
ĠØ¨Ø±Ø®Ø§Ø³Øª Ùĩ
Ġpull ing
ĠÙĥÙĨ ÙĨØ¯
ĠÙħÛĮØ®ÙĪ Ø§Ùħ
ĠDire ctor
G ive
i ography
Ø³ ÙĦØ§Ùħ
Ù¾ Ø²ÛĮ
Ø¬ ÙĪØ±ÛĮ
Ġbe er
st ate
ĠØŃ ÙĪÙħÙĩ
ĠÚ©ÙĨ Ø³
ĠC ad
ĠØ¨ÛĮ ÙĪÙĩ
ĠÙĩØ± Ú©Ø¯Ø§Ùħ
Ġro pe
Ġro les
ĠÙ ¡
cl ass
ÙĪØ±Øª ÙħÙĩ
ĠÚ¯ÛĮ ÙĦØ§Ø³
ĠÛĮØ§ÙģØª Ùħ
Ġfun eral
Ġsix ty
ĠÛ±Û¹Û¸Û ¹
ĠØ§ÙĪÙĦÛĮ ÙĪÛĮÙĩ
Ġdelic ate
Mad ame
Ġridic ulous
Ġille gal
P oor
o ons
Ùħ Ø§ÛĮÛĮØ¯
ĠÚ© ÙĪÙĨ
Ùģ ÛĮÙĨ
Ġf oss
or ph
ĠØ¯Ø± Ø¨Ø±
Ġto ile
ĠØ³ ÙĨÛĮ
Ġl ou
ll y
Ġbe gged
ter y
um a
Ġsh aped
ĠÙ¾Ø± Ø³Ùĩ
ĠØ³Ø§Ø®Øª Ú¯ÛĮ
Ġele g
ĠArch itect
Ġtal ent
ĠComput er
P art
e av
h ran
Ø± Ø§Ø²
ĠÙĨ Ø§ÙĨÙĪ
Ġf iction
Ø§Ø¯ ÙĪØ±
ÛĮÙħ Ùĩ
ĠA D
Ø§Ø³ Ù¾
Ġprof it
ĠBr idge
Ġident ical
ĠØ±Ø³Ø§ÙĨØ¯ ÙĨ
ĠØªÙĦØ³ Ú©ÙĪÙ¾
h an
Ã º
or f
Ø¬ ÛĮÙħÛĮ
ĠØŃ ÙĤÙĩ
ĠØ§ÙĨ Ø²
ig ious
Ġim plic
Ġag ents
ĠÚ©Ùħ Ø±Ø¨
Ġreg ional
ĠÙħØªØŃ Ø±Ú©
Ġ6 4
Ġpain ter
ĠÙĤØ±Ø¨Ø§ÙĨÛĮ Ø§ÙĨ
Ġinstrum ents
ĠÙģØª ØŃ
ĠÙħØ¹Ø° Ø±Øª
ĠMove ment
ĠSci ences
Ø´ Ø§ÙĨÛĮ
ĠS ong
Ø´Ø§ÙĨ Ø¯
Ġdis pl
ĠØªÙĤ Ø¯ÛĮÙħ
ĠÙĦÙĪ Ø³ÛĮ
Ġmanufact uring
ĠÙħÙĨØµ ÙĪØ¨
Ø¯Ø§ÙĨØ´ Ú¯Ø§Ùĩ
ĠØ®ÙĪÙĨØ³ Ø±Ø¯ÛĮ
Ġd iver
ĠÙĤ ÙģØ³
Ø¢ Ø²
ig ma
ĠT op
ĠÙħØª ÙĤØ§Ø¨ÙĦ
cl ing
ĠÙĨÙĤ ÙĦÛĮÙĩ
Ġpers ist
ÙħØ¯ Ø§ÙĨ
ĠØ§ÙĨØ¯Ø§Ø®Øª Ùħ
Ġsupport ing
Ġmeet ings
ĠYou ng
ĠCent re
ĠØ§ÙĪÙĦÛĮ ÙĪØ±
Ġther mal
C o
Ø´ ÛĮØ¯Ùĩ
Ġb inary
ĠÙģ Ø§Ø³
ĠØ² ÙĪØ²Ùĩ
ĠÙĤ Ø´ÙĨÚ¯ÛĮ
ØªÛĮ ÙĪ
ol ay
ĠØ§ÙĦ Ú©ÙĦ
ĠÙĨÙħ Ø±Ùĩ
ĠØ³Ø§Ø®Øª Ø§Ø±ÛĮ
Ġ3 6
Ġmov ies
ĠØ¯Ø¹ ÙĪØ§
ĠØ§ÙĨØªØ´Ø§Ø± Ø§Øª
ĠØ¹Ø±ÙĪ Ø³
Ġremark ed
ĠIraq i
ĠØ¨ÙĪÙĦ Ø³Øª
ĠÙĩÙħØ¯ Ø±Ø¯ÛĮ
2 000
A V
c al
w r
Ù¾ ÛĮØ´Ùĩ
ot r
ĠØ¹ Ø·Ø±
ĠÙĦ Ø®Øª
Ø§ÛĮÙĨ Ùĩ
Ġcomp osition
ĠÙħØ¬ Ø²Ø§
Ġsl ip
Ġprodu ces
ĠØ±ÙĪØ¯ Ùĩ
Ġed ges
Ġpartic le
ĠØ³Ù¾ ÛĮØ¯
ĠÙģÛĮ ÙĪØ¯ÙĪØ±
ĠØ¢Ø´Ú©Ø§Ø± Ø§
ĠÚ¯ÙĪÙĨØ§ Ú¯ÙĪÙĨÛĮ
Ġtransfer red
Ġwithd raw
ĠAzerbai jan
ĠCorpor ation
O ld
W est
Ú© ÙĪØª
ĠØ® Ø§ÙĨØ¯Ø§ÙĨ
ĠM ans
ĠR em
ĠH al
ĠF rom
ĠÙĦØ¨ ÙĨØ§ÙĨ
ĠÙĩÙģØª Ø§Ø¯
ĠÙħØ³ÙĦ Ø·
Ġthreat ened
rig ory
Ġru in
ĠÙħØ²Ø§ØŃ Ùħ
f are
ol k
ĠØ¯ÙĪ ÙħÛĮ
He y
ĠÙ¾Ø± ÙĪØ§ÙĨÙĩ
ĠÙĨØ¯Ø§Ø´Øª ÛĮÙħ
Ġreg ime
Ġgu ards
Ġbusiness es
eral d
ĠØ¨Ø±Ú¯Ø±Ø¯ ÛĮÙħ
Ġaddress ing
ĠØ´ÙĩØ±ÙĪ ÙĨØ¯
ois elle
Ġsuspic ion
0 2
S D
T M
m ist
ĠØ¯ÛĮ Ø³Ú©
ĠR ing
ĠR et
ĠØ¯Ø§ÙĨ ØªØ³
Ġ3 3
ĠØ®ÙĪØ´ Ú¯ÙĦ
ĠØ¹Øµ Ø¨
ĠÙ¾ÙĪ Ø³ØªÙĩ
ĠØ¯Ùģ Ø¹
ĠØ¨Ø®ÙĪØ§Ùĩ ÛĮÙħ
ĠÙħÙĪÙĦ Ú©ÙĪÙĦÛĮ
ĠÙĦØº Ø²
ĠØ±Ø§ÙĩÙĨÙħ Ø§ÛĮ
ĠÚ¯ÙĪØ³ ÙģÙĨØ¯
ĠStand ard
ĠØ¢ØªÙĦØ§ÙĨ ØªØ§
ĠÙħØ±Ø· ÙĪØ¨
D ana
S C
u ros
Ø§ Úĺ
ĠÚ© ÙħØ§ÙĨ
Ġd arling
ot ted
ĠØ´Ø¯ ÛĮØ¯Ø§
ĠÙħÙĪ ÙĩØ§ÛĮØ´
Ø¢ ÙħÛĮØ²ÛĮ
ĠØªØ± ÙĪÛĮØ¬
ĠT ower
Ġch im
Ø´Ø§ÙĨ ÙĪÙĨ
iv en
ĠÙħØ¹ Ø¨Ø¯
ÙĬ ÙĬ
ĠØªÙĨ Ø¨ÛĮÙĩ
ĠØ®ÙĪØ´ Ø§ÛĮÙĨØ¯
ĠØ° Ø§ØªÛĮ
Ġass ume
Ġappe al
ĠComm on
Ġground s
Ġintrodu ce
Ġdefe at
ĠØ´ØªØ§Ø¨ Ø§ÙĨ
ĠBab a
ĠØ¯Ø§ Ø«Ø§
ĠSpe cial
ĠÙģÙĪÙĦ Ø§Ø¯
f ound
Ùħ Ø®
Ġt ourn
in te
Ġm ask
Ġp ier
Ġde ck
ĠØ³Ø± Ø¹ØªÛĮ
Ġv it
ĠØ²ÛĮ Ø±Ø¯
ĠØ¢Ø± Ú©
ÙģÙĩ ÙĪÙħ
ĠÙ¾ÙĨÙĩ Ø§ÙĨÛĮ
ĠAust ria
ĠÙħØ¨Ø§Ø± Ø²
ĠØ®Ø§ÙħÙĪØ´ ÛĮ
Ġge omet
Ġfarm ers
Ġestablish ment
ĠØºØ¶ Ø¨
Ú© ÙĨØ¯Ùĩ
Ø´ ÙĤ
ĠÙħÛĮ Ø´ÙĨ
Ġd rank
ĠØ· ÙĨØ²
Ø¢ Ø²Ùħ
ĠÙħØª Ø¯Ø§ÙĪÙĦ
ĠW ales
ĠØ¨ÙĦ Øº
ĠY eah
Ġcol ored
Ġstop ping
Ġprot ocol
ĠØ¯Ø§ÙĨÙħ Ø§Ø±Ú©
Ġrepl ace
ĠEd ition
Ġconvers ations
ĠEn ter
ĠÙ¾ÙĨØ§Ùĩ ÙĨØ¯Ú¯Ø§ÙĨ
Ġdistingu ish
ĠEconom ic
ĠØ³ÙĪØ§ ØŃÙĦ
ĠÙħØŃØ§Ø³Ø¨ Ø§ØªÛĮ
ĠâĢ ĺ
ĠÙĨ ÙħØ§ÙĨØ¯
Ġc ort
as hes
Ġst ores
ĠS ony
Ġli kes
ĠG irl
ÙĩØ§ÛĮ Øª
ran e
ÛĮÙĦ ÙĨØ¯
Ġcl oth
Ġper mitted
ĠÚ¯Ø±Ø¯ ÙĨØ´
Ġmat rix
Ġmon ster
Ġfew er
ĠØ³Ùģ ÛĮØ±
Ġ6 5
Ġlist ed
ĠArab ia
uz ov
Ġcompl ain
ĠØ¨ÛĮØ§ÙĪØ± ÛĮØ¯
ĠCas aubon
Ġrom antic
or ters
Ġl ift
ĠÚ¯ ÙĢ
ist a
Ġint end
ĠJ amie
ĠØ®Ø· Ø±ÛĮ
ØŃØ§ÙĦ Øª
Ġexp anded
ĠSp ring
Ú©Ø±ÛĮ Ø³
ĠBer anabus
Ġinj ured
Ø¯Ø§Ø® ÙĦ
ĠDef ense
ĠØ¬Ø§Ø³Øª ÛĮÙĨ
Ġimpr ison
ĠØ§Ø´ØªØ¨ Ø§ÙĩÛĮ
re ction
ĠÙĪ Ùĩ
Ġh orn
Ġp ushing
Ġp ardon
Ġg ardens
th ought
ĠÚ©Ø§Ø± Ø¢ÙħØ¯
ĠF yodor
ĠE very
ĠÙħØ±Ø¯ Ø§ÙĨÛĮ
ĠPh ot
Ġresult ed
Ġcult ures
200 5
ĠØ¨ÙĨÙĪÛĮØ³ Ø¯
ĠØ§Ø¯Ø¹ Ø§ÛĮ
Ġacknow led
ĠØªÙĦÚ¯Ø± Ø§Ùģ
Ġcorrid or
N obody
ĠØ¢ Ø¦ÙĪØ±ÙĦÛĮØ§ÙĨÙĪ
ĠÙĩØ§ÛĮ Øª
ĠØ¨ÛĮ ØªÛĮ
ĠÙĦ Ø§Ø¨Ø¯
em oiselle
ĠØ§Ùħ Ø³Ø§ÙĦ
ost on
ĠØ¯ÙĦ Ø®ÙĪØ§Ùĩ
ades h
Ġswe at
Ġcrowd ed
Ġprint ed
Ġunivers ities
ĠCat al
h t
Ġo d
ĠØ® Ø±Ú¯ÙĪØ´
gh ter
ct ic
ĠA ff
ĠP enn
Ġen gin
ĠV as
ĠØ³Ø§Ø®Øª ÙħØ§ÙĨÛĮ
Ġsl a
Ġgu est
ĠØªÙģ Ø§ÙĪØªÛĮ
Ġmus cles
Ġmark s
Ġbar rier
Ġprop ag
Ġcivil ization
Ġdut ies
ĠØ§ÙĦÚ©ØªØ±ÙĪÙĨ ÛĮÚ©
Ġassist ant
ĠBus iness
9 5
ĠÙħ ÙĩÛĮ
Ø¨ Ø§Ø³
ĠØŃ Ø¨Ø§Ø¨
ĠA tt
ch i
ĠM ouse
ĠL o
ĠØ§Ø³ ÙħÛĮ
ĠÙĨØ´ Ø³ØªÙħ
ĠØ¢Ø¨ Ø¬ÙĪ
Ġins ist
ĠØ§Ø¨ Ø±ÙĪ
ĠØªØ±Ø³ ÛĮÙħ
Ġ197 7
ĠPet rov
}} }
Ġengine ers
ĠØ·ÙĦ Ø³Ùħ
Ġcollect ive
Ġpal m
Ġpros per
ÙħÙĪÙĤ Ø¹ÛĮ
ĠRad io
Ġfant astic
ĠØ§Ø¹ÙĦ Ø§ÙħÛĮÙĩ
f le
Ġh ook
st ers
ĠÙģ ÙĪÙĨ
ĠÙĩÙħ Ø©
ri ers
Ġcon j
ĠÙ¾Ø± Ø³Ùħ
pt ions
ĠÙ¾Ø³ Ø±ÛĮ
Ġbr ut
na pped
ĠØ®ÙĪØ§Ø¨ Ú¯Ø§Ùĩ
Ġreturn s
ĠØ¹Ø± ØµÙĩ
Ġland scape
ĠComm unity
ĠÙĩØ´Øª Ø§Ø¯
Ġdepend ent
ĠØ¯Ø´ÙħÙĨ Ø§ÙĨ
ĠØ¬Ø§ÛĮÚ¯Ø² ÛĮÙĨÛĮ
ĠÚ©Ø§Ø±Ùħ ÙĨØ¯Ø§ÙĨ
ĠÚ¯Ø°Ø±Ø§ÙĨ Ø¯Ùĩ
Ù¾Ø±ÙĪÙģ Ø³ÙĪØ±
Ġc raft
ÙĪØ± ÙĩØ§
ad ow
od s
ØªØ± Ø§ÙĨÙĩ
ĠH an
ie v
ĠN ev
Ú©Ø± Ø§ÛĮÙĨ
ĠK al
ĠSt one
Ġact ed
Ġform ing
Ġreg ister
Ġinf rastructure
ĠÙĦÙĪ ØŃ
ĠØ±ÙģØªØ§Ø± ÙĩØ§ÛĮ
Ġalong side
Ġphys ically
ĠØ±Ø§ÙĨ Ø¯Ùĩ
Ġdress ing
Ġconsum er
ĠGovern or
ĠÙĨØ±ÙĪ Úĺ
8 7
C ar
d s
w ill
Ġa rose
Ġm art
ĠÚĨ Ø·ÙĪØ±ÛĮ
ĠI l
il ation
ĠÚ¯ÙģØª ÛĮØ¯
Ġint r
ĠØ³ÛĮ Ø³ØªÙħÛĮ
ĠØ±ÛĮ ÙĪ
Ġir re
Ġvan ished
ĠÙħÙĤØ¯Ùħ Ùĩ
ĠÙħØ®Ø§Ø· Ø¨
Ġphotograph s
Ġswim ming
ĠÙħØµÛĮ Ø¨Øª
ĠÙħØ§ÛĮÚ©Ø±ÙĪ Ø³Ø§ÙģØª
ĠØºÛĮØ±Ø¹ Ø§Ø¯ÛĮ
ï º
ĠØ¨ ÙģÙĩ
Ø¨ Ø§ÛĮÛĮ
ĠÙĨ Ø±ÙģØª
Ġl ists
ĠÙģ ÙĪØ±Ø¯
ro oms
ab ul
ĠG ene
ĠØ³Ø§ÙĦ ÙĩØ§
ĠF alls
ĠØ¨ÛĮÙĨ Ø§ÛĮÛĮ
ÙĪØª ÛĮÙĨ
Ġass ass
ĠØªØ§Ø±ÛĮØ® ÚĨÙĩ
ĠØ¶Ø± Ø±
Ġperiod s
ĠØºÙĦ Øª
Ġgaz ing
Ġinqu ired
Ġmole cular
Never theless
Ġcateg ory
C omp
c ule
Ø³Øª ÙĨØ¯
Ġh id
Ø§Ø¯ Ùģ
ĠÚ¯ Ø§ÙĨÙĩ
ĠÛĮ ÙĪØªÛĮ
ĠÙĤ ÙĪÙĩ
Ġst o
ĠÙĦ ÙĤ
Ø¢ ÙĨØ¯
ĠT reat
ÙĬ ÙĤ
ĠV is
Ġcl ut
Ġrec alled
ere r
Ø§Ø¨Øª Ø¯Ø§
Ġconc rete
Ġearth qu
Ġcommunic ations
ĠÚ©ÛĮÙĦÙĪÙħ ØªØ±ÛĮ
Ø¯ÙĦ Ø´
Ġguess ed
ĠØªØ¸Ø§Ùĩ Ø±Ø§Øª
Ġbatter y
ĠColomb ia
enez uel
E ng
Ġt ale
it led
ĠØ¨ÛĮ Ø§ÙĨÛĮÙĩ
ag ic
ĠØ§Ø´ Ø¹Ø§Ø±
ĠV ic
ĠØ´ÙĨ ÙĪØ¯
ĠÚ©Ø§ÙĦ Ø§
Ġglo omy
Ġsoul s
Ġprep are
Ġconv iction
ĠØ¹Ùģ ÙĪ
rep rene
ĠÙħØ°Ø§ Ú©Ø±Ø§Øª
Ġengin es
p an
x ual
is al
ĠØ³ ÙģØª
Ġd iversity
ĠØ±ÙĪ Ø¨Ø±
ĠT ar
Ġcl erk
Ġbr ow
ĠØ¬ÙĨ Ø§Ø²Ùĩ
Ġsc ent
ĠØ¢Ø± ÙĨØ¬
ĠØ§ÙĨØ³Ø§ÙĨ ÙĩØ§
Ø±Ø³ ÙĪÙĨ
ĠÙĨÚ¯Ø± ÙģØª
200 4
Ġsqu ee
ipp in
ID S
ĠØ¬Ø²ÛĮ ÛĮ
h ov
u ine
Ġf estival
ĠØ³ Ú©Ø³
Ġd well
Ġg a
ĠÙĤ Ø±Ø§
Ø¶ Ùħ
Ø¢ Øª
Ġro lling
Ġres umed
Ú©Ø³ Ø§ÙĨÛĮ
Ġnew ly
Ġstran gers
Ġbox es
ĠÙħÙĪØ³ Ø³Ø§Øª
ÙħØ· Ø§ÙĦ
ĠÚĨÙĨÚ¯ Ø§ÙĦ
Ġconce al
Ġloud ly
ĠÙģØ±Ø³ ÙĪØ¯Ùĩ
ĠØŃØ³Ø§Ø³ÛĮ Øª
ilib rium
Ø± Ø¹
Ø¯ Ø§Øª
Ġs ale
ĠØª Ø§ÛĮÙĦ
Ġsh apes
ĠL ight
ven ue
ĠØ¹Ùħ Ø±Ùħ
old s
gg otty
Ġperson ally
ĠÚĨØ±Ø® Ø§ÙĨØ¯
ĠÙĨÚ©ÙĨ ÙĨØ¯
Ġfunction al
Ġinit i
Ġdiscuss ed
Ú©Ø§Ùħ ÙĦØ§
ĠÙĨÙĪØ§Ø®Øª ÙĨ
Ġexha usted
P res
Ùħ ÙħÙĨ
Ġf ires
Ġhe d
ut uzov
ĠB urg
Ġus age
ÙĢ ÙĢ
Ġ3 7
Ġmat ches
ĠÙħØ±Ú¯ Ø´
Ġsecret s
ĠØ§Ø®ØªØµ Ø§Ø±
Ġpock ets
Ġencour age
Ġbehavi our
C ertain
H R
W orld
h ave
u ation
Ú© ÙĦØ§
ĠØ¨ Ø³Ø§
Ú¯ Ø§ØªÛĮ
Ġh oly
ĠÚ¯ Ø²Ø§Ø±
ac ement
ch ange
nt il
au c
ĠØ¨Ø¯ ÛĮØ¯
Ġbr id
ĠÙħØº Ø²Ø´
Ġconf ront
Ġequ ality
ĠÙģÙĦØ³ ÙģÛĮ
Ġvari ables
ĠSen ate
Ġlat est
ĠØ§Ø±Ú© Ø³ØªØ±
F ather
l ers
Ùĩ Ø²Ø§Ø±
Øª Ø§ÛĮ
ĠâĢ ²
ĠØ¯ ÙĦØ§
Ġl ap
Ġn ig
ĠØ¨Ø± Ø§ÙĤ
Ġre cept
am my
ĠA ureliano
ĠM it
ĠM ore
il ton
Ø±Ø§ Ø¶ÛĮ
ul us
ĠØ³Ø± ÙģÙĩ
ĠG ran
ĠD ana
Ġen h
Ġatt ach
Ù¾ÛĮ ÙĪÙĨØ¯
Ġend ing
ĠØ´Ùĩ Ø§Ø¯Øª
Ġperson ality
ĠØ¨ÙĪ Ú©
Ġland ing
ĠÙħØ´Ø®Øµ Ø§Øª
ĠÙĤØ¶ Ø§ÛĮÛĮ
ĠDor othy
ĠFed eration
Im agine
ÙĦ Ø§ÛĮ
ĠÙĩ Ø¯Ø±
ĠÙĩ Ø§Ø±Øª
ĠØ´ ÛĮÙħ
ĠÙħÛĮ Ú¯Ùĩ
Ġbe am
ĠC ensus
ĠÙĦ Ø§ÙĨÙĩ
ĠØ±ÙĪØ² Ø§ÙħÙĪÙĨØ¯
Ġqu it
Ġcount enance
ĠÚ©Ø§Ùħ ÙĦÛĮ
Ġmet aph
ĠÙ¾ÙĪØ´ ÛĮØ¯ÙĨ
ĠØªØ³ Ú©ÛĮÙĨ
ĠÛ³Û ²
ĠÙĤÛĮÙħ ØªÛĮ
Ġrepresent ation
ĠÚ©Ø§Ø±Ø¨Ø±Ø¯ ÙĩØ§ÛĮ
Ġcover ing
ĠIm per
ĠMat hemat
ĠÙħÛĮØ®ÙĪ Ø§Ø¯
Ø¢ÙģØ± ÛĮÙĨ
Ġunple asant
F rank
er ies
Ġh ollow
Ġto b
Ġp ond
ĠØ§Ø³Øª ØŃ
ĠØªÙĪ ÙĩÙħ
ĠØ¨Ø§Ø´ Ú©ÙĪÙĩ
ĠH osp
ĠØ±ÙĪÛĮ Ùĩ
Ġfl our
ĠÙ¾Ø§ ÙĪÙĦÙĪ
ror ism
ĠÙħÛĮØ¯Ø§ÙĨ Ùħ
ĠØ§Ø« ÙĨØ§
Ġthr owing
Ú©ÛĮÙĨ Ø²
ÛĮÙĨÙĪ Ú©Ø³
Ġparticip ants
ĠØ¬ÙĪÙĨ Ø²
More over
Ġcheer ful
ĠÙĨØµÛĮ Ø¨
" ).
S L
ã Ģ
Ø§ÛĮ Ø§Øª
ĠØ´ ÛĮÙĦÛĮ
ĠØ¬ ÙĨØ¬
ol is
Ġse ed
ĠØ¯Ø§Ø± ÙĪÛĮ
ie val
ĠØ¨Ø¯ ÙĨÙĩ
oc a
ĠÙħÚ© Ø§ÙĦÙħÙĩ
Ġgovern or
ĠØ¨Ø´ÙĨ ÙĪÙħ
ĠÛĮØ§ÙĨ Ú©ÛĮ
imens ional
U R
b f
h r
t ic
v ation
Ġw oke
ĠØ¬ Ø±Ø§ØŃ
ĠI T
ol i
ĠØ¨ÛĮ Ø§Ø¨Ø¯
Ġab und
ĠØ§Ùħ ÙĪØ§ÙĦ
ĠJ e
Ġman ip
ĠÙħØ±Ø¯ ÙĨ
ĠØ³Ø§Ø®Øª Ø§Ø±ÙĩØ§ÛĮ
iver ing
ĠÙħÙĩØ§Ø¬Ø± Ø§ÙĨ
ĠÙĪØ±Ø² ÛĮØ¯
ĠØ¨ÙģØ± ÙħØ§ÛĮÛĮØ¯
Ġdesert ed
Ġcontem porary
Ġtort ure
ĠÙģØ± Ø´
Ġco ck
ĠØ§ÙĨØ¬Ø§Ùħ ÛĮØ¯
ĠÚ©Ø± Ø§ÛĮÙĩ
ĠÙħØ¹Ø¯ ÙĨÛĮ
ĠØºÛĮ Ø¨Øª
Ġconcent ration
Ġsynd rome
A B
à ¦
ÙĪ Ø¨Øª
Ġc ust
ĠØ¨Ø± Ø·Ø±Ùģ
ĠS ound
ĠD aniel
Úĺ ÙĪÙĦ
ĠÙĨÛĮ Ø³
land o
Ø§Ù¾ ÙĪØ±
Ġcur ve
ĠIs ab
ĠØ´ÙĪØ± Ø´ÛĮ
ĠÙĦÙĩ Ø³ØªØ§ÙĨÛĮ
Ġking dom
ĠÙħÙĨØŃ ÙĨÛĮ
ĠØªØ² Ø±ÛĮÙĤ
4 2
g ence
Ġ ×
Ġm amm
ĠØ¢ Ø±Ùĩ
ĠØ³ Ø³Øª
ĠÚĨ Ø§ÙĦÙĩ
ĠK n
ĠÙħØ³ Ø¬Ø¯
ÙĦØ¨ Ø®ÙĨØ¯
ĠÙģÙĩÙħ ÛĮØ¯ÙĨ
Ġabs ent
Ġperform ing
ĠØ¹Ø¯ Ø¯ÛĮ
ĠØ®ÙĨØ¯ ÛĮØ¯ÙĨØ¯
ĠØ¨Ùħ ÛĮØ±
ĠØ±ÙĪØ§ÙĨ Ø´ÙĨØ§Ø³ÛĮ
Ġfeat ured
Ġmechan ics
ĠÙ¾Ø§ÛĮØ¯ Ø§Ø±ÛĮ
ĠÙħØ·ÙĦ Ø¨ÛĮ
Ġwid ow
Ġproced ure
S u
c ulation
s ur
Ø¯ ÛĮÙħÛĮØªØ±ÛĮ
Ġt urb
Ø§ÛĮ Ø³Øª
ĠØ³ ØªÛĮ
Ġd io
Ġhe nce
ĠØ¬ Ø§Ø¨Ùĩ
ĠÙĤ ÙĪÙħÛĮ
ĠÛĮÚ© ÙĨÙĪØ§Ø®Øª
ur us
Ġst em
ĠÙĦ Ø§Ø±
ĠØ¯ÙĪ Ø³ØªÙħ
ell ed
per haps
ĠO ver
ĠØ¯ÛĮØ¯ Ú¯Ø§ÙĨ
ĠÙĥ ÙĨØ¯
ĠØ§Ø¹Øª Ø¨Ø§Ø±ÛĮ
ĠÙħÙĪØ¶ Ø¹
ĠØ´ÛĮ Ø¨
ÙĪØ³Øª ÙĪÙĨ
ĠÙĨÙĪØ± ÙĪÙĨ
Ġsun light
Ġlab our
ĠØ¢Ø¯ Ø§Ø¨
Ġcogn itive
ĠØ³Ø¦ ÙĪØ§ÙĦ
p read
re ated
ĠØĮ "
ĠØ¢ Ú¯ÙĩÛĮ
ĠØ±Ø§ Ø´
Ġl un
Ġg own
am an
ĠØ¯Ø§Ø± Ø§
ĠØªØ± ØŃÙħ
ĠD mitri
Ġj e
ass an
ĠÙħØ¬ Ø§ÙĦ
ĠÚ©ÙĪÚĨ ÙĪÙĦ
Ġcr ash
ĠØªØ£ Ø³Ùģ
ĠØ¯Ø±ÛĮØ§ ÙģØªÙĩ
ĠØ±ÙĨÚ¯ ÛĮÙĨ
Ø¹Ø§ Ø¹
ÙĪØ¨ÛĮ Øª
ĠØ¨Ø§Ø²Ú¯ Ø´ØªÙĩ
ĠÛ±Û¸Û ·Û
Ġstri king
ĠÙĨÙĪØ´ ÛĮØ¯ÙĨ
ĠØ§ÙħØª ÙĨØ§Ø¹
ĠØ§Ø³ØªØ« ÙĨØ§
ĠPalest inian
Ġshar ply
Char les
l av
z i
ĠÙħ ÙĪØ¯
it ched
ĠÙģ Ø§ÙĦ
lo ok
ĠÙĨØ§Ùħ ÙĨØ¯
ĠØ§ØŃ Ø²Ø§Ø¨
ĠØ¨Ø§Ø²ÛĮ Ú¯Ø±Ø§ÙĨ
ĠÚ©Ø´ÙĪØ± ÙĩØ§ÛĮÛĮ
Ġend eav
gr aph
Ġsince re
Ġexper ts
de f
pend ed
Ø®ØµÙĪØµ Ø§
With in
ĠÛ±Û¹Û¸Û ´
ĠØ§Ø³ØªÙĪØ¯ÛĮ ÙĪ
Ġgrat itude
ĠØºØ§ÙģÙĦ Ú¯ÛĮØ±
ĠÙħØ¬Ùĩ Ø²
A f
Ġt ip
Ú© Ø§ÛĮ
it ual
Ġm ock
Ġl in
ĠÙĤ ÙĨØ¯
ul pt
ĠÚ©Ø§Ø± ÙĪÙĦÛĮÙĨ
ĠT it
ard o
ĠF ront
Ġint imate
Ġag ony
cl aimed
Ġ3 8
ĠØ³Øª Ø§Ø¯
Ø¬Ùħ ÙĦÙĩ
ĠÛ±Û¹Û´Û µ
Ġcoun sel
Ġagree able
ĠÙħØ³ÛĮØŃ ÛĮØª
Ġhar vest
Ġcab in
ĠØ´ÙĩØ±Ø¯ Ø§Ø±ÛĮ
Ġoccas ions
g on
ĠÙ¾ Ø´Ùĩ
ĠØ¨Ø§ Ø®ØªÙĩ
ĠÚ©ÙĨ ØªØ³
ĠA my
Ø¶ Ø±
ĠB ible
ge red
ĠØ§ÙĦ ÙĤØ§
ĠÙ¾ÛĮØ´ Ø®Ø¯ÙħØª
ÙĪÙĩ Ø§ÛĮÛĮ
Ġem ail
Ġass igned
Ġsix th
Ġrad ical
ĠÙĨØ§Ø® Ø§ÙĦ
Ġpan ic
Ġther apy
Ġbeat en
Ġexecut ive
Ġque er
Ġdisag ree
onom ous
6 8
h im
ĠÙħ Ø¸
ĠÙĪ Ø±Ø¯
ĠØ´ ÛĮØ§Ø·ÛĮÙĨ
Ø³ÛĮ Ùĩ
ĠA P
Ú¯Ø± ÙĩØ§ÛĮ
ÙĦØ§ Ø·
Ġj u
ĠThe atre
Ġprep aring
ĠØ³ÙĪØ¦ Ø¯ÛĮ
Ġlabor atory
Ġcelebr ated
ĠÚ©ÙĪØ¨ ÛĮØ¯
Ed ward
Ġgather ing
B el
Ø§ Ø¸Ø±
ÛĮ ÙĪØ±
Øª ØºÛĮÛĮØ±
or ious
ĠØ³Ø± ÙĨÚ¯
Ġag encies
ĠÛ±Û¹Û ²Û°
ild a
ĠUn ivers
ĠAr m
ides pread
ĠÙħØ² Ø®
ĠÙģÛĮ Ø³
ĠØ³Ø§ÙĨ Ú©ÙĪ
Ġfat al
ĠØ´Ùģ ÙĤØª
Ġattract ive
ĠSystem s
Ġstro ke
ĠØ§ÙĦÚ¯ÙĪ ÙĩØ§ÛĮ
Up on
Bet ween
¯ į
Ð ´
Ø¨ ÙĪÛĮ
ĠØ¨Ùĩ Ø±
ĠØ³ ÙħÛĮ
Ġp up
ent er
ĠB os
ab il
Ġor ange
Ġal ter
Ġout come
ĠÙħØ³ Ø¯ÙĪØ¯
Ġsc andal
ĠØ´Ùħ Ø±Ø¯Ùĩ
Ġblo ody
ĠPro du
pr ise
Ġoper ated
Ġ196 4
Ġtest ed
200 6
ĠTe hran
Ġenc ry
ĠØ´ÙĨØ§Ø®Øª Ùħ
ĠÙħÛĮØªÙĪØ§ÙĨ ÛĮÙħ
Ø¢Ø± Ø§Ùħ
Ġreact ions
ĠAsse mbly
F urther
z o
à ´
ĠÙħ Ú¯Ùĩ
ld om
ĠÙĦ ÛĮÙĨÙĪÚ©Ø³
Ġso vere
ĠØ§Ùħ ÙĦØ§Ú©
ÙĪÙħ Ø¹Ùĩ
ĠÙĨØ§Ùħ Ø²
ass ador
ĠØ´ÙĨ ÙĦ
Ġdec or
ĠÚ©ÛĮ Ùĩ
ĠØ§Ø´Øª ØºØ§ÙĦ
ĠÙĪØ¨ Ú¯Ø§Ùĩ
ĠÙħØ§ÙĩÛĮ ÚĨÙĩ
ĠSecret ary
ĠÙĤØ§Ø± ÚĨ
e ur
ĠØ¯Ø± ÙĩØ§ÛĮ
ĠÙ¾ Ø±Ùģ
ĠØ¬ Ø§Ùĩ
ĠÚĨ Ø§Ú©
ot ype
Ø³ÛĮ Ø±ÛĮ
ĠØ· Ø¹Ùħ
ØªØ± Ú©ÛĮ
ĠØº ÙĦÛĮ
ĠK urd
Ø³Ø± Ùħ
ĠØ¸ ÙĦ
Ġdec ent
ĠÙĪÛĮØ± Ø¬ÛĮÙĨ
Ġopin ions
Ġexpress ions
Ġencour aged
bre ak
ĠJust ice
Ġcandid ate
ĠCharl ie
Ġhoriz on
nat ural
ĠÙħÙĪØ¨ Ø§ÛĮÙĦ
ĠÙħ Ø§Ø¨
ĠØ± ÙĤØª
Ġb orders
Ø¬ ÙĦ
Ġse ar
op les
ÙĨÚ¯ Ø§Ø±ÛĮ
ĠÙĨÙĪ ÛĮÙĨ
Ġam id
ĠÚĨÙĨØ¯ ÛĮ
ĠSt ory
Ø§Ø±Øª Ø²
ath an
Ġrec ording
ob s
ĠInd epend
Ġorgan isms
ĠÙħØªÙĨ ÙĪØ¹
ĠÙħØªÙĨ Ø§Ø³Ø¨
Ġdiv ine
Ġtrou bles
ĠÙĨØ§Øª ÙĪØ§ÙĨÛĮ
Ġquar ters
Ġindic ate
Ġpor ch
ĠÙĦÚ¯ Ø¯
% .
at on
Ġc hess
ĠØ´ Ø§ÙĦ
ĠØ® Ø¯
ĠØ³ Ø§ÙĨØª
ĠØ¨Ø§ Øª
Ġsu p
ĠH ere
ĠÙģÛĮÙĦ Ø¯
ific ations
ĠØ¨Ø¹ ÛĮØ¯
ĠÙħØ´Ú©ÙĦ Ø§ØªÛĮ
ĠØ®ÙĪØ± Ø§Ú©ÛĮ
Ġple as
ĠÙĪØ³ Ø·ÛĮ
ĠÚĺÙĨ ÙĪÙħ
Ġamount s
Ġden ied
ĠSer b
ĠØ¯ÙħØ§ Øº
Ġthorough ly
Ġbew ild
B o
L ife
ÙĪ ÙĪÛĮÚĨ
Ø² ÙĨØ¯
Ġm ast
st ill
ĠØ¢ÙĨ Ø³Øª
ĠØ¯Ø³Øª Ø§ÙĨ
Ġbu ying
Ġhead quarters
ÙħØ¯ ÙĦ
ĠØ¢Ø´ ÙĪØ¨
Ġcontin uous
ĠSo ft
ĠÙģÛĮ ØµÙĦ
ĠSw iss
ĠØ³Ø¹ ÙĪØ¯ÛĮ
Ġagric ulture
ĠÚĨØ±ÚĨ ÛĮÙĦ
u v
Ġs ang
ĠØ¢ ØªÛĮ
ĠD elt
ÙĪØ±Ø¯ ÛĮ
Ġrep air
Ġdisc rim
erv ation
Ġadv is
Ġlow est
ĠÙĪÙĦ Ø²
ĠÙĩØ´Øª Ùħ
ĠÙħÙħ ÙĦÙĪ
ĠâĢĮ ...
Ġto w
Ġin k
Ġhe ating
Ø±ÛĮ ÙģÛĮ
ir k
ĠÙĦ Ø§Ø²
ĠL ow
Ø§ÙĨØ¯ Ø§Ø±Ø§ÙĨ
ĠØ§ØŃ Ø¶Ø§Ø±
Ġfe ather
Ġour s
ĠØ¨ÙĦ ÚĺÛĮÚ©
ov o
ĠØ²ÙĨ Ø§ÙĨÛĮ
ph al
Ġgener ous
ĠØ¢Ø³ÛĮ Ø§ÛĮ
Ġ196 5
Ġtop ic
ĠEd mund
Ġsecret ary
Ø¨Ø®Øª Ø§ÙĨÙĩ
ĠÙĨØ§Ø³ Ø§
Ġpron ounced
ĠÙħÚ©Ø± Ø±
b ury
ĠÙĪ Ø³Øª
ĠØ¯Ø± Ø¯ÛĮ
et ing
ro ve
ĠS olar
ÙĦØ§ Ø´
ĠB an
ĠR ou
ĠN et
Ġar ray
ree k
cl osed
Ġpo em
Ġdon t
Ġser ves
ĠÚ©ÙĪÚĨÚ© Ø´
ĠØ¨Ø§ÙĨ Ú©ÛĮ
Ġest imate
ĠAd minist
Ġ193 9
Ġport al
ĠÙ¾Ø±Ø³ Ø¯
Ġterror ist
ĠØ³Ø¹ Ø§Ø¯
ÙħÙĨØ¸ ÙĪØ±
Ø²Ø§ÛĮ ÙĨØ¯Ùĩ
ĠÙĤÛĮ Ø§Ùħ
Ġtremend ous
, ,
L ord
ÙĨ Ø±
ĠÙħ Ø§Ø²
in th
Ġin tern
Ø¬ ÙĪØ§ÙĨÛĮ
ĠØ¢ÙĨ Ø§Øª
ĠØ· Ø§ÙĦ
ÙĬ Ø§Ø±
ĠØ§Øª ÙĪ
Ġsp rang
Ú©Ø³ ÙĦ
Ġind ifferent
ĠAr ag
ank s
Ġinter ior
ĠÙħØº Ø±ÙĪØ±
ĠØ³Ùģ Ø±ÛĮ
Ġcle ared
Ġext rem
ĠÙĨØ¬ ÙĪØ§
ĠØ´Ø§Ø¯ ÙħØ§ÙĨ
Ġneighb our
ĠØ®Ø¯Ø§ÛĮ Ø§
ĠØ§Ø±Ø² Ø´ÙħÙĨØ¯
Ġparticip ate
ĠØ³ÙĦÛĮ ÙĤÙĩ
ĠØªØ¬Ø±Ø¨ÛĮ Ø§Øª
Ġconver ted
w ig
on i
Ġp oured
ĠÙ¾ ØªÛĮ
Ġn an
ot te
Ġv ib
ĠJ ud
Ú©ÙĦ Ø§Ùĩ
Ġgen uine
Ġmod ified
Ġext ensive
Ġequ ations
Ġele ph
ĠØ¢ÙĪØ± ÛĮØ¯
ĠÙĨØ§Ù¾ Ø°ÛĮØ±ÛĮ
ĠÙĨØ¨Ø§ Ø´
ĠÙĨØ± Ø³ÛĮØ¯
Ġhop eless
Ġfund ing
rs ula
Ġfro zen
ĠDar cy
ĠØ¨Ø§Ø±Ø¯ Ø§Ø±ÛĮ
Ġsustain able
Ret rieved
Ø¢ÙĦÛĮ ÙĪØ´Ø§
C ons
D or
F ive
b ul
} ,
ĠØ± ÙĪØ§ÙĨÙĩ
Ġc her
Ġb ars
ĠÙĤ Ø´Ø±
ĠÙĦ ÛĮØ¯ÛĮ
ĠØ§Ùħ ÛĮØ±
Ġ' .
for mer
Ġpart ial
com es
Ġsk ull
ĠØ¨Ø§ÙĪØ± ÙĨ
Ġri g
ĠØ¨Ø±Ø¯Ø§Ø´Øª ÙĨ
ĠÚ©ÙĦÙħ Ø§ØªÛĮ
Ġview ed
Ġliter ary
Ġemer gency
ĠSum mer
Ġmurd ered
A c
Ø¨ Ø³ØªÙĩ
Ġc ub
ic ate
ĠÙģ Ø²Ø§ÛĮÙĨØ¯Ùĩ
ill es
ĠB udd
ĠØªÙĪ Ø§ÙĦØª
ĠÙĨØ´ Ø±ÛĮÙĩ
ĠØ±Ø§Ùĩ ÙĨÙħØ§
ĠÙħØ¬ Ø°
ans wered
Ġreg iment
Ġexpl icit
ĠØ¨Ø³Øª ÙĨ
ĠØ¢ÙĪØ± ÛĮÙħ
ĠCon ference
Her mione
Ġcoll apse
Ã¡ n
Ø¢Ùĩ Ø³ØªÙĩ
Ġsav age
Ġincl ined
Ġcod ice
ĠØ§Ø¨Ø² Ø§Ø±ÛĮ
h ist
Ø§ Ù¾ÛĮØ´
Ú© Ø±Ø¯Ùĩ
ĠØ® ÙĪØ±ÛĮ
Ø§Ùĩ ÛĮØ±
ĠS up
ÙĩØ§ Ø³
us cript
ĠÚ©Ø§Ø± Ø¯
ĠR ay
ĠE le
Ġch art
ĠØ¨Ø¯ ÙĨÛĮ
ĠIs ot
Ġdr ama
alth ough
Ġ194 1
Ġsens ation
Ġà ¯į
ĠØ§Ø´Ø®Ø§Øµ ÛĮ
Ġsymb ols
Ġpra ise
Ġmic ros
Ġnegot i
Ġcompre hens
Ġholid ay
v o
z es
Ú¯ Ø§ÙĦÛĮ
ĠØ± ÙĤÛĮØ¨
iv a
ĠÙħØ¹ ÙĦÙĤ
Ġass ault
Ġland l
Ġsupport s
ĠMan agement
Ġrespect ively
Ġmarket ing
Ġut il
ĠÙ¾Ø±Ø³Øª Ø§Ø±ÛĮ
Ġmix ture
ĠÙ¾ÙĦØ§ Ø³ØªÛĮÚ©ÛĮ
ĠBro oke
Ġterrif ied
ĠØ¬ÙĨØ§ ØŃ
Ġtob acco
ÙĪ Ø§Ø²
Ġt ens
ÙĦ Ø§Ø¨Ø¯
Ġd amp
ad el
ĠI N
Ø§ÙĨÛĮ Ø§ÙĨ
ag an
ĠÚĨÛĮØ²ÛĮ Ùĩ
ÙĪØª Ø§
ĠØ¨ÙĨ Ø¸Ø±
ĠØ®ÙĪØ§ÙĨ Ø¯Ùħ
ĠØ¨Ø¨ÛĮÙĨ ÛĮ
Ġsitu ated
Ġdecl ine
ĠØ²ÛĮØ±Ø²ÙħÛĮÙĨ ÛĮ
ĠÙĩØ§Ø±ÙĪ Ø§Ø±Ø¯
0 3
U ntil
m u
Ġt ons
in us
Ù¾ ÙĪØ±Øª
Ġn ic
ĠØŃ Ø±ÛĮÙģ
ÙĨÚ¯ Ùĩ
ĠG i
ĠÙĨØ´ Ø±
ĠØ§ØŃØ³Ø§Ø³ Ø§ØªÛĮ
Ġdist inction
Ġcent ers
ann els
Ġrele vant
Ġang rily
ĠHar riet
ĠÙģØ±Ø§ÛĮÙĨØ¯ ÙĩØ§ÛĮ
Ġsett lement
Ġdefe ated
Ġpsych ology
ÙĨØ¸ Ø§ÙħÛĮ
Ġproceed ed
Ġtheore m
Ġadmir ation
ĠØ¨Ø²Ø±Ú¯Ø³Ø§ÙĦ Ø§ÙĨ
ĠÙĨØ§Ø¨Ø± Ø§Ø¨Ø±ÛĮ
Ġalcoh ol
v ironment
Ú© Ø§Ø±Ùĩ
re a
Ġw idespread
ed ge
ĠÙħÛĮ Ú¯ÙĪÛĮ
Ø¬ Ø±ÛĮÙĩ
Ġe rect
ĠA C
ĠA le
Ø¯Ø± Ø®Øª
Ø° Ú©Ø±
ill o
op es
ĠB ad
Ġby e
Ġsu itable
ĠH om
ĠÙĩÛĮ ÙĪÙĦØ§
ile y
ĠØ³ÙĪ Ù¾Ø±
orn ey
ĠÛĮØ§Ø¯ Øª
ĠØ¨Ø§ÙĦ Ø´
ĠØ²ÙħØ§ÙĨÛĮ Ú©Ùĩ
Ġ196 2
Ġdeal ing
Ġeduc ated
ĠÚ©Ø§ØªØ±ÛĮÙĨ Ø§
Ġautom atically
ĠØªØ¶ Ø§Ø¯
ocol ate
Ġisol ated
Ã£ o
ĠÚ©ÙħØ±Ø¨ ÙĨØ¯
ĠÙĪ ÛĮÚ©
Ġin ch
Ø§Ùħ ØªÛĮ
Ġre jo
ĠØ®ÙĪ Ø§Øµ
ol ph
ĠB ureau
Ġsh ri
Ġli ver
ĠÙħØªØŃ ÛĮØ±
Ø¯ÙĪ ÛĮÙĨ
ĠÛ±Û¸Û ¶Û
ĠÙħØ³Ø§ ÙĪÛĮ
ĠÙĪØ§ØŃ Ø¯ÙĩØ§ÛĮ
ÙħØ§Ø¯Ø± Ø´
Ġfac ilities
Ġhast ily
ĠRec ords
ĠFrid ay
ĠÛĮÙĪØªÛĮ ÙĪØ¨
0 4
S upp
he ster
ĠÛĮ Ú¯Ø§ÙĨÙĩ
ĠÙģ Ø§Ùħ
ĠÙĤ Ø§Ø·Ø¹
ri ages
ĠØ§ÙĨ Ú¯ÛĮ
Ġsu ffic
ĠÙĨÙħÛĮ ØªÙĪØ§ÙĨ
Ġch ap
Ø¨Ø§ Ø´Ø¯
ell er
Ġcomp ounds
ÙħÙĪ Ø³
ĠÚ©ÙĦ Ø§ÙĩØ´
ĠIn s
Ġacc used
Ġacc ustomed
ĠØ·Ø±Ùģ Ø¯Ø§Ø±Ø§ÙĨ
orm al
Ġ194 8
ĠØºØ±ÛĮ Ø²Ùĩ
Ġoccup ation
ĠÚ¯ÛĮØª Ø§Ø±
ĠÙĨØ¯Ùĩ Ø¯
Ġshock ed
ĠÙĪÙģ Ø§Ø¯Ø§Ø±
ĠÙħØ³ÛĮØŃÛĮ Ø§ÙĨ
ĠØ±Ø§Ø³ Ú©ÙĦÙĨÛĮÚ©Ùģ
Ġhes itated
Ġaccompl ished
Ø¯ÙĪÙħ ÛĮÙĨ
ĠÙĨÛĮØ§ ÙģØªÙĩ
Ġresc ue
h ttp
Ã ¥
ÙĨ Ú©ØªÙĩ
Øª Ø¨
ĠØ¨ ØªÙĨ
Ġâ ģ
Ú¯ ÙĪØ³
Ø§ÛĮ Ø¨
ĠØ± Ø´
ĠÙĩ Ø§ÙĦÛĮ
ou ch
Ġc ries
Ġc attle
Ġg ates
ĠP u
ĠÙĨÛĮ ÙĦ
ĠÙħØ± Ø¬
ĠØ¬ÙĪ Ø§ÛĮØ²
Ġappro aches
ĠØ¢ÙģØª Ø§Ø¨ÛĮ
Ġdim ensions
ĠHosp ital
L L
Ġt ough
ĠÚ¯ ÙĨØ¯Ùĩ
Ø±ÙĪ Ø®ØªÙĩ
ĠØ§ÙĨØ¯ ÛĮØ´
Ġco vers
ĠØ²Ø¯ ÛĮÙħ
Ġind ul
Ġrel uct
ÙĪØ§Ø± Ø¶
Ġconf ig
ĠGr ace
ĠÙ¾ÛĮØ´ÙĨÙĩ Ø§Ø¯ÛĮ
ĠØªÙĦÙģ ÙĨÛĮ
Ġfur ious
200 3
ĠÙ¾Ø±Ø³Øª Ø§Ø±
ĠÙħØ§Øª Ø±ÛĮØ³
ĠBo ard
Ø¹Ø´ ÙĤ
ĠÛĮÚ©Ø³ Ø±Ùĩ
Ġclin ical
M M
f aces
ĠØ¨ ÙĪÙħ
ĠØ± ÛĮÙħ
ĠØ³ Ø¨ÛĮÙĦ
Ġp ound
ĠØµ ÙĪÙħØ¹Ùĩ
ĠØº Ø±Ø´
ĠÙħØ´ Ú©ÛĮ
ĠÚĺ Ø±Ùģ
iss ance
ĠØ¢Ø² Ø±Ø¯Ùĩ
ĠÙĤØ¯Ø± ØªÛĮ
ĠØ¢ÙĦ Ú©Ø³Ø§ÙĨØ¯Ø±
ĠÙĨÚ© Ø´ÛĮØ¯
Ġap olog
ÙĨÙħ ÙĪÙĨÙĩ
ĠØ¨Ú¯Ø° Ø±
ĠÙħØ¹Ùħ Ø§Ø±
ĠÚ¯Ø±Ùħ Ø§ÛĮÛĮ
Ġreason able
Ġcorn ers
Ġpassion ate
ÙĨØ® Ø³Øª
ĠWil son
ĠAtl antic
ĠHot el
ĠArgent ina
j ud
Ø³Øª Ø±ÙĪ
it i
Ġh arb
ar ity
ĠÙĤ Ø§Ø·
Ġ( ;
ĠÙĦ Ø§Ùħ
Ġlo yal
Ø§Ø³Øª Ø§Ø²ÛĮ
ĠÛ±Û¹Û ´Û°
ĠØ¯ÛĮØ¯ ÛĮØ¯
ĠCh ief
ĠØ§Ø· ÙĦØ³
ÙĪØª ÙĨ
Ġsc attered
ĠØªØ¹ Ø¸ÛĮÙħ
ne ver
Ø¨Ø¹Ø¯ Ø§
ĠAl f
ĠØ³Ø±ÛĮØ¹ ØªØ±
ĠÙħØ¹ÙĨ Ø§ÛĮÛĮ
Ġredu cing
ĠÙĨØªÙĪØ§ÙĨ Ø¯
Ġphilos opher
Ġgall ery
ĠDar win
Ġembr ace
high light
G O
N U
i op
ĠØ¨ ØµØ±ÛĮ
ĠÙħ ÙĤØª
ĠØ± Ø¨Ø¹
le te
ĠØ¨Ø± ÙĨØ¬
ĠØ² Ø±
ul ed
ĠP ict
th rough
Ġsh ares
ĠØ¯Ø³Øª Ø§ÙĪØ±Ø¯
per m
Ġcl osing
ĠÙģØ±ÙĪ Ø®Øª
Ġaw a
Ġglo om
ĠÙħÙĪÙĤØ¹ÛĮ ØªÛĮ
ĠMount ain
ĠÚ¯ÙĪØ¯ Ø§ÙĦ
Ġpil ot
Ġlan tern
ĠÙĨØ§Ø§Ùħ ÛĮØ¯ÛĮ
ĠHit ler
r ained
w estern
Ø§Ø± ÙĨØ¯
Ġf ert
Ġm ing
ÙĪØ± Ø§ÙĨØ³Ú©ÛĮ
ĠÚĨ Ø³
ut her
ÙĦØ§ Ø¦Ùĩ
if ference
Øº Ø¯
Ø« Ø±ÛĮ
ĠD un
ĠW here
Ú©ÙĪ Ùģ
Ġpass es
Ġins urance
ĠRe al
Ġpat ience
iron ments
Ġpoll ution
Ġsubsequ ently
Ġhospit als
ĠØ§Ø³ØªØŃ Ú©Ø§Ùħ
d id
e enth
in ates
it udes
Ġb ay
ĠÙ¾ ÙĪØ³
ĠØ¨Ø± Ø§Ø´
ĠI ce
ĠØ§ÙĪ Ú©Ø±Ø§ÛĮÙĨ
Ú¯ÛĮ ÙĦ
um bling
ĠD antes
ĠH ig
Ø±Ùģ Ùĩ
Ġj er
Ġ3 4
Ġent reprene
ĠÙĥ ÙĨÙħ
Ġpass engers
Ġbelie ves
ĠMar x
Ġann ounce
Ġmer c
Ġcoll ar
Ġfund s
Ġsignific ance
Ġclim b
Ġcalcul ated
Ġembarrass ed
Ġsyntax highlight
ĠÙĦÛĮØ¨Ø± Ø§ÙĦ
B er
P M
d i
r and
µ Û²
Ø³ Ø§ÙĦÛĮ
Ø¨ ÙĪØ¯ÛĮ
Ġd raft
ÙĪØ± Ø§ÙĨÙĩ
ĠÙĤ Ø¨Ø§ÙĦ
Ġse ldom
ĠØªØ± Ø§ÙĨ
ĠH art
Ġper ception
Ġgood ness
Ġlight ly
Ġass ign
ex cept
ĠÚ¯ÛĮØ± ÛĮØ¯
Ġchar ges
ĠØ§ÛĮØ¯ Ø²
ĠØªØ® ÙĦÛĮÙĩ
ĠÙĦÙĩ Ø¬Ùĩ
ĠØ¹ÙħÛĮ ÙĤØ§
ĠØ¨Ø±Ø¢ ÙħØ¯
ĠMed ical
ĠØ¨ÙĦÙĪ Ø·
ĠØ®ÙĦ Ø¨Ø§ÙĨ
ĠØ±Ø¯ÛĮ Ø§Ø¨ÛĮ
ĠRos amond
Ġtransform ed
Ġfold ed
Ġtender ness
ĠØ¨Ø§Ø²ÙĨØ´ Ø³ØªÙĩ
ograp her
ĠIndones ia
D ervish
ĠØ± ÙĩØ§ÛĮÛĮ
ĠÛĮ ÙĪØ§Ø´
ĠS cient
Ø±ÙĪ ÙĨØ¯
ag s
ĠÚ©Ø§Ø± Ø¨Ø±ÛĮ
ĠÙħØ§ Ú©Ø³
ĠÙģØ± Ø§Ø±ÛĮ
ĠH ollywood
ack ing
ĠØ§Ø¨ ÙĨ
ĠØ®ÙĪØ¯Ùħ ÙĪÙĨ
ĠØ®ÙĪØ± Ùĩ
Ġfoot st
ĠØªÙĦÙģ Ø¸
ĠPol ice
Ġeye br
Ġrepresent ing
ĠØ¨Ø§Øº ÚĨÙĩ
Ġtravel ing
Ġtrem bled
Ġimprove ment
Ġcontem pl
ĠÚ©Ø§Ø³ Ùĩ
Ġlect ure
ĠØ¯Ø³ØªÙħØ² Ø¯
x ic
Ø² Ø¨ÛĮ
er as
Ġre verse
Ġwe ird
ĠC e
ĠÙħØ§ Ø´ÛĮÙĨÛĮ
Ġv ice
ĠÙħØŃ Ø§ÙĦ
ĠØ§Ø³ ÙĨÛĮÙ¾
Ġtw isted
ĠV enezuel
ĠØ¢Ø± Ùħ
ĠØ¨Ø§Ø²ÛĮ Ø§Ø¨ÛĮ
ĠØ®Ø· Ø§ÛĮ
Ġ4 8
ĠØªØ±Ú©ÛĮ Ø¨Ø§Øª
ĠCon vention
Ġsum mon
ĠØ§ÛĮØ³ØªØ§Ø¯ ÙĨØ¯
Ġwealth y
ĠØ¹Ø¸ ÙħØª
Ġble w
Ġsubst ance
ĠØ´ÙĩØ±Ø¯ Ø§Ø±
ĠÙ¾Ø§ÙĪÙĦÙĪ ÙĪÛĮÚĨ
b ably
Ġc iv
ĠØ´ ÛĮÙĨ
ĠØ¨Ø§ ÙħØ¯Ø§Ø¯
ac ent
Ġne uro
ĠN a
ĠO S
ĠØ¨Ø§Ø± Ø§ÙĨÛĮ
ĠØ³Ø§Ø®Øª ÛĮÙħ
ĠÚ¯Ø±ÛĮ Ø®Øª
Ġsol ved
Ø§Øº ÙĦ
ĠÙģÙĦ Ø§ÙĨ
Ġ196 6
200 7
Ġsurv ival
Ġru ined
Ġintegr ated
ĠÙĨØ¹ Ø±Ùĩ
ĠØ®Ø±Ø§ Ø´
Ġswift ly
H A
d imensional
j i
n ut
ÙĨ ÙĪÛĮØ³
ĠÙĩ ÙĦÛĮ
Ø§Ø± Ø´ÛĮ
ĠØ¢ Ø´ØªÛĮ
ÛĮØ± ÙĪ
Ø±ÙĪ Ú©
Ġr ows
ÙĪØ² ÙĨ
ĠØ¯Ø§ÙĨ Ú©ÙĦØ§Ø±
ĠO l
Ġcomp are
ÙħÙĪ Ø§Ø²ÙĦ
ress ing
ÙĨØ¬ Ø§Ø±
ĠÙħØ§Ø¯Ø± Ø§ÙĨ
Ġcry pt
ĠØ§ÙĨØ¬ ÛĮÙĦ
ĠÚĨØ± Ø¨ÛĮ
ÙĤØ¨ ÙĦØ§
Ġdemocr atic
Ġbelief s
Ġcritic ism
ĠÙĦØ²ÙĪ ÙħØ§
ĠØ¢Ø±Ú© Ø§Ø¯ÛĮ
p her
s is
w all
Ø§ Ú©Ø³
ĠØª ÙĦÙĩ
ĠØª Ø³Ùĩ
ĠØª ÙĪÛĮÛĮ
Ù¾ ÛĮÙĨ
ĠÙĤ ÙĪØ·ÛĮ
ĠA ud
ĠT y
ĠØ¯Ø§Ø¯ Ø³ØªØ§ÙĨ
ĠÙħØ´ Ú©ÙĪÚ©
Ġsc en
ne ath
Ġimp ressed
Ġ5 5
Ø¯Ø³Øª Ø´
ĠHer itage
Ġbrief ly
Ġobserv ations
ÙħØ³Ø¦ ÙĦÙĩ
Ø¨Ø±Ø® ÙĦØ§Ùģ
ĠFoot ball
C am
b et
ÙĦ ÛĮÙĨÚ¯
Ø§ÙĦ ØŃ
Ġcon vey
ĠL ie
ĠÙĩÛĮÚĨ ÙĪÙĤØª
Ġtr ap
Ġday light
ĠØ®Ø· ÙĪØ±
Ġwalk s
ĠÙ¾ÙĪØ´ ÛĮ
Ġdesign er
Ġcor ruption
sh ire
Ġregular ly
ĠÚ¯ÙĨØ¯ Ùħ
Ġcas ual
H T
m i
Ùħ Ø±Ú¯
ĠÙħ Ø£
Ġw icked
ĠÙĪ ÙĦÙĪ
ĠÙ¾ Ø§Ø¨
ĠG ame
out heast
ĠÙ¾ÛĮØ´ Ø±ÙĪÛĮ
ĠØ²ÛĮ Ø§Ø¯Ùĩ
ĠØ¨Ø§Ø± ÙĪÙĨ
ĠØªØ¹ Ø¨ÛĮØ±
ĠÙĨØ³ Ø¨
ĠØ®ÛĮ Ø±ÛĮÙĩ
ĠØ®ÙĪØ§ÙĨ ÙĨØ¯
uss ian
Ġsecond ary
ane ous
ĠÛ±Û¹Û¸Û µ
ĠØ¢ÙĩÙĨ Ú¯ÛĮ
ĠÙĨÛĮØ±ÙĪ Ú¯Ø§Ùĩ
Ġsynt hesis
ĠÙģÙĦØ³Ø· ÛĮÙĨÛĮ
C he
m od
r ates
ÙĨ ÙģØ³
Ġa wards
Ø§ÛĮ ÙĪØ§ÙĨ
Ġm asters
ĠÚ©ÙĨ ÛĮØ§
ÙĪØ§ÙĨ Ø³ÛĮÙĪÙĨ
ĠÙħÙĨ Ø¬
Ġnot able
ĠÙĦ ÙĪØ³
ĠØ¬Ùħ Ø§ÙĩÛĮØ±
Ġco oking
Ġsc ulpt
ĠØ§Ø¹ ÙĦÛĮ
ĠØ¨Ø§ÙĦ ÛĮÙĨÛĮ
ĠØ¸ ÙĦÙħ
Ġcur rency
ÙħØ±Ø¯ Ø§ÙĨ
ĠÚ©Ø§ÙĨ Ø§Ø¯
Ġsepar ation
Ġpersu ade
ĠØ¨Ø¨Ø® Ø´ÛĮØ¯
Ġgalax y
Ġabrupt ly
ĠÙĨ ÙĩÙħ
Ġl es
ĠØ¨Ø± Ú¯Ø±ÙģØªÙĩ
ac on
ĠC A
ĠB aker
ĠØ¯ÛĮØ¯ ÙĨØ´
Ġfl av
ĠAn ne
ĠØ¨Ø¯Ø§ÙĨ ÛĮÙħ
ĠÙģÛĮÙĦÛĮÙ¾ ÛĮÙĨ
Ø³ÛĮÙĦ ÙĪØ§ÙĨ
ĠØ¨Ù¾Ø± Ø³ÛĮØ¯
ĠGree ce
phe w
ĠØ¨Ø§Ø²Ø§Ø±ÛĮ Ø§Ø¨ÛĮ
ĠÙħÙĪØ§ÙĨ Ø¹
G l
M P
O W
ĠÚ© Ø§Ø¯
Ġw ishing
ĠØ² Ø±Ùĩ
ÙĩØ§ Ùī
Ġne phew
ĠØ§Ùħ Ø§Ùħ
ĠÙ Ĳ
Ġgr ows
form ula
Ġcr imes
ĠÚĨÙĩØ§Ø± Ø¯Ùĩ
ĠØ¢Ø´ ÙģØªÚ¯ÛĮ
ĠØ¬Ø§Ùħ Ø¯
ĠTr ade
ĠÙħØ±ÛĮ Ùħ
ĠØ±ÛĮØ² Ø¯
Ġmagn ific
Ġinteract ions
Ġrespond ed
ĠÙħØ¹ÛĮ Ø§Ø±
ĠØŃÙħØ§ ÙĤØª
Ġsadd le
u it
Ø´ Ø®Øµ
Ġin ward
ri or
Ø¹ÛĮ Ø§ÙĨ
are r
Ġen able
ĠØªØŃ ØµÛĮÙĦÛĮ
ØºÛĮ Ø¨
Ġcount ess
Ġacc um
Ġve x
Ġobject ive
Ġcult iv
ĠPe ggotty
ĠNat ural
Ġphysic ian
ĠØ¬Ø§Ø¨ Ø¬Ø§
Ġshel ter
o ir
ĠÙĪ Ú¯Ø±
Ù¾ Ø±ÛĮ
ĠØŃ ÙĪÙĦ
ĠS nape
ĠB road
Ġsh ops
ĠØªØ± Ø³ÛĮ
ĠØ±Ø³ ÙħØ§
ber ry
ĠO t
Ġdis gr
ĠÚ©ÙĦ ÙĨØ¯
ĠØ³Ø§Ø®Øª Ùħ
Ġfl ies
Ġbu nd
ĠØ´Ø§ÙĨ ÙĪÙĨ
Ùĥ Ø±
ĠØ¨ÙĢ Ø±
Ġtem pt
Ġtrou s
Ġden y
ĠØªØŃÙĤ ÙĤ
ĠEngine ering
ÛĮÙĪØ± Ú¯ÛĮØ³
l ic
Ġt ie
ĠØ¯ Ø§ÙĦÛĮ
Ġp ile
Ø® Ø§Ø¨
ĠØ¬ Ø§ÙĨÛĮ
ĠØ¬ ÛĮÙĨÛĮ
Ġg am
ĠÙģ ÙĩÙħÛĮ
ĠØ² ÙĦ
Ø§Ø¨ ÙĦØ§
ĠØ¯Ø§Ø± Ø§ÙĨ
ĠØ³Ø± ÙĤØª
ĠÙĨÛĮ Ø¬Ø±ÛĮÙĩ
ra h
ĠØ¨Ø¯ Ø´
fe re
for th
ØªÙħ ÙĨØ¯ÛĮ
Ġmat hematic
ĠÙĤØ· Ø¨ÛĮ
Ġput s
Ġins piration
Ġfr ust
ĠØ§ÙĨØªØ®Ø§Ø¨ Ø§ØªÛĮ
Ø¨Ø±ÛĮ Ø¬
ĠÙģØ±ÙħØ§ÙĨ Ø¯Ø§Ø±
ĠÙħØ² Ø§ÛĮØ§ÛĮ
Ġcontrol s
Ø¬ÙĪÛĮ Ø§ÙĨ
Ġtravel ed
ĠØ±Ø¤ ÛĮØ§
Ø·Ø¨ÛĮ Ø¹ÛĮ
ĠDen mark
Ġaston ishment
ĠÙģØ§ Ú©ØªÙĪØ±
Ġignor ance
ĠØ¨Ø§ÙĪØ±ÙĨ Ú©Ø±Ø¯ÙĨÛĮ
Ġm aps
es pecially
Ġe h
Ø´Øª ÛĮÙĨ
am is
ĠB ing
ĠØªÙĪ Ø³Øª
ĠT s
ĠF le
ĠE qu
ĠK ent
ip h
Ø³Ø± Ø¨Ø§Ø²
ĠØ²ÙĨ ÛĮÙħ
Ġtrans formation
Ġvis its
ĠØªØµÙħÛĮÙħ Ø§Øª
ĠØ¬Ø± Ø¦Øª
Ġswe pt
ĠÛ±Û¹Û·Û ³
ĠSte ven
ĠCP U
ĠØªØ·Ø¨ÛĮ ÙĤ
u ity
ĠØ§ Ø¨ÛĮ
ĠØª Ø§Ø±Ø§
ÛĮÙĨ ÛĮØ§
al is
et ary
ĠÙĤ ÙĪØ§ÛĮ
ĠØ§ÛĮ ÛĮ
ĠØªÙĪ ÙħÙĪØ±
Ġpro hib
ĠØ¯ÙĦ Ø§ÛĮÙĦÛĮ
Ġunder ground
ors hip
Ġsub t
ĠÚĨÙĩØ§Ø± ÙħÛĮÙĨ
Ġsk et
orth os
ask a
ĠÙĨØ®ÙĪØ§Ùĩ ÛĮØ¯
ĠØ±ÛĮØ§ Ø¶
Ġtrack s
ĠØ¯Ø§ ÙĪØ±ÛĮ
Ġmotion less
ĠÙħØªØ£ Ø«Ø±
Ġinfect ed
Sim ilar
ĠÙħØŃØ± ÙħØ§ÙĨÙĩ
ĠAth os
Ġ å
or ical
ĠØ² ÙĬ
ĠÙĩØ§ÛĮ ØªØ§ÙĨ
ay ed
ĠÙĦ Ø§ÙħÙ¾
Ġ" "
ĠW ikipedia
Ġthem e
ĠY e
Ġinv asion
ĠØ§ÛĮØ± ÙĦÙĨØ¯ÛĮ
Ġblo g
ĠÙħØ³Ø§ÙģØ± Ø§ÙĨ
ĠÙħÙĨØŃ Ø±Ùģ
Ġsurv ived
ĠÙ¾ÚĺÙĪÙĩ Ø´ÛĮ
ĠOn line
ĠÙĨÙĪØ¬ÙĪØ§ÙĨ Ø§ÙĨ
ĠDiv ision
Ġdefinite ly
V ideo
r ace
u um
v id
Î ±
is hers
ĠB at
ĠB uck
ab a
ĠR NA
ĠL im
ĠØŃØ§ÙĦ Ø§Øª
ĠØº ÙĪØ·Ùĩ
Ġ19 00
ÙĪØª ÙĪ
ĠÙĥ Ø±Ø¯ÙĨ
ĠÙħØ§Ø± Ø´
Ġdet ailed
Ġtem porary
Ġdream ed
Ġpeace ful
Ø¢Ùħ Ø±ÛĮÚ©
ĠÙħØŃØ¯ ÙĪØ¯ÛĮ
Ġmath bf
Ġeager ly
Ġaston ished
ĠØ¯ÙĦØ³ ÙĪØ²ÛĮ
Ġdistur bed
Ġinequ ality
ĠAmaz on
a us
a ire
r ust
ĠØ¨ Ú¯ÛĮ
Ġw ives
Ġth ri
ĠÚĨ ÛĮØ¯Ùĩ
ĠM ade
ĠT uring
ĠØ§ÙĦÙħÙĦ ÙĦ
ĠØ§Ø·Ø±Ø§Ùģ Ø´
ĠØ¹Ø¨ ÙĪØ³
Ġfrequ ent
Ġdam n
Mar ius
ĠAlexandrov na
usse ll
P G
c ould
ĠÙĩÙħ ÙĪØ§Ø±
if er
ĠØ¨ÛĮ Ø§Ø¯
ĠR io
Ú©ÛĮ Ú©
ĠØ§Ùħ Ø¶Ø§ÛĮ
ĠØŃØ§ÙĦ Ùħ
ĠK och
Ġpe ak
Ġsm iles
Ġfound er
ĠØ§Ø¨ Ø±ÛĮØ´
ĠØ´ÛĮ ÙĪØ¹
ĠØ§ÛĮÙħ ÙĨ
ĠSh ow
ĠÙħØªÙĪ Ø§ÙĦÛĮ
Ġsing ular
Ã© s
Ġprot ests
ĠÙĨÙħØ§ÛĮ Ø´ÛĮ
Ġla wn
loy ment
ĠÙ¾ÙĦØ§ Ø³ØªÛĮÚ©
ĠØ§Ø®ØªØµØ§Øµ ÛĮ
Ġdocument ary
ĠÚ©Ø§Ø¨ ÙĪØ³
Ù¾Ø§ÙĨ ÚĨÙĩ
ĠSocial ist
Ġdescend ed
ĠSil ver
L D
S il
ĠØ¯ Ø§Ø´
ĠØ³ Ø²
ĠÚĨ Ø±Ø¨
ĠS T
ÙĨÚ¯ ÙĪ
ĠÙĨÛĮ ÙĪÙħ
ĠÙħØ¹ Ø§ÙħÙĦ
Ġtr aged
Ġwhere ver
Ġbeh alf
ĠØªÙĪÙĨ ÙĨ
Ġ9 5
Ġland ed
Ġdescri bing
200 2
ØªØŃ ÙĤÛĮ
Ġpot entially
ĠBut ler
Ġcateg ories
Ġow l
ĠTem ple
r ows
Ġc aut
Ġh ired
ĠØ¢ Ø¯Ø§Ùħ
ar on
al ty
Ġhe ap
ÙĦÛĮ Ø²
Ġcomp rom
Ġcont ents
ĠØ¹Ùħ ÙĪØ¯ÛĮ
ĠØ¢Ø´ Ø§Ùħ
ĠØ¢Ø²Ø§Ø¯ Ø§ÙĨÙĩ
ĠÙĨÚ¯Ø±ÛĮØ³Øª ÙĨØ¯
Ġenv ironments
ĠÛ±Û¹Û¸Û ¶
ĠØ§ÙģØ²Ø§Ø± ÙĩØ§ÛĮ
ĠÙĪÙĤ Ø§Ø±
Ġemploy ment
ĠÙĩÙĪÙĦ ÙĨØ§Ú©
Ġsubsequ ent
Ġrh yth
E A
r age
w ed
x ide
ĠØ§ Ø¦Øª
ĠØ´ ÙĪÛĮÛĮ
ing ton
ĠÛĮ Ø§ØªØ§
ĠØ§ÙĪ ÚĺÙĨ
Ġst olen
ĠS ud
ĠØ®ÙĪ Ø´Øª
Ø¦ ÙĦØ§
ĠØ³Ø± ÙĪØ§ÙĨ
Ġex port
ĠØ³ÛĮ Ø±ÛĮ
ĠØªØµ ÙħÛĮÙħÛĮ
ĠÙĨØ² Ø¯Ùĩ
ĠØªÚ© ÙĦÛĮÙģ
ues e
ĠChrist ians
ĠÛ±Û¹Û·Û ´
Ġinflu ential
ĠÙģÙĤ Ø¯Ø§ÙĨ
ĠÛ·Û µ
ĠØ®ÙĨ Ø«ÛĮ
ĠÙħØ·ÙħØ¦ ÙĨØ§
ĠØ®Ø±Ø³ ÙĨØ¯
Ġnarr ative
Ġvessel s
G S
i ary
Ġt ries
ĠÙħ Ø±ÙĪ
ÙĦ ÙĨ
ĠØ± ÛĮØª
ar o
Ġp ave
ĠØ¨Ø§ ØªØ±ÛĮ
Ġwas hed
ĠØ§ÙĪ Ø¨
ĠÙĦ Ø§ÙĨÚ¯
ous es
Ġrec ru
ĠÙħØ® Ø²ÙĨ
cent ury
Ġpop ulations
ĠMar garet
St ep
Ġpress ing
ĠÛ±Û¹Û·Û µ
ĠEn cyclopedia
Ġfet ch
Ġcigare tte
M ed
c ond
p o
Ù¾ Ø§Ø¯
Ġn erves
ÙĪÙĨ ÛĮØ§
ĠÙĩÙħ Ú¯Ø§ÙĨ
ĠS i
us k
ĠB ishop
ĠB oston
ab s
ĠD ro
ĠH op
ĠØ¯ÛĮÚ¯Ø± Ø´
Ġcons isted
Ġsl aves
Ġhum or
Ù¾Ø§ ÙĪÙĦ
ĠSer ies
Ġreve al
ĠØ§ÛĮÙĪØ§ÙĨ ÙĪÙĨØ§
ĠDen is
Ġasse mbly
ĠÙħØ´Ø§ÙĪØ± Ùĩ
ĠOlymp ics
ĠÚ©Ø´Ùħ Ú©Ø´
ĠØµÙħÛĮÙħ Ø§ÙĨÙĩ
D F
h ard
Ġt ape
Ú¯ ÙĪØ§Ø±
Ġb oss
ĠÙħÛĮ Ø§ÙĨÛĮ
Ġg onna
ĠM um
ĠØ±ÙĪ Ø¨
Ġr ape
ĠØ¨Ø§Ø² Ø§Ø±ÙĩØ§ÛĮ
Ġj ur
ĠÙħØ¯ ÛĮØ±Ùĩ
ĠØ´ÙĨ ÙĪÙħ
gin s
ĠØ¢Ø´ Ù¾Ø²ÛĮ
Ġdr um
Ġsol itary
unic ations
Ġtri bes
Ġdro ps
Ġcam els
Ġprevent ed
à¤ ¾
cad io
ĠÙĤÙĩØ±ÙħØ§ÙĨ Ø§ÙĨ
ĠÙħÙĨØ§Ø³ Ø¨Øª
Ġinterpret ation
B ill
g as
m ates
ĠØ§ ÙħÛĮ
ĠÙħ ÙĪØ±Øª
Ġd iverse
ÙĪÛĮ Ø§ÙĨ
ÙĪØ§ÙĨ Ø§
el ia
ĠD ad
ĠL ine
ĠØ§Ø± Ø¨
ĠÚ©ÙĦ Ø±
ĠØªÙĦØ§ Ø´ÛĮ
Ġquar rel
Ġthreat s
ĠVol ume
Gen eral
Ġb in
ĠØ¨Ø§ Ø®Ø¨Ø±
Ġn it
ÙĪØ± Ø³
ĠÙģ Ø§ÙĨÙĪØ³
Ġst adium
Ġv oy
ĠE xt
He llo
ĠØ§ØŃ ÙħØ¯
ĠÙĩÛĮÚĨ ÛĮ
ĠÙħØ¬ Ø±Ø¯
Ġfl ut
Ġey ed
ĠÙĨÛĮØ± ÙĪÛĮÛĮ
ĠDe ad
ĠØºØ° Ø§ÙĩØ§ÛĮ
fort une
ĠØ¨Ø±Ø§Ø¯Ø± Ùħ
ĠØ§ÙĨØ³Ø§ÙĨÛĮ Øª
Ġmist akes
Ġqual ities
L ast
ÙĨ Ø¨Ø§ÛĮØ¯
Øª ÙĪØ±ÛĮ
Ġt ran
ĠØ¯ Úĺ
ĠÙĨ ÙĪØ¯
ĠÙ¾ ØªÙĪ
et e
ĠØ¨Ø§Ø² Ø±Ø³ÛĮ
ĠÚ©ÙĪ ÙģØª
ition ally
Ġind icated
ĠÛĮØ§Ø¯ Ø¨ÙĪØ¯
Ġgl ow
ĠØ´ÛĮ Ø¡
Ġri vers
ĠÙ¾ÙĨ ÛĮØ±
ĠÙħØ¨ Ø§Ø¯ÙĦÙĩ
ĠÙ¾ÙĨØ§Ùĩ Ú¯Ø§Ùĩ
Ġconv ict
Ġstir red
ĠØ¨ÙħÛĮ Ø±Ø¯
Ġdivor ce
Ġd ates
ĠØ§ÙĨ Ø´
ĠG ill
Ġch annels
Ġint u
ond ra
ĠØªÙĨ Ø§Ø±Ø¯ÛĮÙĩ
hed ral
Ø§ÙĨØ¯ Ú©ÛĮ
Ġqu ad
Ġco ff
Ø³Ø§ÙĨ Ú©ÙĪ
Ġrec all
Ġapp le
Ġgen ome
ĠØµØŃ Øª
ĠÙ¾Ø´Øª Ø´
Ġche cked
Ùĥ ÙĨ
Ġstop s
Ġmaj esty
Ġself ish
Ġpsych ological
Ġaband on
ĠØ³Ø±Ø³ Ø±Ø§
Ġdecre ase
ĠÙĨØ§ÙĤ Øµ
ĠÙĨÙĪÙħ ÛĮØ¯ÛĮ
usal em
ĠÙĪØµ ÛĮØª
Ġmerch ant
T rans
t wo
Ùģ Ø§ÛĮ
is ons
ĠØ¨Ø§ Ú©Ø³
ĠØ¬ Ø§ÙĩØ§ÛĮÛĮ
ĠØ² ÙĩØ±
ro lled
Ġat om
ran ean
Ġno on
ĠSt ock
Ġact ors
Ġcol onel
ĠØ¨ØŃ Ø±Ø§ÙĨÛĮ
Ġpublic ation
Ø´ÙĪ ÙĩØ±
ĠØ¯Ø³ØªÛĮ Ø§Ø±
ĠâĢĿ .
Ġep id
ĠNor way
Ġconce aled
ĠÙħØŃØª Ø§Ø·
Ġjack et
Ġtourn ament
L ove
Û ¶
Ġ á
Ùħ Ø±Ø¨
Ø´ ÙħÛĮ
ĠØ§Ø² Ùħ
ÙĦÛĮ ÙĪÙĨ
ĠS av
ĠØ¯ÙĪ ÛĮØ¯ÙĨ
ĠØ³Ø± Ù¾Ø±Ø³Øª
Ġor che
ĠØ¯Ø³Øª Ú¯ÛĮØ±ÛĮ
ap ore
Ġman uscript
Ġdown stairs
ĠØ´Ùħ Ø³ÛĮ
ĠØ° ÙĪØ¨
Ġent itled
Ġexp ense
less ness
Ġcre am
Ġvis iting
ĠÙĦÙĪ Ú©
Ġequ ilibrium
ĠÙĩÙĨØ± Ù¾ÛĮØ´Ùĩ
ĠÙĥÙĨ ÙĬØ¯
Ġquant ity
ĠÙĦØ± Ø²Ø´
Ø¢Ùħ ÙĪØ²
ĠÛĮÚ©Ø³ Ø§ÙĨÛĮ
G B
l ink
Å «
ĠÙĨ ÙģØªÛĮ
Ġf ury
Ġm ales
ĠA mb
ĠM P
Ú¯Ø± Ø§Ùĩ
ĠB angl
ĠÚ¯Ø± Ø§Ùħ
lo ved
ĠØ¬Ùħ ÙĦØ§Øª
Ġchar ity
ĠÙ¾Ø³Ø± ÙĩØ§
ĠÚ©Ø§ÙĦ ÛĮÙĨØ²
ats on
ĠØ¨Ø¯ÙĨ Ø¨Ø§ÙĦ
Ġeduc ational
agn etic
ĠÙĪÙģ Ø§Ø¯Ø§Ø±ÛĮ
ĠFore st
Ġtight ly
ĠÙĪØ§Ø´ ÙĨÚ¯
Ġrou bles
onym ous
Rem ember
ĠÙĨØ§Ø®Ø§ÙĦ Øµ
ĠÙħØ¬Ø° ÙĪØ¨
H el
M ary
R NA
u an
Ñ ı
ĠØ§ Ø¨ÙĦ
ĠØ§ÛĮÙĨ ÙĤØ¯Ø±
Ø±ÛĮ Ø²ÛĮ
Ø§Ø² ÙĨØ¯Ùĩ
ĠA hab
ol ia
Ġde af
ĠG ulf
ĠH or
ĠN otes
ĠÙħØ¹ ÛĮÙĨÛĮ
ĠØ±Ø³ ÛĮÙħ
20 10
Ġdi agram
Ġstri p
Ġdelight ful
ĠÙĩØ§Ø± ÙĪÙĦØ¯
Ġune as
Ġhypot hesis
ĠØ®ÛĮØ§Ø¨ Ø§ÙĨÛĮ
d am
d ri
e ke
m ain
Ø³Øª Ø§
Ġf are
ĠÙ¾ Ø¯Ø±ÛĮ
ĠØ§Ø³Øª Ø§Ø¯ÛĮ
Ø±ÛĮ Ø§ÛĮÛĮ
ÙĪÛĮ Ø¶
Ġha z
ĠÙĦ ÙĪÛĮ
Ġr ats
Ġwhe els
ĠN aval
ĠO ur
ĠÙħØ³ Ø§ÛĮÙĦ
ĠCh ildren
Ġrec overy
ĠÚ¯Ø°Ø§Ø´Øª ÛĮÙħ
Ġbeh ave
Ġpur ple
ĠØ´ÙĨØ§Ø³ ÛĮØ¯
ĠÛ±Û¹Û¸Û ²
van ia
ĠÚ¯Ø´ Ø§Ø¯
resh old
Ġinvent ion
olit an
Ġpolitic ians
ĠPhys ics
Ø¹Ø² ÛĮØ²Ùħ
Ø®Ø§ Ø°
F ran
M od
S te
u is
ĠØ³ Ø§Ø³
om on
Ġg if
ÛĮÙħ Øª
ĠØ¹ Ø§Ø²Ùħ
ĠÙĤ Ø²Ø§ÙĤ
ĠÙĩØ§ Ú¯ÙĪ
Ġha bits
ĠL as
ĠØ²ÛĮ Ø§ÙĨ
Ġpart ed
Ø²ÛĮ Ø³Øª
Ġrel atives
Ġdist urb
br id
ĠØ¨Ø±Ø¯Ø§Ø´Øª Ùħ
Ġmag ical
Ġ196 3
ĠÙħÙĩÙħØ§ÙĨ Ø§ÙĨ
ĠMil itary
Ġinvestig ation
ĠWal ter
c ert
f ax
s ed
ĠÙħ Ø²ÛĮØª
Ø³ ÙĪØ§Ø±
ĠØ¯Ø± Ø¨ÛĮ
Ø¹ ÛĮÙĨ
Ġe ternal
ĠS now
ĠM alfoy
ĠØ®ÙĪ Ø¨Ùĩ
Ġr ings
ant in
Ġsh o
ĠD VD
Ġal ph
ĠF und
ĠE instein
ue nd
Ġdes ires
Ġins ert
ps on
Ġexper imental
ĠØ±ÙģØªØ§Ø± Ø´
ĠØ³Ø±Ø¯ Ø±Ú¯
ĠÃ ī
ĠØ±ÛĮØ² Ø´
Ġ192 9
Ġopt ions
IN G
Ġspect rum
ĠØ¨Ø®ÙĪØ± ÙĨØ¯
ĠÙ¾Ø´ÛĮÙħ Ø§ÙĨ
E P
G reat
r un
v ia
ĠÙĪ Ø§ÛĮØª
ĠÙĩ Ø´ÛĮ
ĠØ¢ Ø«
ĠØ¹ Ø§Ø¯ÙĦØ§ÙĨÙĩ
Ø§Øª Ø§ÙĨ
ĠA IDS
Ø¯Ùĩ ÙĨØ¯Ùĩ
ĠD C
ÙĨÛĮ Ùĩ
ĠØ§Ø³ Ú©ÙĨØ¯
ĠÙ¾ÛĮØ´ Ø§Ù¾ÛĮØ´
ĠØ¬ÙĪ Ø¬Ùĩ
Ġem bed
ĠØºÛĮØ± ÙĨØ¸Ø§ÙħÛĮ
ĠÙħØ® Ø§Ø±Ø¬
aps ed
Ġinf er
Ġbed s
ĠØªÙĪØ± Ùħ
Every body
ÙħØ§Ø¯Ø± Ùħ
ĠÙ¾Ø±Øª ØºØ§ÙĦÛĮ
Ġmole cule
ÙĨØ¸ Ø±ÛĮÙĩ
Ġagric ultural
Ġcondem ned
ĠCarol ina
ĠÙĪÚ¯Ø± ÙĨÙĩ
4 1
O P
y our
Ùģ Ø¯Ø±
Ġf aded
ĠÙ¾ Ø§ÙĩØ§
ĠÚ©ÙĨ Ø§Ø±ÛĮ
ĠØªØ± ØºÛĮØ¨
Ġdis aster
ĠØ³Ø§Ø² Ú¯Ø§Ø±ÛĮ
Ġbu ff
Ġrep rodu
Ġdri vers
Ġ193 6
ĠÛ±Ûµ Û°
ĠÙħÛĮØ¯ Ø§ÙĨÛĮ
ĠÙĤØ§ Ø¹Ø¯
ĠÙģØ¯Ø± Ø§Ø³ÛĮÙĪÙĨ
Ġfeed back
Ġpregn ant
Ġpow der
c hers
o a
p re
u ish
Ġb ri
Ġin ject
ĠÚĨ ÙĪ
ĠC ape
ĠP oint
os ph
ĠG ad
ĠL ew
ard ed
Ú©ÛĮ ÙĪ
ĠK now
ĠO k
Ġdis put
ĠØ²ÛĮØ± Ú©
ĠTh ird
ĠÚ¯Ø±ÛĮ Ø³Øª
200 8
ĠÛ±Û¹Û¶Û ¸
ĠØ¯Ø§Ø±ÙĪ ÙĩØ§
p ower
Øª Ø±Ø§
ĠØ±Ø§ ÚĨØ³ØªØ±
Ġn est
ĠC ome
Ġv ital
Ġch apter
ĠN ature
act ions
ount ered
Ġres idents
ater ina
ÙħØª Ø§Ø³Ùģ
be fore
Ġcount ing
ten ance
ĠØ´Ú©ÙĦ Ø§Øª
ĠÙģØ±ÛĮ Ø§Ø¯ÛĮ
che ster
yd ney
ĠÙĤÙĦØ¨ Ùħ
Ġaut hent
Ġdemand s
Ġconv ince
ĠØ¨ÙĨÚ¯ ÙĦ
ĠØµØ§ØŃ Ø¨Ø§ÙĨ
Dav id
F I
l le
Ú© Ø¬Ø§
ĠØ¨ Ø®ÙĪØ§ÙĩÛĮ
Ġs way
Ġd il
Ø¬ ÙħÛĮ
ĠØ¬ ÙĪØ²Ùģ
ĠØ¹ ÛĮØ¯
ĠØ¹ ÙĪØ§Ø±Ø¶
ĠÚ©Ø§Ø± Ø§Ú©
ĠG DP
ĠL loyd
ĠF ried
ĠÙĩÛĮ ØªÙĦØ±
ĠV ar
ĠØ´ÙĨ ÛĮØ¯ÙĨØ¯
Ġcont est
cl iff
ĠØ¹Ùħ ÙĪÛĮØ´
Ġfl ame
ĠØ¬ÙĨÚ¯ ÙĦÛĮ
Ø§Ø¦ ÛĮÙĦ
Ġ9 9
Ġadm ire
ĠÙħØ´Øª ÙĤ
Un iversity
EE E
Ġelder ly
ĠØ¹Ø§Ø· ÙģÛĮ
ĠØ¨ÛĮØ§Ùħ ÙĪØ²
ĠÙģØ§Ø³ Ø¯
ÛĮ Ø§ÛĮ
ÛĮ ÚĨ
Ġb ot
Ġd ense
ic ism
Ġsh ield
ap or
ÙĤÛĮ Ø§ÙģÙĩ
Ø§Ø±Ø¯ ÙĪ
ĠÙĨØ§Ùħ Ø·
Ú©Ø§Ø± ÙĩØ§ÛĮ
ĠØ¬Ùĩ Ø§Øª
ÙħØª Ø£
Ø§Ø® ØªÛĮ
Ġind ifference
ĠØ³ÙĦ Ø·Ø§ÙĨ
Ġstart led
ĠØ¨ÙĨØ¯ Ùħ
ĠBe ck
Ġrepresent ative
Thank s
Ġwarn ed
Ġentertain ment
ĠEug ene
Ġtunn el
M R
f lu
Ġt ub
ĠÚĨ ÙĨ
Ø· Ø§ÙĨÛĮ
ĠM arsh
Ø¨Ùĩ Ø§ÛĮ
un ting
ĠÙĨÙĪ Ø±Ø¯
Ġcr ushed
wh ose
Ġbus h
Ġelect rons
Ġprom pt
Ġdead ly
ĠØ§ÙĦØ¹ ÙħÙĦ
ĠØ³ÙĪØ§ÙĦ Ø§Øª
ĠÛ±Û¹Û·Û ¶
Ġbelong s
ĠØ¬ÙħØ¹ÛĮ ØªÛĮ
Ġpresident ial
ĠÙħÛĮØªÙĪÙĨ ÛĮÙħ
ĠLeban on
M at
m ir
p age
Ġc ant
ĠÚ¯ Ø±Ø§ÙģÛĮ
Ø· Ø±Ø§ØŃÛĮ
ĠÙĤ Ø§ÙħØª
ĠS af
ĠP ope
ĠB il
ĠD own
Ú©ÙĨ Ùħ
ian g
ĠÚ©ÙĪ ÙĦÛĮ
ĠØ§Øª Ø®Ø§Ø°
Ġdes erve
Ġend ure
Ġ4 2
ĠÙħØµ Ø±ÛĮ
Ġlight ning
ĠHe ath
ĠComm and
ĠÙħØ§ÛĮ ÙĦÛĮ
ĠÛ±Û¹Û¸Û ³
Ġsens ible
ĠAnt on
ĠWilliam s
ĠPubl ishing
ĠPhilipp ines
ĠØºÙĦÛĮ Ø¸
W ait
Ùħ Ø±Ø¯Ùĩ
Øª Ø§ÛĮÛĮ
Ø³ Ø§Ø¨
Ø¨ Ø¯ÛĮ
ĠØ± Ø§ÛĮØª
ou st
ĠØ§Ø³Øª Ø¹Ùħ
ag le
Ø¢ ÙĪØ±Ø¯
Ġsh one
Ú©ÛĮ ØªÛĮ
Ġlo op
Ø§Ø· ÙĦØ§
Ġunder neath
Ġcar p
ĠØªØ¬ Ø³Ùħ
ĠÚĨÙĨØ§ÙĨ ÚĨÙĩ
Ġpublic ly
ĠMiss ouri
ĠØ³Ø§Ø¨ ÙĤØ§
Ġvol t
sc ale
ĠÙ¾ÛĮÙħ ÙĪØ¯
Ø³Ù¾ Ø§Ø³
Ġcollabor ation
Ġpurch ase
List en
R ober
m ay
Ø¯ ÙĤÛĮ
Ġf ence
ĠØ¨Ùĩ Ø§ÛĮ
Ġl ately
ĠÙĤ Ø¶Ø§
ĠH arr
ĠØ¹Ùħ ÙĪÛĮ
ĠÚ¯ÙĪ Ø§Ùĩ
ĠØªØ£ Ø«ÛĮØ±ÛĮ
Ġmar ble
Ġri val
ĠØ§ÙĨØªØ¸Ø§Ø± Ø´
ĠØªØ±ØªÛĮ Ø¨ÛĮ
ĠØ·ÙĦ Ø¨ÛĮ
ĠSer ge
ĠÙ¾ÛĮÙĪØ³Øª ÙĨ
plic ity
ÙĦØ· ÙģØ§
ĠÙħÛĮØ®ÙĪØ§Ùĩ Ùħ
ĠÙĨØ§Ø®ÙĪØ´ Ø§ÛĮÙĨØ¯
" ;
E uro
ĠÚ© ÛĮÙĨÚ¯
ĠÙĪ Ø¨Ø§
Ġm arsh
ĠØ³ Ø§ÙĨØ¯
Ø¬ Øª
ot al
ur red
qu er
Ġv ivid
ĠL ive
ĠH ans
ĠØ¨Ø§Ø² ÙĪ
ĠÙħØ¹ Ø´ÙĪ
Ġpl ung
Ø§ÙĦÛĮ Ø³Øª
Ġam used
ĠÙħØ«ÙĦ Ø«
Ġrec y
Ġem issions
ĠÙħÙĨØ¸ ÙĪØ±Øª
Ġpar ish
Ġdiv ide
Ġmis fortune
ĠÛ±Û¹Û¸Û ¸
Ġtemper atures
Ø®ÙĪØ´ Ø¨Ø®ØªØ§ÙĨÙĩ
Ġrout ine
ĠCont rol
ĠÙģÙĦÙĪØ± ÛĮØ¯Ø§
ĠÚ©Ø§ÙĨØ¯ ÛĮØ¯
ĠØ§ÙĦØ¬Ø² Ø§ÛĮØ±
Ø³ÛĮÙĦÙĪØ§ÙĨ ÛĮØ§
N one
w arts
Ġm and
Ø§Ø² ÛĮØ¯
ĠG ab
Ġal ien
ĠØº Ø´
ang el
ĠØ¨ÙĨ ÙĪØ´
ĠÙħÙĦ Ø§ÙħØª
ĠØµØ¯ Ø§ÙĤØª
ÙĨÙħ Ø§ÛĮ
Ġquestion ed
Ġprop osal
ĠFor ces
Ġfac ult
Ġsafe ly
ĠÚ©Ø§Ø±Ø´ ÙĨØ§Ø³ÛĮ
Ġreb ell
ias m
Ġaccomp any
Ġconserv ative
Ġlas er
Ù¾Ø§Ø³ Ø®
Ġvulner able
Ġinsect s
ĠOtt oman
at ivity
ĠØª Ø«
Ġc ens
Ø§Ø¯ Ùħ
ĠØ¨Ø§ ÙĬØ¯
ÙĪÙĨ ÛĮÚ©
ĠC rit
Ġ1 20
ag ged
ĠT est
ĠW ars
ĠW olf
ĠJ r
Ġnow here
Ġtr unk
ĠÙĦÛĮ Ø±Ùĩ
Ġstr ings
Ġext ension
Ġcontin ent
Ġclass room
ai ro
Ġcharacter istic
ĠÙ¾Ø±Ø¯Ø§Ø² ÙĨØ¯
Ġslight est
Ġlog ical
Ġdeli very
Ġlic ense
ĠNaz i
ĠØ²ÙĨØ§ Ø´ÙĪÛĮÛĮ
C al
b at
ÙĪ ÙģØ±
ĠÙĤ Øµ
ĠÙĤ Ø±ÛĮØ¨
Ø§Ø² ÙĪÙĨ
ĠM ike
ĠØµ Ø¹ÙĪØ¯
ĠÙĦ Ø§ÛĮØ¯Ú¯ÛĮØª
Ġk ick
out s
Ġgo ver
ĠØ¨Ø§Ø± ÛĮØ¯
ĠØªØ£ Ø«Ø±
Ġpres erved
ĠAirport s
Ø§ÙĨÚ¯ Ø´Øª
Ġ6 00
Ġpat ri
Ġcreat ivity
ĠÛ±Û¹Û¸Û ·
Ġpath s
Ġball s
ĠÙħØ®ÙģÛĮ Ø§ÙĨÙĩ
ĠÙĨÙĪØ§Ø² ÙĨØ¯Ùĩ
Ġjournal ists
ĠÙĦÛĮÙĨ ØªÙĪÙĨ
war f
Ġregist ered
ĠÚ©Ø§ÙĨØ§Ø¯ Ø§ÛĮÛĮ
h al
y ers
ĠØ¯Ø± Ùħ
ĠÙ¾ Ø³ØªØ§ÙĨ
ĠÙĤ Ø¯ÛĮ
ĠM ult
ill ance
ĠD ictionary
Ġch ances
ĠÙħØ¹ Ø§ÙĦ
ĠØ¨Ø¯ ÙĨÙħ
ĠØ§ÙĦ ØŃ
ĠØ§Ø± ÙĦØ§ÙĨØ¯ÙĪ
ĠØ¨Ø²Ø±Ú¯ Ø´
ĠØ§ÙĨØª ÙĩØ§
Ġunder lying
Ġcount ed
ĠØ° Ø§Øª
ĠTh or
Ġmod est
Ġlight ing
ĠØµØ¯ ÙĪØ±
Ú©Ø±Ø¯ ÙĨ
Ġsci ences
ĠØ¨Ø³Øª Ø±ÛĮ
ĠØ¬ÛĮ Ø¨Ø´
Ġactiv ists
ÙħØ³ ÙĦ
Ġpriv acy
ĠÙ¾Ø§ÙĨ ØµØ¯
ĠÚ©Ø´Ø§ÙĪØ± Ø²Ø§ÙĨ
Ġfat ig
force ment
ĠØ¬Ø§Ø³ ÙĪØ³ÛĮ
Ġstrateg ies
ĠÙĩØ¯ ÙģÛĮ
ĠØ¢Ú©Ø³ ÙģÙĪØ±Ø¯
0 6
C ount
u ction
Ùħ Ø®ØµÙĪØµØ§
Ġt ack
ÙĤ Ø³ÙħØª
ĠÙħÙĨ ÙĤ
ĠØ¨ÛĮ Ú©
ĠØªØ± ÙĤÛĮ
ĠØ¯Ø³Øª Ú©Ø´
ie ve
ach i
ĠØ¨Ø® ÙĪØ±Ùħ
Ġcomm un
Ġinc hes
ĠØ¨Ø®Ø´ ÛĮØ¯Ùĩ
Ġposs ibilities
ĠÚ¯ÙĦ ÙĪÛĮØ´
ug s
ĠØ¹ÙĪ Ø§Ø·
ĠØ§Ø¨Øª ÙĦØ§
Ġste ep
ino is
ĠÙ¾Ø±Øª ØºØ§ÙĦ
ĠAlexand ra
Ġaware ness
Ġexha ust
ĠDu ke
ĠSup reme
D ue
in n
Ġw aved
or able
ĠØ² Ø±ÛĮÙĨ
ÛĮÙħ Ø§
ur able
ol n
ĠØ§ÛĮ Ø³
ĠØ§ÛĮ ÙĦÛĮ
ĠØ¯Ø§Ø± ØªÛĮÙĨ
ĠH o
ĠF ang
ĠØ¯Ø³Øª Ù¾Ø§
ĠØ¯Ø§Ø¯ ÛĮØ¯
Ġdid nt
old ing
Ġ4 4
Ø§ÙĨØª Ø®Ø§Ø¨
Ġclass ified
ĠØ¨Ù¾ Ø°ÛĮØ±
ĠÙħØ³Ø§ ÙģØª
Ġenc ountered
ĠÙģØ±Ø³ØªØ§Ø¯ ÙĨØ¯
Ġbelong ing
Ġfle e
ĠBul gar
ĠØµÙĦÛĮ Ø¨ÛĮ
Ġfan ci
Ġparam eters
ĠImper ial
C or
M a
ĠØ¯ Ø§ÙĪØ±
ĠÙĪ Ú¯ÙĪ
ĠÙĩ ÙĪÙħ
Ġc ough
Ø¹ ÙĨ
ĠØ§Ø² Øª
ĠÙ¾ ÙĨÛĮ
ĠC ur
ĠC ost
and y
ĠØ¯ÙĪ ÛĮØ¯ÙĨØ¯
Ġk ings
Ġex agger
ĠÙħØª Ø¹ÙĩØ¯
ÙĪØ² ÙĪÙħ
iss y
ced es
uck ed
Ø®ÙĪØ¯ Øª
ĠØ§ÙģØ±Ø§ Ø·ÛĮ
ĠSqu are
Ġpursu it
D es
J amie
T ur
T ime
Ø³ Ø±Ùĩ
Ġh orm
Ġd ow
ĠÚĨ ÛĮÚ©
Ġre vel
ĠS ign
ĠN ad
ĠÙħØ¹ Ø§ÛĮÙĨÙĩ
Ù¾Ø³ ÙĨØ¯
Ġsc rew
ĠÙħÙĦ Ø§ÙĦ
ĠÙħØ³Øª Ø¹Ùħ
ĠØªÙģ ØµÛĮÙĦ
ĠWh it
Ã© e
ĠØµØ¯Ø§ Ø¦ÛĮ
ĠØ§Ø¨Øª Ú©Ø§Ø±
ien na
Ġinvol ving
ĠØ¬ÙĨØ³ÛĮ ØªÛĮ
ĠØ§Ø¸ÙĩØ§Ø± Ø§Øª
ĠÙħØŃØ¨ ÙĪØ³
ĠØ±Ú© Ø§Ø¨
Ġpray ers
ĠÙĦØ§ÛĮ ØŃÙĩ
ĠØ¬ÙĪØ±Ø¬ ÛĮØ§
ĠÙĨÙĬ Ø³Øª
Ġunfortun ate
somet imes
ĠÙģØ¯Ø§ Ú©Ø§Ø±ÛĮ
c ons
f ish
m es
Ġg ut
ĠR ot
Ġch icken
ĠN ord
ĠØº Ø§Ø±Øª
ĠV ern
Ġback ward
ØªÙħ Ø§ÙħÛĮ
ail ing
Ġ3 9
Ġbel t
Ġfil ter
Ø¨ØŃ Ø«
Ġ196 1
Ġfear ful
ĠÚ¯ÙĨ Ø¬Ùĩ
Ġpick ing
ĠØ±ÙĪÛĮØ¯ Ø§Ø¯ÙĩØ§ÛĮ
ĠØ®Ø´ÙĨ ÙĪØ¯
writ er
igen ous
Ġinev itable
ĠØ¹ÙĨÚ©Ø¨ ÙĪØª
ĠMond ay
! !
S ay
u ctor
Ġp airs
Ø¹ Ø§ÙĤØ¨Øª
Ø§Ùħ Ú©Ø§ÙĨ
et he
Ø§Øª ÙĪ
ĠS el
Ġch at
ĠÚ©Ùħ ÛĮÙĨ
Ġover t
Ġres erve
ĠIn st
ĠØ§Ø¹Øª ØµØ§Ø¨
ĠØ¢Ø³ÛĮ Ø§ÛĮÛĮ
Ġbar ric
ĠØ¯ÙĪØ³ØªØ§ÙĨ Ùħ
ĠØ³ÙĪØ² ÙĨ
ĠÙħÙĪØªÙĪØ± ÙĩØ§ÛĮ
ĠRepublic an
ĠJer usalem
ĠNik olay
E r
R A
Û ´Û
Ġ @
Ú© Ø§Ø³Øª
ĠØ¨ ÙĤ
Ġthe atre
Ġs ession
Ú¯ ÙĪØ±ÙĨ
Ġh ier
Ù¾ ÙĪÙĦÛĮ
ØŃ Ø§Ùħ
ĠØ¬ Ú©Ø³ÙĪÙĨ
ĠP sych
ĠØ¯ÙĪ Ú¯Ø§ÙĨÙĩ
ĠØ³Ø± Ø¨Ø§Ø²ÛĮ
Ġor ph
Ġal ert
ie u
ĠÙħØ± Ø²ÛĮ
Ø®ÙĪ Ø§Ø±
ÙħØª ÙĪÙĦØ¯
Ø£ Ø³
Ø³Ø± Ø§ÛĮ
Ġfl ights
ĠØ´Ø¨ ØŃ
Ġworld s
ĠÙĪÙĤØª Ø´
Ġyoung est
ĠWe bsite
che ll
Ġcir cles
ĠÙģØ±ÙĪØ´ ÙĨØ¯Ùĩ
Ġ194 4
Ġ195 9
AP TER
Ġpersu aded
Ġsla very
ÙħØªØ£ Ø³Ùģ
T H
m aster
ĠØ¨ Ø¬Ø§
ĠØ¨ ÙĪÙĦÛĮ
ĠØ§ Ù¾ÙĦ
Ú¯ Ø²Ø§Ø±Ø´
Ùģ Ùģ
it ory
Ġb ind
Ġg oss
Ġit em
ĠØµ Ø±Ø§ØŃØª
ĠØªØ§ Ú©ØªÛĮ
ĠØ´ÙĪ Ú©
ĠY ah
ĠØ¨ÙĨ Ø²ÛĮÙĨ
ĠSh ah
ĠÙ¾Ø±Ø³ÛĮØ¯ ÙĨØ¯
Ġdoor way
Ġbar rel
sy l
Ġpay ment
ĠÚ¯ÙĨ Ø§ÙĩÛĮ
ĠØ¨Ø®ÙĪ Ø§Ø¨Ø¯
ĠLu ke
Ġsem i
Ġtheore tical
Ġignor ant
Ġshru gged
ĠÙĪÛĮØ±Ø¬ÛĮÙĨ ÛĮØ§
ĠÙĪØ§Ø´ÙĨÚ¯ ØªÙĨ
B O
Ä «
Ø¯ ÙĨØ§
ĠÙĩ ÛĮØ±
Ġg ross
Øµ Ø¨Ø±
ĠÚ©ÙĨ Ø§ÛĮÙĩ
ĠS om
Ġcom edy
ĠR ams
ĠÙĨØ§ Ø®ÙĪØ§Ø³ØªÙĩ
Ġam pl
ĠÚ©Ø±Ø¯ÙĨ Ø´
ĠØ²ÙĨ ÛĮØ¯
ĠAr cadio
Ø§Ø¶ ÙĦ
ĠØ¯Ø®ØªØ± ÙĩØ§ÛĮ
Ġmar ched
Ġspeak s
Ġactiv ist
Ġdest iny
Ġprint ing
Ġscream ing
ĠØ§Ø³Ø±Ø§Ø± Ø¢ÙħÛĮØ²
Ø®ÙĪØ± Ø´ÛĮØ¯
ĠVict or
ĠØ¬Ø§Ø¨ Ø¬Ø§ÛĮÛĮ
ĠØ®ÙĢ ÙĪØ¯
Ġrelie ved
Q L
u ate
w orld
Ø³ ÙĢ
Ø§ÙĨ Ø¬
ĠÙħÛĮ Ø¯Ø§Ø¯
Ġd irt
ĠÙģ ÙĦØ§
ĠØ¹ ÙĢ
ĠØ¨ÛĮ ÙĪØªÛĮ
ĠÙ¾ÛĮ Ú©Ø§Ø±
ĠD er
Ġch ip
ĠN umber
ĠÙħØŃ Ùħ
Ġpl us
ĠO ther
Ġgr ade
Ø¨ÙĦ ÙĨØ¯
aw are
ĠØ·Ø±Ùģ ÛĮÙĨ
ĠÚ©Ø³ ÙĦ
ĠØ³ÙĦ Ø·Ùĩ
Ġpres erve
Ġinv itation
ĠØ³Ø· ÙĦ
ĠÙģØ¶ Ø§ÙĨÙĪØ±Ø¯
ĠØ¨ÙĢ Ø±Ø§ÛĮ
ĠÙĪÙĦ ØªØ§Úĺ
ĠÙĨØ¨Ø§ Ø´ÙĨØ¯
Ġmer ry
ĠÚ©ÙĪØ¯Ú© Ø§ÙĨÙĩ
ÙĪØ§ÙĤ Ø¹
Ø±Ø§Ø³Øª ÙĪÙģ
Ġtarget s
ĠØ¨ØªÙĪÙĨ ÛĮÙħ
m ill
ä º
Ø¨ ÙĨÛĮ
ĠØ³ ÙĪÙĦ
em al
Úĺ ÙĪ
ĠÙħØ³ Ø±Øª
ens ed
ØªÙħ ÙĦ
ĠØ¢Ø± Ø§ÛĮÙĩ
ĠÛĮØ§Ø¯ Ø¢ÙĪØ±
Ġexpl aining
ĠØŃØ¯ÙĪØ¯ Ø§
ĠØ¹Ø² ÛĮÙħØª
Ġ194 7
ĠMy r
ĠØ¬Ø³ ÙħØ§ÙĨÛĮ
Ġregard less
Ġrock et
erson al
Ġplain ly
Ġrevolution ary
Ġrank s
ĠMex ican
ĠConf ed
Ġrepro ach
ĠÙĩÙĨØ¯ÙĪ Ø³ØªØ§ÙĨ
ĠÙĦØ² ÙĪÙħ
m m
Ġs au
Ùģ ÙĪÙĤ
ĠØª Ø§Ø¨ÙĦ
Ġb ark
Ġb orr
Ġh unt
ĠA ld
ri ved
ĠØ±ÙĪ ÙħØ§ÙĨ
ke ys
ĠP ippin
Ø¢ ØªØ´
ĠG a
ĠG ib
ĠL og
Ø§ÙĪ Ø¨
ĠN i
ind a
ĠØ§Ø³ Ø§ÙħÛĮ
ĠÚ¯Ø±ÙģØª Ø§Ø±ÛĮ
ĠØ®Ø· Ø±Ø§Øª
ob y
Ġinter vals
ĠÙĨØ®ÙĪØ§Ùĩ ÛĮÙħ
Ġclass ic
ĠØ³ÙģØ± Ùĩ
Ġmusic ian
200 9
Ġaut umn
ĠØ¨Ù¾ Ø°ÛĮØ±Ø¯
ĠØ¨Ø¨ Ø®Ø´
gress ive
ĠÙħÛĮÚ©Ø±Ø¯ Ùħ
Ġgradu ate
Ġgalax ies
F ort
J ac
P a
i Ä
Ø¯ Ø§ÙħÛĮ
Ġw ard
ĠS n
ĠÙĦ Ø¨Ø§Ø³ÛĮ
Ġco operation
ĠÙħÙĩ ØªØ§Ø¨
Ġpol ar
Ġgl imp
ĠØ§Ùĩ Ø¨
Ġcour ts
ÙĦØ³ ÙĦ
ĠÙĨØ§Ø± ÙĨØ¬ÛĮ
ĠÙĦÙĪ Ø¦
Al most
Ġcor p
Ġste al
ĠÙħÙĢ ÙĨ
ĠÛ±Û¹Û·Û ¹
Ġstrange ly
Ġobser ving
ĠØ§Ø®ØªÙĦØ§ÙĦ Ø§Øª
ĠØ¨ØªÙĪÙĨ Ùħ
Ġexplos ion
ĠØ¬ÙĪÙĦÛĮ Ø§
Ġdiscipl ine
Ġglimp se
0 8
Ġt rop
Ġd umb
Ġn inet
Ø· ÙĪØ¨Øª
ĠÙħÙĨ Ø§Ø¸Ø±
ill ery
ore r
ĠØ³Ø± Ú©Ø§Ø±
ĠR ussell
Ġab ilities
Ġbut t
Ġinst alled
Ġ4 7
Ġche ese
Ġfin ite
cent ral
Ġve ctor
Ġspread ing
Ġtrust ed
Ġconsist ing
Ġdisapp ointed
ÙĪÚ¯Ø± Ø§ÙģÛĮ
Ge orge
Bl ack
Ġpurs ued
ÙħØ·ÙħØ¦ ÙĨÙħ
ĠBelg ium
i ology
Ø§ ÙĪØ±ÛĮ
ÙĪ ÙĨØ¯Ùĩ
Ġf ist
ĠØ³ Ø§ÙĨØ³
ÙĪÙĨ ÙĪ
Ġre ass
ĠS ex
ÙĨÚ¯ Ø§ÙĩÛĮ
ĠL ast
ÙģØ± Ø´
ĠØ§ÙĦ Ø²
ĠØ¯Ø§ÙĨ ÙĦ
ĠÙħØ±Ø¯ Ú¯Ø§ÙĨ
Ø§ÙĨØ¯ Ø§Ø±
ĠØ¬Ùħ Ø¬ÙħÙĩ
ĠØ¨ÙĨ ÙģØ´
Ġret rieved
Ġpres ents
Ġexam ination
ĠÚ¯ÙĦ Ø®Ø§ÙĨÙĩ
Ø¨ÙĨ Ø§Ø¨Ø±
ĠØ®Ø¯Ùħ Ùĩ
ĠØ¢Ùĩ ÙĨÛĮÙĨ
ĠØ´ÙĨØ§Ø³ ÙĨØ¯
ĠÙħØ§ÙĦ ÙģÙĪÛĮ
Ġspeak er
ĠØ´Ø§ÛĮ Ø³ØªÚ¯ÛĮ
Ġmut ual
ĠØ§ÙĦÚ©Øª Ø±ÙĪÙħ
ĠØ¶Ø® ÛĮÙħ
ĠÙĪÛĮØ¯ÛĮ ÙĪ
ĠHog warts
S ch
m ad
t i
Øª Ø¬
Øª ÙĨÛĮ
Ġt in
ĠÙħ Ø³ØªÙħ
at isf
an es
ĠØ® Ùģ
Ġst ake
Ġwe igh
ĠM ost
ĠH oney
ĠE D
ĠØ§ÙĦ ÙĦ
Ġbo ot
Ġart istic
Ġopp on
Ġleg it
Ġ194 9
ĠØªØ±Ø§ Ø´Ùĩ
Ù¾Ø¯Ø± Ùħ
ĠØ±Ø³Ø§ÙĨ ÛĮØ¯
ĠTok yo
ĠYanke es
syl vania
l aw
ĠØ¨ ÙĪØ´
ÙĦ Ø±Ø¯
Ø³ ÙĨØª
ĠÚ© Ø±Ø³ÛĮ
er ving
ĠÙĨ Ø®ÙĪØ±Ø¯
ĠØ¯Ø± Ø§ÛĮÙĨ
Ø§ÙĦ ÛĮÙĨ
ro c
ĠS P
ĠØ¯Ø§Ø± ÙĪÛĮÙĨ
ĠP ut
ĠØ¯ÙĪ Ø´ÙĨØ¨Ùĩ
ĠÙ¾ÛĮ Ø§Ù¾ÛĮ
Ġun re
ĠØ¯ÙĪØ± ÙĪ
ĠØ§Ø¹ Ø²Ø§Ùħ
Ġacc ent
ĠÙĪØ± Ø´Ú©
ĠÙħØ§Ùĩ Ùĩ
hip s
Ġrest ed
Ġtechn ological
ĠÙħØ±Øª Ø¨Ø§
Ġri b
Ġtem ple
Ġrul ed
ĠØ¹Ø±ÙĪ Ø³Ú©
Ù¾Ø§ÛĮ Ø§ÙĨ
Ġign ored
Ġwand ering
ĠØ¯Ú¯Ø± Ú¯ÙĪÙĨÛĮ
Ġcorrespond ing
Ġbath room
Ġattribut ed
quis ite
Nat asha
Ġenthus iasm
Ġarrang ement
Ġmanif est
L ittle
Ġt ang
ĠØ¨ Ù¾ÛĮÙĪÙĨØ¯
Ø³ Ø§Ø±
ĠØ¯ ÛĮÙħ
ĠÙĨ Ø®ÙĪØ§ÙĩÛĮ
Ġb ust
im b
id ance
ĠP oly
ĠÚ©Ø§Ø± Ú¯Ø±ÛĮ
ĠG ra
ĠÙģØ± Ø¶ÛĮ
ĠØ¢Ùħ Ø¯ÛĮ
Ġshe ets
we ight
ĠØ³ÙĪ Ø¦ÛĮ
ood y
ĠÙ¾Ø±ÙĪ Ø±Ø¯
Ġcar pet
Ġimp ulse
Ú¯Ø° Ø±
ĠAl ger
ĠPro p
Ġtri ll
Ġtri als
ĠØ§ÛĮØ¯ Ø¦
ĠÙĪÙĦ Ø§ÛĮØª
200 1
ĠØ§ÙĪØ± Ø³ÙĪÙĦØ§
ĠÙħÙģ ØµÙĦ
Ġ193 8
Ġeight een
ĠÙ¾Ø±Ø³ ÛĮØ¯Ùĩ
ĠØ¨Ø®ÙĪØ§Ùĩ ÙĨØ¯
Ġindust ries
ĠMed al
ÃŃ a
ĠØ³ÙĨØ¬ Ø´
ĠÙ¾ÙĩÙĨ Ø§ÛĮ
Ġaccompl ish
Ġpurs ue
Ġancest ors
ĠIll inois
ĠMaj or
ĠQur an
Ġï¼ Į
ĠØ¨ÙĪØ¦ ÙĨØ¯ÛĮØ§
u in
Ġm ourn
ĠÚĨ ØªØ±
ĠØŃ Øª
Ġy eah
ÙĪÛĮ ÙĦÛĮ
ĠÙĦ Ùģ
ĠØªÙĪ Ùħ
ĠÚ©Ø´ ÙĨØ¯Ùĩ
iz a
ĠØ¨Ø® ÙĨØ¯
Ø§ØŃ ØªÛĮ
Ġfl ows
end ar
Ġexp and
ĠZ e
ĠØ¨Ø³Øª ÙĨØ¯
ĠÙ¾ÙĨ Ø³ÛĮÙĦÙĪØ§ÙĨÛĮØ§
ĠØ®Ø§Ú© Ø³ØªØ±
Ġlay ers
Ġ194 6
ĠØ´ÙĨØ§Ø®Øª ÙĨØ¯
ĠÙħØŃØ¨ ÙĪØ¨ÛĮØª
Ġhous ing
Ġstrugg led
ĠÙĪØ² ÛĮØ¯
ĠØ±ÙħØ² ÙĨÚ¯Ø§Ø±ÛĮ
ĠØ±Ø£ Ø³
ĠØ§ÙħØ¶Ø§ Ø¡
ĠÙ¾Ø§Ø´ ÙĨÙĩ
ĠÙĪÙĪØ¯ ÙĩØ§Ø³
ĠColl ins
Ġcryst al
ĠAff airs
Ġtran qu
R askolnikov
Ġ vel
ÙĨ Ú©Ø§
Ø³ Ú¯
ĠØ´ Ø§ÙĩÛĮ
Ġm ig
Ġd ried
Ġth reshold
ĠÙ¾ Ø®Øª
ĠØ§ÙĨ ÛĮÙħÛĮ
os ity
ĠT ai
Ø¯ÛĮ ÙĪÛĮØ¯
Ġlo ft
ĠN ort
ĠW alk
ÙĨØ§ Ù¾
ĠO F
ĠØªÙħ Ø§ÛĮØ²
ont o
Ġbelie ving
ĠØŃØ§Ø¶ Ø±Ùħ
ĠØ§ÙĤ ÙĦÛĮØª
ape l
Ġremember ing
ĠÛ±Û¸Û ´Û
ĠAb d
Ġcrit ics
ĠÙħÙħÙĨ ÙĪ
ĠØ¯Ø®Øª Ø±Ùħ
Ġcontribut ed
Ġuncertain ty
Ġsou p
Ġdio xide
ĠÙħØ²Ø® Ø±Ùģ
D ear
w ick
Ø¨ ÙĪØ³
ĠÙĨ Ø±Ø¯
Ġc able
Ġb icy
ĠØ¯Ø± Ú¯Ø§Ùĩ
ĠØ¢ Ø³Ø§
ÛĮØ¯ Ú¯ÛĮ
Ø¬ Ø§Ø¨
Ġbe loved
Ø§Øª ÙģØ§ÙĤ
ĠM ell
ĠÙģØ± ÙĨÚ¯ÛĮ
ĠÚ¯Ø± Ø§ÛĮØ§ÙĨ
Ø¬Ø§ Ø¹
Ġpe oples
ĠØ¨ÛĮÙĨ ÙĪØ§
Ġsp ider
ĠÙĨÙĩ Ø§Ø¯ÙĩØ§ÛĮ
ĠÙħÙĤ Ø¯
ĠV all
ĠØ³Ø§Ø² ÛĮÙħ
ĠÚĺ ÙĨÛĮ
Ġfl ushed
ĠØªØ¨ Ø³ÙħÛĮ
Ġinter vention
Ġcap s
ĠÙħØ§Ø± Ú¯Ø§Ø±Øª
ĠÙģØ±Ø§ Ø®ÙĪØ§ÙĨ
ĠØ·Ø¨ ÙĤØ§Øª
Ġoper ator
ĠÙħØ±Ø¨ÙĪØ· Ùĩ
Ġlow ered
ĠØ´Ø®ØµÛĮ ØªÛĮ
unt ary
ĠMc C
Ġdetect ion
Ġconsist ent
Ġcow ard
ĠØ¨Ø±Ø§ÙĨÚ¯ÛĮ Ø®ØªÙĩ
ĠGall ery
ĠÙĩØ§Ø¨ ÛĮØª
K ate
c ut
f ront
l ad
ĠØ¨ ÙĨØ¯Ùĩ
or i
Ġto re
ĠØ³ ÙĨÛĮÙĨ
Ġre vers
ro id
ĠB ou
Ġwho lly
Ġpl ates
ĠK night
ip es
Ġcons ol
ars on
Ġph ones
ĠØ¨Ø´ Ú©Ùĩ
An na
ĠØ´ÙĨØ§Ø³ Ùĩ
ĠÙĪÙĨ Ø²ÙĪ
Ø³ÙĪÙĨ ÛĮØ§
ĠÙģÛĮ Ø¨Ø±
ĠØ§ÙģÚ©Ø§Ø± Ø´
Ġpack ed
Ġforest s
Ġevolution ary
ĠÛĮÙĪØ± ÙĪ
ĠFranc is
ĠØ¯ÛĮÙĪØ§ÙĨ Ú¯ÛĮ
ĠMill er
Ġdeliber ately
atern al
B en
h uman
s aw
u i
Ø¯ Ø³ØªÙĩ
Ú© Ø´ØªÛĮ
Ø³ ÙģØ±
ĠÙĩ Ø²
Ġc aval
Ø® Ø¯Ø§ÙĪÙĨØ¯
Ġl az
ĠÙ¾ Ø®ØªÙĩ
ĠÙ¾ Ø§ÙĦØª
ĠÙĤ ÙĪØ±
ĠM id
ĠB eth
ĠK ansas
Ġar bit
ĠØ¨Ø§Ø²ÛĮ Ú¯Ø±ÛĮ
Ġel bow
me e
Ġprocess or
Ġimportant ly
20 11
Ġ194 2
Ġimm igrants
Ġsus pended
ĠÙĩÙĪØ§Ù¾ÛĮÙħ Ø§ÛĮÛĮ
ĠÙĨØ§Ø² ÙĨÛĮÙĨ
Ġnovel s
Ġdetect ed
Ġpark ing
Ġheaven s
ĠMag azine
Ġcandid ates
Ġcert ific
Ġfier ce
Mart in
Ġtrous ers
ĠÙħØ¹Ø´ÙĪ ÙĤÙĩ
Ġfanci ed
r ine
Ñ Į
ĠØ¨ Ø§ÛĮØ±
Ġc ott
Ġf ir
Ġto oth
Ġth irst
ĠÙģ ÙĪØ§
am ation
ĠA L
ĠC ab
ĠP ap
ĠB uend
Ġal tered
ĠÙģØ± Ø¨Ùĩ
Ġlo aded
ÛĮØ§ Ú©Ùģ
ĠÚ©ÙĪ Ø¨Ø§
ĠO p
ĠØ§Ø± Ú¯Ø§ÙĨÛĮ
Ġad ap
Ġres olve
Ġco oper
Ġlong ed
ĠØ´Ùħ Ø§Ø±Ø´
ĠÚĨØ´Ùħ Ùħ
ĠØªØºÛĮÛĮØ± Ø§ØªÛĮ
Ġmar vel
Ø«ÛĮ Ùĩ
Ġadm ired
Ø§ÙģØª Ø§Ø¯Ùĩ
ĠCo ast
udd y
ĠÙ¾Ø±ÚĨ ÛĮÙĨ
ĠØ´Ø±Ùħ ÙĨØ¯Ùĩ
ĠÙħØ¹Ø§Ø¯ÙĦ Ø§Øª
CH APTER
Ġgradu ated
ĠVict oria
ĠÙħÚ©Øª Ø¨
ĠØ¬ÛĮÚ© ÙĪØ¨
ĠÙħØ¹Ø§ÙħÙĦ Ø§Øª
G C
Ù Į
ĠØ¯ Ú©Ø§ÙĨ
Ø¨ Ú¯ÙĪ
ĠØ± Ø¶Ø§
an na
Ø· Ø§Ø±
Øµ ÙĨØ¯
ry pt
ĠÙħÙĤ ØµØ±
ĠØ§Ùģ Ú©ÙĨØ¯Ùĩ
ĠÙħÙĪØ±Ø¯ ÛĮ
ĠØ²ÛĮØ± Ø³Ø§Ø®Øª
ne cess
Ù¾ÛĮ ØªØ±
Ø§Ø¦ ÙĦÛĮ
ĠØ®ÙĪØ§Ø¨ Ø´
nect ed
ĠØ²ÛĮØ¨Ø§ Ø¦ÛĮ
ĠØ¨Ùģ Ø±ÙĪ
ĠVal entine
Ġmir acle
Pro fessor
ĠØ´Ø¨Ùĩ Ùĩ
Ġsym met
ĠSim on
Ġalph abet
, \
A ud
C omm
J ack
O fficial
} .
Ġt ube
ĠØª Ø§ÛĮÛĮ
Ġb anned
ĠÙģ ÙĦÙĪ
ĠØ¢ÙĨ Ø²ÛĮÙħ
ĠØŃ Ø±ÛĮÙħ
Ġwe bs
ĠA T
ĠC ulture
ĠØ¨ÛĮ Ú©Ø§Ø±ÛĮ
Ġr ice
Ø¢ Ø±Øª
ig e
ĠÙģØ± Ø¹ÛĮ
Ġpro c
Ø¯ÛĮ Ú¯Ùĩ
Ġch ocolate
ĠÂ £
ĠJ oh
ÙĪØ¨ Ú¯Ø§Ùĩ
Ġinc on
ĠÙģØ¶ Ø§ÙĩØ§ÛĮ
Ġwarm th
ĠMos es
ĠSer ver
ĠÚ©Ø´ÛĮ Ø´ÛĮ
fortun ately
Ø§ÙĪÙĦÛĮ ÙĪÛĮÙĩ
ĠCir cle
ĠÙħÙĦØ§ÛĮ ÙħØª
Ú© ÙĨÛĮ
Ġs oph
Ġw re
ĠÙĪ Ø§ÙħÛĮ
Ù¾ ØªÛĮ
ĠØ¨Ø± Ø³Ùħ
ĠØ±ÙĪ ÙħØ§ÙĨÛĮ
ĠØ¨ÛĮ Ùģ
ĠØªØ± ÙĪØ±
ĠÙĨÙħÛĮ ØªÙĪÙĨ
ĠL at
ĠØ¬Ø§ ÙĪØ¯
az ed
ØµØ¯ Ø§ÛĮØ´
ĠØªØ¨ Ø±ÛĮÚ©
ĠØ§Ø·ÙĦØ§ ÙĤ
up on
ĠØ¨Ø´ ÙĪÛĮ
ÙħØ±Ø¯ ÛĮØ§Ú©Ùģ
Ù¾Ø§ Ø´ÛĮ
ĠAnd erson
ĠØ¹Ø¶ ÙĪÛĮ
ĠÛ±Û¹Û·Û ¸
Ġfac ility
ĠIvan ovitch
Ġsequ ences
Ġhal ted
ĠØ¯ÙĬ Ú¯Ø±
Ġstead ily
Ġsuffic iently
c ific
s ing
x y
er ick
Ġd at
ĠØ¨Ø§ ØªÙĦØ±
ĠØ§Ø³Øª Ø§Ø±
Ġbe es
ĠS ydney
ĠA y
ĠB ird
ĠR oss
ie ge
ĠÙħØ± Ø¶
ĠØ¨ÛĮÙĨ Ùĩ
ĠÚ©ÙĦ Ú©
ĠÙĪØ¬ÙĪØ¯ ÛĮ
Ġres ent
Ġhapp ily
Ġinc omp
ĠÙ¾Ø¯Ø± Øª
ÙĪÙĦÙĪ ÚĺÛĮÚ©
ĠØ§ÙĤ ÙĦÛĮÙħ
ĠGerman s
Ġdisplay ed
Ġaccess ible
ĠÛ±Û³Û ·Û
Ġtit led
ĠØ§ÙģØªØ® Ø§Ø±ÛĮ
ĠÙħØ§Ø³ Ùĩ
Ġexch anged
ĠØŃÙĪØ§Ø³ Ø´
ĠJul ia
ĠÙĨÙĪÙħ ÛĮØ¯
Ġprepar ation
ĠSoft ware
ĠÙĩØ§Ú¯ÙĪ Ø§Ø±ØªØ²
H as
I F
W ork
Ġt id
ĠÚ¯ Ø¯
ĠÚ¯ Ø§Ø±
ĠØµ Ø¯Ø±
em et
ĠT en
ÙĬ Ùī
ĠÙħØ¬ Ø§Ø±Ø³ØªØ§ÙĨ
ĠØ´Ú© ÙĪ
Ġsub tle
Ġinv ite
ĠØ³Ø¨ Ø¯
Ġvis itor
ĠBe ach
yn ch
Ġsatisf y
ÙħØ¬ Ø¨ÙĪØ±
ĠØ¨Ø®ÙĪØ§ÙĨ Ùħ
ĠÙĤØ±Ø§Ø±Ø¯ Ø§Ø¯ÛĮ
ĠØ¶Ø±Ø¨ Ø§Øª
Ġbag s
Ġvent ure
ĠØ¨Ø§Ø²Ú¯Ø±Ø¯ Ø¯
ĠPortug uese
ĠØ²Ø§ÛĮ ÙħØ§ÙĨ
ĠPenn sylvania
M uch
r ac
ĠØ§ Ú¯
ar ter
ĠØ§Ø² Ø§ÛĮÙĨ
im mer
ith m
ĠS ky
ĠØ¨ÛĮ ÙĪÙĦÙĪÚĺÛĮÚ©ÛĮ
ĠÙĦ Ø§ÙĨ
ĠÙĦ ÛĮØ¯
Ġex ert
ĠØ¨Ø§Ø² Ú¯ÙĪ
ous ed
ĠØ§Ø³ ÙĦÙĪ
act s
ru p
ĠØ§Ø± ÙĤØ§Ùħ
ĠØ¹Ùħ Ø¯Ø§
Wh atever
Ġpre y
Ø±ÙĪØ² ÙĨØ§ÙħÙĩ
ĠÙħÙĩÙħ ØªØ±
ĠØªÚ© Ø«ÛĮØ±
Ġfour teen
ĠØ¹Ø² Ùħ
ĠÙħØ´Ø®Øµ Ùĩ
ĠØ¨Ø±Ú¯Ø´Øª ÙĨØ¯
ĠÛ±Û¹Û¶Û ¹
Ġtransport ation
ĠØ¨Ø±Ø³Ø§ÙĨ ÙĨØ¯
Ġspat ial
ĠÙħÙĨØªÙĤ Ø¯Ø§ÙĨ
f ire
ĠÚ© Ø¨ÛĮØ±
ĠØ¬ Ø§Ø±
ĠC ode
Ġcon vention
ĠØ³Ø± ØŃØ§ÙĦ
ĠØªØ± Ø§Ø²
ĠR ub
ĠR uth
Ġv oc
ĠØ³Ø§ÙĦ Ø®ÙĪØ±Ø¯Ùĩ
ĠØ¯Ùĩ ÙĤØ§ÙĨ
ud der
ĠØ§Øµ ÙĪÙĦØ§
Ø§Ø¨ÙĦ Ø§ÙĨØ³Ú©ÛĮ
ĠØ®ÙĪØ§Ø³Øª ÛĮ
ĠÙĨØ´Ø§ÙĨ Ú¯Ø±
Ġsl ide
ĠØ¨ÙĨ Ø§Ø¨Ø±
Ġgu ilt
oun cing
ĠÚ¯Ø±ÛĮ Ø³
ĠÚ©ÙĪØª ÙĪØ²ÙĪÙģ
Ġsix teen
Ġsecret ly
ĠÙĬ Ú©
Ġemer ging
ĠMich igan
Ġinqu iry
Ġdemonst rated
Ġpill ow
bour g
Ġprovin ces
ĠØªØ¯Ø§Ø± Ú©
S ix
w ering
Ã «
ĠÙĨ Ø·
ĠÙħÛĮ Ø±Ø¯
Ġh ind
ĠØ¨Ø± Ø¹ÙĩØ¯Ùĩ
ĠØ² ÙĦØ²
Ġwh ales
ke ley
ĠB ack
ĠB ang
ĠÙĩØ± Ú©Ø³ÛĮ
ĠW ild
Ø³Ø± Ø¹Øª
ĠØ´Ùĩ Ø§ÙħØª
ĠÙĦÛĮ Ú©Ø±
Ø¨Ø±Ø¯ Ø§Ø±
ĠØªØµÙĪØ± Ø§Øª
Ġ194 3
Ġrespect ed
ĠÙĨØªÙĪØ§ÙĨ Ø³ØªÙħ
ĠÙģØ±Ø³ØªØ§Ø¯ ÙĨ
Ġcircumst ance
ĠØ¯Ø² Ø¯Ø§ÙĨ
enes mee
ĠØ¢Øª Ø´ÛĮ
Ġbehavi ors
ÙĨÛĮØ± ÙĪÛĮ
Ġcomr ades
Ġencoun ter
ĠØªØ³Ùĩ ÛĮÙĦ
7 7
S er
Ø² ÙħÙĩ
ĠÙĩ Ø§ÙĨÛĮ
ĠØ¨Ùĩ Ø§
Ø¹ ÙĦØ§
ĠØ¢ÙĨ ØªÙĪÙĨÛĮ
ist ing
Ø¢ ÙĤØ§
ĠØ´ÙĪ Ø§ÙĦÛĮÙĩ
ĠØ´Ø± Ú©ØªÛĮ
ÙģÛĮ Ø³
Ġwr ink
Ù¾Ø± Ø³ÛĮ
Ġexp osure
oll o
ĠÚĺÙĨ ØªÛĮÚ©
ĠØªÙĪØ± ÙĨ
Ġparticip ation
Ġpositive ly
Ġsam ples
ĠStr ick
ĠÙĨØ¹ ÙħØª
ĠÙģØ§ Ú©Ø³
Ġpist ol
ĠØ²ÙĦØ² ÙĦÙĩ
F rench
P re
Øª Ø§ÙĦ
Ú¯ Ø§ÛĮ
Øµ Ø§Ø±ÛĮ
Ġon going
ĠM ind
ÙĦØ§ ÙĤÛĮ
ĠP orthos
ĠB and
qu et
ĠÙģØ± ÙĤÙĩ
ĠT alk
ĠØº Ø±ÙĪ
ÙĬ Ø´
lo se
ĠO nt
ĠV ideo
Ø§Øµ Ø¯
ĠØ³ÙĪ Ø§Ø±Ùĩ
Ġbr ush
ĠØ³Ùĩ ÙħÛĮ
Ø§Ø¶ Ø¹
ĠØ²Ø¨Ø§ÙĨ Ø´
ivers ary
St ud
Ġfig ured
ĠÛ±Û¹Û·Û ±
Ġthr one
Û±Û¹Û ¸Û
ØªØµ Ø§Ø¯
Ġcop per
ĠÛĮØ® ÚĨØ§ÙĦ
ĠØªØ±ÙĪØ±ÛĮ Ø³Øª
ĠÙħÙĤØ± Ø±
ĠØ§ÙĨØ¹ Ú©Ø§Ø³
Ġdisapp ointment
ĠMic hel
Ġforb idden
Ġath let
ĠÙħØ¶ØŃ Ú©
Ġfoss il
Ġrig id
C S
R ep
Ø¬ Ø±ÛĮ
ĠÚ¯ ÛĮÙħ
ĠØ¬ ÙĢ
ĠÙĤ Ø§ÛĮÙħ
ĠÚ©ÙĨ Ø´
ĠÚ©ÙĨ ÙĪØ§ÙĨØ³ÛĮÙĪÙĨ
ĠS ondra
Øº Øª
ĠB umble
Ġj et
ĠÙĨØ§Ùħ ÙĨ
ass er
ĠK utuzov
ĠÙ ¢
ĠØªØŃ Ø±ÛĮÙħ
ĠØ§ÙĨØª Ø¸
ĠY ears
Ġpres ently
Ġtrans mit
Ġanim ation
ĠÙ¾Ùĩ ÙĨØ§
ĠÛ±Û¹Û¶Û µ
ĠÙħÙĪØ³ ÙĪÙħ
Ġhistor ic
ĠØ´Ú©Ø§Ø± ÚĨÛĮ
ÙħØ§Ø±ÛĮ Ø§
ÛĮØ§Ø¯ Ùħ
ĠMedic ine
ĠÚ©Ø§Ø±ÙĪÙĦÛĮÙĨ Ø§ÛĮ
Ġfootst eps
L ong
ÙĪ Ø¬ÙĪØ¯
Ġw ages
ÙĤ ÙĦÙĪ
Ġp atch
Ġin e
Ø® Ø±Ùħ
Ġre nder
ur ches
ĠØµ ÙĢ
ĠÙĦ ÙĪÛĮÛĮ
ĠD irect
ig a
Ú©ÙĨ ÙĨØ¯
Ġout comes
act ory
ass y
ang es
ĠSt adium
ĠØ§Ø¬ Ø²Ø§
ĠØµÙĪØ±Øª Ùħ
Ġend less
ĠØ±ÛĮ ÛĮØ³
Ġmin ing
ĠÙħØ±Ú¯ Ø¨Ø§Ø±
ĠÙĪØ³ Ø¹Øª
ĠÚ¯Ø´Øª Ùħ
Ġsqu ad
ĠØ®Ùħ ÛĮØ¯Ùĩ
Ar ab
âĢ ¬
Ġcool ing
inc oln
Ġsuspic ious
ĠÛĮÙĦ Ø¯Ø§
ĠØ¨Ø§Ø²ÙĨØ´ Ø³ØªÚ¯ÛĮ
Ø®Ø¯Ø§ÛĮ Ø§
ĠHT ML
ĠØ³Ø§ÙĤ Ùĩ
ĠÙĤÙĪØ§ Ø¹Ø¯
B L
a way
f irst
h as
Ø¯ Ø±Ø¯
ÙĦ ÙĪØ§ÙĨ
ĠØª Ø®ØµØµ
ĠØª Ø¯ÙĪÛĮÙĨ
ĠÙĨ ÙĨÚ¯
Ġb ite
ic ular
ll en
Ġre ly
ĠÚ©ÙĨ Ú¯
ĠC ru
ol ving
ĠÚ©Ø§Ø± Ø¯ÛĮÙĨ
Ġint ensity
ĠV el
iss a
Ġind irect
ĠØªÙĤ ÙĦØ§
Ġpass enger
up in
ĠÙĨÚ¯Ø± Ø´
Ġmil it
ĠWe ek
ĠØ±ÛĮØ®Øª ÙĨØ¯
Ġindepend ently
Ġpack age
Ġdetermin ation
ĠSu pp
Ġconcent rated
Ġperce ive
Ġwitness es
Ġdiagn osis
ĠStrick land
M T
P aul
Ð ¼
ĠÙħ Ø¨Ø§ÙĦ
ĠØ´ ÙĨÛĮ
ĠÙħÛĮ Ø´Ùħ
Ġh arp
Ġf iring
Ġp ul
Ġl ing
Ġl ingu
Ġwas ted
ĠM R
ab e
Ø¨Ø§ Ú©
Ġun con
ĠÚĺ ÙĨÙĪ
Ġrec onst
Ġsub stit
Ġz o
ĠÙĤÙĩ ÙĤÙĩ
ĠAnt ar
ĠInt el
ĠØ§ÙħÙ¾Ø±Ø§ Ø·ÙĪØ±ÛĮ
ĠÙħØ·Ø¨ÙĪØ¹ Ø§Øª
ĠÙ¾Ø´ÛĮÙħ Ø§ÙĨÛĮ
ĠÙħØ¹Ø§Ø´ Ø±Øª
ĠArag orn
Ø§ Ú¯
ĠÚ© Ø§Ø´Øª
ĠØª ÛĮÙħÛĮ
Ġc ake
Ġc ents
ĠÙħÛĮ Ø®ÙĪØ§Ø³Øª
Ġst out
ĠÙħÙĨ ØµÙģ
ĠS her
ri p
ĠC re
ĠÙĦ ÙĪØ±
ĠL ang
ĠF a
Ġle ap
ĠÙ¾Ø§ÛĮ ÛĮØ²
Ø´ÙĨ Ø§ÙħÙĩ
vel ength
ĠØ±ÛĮ Ø³ÙħØ§ÙĨ
Ġstr ain
ĠÙ¾Ø±Ø¯ Ø§Ø²ÛĮ
Ġfin ance
ĠØ¹ÙĪ Ø§ÙĤØ¨
Ġris en
ĠÙĤÙĦ Ø§Ø¨
Ġ193 7
Ġbank ing
Ġdam aged
Ġamaz ement
Ġsurv iv
Ne ither
Ġcalm ly
ĠBor is
ĠThen ardier
ĠMot or
y ard
Ã ¦
å ħ
ĠÙĪ ÛĮØ²
Ø§ÛĮ Ø³
Ø§Ø± Ø²Ø´
Ġb id
Ġh ut
ĠØ¯Ø± ÙĩØ§
ĠØ³ ÙĪØ±ØªÙħÙĩ
ro gen
od a
Ġcon vert
Ġman kind
ĠÙħØ± ÙħÙĪØ²
Ġdis orders
ĠØ§Ùģ ÙĤÛĮ
we g
Ġgr ant
Ġpo ems
ĠÙĨØ² Ø§Ú©Øª
ĠÛĮÙĩ ÙĪØ¯
ĠÙħØ§Ùĩ Ø±
ĠØªØ¬ Ø§Ø±
ĠØ¨Ú© Ø´ÛĮØ¯
ĠSp ir
Ġexpl ains
ĠØ§Ø¨Ø± ÙĩØ§
Ġ193 5
ĠØªÛĮ Ù¾
ĠÎ ±
Ġbound aries
Ġthreat ening
cos ystem
Ġcontribut e
ĠØªØ±Ø³ÛĮØ¯ Ùħ
ĠÙĪØ¬ Ø¯
Ġcurt ain
ĠØ¹Ø§ÙĤÙĦ Ø§ÙĨÙĩ
ĠÙħÛĮÚ¯ÙĪ ÛĮÙħ
Ġavo ided
Ġwip ed
ĠÙħ Ø§Ø±Øª
Ø³ ÙĨØ¬ÛĮ
ĠÚ© Ø¯ÙĩØ§ÛĮ
ĠâĢĮ !
Ġm ate
Ġto mb
as cus
Ġhe els
ir rel
ir teen
ĠM D
Ġcom ments
ĠR y
ĠØ¨Ø§Ø´ ÛĮÙĨ
ĠØ¨Ø§Ø² Ø¯Ùĩ
ĠØ¹Ø¶ ÙĦØ§Øª
Ġill um
ĠØ¹Ø§ÙĦÛĮ Ùĩ
ĠRuss ians
ĠÙħÛĮØ¯Ùĩ ÙĨØ¯
ĠMer ry
Ø´Ø§ Ø¡
rif ied
ĠØ¨ÙģØ±Ø³Øª Ø¯
ĠSing apore
ĠÙħØ¹Ø· ÙĪÙģ
ĠÙ¡ Ù
Ġeyebr ows
Ġmagnific ent
E F
F red
e h
ĠÙĩ ÙĪÛĮ
Ġst y
ĠØ®ÙĪØ¯ Ø®ÙĪØ§Ùĩ
ain ment
ĠØ§Ùħ Ø¯
ĠØ§ØŃ ÛĮØ§
Ø±Ùĩ Ø§ÛĮÛĮ
ĠÙħØ§ÙĨ Ø³Øª
Ġgr ain
ĠØ¨Ø® Ø±Ø¯
ĠØ¨ÙĦ Ø§ÛĮÛĮ
ĠÙĨØ´Ø§ÙĨ Ø¯
Ġrep ublic
ĠØ¨Ø§ÙĨ ÙĪØ§ÙĨ
ĠØªØ±Ø³ ÛĮØ¯Ùĩ
Ġpost er
Ġrespect able
ĠÛ±Û¹Û´Û ¸
Ġcam ps
Ġdisp osed
uls ion
ÚĨØ´ÙħØ§ÙĨ Ø´
Ġcurt ains
ĠØ¨ÙĨÙĪÛĮ Ø³Ùħ
Ġgramm ar
m ont
t ill
Ã ª
ÙĦ Ø¹
in cluding
Ú¯ ÙĪØ±ÛĮ
ĠØ± ÙĦÛĮ
ĠØ¯Ø± Ú¯Ø°Ø´ØªÙĩ
Ġm m
Ø±ÛĮ Ø¨ÛĮ
Ġre ception
ĠS ome
op hers
ĠØ³Ø± Ø·Ø§ÙĨÛĮ
Ø§ÙĤ Ø¹ÛĮ
ĠH as
ci ation
ack ed
ÙĪÙħ Øª
Ġen ch
ĠØ§Ø± Ùħ
ĠV ienna
Ġper m
Ġper cept
ĠÙ¾Ø§ÛĮ ÛĮÙĨÛĮ
ĠØ¨Ø§Ø± Ø´
Ġbr on
Ġcons pir
Ġrel ate
pect or
ĠØ« ÙħØ±
ĠØŃÛĮ ÙĦÙĩ
ĠSe g
Ġcommand ed
ĠMor rel
Re ally
ĠØ±ÙħØ² Ú¯Ø°Ø§Ø±ÛĮ
bur gh
Ġpolitic ian
Ġenvelop e
ĠÙĦØ§Ø² ÙħÙĩ
Ġtraged y
J apan
M el
o en
r ade
ÛĮ ÙĪÙĨ
is ure
ĠØ® ÙĬÙĦ
Ġth umb
ĠØ§Ø³Øª Ø§
ÙģØª Ø±
Ġwe eping
ĠC ook
ĠÙħÙĪ Ùĩ
ĠØªØ§ Ú©Ø³ÛĮ
ĠT am
ĠF orm
ĠÚ¯Ø± Ø§ÙĨØ´
Ġro ses
ĠØªØŃ Ø±ÛĮØ±
Ġdes ir
ne g
ĠØ° Ø±Øª
ĠÙ¾Ø±ÙĪ Ø³Ùĩ
ÙģØ§ Ú©Ø³
ĠØ¬Ø§ÙĨ Ø³ÙĪÙĨ
Ġrest ore
ÙĨÙĪ Ø´ØªÙĩ
ĠÙĦØ¨Ø§Ø³ Ø´
Ġdep ressed
Ġtem por
Ø§Ø¯ÙĦ ÙĨ
Ġemp ire
ĠÛ±Û¹Û¸Û ±
ĠÙħÙĨØ§Ø· ÙĤÛĮ
ĠÙĨØ§Ø® ÙĨ
ĠØ¬Ø³ Ø§Ø±Øª
ĠØ³ÛĮÙĨ ÙħØ§ÛĮÛĮ
Ġmad ness
ĠMal ays
Ø§ÙĦÙĪ Ú¯
ĠOb ama
Ġshri ek
ÙģØ¯Ø± Ø§Ø³ÛĮÙĪÙĨ
j amin
ĠØ§ Ùī
Ùģ Ø±ÙĪ
ĠÙħÛĮ Ø³Ø±
Ġf ake
Ġp add
Ġp ione
Ġn ost
ay er
ĠS lo
ĠL ook
ĠL iter
ĠE ric
ĠÚ©ÙĪ Ø³Ùĩ
ĠØ´Ø± Ø·ÛĮ
Ġhum ble
gin al
ĠDe cl
ĠÚ¯Ø±ÛĮ ÙģÙĨØ¯
Û±Û ¹
Ġpercent age
ĠØ¬Ø± ÙĤÙĩ
Ġ195 8
Ġtrad ing
ĠFl orentino
ĠBar b
ucle ar
ĠØ´Ø§ Ú¯Ø±Ø¯Ø§ÙĨ
ĠØ±Ú© ÙĪØ¯
Ġther m
Ġwand ered
Ġfasc inating
ĠUr b
Ġbom bs
ĠØ§Ø¨ÙĦ Ø§ÙĨØ³Ú©ÛĮ
Ùħ Ú¯Ùĩ
Ġo l
ÚĨ ÙĪ
ĠI mp
et ics
ĠÙĤ Ø§ÙĦÛĮ
Ø§ÛĮØ¯ Ø§Ø±
ĠÙħØ¹ ÙħØ§
ĠØ§ÙĦ Ø¯ÛĮÙĨ
ĠÙĤØ± Ø§Ø±ÛĮ
ĠÙĨÙĩ ÙĨÚ¯
Ø´Ùħ ÙĨÛĮ
Ġres ident
ĠØ¢ÙĪØ±Ø¯ ÛĮÙħ
ĠÙħÛĮØ² ÙĨØ¯
ĠØªÚ© Ø§ÙħÙĦÛĮ
Ġconf irm
Ġsol ving
ĠØ®Ø§Øµ ÛĮØª
ĠPro file
ĠØªÙĪØ¶ÛĮØŃ Ø§Øª
Ġaut onomous
Ø¨Ø±Ø§ÙĨ Ø§Ø¨ÙĪØ³
yl um
ĠØ³ÙĪØ² Ø§ÙĨØ¯
Ġpor ter
Ø§ÙĪÙĦÛĮ ÙĪØ±
Ġcolon ial
ĠPolit ical
ØºØ¯ ØºÙĩ
ĠØ§ÙĪØ¨ Ø§ÙħØ§
emet ery
Î »
Ġt ies
Ø¨ ÙĤ
ĠØ± Ø·ÙĪØ¨Øª
Ġp ear
Ø¹ Ø¸Ùĩ
Ø· ØŃ
ĠØ¹ Ø§ÙħÛĮ
Ġst ub
ĠM and
th ose
Ġde fect
ĠB art
ĠØªÙĪ Ø£Ùħ
un ken
Ġne ural
ĠØªØ± Ùĩ
ĠÙĤØ± Ø§Ø±Ùĩ
are st
ĠØ§Ø± Øº
Ġem peror
Ġexpect ations
Ġmain tenance
Ġdest ination
ĠÚ¯Ø°Ø§Ø± ÛĮÙħ
Ġcam el
ghed a
Ġphilos ophical
ÃŃ n
ĠÙħÛĮØªÙĪØ§ÙĨ ÛĮØ¯
Ġparticip ated
inc eton
Ġaim ed
Ġbill ions
Ġrefuge e
Ġpuzz led
Ġdiamond s
Ġdram atic
Ġintent ions
Ġlin en
Ø³Ø±Ùĩ ÙĨÚ¯
9 6
N S
h o
r m
² Û²
Î ¿
ÙĪ ÙĨØ¯ÛĮ
Ø³ ÙĨÚ¯
ĠØ¯ Ú©ÙĦ
Ø§Ø± Ø¨Ø§Ø¨
ÙĤ Ø§ÛĮÛĮ
[...]
