{"<s>":0,"<pad>":1,"</s>":2,"<unk>":3,"!":4,"\"":5,"#":6,"$":7,"%":8,"&":9,"'":10,"(":11,")":12,"*":13,"+":14,",":15,"-":16,".":17,"/":18,"0":19,"1":20,"2":21,"3":22,"4":23,"5":24,"6":25,"7":26,"8":27,"9":28,":":29,";":30,"<":31,"=":32,">":33,"?":34,"@":35,"A":36,"B":37,"C":38,"D":39,"E":40,"F":41,"G":42,"H":43,"I":44,"J":45,"K":46,"L":47,"M":48,"N":49,"O":50,"P":51,"Q":52,"R":53,"S":54,"T":55,"U":56,"V":57,"W":58,"X":59,"Y":60,"Z":61,"[":62,"\\":63,"]":64,"^":65,"_":66,"`":67,"a":68,"b":69,"c":70,"d":71,"e":72,"f":73,"g":74,"h":75,"i":76,"j":77,"k":78,"l":79,"m":80,"n":81,"o":82,"p":83,"q":84,"r":85,"s":86,"t":87,"u":88,"v":89,"w":90,"x":91,"y":92,"z":93,"{":94,"|":95,"}":96,"~":97,"¡":98,"¢":99,"£":100,"¤":101,"¥":102,"¦":103,"§":104,"¨":105,"©":106,"ª":107,"«":108,"¬":109,"®":110,"¯":111,"°":112,"±":113,"²":114,"³":115,"´":116,"µ":117,"¶":118,"·":119,"¸":120,"¹":121,"º":122,"»":123,"¼":124,"½":125,"¾":126,"¿":127,"À":128,"Á":129,"Â":130,"Ã":131,"Ä":132,"Å":133,"Æ":134,"Ç":135,"È":136,"É":137,"Ê":138,"Ë":139,"Ì":140,"Í":141,"Î":142,"Ï":143,"Ð":144,"Ñ":145,"Ò":146,"Ó":147,"Ô":148,"Õ":149,"Ö":150,"×":151,"Ø":152,"Ù":153,"Ú":154,"Û":155,"Ü":156,"Ý":157,"Þ":158,"ß":159,"à":160,"á":161,"â":162,"ã":163,"ä":164,"å":165,"æ":166,"ç":167,"è":168,"é":169,"ê":170,"ë":171,"ì":172,"í":173,"î":174,"ï":175,"ð":176,"ñ":177,"ò":178,"ó":179,"ô":180,"õ":181,"ö":182,"÷":183,"ø":184,"ù":185,"ú":186,"û":187,"ü":188,"ý":189,"þ":190,"ÿ":191,"Ā":192,"ā":193,"Ă":194,"ă":195,"Ą":196,"ą":197,"Ć":198,"ć":199,"Ĉ":200,"ĉ":201,"Ċ":202,"ċ":203,"Č":204,"č":205,"Ď":206,"ď":207,"Đ":208,"đ":209,"Ē":210,"ē":211,"Ĕ":212,"ĕ":213,"Ė":214,"ė":215,"Ę":216,"ę":217,"Ě":218,"ě":219,"Ĝ":220,"ĝ":221,"Ğ":222,"ğ":223,"Ġ":224,"ġ":225,"Ģ":226,"ģ":227,"Ĥ":228,"ĥ":229,"Ħ":230,"ħ":231,"Ĩ":232,"ĩ":233,"Ī":234,"ī":235,"Ĭ":236,"ĭ":237,"Į":238,"į":239,"İ":240,"ı":241,"Ĳ":242,"ĳ":243,"Ĵ":244,"ĵ":245,"Ķ":246,"ķ":247,"ĸ":248,"Ĺ":249,"ĺ":250,"Ļ":251,"ļ":252,"Ľ":253,"ľ":254,"Ŀ":255,"ŀ":256,"Ł":257,"ł":258,"Ń":259,"ĠØ":260,"Ø§":261,"ÛĮ":262,"ÙĨ":263,"Ø±":264,"Ùĩ":265,"ÙĪ":266,"Ùħ":267,"Ø¯":268,"Øª":269,"Ġt":270,"Ú©":271,"ĠØ¨":272,"ĠØ§":273,"he":274,"Ġa":275,"ĠÙħ":276,"ÙĦ":277,"Ø³":278,"in":279,"Ġâ":280,"ĠâĢ":281,"ĠÚ©":282,"ĠØ¯":283,"ĠâĢĮ":284,"Ø´":285,"Ø²":286,"Ġthe":287,"Ø§ÙĨ":288,"re":289,"Ø¨":290,"Ġo":291,"Ġs":292,"Ġw":293,"Ú¯":294,"Ùģ":295,"ĠÙĪ":296,"Ø§ÛĮ":297,"er":298,"ĠØ±":299,"nd":300,"ĠÙĩ":301,"at":302,"Ø§Ø±":303,"Ø³Øª":304,"ÙĨØ¯":305,"ÙĤ":306,"on":307,"is":308,"ĠØª":309,"ĠÙĨ":310,"ĠØĮ":311,"ou":312,"it":313,"Ġc":314,"ed":315,"Ġb":316,"ĠØ´":317,"en":318,"ÛĮÙĨ":319,"ĠÙħÛĮ":320,"ÙĪØ¯":321,"Ġh":322,"Ġf":323,"or":324,"ĠØ¯Ø±":325,"Ġm":326,"ĠØ¨Ùĩ":327,"an":328,"ing":329,"Ġof":330,"Ù¾":331,"es":332,"ĠØ¢":333,"ĠÚ©Ùĩ":334,"Ġto":335,"ĠØ®":336,"ĠØ³":337,"ar":338,"Ġp":339,"Ø¹":340,"Ø±Ø¯":341,"Ġin":342,"Ġd":343,"al":344,"ĠØ±Ø§":345,"Ġand":346,"as":347,"Ġth":348,"ÚĨ":349,"Ø®":350,"ĠØ§Ø²":351,"Ø§Ø¯":352,"Ġl":353,"ĠÙ¾":354,"ÛĮØ¯":355,"Ø¬":356,"ĠØ¨Ø§":357,"ic":358,"ĠÚ¯":359,"om":360,"ĠÛĮ":361,"Ø§ÙĦ":362,"Ø§Ùħ":363,"le":364,"Ġn":365,"ØŃ":366,"ÙĪØ±":367,"ll":368,"ĠØ¨Ø±":369,"ion":370,"ĠØ§Ø³Øª":371,"Ġhe":372,"ĠØ§ÛĮÙĨ":373,"ĠØ¬":374,"Ġg":375,"Ġe":376,"ĠØ¨ÙĪØ¯":377,"Ġbe":378,"ly":379,"ÙģØª":380,"ĠÚĨ":381,"ÙĪÙĨ":382,"Ø§Ùĩ":383,"ot":384,"st":385,"ĠÙģ":386,"ad":387,"Ø·":388,"ve":389,"Ø´Øª":390,"ent":391,"ow":392,"ut":393,"ĠØ¢ÙĨ":394,"ĠØ²":395,"Ø±ÛĮ":396,"ĠØŃ":397,"im":398,"ÙĦÛĮ":399,"id":400,"Ġre":401,"ĠÚ©Ø±Ø¯":402,"se":403,"ĠØ´Ø¯":404,"Ġthat":405,"Øµ":406,"ÛĮÙħ":407,"ĠÙĩÙħ":408,"Ġy":409,"ld":410,"ac":411,"ÛĮØ±":412,"ĠI":413,"et":414,"Ġwas":415,"Ġon":416,"ĠØ¹":417,"ro":418,"ÙĪÛĮ":419,"ĠÙĩØ§ÛĮ":420,"Ġis":421,"gh":422,"ĠÙĤ":423,"Ø§Ø¨":424,"ver":425,"ĠÛĮÚ©":426,"ay":427,"Ġu":428,"Ġit":429,"ÙħÛĮ":430,"ir":431,"Ø§Øª":432,"Ġyou":433,"am":434,"ur":435,"ĠÚ©ÙĨ":436,"Ġfor":437,"Ġwh":438,"Ġ(":439,"Ø§Ø²":440,"The":441,"ĠØ§ÙĪ":442,"ith":443,"Ġst":444,"Ġwe":445,"ÙĪØ§ÙĨ":446,"ĠÙĩØ§":447,"ĠÙħÙĨ":448,"Ø³ÛĮ":449,"ct":450,"ĠS":451,"ĠÛ":452,"ce":453,"Ġwith":454,"Ġas":455,"ĠA":456,"ri":457,"ter":458,"ch":459,"ĠM":460,"'s":461,"ØªÛĮ":462,"ĠØ®ÙĪ":463,"ĠC":464,"Ġan":465,"Ø¯Ø±":466,"Ú¯Ø±":467,"and":468,"ÙĦØ§":469,"ol":470,"ĠØ§ÛĮ":471,"ation":472,"her":473,"il":474,"ĠØ®ÙĪØ¯":475,"ĠØ¨Ø±Ø§ÛĮ":476,"Ø®Øª":477,"ÙħØ§":478,"Ġhis":479,"Ø±ÙĪ":480,"Ø±Ø§":481,"Ø¶":482,"if":483,"Ø§Ø´Øª":484,"Ġat":485,"Ø§Ø±ÛĮ":486,"ĠØ±ÙĪ":487,"ght":488,"ÙĪÙĦ":489,"ĠØ§ÙĨ":490,"ÛĮØ²":491,"ke":492,"Ø§ÙĨÛĮ":493,"ĠØ¨ÛĮ":494,"ÙĩØ§":495,"Ġnot":496,"Ø§Ø¯Ùĩ":497,"Ø¸":498,"Ġha":499,"ĠØµ":500,"od":501,"Ø°":502,"Ġse":503,"ĠØ·":504,"ul":505,"ĠÙĦ":506,"Ġhad":507,"ould":508,"ain":509,"ĠØ¯Ø§Ø±":510,"Ġ\"":511,"Ġ1":512,"ĠÙħÙĪ":513,"ĠP":514,"th":515,"Ġde":516,"ill":517,"ag":518,"us":519,"op":520,"Ġher":521,"Øº":522,"Ø¯Ùĩ":523,"ĠØ´Ø¯Ùĩ":524,"ĠB":525,"Û°":526,"ore":527,"ĠØ¯ÙĪ":528,"Ø§ÛĮÛĮ":529,"ÙħØ§ÙĨ":530,"Ġme":531,"ist":532,"Ú¯ÛĮ":533,"Ø«":534,"ess":535,"rom":536,"..":537,"Ġcon":538,"um":539,"ĠØªØ§":540,"Ġcom":541,"ØªØ±":542,"pe":543,"ĠØªÙĪ":544,"Ġr":545,"Ġk":546,"Ø¨Ùĩ":547,"ĠØ¯ÛĮ":548,"Ø§ÙĨÙĩ":549,"Ø§Ø³":550,"Ġare":551,"ab":552,"Ø¦":553,"ĠØ³Ø±":554,"Ġby":555,"red":556,"ĠÚ©Ø§Ø±":557,"ĠÚ¯ÙģØª":558,"un":559,"Ø¢":560,"ant":561,"Ġsh":562,"Ġ*":563,"Ġor":564,"em":565,"Ø¨ÛĮ":566,"Ġhave":567,"ÙĨÚ¯":568,"os":569,"Ø§ÙĤ":570,"el":571,"ers":572,"Ġhim":573,"Ġne":574,"Ú©Ùĩ":575,"ĠØŁ":576,"Ġli":577,"Ġex":578,"qu":579,"Ġthis":580,"ĠØ¯Ø§Ø´Øª":581,"ĠG":582,"ĠÙ¾ÛĮ":583,"est":584,"ĠØªØ±":585,"ĠR":586,"Ġfrom":587,"Ø§ÛĮÙĨ":588,"Ġsu":589,"ĠD":590,"±Û":591,"pp":592,"Ġdo":593,"ĠÛĮØ§":594,"Ġal":595,"ate":596,"ĠÙħØ§":597,"Ġv":598,"ÙĨÛĮ":599,"ig":600,"ĠØ¨Ø§Ø´":601,"ĠÚ©ÙĨØ¯":602,"Ġso":603,"ĠÙģØ±":604,"res":605,"ity":606,"ĠÙĨÙħÛĮ":607,"nt":608,"ĠL":609,"ĠT":610,"ÙĩØ§ÛĮ":611,"art":612,"Ġpro":613,"ard":614,"all":615,"Ġall":616,"ĠH":617,"ĠØ³Ø§ÙĦ":618,"out":619,"ort":620,"Ú¯Ø§Ùĩ":621,"Ø¯ÛĮ":622,"Ġgo":623,"Ú©ÛĮ":624,"ust":625,"ĠF":626,"ĠE":627,"ok":628,"ĠØ¯Ø³Øª":629,"Ġab":630,"Ġlo":631,"Úĺ":632,"Ø¨Ø±":633,"ap":634,"Ġch":635,"ĠÚ¯Ø±":636,"ich":637,"Ø§ÙĪ":638,"Ú©ÙĨ":639,"Ġthey":640,"Ġ2":641,"Ġwor":642,"au":643,"ĠØªÙĪØ§ÙĨ":644,"ĠØ¢Ùħ":645,"ÙĤÛĮ":646,"ĠØ¯Ùĩ":647,"Ġshe":648,"ome":649,"ÙĩØ±":650,"Ø§ÛĮØ¯":651,"ÙĦÙĩ":652,"ĠÙĨÛĮ":653,"Ø¹ÛĮ":654,"ĠØ´ÙĪØ¯":655,"ĠØ¯Ø§Ø¯":656,"ĠØ§Ùħ":657,"Ġ=":658,"Ø§Ø±Ùĩ":659,"ĠØ§ÙĨØ¯":660,"Ġwhe":661,"ive":662,"Ġwere":663,"ie":664,"ally":665,"ÙĨØ¯Ùĩ":666,"ĠÙĩØ±":667,"'t":668,"ĠÂ":669,"ĠN":670,"ÛĮØ§":671,"Ġsa":672,"Ġmy":673,"He":674,"ĠÙħØª":675,"ĠØ¨Ø§Ø²":676,"very":677,"ĠW":678,"our":679,"rou":680,"Ø´Ø§ÙĨ":681,"ies":682,"ak":683,"Ø¨Ø§":684,"ÙģØ±":685,"Ġcan":686,"Ġone":687,"Ġint":688,"ĠÙĩØ³Øª":689,"ast":690,"ĠÛ±Û":691,"Ø¹Ø¯":692,"ÛĮØ¯Ùĩ":693,"Ġup":694,"Ġkn":695,"ight":696,"ame":697,"ĠÙħØŃ":698,"ge":699,"ous":700,"Ġle":701,"Ø±Ùģ":702,"00":703,"ĠØŃØ§ÙĦ":704,"ĠØº":705,"ry":706,"Ø§Ø®Øª":707,"ong":708,"ind":709,"ell":710,"ÙĪØ´":711,"Ú©Ø±":712,"Ġj":713,"ci":714,"Ġwhich":715,"iv":716,"ack":717,"ĠØ®ÙĪØ§Ùĩ":718,"ide":719,"Ġout":720,"ÙĪÙħ":721,"Ø¨Øª":722,"ĠJ":723,"ĠÚĨÛĮØ²":724,"ĠØ§Ø³":725,"ĠÙħØ¹":726,"ÙħÙĨ":727,"ment":728,"one":729,"ÙĪØ±ÛĮ":730,"ĠÚĨÙĩ":731,"ra":732,"ÙĬ":733,"Ġwho":734,"Ġwould":735,"ÙĩÙħ":736,"Ġthem":737,"Ġus":738,"ĠÚ©Ø´":739,"Ġbut":740,"And":741,"ÙĢ":742,"ure":743,"It":744,"Ø§Ø³Øª":745,"ĠØ¨Ø¯":746,"ĠØ±ÙĪÛĮ":747,"Ú©Øª":748,"ost":749,"ÙģØªÙĩ":750,"Ġman":751,"ther":752,"ÙĪØ²":753,"ine":754,"ÚĨÙĩ":755,"fe":756,"Ġpl":757,"Ġ19":758,"ud":759,"ĠØ´ÙħØ§":760,"ĠØ¯ÛĮÚ¯Ø±":761,"Ùĭ":762,"Ġthere":763,"Ġabout":764,"ĠÙ¾Ø±":765,"pt":766,"ĠØ§ÙĦ":767,"Ġtheir":768,"ĠØ±Ø³":769,"ĠÙĨØ¯":770,"Ġ-":771,"own":772,"ĠÚ©Ø±Ø¯Ùĩ":773,"ÙĶ":774,"Ġwhat":775,"ĠØ§Ø´":776,"Ø§Ø¯ÛĮ":777,"ĠÙĩÙħÙĩ":778,"Ø¬Ùĩ":779,"ĠØ¯Ø§ÙĨ":780,"ace":781,"ĠØ¨Ø§Ø´Ø¯":782,"ear":783,"Ø§ÙĦÛĮ":784,"ĠÙħØ±Ø¯":785,"ĠÙ¾ÛĮØ´":786,"ĠÙħØ±":787,"ran":788,"ĠÙĨÙĪ":789,"ĠÙĨØ¸":790,"Ġbeen":791,"lo":792,"ĠÙĤØ±":793,"Th":794,"ĠÛ²":795,"ated":796,"ia":797,"ber":798,"ime":799,"Ġno":800,"¹Û":801,"sel":802,"Ø§Ø±Ø¯":803,"ĠÚ¯Ø°":804,"Ġsaid":805,"ck":806,"ĠÚ©ÙĨÙĨØ¯":807,"Ġ'":808,"ÛĮÙĦ":809,"Ø¬Ø§":810,"Ġlike":811,"ĠØ¯Ø§Ø±Ø¯":812,"Ġmore":813,"Ø®ÙĪ":814,"ake":815,"are":816,"ian":817,"ĠÙĩÛĮ":818,"ĠØ¨Ø²":819,"ice":820,"ÛĮÙĦÛĮ":821,"Ġim":822,"ond":823,"ĠØ±ÙģØª":824,"ÙĨØ§":825,"ĠÚ©ÙĪ":826,"Ø§ÙħØ§":827,"act":828,"Ġun":829,"ĠÙħØ´":830,"age":831,"Ġag":832,"pl":833,"ÙĤØª":834,"ĠÙĨØ§Ùħ":835,"itt":836,"og":837,"ink":838,"Ø§Ùģ":839,"ass":840,"Ġen":841,"In":842,"...":843,"ĠK":844,"Ġpe":845,"per":846,"ĠÚ©Ùħ":847,"ĠO":848,"ĠâĢĵ":849,"Ġcould":850,"ven":851,"Ø¹Øª":852,"ĠÙĨÙħ":853,"Ø´ÛĮ":854,"iz":855,"ions":856,"Ġwhen":857,"ite":858,"hing":859,"ru":860,"ĠÚ©ÙĨÙħ":861,"ĠU":862,"Ġother":863,"ĠØ§Ø±":864,"ĠØªÙĨ":865,"hed":866,"Ø¬ÙĪØ¯":867,"Ġdis":868,"ĠØ§Øª":869,"Ġar":870,"ip":871,"ĠÙħØ³":872,"so":873,"Ø§ÙĨØ¯":874,"ound":875,"ĠØ§ØŃ":876,"Ġhas":877,"ĠØ±ÙĪØ²":878,"ary":879,"Ġif":880,"Ġcomp":881,"Ġinto":882,"ÙħÛĮÙĨ":883,"Ġsome":884,"ence":885,"ÙħÙĪ":886,"Ġro":887,"Ø¹Ùĩ":888,"ĠØ¨ÙĪØ¯ÙĨØ¯":889,"ĠØ¨ÛĮÙĨ":890,"Ø±Ùĩ":891,"ĠØªÙħ":892,"Ġqu":893,"Ġsp":894,"reat":895,"Ġyour":896,"ĠØ³ÛĮ":897,"Ġtime":898,"ĠÙĨÙĩ":899,"ble":900,"Ġtw":901,"ep":902,"ĠÙĨÛĮØ³Øª":903,"Ġany":904,"able":905,"Ø¯Ùħ":906,"ical":907,"Ø³ØªÙĩ":908,"cc":909,"Ġknow":910,"ĠØ´ÙĪ":911,"ĠÙĨØ´":912,"ĠÙ¾Ø³":913,"ĠØ²ÙĨØ¯":914,"Ġfe":915,"ÙĨÛĮÙĨ":916,"Ġwill":917,"ĠÙĪØ§ÙĤ":918,"Ġbec":919,"Ø¯Ø§":920,"But":921,"Ġdid":922,"ÙĤÙĩ":923,"ĠÙĨØ§":924,"Ġlook":925,"ause":926,"self":927,"Ø´Ùħ":928,"Ġaf":929,"ople":930,"ount":931,"ress":932,"ree":933,"ish":934,"ĠØ¨Ø³ÛĮ":935,"ĠØ±Ø§Ùĩ":936,"Ú©ÙĦ":937,"Ø±Ø¯Ùĩ":938,"ĠØ²ÛĮ":939,"ĠÙħÙĤ":940,"ĠÂ»":941,"ire":942,"ĠV":943,"Ġad":944,"ang":945,"Ġover":946,"ays":947,"av":948,"ÛĮÚ©":949,"ĠØĽ":950,"Ø´Ùĩ":951,"Ġpr":952,"ĠÚ©ÙĦ":953,"ose":954,"ĠÙħØ¯":955,"Ġthan":956,"Ø±Ú¯":957,"ĠØ§ÙħØ§":958,"te":959,"Ù¾Ø³":960,"ĠØ¨Ø§ÛĮØ¯":961,"for":962,"Ġcl":963,"Ø§Ø·":964,"ÙĪØ³":965,"ÙĤØªÛĮ":966,"ÙģØ§Ø¯Ùĩ":967,"irst":968,"ÙĨØ¬":969,"ren":970,"Ø³ØªØ§ÙĨ":971,"ile":972,"ÙĪÙĨÙĩ":973,"ign":974,"Ø§ÛĮØ´":975,"nder":976,"ĠØ´Ø±":977,"ĠØ´ÙĨ":978,"Ø§Ø²Ùĩ":979,"Ġpeople":980,"ings":981,"ĠÛ±Û¹Û":982,"Ġper":983,"ĠÙĨØ¸Ø±":984,"Ø§ÙħÙĩ":985,"ÙĦÙĪ":986,"Ġvery":987,"other":988,"ĠÙħØ«":989,"the":990,"ach":991,"Ġsee":992,"ild":993,"ĠØ§Ø³ØªÙģØ§Ø¯Ùĩ":994,"ØªØ´":995,"ĠØ¨Ø¹Ø¯":996,"urn":997,"ĠÙĪÛĮ":998,"Ø¬Ø§Ùħ":999,"Ø§Ø¯Ø±":1000,"ĠØ¹ÙĨ":1001,"Ú©Ø§Ø±":1002,"ĠÙ¾Ø§ÛĮ":1003,"ĠÙĩÛĮÚĨ":1004,"ĠÚ¯Ø±ÙģØª":1005,"Û°Û":1006,"ved":1007,"ĠØ¨Ø§Ø±":1008,"ÙĨØ§ÙĨ":1009,"ĠÙ":1010,"ĠÙĪØ¬ÙĪØ¯":1011,"ÙĪØ§":1012,"ĠÙħØ¬":1013,"ade":1014,"ĠØ§Ùģ":1015,"ĠØ¨Ú¯":1016,"Ġcont":1017,"ĠÙĤØ±Ø§Ø±":1018,"ect":1019,"ult":1020,"Ġthou":1021,"ory":1022,"Ġpart":1023,"Ø§ÙħÛĮ":1024,"ĠÙĨÛĮØ²":1025,"Ø¨Ø§Ø±Ùĩ":1026,"ĠØªØµ":1027,"Ġyear":1028,"port":1029,"bl":1030,"Ġonly":1031,"ĠØ³Ø§Ø®Øª":1032,"ÙĨÙĩ":1033,"ance":1034,"ĠØ¯ÙĪØ±":1035,"You":1036,"ĠØ¯ÛĮØ¯":1037,"ĠÚĨÛĮØ²ÛĮ":1038,"ations":1039,"ĠØ¬Ùĩ":1040,"ĠÙģÚ©Ø±":1041,"Ġte":1042,"Ø²ÛĮ":1043,"Ġfirst":1044,"Ġour":1045,"ĠÙĩØ³ØªÙĨØ¯":1046,"ÙĤØ·":1047,"Ġam":1048,"ff":1049,"ĠØ¬Ùħ":1050,"ĠÚĨÙĨØ¯":1051,"Ġres":1052,"Ġco":1053,"Ġjust":1054,"ĠÂ«":1055,"ĠØ®ÛĮÙĦÛĮ":1056,"Ø´ØªØ±":1057,"ĠØªØŃ":1058,"Ġtwo":1059,"Ø´ØªÙĩ":1060,"Ø®Øµ":1061,"ĠÙĨØ¨":1062,"ĠØ§ÙĨÚ¯":1063,"Ġwork":1064,"ĠSt":1065,"ue":1066,"ĠØ¹ÙĨÙĪØ§ÙĨ":1067,"ĠØ§Ø¬":1068,"Ø²Ø§Ø±":1069,"Ø¨Ø§ÙĨ":1070,"cl":1071,"ick":1072,"ĠÙħÙĪØ±Ø¯":1073,"wn":1074,"Ú¯Ùĩ":1075,"Ġ--":1076,"ÙĪØ±Øª":1077,"ĠÙħØ§ÙĨ":1078,"ĠCh":1079,"Ġthen":1080,"Ġspe":1081,"we":1082,"Ġnow":1083,"ĠØ§Ú¯Ø±":1084,"ÙĪÙĦÛĮ":1085,"ĠØ¹Ùħ":1086,"Ġthink":1087,"Ġgr":1088,"ÛĮØª":1089,"ĠØ¨Ø®":1090,"ÙĪØ±Ø¯":1091,"She":1092,"ater":1093,"ĠØªÙĪØ³":1094,"Ø¢ÙĨ":1095,"ĠÚ©Ø±Ø¯ÙĨØ¯":1096,"Ø´ÙĨ":1097,"Ġbo":1098,"ĠØ¨ÙĦ":1099,"Ġoff":1100,"Ø§Øµ":1101,"ĠØ²ÙĨØ¯Ú¯ÛĮ":1102,"Ġhow":1103,"ĠØ²ÛĮØ±":1104,"ĠâĢ¬":1105,"ĠØ¨Ø²Ø±Ú¯":1106,"ĠØ¯ÙĦ":1107,"ĠØ¯Ø§Ø¯Ùĩ":1108,"ark":1109,"but":1110,"Wh":1111,"ÙħØª":1112,"Ġfo":1113,"ife":1114,"ĠØ§ÙĨØ¬Ø§Ùħ":1115,"Ġalso":1116,"right":1117,"ens":1118,"ĠØ§Ø·":1119,"ĠØ³ÙĪ":1120,"Ġevery":1121,"Ġagain":1122,"ĠÙĪØ§ÙĤØ¹":1123,"ord":1124,"tern":1125,"ĠÚ©ÙĨÛĮÙħ":1126,"ĠÛĮÚ©ÛĮ":1127,"ĠØ·ÙĪØ±":1128,"Ġdes":1129,"Ġbet":1130,"ÙĪÙĩ":1131,"Ø¦ÛĮ":1132,"Ġget":1133,"Ġbr":1134,"ft":1135,"ĠØ¨Ø±Ø¯":1136,"ĠØ²Ø¯":1137,"Ġpo":1138,"ew":1139,"ĠØ¨Ø³ÛĮØ§Ø±":1140,"ction":1141,"ĠØ§ÙĨØª":1142,"mer":1143,"So":1144,"Ø§ØŃ":1145,"ĠØ§Øµ":1146,"Ġunder":1147,"Ġthese":1148,"ial":1149,"fore":1150,"Ġback":1151,"Ġsm":1152,"Ú©Ø§ÙĨ":1153,"alk":1154,"Ø³Ùĩ":1155,"Ġ/":1156,"vel":1157,"ÙĦØ¨":1158,"Ú¯Ø±ÛĮ":1159,"They":1160,"ĠØ³Ø§Ø²":1161,"vers":1162,"ĠÙĨÙĤ":1163,"ict":1164,"ĠÚĺ":1165,"ĠØ®Ø§ÙĨ":1166,"ase":1167,"uch":1168,"Ú©Ø³":1169,"ĠØ§ÛĮÙĨÚ©Ùĩ":1170,"Ġwant":1171,"Ġits":1172,"ÙĪØª":1173,"ĠØ¯ÙĩØ¯":1174,"ĠØ´ÙĩØ±":1175,"ĠÚ©Ø±Ø¯ÙĨ":1176,"Ġhand":1177,"ons":1178,"ÙĪÙĨÛĮ":1179,"ov":1180,"ĠÙĨÚ¯Ø§Ùĩ":1181,"ĠØ§ÙģØª":1182,"Ġ20":1183,"ĠÙĩÙħØ§ÙĨ":1184,"omet":1185,"Ø¯ÛĮØ¯":1186,"ied":1187,"ĠÚ©Ø±Ø¯Ùħ":1188,"Ø³ØªÙħ":1189,"Ø±ÛĮÚ©":1190,"ĠØªÙħØ§Ùħ":1191,"Ġpre":1192,"ĠØ¬ÙĨ":1193,"ĠØ¢ÙħØ¯":1194,"orn":1195,"ward":1196,"ious":1197,"ng":1198,"Ø£":1199,"'re":1200,"Ġtr":1201,"du":1202,"ÙģÛĮ":1203,"ĠØ®Ø§ÙĨÙĩ":1204,"Ø§Ø±Øª":1205,"Ġsc":1206,"This":1207,"Ġdown":1208,"ĠÚ©ÙĨÛĮØ¯":1209,"Ø¯Ø§ÛĮ":1210,"Ø§ÙħÙĦ":1211,"ittle":1212,"Ø¶ÛĮ":1213,"Ġact":1214,"hen":1215,"ĠÙĩØ§ÛĮÛĮ":1216,"ather":1217,"ĠØ±Ø³ÛĮØ¯":1218,"Ġway":1219,"Ġsay":1220,"ors":1221,"Ġ200":1222,"Ø§Ø®":1223,"ĠØ¨ÛĮØ´ØªØ±":1224,"ĠØ§ÙĪÙĦ":1225,"ition":1226,"int":1227,"ĠÚ¯Ø±Ø¯":1228,"ÙħØ§ÙĨÛĮ":1229,"ĠThe":1230,"ĠØ§Ø¯":1231,"We":1232,"ces":1233,"Ø§Ø¨Ø±":1234,"Ġmost":1235,"iss":1236,"Ġafter":1237,"Ġwhere":1238,"Ġeven":1239,"ÙĪØ¨":1240,"Ø³Ø±":1241,"ath":1242,"Ø¨ÙĦ":1243,").":1244,"ĠØ®ÙĪØ§ÙĩØ¯":1245,"ĠØ¯Ø§Ø´ØªÙĩ":1246,"ĠØ¢ÙĨÙĩØ§":1247,"ĠÙĩÙħÛĮÙĨ":1248,"ÙĲ":1249,"Ø§Ú©":1250,"Ġlittle":1251,"man":1252,"Ġnew":1253,"Ġfl":1254,"ĠØªÙĨÙĩØ§":1255,"ull":1256,"rough":1257,"Ġsy":1258,"ple":1259,"ily":1260,"Ġlong":1261,"ĠØªØ¹":1262,"ØªÙħ":1263,"ĠÙĩÙĨ":1264,"ood":1265,"ĠÙħØ·":1266,"ove":1267,"Ġbl":1268,"round":1269,"Ġcomm":1270,"ĠÙħØ«ÙĦ":1271,"Ġsuch":1272,"be":1273,"way":1274,"ĠØ´Ø¨":1275,"ĠØ¬Ø§ÛĮ":1276,"ĠØ²ÙħÛĮÙĨ":1277,"Ġmuch":1278,"ÙħÙĩ":1279,"ĠØ²ÙĨ":1280,"Ġworld":1281,"Ġgoing":1282,"ØªØ§Ø¨":1283,"ĠØŃØ±Ùģ":1284,"ÙĤØ§ÛĮ":1285,"Ġrem":1286,"Ø¸Ùĩ":1287,"Ġdon":1288,"ĠÙĨØ¨ÙĪØ¯":1289,"ĠÙĨØ²":1290,"Ø®ÛĮ":1291,"ĠÙħØ±Ø§":1292,"Ġmade":1293,"Ø³Ø§ÙĨ":1294,"ĠÙĪÙĤØªÛĮ":1295,"ĠØ´ÙĪÙĨØ¯":1296,"Ġright":1297,"ced":1298,"ĠØªÙĪØ³Ø·":1299,"ĠØ¶":1300,"Ú¯Ø§ÙĨ":1301,"ates":1302,"Ġbefore":1303,"gan":1304,"Ġdif":1305,"Ġbecause":1306,"ne":1307,"Ġform":1308,"ĠÚ¯ÛĮ":1309,"ĠØ§ÙĪÙĨ":1310,"ĠØ¬Ø§":1311,"ĠÚ©ÙĪÚĨ":1312,"oss":1313,"Ø§ÙĩÛĮ":1314,"ents":1315,"ĠØ¢Ø±":1316,"Ø¨Ø§ÙĦ":1317,"ĠUn":1318,"Ġthrough":1319,"Ġcall":1320,"Ø§Ø¨ÙĦ":1321,"ful":1322,"ØŃÛĮ":1323,"ough":1324,"Ġyears":1325,"ail":1326,"ince":1327,"ĠÚĨÙĪÙĨ":1328,"Ġ_":1329,"Ġshould":1330,"ys":1331,"ĠØµÙĪØ±Øª":1332,"Ġind":1333,"ØºÛĮ":1334,"Ġthought":1335,"ĠAr":1336,"Ø§ØªÛĮ":1337,"ĠØ³Ùĩ":1338,"ĠØ¨Ø§Ø²ÛĮ":1339,"Ġgood":1340,"Ġwr":1341,"Ġmay":1342,"Ġsomet":1343,"ÙħÚ©ÙĨ":1344,"Ġ3":1345,"Ġser":1346,"ave":1347,"Ø§Ú¯Ø±":1348,"ĠØªÙĤ":1349,"ving":1350,"Ġhere":1351,"Ġrec":1352,"ĠÙĨØ³":1353,"Ø³Ø§Ø³":1354,"ÙĨØ§ÙħÙĩ":1355,"form":1356,"\".":1357,"Ġday":1358,"ans":1359,"ert":1360,"ĠØ®ÙĪØ§Ø³Øª":1361,"ĠÙĦØŃ":1362,"Ġcons":1363,"ĠØ¢Ø¨":1364,"ØªØ§":1365,"ited":1366,"ĠØ¢Ø²":1367,"ĠÙĨØ´Ø§ÙĨ":1368,"ars":1369,"rent":1370,"ness":1371,"ÙĨØ¯ÛĮ":1372,"ĠÛĮØ§Ø¯":1373,"ĠØ´Ùħ":1374,"ĠØ¢ÙĪØ±Ø¯":1375,"ĠØ²ÙħØ§ÙĨ":1376,"Ġey":1377,"Ġmake":1378,"ĠÙħÛĮØ§ÙĨ":1379,"Ġlife":1380,"ĠÙģÙĤØ·":1381,"Ø¬ÛĮ":1382,"ÙĪÛĮÛĮ":1383,"end":1384,"ĠØ³Ø§":1385,"ational":1386,"ise":1387,"ty":1388,"ĠÚ¯ÙĪ":1389,"Ġapp":1390,"lect":1391,"ĠÙĩÙħÚĨ":1392,"ĠØ¨ÛĮØ±":1393,"ÛĮØ¯Ø§":1394,"Ø±Ùħ":1395,"Ġ201":1396,"Ø¨ÛĮÙĨ":1397,"aw":1398,"igh":1399,"Û°Û°":1400,"augh":1401,"ves":1402,"Ġown":1403,"Ø§Ø´":1404,"ĠØŃØ¯":1405,"ĠÚ¯Ø±ÙģØªÙĩ":1406,"ĠÙĦØ¨":1407,"Ġnever":1408,"ual":1409,"Ġold":1410,"ĠÙĨØ¯Ø§Ø´Øª":1411,"ually":1412,"Ġcount":1413,"Ú¯Ø²":1414,"ĠÚ©Ø´ÙĪØ±":1415,"There":1416,"ĠØ®Ø·":1417,"ÛĮØ´Ùĩ":1418,"Ø³ØªÛĮ":1419,"ÙĪØ¹":1420,"ĠØªÙĪØ§ÙĨØ¯":1421,"Ġwell":1422,"ÙĩÛĮ":1423,"ĠØ§Ø¹":1424,"ĠØ¯Ø§Ø±ÙĨØ¯":1425,"Ġmany":1426,"ÙħÙĦ":1427,"ĠIn":1428,"olog":1429,"Ġgen":1430,"ĠÙĨÙģØ±":1431,"air":1432,"Ġatt":1433,"ĠÚ©Ø³ÛĮ":1434,"ĠØ¬ÙĪ":1435,"Ġgreat":1436,"ĠÙħØ±Ø¯Ùħ":1437,"ĠØ®ÙĪØ´":1438,"'m":1439,"ĠØ´Ú©":1440,"ible":1441,"ject":1442,"Ġph":1443,"ÙĦÙģ":1444,"Ġcome":1445,"Ġrel":1446,"ĠØ¢ÙħØ±ÛĮÚ©":1447,"ĠØ¯Ø±Ø¨Ø§Ø±Ùĩ":1448,"Ø²Ùĩ":1449,"ĠØ°":1450,"ĠØ®ÙĪØ¨":1451,"Ġsec":1452,"Ø§Ø·Ø±":1453,"ĠY":1454,"Ġsame":1455,"Ġbu":1456,"ouse":1457,"Ġthose":1458,"ĠØŃØ±":1459,"ĠØµØŃ":1460,"ib":1461,"Ġused":1462,"Ġacc":1463,"ÛĮØ±Ùĩ":1464,"ÙģÙĩ":1465,"Ø³Ùħ":1466,"ĠØ¨ÛĮØ±ÙĪÙĨ":1467,"ĠÙĤØ¯Ø±":1468,"Ġhapp":1469,"ĠÚĨÙĨÛĮÙĨ":1470,"Ø§ÛĮØª":1471,"ĠÚĨØ´Ùħ":1472,"ĠÙħÙħÚ©ÙĨ":1473,"ØªØ±ÛĮÙĨ":1474,"ĠØ¢ÙĦ":1475,"aking":1476,"Ø¬Ø±":1477,"ried":1478,"Ġwom":1479,"les":1480,"Ġbeing":1481,"ØªÙĪØ§ÙĨ":1482,"ower":1483,"ĠØ·Ø±Ùģ":1484,"ĠÚ©Ø³":1485,"ob":1486,"ĠÙĪÙĦÛĮ":1487,"ĠØ§ØŃØ³Ø§Ø³":1488,"Ġcr":1489,"Ù¾ÛĮ":1490,"ĠØ¨Ø§ÙĦØ§":1491,"az":1492,"ĠØ´Ø¯ÙĨØ¯":1493,"ĠØªØºÛĮ":1494,"ody":1495,"ix":1496,"Ġtoo":1497,"ĠØ¬ÙĨÚ¯":1498,"Ø¹ÛĮØª":1499,"Ġask":1500,"Ø·ÙĪØ±":1501,"Ġac":1502,"Ġbel":1503,"ĠÙ¾Ø±ÙĪ":1504,"Ġend":1505,"Ġturn":1506,"ĠØªØ´":1507,"Ø±ÙĪØ¹":1508,"ĠÚ©Ø§Ùħ":1509,"ĠÙħØ§ÙĨÙĨØ¯":1510,"Ø®ØªØ±":1511,"stem":1512,"ĠØ¯ÙĪØ³Øª":1513,"ĠÙĪÙĤØª":1514,"ĠØ¯ÛĮÚ¯Ø±ÛĮ":1515,"hes":1516,"ÙĩÙĨ":1517,"ank":1518,"thing":1519,"ØŃØ§ÙĦ":1520,"'ve":1521,"old":1522,"Ġem":1523,"Ġke":1524,"Ġmust":1525,"ĠÚ¯Ø±ÙĪ":1526,"ĠØ¨Ø¯Ùĩ":1527,"ms":1528,"ics":1529,"Ġneed":1530,"aid":1531,"Ġsl":1532,"oc":1533,"Ġwent":1534,"oth":1535,"Ø¨Ø§Ø±":1536,"ĠØ´Ùĩ":1537,"Ú©ÙĪ":1538,"ĠØŃØ³":1539,"ĠØ¹ÙĦ":1540,"ubl":1541,"ĠÙģØ±ÙĪ":1542,"ĠÙ¾ÛĮØ¯Ø§":1543,"ÙĪÙĤ":1544,"Ġcar":1545,"ĠØºÛĮØ±":1546,"ĠØ¨ÙĨ":1547,"ĠØ¨ÙĪØ¯Ùħ":1548,"Ø§Ø²ÛĮ":1549,"ĠÙĪØ±":1550,"ec":1551,"ĠØªØºÛĮÛĮØ±":1552,"ĠØ¨Ø§ÙĦ":1553,"ph":1554,"Ġlet":1555,"ween":1556,"Ø±ÛĮÙĨ":1557,"Ø²Ø´":1558,"Ġcame":1559,"Ġchild":1560,"ating":1561,"ĠØ·ÙĪÙĦ":1562,"ĠØ´Ø±ÙĪØ¹":1563,"Ġob":1564,"Ġthree":1565,"Ġhead":1566,"pect":1567,"Ġhum":1568,"ĠÙģÛĮÙĦ":1569,"Ø´Ø¯":1570,"ting":1571,"What":1572,"ĠØ¢ÙĨØ¬Ø§":1573,"ĠØ¨ÙĪØ¯Ùĩ":1574,"ĠØ¸":1575,"Ø§ÛĮÙĦ":1576,"cess":1577,"ÛĮÙĨÙĩ":1578,"ĠØ¯Ø§ÙĨØ´":1579,"land":1580,"ĠÙ¾Ø´Øª":1581,"ĠØŃØªÛĮ":1582,"Ġent":1583,"imes":1584,"led":1585,"ÙĪØ§Ø±":1586,"ÛĮÙĨÛĮ":1587,"ĠØ¨Ø±Ú¯":1588,"ared":1589,"Ġdiffe":1590,"Ġstill":1591,"ont":1592,"ĠÛĮÙĩ":1593,"Ġhimself":1594,"ened":1595,"ĠØ®Ø§Ø·Ø±":1596,"Ġtake":1597,"ĠÚ¯ÙĪØ´":1598,"ĠÛ²Û°":1599,"ÙĪØ¯ÛĮ":1600,"Ø«Ø±":1601,"ĠMr":1602,"Ġsomething":1603,"gin":1604,"ĠØªØ§Ø±ÛĮ":1605,"ĠÚ©ØªØ§Ø¨":1606,"ĠØ®ÙĪØ¯Ø´":1607,"Ġfound":1608,"cial":1609,"vent":1610,"ĠÚ¯Ø°Ø§Ø´Øª":1611,"Ġgot":1612,"fect":1613,"Ġop":1614,"ÛĮÙħÛĮ":1615,"ady":1616,"ning":1617,"ĠÙħÙĩ":1618,"Ġdist":1619,"get":1620,"ĠÚ©ÙĪÚĨÚ©":1621,"ØªÙĪ":1622,"Ø§Ø¶":1623,"),":1624,"Ġbetween":1625,"ier":1626,"ØµØ¯":1627,"'ll":1628,"ĠØ¨ÛĮÙħ":1629,"Ø®ÙĪØ§Ùĩ":1630,"ĠÚ©Ø´ÛĮØ¯":1631,"ĠÙ¾ÙĨØ¬":1632,"Ġseem":1633,"Ġreg":1634,"ĠØ¨ÛĮØ´":1635,"rans":1636,"Ġear":1637,"ĠØ²Ø¨Ø§ÙĨ":1638,"aughter":1639,"Ġlast":1640,"Ġthings":1641,"Ġaway":1642,"Ġeyes":1643,"ĠØ«":1644,"Ġinc":1645,"Ġpers":1646,"ĠØ³ÙĦ":1647,"ĠØªØ¨":1648,"xt":1649,"ĠÙĨØ²Ø¯ÛĮ":1650,"Ġimp":1651,"Ġinst":1652,"ĠØªÙĪØ§ÙĨØ³Øª":1653,"Ġsur":1654,"Ġtell":1655,"ular":1656,"Ø§ÛĮÙĩ":1657,"ÙĦÛĮØ³ÛĮ":1658,"ĠØªØ±ÛĮÙĨ":1659,"gg":1660,"ĠØ§ØªØ§ÙĤ":1661,"Ġstart":1662,"ros":1663,"Ġset":1664,"Ġmight":1665,"ĠØ§ÛĮÙĨØ¬Ø§":1666,"ased":1667,"ĠÙĥ":1668,"Ġword":1669,"ĠÙħØ§Ùĩ":1670,"ĠØ³ÙĨ":1671,"ĠÚ©Ø§Ø±ÛĮ":1672,"Ġuse":1673,"¸Û":1674,"uring":1675,"ĠØ¯ÙĨ":1676,"Ø¹Ø§Øª":1677,"ric":1678,"Ġreally":1679,"ific":1680,"und":1681,"Ġ{":1682,"Ġtalk":1683,"Ġsystem":1684,"ere":1685,"ows":1686,"cept":1687,"ĠØªÙĪÙĦ":1688,"wh":1689,"ÙģØ§":1690,"ĠØ¬Ø²":1691,"ĠØ§Ø®":1692,"Ġter":1693,"ĠÙĨÚ©":1694,"ĠÚ©ÙĨØ§Ø±":1695,"ĠØ³Ø®":1696,"Ġ4":1697,"ĠØ¨Ø¯ÙĪÙĨ":1698,"Ú¯ÙĪ":1699,"Ø§Ø¨ÛĮ":1700,"Ġfeel":1701,"Ø±Ø¨":1702,"ĠØ§ÙģØ±":1703,"ĠÙ¾ÛĮØ±":1704,"ÙħØ¯":1705,"ĠØ®ÛĮ":1706,"Ġfam":1707,".\"":1708,"ØªÙĪÙĨ":1709,"ĠØ¯Ø®ØªØ±":1710,"ities":1711,"Ġcol":1712,"Ġpass":1713,"Ø³ÛĮØ¯":1714,"ĠØ§Ø·ÙĦØ§":1715,"gr":1716,"Ġmat":1717,"Ġpol":1718,"ĠÛ²Û°Û":1719,"ĠØ´Ø¯ÙĨ":1720,"Ġsupp":1721,"ĠÙ¾Ø§":1722,"ĠØ¬Ø§ÙĨ":1723,"ident":1724,"ĠØ¯ÙĨÛĮ":1725,"ah":1726,"Ġroom":1727,"Ġret":1728,"ork":1729,"Ġdec":1730,"ĠÙħØµ":1731,"Ġwithout":1732,"ÚĺÛĮ":1733,"als":1734,"ÙĦÛĮÙĦ":1735,"Ø¨Ø±Ø§ÛĮ":1736,"ĠÙĤØ·":1737,"Ġput":1738,"ÙĪØµ":1739,"ĠØªØ£":1740,"Ġgl":1741,"ered":1742,"ĠØ±ÛĮ":1743,"ĠØ´Ø±Ú©Øª":1744,"Ġap":1745,"ĠÙħØ§Ø¯Ø±":1746,"That":1747,"Ġpres":1748,"ever":1749,"ĠÙ¾Ø¯Ø±":1750,"Ġsub":1751,"³Û":1752,"Ù¾Ø±":1753,"cho":1754,"ished":1755,"Ø¯Ø§Ø±":1756,"ĠØ®ÙĪØ§ÙĨ":1757,"ĠØ¬Ø¯ÛĮØ¯":1758,"Ġinter":1759,"ÙĩÙĨÚ¯":1760,"If":1761,"ĠÚ©ÙĦÛĮ":1762,"Ġface":1763,"Ġnum":1764,"ĠØ¯Ø±Ø³Øª":1765,"ĠÙħÙĦ":1766,"cy":1767,"Ġeach":1768,"li":1769,"arch":1770,"ÙĤØ§":1771,"Ġstud":1772,"ways":1773,"Ø®Ø§ÙĨÙĩ":1774,"ĠÚ©ÛĮ":1775,"ale":1776,"ĠØ¯Ø§Ø±Ùħ":1777,"ĠAir":1778,"ĠÛ±":1779,"ĠØ¨Ø®Ø´":1780,"clud":1781,"Ø§ÙĨØ³":1782,"Ġaround":1783,"Ġsim":1784,"ĠØ´Ø®Øµ":1785,"ĠØ¬ÙĩØ§ÙĨ":1786,"ĠØ¯Ø±ÛĮØ§":1787,"ĠÙħØ³Øª":1788,"ĠØ¢ÛĮ":1789,"up":1790,"ĠÙĨÙħÙĪØ¯":1791,"its":1792,"ĠØŃÙĤ":1793,"ĠÙĩÙĨÚ¯":1794,"Ø±Ø§Ùĩ":1795,"Ġmen":1796,"Ġexp":1797,"ĠÙĩÙĨÙĪØ²":1798,"ative":1799,"ĠØ¹ÙĤ":1800,"ĠÚĨØ±Ø§":1801,"ĠØ¨Ø´":1802,"ret":1803,"Ġlar":1804,"Ġgu":1805,"ĠÚ¯Ø±ÙĪÙĩ":1806,"Ġcalled":1807,"Ø¨ÙĪØ±":1808,"ĠØ§Ùĩ":1809,"owing":1810,"ĠTh":1811,"Ġhel":1812,"Ġins":1813,"Ġthing":1814,"Ú©Ø²":1815,"ures":1816,"Ġdoes":1817,"ĠØµØ¯Ø§ÛĮ":1818,"Ġprodu":1819,"Ġgener":1820,"When":1821,"ĠØ§ÛĮØ§ÙĦ":1822,"ĠØ¨Ø¹":1823,"ĠÙĦÛĮ":1824,"ĠØ®Ø§Ø±":1825,"ters":1826,"Ġreal":1827,"ĠØ¨ÚĨÙĩ":1828,"Ġleft":1829,"ĠØ®Ø±":1830,"ĠÙħÛĮØ²":1831,"Ġmet":1832,"Ġanother":1833,"ĠÛ²Û°Û°Û":1834,"ĠÙħØ®":1835,"ĠØ§Ø¹Øª":1836,"ĠØ¬ÙĪØ§ÙĨ":1837,"ĠÚĨÙĩØ§Ø±":1838,"ten":1839,"ĠÛĮØ§ÙģØª":1840,"ĠÙĨØ²Ø¯ÛĮÚ©":1841,"ps":1842,"arm":1843,"Ġdifferent":1844,"ub":1845,"here":1846,"Ġmon":1847,"Ùī":1848,"ĠØ±ÙĨÚ¯":1849,"ÙĪÙĤØªÛĮ":1850,"Ġcour":1851,"Ġ18":1852,"Ġtrans":1853,"ÚĺÙĩ":1854,"Ø§Ù¾":1855,"Ġ5":1856,"ĠØ¨ÙĦÙĨØ¯":1857,"ism":1858,"ĠØµØŃØ¨Øª":1859,"ĠRe":1860,"Ġmod":1861,"riend":1862,"ivers":1863,"Ø´ØªÛĮ":1864,"ĠÚ©ÙħÚ©":1865,"ĠØªÙĪØ¬Ùĩ":1866,"Ġadd":1867,"ØªÙħØ§":1868,"ĠÙħÙĪØ¶":1869,"ØªØ§ÙĨ":1870,"ĠÙħØªØŃ":1871,"Ġinv":1872,"ange":1873,"ĠØ¨Ø±ÙĨØ§ÙħÙĩ":1874,"Ġfind":1875,"Ġplay":1876,"As":1877,"Ø¯Ø§Ùħ":1878,"19":1879,"ĠØ²ÛĮØ§Ø¯ÛĮ":1880,"ĠÙħØº":1881,"Ġmom":1882,"Ġstr":1883,"ĠÙģÛĮÙĦÙħ":1884,"Ġlooked":1885,"oy":1886,"ner":1887,"ÙĩØ§ÛĮÛĮ":1888,"ĠÚ©ÙħÛĮ":1889,"ĠÙĨÛĮØ±":1890,"Ġhouse":1891,"ĠØ³Ø§Ø¹Øª":1892,"ution":1893,"ĠÛ²Û":1894,"ĠØ§ÛĮØ³Øª":1895,"hip":1896,"velop":1897,"Ø¯Ø§ÙĨ":1898,"Ø±Ø§Ùģ":1899,"ĠÙĦØŃØ¸Ùĩ":1900,"ĠØ¢ÙĤØ§ÛĮ":1901,"ÙĪØ·":1902,"ility":1903,"Ġfr":1904,"ĠØ¢ÙħØ±ÛĮÚ©Ø§":1905,"Ú©ÙĨÙĪÙĨ":1906,"ĠØ§Ø±Øª":1907,"ĠØ³ÛĮØ³ØªÙħ":1908,"ĠØ±ÙĪØ¯":1909,"ĠØŃØ±Ú©Øª":1910,"ĠØ¨Ø§Ø´ÙĨØ¯":1911,"Ø°ÛĮØ±":1912,"io":1913,"ÙģØ§ÙĤ":1914,"ĠØ®ÙĪØ±Ø¯":1915,"Ø¬Ø§Ø¯":1916,"Ġche":1917,"Ġtook":1918,"For":1919,"Ġlight":1920,"ĠØŃØ§ÙĦÛĮ":1921,"Ġwhile":1922,"ĠØ¯ÙĤÛĮ":1923,"Ġmin":1924,"ĠØ§ÙĨØ¯Ø§Ø²Ùĩ":1925,"owed":1926,"Ġplace":1927,"ĠØªÙĪÙĦÛĮØ¯":1928,"ĠÙĦØ§":1929,"alf":1930,"Ġbelie":1931,"ÙĤØ§Øª":1932,"ĠØ§ÙĪÙĦÛĮÙĨ":1933,"ĠÚ¯ÙĪÙĨÙĩ":1934,"ger":1935,"ĠØ®ÙĪØ§ÙĩÙħ":1936,"Ġlove":1937,"Ġmem":1938,"Ġnight":1939,"Ġfact":1940,"iness":1941,"How":1942,"Ġkind":1943,"meric":1944,"ĠØµØ¯":1945,"Ġalways":1946,"ĠÙĪØ§Ø±Ø¯":1947,"ized":1948,"Ġcent":1949,"ĠØ¢Ø´":1950,"Ø±ÙĪØ²":1951,"ĠØ§ÙģØªØ§Ø¯":1952,"den":1953,"Ġrep":1954,"Ġev":1955,"ĠÙħÙĩÙħ":1956,"ĠÙ¾Ø±Ø¯":1957,"Ġnothing":1958,"ĠØ§ÙĨØªØ®":1959,"ists":1960,"On":1961,"ĠØ§Ø¨":1962,"ross":1963,"ĠØ®Ø§ÙĨÙĪ":1964,"Ø´ÛĮØ¯":1965,"Ú¯ÙģØª":1966,"ØªÙĨ":1967,"ĠÙħÙĪÙĤ":1968,"Ġref":1969,"der":1970,"ĠØ¯ÛĮØ¯Ùĩ":1971,"Ġfin":1972,"ÙħÛĮÙħ":1973,"less":1974,"Ġair":1975,"ĠÙģØ¹":1976,"Ġfoll":1977,"ĠØ¯ÙĩÙĨØ¯":1978,"min":1979,"ĠÙĨÛĮØ§Ø²":1980,"ĠÙħØ®Øª":1981,"ĠØ³Ø¨":1982,"Ġpoint":1983,"ĠØ´ÛĮ":1984,"Ú¯ÛĮØ±ÛĮ":1985,"ern":1986,"Ġyoung":1987,"ĠØ®Ø§ÙĨÙħ":1988,"Ġcur":1989,"Ġupon":1990,"elt":1991,"Ġfriend":1992,"ĠLe":1993,"ĠØ§ØªÙģØ§ÙĤ":1994,"ĠØ§ÛĮØ¬Ø§Ø¯":1995,"ĠØ§ÙģØ±Ø§Ø¯":1996,"Ġsaw":1997,"Ø®ØªÙĩ":1998,"amp":1999,"Ġinclud":2000,"ĠØ§ÙĨÚ¯ÙĦÛĮØ³ÛĮ":2001,"Ġcap":2002,"ĠØ¯ÙĨØ¨Ø§ÙĦ":2003,"Ġposs":2004,"Ú¯Ø°":2005,"gy":2006,"ĠØŃÙħ":2007,"Ġunderst":2008,"Ġide":2009,"Ġsmall":2010,"ĠØ¢Ø®":2011,"ained":2012,"ek":2013,"ĠÚĨÛĮ":2014,"Ġdisc":2015,"ted":2016,"'d":2017,"ĠØªØ¬":2018,"Ġperson":2019,"ÙĨØ¯Ø§ÙĨ":2020,"to":2021,"vern":2022,"ĠØ´Ú©ÙĦ":2023,"ĠØŃØ¶":2024,"ĠØªÙģ":2025,"Ġ199":2026,"ments":2027,"Ġbeh":2028,"any":2029,"ote":2030,"ĠÙĩÙħÛĮØ´Ùĩ":2031,"ĠØ§ÙģØ²":2032,"ĠÛ²Û°Û±Û":2033,"Ø§Ø®ØªÙĩ":2034,"iet":2035,"ĠØ§ÙĨØªØ®Ø§Ø¨":2036,"ĠâĢİ":2037,"Ġgiv":2038,"ched":2039,"ts":2040,"ublic":2041,"ĠØ³ÙĪÛĮ":2042,"ĠØªÚ©":2043,"ĠÙĨØ³Ø¨Øª":2044,"Ø¨Ø¹Ø¯":2045,"arry":2046,"Ġcre":2047,"ages":2048,"ata":2049,"Ø§Ø¦":2050,"na":2051,"ĠØ§ÙĨØ³Ø§ÙĨ":2052,"ĠØ¢ÙħØ¯Ùĩ":2053,"ĠØ¹ÙħÙĦ":2054,"ĠØ²ÙħØ§ÙĨÛĮ":2055,"ĠØ¯Ø§Ø®":2056,"Now":2057,"Ġhelp":2058,"ĠØ¯ÙĪÙĦ":2059,"ĠAl":2060,"ĠÙĩØ§ÛĮØ´":2061,"ĠØ¯ÙĪØ¨Ø§Ø±Ùĩ":2062,"rist":2063,"ĠIs":2064,"ĠAmeric":2065,"ĠCom":2066,"Ġagainst":2067,"Ġfew":2068,"Ġknown":2069,"Ġhuman":2070,"Ø¡":2071,"ĠÙĨØ¯Ø§Ø±Ø¯":2072,"ĠÙħÙĪØ¶ÙĪØ¹":2073,"Ġhigh":2074,"ĠÙĤØ¨ÙĦ":2075,"ĠÙ¾ÙĪÙĦ":2076,"ĠÚ©ÙĪØ¯":2077,"ÛĮØ²ÛĮ":2078,"ĠÙĪØ§ÙĤØ¹Ø§":2079,"·Û":2080,"ĠØ§Ø¯Ø§ÙħÙĩ":2081,"chool":2082,"ĠÙĩÙħÚĨÙĨÛĮÙĨ":2083,"ĠØ³Ùģ":2084,"ĠÙħÛĮÙĦÛĮ":2085,"she":2086,"ÙĪÙĨØ¯":2087,"oun":2088,"ĠØŃØ§ÙĦØ§":2089,"ĠÙģØ±Ø¯":2090,"ÙĤÙĦ":2091,"Ġexam":2092,"ĠÙħÙĨØ·":2093,"ax":2094,"Ú¯ÙĪÙĨÙĩ":2095,"ØªÛĮØ¬Ùĩ":2096,"ĠØ±ÙģØªÙĩ":2097,"ĠÚ¯ÙĦ":2098,"ĠÙĨØ¯Ø§Ø±":2099,"Ġonce":2100,"Ġconf":2101,"Ø¨Ø§ÙĨÛĮ":2102,"Ġthough":2103,"Ġmind":2104,"ĠØ¨Ú¯ÙĪ":2105,"Ø¨Ø·":2106,"aph":2107,"Ġever":2108,"Ø¯ÛĮÚ¯Ø±":2109,"Ø¹Ø¯Ø§Ø¯":2110,"ĠÙĨÙģ":2111,"ĠØ¢Ø¯Ùħ":2112,"ik":2113,"ÙĨÙħ":2114,"uc":2115,"Ġbegan":2116,"oice":2117,"ĠØ¨Ø¨ÛĮÙĨ":2118,"ĠØ®ÙĪØ§Ø¨":2119,"ense":2120,"Ġfour":2121,"Ġstand":2122,"rit":2123,"Ġmoment":2124,"ute":2125,"ÙĪØ³Øª":2126,"Ġbetter":2127,"ology":2128,"ĠÙĤØ¯":2129,"ÙĨØ´":2130,"said":2131,"day":2132,"Ġsign":2133,"ĠÙĤØ§Ø¨ÙĦ":2134,"Ġed":2135,"ired":2136,"ĠDe":2137,"Ġdevelop":2138,"ĠÙĪØ§":2139,"ĠÙĩÙħØ±Ø§Ùĩ":2140,"ĠÙħÛĮÙĦ":2141,"Ġart":2142,"irl":2143,"con":2144,"ash":2145,"ĠØ¬ÙĦÙĪ":2146,"ertain":2147,"ically":2148,"Ø±Ø®":2149,"outh":2150,"chn":2151,"uss":2152,"ula":2153,"Ġboth":2154,"ield":2155,"Ġname":2156,"ines":2157,"ĠØ³Ø±ÛĮ":2158,"ĠØ³ÛĮØ§":2159,"Ø¨ØªÙĩ":2160,"Ø§ÙĪØª":2161,"ÙĪÛĮØ³":2162,"osed":2163,"ĠØ¨ÙĩØªØ±":2164,"Ġpower":2165,"ÙĪÛĮØ´":2166,"ÙĦØ³":2167,"At":2168,"Ġhome":2169,"ĠÙģØ±ÛĮ":2170,"ality":2171,"ĠØ§ÛĮÙħ":2172,"ĠAirport":2173,"uth":2174,"ĠØŃØ§Ø¶":2175,"ÙĪØ¯Ùĩ":2176,"Ġhard":2177,"Ġwater":2178,"ĠØ´Ø§Ùĩ":2179,"ĠØ¹ÙĦØ§":2180,"Ġel":2181,"ices":2182,"Ø§Ø¨Ø±Ø§ÛĮÙĨ":2183,"Ġdire":2184,"Ø¹ÙĨÛĮ":2185,"ĠØ±ÙĪØ´":2186,"ĠØ¨Ø±Ø§Ø¨Ø±":2187,"ĠØ¯ÙĦÛĮÙĦ":2188,"rew":2189,"Ġsecond":2190,"ĠÙĪØŃ":2191,"ĠØ®Ø§ÙĨÙĪØ§Ø¯Ùĩ":2192,"Ġgive":2193,"ĠØ®ÙĪØ¯Ùħ":2194,"ĠÚ¯ÙģØªÙĩ":2195,"Ġdr":2196,"Ġfil":2197,"000":2198,"iew":2199,"ĠØ¯Ø§Ø±ÛĮÙħ":2200,"ĠÙĨÛĮÙħ":2201,"Ġass":2202,"Ø§ÙĪØ±":2203,"ĠØ¢Øº":2204,"Ġheart":2205,"Laughter":2206,"ĠØ¨ÙĪ":2207,"Ġcare":2208,"ĠØŃÙĦ":2209,"Ø§ÙĨÚ¯":2210,"ural":2211,"´Û":2212,"ĠØ¢ÙĨÚ©Ùĩ":2213,"ĠÚ¯Ø±ÛĮ":2214,"ĠÚ©ÙĨÙĨØ¯Ùĩ":2215,"Ġprov":2216,"Ġcomple":2217,"ĠÚ©ÙĨÛĮ":2218,"ĠÙĤØ¨":2219,"arn":2220,"Ġmean":2221,"ĠØ³ÙĨÚ¯":2222,"Ġrest":2223,"ĠØ§ÛĮØ±":2224,"ĠÚĨÙĨØ§ÙĨ":2225,"ĠÙĨØªÛĮØ¬Ùĩ":2226,"Ġread":2227,"ex":2228,"most":2229,"ĠØ¯Ø§Ø³Øª":2230,"Ġquest":2231,"Ø³Ø§":2232,"ĠØ²Ø¯Ùĩ":2233,"Ġappe":2234,"Ġbook":2235,"ĠÙħØ¯Ø±":2236,"¶Û":2237,"ug":2238,"Ø¹Ø«":2239,"ÛĮØ¯ÛĮ":2240,"ĠÙħØ¯Øª":2241,"Ġmother":2242,"ÙĤØ¯Ø±":2243,"ĠØªØ§Ø¨":2244,"Ġsw":2245,"ĠÛµ":2246,"Ġfather":2247,"Ø±Ø´":2248,"ĠÙĩÙĪØ§":2249,"Ø§ÙģÛĮ":2250,"Ġknew":2251,"ined":2252,"Ġtold":2253,"Ø§Ø²Ùħ":2254,"ĠØ³Ø·":2255,"Ø§ÙĦÙĩ":2256,"ĠÙĨØ®":2257,"ĠØ³Øª":2258,"ĠØ¯Ø§ÙĨØ³Øª":2259,"Ġfelt":2260,"ĠÙ¾Ø§ÛĮÛĮÙĨ":2261,"ĠØ´Ø§ÛĮØ¯":2262,"ÛĮØ¯ÙĨ":2263,"alth":2264,"Ġseemed":2265,"Ġdidn":2266,"ently":2267,"ĠØ§ØµÙĦÛĮ":2268,"ÙħØ±Ø¯":2269,"Ġblo":2270,"ĠÙħØ§Ø±":2271,"Ø§Ø¨Øª":2272,"ering":2273,"oh":2274,"ins":2275,"ock":2276,"ook":2277,"ĠØ³Ø§Ø®ØªÙĩ":2278,"ĠØ¨Ú©":2279,"ĠÙĤØ§ÙĨ":2280,"Ġasked":2281,"Ø¬Ø¨":2282,"ĠÙħØ§ÙĨØ¯":2283,"ene":2284,"ĠØ¯Ø§Ø´ØªÙĨØ¯":2285,"ÙĩØ±Ùĩ":2286,"com":2287,"Ø±Ø²":2288,"Ġtry":2289,"ĠØ¢ÙħÙĪØ²":2290,"orm":2291,"ĠÙĪØ¶":2292,"Ø±Ø³ÛĮ":2293,"Ġsk":2294,"ĠØ¬ÙĪØ§Ø¨":2295,"aps":2296,"ĠØ¨ØªÙĪØ§ÙĨ":2297,"Ġbus":2298,"Ġ6":2299,"ĠØ¢ÙĨÚĨÙĩ":2300,"ĠNew":2301,"Ġnumber":2302,"ina":2303,"Ø¤":2304,"Ġdet":2305,"angu":2306,"ised":2307,"ĠØ¨Ø§Ø¹Ø«":2308,"Ġcle":2309,"Ø¨Ø±ÛĮ":2310,"ĠÙģØ¶":2311,"ĠÙģØ±ÙĪØ¯":2312,"Ù¾Ø§":2313,"Ú¯Ø±Ø¯":2314,"ason":2315,"Ġwalk":2316,"Ġpartic":2317,"No":2318,"Ġloc":2319,"ĠÚ¯Ø°Ø´ØªÙĩ":2320,"Ġwomen":2321,"ĠZ":2322,"wards":2323,"akes":2324,"Ġsol":2325,"ement":2326,"Ġvis":2327,"Ú©ØªØ±":2328,"Ø®ÙĨØ¯Ùĩ":2329,"ature":2330,"ĠÚ¯ÛĮØ±":2331,"ÙĦØ§ØŃ":2332,"Ġside":2333,"ĠÙĨÚ¯Ùĩ":2334,"ĠÙħÙĨØ¸":2335,"oney":2336,"Well":2337,"ĠØŃÛĮ":2338,"ird":2339,"erv":2340,"Ġsince":2341,"Ġinf":2342,"Ġext":2343,"ĠØ³Ù¾":2344,"ÙħØ²":2345,"ĠØŃÙĤÛĮ":2346,"ĠØ´Ø§ÙħÙĦ":2347,"Ø¨Ø§Ø²":2348,"ĠSh":2349,"Ø·ÛĮ":2350,"br":2351,"Ġchar":2352,"Ø¨ÙĨ":2353,"ung":2354,"ĠØ¨Ø³ÛĮØ§Ø±ÛĮ":2355,"Ġactually":2356,"Ø±ÛĮÙģ":2357,"ĠÙ¾Ø±Ø³ÛĮØ¯":2358,"ĠÙħÙĨØª":2359,"ants":2360,"Ø¨Ø¯":2361,"Ġmed":2362,"iversity":2363,"His":2364,"Ġwind":2365,"Ġunderstand":2366,"ĠÙģØ±Ø§ÙĨ":2367,"ĠUnited":2368,"Ġimport":2369,"ither":2370,"cri":2371,"atch":2372,"ately":2373,"ize":2374,"ĠÚ©Ø±Ø¯ÛĮÙħ":2375,"ĠÙħØ±Ú¯":2376,"Ø²ÛĮØ±":2377,"Ġfamily":2378,"ĠØ®Ø§Øµ":2379,"ĠÙĨÙĪØ¹":2380,"Ġexper":2381,"ĠÙħØªÙĪ":2382,"Ø±ÛĮÙĤ":2383,"Ġhands":2384,"ains":2385,"ĠÙĨØ§ÙħÙĩ":2386,"Ġunt":2387,"Ġlooking":2388,"ÚĨÙĪÙĨ":2389,"cent":2390,"ĠØ§Ø·ÙĦØ§Ø¹Ø§Øª":2391,"Ġdone":2392,"ĠÙ¾Ø§Ø³":2393,"Ġocc":2394,"Ġmo":2395,"ĠØ¯Ø±Ø¢":2396,"ĠØ´Ø§ÙĨ":2397,"Ġopen":2398,"me":2399,"ley":2400,"Ġsing":2401,"ann":2402,"Ġseen":2403,"Ġless":2404,"ĠSe":2405,"Ġsil":2406,"ĠØ¢ÛĮØ¯":2407,"Ġhalf":2408,"Ġenough":2409,"ets":2410,"Ġdoor":2411,"Then":2412,"ĠØºØ°":2413,"ĠHe":2414,"Ġchildren":2415,"ĠSp":2416,"med":2417,"Ġgrou":2418,"ĠØ®Ø¯Ùħ":2419,"iting":2420,"Ġreturn":2421,"ĠØ¬Ø§ÛĮÛĮ":2422,"Ġbuild":2423,"ĠÙģØ±Ø§":2424,"ĠØªØµÙħÛĮÙħ":2425,"ĠØ¬ÙĩØ§ÙĨÛĮ":2426,"ĠÙħØªØŃØ¯Ùĩ":2427,"ĠØ²ÙĨØ§ÙĨ":2428,"Ġbre":2429,"ĠØªÙĦ":2430,"ĠØ®ÙĪØ¨ÛĮ":2431,"ĠPro":2432,"\",":2433,"ĠØ³Ø®Øª":2434,"ĠØ§Ø«Ø±":2435,"ĠÙħØ´Ú©ÙĦ":2436,"ÙĪÙĦÙĪ":2437,"ĠAnd":2438,"Ġgirl":2439,"ĠØ±Ùĩ":2440,"Ġlater":2441,"Ġhour":2442,"ral":2443,"ope":2444,"ĠÙĨÙĪØ±":2445,"ĠØ¯Ø§Ø¯ÙĨ":2446,"ling":2447,"Ġlist":2448,"Ùĥ":2449,"ĠÙ¾Ø§Ø±":2450,"ĠØ·Ø¨ÛĮ":2451,"Ġtre":2452,"Ġheard":2453,"Ġrun":2454,"erest":2455,"ream":2456,"ĠÙģÙĩÙħ":2457,"ØµÙĦ":2458,"Ġmar":2459,"ries":2460,"ĠØ¯ÙĨÛĮØ§":2461,"Ø§ÛĮØ±":2462,"ury":2463,"ĠÙħÚ©":2464,"uro":2465,"ĠØ¬Ø§Ùħ":2466,"ÙĦÛĮÙĩ":2467,"aj":2468,"Ø±ÛĮØ¨Ø§":2469,"Ġtoget":2470,"Ġproble":2471,"ÙĨÙĪ":2472,"ĠØ®ÙĪØ±":2473,"ĠÙ¾Ø°ÛĮØ±":2474,"let":2475,"ĠØ§ÛĮØ§ÙĦØ§Øª":2476,"ron":2477,"Ġtogether":2478,"ember":2479,"Ú©Ùħ":2480,"ĠÙĩØ±Ú¯Ø²":2481,"ĠØ¢Ø±Ø§Ùħ":2482,"ĠÙ¾Ø§ÛĮØ§ÙĨ":2483,"Ø§ÙħØª":2484,"ĠQ":2485,"ÙĬÙĨ":2486,"ruct":2487,"Ġfar":2488,"Ġdays":2489,"ĠØ³ÙħØª":2490,"Ø§ÙĩØ§ÛĮ":2491,"Ġnext":2492,"Ġanything":2493,"Ø´ØªØ±ÛĮ":2494,"Ġgovern":2495,"Ġ10":2496,"ĠÙ¾ÙĪØ´":2497,"Ø§ÛĮÙĨØ¯":2498,"ĠØ¨Ú¯Ø°":2499,"Ø¯ÛĮÙĦ":2500,"de":2501,"Ġmus":2502,"Ġwa":2503,"ĠØ¢Ùĩ":2504,"ĠEng":2505,"ÙĩÙħÙĩ":2506,"ĠØºØ±":2507,"Ġoften":2508,"Ø¨Ø¹":2509,"ĠIt":2510,"Ġlead":2511,"ital":2512,"ĠØ¹Øµ":2513,"ĠØ§Ø³Ù¾":2514,"Ġduring":2515,"ĠØ®Ø´":2516,"Ġwoman":2517,"Ø§ÙĨÙħ":2518,"Ġelect":2519,"ĠØªÙĪÙĨ":2520,"ĠÙħØ¹ÙħÙĪ":2521,"Ġwhy":2522,"Ġnear":2523,"Ġsat":2524,"Ġexpl":2525,"Ø´ÛĮÙĨ":2526,"ided":2527,"unic":2528,"pped":2529,"Ġdef":2530,"An":2531,"fter":2532,"illion":2533,"Ġinterest":2534,"pend":2535,"Ġans":2536,"ĠØ¢Ø³":2537,"ÙĪÙģ":2538,"Ġpat":2539,"Ø§ÙħØ¨Ø±":2540,"Ġturned":2541,"Ġty":2542,"Ġlarge":2543,"Ġschool":2544,"ĠØ¨Ø³":2545,"ĠØ±ÙĪØ´ÙĨ":2546,"Ø±Ø§ØŃÛĮ":2547,"ĠØ§Ø´Øª":2548,"that":2549,"ÙĨØª":2550,"Ġcontin":2551,"ĠÙĨØ§Ø±":2552,"aring":2553,"Ø±Ø§Ø¦":2554,"ames":2555,"ĠØ¯Ø§Ø³ØªØ§ÙĨ":2556,"ĠÙħØ³Ø¦":2557,"Ġdem":2558,"Ġdesign":2559,"ably":2560,"Ġtechn":2561,"ĠØ§Ø¬Ø§Ø²Ùĩ":2562,"Ġcountry":2563,"ÙĦØ§Ùģ":2564,"Ú©Ø§":2565,"ÙħÛĮØª":2566,"ĠAs":2567,"ĠØŃØ¯ÙĪØ¯":2568,"Ġple":2569,"ĠØ¢Ø²Ùħ":2570,"ÙĦÙħ":2571,"ues":2572,"Ú©Ø±Ø¯":2573,"ĠØ§ÙĨØ¯Ø§Ø®Øª":2574,"ĠØ³Ø§Ø²ÙħØ§ÙĨ":2575,"ully":2576,"ĠØŃØ§ÙĦØª":2577,"ĠØ®Øµ":2578,"ØªÙħØ§ÙĦ":2579,"oll":2580,"Ø¨ØŃ":2581,"aint":2582,"ĠPr":2583,"formation":2584,"ĠØªØ§Ø±ÛĮØ®":2585,"ĠØ§ÙĤØª":2586,"Ġlot":2587,"Ġvar":2588,"ĠØ³ÛĮØ§Ùĩ":2589,"ĠInd":2590,"ĠØ¯Ø§ÙĨØ´Ú¯Ø§Ùĩ":2591,"ides":2592,"ĠÙĦØ¨Ø§Ø³":2593,"ĠØªÙħØ§":2594,"orth":2595,"ĠPh":2596,"ĠØ¬ÙħØ¹":2597,"Ġvoice":2598,"Ġmove":2599,"att":2600,"Ġcourse":2601,"Ġlangu":2602,"ĠÙ¾ÛĮÚĨ":2603,"Ø§ÙħÙĪØ´":2604,"Ġspec":2605,"Ġpop":2606,"aken":2607,"ĠØ§ÙĤ":2608,"Ø«ÛĮØ±":2609,"Ø¨Ø±Ø¯":2610,"ĠØ¢ÙĪ":2611,"Ø±Øª":2612,"ĠÙħØªÙĪØ¬Ùĩ":2613,"ØŃÙĩ":2614,"ĠGod":2615,"not":2616,"Ġprocess":2617,"Ġbro":2618,"Ġ198":2619,"Ø²Ø§Ø¯Ùĩ":2620,"Ġbest":2621,"Û±Û":2622,"aut":2623,"ĠØ³Ø±Ø§":2624,"erman":2625,"ÙĦØ§Ùħ":2626,"ĠØ¯ÙĪÙĦØª":2627,"ĠÙĩØ²Ø§Ø±":2628,"ĠØ±Ø§Ø³Øª":2629,"ĠØ¨ÙĪØ¯ÙĨ":2630,"Ġfore":2631,"Ø¨ÛĮÙĩ":2632,"Ġwords":2633,"gram":2634,"ĠØ¢ØºØ§Ø²":2635,"ĠÙ¾Ø³Ø±":2636,"ĠØªØ¨Ø¯ÛĮÙĦ":2637,"ĠÛ³":2638,"ÙĪØ§Ø¬":2639,"Ġcond":2640,"ØµÛĮ":2641,"ĠÙĦÙĪ":2642,"Ġkeep":2643,"Ġval":2644,"ØªØ±ÛĮ":2645,"ĠØ¯ÙĪÙħ":2646,"ĠÙĩØ³ØªÙħ":2647,"row":2648,"ĠÙħØ±Øª":2649,"Ġwhole":2650,"ĠÚ©ÙĪØª":2651,"Ġclo":2652,"ĠØŃØ§Ø¶Ø±":2653,"ĠÙĩÙĪ":2654,"ured":2655,"ĠØ§Ø±ØªØ¨Ø§":2656,"Ġtri":2657,"ĠAn":2658,"ĠÙħØ¬ÙħÙĪ":2659,"ĠØ§Ø¬ØªÙħØ§":2660,"Ġdirect":2661,"ĠØªØŃØª":2662,"Ġstop":2663,"ĠÙħÙĨØ·ÙĤÙĩ":2664,"raw":2665,"ĠØ´Ø¯Ùħ":2666,"ĠÙħÙĪÙģ":2667,"Ġuntil":2668,"Ġfive":2669,"Ġalmost":2670,"Ġequ":2671,"body":2672,"bed":2673,"ĠÚ¯Ø³Øª":2674,"ying":2675,"ĠØ¯Ø§Ø®ÙĦ":2676,"ĠÙģØ´":2677,"Ġorgan":2678,"Ġfun":2679,"Ø¯ÙĪ":2680,"ĠÙħÙĦÛĮ":2681,"Ġmoney":2682,"ĠØ¨ÙĢ":2683,"ĠÙħÙĪØ¬ÙĪØ¯":2684,"Ø¹Ø§":2685,"Ø³ØªÛĮÙĨ":2686,"Ġcertain":2687,"my":2688,"Ġ7":2689,"ĠFran":2690,"ogr":2691,"ĠØªÙĪÛĮ":2692,"ĠÙĤØ¯Ø±Øª":2693,"ĠWh":2694,"ĠØ³Ø®ÙĨ":2695,"ĠØ¹ÙħÙĪ":2696,"ĠØ¹Ø±":2697,"Ú©Ø§Ø±ÛĮ":2698,"Ø§ÙĨØª":2699,"ety":2700,"Ø±Ø§Øª":2701,"Ġformula":2702,"ĠØ®Ø¨Ø±":2703,"ĠØ²ÛĮØ±Ø§":2704,"ĠÚ©Ø±ÛĮ":2705,"Ġstate":2706,"Ġwar":2707,"Ġserv":2708,"Ġ8":2709,"Ġ9":2710,"Ġsci":2711,"ĠÙĪØ§ÙĦ":2712,"ĠØ¨ÙĦÚ©Ùĩ":2713,"ÙħÛĮØ²":2714,"els":2715,"Ġbecame":2716,"ĠØ§Ø±ÙĪ":2717,"ĠÙħØ®ØªÙĦÙģ":2718,"bers":2719,"Ġchange":2720,"ĠØ¢ÛĮØ§":2721,"ĠØªÙĪØ§ÙĨÙĨØ¯":2722,"ĠØ¯Ùħ":2723,"used":2724,"ĠØ¯Ø±Ø¯":2725,"Ø±Ø³":2726,"ton":2727,"ged":2728,"selves":2729,"ØŃØ§ÙĦØ§":2730,"Ø§ÙĨÛĮØ§":2731,"Ġexample":2732,"Ø¯Ùģ":2733,"aces":2734,"ĠØ²ÛĮØ§Ø¯":2735,"Ġadv":2736,"Ø®ÙĪØ±Ø¯":2737,"ĠÙĨÚ¯Ø±":2738,"ĠØ¨Ø³ØªÙĩ":2739,"Ġtru":2740,"ternational":2741,"ĠØ¯Ø±ÛĮØ§ÙģØª":2742,"ĠÚ©Ø§ÙħÙĦØ§":2743,"Ø¨Ø§Øª":2744,"Ġhaving":2745,"Ġdep":2746,"Ġappro":2747,"Ġquite":2748,"Ã©":2749,"Ġtimes":2750,"ĠØ³Ø§Ø²ÛĮ":2751,"ĠÚ¯ÙĪÛĮØ¯":2752,"Ġtra":2753,"une":2754,"ĠØ¯Ø§Ø±Ø§ÛĮ":2755,"ĠÛĮØ¹ÙĨÛĮ":2756,"uck":2757,"ĠØªÙĦØ§":2758,"Ġprot":2759,"ĠØ§Ú©ÙĨÙĪÙĨ":2760,"ĠØ§ÙĤØªØµ":2761,"ĠØ±ÙģØªØ§Ø±":2762,"ĠØ®Ø§Ø±Ø¬":2763,"Ġyet":2764,"Ġchang":2765,"orld":2766,"Al":2767,"ĠØ±ÙĤ":2768,"Ġpur":2769,"ery":2770,"ane":2771,"ĠChrist":2772,"ĠØ¨Ø§ÙĨ":2773,"Ġwanted":2774,"conom":2775,"ĠÚ©Ø§ÙĦ":2776,"ĠMar":2777,"ÙĦÙĤ":2778,"ĠØ´ÙĪØ±":2779,"ĠÚĨÙĩØ±Ùĩ":2780,"ĠØ¹Ø´":2781,"Ø¦ÙĨ":2782,"ĠØ¯Ø±ÛĮ":2783,"ĠStates":2784,"Ġhist":2785,"ĠØ³Ø±Ø¹Øª":2786,"Ġshall":2787,"ffect":2788,"ĠØ®ØµÙĪØµ":2789,"ask":2790,"ĠØ¯Ø§Ø¯ÙĨØ¯":2791,"Ùı":2792,"Ġdri":2793,"Ġable":2794,"Ġbig":2795,"ĠÙħØ·Ø§ÙĦ":2796,"ention":2797,"ÙĪÛĮÙĤ":2798,"ĠØ¨ØŃ":2799,"Ø§ØµÙĦÙĩ":2800,"ĠØ·Ø¨":2801,"ĠÙĪØ³":2802,"ĠØŃÙĤÛĮÙĤØª":2803,"ĠØªÙĤØ±ÛĮØ¨Ø§":2804,"ÙĤØ±":2805,"Ġwithin":2806,"yle":2807,"Ġdeath":2808,"ĠÚ¯ÛĮØ±ÛĮ":2809,"Ġlaw":2810,"rence":2811,"Ġpri":2812,"Ġcor":2813,"ision":2814,"ĠÙħØªÙģ":2815,"Ġdark":2816,"ĠØ®ÙĪØ§ÙĨØ¯":2817,"Ġimportant":2818,"ium":2819,"aster":2820,"Ø§ØªØ±":2821,"Ø§ÙĩØ´":2822,"ĠØ³Ø·ØŃ":2823,"Ú¯Ø§Ø±":2824,"Ø¸Ø±":2825,"ived":2826,"Ġconst":2827,"work":2828,"of":2829,"Ġmonth":2830,"ĠØ®Ø¯Ø§":2831,"Ġdel":2832,"Ġsound":2833,"Ġbody":2834,"Ú¯ÙĩØ§ÙĨ":2835,"ĠØ§Ø®Øª":2836,"ØŃØªÛĮ":2837,"ĠÚ©Ø´ØªÛĮ":2838,"Ú©ÛĮÙĦ":2839,"ĠØ¬ÙĦ":2840,"ĠÚ©ÙĨÙĩ":2841,"Ġ0":2842,"play":2843,"ĠØªØ§Ø²Ùĩ":2844,"ĠØ®ÙĪÙĨ":2845,"ĠØ¹ÙĪ":2846,"ĠØ´ÙĨØ§Ø³":2847,"Ġdoing":2848,"ister":2849,"Ġmil":2850,"ĠØ¸Ø§Ùĩ":2851,"ĠÙ¾Ø§Ø³Ø®":2852,"Ġblack":2853,"Ú¯ÛĮØ±":2854,"ĠAf":2855,"Ø³ÛĮÙĤÛĮ":2856,"Ġalong":2857,"ĠØ§ØŃØªÙħØ§ÙĦ":2858,"ĠØ¢ÙĨØ§ÙĨ":2859,"Ġresult":2860,"bs":2861,"ĠØ§Ø´Ø§Ø±Ùĩ":2862,"ĠØ¨Ø³Øª":2863,"ĠÚ¯ÛĮØ±Ø¯":2864,"Ġland":2865,"ĠÙĨØ®ÙĪØ§Ùĩ":2866,"ĠØ¨ÛĮÙħØ§Ø±":2867,"reen":2868,"Ġkill":2869,"ÛĮÙĨÚ¯":2870,"Ġeas":2871,"ĠÙĨÙĪØ´ØªÙĩ":2872,"ĠØ³Ø±Ø´":2873,"oke":2874,"ee":2875,"ĠØ¨Ø±Ø®ÛĮ":2876,"ĠEuro":2877,"Ø±ØŃ":2878,"Ø§Ø¬":2879,"ĠØµÙģ":2880,"Ġ{\\":2881,"Ġ+":2882,"Ġpolit":2883,"ĠØ§Ø²Ø¯":2884,"ats":2885,"ract":2886,"Ġcontro":2887,"Ø©":2888,"Ġdata":2889,"ĠØªØµÙĪØ±":2890,"ĠØªØ¹Ø¯Ø§Ø¯":2891,"Ġidea":2892,"men":2893,"Ġmark":2894,"ĠØªØ±Ø³":2895,"Ġopp":2896,"ĠÙĩÙĨÚ¯Ø§Ùħ":2897,"My":2898,"ĠØ§Ø¶":2899,"Ø¬ÙĪ":2900,"ped":2901,"Ġrequ":2902,"ĠØªÙĪØ³Ø¹Ùĩ":2903,"ÙĪØ§ÙĨÛĮ":2904,"Ġeverything":2905,"ison":2906,"ĠØ·Ø±ÛĮÙĤ":2907,"Ġcity":2908,"ĠÙħÛĮÙĦÛĮÙĪÙĨ":2909,"ĠÙħØ«Ø§ÙĦ":2910,"Ġpublic":2911,"ĠÙĪÙĨ":2912,"Ġbelieve":2913,"ĠÙħÛĮÚ©ÙĨ":2914,"Ø²ÙĨ":2915,"Ø±ÛĮØ§ÙĨ":2916,"Ġbegin":2917,"Ġele":2918,"where":2919,"Ġest":2920,"Ġgave":2921,"ĠÚ¯ÙģØªÙħ":2922,"ĠÙħØ§ÙĦ":2923,"ases":2924,"Ø°ÛĮ":2925,"ĠØªØ±Ú©":2926,"pr":2927,"ĠÚĨÚ¯ÙĪÙĨÙĩ":2928,"ulation":2929,"ĠÚ©Ø§ÙħÙĦ":2930,"ization":2931,"ĠØ§ÙģØ²Ø§ÛĮØ´":2932,"use":2933,"ĠØ´ÙĨØ§":2934,"Ġothers":2935,"Ø´ÙħØ§":2936,"Ġclass":2937,"ĠØ¨ÛĮÙħØ§Ø±ÛĮ":2938,"Ùĳ":2939,"ĠØ³ÙģÛĮØ¯":2940,"Ġpar":2941,"Ġcell":2942,"ĠØ·Ø±Ø§ØŃÛĮ":2943,"Ø±ÚĺÛĮ":2944,"Ġfell":2945,"ffic":2946,"Ø¸Ø§Ø±":2947,"Ġlive":2948,"Ġpos":2949,"ĠØµØ¯Ø§":2950,"ĠUniversity":2951,"Ġgiven":2952,"All":2953,"Ġes":2954,"ĠØ¢ÙĪØ±":2955,"ĠSo":2956,"ĠâĢĻ":2957,"ĠØ³Ø§Ø¯Ùĩ":2958,"One":2959,"ĠÙĨÙħØ§ÛĮØ´":2960,"Ġeng":2961,"ĠÚ¯Ø§Ùĩ":2962,"dden":2963,"ony":2964,"ĠØ¢ØªØ´":2965,"ĠØªØ±Ú©ÛĮ":2966,"itch":2967,"Ú©Ø±ÛĮ":2968,"ĠØ§Ø±ØªØ¨Ø§Ø·":2969,"ĠØ¯Ø±Ø®Øª":2970,"ÙĦØ§Ø³":2971,"ĠGerman":2972,"ĠØ¯Ø±ØµØ¯":2973,"Ġorder":2974,"ÙĪØ¨ÛĮ":2975,"Ġsoon":2976,"ĠØ¯Ø±ÙĪÙĨ":2977,"Ġoper":2978,"ĠÙĩÙģØªÙĩ":2979,"Ġ197":2980,"ressed":2981,"Ġsent":2982,"ĠÙ¬":2983,"orning":2984,"Ġpresent":2985,"Ġeffect":2986,"ĠÙģØ±ÛĮØ§Ø¯":2987,"Ġbecome":2988,"cle":2989,"ĠØ¬ÙħÙĩ":2990,"ĠØªÙĩ":2991,"Ġmyself":2992,"Ġshort":2993,"ape":2994,"Ġsort":2995,"Ø¯Ø§Ø±ÛĮ":2996,"ient":2997,"ĠÙĨÙĤØ´":2998,"Ġsix":2999,"ĠØ¨Ø§ÙĪØ±":3000,"ÙħÙĨØ¯":3001,"Ch":3002,"ĠÚ©Ø§ÙĨ":3003,"ĠÚĨØ·ÙĪØ±":3004,"ĠÙħØ±Ø¨":3005,"ĠØ³Ø±Ùħ":3006,"Ġri":3007,"Ġstarted":3008,"Ġherself":3009,"Ø¬Ø§ÙĨ":3010,"Ø§Ø¨Ùĩ":3011,"ĠEurope":3012,"Ġrece":3013,"Ġsudden":3014,"ĠÙģØ±ÙĪØ¯Ú¯Ø§Ùĩ":3015,"Ġsure":3016,"ĠØ¯Ø§ÙĨÙħ":3017,"Ø´ÙħØ§ÙĨ":3018,"Ġquestion":3019,"--":3020,"Ø¯ÙĪØ¯":3021,"iver":3022,"Ġtown":3023,"ÙĩÛĮÚĨ":3024,"ĠØ¨Ø§ÛĮ":3025,"ØªÙĦ":3026,"Ø§Øº":3027,"Ġcommon":3028,"Ġresp":3029,"ĠÙĪØ³ÛĮ":3030,"ories":3031,"Ġoffic":3032,"Ġbit":3033,"ĠØ¢ÛĮÙĨØ¯Ùĩ":3034,"ØªØ±ÙĦ":3035,"ĠÙĪØ§ÙĤØ¹ÛĮ":3036,"ÙĨÙħÛĮ":3037,"Ġweek":3038,"ready":3039,"Ġprof":3040,"ÙĨØ§Ú©":3041,"Ġbehind":3042,"ĠÙĨØ´Ø¯Ùĩ":3043,"ĠØ¹Ø²":3044,"ĠØ¬ÙħÙĦÙĩ":3045,"ott":3046,"Ø§Ø¹":3047,"ĠWorld":3048,"ĠÙħÙĤØ§Ø¨ÙĦ":3049,"ĠØ®ÙĪØ§ÙĩÙĨØ¯":3050,"Ġsit":3051,"ĠØ§Ø¬ØªÙħØ§Ø¹ÛĮ":3052,"Ġshow":3053,"ued":3054,"ØŃØª":3055,"ÚĨÙĨØ¯":3056,"ĠÙĪØŃØ´Øª":3057,"Ø§ÙĪÙĨ":3058,"Oh":3059,"ĠÙħØ¬ÙħÙĪØ¹Ùĩ":3060,"Ø±ÛĮØª":3061,"Ġleg":3062,"ience":3063,"idd":3064,"ĠWe":3065,"ĠØ±Ø§ÛĮ":3066,"Ø³ÙħØª":3067,"ÛĮØ²Ùĩ":3068,"ĠØ¨Ø±Ø¯Ø§Ø´Øª":3069,"Ġbed":3070,"Ġmorning":3071,"Ġgovernment":3072,"ĠÙĨÙĪÛĮØ³":3073,"St":3074,"Ġsever":3075,"Ø®Ø´":3076,"Ġdev":3077,"ÚĨÙĨÛĮÙĨ":3078,"Ġbusiness":3079,"Ġprogram":3080,"ĠØ¬ÙĩØª":3081,"After":3082,"ĠAmerican":3083,"ĠÚ¯Ø°Ø´Øª":3084,"ĠØ´Ø¨ÛĮÙĩ":3085,"Ġpain":3086,"Ġsle":3087,"Ġpossible":3088,"eng":3089,"Ġamong":3090,"Ġplan":3091,"ograph":3092,"ead":3093,"ĠÛĮØ§ÙģØªÙĩ":3094,"Ġcomput":3095,"ĠØµØ¨ØŃ":3096,"ĠØ´ÙĨØ§Ø®ØªÙĩ":3097,"ĠØ§ÙĨØ±ÚĺÛĮ":3098,"Ġincre":3099,"Ġwhite":3100,"ode":3101,"ior":3102,"Ġstory":3103,"que":3104,"Ġfull":3105,"ĠÙ¾ÙĦ":3106,"ĠÙħØ±Ø¨ÙĪØ·":3107,"Ġdisplay":3108,"ĠØ¬ÙĪØ±":3109,"ĠØªÙĦØ§Ø´":3110,"ĠØ§Ø²Ø¯ÙĪØ§Ø¬":3111,"acy":3112,"Ġaw":3113,"ÙĦÛĮØ³":3114,"Ø¦ÛĮØ³":3115,"ma":3116,"ĠØ²ÙĪØ¯":3117,"ccess":3118,"App":3119,"Ø§Ø¨Ø§ÙĨ":3120,"ĠÙĤØ§ÙĨÙĪÙĨ":3121,"Ġinformation":3122,"rench":3123,"ĠØ³Ù¾Ø³":3124,"Ġrather":3125,"ze":3126,"Ġtaken":3127,"ĠÙ¾ÙĨ":3128,"Û²":3129,"ĠÚ¯ÙĪÛĮ":3130,"ĠÙħÙĪØ³ÛĮÙĤÛĮ":3131,"ĠØ§ÙģØªØ§Ø¯Ùĩ":3132,"ĠØ³Ø¹ÛĮ":3133,"ĠØ§ÙĨØªØ¸Ø§Ø±":3134,"Ġwon":3135,"ÙħØ¹":3136,"ha":3137,"ĠØ¢Ø²Ø§Ø¯":3138,"Ġhold":3139,"Ġprom":3140,"Ġ&":3141,"Ø®ÙĪØ¨":3142,"olution":3143,"ÛĮØ¯Ùħ":3144,"fort":3145,"Ġleast":3146,"ĠØ§Øº":3147,"ctor":3148,"ĠÙħØ¹Ùħ":3149,"ĠâĢĮ.":3150,"Ġhor":3151,"ĠØ¨Ø§ÙĤÛĮ":3152,"though":3153,"ĠÙĨÙĪØ´Øª":3154,"ĠÙĨØ§Ù¾":3155,"ĠÙħØ¯Ø±Ø³Ùĩ":3156,"Ġcase":3157,"ĠØ§ÙħØ±ÙĪØ²":3158,"haps":3159,"ĠØ§Ø¨Øª":3160,"ĠâĻ":3161,"ÙĪÙĨØª":3162,"ĠØ¨Ø±ÙĪ":3163,"Ø§Ø¨Ø¯":3164,"ians":3165,"Ġrese":3166,"lish":3167,"read":3168,"Ø¢ÛĮØ§":3169,"ĠÙĦØ§Ø²Ùħ":3170,"ĠÙģØ±ÙħØ§ÙĨ":3171,"amed":3172,"ks":3173,"ĠÚ©ÙĨØªØ±ÙĦ":3174,"Ø§ÙĦØª":3175,"ĠÙħØ´Ø®Øµ":3176,"ole":3177,"ional":3178,"by":3179,"ĠØ§ÙħÛĮØ¯":3180,"ĠØ§Ø³Ø§Ø³":3181,"ĠØ®Ø·Ø±":3182,"To":3183,"ØµØ±":3184,"ĠØ¯Ø´":3185,"ÙĪÛĮØ±":3186,"Ġseveral":3187,"side":3188,"ĠØ³Ø±Ø¯":3189,"Ġalready":3190,"Ø¯Ø§Ø´Øª":3191,"ards":3192,"Ġmaking":3193,"ĠØ¯Ø§Ø´ØªÙħ":3194,"ĠØ¨Ø¯ÙĨ":3195,"ĠÙħÙĪÙĤØ¹":3196,"ĠØ¯ÙĪØ±Ùĩ":3197,"iron":3198,"Ġusing":3199,"iter":3200,"Ġeconom":3201,"ror":3202,"ĠØ¯ÙĤÛĮÙĤÙĩ":3203,"atic":3204,"ĠÚ©Ø§ÙģÛĮ":3205,"ĠØ²ÙĨØ¯Ùĩ":3206,"Ġmag":3207,"Ø§Ø³ÛĮ":3208,"Ø±ÛĮÙĩ":3209,"Ø§ÙĨØ´":3210,"Ġelse":3211,"Ø§ÙĩØ§":3212,"Why":3213,"ĠØ·ÛĮ":3214,"Ġinde":3215,"ĠØ¹Ø´ÙĤ":3216,"ĠÙĨØ´Ø³Øª":3217,"ĠØ¬ÙħØ¹ÛĮØª":3218,"ĠÙĥÙĩ":3219,"ĠØ¨ÛĮØ´ØªØ±ÛĮ":3220,"ÙĪÙĩØ§ÛĮ":3221,"Ġlearn":3222,"ĠØ¢Ø²ÙħØ§ÛĮØ´":3223,"ĠÙħÙĨØªØ´":3224,"ĠâĢĶ":3225,"Ġsays":3226,"nect":3227,"Ġav":3228,"aced":3229,"ĠØµÙĨØ¯":3230,"Ġmeans":3231,"ĠØ¯Ø§Ø±ÛĮ":3232,"ots":3233,"ÙĪØ§Ø±Ùĩ":3234,"Ġfilm":3235,"ĠÙĨØ§Ø±Ø§ØŃ":3236,"ĠØ§Ø³Ø¨":3237,"These":3238,"ĠØ¨Ú¯ÛĮØ±":3239,"ĠØµØ±Ùģ":3240,"ĠØ§ÙĦÙħÙĦ":3241,"ÚĨÛĮ":3242,"ÚĨØ§Ø±":3243,"ĠÚ¯Ø±Ùħ":3244,"ĠØ°ÙĩÙĨ":3245,"fic":3246,"ĠØ¯ÙĪÙĨ":3247,"ergy":3248,"Ġearly":3249,"eth":3250,"ĠÚ©Ø§ÙĩØ´":3251,"che":3252,"ĠÚ©Ø±":3253,"ien":3254,"ĠÙħØ³ÛĮ":3255,"Ø§Ø³Ø¨":3256,"Ġspeak":3257,"ĠÙħØ¹ÙħÙĪÙĦØ§":3258,"ĠÂ».":3259,"ĠÙ«":3260,"Ġacross":3261,"ĠÙħÙĨØªØ´Ø±":3262,"Ø§ÙĦØ¨":3263,"ĠØ¹Ø¬ÛĮ":3264,"arent":3265,"Ġsupport":3266,"ĠÙħØºØ²":3267,"ĠÙ¾Ø±Ø¯Ø§Ø®Øª":3268,"Yes":3269,"Ġround":3270,"ĠÛ´":3271,"Ø§ÙĦÛĮØª":3272,"Ġhear":3273,"Ø³Ø§ÙĦ":3274,"Ġgroup":3275,"Ġmatter":3276,"ĠØ§ÙĨØªÙĤ":3277,"ĠÙĨØ´Ø³ØªÙĩ":3278,"Ø¨ÙĨØ§Ø¨Ø±Ø§ÛĮÙĨ":3279,"sh":3280,"wer":3281,"ĠØ¹ÙħÙĪÙħÛĮ":3282,"fully":3283,"Ġfall":3284,"ĠØŃÙħÙĦÙĩ":3285,"ĠØªÙħØ§Ø´":3286,"ĠÙħØ§Ø´ÛĮÙĨ":3287,"Ġfree":3288,"Ġphys":3289,"Ġori":3290,"ĠPar":3291,"rought":3292,"ĠÙģÙĦ":3293,"ĠÙĩØ¯Ùģ":3294,"lause":3295,"undred":3296,"ribut":3297,"ĠÛ±Û¹Û¹Û":3298,"ĠÙĤØ³ÙħØª":3299,"ĠÚĺÙĨ":3300,"rict":3301,"ober":3302,"ĠØ¯ÛĮÚ¯Ø±Ø§ÙĨ":3303,"ĠØ´Ø¨Ú©Ùĩ":3304,"Ġclose":3305,"ĠØ¨Ø§Ø´ÛĮØ¯":3306,"ĠØªÙĪØ§ÙĨÙħ":3307,"Ø²ÛĮØ±Ø§":3308,"ĠØ³ÙģØ±":3309,"ĠØ¬Ø§ÙħØ¹Ùĩ":3310,"ĠØ§ÙħÚ©Ø§ÙĨ":3311,"ousand":3312,"ĠØªØ´Ú©ÛĮÙĦ":3313,"ider":3314,"ĠØ§ÛĮØ¯":3315,"ĠØ¨Ø±Ø§Ø¯Ø±":3316,"unity":3317,"ĠØ¨Ø±ÙħÛĮ":3318,"oph":3319,"ÛĮØ¯ÙĨØ¯":3320,"ĠØ¢Ø³ÛĮ":3321,"....":3322,"ĠÛĮÙĨ":3323,"ĠØ®Ø§Ú©":3324,"co":3325,"ĠØ¶Ø±":3326,"ĠØ¨ÙĩØªØ±ÛĮÙĨ":3327,"Ġ15":3328,"ression":3329,"ĠØ¬Ø¯Ø§":3330,"Ġred":3331,"ĠCl":3332,"ĠØ§Ø³Ùħ":3333,"ĠÙħØ´Øº":3334,"Ġrepl":3335,"ĠØ¹ÙĦØ§ÙĤÙĩ":3336,"Ġreason":3337,"ean":3338,"rop":3339,"ĠØ¯ÙĩÙħ":3340,"ĠÚĨØ±Ø®":3341,"Ġ196":3342,"ÙĪÛĮÙĩ":3343,"ĠØ¹ÙĤØ¨":3344,"mber":3345,"ĠØ¯Ø³ØªÙĩ":3346,"eral":3347,"Ġpast":3348,"ĠØ¯Ø±Ú©":3349,"ĠØ¨ÛĮÙĨÛĮ":3350,"ĠØ¨ÙĨØ¯":3351,"ĠØªØ®":3352,"tend":3353,"gen":3354,"Ġobs":3355,"ĠØ¯Ø±ÙĪ":3356,"Ġwond":3357,"Ġlow":3358,"Ø³Ù¾Ø³":3359,"ives":3360,"Ġhealth":3361,"ĠÙħØ²":3362,"Ġcir":3363,"ĠØªØ¬Ø±":3364,"ĠBe":3365,"ĠØ¯ÙĩÙĩ":3366,"ĠX":3367,"Ġflo":3368,"Ġtable":3369,"Ġmillion":3370,"Ġparticular":3371,"ohn":3372,"Ġrele":3373,"Ġtem":3374,"Ø±Ø§ÙĨ":3375,"ĠÙħØŃÛĮ":3376,"ai":3377,"aining":3378,"Ġsun":3379,"ĠØªØ¹Ø±ÛĮÙģ":3380,"aim":3381,"ĠÛĮÚ©Ø¯ÛĮÚ¯Ø±":3382,"Ġhundred":3383,"Ø¶Ø§ÛĮ":3384,"Applause":3385,"ĠØªØ±ØªÛĮ":3386,"oud":3387,"ĠØ¯Ø§Ø±ÛĮØ¯":3388,"Ġmeet":3389,"Ġlanguage":3390,"Ġproblem":3391,"cing":3392,"Ġalone":3393,"Ġca":3394,"ĠØ¬Ø³Øª":3395,"ĠØ±ÙģØªÙĨ":3396,"ĠØªØŃÙĤÛĮ":3397,"ĠCon":3398,"ĠØ¬ÛĮ":3399,"ĠMrs":3400,"ÙĪÛĮØª":3401,"Ġfre":3402,"Ø²ÛĮÙĨÙĩ":3403,"ĠÚ©Ø³Ø§ÙĨÛĮ":3404,"ĠØ¢ÙĪØ±ÛĮ":3405,"Ġcoming":3406,"ening":3407,"20":3408,"ĠØ¨ÛĮØ§ÙĨ":3409,"Ġtop":3410,"Ġsocial":3411,"iously":3412,"Ġstrong":3413,"Ġsingle":3414,"ev":3415,"ached":3416,"ĠØ·Ø¨ÛĮØ¹ÛĮ":3417,"uff":3418,"Ø§ÙĨÙĪ":3419,"Ġsuccess":3420,"ĠÙħØ´ØºÙĪÙĦ":3421,"Ġfriends":3422,"Ġthousand":3423,"Ø´Ø§ÛĮØ¯":3424,"ĠØªÙĪØ§ÙĨÛĮÙħ":3425,"ĠÙħØ¹ÙĨÛĮ":3426,"ĠØ¯Ø§Ø±Ùĩ":3427,"ĠÚ©ÙĦÙħÙĩ":3428,"Ġage":3429,"Ġexpect":3430,"µÛ":3431,"lex":3432,"Ġquick":3433,"Ġve":3434,"ÛĮÚ©ÛĮ":3435,"ĠÙģØ¹Ø§ÙĦÛĮØª":3436,"Ġmusic":3437,"ĠØ§Ø·Ø±Ø§Ùģ":3438,"ĠØ§ÙĦÙħÙĦÙĦÛĮ":3439,"Ø®ÙĨØ¯":3440,"ĠÙģØ±Ø³Øª":3441,"ĠFrench":3442,"Ġlay":3443,"asure":3444,"Ġfire":3445,"ĠÚĨØ´ÙħØ§ÙĨ":3446,"ĠÙħØ§ÙĨØ¯Ùĩ":3447,"Ġnat":3448,"acter":3449,"cer":3450,"ĠÙģØ±ÙĪØ´":3451,"lf":3452,"Ġenergy":3453,"ĠØ¨Ú©ÙĨ":3454,"ĠCol":3455,"ĠØ¹Ø¶":3456,"ÙħØ±":3457,"ĠÚ¯Ø´Øª":3458,"Ġcreat":3459,"ÙĪÙĨØ§":3460,"Ġobject":3461,"ĠØ¨Ø²Ø±":3462,"ĠÙĨÚ©Ø±Ø¯":3463,"ÙĪÙĦÙĩ":3464,"reet":3465,"ĠØ³ÙĪÙħ":3466,"Ø§Ø¯Øª":3467,"aper":3468,"Ġgone":3469,"ĠÙ¾Ø²Ø´":3470,"Ġdescri":3471,"ĠØ³ÛĮØ§Ø³ÛĮ":3472,"Ġabs":3473,"Ø±ÙģØª":3474,"ĠBr":3475,"ÙħØ«":3476,"ĠÙĨÙħØ§ÛĮ":3477,"ÙģØ±ÛĮ":3478,"Ø®ØµÙĪØµ":3479,"ĠØ¯Ø³ØªÙĪØ±":3480,"ĠØ§Ø±Ø§Ø¦":3481,"ĠØ¬Ø±ÛĮØ§ÙĨ":3482,"itting":3483,"ÙĨØ¯Ú¯Ø§ÙĨ":3484,"ogn":3485,"Ø®Ùĩ":3486,"Ø±Ø§ÙĦ":3487,"ified":3488,"Ġcountries":3489,"ĠÙĤØ¯Ùħ":3490,"ĠØ§Ø±Ø§Ø¦Ùĩ":3491,"Ġstep":3492,"ler":3493,"Ú¯Ø§ÙĩÛĮ":3494,"ĠØªØ³":3495,"Ġboy":3496,"ĠYou":3497,"Ġheld":3498,"Ġanim":3499,"yd":3500,"ĠØ¨Ø§Ø¯":3501,"ĠÙħØŃÙĦ":3502,"Ġdi":3503,"Ġtoday":3504,"ĠComm":3505,"Ġline":3506,"son":3507,"Ġbeaut":3508,"Ġeither":3509,"ĠEm":3510,"Ġill":3511,"Ġbad":3512,"ĠØ´Ú©Ø³Øª":3513,"lu":3514,"Ġdou":3515,"ĠØŃØ¶ÙĪØ±":3516,"Ø³ØªÙģ":3517,"Ġbrought":3518,"Ġfield":3519,"bal":3520,"ush":3521,"ÙĤØ·Ùĩ":3522,"Ø¨ÙĪØ¯":3523,"ĠØªØ±ÛĮ":3524,"Ø®Ø¨":3525,"Ġthinking":3526,"ØªÙĤ":3527,"Ġprob":3528,"ĠÙ¾ÙĨØ¬Ø±Ùĩ":3529,"Ġris":3530,"ĠØ§ÛĮØ±Ø§ÙĨ":3531,"Ġfront":3532,"ĠØ¨Ø±Ø³":3533,"ĠÚĺØ§ÙĨ":3534,"ĠØ±Ø³Ø¯":3535,"ĠØ¹Ø§ÙĦÛĮ":3536,"Ġson":3537,"ĠÚ¯Ùĩ":3538,"Ú©ÙĪÙħ":3539,"Ø´Ø§Ùĩ":3540,"ĠÙĨÛĮØ±ÙĪÛĮ":3541,"ĠØ±Ø¯":3542,"now":3543,"oul":3544,"Ġwall":3545,"ĠÛ°":3546,"ĠØ¨Ø§Ø´Ùħ":3547,"Ú©Ø´":3548,"ĠØ¢ÙĪØ±Ø¯Ùĩ":3549,"Some":3550,"Ġsoft":3551,"ĠÙĨØ¬":3552,"ĠØŃÙĤÙĪÙĤ":3553,"Ġbrother":3554,"ones":3555,"ĠÙħØ¯ÙĦ":3556,"ĠÚ©Ø¬Ø§":3557,"itions":3558,"ĠÙħÙĨØ¸ÙĪØ±":3559,"ĠØ§ØºÙĦØ¨":3560,"Ø§ÙĦØ¨ØªÙĩ":3561,"ĠØ§ÛĮØ¯Ùĩ":3562,"Ġthemselves":3563,"Ġdead":3564,"Ġmaj":3565,"ĠØ¨Ø§Ø²Ú¯":3566,"ĠØ¨Ø¹Ø¶ÛĮ":3567,"ĠÚ©ÙħØªØ±":3568,"ĠØ³Ø±Ø®":3569,"ĠØ§Ø¹ÙĦØ§Ùħ":3570,"ĠØ±Ø´Ø¯":3571,"Ġste":3572,"Ø§ÙģÙĩ":3573,"style":3574,"ording":3575,"ĠSc":3576,"ÙĩÙħØ§ÙĨ":3577,"Ú©Ø³ÛĮ":3578,"Ø¢ÙĤØ§ÛĮ":3579,"Ú©ÙĨØ¯":3580,"Ġleave":3581,"ciety":3582,"ØªØ´ÙĪÛĮÙĤ":3583,"ĠÙħÙĪØ§Ø¯":3584,"ĠØ§Ø¨Ø±":3585,"Ġwhether":3586,"Ġra":3587,"ĠØ³ÙĦÙĪÙĦ":3588,"ĠÙĩØ³ØªÛĮÙħ":3589,"Ġfear":3590,"Ġorigin":3591,"ĠØ®ÛĮØ§ÙĦ":3592,"Her":3593,"hem":3594,"ĠÙĤÙĦØ¨":3595,"Ġago":3596,"ĠØªÙĪØ§ÙĨÛĮØ¯":3597,"Ġimag":3598,"Ġgeneral":3599,"ĠØ´Ø®ØµÛĮ":3600,"ĠØ¯ÛĮØ¯ÙĨ":3601,"ches":3602,"Ġann":3603,"ĠÙħØ´Ø§Ùĩ":3604,"Ġbrain":3605,"ĠØ¯ÙĦØ§Ø±":3606,"ĠEx":3607,"Â«":3608,"ĠØ¢Ø®Ø±ÛĮÙĨ":3609,"ĠØ´Ø±Ø§ÛĮ":3610,"Ġwife":3611,"ĠÙģØ±Ø§ÙĨØ³Ùĩ":3612,"ĠÙĨØ±Ùħ":3613,"ĠÙĤØ±ÙĨ":3614,"Ġspace":3615,"ĠRuss":3616,"ÙĨÚ¯ÛĮ":3617,"Ø¨Ø§Ùĩ":3618,"ilt":3619,"Ø±ÙĪÙģ":3620,"Ġcompany":3621,"unt":3622,"ĠØ¨Ø§ÙĦØ§ÛĮ":3623,"ĠGr":3624,"ission":3625,"ator":3626,"ĠÚ©ÙĪØªØ§Ùĩ":3627,"ĠØ±ÛĮØ§":3628,"ĠØªØµÙĪÛĮØ±":3629,"Ġworking":3630,"ĠÙħØ§ÙĦÛĮ":3631,"Ø¨Ø´":3632,"ĠWar":3633,"Not":3634,"aged":3635,"Ġstran":3636,"Ġnews":3637,"Ø¬Ø¹":3638,"par":3639,"Ġfoot":3640,"Ġbar":3641,"Ġtrue":3642,"oon":3643,"oint":3644,"put":3645,"Ġstood":3646,"ÙĨØ³":3647,"ĠØ³Ø§Ø®ØªÙħØ§ÙĨ":3648,"iddle":3649,"ĠØ¹Ø¨":3650,"ĠØªÚ©Ø§ÙĨ":3651,"ĠÙħØ¬Ø¨ÙĪØ±":3652,"ÙĦØŃ":3653,"Ġmov":3654,"Ø²Ø¯":3655,"ĠØ§ÙĦØ¹":3656,"Ø®ÙĪØ¯":3657,"ÙħØ§ÙĦ":3658,"ĠØ¯Ø±Ø§Ø²":3659,"ĠØ®ÙĪÛĮØ´":3660,"ief":3661,"itive":3662,"ĠÙģØ±Ø²":3663,"ky":3664,"ae":3665,"ĠØ·ÙĪØ±ÛĮ":3666,"ĠÙĩÙħÚĨÙĨØ§ÙĨ":3667,"ĠØ´Ø´":3668,"ÙģÚ©Ø±":3669,"ĠØªØ±ØªÛĮØ¨":3670,"ĠÙħØ°":3671,"ids":3672,"Ġhope":3673,"ĠÙĨÚ©Ø±Ø¯Ùĩ":3674,"ĠÙĨÙĩØ§ÛĮ":3675,"ĠÙĨÙĤØ·Ùĩ":3676,"Ø®Ø±Ùĩ":3677,"ĠØ´Ø¹":3678,"ĠØ³Ø§ÙĦÙĩ":3679,"Ø¸ÛĮÙħ":3680,"ĠØªÛĮÙħ":3681,"Ġcomplete":3682,"ĠÚ¯Ø°Ø§Ø±ÛĮ":3683,"ĠØ¨Ø²Ø±Ú¯ÛĮ":3684,"airs":3685,"Ġconnect":3686,"ĠIran":3687,"ĠÚ©Ø´ÛĮØ¯Ùĩ":3688,"Ġcal":3689,"Ġsum":3690,"Ġrev":3691,"ĠÚ©Ùģ":3692,"iol":3693,"Ø®ÛĮÙĦÛĮ":3694,"ored":3695,"Do":3696,"ĠØ±Ø§Ø¨Ø·":3697,"ĠÙ¾ÙĪ":3698,"ĠÙ¾ÛĮØ´ÙĨÙĩ":3699,"Ġtrying":3700,"Ø±Ø§ÛĮ":3701,"Ġwhom":3702,"ĠÙĩÙģØª":3703,"Ø³ÙĪÙĨ":3704,"rodu":3705,"ÙĤÛĮÙĩ":3706,"Ġvill":3707,"ĠØ²ÙħÛĮÙĨÙĩ":3708,"ĠØ±ÙĪØŃ":3709,"ĠØ¢ÙħØ§Ø¯Ùĩ":3710,"ÙħÙĤ":3711,"ĠAfric":3712,",\"":3713,"Ġdisplaystyle":3714,"ÙĪÙĦÙĪÚĺÛĮ":3715,"Ġmain":3716,"Ú©Ø§Øª":3717,"ĠØªÙĦÙģ":3718,"ivid":3719,"Ġattack":3720,"ĠÙħÛĮØ¯Ø§ÙĨ":3721,"Ġreport":3722,"Ø¨ÛĮÙĦ":3723,"Ġpercent":3724,"ĠÙĩÙĨØ¯":3725,"Ø§Ø´ÛĮ":3726,"ĠØ¨Ø±Ú¯Ø±Ø¯":3727,"ĠÙĨØ®Ø³ØªÛĮÙĨ":3728,"ÛĮØ´":3729,"ĠØ§ÙĦØ¨ØªÙĩ":3730,"ination":3731,"ĠØ¨Ø±Ø®ÙĪØ±Ø¯":3732,"With":3733,"ĠØ®Ø¯ÙħØª":3734,"Ġclear":3735,"ĠÙĩÙĨÚ¯Ø§ÙħÛĮ":3736,"ÙĦÙĪÙħ":3737,"Ġcontrol":3738,"ÚĨØ±Ø§":3739,"ĠØ¨Ø±Ø±Ø³ÛĮ":3740,"Ġfut":3741,"ĠØ§ÛĮØ³ØªØ§Ø¯Ùĩ":3742,"ĠÚ©ÙĦÙħ":3743,"etwork":3744,"Ġlevel":3745,"Ġtest":3746,"Ġexist":3747,"ĠØ§Ø±Ø²Ø´":3748,"ster":3749,"bo":3750,"Ø´ÙĪÙĨ":3751,"Ġsaying":3752,"Ġfur":3753,"ĠØªÙĪØ¶ÛĮ":3754,"ĠâĻ«":3755,"ĠØ´ÛĮØ±":3756,"Ġground":3757,"Ġlost":3758,"ĠØ¨Ø±Ø®":3759,"ÙģØ§Ø¹":3760,"ĠMiss":3761,"ĠØ¯ÙĩÛĮÙħ":3762,"Ø§Ø¯ÙĦ":3763,"Ġincluding":3764,"Ø§Ø²Ø¯":3765,"Ġperform":3766,"ĠØ´ÙĩØ±Ø³ØªØ§ÙĨ":3767,"ĠØ¨ÙĨØ¯ÛĮ":3768,"ĠÙĦØ°":3769,"ius":3770,"ĠÚ¯Ø°Ø§Ø´ØªÙĩ":3771,"ÙĤÛĮÙħ":3772,"Ġdeep":3773,"Ø²Ø§Ø±Ø´":3774,"Ġliving":3775,"ĠÙĪÙĦ":3776,"Ġpoor":3777,"ÙĩÙħÚĨÙĨÛĮÙĨ":3778,"ĠØ§ØµÙĦØ§":3779,"you":3780,"ĠØ²Ø¯ÙĨ":3781,"itary":3782,"Ġview":3783,"ÙĦÙĨØ¯":3784,"ĠØ¨Ø±ÙĪØ¯":3785,"ĠÚ¯Ø±Ø¯Ø¯":3786,"ances":3787,"Ġproject":3788,"Ú¯ÛĮØ±Ø¯":3789,"Ġcult":3790,"utes":3791,"Ú¯ÙĪÙĨ":3792,"ĠØ³Ú©":3793,"ĠØ®ÛĮØ§Ø¨Ø§ÙĨ":3794,"Ø§ÙĤÙĦ":3795,"ĠTr":3796,"Ġprop":3797,"ĠØ¯ÛĮÙĪØ§Ø±":3798,"ĠÚ©Ø¯Ø§Ùħ":3799,"ĠÙĨØ§Ú¯ÙĩØ§ÙĨ":3800,"Ġstay":3801,"However":3802,"ring":3803,"Ġcannot":3804,"ental":3805,"ption":3806,"Ġhon":3807,"with":3808,"ĠØ¯Ø§Ùħ":3809,"ĠGe":3810,"NA":3811,"ĠØ¨Ú¯Ø°Ø§Ø±":3812,"ĠØ¹Ú©Ø³":3813,"ĠBl":3814,"ficult":3815,"ĠØ´ÙĪÙĩØ±":3816,"ĠØ¢Ø®Ø±":3817,"ĠØ¢ÙħÙĪØ²Ø´":3818,"ĠÙģØ±Øµ":3819,"ÙĪØ§ÙĦ":3820,"ĠSy":3821,"ĠØ¹Ø¯":3822,"ĠÙĨÙģØ³":3823,"ĠÙħØ·Ùħ":3824,"ĠØ§Ø±ÙĪÙ¾Ø§":3825,"Ø¨Ø§ÛĮØ¯":3826,"Ġlonger":3827,"ĠØ¨Ø¯ÙĩØ¯":3828,"Ġsuddenly":3829,"ĠÙħØªÙģØ§ÙĪØª":3830,"aught":3831,"Ġdifficult":3832,"ĠÙĦÙĩ":3833,"IS":3834,"ØªÙĪØ±":3835,"Ġitself":3836,"Ø®ØªÛĮ":3837,"ford":3838,"Ùİ":3839,"Ġtowards":3840,"ĠØ¹ÙħÙĦÛĮ":3841,"ĠCount":3842,"Ġ17":3843,"ĠØ®Ø´Ùħ":3844,"ĠØ¯Ø¹":3845,"Ġhistory":3846,"cum":3847,"sy":3848,"enn":3849,"ĠÚ©ÙĢ":3850,"ĠØ¯Ø§Ø¯Ùħ":3851,"ĠØ¨Ø±Ú¯Ø´Øª":3852,"ĠÙ¾Ø§Ú©":3853,"ÙĪØ²ÛĮ":3854,"ĠÙĨÚ¯Ø±ÛĮ":3855,"iod":3856,"osp":3857,"ĠØ±ÙĨØ¬":3858,"ÙģÙĤØ·":3859,"Ġarm":3860,"Ġang":3861,"ĠOr":3862,"ĠØ¨Ø±Ø¯Ùĩ":3863,"ĠØ´Ø¯Øª":3864,"soci":3865,"ĠØ±Ø³ÛĮØ¯Ùĩ":3866,"ĠÚĺÙĪ":3867,"ĠÙĪØ¨":3868,"Ġlab":3869,"Ġbas":3870,"ÙĬØ¯":3871,"mb":3872,"Ġblood":3873,"urg":3874,"ĠÙħØ³Ø¦ÙĦÙĩ":3875,"Ġwatch":3876,"Ġsometimes":3877,"200":3878,"ĠØ§ÙĨÚ¯ÛĮØ²":3879,"ĠEd":3880,"Ġla":3881,"ĠÙ¾Ø§Ø¯":3882,"Ø§Ø¨Ø¹":3883,"ĠÙĨÚ©ÙĨ":3884,"Ġ194":3885,"Ġfeet":3886,"ĠÛ³Û":3887,"ĠÙħØ´Ø§ÙĩØ¯Ùĩ":3888,"ourn":3889,"Ġpay":3890,"ĠÙĩÙĪØ´":3891,"ĠØ§ÛĮØ´Ø§ÙĨ":3892,"ĠØµÙĪØ±":3893,"Ġpassed":3894,"Ġmajor":3895,"ude":3896,"Ġfeeling":3897,"ĠEnglish":3898,"ĠÙħÙĩØ±":3899,"cul":3900,"ÙĤÙģ":3901,"Ġmot":3902,"Ġpie":3903,"ĠØ®ÙĪØ§ÙĩÛĮÙħ":3904,"ĠØ³Ø§Ø¨":3905,"ĠØµÙĨ":3906,"ĠÚĨÛĮÙĨ":3907,"Ġself":3908,"ĠÙĪØ³ÛĮÙĦÙĩ":3909,"ĠÙĤØ§Ø¯Ø±":3910,"ĠÙħØ±Ø¯ÛĮ":3911,"Ġbring":3912,"Mr":3913,"Ġexc":3914,"ĠÙħØ±Ú©Ø²":3915,"they":3916,"Ġanswer":3917,"unicip":3918,"ĠØªÙĪØ¶ÛĮØŃ":3919,"Ġhappened":3920,"Ġremember":3921,"ĠØ¨Ø±Ø§ÛĮØ´":3922,"Ġmonths":3923,"ĠÙģÛĮ":3924,"Ġappl":3925,"ĠØ§ÙĨØ³":3926,"ÙĬÙħ":3927,"ĠÛ¶":3928,"Ø³ÛĮÙħ":3929,"ĠMan":3930,"Ġpolitical":3931,"ternal":3932,"Ø®ÛĮØµ":3933,"Ø±ÙģÛĮ":3934,"ĠØ·ÙĪÙĦØ§ÙĨÛĮ":3935,"ĠÛ±Û¸Û":3936,"ĠØ¬ÙħÙĩÙĪØ±ÛĮ":3937,"Ġwin":3938,"ĠØ§Ø¬Ø±Ø§":3939,"ĠØªÙĪØµÛĮ":3940,"Ġsystems":3941,"irt":3942,"ĠJohn":3943,"ĠØ¢ÙħØ±ÛĮÚ©Ø§ÛĮÛĮ":3944,"ĠØ±Ø¦ÛĮØ³":3945,"Ġhair":3946,"ØµÙĪÙĦ":3947,"ĠÙ¾Ø±ÙĪÚĺÙĩ":3948,"ĠØ¹Ø²ÛĮØ²":3949,"resent":3950,"Ġfuture":3951,"ĠØ¨Ú¯ÙĪÛĮÙħ":3952,"Ġactiv":3953,"Ġsense":3954,"urs":3955,"ĠØªØ£Ø«ÛĮØ±":3956,"ĠØ±Ø®":3957,"Ġhur":3958,"ĠØ±ÙģØªÙĨØ¯":3959,"ĠYork":3960,"ĠÙģØ§ØµÙĦÙĩ":3961,"Ġlim":3962,"ĠØŃØ³Ø§Ø¨":3963,"Ø«ÛĮ":3964,"rie":3965,"ĠÚ©Ø§Øª":3966,"line":3967,"ĠÙħØŃÛĮØ·":3968,"ĠØ³Ø±ÛĮØ¹":3969,"tt":3970,"ĠØ§ÙĬÙĨ":3971,"ĠCar":3972,"ĠPol":3973,"Ġsold":3974,"ĠØªØ¬Ø±Ø¨Ùĩ":3975,"Ø²ÙħÛĮÙĨ":3976,"Ġglo":3977,"ĠÙħØ¯ÛĮ":3978,"ĠÚĨÙĤØ¯Ø±":3979,"idence":3980,"af":3981,"ĠÙħØªÙĨ":3982,"Ġtalking":3983,"ilar":3984,"ÙħØ³":3985,"Ġhours":3986,"Ø®ÙĪØ§Ø³Øª":3987,"Ġfood":3988,"ĠÙĨÙħÙĪÙĨÙĩ":3989,"ĠÙħÙĦØ§":3990,"ĠTe":3991,"ĠÙĪØ¶Ø¹":3992,"aly":3993,"ÙģØ¸":3994,"ĠPhil":3995,"Ġdiv":3996,"ĠØ¯ÛĮØ¯Ùħ":3997,"ĠÙĤÙĦ":3998,"por":3999,"ĠÚ¯Ùħ":4000,"Ġroad":4001,"ĠÚ¯Ø§ÙĩÛĮ":4002,"Ġaut":4003,"bit":4004,"itten":4005,"ĠAd":4006,"apan":4007,"ÙĩØ±ÛĮ":4008,"Ġproper":4009,"ÙħØ§Ø¯":4010,"ĠÙħØ§ÙĩÛĮ":4011,"Ġcut":4012,"ĠÙħØŃØ¯ÙĪØ¯":4013,"ĠÙģØ´Ø§Ø±":4014,"cious":4015,"ĠÚ¯ÙĨ":4016,"Ġrad":4017,"Ġconc":4018,"ĠGen":4019,"Ġfig":4020,"ĠCan":4021,"ĠÚĨÙĨØ¯ÛĮÙĨ":4022,"band":4023,"ĠØ®ÙĨØ¯Ùĩ":4024,"ability":4025,"Ġfollowing":4026,"Ġgrow":4027,"ĠØ¨Ø¹Ø¯ÛĮ":4028,"ØµÙĩ":4029,"ĠØŃØ¶Ø§Ø±":4030,"ĠBrit":4031,"Ø³Ø¨":4032,"ought":4033,"Ġbi":4034,"ĠÙĩÙĨØ±":4035,"Ġ12":4036,"cially":4037,"fer":4038,"ĠMin":4039,"ĠÙħÛĮÙĦØ§Ø¯ÛĮ":4040,"Ġ#":4041,"Ġtyp":4042,"ĠØ¢ÙĩÙĨÚ¯":4043,"ĠÙĨÙĩØ§ÛĮØª":4044,"Ø§Ø¯Ø§":4045,"Ø§Ø´ÙĤ":4046,"Ġmass":4047,"empt":4048,"Ġteam":4049,"ĠMe":4050,"ĠNational":4051,"ĠÙ¾ÛĮØ´ÙĨÙĩØ§Ø¯":4052,"ĠØ¯Ú©ØªØ±":4053,"ĠØ®ÙĪØ±Ø´ÛĮØ¯":4054,"ille":4055,"ĠØ¹ÙĪØ¶":4056,"ĠÙĪÛĮØ±":4057,".,":4058,"iled":4059,"Ġpract":4060,"ĠØ´Ø±Ø§ÛĮØ·":4061,"ĠØ§ÙĪØ±":4062,"Ú¯ÛĮÙĨ":4063,"ĠØ±Ø§Ø¨Ø·Ùĩ":4064,"Ġcost":4065,"Ġabove":4066,"bled":4067,"ĠGo":4068,"Ġsqu":4069,"Ġdream":4070,"ĠØ§Ø®ØªÛĮ":4071,"ĠÙħØ·Ø§ÙĦØ¹Ùĩ":4072,"ĠPl":4073,"ĠÙĨØ¨Ø§":4074,"ĠÙ¾Ø§ÛĮÙĩ":4075,"ĠØ¯Ùģ":4076,"ĠØ§ÛĮÙĨØªØ±":4077,"Ġtried":4078,"Ġgetting":4079,"ĠØ¨Ù¾":4080,"Ġ16":4081,"ophe":4082,"ÙĩÙħÛĮÙĨ":4083,"app":4084,"ĠÙħØ¤":4085,"then":4086,"yn":4087,"ĠØ¯Ø±ÙħØ§ÙĨ":4088,"ana":4089,"ĠØ§Ø´ØªØ¨Ø§Ùĩ":4090,"\")":4091,"Ġgent":4092,"ĠØ¯ÙĪØ±Ø§ÙĨ":4093,"ĠÚ¯Ø±Ø¯ÛĮØ¯":4094,"ĠÙĩØ²ÛĮÙĨÙĩ":4095,"ĠØ®Ùħ":4096,"ĠÙĨØ¯Ø§Ø±Ùħ":4097,"ĠØ¨Ø®Ø´ÛĮ":4098,"ÙĩØ±Ø³Øª":4099,"ĠØ§Ø·ÙĦØ§Ø¹":4100,"ĠØªØ´Ø®ÛĮØµ":4101,"ĠØ®ÙĪØ§ÙĩÛĮØ¯":4102,"ĠÙĨØ¸Ø§ÙħÛĮ":4103,"ĠØ§Ø³ØªØ®":4104,"aving":4105,"ĠØ¨Ø±ÛĮØª":4106,"Ø§ÙĩÙħ":4107,"Ġvers":4108,"Ġident":4109,"ĠÙħØ³ÛĮØ±":4110,"ĠØ¯ÛĮØ±":4111,"over":4112,"Ġbuilding":4113,"ĠØ§Ø«":4114,"Ar":4115,"Ġbased":4116,"ĠÙħÚ©Ø§ÙĨ":4117,"Ġcold":4118,"ĠØµÙĨØ¯ÙĦÛĮ":4119,"ØŃØ§ÙĦÛĮ":4120,"Ġsour":4121,"Ġgame":4122,"ĠØ¨ØŃØ«":4123,"ĠÙħØ±Ø¯Ø§ÙĨ":4124,"ĠØªÙĪØ±":4125,"Ġpict":4126,"Ġnon":4127,"ĠØ¢Ø¨ÛĮ":4128,"ĠÙ¾ÙĪØ³Øª":4129,"Ġsleep":4130,"Ú¯ÙĨ":4131,"lled":4132,"ÙĦØ§ÙĦ":4133,"ĠÙĩØ±ÛĮ":4134,"Ġtaking":4135,"ĠØ¬Ø±":4136,"ĠÙħÙģ":4137,"ĠCent":4138,"ĠÙħÙĤØ¯Ø§Ø±":4139,"ĠInternational":4140,"Ø§Ø±Ø§ÙĨ":4141,"Ø§ÙĪÙĦ":4142,"Ø´Ø¨":4143,"ĠØ¨Ø¯Ø§ÙĨ":4144,"ĠSouth":4145,"Ġentire":4146,"Ġcentury":4147,"Ġauth":4148,"ĠØ¢Ø²Ø§Ø¯ÛĮ":4149,"ĠÙ¾ÙĨÙĩ":4150,"Ø§ÛĮÙħ":4151,"ĠÚ¯Ø²Ø§Ø±Ø´":4152,"ÙĪØ§ÙĨÙĩ":4153,"Ġrelations":4154,"Ġdest":4155,"Ġ195":4156,"ĠØºØ°Ø§":4157,"ĠÙĪÛĮÚĺÙĩ":4158,"gest":4159,"ĠÛ±Û°":4160,"ively":4161,"Ø¬ÙĪÛĮ":4162,"Ø·Ø§ÙĨ":4163,"Ġ193":4164,"Ġpost":4165,"ĠÙĤØ¯ÛĮÙħÛĮ":4166,"ĠUS":4167,"Ġten":4168,"ÚĺÙĨ":4169,"ĠØ¨Ø§Ø´ÛĮÙħ":4170,"ĠØ³Ø±Ø§Ø³Ø±":4171,"Ġstat":4172,"ĠØªÛĮ":4173,"ĠØ¨Ø§Ø²Ú¯Ø´Øª":4174,"Ġlate":4175,"hern":4176,"ÙĪÙĦØ¯":4177,"ondon":4178,"ĠØ²ÛĮØ¨Ø§":4179,"Ġrecogn":4180,"gor":4181,"ĠØ¨Ú¯ÛĮØ±Ø¯":4182,"ĠÙĨÚ¯Ø±ÛĮØ³Øª":4183,"ĠÙĩÙħØ³Ø±":4184,"Ø¨Ø§Ø¨":4185,"ĠØ¢ÙĦÙħØ§ÙĨ":4186,"ØµÛĮÙĦ":4187,"Ġsuper":4188,"Ø§Ø±Ø´":4189,"Ġport":4190,"aterial":4191,"Ġperhaps":4192,"ĠØ¯Ø³ØªØ´":4193,"Ġenv":4194,"tered":4195,"ĠØ¢ÙĩØ³ØªÙĩ":4196,"Ġstru":4197,"ĠÚĨÙ¾":4198,"ĠØ±Ø³ÙħÛĮ":4199,"ges":4200,"ĠÙĨØ³Ø®Ùĩ":4201,"Ø§Ø¸":4202,"ĠÙħØ§ÛĮ":4203,"ĠØ¨ÙĨØ§Ø¨Ø±Ø§ÛĮÙĨ":4204,"Ġmis":4205,"ĠÚ©Ø´ÙĪØ±ÙĩØ§ÛĮ":4206,"ĠÙĨÙĤØ´Ùĩ":4207,"ÛĮÙĦÛĮÙ¾":4208,"ĠØ¨ÙĤÛĮÙĩ":4209,"Ø³ØªÚ¯ÛĮ":4210,"ividual":4211,"Ġiss":4212,"Ġdoesn":4213,"Ġevening":4214,"ĠØ®ÙĨØ¯":4215,"Ġdro":4216,"ĠØ®ÙĦØ§":4217,"ĠØ§Ø³ØªØ§ÙĨ":4218,"ĠØ§ÙĤØªØµØ§Ø¯ÛĮ":4219,"ĠÙħØ¹ÙĨ":4220,"Ġpubl":4221,"Ġord":4222,"Ġbreak":4223,"ĠHarry":4224,"ĠÙģØ±Ø§ÙħÙĪØ´":4225,"ĠÙħÙĪÙģÙĤ":4226,"Ġfail":4227,"Ġdraw":4228,"Ġdeal":4229,"ĠÙĩØ³ØªÛĮØ¯":4230,"ales":4231,"ĠÙħØ®ØµÙĪØµ":4232,"ĠÙģØ±Ø§ÙĨØ³":4233,"ĠØŃÛĮÙĪØ§ÙĨ":4234,"Ġthird":4235,"Ġeduc":4236,"BN":4237,"By":4238,"ĠØ®ÛĮØ±Ùĩ":4239,"ĠØµÙģØŃÙĩ":4240,"enty":4241,"Ġarri":4242,"ĠØŃÙħÙĦ":4243,"ĠØ¸Ø§ÙĩØ±":4244,"rel":4245,"ĠÚ©Ø§Ø±ÙĩØ§ÛĮ":4246,"Ġwrong":4247,"ĠÙħØ³Ø§":4248,"Ġhus":4249,"ĠÚ¯Ø±ÙģØªÙĨ":4250,"Ġdear":4251,"Ġhig":4252,"which":4253,"Ġstudy":4254,"Ġhowever":4255,"ĠØ´Ø§ÙĩØ²Ø§Ø¯Ùĩ":4256,"ĠØ³Ø±ÙħØ§ÛĮÙĩ":4257,"ĠØ§ÛĮØª":4258,"uge":4259,"ney":4260,"ÙĤÛĮØª":4261,"ĠÙĨÚ¯Ø§ÙĩÛĮ":4262,"Ġemp":4263,"ĠØ´ÙĪÙħ":4264,"ĠØ±ÙĪØ³ÛĮ":4265,"ivil":4266,"ĠÙħØ§Ø±ÛĮ":4267,"ĠØ¨ÙĨÛĮ":4268,"ĠØ³Ø§ÙĨ":4269,"ĠÙģÙĪÙĤ":4270,"ĠÙĦØ¨Ø®ÙĨØ¯":4271,"ĠØ¨ÛĮØ¯":4272,"Ġsubject":4273,"Ġcomes":4274,"ĠMy":4275,"ĠØŃÙģØ¸":4276,"ĠÙħØŃÙĦÛĮ":4277,"Ġperiod":4278,"Ø¢ÙĨÙĩØ§":4279,"head":4280,"10":4281,"Ġminutes":4282,"²Û":4283,"Ø¬Ùħ":4284,"Ø¨Ø³ÛĮ":4285,"ĠÙĤÛĮÙħ":4286,"ĠÚ¯ÙĪÛĮÛĮ":4287,"Ġmoved":4288,"ĠÚ©Ø´Ùģ":4289,"ĠTur":4290,"Ø·Ø±":4291,"ĠØ¨ÙĦÙĩ":4292,"Ġbur":4293,"ĠÚ©ÙĪØ¯Ú©Ø§ÙĨ":4294,"Ø§Ø±ÙĩØ§ÛĮ":4295,"ĠØ§Ø´Ú©":4296,"Be":4297,"Ø¯Ø³Øª":4298,"Ġnetwork":4299,"ially":4300,"Ġhappy":4301,"Ġz":4302,"Ġmeth":4303,"Ø³ÛĮØ³":4304,"ĠÙĨØ®ÙĪØ§ÙĩØ¯":4305,"Ġmach":4306,"ĠØ¯Ø³ØªÚ¯Ø§Ùĩ":4307,"itted":4308,"Ø§ÛĮÛĮØ¯":4309,"Ø§ÙģØ¸":4310,"ĠØ®ÙĪØ´ØŃØ§ÙĦ":4311,"Ġmodel":4312,"Ø¶Ø§":4313,"ĠØŃÙĪ":4314,"Ġnatural":4315,"Ø§Ø¦ÙĦ":4316,"ĠÙħÙĢ":4317,"Ġsecret":4318,"Ġcry":4319,"ipp":4320,"iful":4321,"Ú©ØªÙĩ":4322,"Ù¾ÛĮÙħ":4323,"Ú©ØªØ±ÛĮ":4324,"Ø²ÙĪ":4325,"ĠÙĨØ²Ø¯":4326,"ĠJapan":4327,"Ġbreat":4328,"ĠØ´ÙĨØ§Ø³ÛĮ":4329,"ĠØ¯Ø§Ø´ØªÙĨ":4330,"ĠØ¹Ø¬ÛĮØ¨":4331,"Ġpret":4332,"Ø§ÙĨÛĮØ§ÛĮÛĮ":4333,"ĠØŃÙħØ§ÛĮØª":4334,"Ġarea":4335,"ĠÙ¾Ùĩ":4336,"Ġfight":4337,"ÙģÙĦ":4338,"ĠØ§ÙĪÙĦÛĮÙĩ":4339,"ĠØ§ÙĦØ¹Ø§Ø¯Ùĩ":4340,"ĠÙĨØ§Ø¨":4341,"ĠØ¬Ø§Ø¯Ùĩ":4342,"ĠØ´ÛĮÙħÛĮ":4343,"Ø³ØªØ±":4344,"ÙĦÛĮÙħ":4345,"Ġresearch":4346,"ØªÙĩ":4347,"Ġtreat":4348,"ĠPet":4349,"Ġtrou":4350,"ĠAust":4351,"Ġexact":4352,"Ġinvol":4353,"Ġcharacter":4354,"Ġinside":4355,"ĠØ¯ÙĪØ´":4356,"ĠØ²ÛĮØ¨":4357,"ĠØ·Ø¨ÙĤÙĩ":4358,"val":4359,"Ġprin":4360,"Ø§ÙĨØ¬Ø§Ùħ":4361,"ĠØ¬ÙĨÙĪØ¨":4362,"ĠØ¨ÙħØ§ÙĨ":4363,"arth":4364,"Ø§Ø¯Ú¯ÛĮ":4365,"ĠÛ±Û¹Û¸Û":4366,"Ġcurrent":4367,"ply":4368,"Ġlink":4369,"Ġindividual":4370,"ĠÙ¾ÛĮØ§Ø¯Ùĩ":4371,"ĠØ²ÛĮØ³Øª":4372,"Ġant":4373,"Ġkept":4374,"ĠÛ¸":4375,"Ġwindow":4376,"ĠGu":4377,"ĠØ¬ÙĨÙĪØ¨ÛĮ":4378,"Ġslow":4379,"ĠØ§ÙĩÙħÛĮØª":4380,"Let":4381,"ĠÚ©Ø´Øª":4382,"ĠØ±Ø´ØªÙĩ":4383,"Ġgentle":4384,"Ġeight":4385,"pri":4386,"Ġoutside":4387,"Ġaccount":4388,"ĠØ§Ø¶Ø§ÙģÙĩ":4389,"ĠÙħØµØ±Ùģ":4390,"idge":4391,"ĠØ±ÙĪØ²ÙĨØ§ÙħÙĩ":4392,"unicipality":4393,"ĠÚ©ÙĪÙĩ":4394,"ĠØ¨Ø§ÙĨÚ©":4395,"Ġsens":4396,"arr":4397,"ĠØ²ÙĨÛĮ":4398,"ĠÙĦØ±Ø²":4399,"ĠÚ©Ø§ÙħÙ¾ÛĮ":4400,"ecause":4401,"Ġmult":4402,"ĠØ¨Ø±Ø¬":4403,"ĠÙħØŃØµÙĪÙĦ":4404,"Ġtou":4405,"action":4406,"Ġadm":4407,"ĠØ§Ø®ØªÛĮØ§Ø±":4408,"Ġdaughter":4409,"Ø¨Ø±Ø§ÙĨ":4410,"ĠØ¨ÙĪØ¯ÛĮÙħ":4411,"urity":4412,"Ġrecord":4413,"ØªØŃ":4414,"Ġled":4415,"ĠØ¯Ø±Ø¢ÙħØ¯":4416,"Ġrespect":4417,"ĠÙħØ±ØŃ":4418,"Ġdied":4419,"ĠØ¬Ø§ÛĮØ²Ùĩ":4420,"Ġviol":4421,"ĠÙ¾Ø±Ø³":4422,"ĠÙĨØ¨Ø§ÛĮØ¯":4423,"ĠØªØ±Ø§":4424,"ols":4425,"Ġenc":4426,"Ġmakes":4427,"ising":4428,"Ġevent":4429,"ĠÙĩØ´Øª":4430,"ware":4431,"Ġ30":4432,"Ġearth":4433,"Ġjob":4434,"Is":4435,"Ġhot":4436,"ĠØ¹ÙħÛĮ":4437,"ump":4438,"ÙĨØ¯Ú¯ÛĮ":4439,"Ġmaterial":4440,"ĠØ¯ÙĪØ³ØªØ§ÙĨ":4441,"ledge":4442,"ino":4443,"ĠØ±Ø§Ø¬Ø¹":4444,"Ġpriv":4445,"ĠØ¬Ø°":4446,"ĠÚ¯ÙģØªÙĨØ¯":4447,"Ġproduct":4448,"Ġvillage":4449,"Ú¯Ø±Ø§ÙĨ":4450,"Ġstruct":4451,"Ø²ÙĦ":4452,"ĠØ¬ÙĨØ³ÛĮ":4453,"ĠÙħØ³ØªÙĤÛĮÙħ":4454,"ades":4455,"ĠÙħØªØ±":4456,"Ø¯Ø±ÛĮ":4457,"Ø´ÙĪ":4458,"ceed":4459,"ĠÚ©ÙĪØ´":4460,"Ġhusband":4461,"amm":4462,"ĠØ§ØŃØªÛĮ":4463,"aves":4464,"ule":4465,"Ø®Ø§ÙĨÙħ":4466,"ĠÙģÙĪØª":4467,"ĠØ§Ø³ÙĦ":4468,"ĠÙĨØª":4469,"Ġer":4470,"van":4471,"ĠÙĨÛĮÙħÙĩ":4472,"ken":4473,"ĠØ¹Ø§Ø´ÙĤ":4474,"Ġnecess":4475,"Ġswe":4476,"ĠØ¨Ø¯Ø³Øª":4477,"Ø³ÙĪ":4478,"Ġ13":4479,"Ġsurpr":4480,"ĠÙħØ±Ú©":4481,"ĠÚ©Ø¯":4482,"ĠÙħØªØ¹":4483,"ĠÚĨÛĮØ²ÙĩØ§ÛĮÛĮ":4484,"Ġwhose":4485,"ĠChar":4486,"ĠØ§ÙĨØ³Ø§ÙĨÛĮ":4487,"bt":4488,"ĠØ³ÙĪØ§ÙĦ":4489,"Ġtechnology":4490,"urch":4491,"ĠRep":4492,"Ø³ØªØ§ÙĨÛĮ":4493,"ĠØ®Ø§ÙĦÛĮ":4494,"ĠAll":4495,"Ġarms":4496,"ĠÚĺØ§Ù¾":4497,"Ġyourself":4498,"iding":4499,"ĠAm":4500,"ĠØ§ÙĦØ§ÙĨ":4501,"Ġ11":4502,"ĠFe":4503,"âĢ":4504,"ÙĪØ±Ø§":4505,"ference":4506,"stit":4507,"Ġborn":4508,"ĠÙĦØ§Øª":4509,"Ġvol":4510,"ĠEl":4511,"atter":4512,"ples":4513,"Ġpopulation":4514,"like":4515,"ĠÙĨØ¬Ø§Øª":4516,"Ã³":4517,"ĠÙħÙĬ":4518,"ĠØ¬Ø¯ÛĮ":4519,"Ø²Ø¨":4520,"ĠÙħØ¯ØªÛĮ":4521,"ĠAb":4522,"Ġexcept":4523,"rences":4524,"ĠÙĤÛĮØ§":4525,"Ø¦ÛĮÙĨ":4526,"ĠSw":4527,"Ġphot":4528,"ĠÙª":4529,"Ġrelig":4530,"Ġà":4531,"ĠØ´Ú¯ÙģØª":4532,"Ġappear":4533,"ĠØ¨Ùħ":4534,"ĠØ¨Ø®ÙĪØ§Ùĩ":4535,"Ġletter":4536,"attle":4537,"ĠÙĨÛĮØ³ØªÙĨØ¯":4538,"medi":4539,"Ġconvers":4540,"ĠÙħØ³Ø§Ø¨":4541,"ĠØ¨ÛĮØ³Øª":4542,"odes":4543,"Ø§Ø±Ú©":4544,"ĠØ§ÙħÙĨÛĮ":4545,"Ġeye":4546,"ÙĪØªØ±":4547,"Ġprotect":4548,"ĠØ·Ø±ØŃ":4549,"Ġusually":4550,"ĠÙħØ±ÛĮ":4551,"Ġlives":4552,"Ġpretty":4553,"ĠØ®Ø±ÛĮØ¯":4554,"ĠØ¹Ø¨Ø§Ø±Øª":4555,"ĠAlex":4556,"Ġmer":4557,"Ġ(\"":4558,"Ġsimple":4559,"ellig":4560,"ĠØ¹ÙĦØª":4561,"ĠØ¹ÙĦÙħÛĮ":4562,"riage":4563,"ĠÚ¯Ø°Ø±":4564,"ĠØ§ÛĮØ³ØªØ§Ø¯":4565,"Ġmess":4566,"apt":4567,"Ġwritten":4568,"ĠØ§Ú©":4569,"inary":4570,"Ġsn":4571,"ĠØ±ÙĪØ³Øª":4572,"ining":4573,"gs":4574,"idered":4575,"Ġdeter":4576,"hel":4577,"Ġfa":4578,"ĠÛĮÙĪÙĨ":4579,"ĠØ¹ÛĮÙĨ":4580,"antly":4581,"ĠØªÚ©Ø±":4582,"Ġcross":4583,"Ġredu":4584,"Ġi":4585,"ĠÙģØ±Ø§ÙĨØ³ÙĪÛĮ":4586,"Ġpress":4587,"ishing":4588,"Ġcomb":4589,"rest":4590,"oms":4591,"ili":4592,"ĠÙģØ±Ø§Ø±":4593,"ĠÙĨØ´Ø¯":4594,"ĠMay":4595,"Ġmethod":4596,"Ġrepresent":4597,"ĠÙħÙĨØªØ¸Ø±":4598,"Ġscient":4599,"ese":4600,"ĠØ§Ø±ØªØ´":4601,"ĠÙħØ±Ø§ÙĤ":4602,"ration":4603,"Ø±ÙĪÛĮ":4604,"Ġbene":4605,"Ø§Ø¯ÙĪ":4606,"ĠØ´ÙħØ§ÙĦ":4607,"ĠÙħØ¨Ø§Ø±":4608,"Ġbank":4609,"ĠØ§ÙģØ³":4610,"ĠØ¨Ø±ÙĤ":4611,"Ġtele":4612,"ĠÙģØ±ØµØª":4613,"Ġmor":4614,"ential":4615,"ĠÙĨÙĪØ¹ÛĮ":4616,"Ġcorn":4617,"ĠÙħÛĮØ²Ø§ÙĨ":4618,"}}":4619,"Ġcou":4620,"Every":4621,"Ġgra":4622,"ops":4623,"ÙĨÛĮÚ©":4624,"Ġposition":4625,"mp":4626,"ĠØ¨Ùģ":4627,"ÙĪØ±Ú©":4628,"ĠØ§ÙħØ±":4629,"ĠØ´Ø§Ùħ":4630,"Ġaccept":4631,"Ġdecided":4632,"ĠJu":4633,"Ġcomputer":4634,"vin":4635,"ĠÙĤØ¨ÙĦØ§":4636,"when":4637,"ĠØ´ÙĨÛĮØ¯Ùĩ":4638,"Ġlaugh":4639,"ØªØ³":4640,"ĠÙĤØ·Ø¹":4641,"Ġreceived":4642,"ĠÙħÙĦØ§ÙĤØ§Øª":4643,"Ø¶ÛĮÙĩ":4644,"light":4645,"ocr":4646,"Ġprobably":4647,"Ġ14":4648,"ĠØ³ÛĮØ§Ø³Øª":4649,"Ø¨ÙĦÙĩ":4650,"Ġengine":4651,"ĠØ¨Ú¯ÙĪÛĮØ¯":4652,"ĠØ¹Ø±Ø¶":4653,"istic":4654,"ĠÙĤÛĮØ§ÙģÙĩ":4655,"Ġinstead":4656,"pecially":4657,"ÙĪØ±ÛĮÙĩ":4658,"oman":4659,"imate":4660,"got":4661,"Ġauthor":4662,"ĠÚ¯ÙĪØ´Ùĩ":4663,"ÙĨØªÛĮ":4664,"ĠØ§ÙĨÚ¯ÙĦ":4665,"ĠØ¢ÙħÛĮØ²":4666,"Ġwasn":4667,"ological":4668,"Ø§ÛĮÙĤ":4669,"Ġarg":4670,"Ġarch":4671,"ĠKing":4672,"ĠÙĨØŃ":4673,"Ġsmile":4674,"Ġsomeone":4675,"ĠÛĮÛĮ":4676,"ĠØªÙĩÛĮ":4677,"ĠØ§Ú©Øª":4678,"ĠÛ±Û¹Û·Û":4679,"Ġtruth":4680,"ĠÚ©ÙĪØ¯Ú©":4681,"ĠØ¨Ø±Ø¢":4682,"ĠLondon":4683,"Ġwalked":4684,"Ø§Ø±Ùħ":4685,"ĠÙħÙĨØ§Ø¨Ø¹":4686,"ĠÙĨØ§Ø±Ø§ØŃØª":4687,"ming":4688,"Ø³Ú©":4689,"ĠØ¢ÙĦØ¨":4690,"ĠØ§ÙĦÚ¯":4691,"Ġinvest":4692,"ĠØªÙħØ§ÙħÛĮ":4693,"Ġnor":4694,"ĠÙĬ":4695,"ĠØ´ÙĨØ§Ø®Øª":4696,"Ġsimilar":4697,"Because":4698,"Ġcouldn":4699,"ĠPe":4700,"ĠÙ¾Ø¯Ø±Ø´":4701,"ĠÙĨØªÙĪØ§ÙĨ":4702,"ĠÙ¾ÙĨÙĩØ§ÙĨ":4703,"Ġsong":4704,"Ġspecial":4705,"ĠÙĤØµØ¯":4706,"Ġnature":4707,"ĠØ®ÙĪØ¯Ø´Ø§ÙĨ":4708,"Ġheav":4709,"ĠØ¨ØªÙĪØ§ÙĨØ¯":4710,"ĠÙĦØ°Øª":4711,"ĠÙĨØ±":4712,"Ġquickly":4713,"Ġpaper":4714,"ival":4715,"ĠØ«Ø§Ø¨Øª":4716,"ĠØ´Ø¯ÛĮØ¯":4717,"how":4718,"ĠØ¯Ø±Ø¬Ùĩ":4719,"Ġsociety":4720,"Ġparent":4721,"ĠØ¨Ø§Øº":4722,"Ø¨Ø²":4723,"Ġmembers":4724,"ĠNorth":4725,"ĠÚ©ÙĦØ§Ø³":4726,"ously":4727,"ideo":4728,"Ġspir":4729,"Ġmarket":4730,"ÙĩÙĨÚ¯Ø§ÙħÛĮ":4731,"ĠØ³Ø§ÛĮØ±":4732,"ĠØ¯Ø³ØªÛĮ":4733,"Ġtot":4734,"ĠØ¯ÙĩÛĮØ¯":4735,"Ġopened":4736,"ĠØ¹Ø¶ÙĪ":4737,"ada":4738,"Ġdevelopment":4739,"loy":4740,"ĠÙĩÛĮØ¬Ø§ÙĨ":4741,"Ġseries":4742,"ĠØ¯ÙĤØª":4743,"ament":4744,"overed":4745,"Û°Û°Û°":4746,"ÙĪÛĮÙĦ":4747,"ĠWill":4748,"go":4749,"ÙħØ´":4750,"Ġnational":4751,"ĠØ¨Ø§ÛĮØ³Øª":4752,"ĠØ¨Ø§Ø²Ø§Ø±":4753,"ĠØ±ÙĪÙĨØ¯":4754,"ĠÙħØ¹ÙĦÙĪÙħ":4755,"ĠØ®ÙĪØ§Ø³ØªÙħ":4756,"ÙĨÚ¯Ø§Ùĩ":4757,"Ġpick":4758,"ĠÛ·":4759,"ĠØ±ÙĤØµ":4760,"ØªÙĨÙĩØ§":4761,"Ġinflu":4762,"hers":4763,"iling":4764,"Ġfunction":4765,"ĠØºØ±ÛĮ":4766,"ĠØ³Ø§ØŃ":4767,"ĠFor":4768,"Ġconsidered":4769,"Ø¯ÛĮÙĨ":4770,"Ġtheory":4771,"ÙĪÛĮØ²ÛĮ":4772,"Ġindust":4773,"Ġbuilt":4774,"ĠÙ¾Ø±ÙĪØ§Ø²":4775,"ike":4776,"ĠÙĤÙĪÛĮ":4777,"ĠArab":4778,"Ġwish":4779,"ĠÙħÙĪØ±":4780,"Ġfill":4781,"Ġjo":4782,"Ġimm":4783,"ØºÙĦ":4784,"ĠÚĨÛĮØ³Øª":4785,"Ø¨ÛĮØ±":4786,"ĠØ³ÙĪØ§Ø±":4787,"ĠØ³Ø±Ø¨Ø§Ø²":4788,"ĠÙģØ¹Ø§ÙĦ":4789,"Ġreturned":4790,"Ġcamp":4791,"Ġforward":4792,"ĠØ®Ø§ÙħÙĪØ´":4793,"ĠÚĨÛĮØ²ÙĩØ§":4794,"ĠØ´ÙĨÛĮØ¯":4795,"ĠÙ¾ÛĮÚĨÛĮØ¯Ùĩ":4796,"uz":4797,"Ġforce":4798,"unch":4799,"ĠHer":4800,"Ġkey":4801,"ĠÙħÙĨØ§Ø³Ø¨":4802,"ÙĪØ²Ùĩ":4803,"ironment":4804,"Ġmist":4805,"Ú¯Ø§ÙĨÙĩ":4806,"ÚĨÙĨØ§ÙĨ":4807,"Ġsex":4808,"ift":4809,"ĠØ§ÛĮØ§ÙĦØª":4810,"ĠÚ¯Ø³ØªØ±Ø¯Ùĩ":4811,"ĠÚ©ÛĮÙĦ":4812,"ĠNo":4813,"Ø¦ÙĪ":4814,"ĠII":4815,"Ġship":4816,"anger":4817,"ires":4818,"lam":4819,"Ġce":4820,"Ġdise":4821,"ĠØ§ÙĨØªÙĤØ§ÙĦ":4822,"ĠÙģØ±Ùħ":4823,"Here":4824,"oe":4825,"Ø§ÙģØ¸Ùĩ":4826,"Ġlocal":4827,"oot":4828,"ĠØ§ØªØŃ":4829,"ĠØ¹Ø¨ÙĪØ±":4830,"Ġservice":4831,"ĠØ±ÙĪØ²ÛĮ":4832,"Ġcreated":4833,"±Û°":4834,"Ġadded":4835,"Ġ100":4836,"Ġperfect":4837,"face":4838,"Ú¯ÙĦ":4839,"Ġyes":4840,"ĠÙħÙĪØ§Ø±Ø¯":4841,"Ġ2010":4842,"Ġbeginning":4843,"Ġscience":4844,"uct":4845,"Ġpot":4846,"Ġcompan":4847,"ĠØ§Ø¹Ø¶Ø§ÛĮ":4848,"Ġsoul":4849,"Ġchanged":4850,"Ġcried":4851,"Ø¯ÙĨ":4852,"ĠAmerica":4853,"ĠQu":4854,"ĠÙħØ§Ø¯Ø±Ø´":4855,"Ġwonder":4856,"Ø§ÙĨÚ¯ÙĦÛĮØ³ÛĮ":4857,"ĠØ§ØŃØªÙħØ§ÙĦØ§":4858,"ĠÙĨØ¸Ø±ÛĮÙĩ":4859,"Ġwide":4860,"Ø±Ø§Ø³":4861,"Ġspecies":4862,"ĠÙħØ·ÙħØ¦ÙĨ":4863,"Ġthr":4864,"ĠÙħØ®Ø§ÙĦ":4865,"Ù¾ÛĮØ´":4866,"ĠÙģØ±Ø§ÙĩÙħ":4867,"Ġut":4868,"Ġmemory":4869,"ĠØ§Ø¨ØªØ¯Ø§":4870,"view":4871,"Ġgrand":4872,"ĠØ¯Ø±Ø³":4873,"ĠØ¯ÙĨÛĮØ§ÛĮ":4874,"yond":4875,"ĠØ±Ø§ÙĨ":4876,"ĠÚ©Ø´ØªÙĩ":4877,"ĠØ±ÙĩØ§":4878,"ĠØ¨Ø§Ø±ÛĮ":4879,"Ġsus":4880,"ences":4881,"Ø¨ÛĮÙĨØ¯":4882,"ggest":4883,"Ġcolle":4884,"ĠÙħØ±ØŃÙĦÙĩ":4885,"ĠÙĪØ§ØŃ":4886,"ØºØ§ÙĦ":4887,"Ġsitting":4888,"ĠÚ©Ø³Ø¨":4889,"ĠØ¯ÛĮÙĨ":4890,"Ù¾Ùĩ":4891,"Ġgreen":4892,"Ġtrad":4893,"ĠØ³Ú¯":4894,"ĠIS":4895,"ĠØ§Ø³ØªØ§ÙĨØ¯":4896,"Ø¯ÙĩØ§ÛĮ":4897,"ÛĢ":4898,"Ġimpro":4899,"Don":4900,"ĠØ§ÙĨØ¬":4901,"ÙĨØ¯ÙĨ":4902,"ĠCounty":4903,"Ġran":4904,"ĠØ¹Ùĩ":4905,"Ġlocated":4906,"Ø±Ø§Ú©":4907,"hood":4908,"ĠÙ¾Ø´ØªÛĮ":4909,"ĠÙĨÙħØ§ÛĮØ¯":4910,"ĠÙħØ´Øª":4911,"Ø§ØŃØ¨":4912,"ÙħÛĮÙĨØ§ÙĨ":4913,"ĠÙħÙĨØ¬Ø±":4914,"Ġcommand":4915,"agn":4916,"ĠØ®ÙĪØ§ÙĩÛĮ":4917,"Ġmilitary":4918,"Ø§Ø±ØªÛĮÙĨ":4919,"Ġprison":4920,"ĠØ®ØµÙĪØµÛĮ":4921,"Ġsir":4922,"ighb":4923,"ÙģØ³":4924,"ĠØ³ÛĮÙĨÙĩ":4925,"urd":4926,"ĠØ§ÙĨÚ¯ÙĦØ³ØªØ§ÙĨ":4927,"Ġcreate":4928,"ĠØªØ±Ú©ÛĮØ¨":4929,"ĠÛĮØ§Ø¨Ø¯":4930,"Ø¹ØªÛĮ":4931,"ĠØ¨Ø²ÙĨ":4932,"Ø±Ø§Ø±":4933,"ĠØ§Ú¯Ùĩ":4934,"Ø§ØµÙĦ":4935,"Ġbooks":4936,"Ġprofess":4937,"11":4938,"ĠØªÛĮØ±":4939,"ÚĨÛĮØ²ÛĮ":4940,"ĠÙħØ§Ø¯":4941,"Ġattention":4942,"ĠØ³Ø¨Ø²":4943,"ĠÚĨÙĪØ¨":4944,"ĠÚ©ÙĪÚĨÚ©ÛĮ":4945,"cus":4946,"ĠÚ©ÙĪØ±":4947,"Ġmount":4948,"ĠØ¯ÙģØª":4949,"ĠØ¢Ø³ÙħØ§ÙĨ":4950,"ĠÙħØ´ØªØ±":4951,"bon":4952,"iction":4953,"ĠØ«Ø±ÙĪ":4954,"ĠØ¢ÙģØ±ÛĮ":4955,"Ġmiss":4956,"Ġsuggest":4957,"Ġaccess":4958,"ĠØ³ØªØ§Ø±Ùĩ":4959,"ĠÚ¯ÙĪÛĮÙĨØ¯":4960,"ume":4961,"Ġstrange":4962,"Ġir":4963,"Ġdue":4964,"ØŃÛĮÙĩ":4965,"ĠÙĪØ¸":4966,"ĠØªÚ©Ø±Ø§Ø±":4967,"add":4968,"ĠØ§ÙĨÚ¯Ø´Øª":4969,"Ġfollowed":4970,"ÙħØ«ÙĦ":4971,"Ġworked":4972,"Ø¸ÙĩØ§Ø±":4973,"ĠÙĤÛĮÙħØª":4974,"ĠØ§ÙĦÛĮ":4975,"ox":4976,"Ġready":4977,"Ġsend":4978,"ĠØ§Ø®ÙĦØ§":4979,"Ø²Ø§":4980,"ĠÛ±Ûµ":4981,"iam":4982,"rid":4983,"uk":4984,"Ä±":4985,"Ġfurther":4986,"ĠÚ©ÙĦØ§Ùĩ":4987,"Ġestab":4988,"ĠParis":4989,"anced":4990,"Ġdoll":4991,"ĠÛ±Û³Û":4992,"ĠØ¨Ø¨ÛĮÙĨÙħ":4993,"ara":4994,"iment":4995,"ĠÙħØ¹Ø±ÙģÛĮ":4996,"Ø«Ø§Ø±":4997,"Ġcoll":4998,"Ġgold":4999,"ĠGeor":5000,"ĠØªÙĪØ§ÙĨØ§ÛĮÛĮ":5001,"ĠØªÙĦÙĪÛĮØ²ÛĮ":5002,"raft":5003,"ĠÙĩÙĪØ§Ù¾ÛĮÙħ":5004,"ĠØ¨Ø¯ÛĮ":5005,"Ġways":5006,"Ġstri":5007,"Ġlived":5008,"ĠØ§ÙĨØ¯Ú©ÛĮ":5009,"Ġbott":5010,"Ġteac":5011,"ĠÙĨØ¯Ø§Ø±ÙĨØ¯":5012,"ĠØ²ØŃ":5013,"ĠÙħØ±Ø¯Ùĩ":5014,"ÙħÙĪÙĨ":5015,"ĠÙħÙĨØ§Ø·":5016,"Ġwood":5017,"omen":5018,"ĠØ§ÙĤØ¯Ø§Ùħ":5019,"Ġfing":5020,"ĠHar":5021,"Ø¹ÛĮÛĮÙĨ":5022,"ĠØªØ®Øª":5023,"ĠFl":5024,"cks":5025,"ĠÙħÙĪÙģÙĤÛĮØª":5026,"ĠØªÙĨØ¯":5027,"ĠØŃØ²Ø¨":5028,"Ġparty":5029,"Ġcapt":5030,"Ġoccur":5031,"ging":5032,"Ø²Ø§ÙĨ":5033,"Ġdom":5034,"ĠÙĤÙĪØ§ÙĨ":5035,"ĠPart":5036,"ears":5037,"Ġwrote":5038,"Ġdeveloped":5039,"estern":5040,"ĠØ´ÙħØ§ÙĦÛĮ":5041,"ĠÙ¾Ø³Øª":5042,"ĠØ¨Ø±Ø®Ø§Ø³Øª":5043,"ĠØ¢ÙħÛĮ":5044,"ency":5045,"Ġx":5046,"ushed":5047,"istan":5048,"ruction":5049,"ØµÙģ":5050,"ĠÙĦØª":5051,"ĠÚ¯ÛĮØ±ÙĨØ¯":5052,"ED":5053,"Ġtree":5054,"Ġeff":5055,"Ø®ÙĪØ§Ø¨":5056,"ĠØ±ÙģØªÙħ":5057,"Ġquiet":5058,"ĠØ¯ÚĨØ§Ø±":5059,"ĠÚ©Ø§Øº":5060,"ĠØ±Ø§ØŃØª":5061,"Thank":5062,"ĠØ±ÙĪØ§ÙĨ":5063,"ĠØ´Ø§ÙĨÙĩ":5064,"Ġsepar":5065,"ĠÚĨÛĮØ²ÙĩØ§ÛĮ":5066,"ĠØ§ØŃØªØ±":5067,"ĠØ¯ÙĩÙĨØ¯Ùĩ":5068,"ĠØ®Ø§ØµÛĮ":5069,"ĠØ³Ø¨Ú©":5070,"etic":5071,"ĠÛ¹":5072,"Ġrepe":5073,"ĠÙĦØ§ØªÛĮÙĨ":5074,"Û±Û¹Û":5075,"ĠFrance":5076,"Ġsitu":5077,"artment":5078,"ĠØµØŃÙĨÙĩ":5079,"Ġcompl":5080,"cient":5081,"itude":5082,"Ġseven":5083,"Ġaff":5084,"Ġexperience":5085,"Ã¼":5086,"ĠÚ¯Ø´":5087,"Ù¾Ø¯Ø±":5088,"ÙĦÛĮØª":5089,"Ġfav":5090,"ØµØ¯Ø§ÛĮ":5091,"ĠÙĪØ§Ø±":5092,"Ġsuff":5093,"Ġcells":5094,"Ġcause":5095,"ĠBritish":5096,"ique":5097,"ĠØ¢Ø¯":5098,"Ġbehav":5099,"Ø´ÙĨØ§Ø³":5100,"Ġbeautiful":5101,"Ø¯Ø³":5102,"ĠÙħØ§Ø¯Ùĩ":5103,"reme":5104,"ĠÚ¯Ø±ÙģØªÙĨØ¯":5105,"Ø®Ø±":5106,"ĠØ¬ÙĦÙĪÛĮ":5107,"raid":5108,"ĠØ¨Ø±ÛĮØªØ§ÙĨÛĮØ§":5109,"ĠÙĨØ¯Ø§Ø´ØªÙĩ":5110,"Ø§ÙģØª":5111,"Ġchem":5112,"Ġpull":5113,"ĠØ®ÙĪØ±Ø¯Ùĩ":5114,"Ġvalue":5115,"ball":5116,"ked":5117,"raz":5118,"Ġstopped":5119,"omb":5120,"Ġobser":5121,"ĠØ§Ø¸ÙĩØ§Ø±":5122,"ĠÙħÙĪØ¬Ø¨":5123,"Ġconsider":5124,"Ġsimply":5125,"Ġintrodu":5126,"ingly":5127,"Ġcrit":5128,"yl":5129,"Ġtype":5130,"ĠØ·ÙĦ":5131,"From":5132,"ĠÙħØ¨Øª":5133,"Ø§Ø±ÛĮØ³":5134,"ĠØ¢ÙħØ¯ÙĨØ¯":5135,"Ġtill":5136,"Ġfast":5137,"ĠMarch":5138,"Ġattempt":5139,"ĠÙĤØ¨ÙĪÙĦ":5140,"Ġmovement":5141,"Ġreached":5142,"Ġ25":5143,"ĠØ§Ø·ÙħÛĮÙĨØ§ÙĨ":5144,"sequ":5145,"Ġvarious":5146,"ĠØªØ¹ÛĮÛĮÙĨ":5147,"Ġbecom":5148,"ĠØªØŃÙħÙĦ":5149,"ØªÙħÙĨØ¯":5150,"ĠÛ´Û":5151,"Ġappeared":5152,"do":5153,"ĠØ§ÙĤØªØµØ§Ø¯":5154,"Ġcontinued":5155,"ĠØ®Ø¨":5156,"ĠÚĨÙĨØ¯Ø§ÙĨ":5157,"ĠÚ¯ÙĪÛĮÙħ":5158,"Ġformer":5159,"Ġinn":5160,"ĠÙĨÙĤÙĦ":5161,"Ġglass":5162,"ĠÙħÛĮØ´":5163,"ĠÎ":5164,"Ġrob":5165,"ĠØ²ÙĨØ¯Ø§ÙĨ":5166,"owers":5167,"ĠØºÙħ":5168,"Ġkilled":5169,"ĠEn":5170,"Ġnamed":5171,"ĠÛ±Û¹Û¶Û":5172,"ague":5173,"ĠÃ":5174,"Ú©Ø±ÙĪ":5175,"icle":5176,"ĠÙħØ¯ÛĮØ±ÛĮØª":5177,"ĠØºØ±Ø¨ÛĮ":5178,"ĠØªÚ©ÙĨ":5179,"Ø§ÙĪØ±Ø¯":5180,"Ġesc":5181,"Ġstanding":5182,"uel":5183,"ÙĪÛĮÙĨ":5184,"ĠØºÙĦ":5185,"Ġimmedi":5186,"ĠØªØŃÙĤÛĮÙĤ":5187,"Ġsor":5188,"Ġbes":5189,"ĠVal":5190,"ĠÙ¾Ø²Ø´Ú©ÛĮ":5191,"ĠØ¬Ø¯":5192,"Ġblue":5193,"ĠMus":5194,"agement":5195,"ĠØ´Ø§Ø¯":5196,"lling":5197,"Ġge":5198,"Ġcommunity":5199,"Ġgirls":5200,"ĠÙħØ¨":5201,"ĠâĪ":5202,"ĠMad":5203,"Ġterri":5204,"ĠÙ¾ÙĦÛĮØ³":5205,"ĠÙģØ±ÙĩÙĨÚ¯":5206,"sc":5207,"ills":5208,"ĠÙħÙĤØ§Ùħ":5209,"ĠÙĩÙħÚ©Ø§Ø±ÛĮ":5210,"ama":5211,"ĠÙĨØ´Ø§ÙĨÙĩ":5212,"ournal":5213,"Sh":5214,"ĠØ§Ø¨Ø²Ø§Ø±":5215,"ĠÙ¾ÛĮØ´Ø±ÙģØª":5216,"ØªØ´Ø§Ø±":5217,"ĠØ±Ø³Ø§ÙĨØ¯":5218,"ĠBut":5219,"inct":5220,"Ø§Ø¨Ø·":5221,"Ġfine":5222,"ĠHist":5223,"itect":5224,"Ġdistrict":5225,"ibility":5226,"ĠØ¯Ø§Ø®ÙĦÛĮ":5227,"ĠØ¢ÙģØª":5228,"Ø§Ú©ÛĮ":5229,"ÙĩÙĪØ±":5230,"ica":5231,"Ġmiddle":5232,"his":5233,"ĠØªÙĪØ§ÙĨØ³ØªÙħ":5234,"ĠØ´Ø§ÛĮ":5235,"Ġstreet":5236,"ĠÙħÙĤØ§ÛĮ":5237,"AS":5238,"ÙĪÛĮØ¯":5239,"Ø¯Ø§Ø¯":5240,"usion":5241,"ta":5242,"Ġsea":5243,"Ġmouth":5244,"ĠÙĤÙĩ":5245,"there":5246,"ĠØ§ÙģØ²Ø§Ø±":5247,"ĠØ¯Ø±Ø®":5248,"who":5249,"ĠØ®Ø§Ø±Ø¬ÛĮ":5250,"Ġfif":5251,"Ġpublished":5252,"Ġneighb":5253,"Ġmeant":5254,"ĠØ§Ø¹ØªÙħØ§Ø¯":5255,"Ø³Ø§ÛĮ":5256,"ĠMed":5257,"Ġjud":5258,"wered":5259,"Ġdie":5260,"Ġterm":5261,"ÙĪØ±Ø§ÙĨ":5262,"ĠÙĨÙĤØ§Ø´ÛĮ":5263,"ĠØ®ÙĪØ¯Øª":5264,"ĠJune":5265,"ray":5266,"isf":5267,"ĠÙħÙĤØ§ÛĮØ³Ùĩ":5268,"ĠØ¨Ø¨ÛĮÙĨØ¯":5269,"Ø±Ø§ÙĨÛĮ":5270,"Ġver":5271,"Ġspecific":5272,"Ú©ÙĨØ´":5273,"ĠØŃÙĦÙĤÙĩ":5274,"ĠØ³ÙĪØ¯":5275,"ĠÙĨØ§Ø®":5276,"ny":5277,"ĠØ³Ø§Ùħ":5278,"ĠØªØ¹Ø¬Ø¨":5279,"ĠÚ¯Ø³ØªØ±Ø´":5280,"Ø³Ø§Ø²ÛĮ":5281,"Ġseeing":5282,"ĠØ§ØŃØ³Ø§Ø³Ø§Øª":5283,"ĠØ³Ú©ÙĪØª":5284,"Harry":5285,"ĠÙĨÛĮØ±ÙĪÙĩØ§ÛĮ":5286,"Ġpath":5287,"ĠØ´Ø®ØµÛĮØª":5288,"Ġdepend":5289,"ĠØ¨Ø²ÙĨØ¯":5290,"ĠØ§ÙĪÙĤØ§Øª":5291,"ĠÙħØ¹ÙħÙĪÙĦ":5292,"Ø§Ø±ÙĪ":5293,"ey":5294,"ĠÙħÙģÙĩ":5295,"ĠØ´Ø§Ø®":5296,"ĠØ³ÛĮÙħ":5297,"aven":5298,"ĠÙħØ³ÙĦ":5299,"ĠØ²Ø¯ÙĨØ¯":5300,"ØªØµ":5301,"Ø³ÙĦ":5302,"Ġdecl":5303,"Ġworks":5304,"Ø§Ø¯Ø«":5305,"ĠÙĩØ³ØªÛĮ":5306,"ĠØ¨ÛĮØ§ÛĮØ¯":5307,"Ġpurp":5308,"ĠÚĨØ§Ø±":5309,"ĠØ¨Ø¨":5310,"Ø§ÙĨÙĪØ³":5311,"ĠØªÙģØ§ÙĪØª":5312,"ĠØªÚ©Ùĩ":5313,"ĠÚĨØ§Ù¾":5314,"ĠØ±Ùģ":5315,"ÙĤØ±Ø§Ø±":5316,"Ġbab":5317,"ĠJan":5318,"inal":5319,"Ø¬Ø§Ø³Øª":5320,"ĠØ¹ÙĦÛĮÙĩ":5321,"ĠØ§ÙĨÚ¯Ø§Ø±":5322,"ĠØ§Ø³Ù¾Ø§ÙĨÛĮØ§":5323,"ĠÛ±Û¹Û´Û":5324,"Ġmaybe":5325,"ights":5326,"ĠAfrica":5327,"ĠÙĪÛĮÙĨ":5328,"Ġafraid":5329,"ĠÙ¾Ø±Ø¯Ø§Ø²":5330,"ĠRes":5331,"ĠCal":5332,"ĠØŃØ±ÙģÙĩ":5333,"ĠÚ©Ø±Ùĩ":5334,"ĠØ§ÙĨÙĤÙĦ":5335,"ĠØ®Ø³ØªÙĩ":5336,"ĠØªÙĤØ³ÛĮÙħ":5337,"ĠIndia":5338,"ĠØªØ¦":5339,"ĠØ¬Ø²ÛĮØ±Ùĩ":5340,"Ġfloor":5341,"ĠØ§Ø®ÛĮØ±":5342,"Ġavail":5343,"ĠÙģÙĦØ³":5344,"uary":5345,"Ġproblems":5346,"ĠÙĪÙĤ":5347,"Ú¯Ø°Ø§Ø±":5348,"Ġdin":5349,"ĠØ¯Ø§ÙĨÛĮØ¯":5350,"ĠÚ©ÙĦÙħØ§Øª":5351,"CA":5352,"ØŃÙĦ":5353,"ĠØ¯Ø±ÛĮØ§ÛĮÛĮ":5354,"Ġenvironment":5355,"Ġknowledge":5356,"Ġ2012":5357,"18":5358,"Ġ$":5359,"ptember":5360,"Ġfix":5361,"emy":5362,"ĠØ³Ø§Ø²Ø¯":5363,"ya":5364,"ĠÙĨÚ©ØªÙĩ":5365,"ĠEarth":5366,"ĠØ¹ÙħØ±":5367,"Ġespecially":5368,"ĠØ«Ø¨Øª":5369,"ĠÙĩÙħÚĨÙĪÙĨ":5370,"Ġrights":5371,"ĠØ¯Ø§ÙĨØ¯":5372,"ĠDon":5373,"rupt":5374,"ĠØ¢ÙĩÙĨ":5375,"ĠÙģØ±Ø§ÛĮÙĨØ¯":5376,"Ġoffice":5377,"ĠØªÙĩÛĮÙĩ":5378,"Ġwrite":5379,"Ġinclude":5380,"Ġast":5381,"Ú©Ø´ÛĮ":5382,"Ġcomplex":5383,"Ø´Ø±":5384,"ĠÙĩÙĪØ§ÛĮÛĮ":5385,"Ġrespons":5386,"Ġlearned":5387,"Ġbeyond":5388,"ĠÙ¾ÛĮØ§Ùħ":5389,"ĠSec":5390,"ĠØ§Ø·Ø§ÙĤ":5391,"ĠÙĤÙĪØ§ÙĨÛĮÙĨ":5392,"ounced":5393,"chie":5394,"ĠØ¬Ø§ÙĦØ¨":5395,"wo":5396,"ĠÙħÙĩØ§":5397,"ĠÙģØ¶Ø§ÛĮ":5398,"Ġsister":5399,"chan":5400,"Ġsett":5401,"ĠÙħØ´Ø§Ø¨Ùĩ":5402,"ĠÙģÙĨØ§":5403,"ĠÙĨÙĩØ§Ø¯":5404,"ĠSan":5405,"ĠÚ©Ø§Ø±Ø¨Ø±Ø¯":5406,"ĠÙĪØ§ÙĤØ¹ÛĮØª":5407,"ÙĪØ±Ø´":5408,"Ġhop":5409,"ĠØ¨Ø´ÙĪØ¯":5410,"oices":5411,"ĠÙħØ´Ú©ÙĦØ§Øª":5412,"Ø³Ùģ":5413,"ĠØ§ÙģØªØ¯":5414,"Ġcarry":5415,"ĠPa":5416,"ĠÙĨÛĮÙĪÛĮ":5417,"Ġcivil":5418,"ĠÙģØ§Ø±":5419,"Ġ50":5420,"Ġreplied":5421,"ĠÙĪÛĮÙĦ":5422,"Ġfund":5423,"ĠØ¨Ø¯ÛĮÙĨ":5424,"Ú¯Ø§Ø±ÛĮ":5425,"Ø§Ø²Ø¯Ùĩ":5426,"ager":5427,"Ġpred":5428,"itor":5429,"ĠØ¨Ú¯ÙĪÛĮ":5430,"osing":5431,"itional":5432,"ĠØ§ØªÙģØ§ÙĤÛĮ":5433,"Ġtwenty":5434,"iff":5435,"ĠÙĦÙĨØ¯ÙĨ":5436,"Ġeffort":5437,"Ġpeace":5438,"Ġmodern":5439,"Un":5440,"Ø³Ú©Ùĩ":5441,"ĠØ¬ÙĨÚ¯ÙĦ":5442,"uf":5443,"Ã¡":5444,"ĠØ®Ø´Ú©":5445,"Ġdesp":5446,"Ġexactly":5447,"ĠÙħØ±Ú©Ø²ÛĮ":5448,"ĠCity":5449,"ĠØ±ÛĮØ®Øª":5450,"ĠÚ©ÙĨÙĨØ¯Ú¯Ø§ÙĨ":5451,"Ġclaim":5452,"ĠØ¨ÛĮØ¯Ø§Ø±":5453,"ĠØ¬Ø³":5454,"ÙĪÛĮÚĨ":5455,"Ù¾ÙĦ":5456,"ĠÙ¾ÙĨØ§Ùĩ":5457,"ĠÙĨÙĪÛĮ":5458,"lock":5459,"Ġeveryone":5460,"reed":5461,"Ġprev":5462,"ĠØ§Ø¯Ø§Ø±Ùĩ":5463,"ĠØªÙĦÙģÙĨ":5464,"ators":5465,"ĠØ¢ÙĦÙħØ§ÙĨÛĮ":5466,"ites":5467,"ÙĪØ§Ø¹":5468,"Ø¨Ø²Ø±Ú¯":5469,"Ø¨Ø§Ø±ÛĮ":5470,"Ġassoci":5471,"Ġreleased":5472,"ĠâĢĿ":5473,"ĠØªØ§Ùħ":5474,"bec":5475,"Ġanyone":5476,"ĠØ³ÙĨØª":5477,"ĠØ¨ÛĮÙĨØ¯":5478,"ĠØ¨Ø§Ø´Ùĩ":5479,"Ġtrees":5480,"ĠÚ©Ø±ÛĮØ³ØªÙģ":5481,"ĠØ´ÛĮÙħÛĮØ§ÛĮÛĮ":5482,"ĠÙħØ¯Ø§Ø±":5483,"ĠØ³ÙĪØ²":5484,"ĠÛ±Û¹":5485,"ĠÚ©ÙĦØ§ÛĮØ¯":5486,"ĠCo":5487,"ĠØ¢Ø³ÛĮØ¨":5488,"ength":5489,"ĠØ¢ÙĦØ¨ÙĪÙħ":5490,"asc":5491,"ĠØ¨ÙĩØ±Ùĩ":5492,"ĠØ¯Ø¹ÙĪØª":5493,"Ġwat":5494,"Ġmaster":5495,"resh":5496,"Ġeasy":5497,"ĠØ³Ø§ÙĦÚ¯ÛĮ":5498,"ternet":5499,"ĠÙĨÛĮØ³ØªÙħ":5500,"Ġcollect":5501,"ĠÙĤÙĪÙĦ":5502,"ĠÙħØ¯ÛĮØ±":5503,"Ġspoke":5504,"ography":5505,"ĠÐ":5506,"ĠÙĤÙĩØ±":5507,"ĠØ³ÙĪØ±":5508,"ĠØ§ÙģØ±Ø§Ø¯ÛĮ":5509,"ĠÙħØ°Ùĩ":5510,"ĠÙħØ§ÛĮÙĦ":5511,"ĠÙĨØ§Øª":5512,"dom":5513,"ÙħØ§Ø¯Ø±":5514,"Ġhappen":5515,"ĠØ´ÙĩØ±ÛĮ":5516,"ĠØ§Ø³Ù¾Ø§ÙĨÛĮØ§ÛĮÛĮ":5517,"Ġofficial":5518,"arily":5519,"Ġfort":5520,"ram":5521,"Ġneeded":5522,"Ø§ÙĨÛĮÙĩ":5523,"ĠÙħÙĨØ§Ø·ÙĤ":5524,"Ġtoward":5525,"Ġregard":5526,"ĠØªÙĪØµÛĮÙģ":5527,"ĠØ¯ÙģØªØ±":5528,"ÙĪØªÛĮ":5529,"Ġking":5530,"ĠÙĤØ±ÙħØ²":5531,"ĠÙģØ±Ø²ÙĨØ¯":5532,"ĠØ§ÙĨØªØ´Ø§Ø±":5533,"Ġ2008":5534,"iant":5535,"ĠChristophe":5536,"ĠÙ¾Ø§Ø±ÛĮØ³":5537,"Ø§ÙĦÛĮØ§":5538,"ĠÙĩØ±ÚĨÙĩ":5539,"Ġmarried":5540,"ĠØ®Ø±ÙĪ":5541,"ĠØªØŃØµÛĮÙĦ":5542,"Ġ2011":5543,"Ġfac":5544,"ĠBer":5545,"owd":5546,"ĠÙ¾Ø§ÙĨ":5547,"set":5548,"Ġwhis":5549,"Ġdoctor":5550,"Of":5551,"ĠØ¹ÙĤÛĮØ¯Ùĩ":5552,"ĠØªÚ©ÙĨÙĪÙĦÙĪÚĺÛĮ":5553,"ĠØªØ±Ø¯":5554,"gorith":5555,"ĠÚ¯ÙħØ§ÙĨ":5556,"Ġwouldn":5557,"ĠØŃÚ©ÙĪÙħ":5558,"Ġdoubt":5559,"iverse":5560,"ĠÙ¾Ø®Ø´":5561,"ĠØ±Ø³ÛĮØ¯ÙĨ":5562,"ĠÚ©ÛĮÙģ":5563,"ĠØ¨Ø±Ú¯Ø²Ø§Ø±":5564,"Ġquestions":5565,"Ġshare":5566,"Ġ2009":5567,"ugust":5568,"Ġcast":5569,"ris":5570,"Ø±ÙĪÙħ":5571,"Ø³ÛĮÙĨ":5572,"Ġinternational":5573,"ĠÙģÙĤ":5574,"irth":5575,"ĠÙħÙĪÙĤØ¹ÛĮØª":5576,"ĠØ¹ÙĦÙħ":5577,"Ġstra":5578,"oly":5579,"Ġspent":5580,"ĠØ¯Ø³ØªØ±Ø³ÛĮ":5581,"ctober":5582,"ban":5583,"ĠMon":5584,"ĠØ§Ø³Ø§Ø³ÛĮ":5585,"Ġcommunic":5586,"ĠÙĪØ¶Ø¹ÛĮØª":5587,"ĠÚ©Ø§ÙħÙ¾ÛĮÙĪØªØ±":5588,"Ø±Ø§ÙĤ":5589,"ĠØ¯Ø´ÙħÙĨ":5590,"ĠÙħØŃØ¨":5591,"Ġideas":5592,"Ġapplic":5593,"ĠØ§ÙģÚ©Ø§Ø±":5594,"Ø¯Ø§ÙĪ":5595,"Ú©ÙĦÛĮ":5596,"icro":5597,"Ġworth":5598,"AT":5599,"cil":5600,"ĠPress":5601,"Ġprim":5602,"ĠØ¨Ø¨Ø±":5603,"ĠØ±Ø§ÙĩÛĮ":5604,"Ġcontr":5605,"ĠSeptember":5606,"Ġindepend":5607,"ĠRussian":5608,"ĠÚ¯Ø°Ø§Ø±":5609,"ĠÙĪØ±ÙĪØ¯":5610,"ĠØ¹Ø§Ø¯ÛĮ":5611,"ĠØ®Ø¯ÙħØ§Øª":5612,"12":5613,"Ú©ØªÛĮ":5614,"ĠÚ¯Ø±ÙģØªÙħ":5615,"Ġexpression":5616,"Ġdrink":5617,"ĠDav":5618,"ĠØ¯ÙĤÛĮÙĤ":5619,"Ġdig":5620,"Ġpack":5621,"Ø¯ÙĪØ±":5622,"Ġsal":5623,"ÚĺÚ¯ÛĮ":5624,"ĠØ¨Ø´Ø±":5625,"?\"":5626,"Ġpolic":5627,"ĠØ²ÛĮØ¨Ø§ÛĮÛĮ":5628,"Ġeat":5629,"iers":5630,"ĠØ§ÙĨØ¯ÛĮØ´Ùĩ":5631,"Ġpiece":5632,"reng":5633,"ØªÙħØ§Ùħ":5634,"ĠEuropean":5635,"ĠØ§ÙĦÚ©ØªØ±":5636,"Ġdanger":5637,"ferences":5638,"rum":5639,"ĠWest":5640,"ĠØ¬Ø¯ÛĮØ¯ÛĮ":5641,"Ġwaiting":5642,"ĠGermany":5643,"Ġfair":5644,"ĠØ¢ÙĨØ¯":5645,"ĠØ±ÙĪØ¯Ø®Ø§ÙĨÙĩ":5646,"ĠJew":5647,"ĠØ³ÛĮÙĨ":5648,"Ġda":5649,"ĠØ±ÙĪÙħ":5650,"what":5651,"irm":5652,"Ø±ÛĮÙħ":5653,"Ø¬Ø§ÛĮ":5654,"ĠØ§ÛĮÙĨÙĩ":5655,"ĠJuly":5656,"Ġmeaning":5657,"ĠÙĨÛĮÙĪÛĮÙĪØ±Ú©":5658,"ĠØ¨ÛĮÙĨÛĮØ¯":5659,"Ġcop":5660,"Ġrelationship":5661,"ĠÙĦØ·":5662,"Ġindeed":5663,"ĠØ¹Ø§ÙħÙĦ":5664,"ĠAt":5665,"ĠÙħØ¹ØªÙĤ":5666,"Ġtemper":5667,"ĠØªØ§ÙĨ":5668,"Ú©ÙĨØ§ÙĨ":5669,"fered":5670,"ĠØ±ÙĪØ³ÛĮÙĩ":5671,"Ø§Ø¯ÙĩØ§ÛĮ":5672,"ĠÙħÚ¯Ø±":5673,"Ø¦ÙĪÙĨ":5674,"uses":5675,"Ġur":5676,"ĠØ§ØµÙĦ":5677,"ĠØ§ÙĩÙĦ":5678,"ĠØ¢Ø´Ú©Ø§Ø±":5679,"Ġhy":5680,"Ġsilence":5681,"Ø´Ú©":5682,"Ġsize":5683,"ĠØ³Ø§Ø¨ÙĤ":5684,"ĠÙħØ¨Ø§Ø±Ø²Ùĩ":5685,"lying":5686,"Ġloved":5687,"Ġchance":5688,"Ġbox":5689,"Ġhorse":5690,"Ġcompletely":5691,"Ġmid":5692,"ilos":5693,"ĠÛ°Û°Û°":5694,"ĠNe":5695,"Ġeducation":5696,"omp":5697,"ned":5698,"Ø¨Ø±ÙĪ":5699,"ĠEngland":5700,"Ø§Ú©ÙĨÙĪÙĨ":5701,"het":5702,"ĠÙħÙĤØ§ÙĪ":5703,"ĠØ³Ù¾Øª":5704,"Ġburn":5705,"Ġnorm":5706,"ĠØªØµØ§Ø¯":5707,"Ġ2013":5708,"ĠÙ¾Ø±ÙĪØª":5709,"ĠÙĪØ³Ø·":5710,"ĠPres":5711,"ĠØªØ§Ø«ÛĮØ±":5712,"ĠÙħØ´ØªØ±Ú©":5713,"ĠÙģØµÙĦ":5714,"ĠÙħÙĩÙĨØ¯":5715,"Ġcapital":5716,"ustom":5717,"Ġamount":5718,"ĠØªØ§Ø±ÛĮÚ©":5719,"ĠØ§ÙĦÙĩ":5720,"Ġlargest":5721,"Ø¬Ø²":5722,"ĠØ¬Ø¹":5723,"ĠØ§ÙĨØ¯ÛĮ":5724,"ibly":5725,"Ġregion":5726,"Ġrunning":5727,"ĠØ³Ø§ÛĮÙĩ":5728,"bum":5729,"ĠØ´ÛĮÙĪÙĩ":5730,"ka":5731,"ĠPer":5732,"Ġaffect":5733,"pril":5734,"ĠØ¢Ø«Ø§Ø±":5735,"ĠÚ©Ø±Ø¯ÛĮ":5736,"Ġconcept":5737,"ĠØ¯ÙĦØ´":5738,"Ġchair":5739,"Ġconversation":5740,"Ġlooks":5741,"ÙĦØ²":5742,"ÙĤØ§ÙĨ":5743,"ĠÙĨØ§ÙħÛĮØ¯Ùĩ":5744,"Ġ>":5745,"Ġhost":5746,"ĠÙĩØ§ÛĮØ´Ø§ÙĨ":5747,"ossible":5748,"ĠØªØ¬Ø§Ø±ÛĮ":5749,"Ġsearch":5750,"bsite":5751,"ĠÙĢ":5752,"ĠÙħØŃØ¶":5753,"Ġstudents":5754,"Ġcoun":5755,"Ġprinci":5756,"Ġwarm":5757,"ĠØ³Ø®ÙĨØ§ÙĨ":5758,"Ġparents":5759,"ĠØªØºÛĮÛĮØ±Ø§Øª":5760,"Ġmunicipality":5761,"ĠØ¯ÙģØ§Ø¹":5762,"ĠØ´ÙħØ§Ø±Ùĩ":5763,"ÙĪØ±Ùħ":5764,"ĠØ³Ø±Ø²ÙħÛĮÙĨ":5765,"izing":5766,"Ġgoes":5767,"Ġsight":5768,"ĠÙģÙĨØ§ÙĪØ±ÛĮ":5769,"well":5770,"iny":5771,"ĠSam":5772,"Ġband":5773,"ĠØ²ØŃÙħØª":5774,"ĠØ®Ø¯Ø§ÛĮ":5775,"Ú©Ø±Ùħ":5776,"Ø¨Ø®Øª":5777,"bling":5778,"ovember":5779,"ĠØ§ÙĪÙĨÙĩØ§":5780,"lands":5781,"ĠØ·Ø¨ÛĮØ¹Øª":5782,"Ġproduced":5783,"aur":5784,"ĠØ¯ÙĤÛĮÙĤØ§":5785,"ÙħÛĮÙĦ":5786,"ĠÙĨØ§Ø´ÛĮ":5787,"ĠØ³Ø¤":5788,"Ø®Ø§Øµ":5789,"Ú¯Ø§ÙĨÛĮ":5790,"Ġstates":5791,"Ġcam":5792,"oid":5793,"ĠØ±ÛĮØ²":5794,"ĠChina":5795,"ĠØ®Ø´ÙĪÙĨØª":5796,"Ġisn":5797,"Ø¹Ø¯Ø§Ø¯ÛĮ":5798,"Ġavailable":5799,"Ġdress":5800,"ĠÙĨØ¨Ø±Ø¯":5801,"aud":5802,"ĠØªØ§Ø±ÛĮÚ©ÛĮ":5803,"Ġmember":5804,"Ġinit":5805,"Ġ2006":5806,"ĠØ¢Ø´ÙĨØ§":5807,"Ġstreng":5808,"ĠØ³Ù¾ØªØ§ÙħØ¨Ø±":5809,"Ġ[":5810,"gress":5811,"Ġrul":5812,"ify":5813,"ĠØ®ÙĪØ§ÙĨØ¯ÙĨ":5814,"Ġsignific":5815,"minist":5816,"Ġfem":5817,"199":5818,"ĠØ§ØŃØªØ±Ø§Ùħ":5819,"Ø¦Øª":5820,"Ġfigure":5821,"ald":5822,"ĠÙĨÚ¯Ø±Ø§ÙĨ":5823,"ĠØ¨Ø¯ÙĩÙħ":5824,"cember":5825,"ĠÚ¯ÛĮØ§Ùĩ":5826,"ĠØµØ§ØŃØ¨":5827,"Ø§ÙģÙĤ":5828,"Ġep":5829,"ĠPal":5830,"ĠØ¨ÙģÙĩÙħ":5831,"ĠÚ¯ÙģØªÙĨ":5832,"ĠTom":5833,"ification":5834,"aled":5835,"iced":5836,"Ġacqu":5837,"Ġpersonal":5838,"Ġweeks":5839,"Ġeconomic":5840,"ER":5841,"ĠØ¨Ø·":5842,"arden":5843,"mit":5844,"ĠØ¶Ø¹ÛĮ":5845,"ĠØ³Ø®ØªÛĮ":5846,"ĠOctober":5847,"Ġphysical":5848,"ĠAustral":5849,"Ã¶":5850,"room":5851,"ĠÙĤØ§ÛĮÙĤ":5852,"ĠÙĨÙħØ§ÛĮÙĨØ¯":5853,"Ġparts":5854,"ĠØ¬Ø´ÙĨ":5855,"ĠØ±ÛĮØ§Ø¶ÛĮ":5856,"ĠÙħØŃÚ©Ùħ":5857,"Ġbroad":5858,"Ġrate":5859,"ĠØ¯ÛĮÚ¯Ùĩ":5860,"Ġliter":5861,"During":5862,"Ġcode":5863,"ĠÙĤØ¶ÛĮÙĩ":5864,"Ġnearly":5865,"ĠØªÛĮØ±Ùĩ":5866,"Ø±ÙĪØ²Ùĩ":5867,"ĠØŃØ§ØµÙĦ":5868,"Ġcrowd":5869,"umb":5870,"Or":5871,"ĠMor":5872,"Ġemot":5873,"Ġaction":5874,"ĠÚ©ÙĦØ§":5875,"Ø§Ø±Ú©Øª":5876,"ĠShe":5877,"elligence":5878,"ÙĪÙħÛĮ":5879,"Ġclot":5880,"ghed":5881,"Ø§Ø¬Ùĩ":5882,"Ġwild":5883,"Ø¢Ùĩ":5884,"ĠÙĪÛĮÚĺÚ¯ÛĮ":5885,"ĠBar":5886,"kn":5887,"ĠØ¨ÙĪÛĮ":5888,"ĠØ§ÙħÛĮØ¯ÙĪØ§Ø±":5889,"aff":5890,"ĠØ§ÙĨØ¯Ø§Ø²":5891,"Ġtravel":5892,"Ġtit":5893,"ero":5894,"ĠØ§ØµØ·":5895,"Ġentered":5896,"ĠØ§ÙĨÙĪØ§Ø¹":5897,"Ġgroups":5898,"ĠÙģØ±Ø³ØªØ§Ø¯":5899,"ĠØ¹ÙĦÛĮ":5900,"ĠÚ¯Ø±ÛĮÙĩ":5901,"ĠÙħØ³Ø§ÙģØ±":5902,"ĠÚ¯Ø§Ø²":5903,"ĠØ¶Ø¯":5904,"Ġexec":5905,"Ġvideo":5906,"ĠÛ±Û²":5907,"ĠÙ¾Ø±Øª":5908,"ĠØ§ÙģØªØ®":5909,"Ġaud":5910,"aded":5911,"Ġsatisf":5912,"ĠØ¨Ø²Ø±Ú¯ØªØ±ÛĮÙĨ":5913,"was":5914,"Ġstraight":5915,"ĠÙħØ³Ø§Ø¦ÙĦ":5916,"Ġrole":5917,"ĠØŃØ¯Ø§ÙĤÙĦ":5918,"Ú©ÛĮÙĨ":5919,"ĠÙĩÙĨØ±ÛĮ":5920,"ĠAugust":5921,"Ġversion":5922,"Ġdeg":5923,"ĠDr":5924,"ĠØ±ÙĪØ§Ø¨Ø·":5925,"ĠÙħÙħÙĨ":5926,"Ġlikely":5927,"Ġpicture":5928,"Ph":5929,"Ġlady":5930,"ĠMary":5931,"Ġslight":5932,"ĠApril":5933,"ĠØ¸Ø±Ùģ":5934,"Ġtakes":5935,"atory":5936,"unk":5937,"Ġallow":5938,"Ġaddress":5939,"ĠØ¯Ø³":5940,"Ġalgorith":5941,"Ġvict":5942,"Ġspend":5943,"while":5944,"ĠÙĪØ§ØŃØ¯":5945,"Ġlif":5946,"ĠÙĨÙĪÛĮØ³ÙĨØ¯Ùĩ":5947,"Ġmoving":5948,"rey":5949,"ĠØ§ÙĨØ¬ÙħÙĨ":5950,"ĠÙĩØ³ØªÙĩ":5951,"olute":5952,"atever":5953,"Ġachie":5954,"Ġseems":5955,"ĠÙģÙĩÙħÛĮØ¯":5956,"Ġfrequ":5957,"Ú©ÙĪÙĦ":5958,"ÚĨØ´Ùħ":5959,"Ġlad":5960,"Ġdam":5961,"ĠØ§ØªÙĪÙħ":5962,"Ø£Ùħ":5963,"ĠØ±Ø§Ø¯ÛĮ":5964,"ĠØ³Ø§ØŃÙĦ":5965,"ham":5966,"Ú¯ÙĪÛĮ":5967,"Ġremained":5968,"ÙĪØ³ØªÙĩ":5969,"ĠÙħÙĪØªÙĪØ±":5970,"ĠØ¹ÙĩØ¯Ùĩ":5971,"ĠÙĤÙĩÙĪÙĩ":5972,"utions":5973,"Ġones":5974,"ĠÙĪØ¬Ùĩ":5975,"Ġopport":5976,"ĠMc":5977,"ĠØªÙĩØ¯ÛĮØ¯":5978,"Ġrisk":5979,"lla":5980,"Ġpolice":5981,"ĠØ¨Ø¨ÛĮÙĨÛĮØ¯":5982,"ĠØ¬ÙĦØ¨":5983,"ĠÙħØªØ´":5984,"ĠØ³ÙĪØ®Øª":5985,"ĠØ¬Ø§ÛĮÚ¯Ø²":5986,"ĠÙħØ¬ÙĦØ³":5987,"ĠAlexand":5988,"ĠSpain":5989,"Ġdemand":5990,"ĠÙĨÙĪØ´":5991,"ĠMos":5992,"Ġhigher":5993,"!...":5994,"ĠØ¨Ø·ÙĪØ±":5995,"Ġcy":5996,"ĠÚ¯ÙģØªÚ¯ÙĪ":5997,"Ġ|":5998,"Ġhat":5999,"ĠÙĪØ§Ú©ÙĨØ´":6000,"Ġcomfort":6001,"ĠØ§ÙħÙĪØ±":6002,"ÙĪÙĦÛĮØª":6003,"ĠÙħÙĪÙĨ":6004,"ĠÙĪØ§Ø¨":6005,"ĠØ´ÙħØ§Ø±":6006,"Ġvisit":6007,"ĠØ¯ÙĪØ´ÛĮØ²Ùĩ":6008,"ĠÙ¾Úĺ":6009,"Ġshowed":6010,"Ú¯Ø±Ø¯Ø§ÙĨ":6011,"ĠØ´Ø±ÙĤÛĮ":6012,"ĠØ®ÛĮØ±":6013,"ĠØµÙĪØ±ØªÛĮ":6014,"Ú©ÛĮÙĩ":6015,"Ġstar":6016,"Ġconcern":6017,"Ġ2007":6018,"50":6019,"ĠØªÙĪÙ¾":6020,"ĠØªÙħØ§Ø´Ø§":6021,"Ġplaces":6022,"ĠÚ©Ø§ØºØ°":6023,"ari":6024,"ĠØ³Ø§Ø®ØªØ§Ø±":6025,"ĠØŃØªÙħØ§":6026,"ĠEast":6027,"Ġfeat":6028,"Ġplayed":6029,"Ġanswered":6030,"asant":6031,"ĠÙħØ¹Ø±ÙĪÙģ":6032,"Ġrock":6033,"Ġallowed":6034,"Ġlower":6035,"ensive":6036,"Ġdiscuss":6037,"Ø§ÙĪÙĦÛĮÙĨ":6038,"ĠÙĦØŃØ§Ø¸":6039,"ught":6040,"isted":6041,"Ġweak":6042,"ĠÚ©ÙħØ§ÙĦ":6043,"ĠÙĩÙĢ":6044,"Ġbelieved":6045,"ĠØ³Ø¨Ø¨":6046,"Ġstandard":6047,"ĠDecember":6048,"ĠØ´Ø§Ø¯ÛĮ":6049,"ĠØ²Ùħ":6050,"ĠÚ©Ø§ÙĦØ³Ú©Ùĩ":6051,"ĠØ¯ÙĨØ¯Ø§ÙĨ":6052,"Ġraised":6053,"Just":6054,"ĠNovember":6055,"ĠØ¹ÙħÙĦÚ©Ø±Ø¯":6056,"Re":6057,"ĠÚĨØ±":6058,"Ġcompet":6059,"ĠÚ©ÙĦÛĮØ¯":6060,"Ġbound":6061,"ÙĪØ±ÛĮØªÙħ":6062,"rael":6063,"ĠØ§ØŃÙħÙĤ":6064,"ĠØ§Ø¬Ø±Ø§ÛĮ":6065,"Ġball":6066,"ĠØ¨ÙĩØ¨ÙĪØ¯":6067,"ĠØŃÛĮÙĪØ§ÙĨØ§Øª":6068,"come":6069,"ĠØ¯ÛĮÙĪØ§ÙĨÙĩ":6070,"ĠÙ¾ÙĦÙĩ":6071,"ilities":6072,"ĠÙĨØ§Ùĩ":6073,"ĠØŃØ§ÙģØ¸Ùĩ":6074,"ĠØ¹ØµØ¨Ø§ÙĨÛĮ":6075,"Ġdetermin":6076,"Ġpen":6077,"Ġterms":6078,"ĠLord":6079,"ĠÙħØŃØ§Ø³":6080,"ĠØ°Ø®":6081,"Ġ192":6082,"Ġknows":6083,"ĠØ¨ÛĮØ§ÙĪØ±":6084,"Ġdisease":6085,"rect":6086,"Ġgrew":6087,"ĠÙ¾ÛĮÙĪÙĨØ¯":6088,"onst":6089,"ĠÛĮØ®":6090,"Ġmad":6091,"Ġgiving":6092,"ĠÙĩØ¯Ø§ÛĮ":6093,"Ø¬ÙħÙĩ":6094,"Ġdefe":6095,"Ġmachine":6096,"ĠØŃÚ©ÙĪÙħØª":6097,"ani":6098,"ÙĨØ§Ùħ":6099,"Ø§ÛĮØ²":6100,"anish":6101,"Ø¹Ùħ":6102,"bert":6103,"ĠØ¨ÙĢÙĩ":6104,"ĠAnt":6105,"ĠØ¯Ø±ÙĪØº":6106,"ĠÙħÛĮØ¯Ùĩ":6107,"ÛĮÙģÙĩ":6108,"ĠÙ¾ÛĮÙħ":6109,"ĠØ´ØªØ§Ø¨":6110,"Ġmut":6111,"Ġsource":6112,"Ġ2005":6113,"asion":6114,"ables":6115,"Ð°":6116,"Ú©Ø¯Ùĩ":6117,"arlet":6118,"Ġdiscovered":6119,"ĠØºØ±Ø¨":6120,"Ġchanges":6121,"Ġslowly":6122,"ÙĦØ§ÙĪÙĩ":6123,"ĠRepublic":6124,"Ø±Ø¯ÙĪ":6125,"Ġrefer":6126,"ĠGreat":6127,"lim":6128,"Ġden":6129,"Ġshout":6130,"ĠØ§Ø¹ÙħØ§ÙĦ":6131,"ĠJanuary":6132,"Ġ<":6133,"iety":6134,"Ġtotal":6135,"Ġemploy":6136,"ØºØ§ÙĨ":6137,"ĠÛ³Û°":6138,"Ġanimals":6139,"ĠÙģÛĮÙĦÛĮÙ¾":6140,"ĠØ¨ÙĩØ´":6141,"ĠÚĺÙĪØ¦ÙĨ":6142,"Ġcolor":6143,"Ġund":6144,"ĠØ¹ÙĦÙĪÙħ":6145,"asing":6146,"Ġareas":6147,"Ġrose":6148,"Ġspread":6149,"ĠÙĩÙĪØ§ÛĮ":6150,"Ø§ÙĦÙħ":6151,"mon":6152,"ching":6153,"osition":6154,"Ġstories":6155,"Ġimpossible":6156,"itation":6157,"ĠØ®ÙĦÙĤ":6158,"Ġthus":6159,"ĠØ®ÙĪØ±Ø¯ÙĨ":6160,"sych":6161,"Ġunc":6162,"Ġwait":6163,"ĠØ¨ÙĦÙĪ":6164,"ĠÙģØ±Ø§ÙĨÚ©":6165,"Ġcorner":6166,"ĠØ³Ø§ÙĦÙħ":6167,"lict":6168,"Ġdru":6169,"ĠØ¨ÛĮØª":6170,"Ø³ÛĮÙĦ":6171,"ĠRober":6172,"Ġquar":6173,"Ġclosed":6174,"ÙħÙħÚ©ÙĨ":6175,"ĠÙģÛĮØ²ÛĮ":6176,"Ġalthough":6177,"Ġterror":6178,"ĠÙħÙĪØ³":6179,"cience":6180,"While":6181,"Ġfellow":6182,"ÙħØŃ":6183,"ĠØ§ÙĤÛĮ":6184,"Ø·Ùĩ":6185,"Ġmanner":6186,"Acc":6187,"ÙĪØ§ÙĤ":6188,"ĠØ¹ÙħÛĮÙĤ":6189,"era":6190,"ĠÛĮØ±":6191,"key":6192,"Ġspeed":6193,"ĠØ¨ÙĪØ³":6194,"irty":6195,"ĠØ´ÙĪÛĮÙħ":6196,"ĠØ§ØµÙĦØ§ØŃ":6197,"king":6198,"eness":6199,"icated":6200,"ĠØ®ÙĪØ¯ÙħØ§ÙĨ":6201,"Ġlear":6202,"cia":6203,"Ġprep":6204,"Ġprevent":6205,"ĠÙĨØ³ÙĦ":6206,"Ġphilos":6207,"ĠÙħØ®ÙģÛĮ":6208,"Ġchall":6209,"ĠÙħÛĮÙĨ":6210,"ĠØªØµÙĪÛĮ":6211,"ĠØ¢ÙĪÛĮ":6212,"ĠÙģÙĩØ±Ø³Øª":6213,"ÙĦØ§ÙģØ§ØµÙĦÙĩ":6214,"ĠÙħØ±ØªØ¨Ø·":6215,"ĠWhat":6216,"ĠØ§ÙħÙĨÛĮØª":6217,"Ġdinner":6218,"Ġcases":6219,"hemat":6220,"ĠØ¨Ø§Ø±Ùĩ":6221,"ĠØ§ÛĮÙĨØªØ±ÙĨØª":6222,"ĠParty":6223,"Ġlau":6224,"ĠØ§Ø³ØªØ§ÙĨØ¯Ø§Ø±Ø¯":6225,"Ġgas":6226,"ients":6227,"ÙĪØŃ":6228,"ĠØ®ÙĪØ§ÙĩØ±":6229,"Ø²ÙħØ§ÙĨ":6230,"ÙĤÛĮÙĨ":6231,"ĠState":6232,"ione":6233,"ĠØ¹ÙħÙĦÛĮØ§Øª":6234,"ĠÙħÙģÙĩÙĪÙħ":6235,"ĠØ¬ÙĨØ¨Ø´":6236,"ĠÛĮÙĩÙĪØ¯ÛĮ":6237,"bing":6238,"verage":6239,"ĠØ§Ú©ØªØ¨Ø±":6240,"Ġdollars":6241,"oes":6242,"Ġnumbers":6243,"Ġimmediately":6244,"ĠÙħÙĪÙĦ":6245,"Ġarchitect":6246,"Ġmention":6247,"Ġthreat":6248,"oking":6249,"Ġproduction":6250,"ĠØ³ÙĨÚ¯ÛĮÙĨ":6251,"ĠØ¢ÙģØªØ§Ø¨":6252,"ĠØ¢Ø±Ø§ÙħØ´":6253,"Ġnecessary":6254,"ĠÙħØ±Ø§ÙĤØ¨Øª":6255,"ux":6256,"ÙĨÙĪØ¹ÛĮ":6257,"Ġpopular":6258,"Ø§Ø®Ø±":6259,"ĠØ¢ÙĦÙĪØ¯":6260,"ki":6261,"Ġthoughts":6262,"Ø±Ø§Ø¶":6263,"field":6264,"ĠØ±Ø²":6265,"Ġheat":6266,"ĠÙħÛĮÙĦÛĮØ§Ø±Ø¯":6267,"Ġsafe":6268,"ĠØ¨Ø§ÙĦØ§ØªØ±":6269,"Ġdistribut":6270,"ĠÙ¾ÙĪØ´ÛĮØ¯Ùĩ":6271,"Ġlog":6272,"ĠÙģØ±ÙħØ§ÙĨØ¯Ùĩ":6273,"Ġglad":6274,"Ġamaz":6275,"ĠÙħÚ©Ø§ÙĨÛĮ":6276,"ancy":6277,"ĠØ¹Ø±ÙĪ":6278,"ĠÚ¯Ø±Ø§ÙĨ":6279,"ĠÙĦØŃÙĨ":6280,"ĠØ¯Ø±Ø®ÙĪØ§Ø³Øª":6281,"ria":6282,"ĠØ´ÙĪÛĮØ¯":6283,"ĠÙħØ§Ø±Ø³":6284,"ĠSer":6285,"ĠØ±Ø³Ø§ÙĨÙĩ":6286,"ĠÙħØ¬Ø¯":6287,"ĠØ¨ÙĨØ§":6288,"ĠØ¯ÙĪØ¯":6289,"ĠÙĨØ¯ÛĮØ¯Ùĩ":6290,"Ù¾Ø±Ø§Øª":6291,"ĠÙħÙī":6292,"Ġcat":6293,"Ġfinally":6294,"ĠØ±ÙĪÙĨ":6295,"Ú¯Ø±Ùħ":6296,"Ġcand":6297,"Ġrap":6298,"ÙĨØ²":6299,"ĠÙħÙĤØ§ÙĦÙĩ":6300,"ĠIslam":6301,"Ġtext":6302,"ĠArt":6303,"ĠØ³Ø¹":6304,"Ġwriting":6305,"ĠØ³Ø§Ú©Øª":6306,"ĠØ³ÙĦØ§Ùħ":6307,"ĠÙħØ¹ÙħÙĪÙĦÛĮ":6308,"ĠÛ²Û°Û±Û°":6309,"ĠØ¹Ø¸ÛĮÙħ":6310,"arc":6311,"ĠØ¢ÛĮÙĨØ¯":6312,"ĠÚ©ÛĮÙĦÙĪÙħ":6313,"Ġlips":6314,"Ġlinks":6315,"ĠØ®Ø±Ø¯":6316,"ucle":6317,"Ġhosp":6318,"Ġemer":6319,"ĠÙħÙĩØ§Ø¬Ø±":6320,"Ġcarried":6321,"Ġmechan":6322,"Ġminute":6323,"Ú©Ø§Ùħ":6324,"rov":6325,"ctions":6326,"ĠÙĤØ§ÙĨÙĪÙĨÛĮ":6327,"joy":6328,"Ø²Ø¯Ùĩ":6329,"Where":6330,"Ø³ÛĮÙĪÙĨ":6331,"ĠØ¨Ø§Ø´ÛĮ":6332,"ails":6333,"Ġdistance":6334,"Ġprivate":6335,"Ġder":6336,"ĠØ´Ø¯ÛĮÙħ":6337,"ĠÚ©ÙĨÙĨ":6338,"Ø¨Ø±Ø®ÛĮ":6339,"ĠÙħØ´Ø§Ø±Ú©Øª":6340,"ĠØ³Ø¤Ø§ÙĦ":6341,"ĠØ´ÙĩØ±ÙĩØ§ÛĮ":6342,"Ġimagine":6343,"ĠÚ©Øª":6344,"ĠÙħÙĨØ²ÙĦ":6345,"Ġtrem":6346,"ĠØ¢ÙĤØ§":6347,"Ġgun":6348,"ĠÙħÙĪØ¬":6349,"ises":6350,"ĠØ±ÙĪÛĮØ¯":6351,"ĠÚĺØ§Ù¾ÙĨ":6352,"reg":6353,"ĠDNA":6354,"ees":6355,"iation":6356,"ners":6357,"ĠÚ¯ÙĪØ´Øª":6358,"ĠPhilip":6359,"Ø³ØªØ±ÛĮ":6360,"ÛĮÙĩ":6361,"ĠPresident":6362,"appe":6363,"ĠØµØ¯Ø§ÛĮÛĮ":6364,"ĠØ²ÙĨÚ¯":6365,"ĠØ¨Ø±Ø³Ø¯":6366,"ĠØ§ÙĨØ¨":6367,"Ġdocum":6368,"ĠØŃÛĮØ±":6369,"ĠÚ©Ø§Ø±ÙĩØ§":6370,"Ġmur":6371,"Ġextreme":6372,"ĠØ³Ùħ":6373,"ĠØ¨Ø±ÙĪÙħ":6374,"ĠØ´Ø±ØŃ":6375,"ĠÙĨÚ¯Ø±Ø§ÙĨÛĮ":6376,"II":6377,"vision":6378,"Ø¯ÙĦ":6379,"ĠÙħÙĪØ§Ø¬Ùĩ":6380,"ÙĪÙĤÙģ":6381,"bru":6382,"ÃŃ":6383,"Ġnorth":6384,"Ġlength":6385,"ĠØ§Ø®ØªØµ":6386,"Ġglobal":6387,"Ġdifference":6388,"ĠØ´Ø§":6389,"Ġarmy":6390,"Ġextra":6391,"Ø±ÛĮØŃ":6392,"ĠMart":6393,"ĠÚ©Ø´Ø¯":6394,"Ġmine":6395,"Ø¨Ø±Øª":6396,"Ø§Ø¯ÛĮÙĩ":6397,"Ø¨ÛĮÙĨÛĮ":6398,"ĠInt":6399,"ĠØ¹Ø§Ø¯Øª":6400,"Ø¹Ú©Ø³":6401,"Ø±Ø§Ø¬":6402,"Since":6403,"Ġconscious":6404,"Ø§ÛĮØ¬":6405,"ĠÙĨØ§ÙĨ":6406,"ĠÙħÛĮØ´Ùĩ":6407,"ĠØ²Ø§":6408,"ĠHistory":6409,"Ġsecurity":6410,"Ġfinal":6411,"Ø³Ú©ÛĮ":6412,"ĠMer":6413,"Ġalbum":6414,"ÛĮØ§Ø·":6415,"ĠÙ¾ÙĩÙĦ":6416,"Ø´Ø§ÙĩØ²Ø§Ø¯Ùĩ":6417,"ĠAg":6418,"ĠÚ©Ø´Ø§ÙĪØ±":6419,"ĠØ´ÙĨÛĮØ¯ÙĨ":6420,"Ù¾ÛĮØ±":6421,"Ú©Ø±ÛĮØ³ØªÙģ":6422,"Ú¯Ø°Ø§Ø±ÛĮ":6423,"Ġmedia":6424,"Ġopt":6425,"Ø¨ÙĪ":6426,"ĠØ¯Ø§ÙĨÛĮ":6427,"Ù¾Ø²":6428,"ĠÙĤØ§Ø¨":6429,"ĠÚ©Ø§ÙĨØ§Ø¯Ø§":6430,"ĠØ§ÛĮØªØ§ÙĦÛĮØ§":6431,"ĠØ¨Ø±Ùĩ":6432,"ĠÙ¾Ø§Ø±Ú©":6433,"Ġcouple":6434,"ĠÙħÛĮØªÙĪØ§ÙĨ":6435,"Ø§Ø¯Ø§Ø±":6436,"Ġkids":6437,"ØºÛĮØ±":6438,"Ġhistor":6439,"iles":6440,"ĠØ®ÙĪØ¯ØªØ§ÙĨ":6441,"rief":6442,"aries":6443,"Ġbroken":6444,"ĠØ±Øª":6445,"Ġet":6446,"Ġstuff":6447,"Ġremark":6448,"ĠØ¨Ø±ÛĮ":6449,"teen":6450,"Ġbelong":6451,"According":6452,"Ġpurpose":6453,"ĠComp":6454,"ech":6455,"Ø±Ú©Ø²":6456,"Ġwebsite":6457,"ĠÙħÙĩÙħØ§ÙĨ":6458,"Ø¯Ø§ÙĪÙĨØ¯":6459,"itiz":6460,"ĠØ¬Ø²Ø¦ÛĮ":6461,"Ġoil":6462,"lyde":6463,"ĠÙħØ·Ø±ØŃ":6464,"Ġyell":6465,"Ø¸Ø§Ùĩ":6466,"ĠBlack":6467,"ÙĪØ§ÛĮ":6468,"ĠØ²Ø®":6469,"ĠSm":6470,"Ġsurface":6471,"Ġparticularly":6472,"lin":6473,"Ġemb":6474,"ĠÙ¾Ø±ÛĮ":6475,"ĠØ·Ø±Ø²":6476,"Ġbreath":6477,"ĠÛ¶Û":6478,"Ġdisp":6479,"ĠØ¹Ø¯Ø¯":6480,"15":6481,"Ġcaught":6482,"ĠÚ©ÙĢÙĩ":6483,"olf":6484,"erve":6485,"ĠØªÙĤØ§Ø¶":6486,"ĠØ¨Ú©Ø§Ø±":6487,"Ġprovince":6488,"Ġexpected":6489,"ĠØ±Ø§ØŃØªÛĮ":6490,"ÙĨØ§Ú¯ÙĩØ§ÙĨ":6491,"Ġheavy":6492,"ĠØ¬ÛĮÙħ":6493,"ĠÙĨÙĪØ§ÙħØ¨Ø±":6494,"order":6495,"Ġbelow":6496,"ĠØ³ÙĦØ§ÙħØª":6497,"ĠØªÙĨÚ¯":6498,"Ġpal":6499,"ĠØ¹Ø¯Ùħ":6500,"ĠÚ©ÙĦÛĮØ³Ø§":6501,"ĠØ¢Ø±ÛĮ":6502,"Ø§ÙĪÛĮ":6503,"ĠÙĪØ±ÙĪØ¯ÛĮ":6504,"Ø¯Ø±Ø³Øª":6505,"ĠÙ¾ÙĨØ¯":6506,"ĠÙħÙĨØŃ":6507,"ĠØµØ¨Ø±":6508,"istry":6509,"ĠÚ©Ø§Ø±Ø´":6510,"Ġstrength":6511,"ĠÙĤÙĦÙħ":6512,"ĠÙħØ³ØªÙĤÙĦ":6513,"ĠØ±ÛĮØ´Ùĩ":6514,"ĠÙħÙĤØ¯Ø³":6515,"ĠÙħÙĩÙħÛĮ":6516,"ÙģØ§Ø¸":6517,"ĠIsrael":6518,"Ġimage":6519,"Ġsurv":6520,"Many":6521,"ÙħØ·":6522,"astic":6523,"13":6524,"ĠØ¨Øª":6525,"arp":6526,"omm":6527,"ests":6528,"ĠØ¯ÙĪÙĦØªÛĮ":6529,"ÙħÛĮÙĪÙĨ":6530,"ĠØªÙĪØ§ÙĨØ³ØªÙĨØ¯":6531,"ĠÙĨØ§ØŃÛĮÙĩ":6532,"Ġpleasure":6533,"Ġopin":6534,"ĠÙ¾Ø´ØªÛĮØ¨Ø§ÙĨÛĮ":6535,"ĠØ±Ùħ":6536,"ĠØ±Ú©":6537,"ÙĩØ§ÛĮØ´":6538,"ĠÙĪØ§Ø³":6539,"Ġsteps":6540,"Ġpp":6541,"ĠÙħÙĨØ¨Ø¹":6542,"Ġresour":6543,"Ġdefin":6544,"Ġsilent":6545,"Ġ40":6546,"ĠØ¯ÙĩØ§ÙĨ":6547,"Ġneeds":6548,"ĠØ¹Ø²ÛĮØ²Ùħ":6549,"no":6550,"ĠÙģØ±Ø¶":6551,"Ġspirit":6552,"ivity":6553,"ĠÚĨØ§ÙĦ":6554,"ierre":6555,"ĠØ¹ØµØ¨ÛĮ":6556,"ĠÚ¯ÙĨØ§Ùĩ":6557,"Ġbillion":6558,"ĠÙĤØ·Ø¹Ùĩ":6559,"Ġreading":6560,"ĠÙĩØ¯Ø§ÛĮØª":6561,"dd":6562,"Ġbirth":6563,"Ġanx":6564,"ĠØµÙĦØŃ":6565,"Ġspeaking":6566,"chen":6567,"Ø±Ú©":6568,"ØµØ¨":6569,"ĠÙ¾ÛĮÙĪØ³ØªÙĩ":6570,"Ġsky":6571,"ĠØ¨Ø´ÙĨ":6572,"ĠÙħØªÙĪÙĤÙģ":6573,"ĠÙĦØº":6574,"Ø¬Ø§ÛĮÛĮ":6575,"ĠØ¯Ø³Ø§ÙħØ¨Ø±":6576,"ĠØ§Ø´Ø®Ø§Øµ":6577,"ĠÙħØ³Ø§Ø¨ÙĤÙĩ":6578,"alys":6579,"ĠØ¨Ø±Ø§ÛĮÙħ":6580,"Ġdirectly":6581,"ĠÚ©ÙĪÚĨÙĩ":6582,"Ġpossess":6583,"Ġoriginal":6584,"lt":6585,"Ġmill":6586,"ĠØ¯Ø§Ø¦":6587,"Ġtrust":6588,"ĠÙĪØ¸ÛĮÙģÙĩ":6589,"ĠØ¶Ø¹ÛĮÙģ":6590,"Ġsoftware":6591,"ĠÙ¾Ø±Ø³Øª":6592,"Ø§ÙĨØ³Ú©ÛĮ":6593,"ĠØ¯Ø§ÙĨØ´Ùħ":6594,"Ġcool":6595,"ĠØ¢ÙģØ±ÛĮÙĤØ§":6596,"Ġforget":6597,"ĠØ¨ÛĮÙĨÙħ":6598,"ĠØ¶ÙħÙĨ":6599,"ÛĮÙĨÙĪ":6600,"ĠØ°Ø®ÛĮØ±Ùĩ":6601,"Most":6602,"ĠÙĩÙĨØ±Ùħ":6603,"MD":6604,"ĠÙ¾Ø±Ø¯Ùĩ":6605,"ĠØ¹ÛĮ":6606,"ĠØ³Ø§Ø®ØªÙĨ":6607,"Ġess":6608,"Ø¢ÙĨÚ¯Ø§Ùĩ":6609,"Ġtears":6610,"vered":6611,"fection":6612,"ĠÙħØ¶":6613,"ÙĤØ§Ø¯":6614,"ether":6615,"Ġjoy":6616,"bered":6617,"Ġought":6618,"Ø§ÙħÛĮØ¯":6619,"ĠØ§Ø³Ú©Ø§Ø±":6620,"Ġturning":6621,"Ø§ÛĮØ¯Ùĩ":6622,"ÙĨØ§Ø³ÛĮ":6623,"Ġpock":6624,"ĠÛ±Û°Û°":6625,"Ġguess":6626,"ĠØ·Ø¨ÙĤ":6627,"Ġestabl":6628,"Ġenjoy":6629,"Ġprince":6630,"ĠØ¨Ø¯ÙĩÛĮØ¯":6631,"ĠØ±Ø³ÛĮØ¯ÙĨØ¯":6632,"Ġtrouble":6633,"Ø§ÙħÙĪÙĨ":6634,"ĠÙħØ±Ø²":6635,"ĠÙģØ±Ø¯Ø§":6636,"ĠØ§ÙĨÙĤÙĦØ§Ø¨":6637,"bes":6638,"ĠØ²ÙĪØ¯ØªØ±":6639,"Ġmere":6640,"ĠØ´ÛĮØ´Ùĩ":6641,"ĠØ§ÛĮÙĨÙĩØ§":6642,"Ġtalked":6643,"gypt":6644,"Ġinteresting":6645,"ÙħØ¬":6646,"ĠØ¨Ø§ÙĦØ§Ø®Ø±Ùĩ":6647,"ios":6648,"amb":6649,"Ġmagn":6650,"Even":6651,"roy":6652,"bruary":6653,"ĠÚĺØ§ÙĨÙĪÛĮÙĩ":6654,"Ù¾Ø§Ø±":6655,"Ġgrowing":6656,"ĠØ¬ÙĦÙĪÚ¯ÛĮØ±ÛĮ":6657,"Ġforces":6658,"ĠSu":6659,"ĠØªØŃÙĦÛĮÙĦ":6660,"ĠØªÙĪØ¬ÙĩÛĮ":6661,"ĠØ¬ÙĪØ§ÙĨÛĮ":6662,"book":6663,"ĠAng":6664,"Ġkiss":6665,"Ġhous":6666,"ores":6667,"ĠØ¹ÙĦØ§ÙĪÙĩ":6668,"Ø¢ÙĪØ±ÛĮ":6669,"Ġfilled":6670,"ounds":6671,"Ġneg":6672,"ĠØ¯ÙħÙĪ":6673,"ÙĪØ±ÙĨ":6674,"ĠÙĨØ²Ø¯ÛĮÚ©ÛĮ":6675,"Ø±Ø¯ÛĮ":6676,"rig":6677,"ĠØ¶Ø±Ø¨Ùĩ":6678,"ĠÛ²Ûµ":6679,"Ġevidence":6680,"Ġstructure":6681,"cked":6682,"tended":6683,"Ù¾Ø§ÛĮ":6684,"ĠÚ©Ø´ÛĮØ´":6685,"ĠØ¢ÙħØ¯ÙĨ":6686,"ĠØ¨ÛĮÙħØ§Ø±Ø³ØªØ§ÙĨ":6687,"à¤":6688,"Ø±ÛĮØ¨":6689,"ĠSte":6690,"ĠØ§ÙĨØ¯Ø§Ø®ØªÙĩ":6691,"ÙĪÙĤØª":6692,"eration":6693,"ĠØ·ÙĦØ§":6694,"Ġ24":6695,"eter":6696,"ĠØ§ÙĨØªØ®Ø§Ø¨Ø§Øª":6697,"ĠØ§ÙĦÚ¯ÙĪØ±ÛĮØªÙħ":6698,"ĠØ¨ÙĦØ§":6699,"ĠInternet":6700,"Ġcho":6701,"because":6702,"abor":6703,"Ġculture":6704,"ĠÙĨØ¨Ø§Ø´Ø¯":6705,"Ø¨Ø®ØªÛĮ":6706,"Ġfat":6707,"Who":6708,"Ú©Ø±Ø§Øª":6709,"Ġgreater":6710,"ĠØ§ÙģØªØ®Ø§Ø±":6711,"ĠÙħØ®ØªÙĦ":6712,"ĠØ®ÙĨØ¯ÛĮØ¯":6713,"ØŃÙħ":6714,"ĠØ§Ø³ØªØ§Ø¯":6715,"ĠÚ¯Ø±ÙĪÙĩÛĮ":6716,"vert":6717,"ĠØ³Ø±Ø§ÙĨØ¬Ø§Ùħ":6718,"ĠÙģØ±Ø¯ÛĮ":6719,"rs":6720,"ÛĮØ¹ÙĨÛĮ":6721,"ĠØ®ÙĦ":6722,"Ġairport":6723,"ĠÙ¾Ø§Ø±Ùĩ":6724,"ĠÚ¯Ø±Ø¯Ø´":6725,"Ġcertainly":6726,"Ġstrugg":6727,"ĠØ´Ùģ":6728,"Ġgenerally":6729,"Ġlanguages":6730,"ĠØ¯Ø±ØŃØ§ÙĦÛĮ":6731,"Ġconv":6732,"axim":6733,"Ġskin":6734,"ĠÚ©Ø±Ø¨":6735,"ĠØ¢ÙĨÙĤØ¯Ø±":6736,"Ġtask":6737,"Ġconsum":6738,"ĠÙħØŃØ§ÙģØ¸":6739,"Ø¨ÙĦÚ©Ùĩ":6740,"ÙĩÙĨÚ¯ÛĮ":6741,"ĠÙĨØ®Ø³Øª":6742,"AR":6743,"ĠØªÙ¾Ùĩ":6744,"Ġ2000":6745,"Ø±Ø§ÙģÛĮ":6746,"Ø±ÙĪÙĨ":6747,"ÙĪØ§Ø±ÛĮ":6748,"Ġshut":6749,"Ġtransl":6750,"Ø¯Ø®ØªØ±":6751,"Ø¨Ø¹Ø¶ÛĮ":6752,"zer":6753,"Ġhom":6754,"ĠØ§ÙĪØ§Ø®Ø±":6755,"Ġrain":6756,"ĠÙħØŃØ¨Øª":6757,"Ġ21":6758,"ØŃÛĮØŃ":6759,"ĠÙĨÙĪØ´ØªÙĨ":6760,"Am":6761,"Ġshad":6762,"ĠØ¯Ø§Ø´ØªÛĮÙħ":6763,"Ġempt":6764,"aste":6765,"Ġdescribed":6766,"ashing":6767,"Ġability":6768,"plement":6769,"Ġbright":6770,"Ġexcl":6771,"Ġpray":6772,"ĠDavid":6773,"ĠÙħÙĤØ§ÙĪÙħØª":6774,"Ġfreed":6775,"Ø®ÛĮØ±":6776,"ĠØ§ÙĤÛĮØ§ÙĨÙĪØ³":6777,"ĠØ¢Ú¯Ø§Ùĩ":6778,"ĠØ¢Ø³Ø§ÙĨ":6779,"born":6780,"ĠØ³Ø§ÛĮØª":6781,"ĠØ´Ú©Ø§Ø±":6782,"Ġhuge":6783,"ĠØ³Ø±ÙĪ":6784,"ĠÛ±Û¸":6785,"ĠÙĪØ±Ø²Ø´":6786,"Per":6787,"ĠØ³Ø±Ø·Ø§ÙĨ":6788,"ĠØªØ¬Ø§Ø±Øª":6789,"udd":6790,"Ġforgot":6791,"ĠØ®ÙĪØ§ÙĨØ¯Ùĩ":6792,"Ġevents":6793,"Ġdirection":6794,"Ġcompanies":6795,"ĠØ±ÛĮØ²ÛĮ":6796,"ĠØªÙĪØ²ÛĮ":6797,"Ġgrad":6798,"ĠÚ¯Ø±Ø¯ÙĨ":6799,"ping":6800,"ĠSchool":6801,"Ġfocus":6802,"ĠÙģØ¶Ø§":6803,"ĠØ¨Ø±ÙĨØ¯Ùĩ":6804,"Ġlearning":6805,"Ġsick":6806,"ES":6807,"ĠÙĪØ²ÛĮØ±":6808,"Ġbird":6809,"ĠØ¯Ø±ÙĨÚ¯":6810,"ĠSch":6811,"ĠRoman":6812,"ĠÙĨØ¯Ø§Ø¯":6813,"ĠØ³ÛĮØ§Ø±Ùĩ":6814,"pha":6815,"Ġoccup":6816,"):":6817,"rain":6818,"ĠÚĨÚ©":6819,"vere":6820,"Ġmeasure":6821,"Ø§Ú¯Ùĩ":6822,"ĠÛ±Û¹Û³Û":6823,"bles":6824,"Ġeverybody":6825,"ĠArmen":6826,"ÙħØ§Ø±":6827,"Ġsave":6828,"Ġdesigned":6829,"ĠØªØ¯Ø±ÛĮ":6830,"Ġstation":6831,"Ġplant":6832,"ĠØªØŃÙĤÛĮÙĤØ§Øª":6833,"Ú¯ÙĪÛĮÛĮ":6834,"ĠÙĩØ§Ø³Øª":6835,"ĠØªÙħØ±Ú©Ø²":6836,"ended":6837,"ĠÙħØ§Ùħ":6838,"Ġdeli":6839,"ĠØ¢ÙĪØ±Ø¯ÙĨ":6840,"Ġpowerful":6841,"gar":6842,"Ġboys":6843,"wise":6844,"Ġdim":6845,"aped":6846,"ĠØ§Ø±Ø²":6847,"Ġsummer":6848,"ĠØ¨Ù¾Ø±":6849,"ĠÚ©Ø§ØªØ±ÛĮÙĨ":6850,"ĠÙħØ´ØªØ±ÛĮ":6851,"ĠØ´Ø§Ø®Ùĩ":6852,"Ġtherefore":6853,"useum":6854,"ÙĨÛĮØ§":6855,"ĠØ¯Ø§ÙĨØ³ØªÙħ":6856,"za":6857,"Ġbaby":6858,"Ø§Ø±Ø§":6859,"Ġreach":6860,"Ġ2014":6861,"Ġsituation":6862,"ĠÙħØ¹ÙĨØ§ÛĮ":6863,"ĠÙĪÛĮØ¯":6864,"Ø¨Ø±Ú¯":6865,"ĠØªØ±Ø¯ÛĮØ¯":6866,"ĠÙħØªÙĪØ³":6867,"Ġsuppose":6868,"Ġresults":6869,"Ġcenter":6870,"Ġunderstood":6871,"Ġforeign":6872,"Ġdelight":6873,"asons":6874,"ĠØ¯Ø§Ø¯Ú¯Ø§Ùĩ":6875,"lected":6876,"Ġmeeting":6877,"Ø¯ÛĮÙĩ":6878,"rill":6879,"Ø±Ø§Ø³Øª":6880,"Ġcancer":6881,"ĠÙħÙĪÙĤØ¹ÛĮ":6882,"Ġnice":6883,"Ġrich":6884,"Ø§ÙĪØªÛĮ":6885,"ĠÙ¾ÚĺÙĪÙĩ":6886,"uman":6887,"ĠØ´ÙĦÙĪ":6888,"ĠÙĨÚĺ":6889,"Ġhall":6890,"ĠØ¹ØµØ±":6891,"ĠRon":6892,"iving":6893,"Ġtar":6894,"Ġelectric":6895,"ĠÙĨØ§Ø±Ø§ØŃØªÛĮ":6896,"ĠØ®ÙĪØ§Ø³ØªÙĩ":6897,"ÙĩÙĨÙĪØ²":6898,"Ø³ÙĨ":6899,"Ġadminist":6900,"ĠFebruary":6901,"ĠØªØ¹Ø¯Ø§Ø¯ÛĮ":6902,"ĠÙĨØ§Ø²":6903,"ĠØªØ§Ø±ÛĮØ®ÛĮ":6904,"ĠÙĪØ²":6905,"ĠØ¯Ø§Ø±ÙĪ":6906,"ĠØ«Ø§ÙĨÛĮÙĩ":6907,"Ø¦ÛĮÙĩ":6908,"Ġarrived":6909,"apers":6910,"Ġ2004":6911,"May":6912,"ĠÙĪØ±Ø²":6913,"Ġprovide":6914,"ĠØ¨Ø±ÙĨØ¯":6915,"ÙĪØ±ÛĮØª":6916,"ĠØ¯Ø®Øª":6917,"ĠØ¨Ø®ÙĪØ§ÙĨ":6918,"Ġparticip":6919,"ĠØºØ±ÙĤ":6920,"ĠØŃØ°":6921,"imately":6922,"ÙħÙĨØ¸":6923,"ĠØ¨ÙĩØ¯Ø§Ø´Øª":6924,"ĠÛ²Û°Û±Û±":6925,"Ø¨Ø³ÛĮØ§Ø±":6926,"ĠØ¨ÙĪØ±":6927,"ĠÙħÛĮØ¯":6928,"Ø±ÙĪØ¨":6929,"ĠØŃØ¯Ø³":6930,"ĠJames":6931,"ÙĢØ±":6932,"oo":6933,"ĠØ¨Ø±ÙĤØ±Ø§Ø±":6934,"Ġhardly":6935,"rons":6936,"ĠÙĪØŃØ´ÛĮ":6937,"ĠØ¹Ø¬":6938,"ĠÙģÙĪØªØ¨Ø§ÙĦ":6939,"ĠØ¢ÙĪØ±ÛĮÙĦ":6940,"hest":6941,"ĠÙĩØ§ÛĮÙħ":6942,"ĠCor":6943,"Ø±Ø§ØŃØª":6944,"Ø±Ø§ÙĦÛĮØ§":6945,"ÙĪØ°":6946,"ĠØ±ÙħØ²":6947,"cell":6948,"Ø¨ÛĮØ´ØªØ±":6949,"ĠÙħØ±Ø§Ø³Ùħ":6950,"ĠÙģÛĮØ²ÛĮÚ©ÛĮ":6951,"ĠÚ¯Ø²":6952,"ĠØŃØ§ÙĦØªÛĮ":6953,"Ġfollow":6954,"ophy":6955,"ĠWilliam":6956,"Ġign":6957,"Ø°ÛĮØ±ÛĮ":6958,"ÙħØ¯Ùĩ":6959,"oring":6960,"ĠØ¨ÙħØ§ÙĨØ¯":6961,"ĠÙ¾Ø¯ÛĮØ¯":6962,"Ġworse":6963,"ĠØ¯Ø§Ø¯ÛĮÙħ":6964,"Ġhappens":6965,"Ġgaz":6966,"Ø¢ÙĦ":6967,"Ġdrive":6968,"alian":6969,"ĠØ¯Ø±Ø¢ÙĪØ±Ø¯":6970,"14":6971,"een":6972,"Ġfright":6973,"oted":6974,"Ġaccording":6975,"mina":6976,"Ġsouth":6977,"Ġwhatever":6978,"IN":6979,"craft":6980,"Ġconduct":6981,"ĠÙħØ¹ØªÙĤØ¯":6982,"Ø§Ø¦ÛĮ":6983,"cies":6984,"Ġformed":6985,"Ġbear":6986,"ĠØ§ØªØŃØ§Ø¯ÛĮÙĩ":6987,"ÙĦÛĮÚ©":6988,"ĠÙĤØ³Ùħ":6989,"Ġmarriage":6990,"ĠÙħØ°ÙĩØ¨ÛĮ":6991,"Ġarran":6992,"Ø´ÙĨØ¨Ùĩ":6993,"Ġexperien":6994,"ĠGeneral":6995,"Ġbehavior":6996,"hab":6997,"ĠØŃÙģØ§Ø¸":6998,"ĠÙĩÙħÙĪØ§Ø±Ùĩ":6999,"ateg":7000,"Ø¨ÛĮØª":7001,"ĠØ¯Ø³ØªØ±Ø³":7002,"lection":7003,"ÛĮØ²ÛĮÚ©":7004,"Ġbattle":7005,"ÙħØ§Ø³":7006,"ĠØ¬ÙħÙĩÙĪØ±":7007,"had":7008,"Ġgarden":7009,"ĠØ²ÙĪØ¯ÛĮ":7010,"ÙħØ§ÙĨÙĩ":7011,"ĠØ§ÙĦÚ©ØªØ±ÛĮ":7012,"ĠØ§ÙĨØ¯ÛĮØ´ÛĮØ¯":7013,"Ġmiles":7014,"Ġdog":7015,"Ġplaying":7016,"ĠØ¨ÙģØ±":7017,"ÙĦÛĮÙĨ":7018,"ĠØ³Ø§ÙĦÙĨ":7019,"Ġdesire":7020,"ĠØ¨Ú©ÙĨØ¯":7021,"ĠÛ·Û":7022,"ĠØ§ÛĮØ³ØªÚ¯Ø§Ùĩ":7023,"idden":7024,"ĠDo":7025,"orthern":7026,"aker":7027,"ĠØ¬Ø§ÛĮÚ¯Ø²ÛĮÙĨ":7028,"ĠØ§Ø³Ø±Ø§Ø¦":7029,"Ġcontent":7030,"Ø·ÙĪØ±ÛĮ":7031,"ĠCanada":7032,"ĠÙħÛĮØ±":7033,"ĠØªØ£Ø³ÛĮØ³":7034,"iqu":7035,"ĠØ±Ø³Ø§ÙĨ":7036,"ĠØŃÚ©Ùħ":7037,"cise":7038,"rem":7039,"ÙĤØ§Ø¨ÙĦ":7040,"Ġtrack":7041,"Ġremem":7042,"arlett":7043,"ĠÙħØ¨ÙĦ":7044,"Ġcondition":7045,"ĠØ¯ÙĦÛĮ":7046,"Ø§ÙĨØ¯Ø±":7047,"ĠØ¨Ø±Ùħ":7048,"ØºÙĩ":7049,"Ø¦Ùĩ":7050,"ĠReferences":7051,"ĠØªØ§ÛĮ":7052,"Ġtelling":7053,"ĠØŃØ§ÙĦÛĮÚ©Ùĩ":7054,"ĠØ³Ø®ÙĨØ±Ø§ÙĨÛĮ":7055,"Ġannounced":7056,"ĠØŃÛĮØ±Øª":7057,"Ġnames":7058,"Ġreve":7059,"ĠÚ¯Ø±Ùĩ":7060,"alysis":7061,"Ex":7062,"ĠÙħØ§Ø±ØªÛĮÙĨ":7063,"ĠØ´Ø±ÙĤ":7064,"ĠÛ±Û¹ÛµÛ":7065,"16":7066,"su":7067,"aked":7068,"Ġinvent":7069,"isc":7070,"ĠÚ©ÙĨØ¬":7071,"ĠÙĪØ§ÚĺÙĩ":7072,"onse":7073,"ĠÙĨÙĪØ²":7074,"Ø§ÙħØ¯":7075,"ĠØŃÚ©":7076,"ĠÙħØ¬ÙĦÙĩ":7077,"ĠØªÙĪØ²ÛĮØ¹":7078,"ĠØ¨Ú¯ÛĮØ±ÛĮ":7079,"Ġimplement":7080,"Ġaftern":7081,"Ġmedical":7082,"ĠÙħØ¨Ùĩ":7083,"ØŃÙĤ":7084,"ĠÚĨØ³Ø¨":7085,"ĠØ²Ø±Ø¯":7086,"ĠØ§ÙĨØ¯ÙĪÙĩ":7087,"ĠØªÙĨÙĩØ§ÛĮÛĮ":7088,"Ġclean":7089,"Ġpan":7090,"ĠÙģÙĪØ±ÛĮÙĩ":7091,"Ġpositive":7092,"arb":7093,"outhern":7094,"Ġuniverse":7095,"Ġthousands":7096,"Ø¨ÛĮØ§":7097,"ĠØ¯ÙĦÙħ":7098,"ĠØ´Ø§ÙĩØ¯":7099,"ØºÙħ":7100,"ĠØ¯Ø±Ø®ØªØ§ÙĨ":7101,"ett":7102,"Ġcourt":7103,"Ġrequire":7104,"Ġlaughed":7105,"Ġattract":7106,"Ġhappiness":7107,"ĠÚ©Ø§Ø±Øª":7108,"ĠØ¯ÙģØ¹Ùĩ":7109,"ella":7110,"ĠÙħØ§ÙĨØ¹":7111,"Ġpoints":7112,"Ġbuy":7113,"Ġsad":7114,"Ġautom":7115,"ĠØ¯Ø±ÙĩÙħ":7116,"ĠØ²ÙĨØ¯Ø§ÙĨÛĮ":7117,"Ġcustom":7118,"ĠUnion":7119,"ĠÙħØ®Ø§ÙĦÙģ":7120,"Ġcities":7121,"ĠØªÚ©ÛĮÙĩ":7122,"ĠØ§ÙĪÙĦÛĮ":7123,"Ġabsolute":7124,"Ú¯Ø³":7125,"ĠÚ¯Ø°Ø§Ø±Ø¯":7126,"ico":7127,"rated":7128,"Ġloss":7129,"ĠØ¨Ø§Ø±Ø§ÙĨ":7130,"Ø¬ÛĮØŃ":7131,"ĠØ§ØµØ·ÙĦØ§ØŃ":7132,"ĠÙĤØ¶":7133,"ĠEgypt":7134,"ĠÙĨÙģØ±Øª":7135,"Ø±ÙĪØ´":7136,"aging":7137,"erson":7138,"ĠÙħØ´ÙĩÙĪØ±":7139,"ĠÙĤØ¯Ø±ÛĮ":7140,"Ġrequired":7141,"ĠGeorge":7142,"just":7143,"ĠØ§Ø®ÙĦØ§ÙĤÛĮ":7144,"ipped":7145,"ĠÚĨÙĨÚ¯":7146,"ĠÙħØ¯Ø±ÙĨ":7147,"Ġremain":7148,"Ġdecision":7149,"Ne":7150,"Ġthick":7151,"ĠØ´ÙĨØ§Ø³Ø§ÛĮÛĮ":7152,"Ġaware":7153,"ÙģØªÛĮ":7154,"ĠØªÙĨØ¸ÛĮÙħ":7155,"Ġsorry":7156,"Ġfaith":7157,"Ġcloud":7158,"ĠØ¨Ø±Ø¯Ø§Ø±ÛĮ":7159,"Ġreality":7160,"ĠØµÙĨØ¹Øª":7161,"ĠØ´ÙĪÙĩØ±Ø´":7162,"hib":7163,"Ġsite":7164,"Ġnovel":7165,"Ġcover":7166,"Ġplanet":7167,"Ġcitiz":7168,"Ġmix":7169,"Ġleaving":7170,"Ġexpress":7171,"Ġlisten":7172,"AC":7173,"Ð¾":7174,"Ġcovered":7175,"ls":7176,"ĠÛ²Û°Û±Û²":7177,",'":7178,"ÚĨØ±Ø®":7179,"ĠØ¬Ø§Ø¯ÙĪ":7180,"ĠØ¯ÙĪÙħÛĮÙĨ":7181,"ĠØªÙħØ§Ø³":7182,"ĠÙĤØ±Ø§Ø±Ø¯":7183,"cos":7184,"ĠÙħØ£Ùħ":7185,"ĠØ¯Ø´ÙĪØ§Ø±":7186,"Ġboard":7187,"ĠInstit":7188,"iber":7189,"ĠBel":7190,"ĠDep":7191,"Ġstage":7192,"Ġplaced":7193,"ĠÚ©ÙħÙ¾":7194,"Ġleaders":7195,"ĠØ²Ø¯Ùħ":7196,"Ġcircum":7197,"Ġeasily":7198,"ancing":7199,"Ġwalking":7200,"ĠØ§ÙĪØ§ÛĮÙĦ":7201,"cend":7202,"Ġvan":7203,"ĠÙģØ±ÙĩÙĨÚ¯ÛĮ":7204,"Ġservices":7205,"ĠÙĤØªÙĦ":7206,"Ġsmiled":7207,"ĠÙħØ·ÙĦØ¨":7208,"ĠÙ¾ÛĮØ±ÙĪØ²ÛĮ":7209,"ÙĪÚ©":7210,"Ø³Ø§Ø²":7211,"ilies":7212,"ĠØ§ÙģØ³Ø±":7213,"Ġserved":7214,"ĠÙĥÙĨ":7215,"ĠSir":7216,"Ġ2003":7217,"ĠBab":7218,"ĠÚĺÙĪØ¦ÛĮÙĩ":7219,"omy":7220,"ĠØªÚ¯Ø²":7221,"lor":7222,"ÙĨÙĪØ§ÙĨ":7223,"ĠØ§ØŃØªÛĮØ§Ø¬":7224,"ĠØ´ØºÙĦ":7225,"ĠÙĨØ¸Ø§Ùħ":7226,"ĠØ´ÙĩØ±ÙĪ":7227,"ÙĩÙħÛĮ":7228,"ĠÙģÙĨ":7229,"Ġquant":7230,"ĠÙĨØ¯Ø§Ø´ØªÙĨØ¯":7231,"Ġincrease":7232,"Ġtro":7233,"alt":7234,"ĠØ¬Ø±Ùħ":7235,"ĠÙ¾Ø±ÚĨ":7236,"Ø®ÙĪØ§ÙĩÛĮ":7237,"Ġusual":7238,"ĠIvan":7239,"ola":7240,"Ġmeas":7241,"ĠØ§ÙħÙ¾Ø±Ø§Øª":7242,"raq":7243,"ĠÚĨØ±Ø§Øº":7244,"ĠØ¯Ø§":7245,"ĠØ§Ø¹ØªÙĤØ§Ø¯":7246,"fficient":7247,"ÛĮÛĮØ¯":7248,"Ġpage":7249,"ÙĢØ¯":7250,"Ø§Ø´ØªÙĩ":7251,"ÙħØ±Ú©Ø²":7252,"Somet":7253,"Ġlack":7254,"istics":7255,"ĠHouse":7256,"Ġletters":7257,"ĠISBN":7258,"ÙħØ§ÙĨÙĨØ¯":7259,"Ġdetect":7260,"ael":7261,"ĠDem":7262,"ĠØ¨Ø²Ø±Ú¯ØªØ±":7263,"Ġpresence":7264,"ĠÛ¹Û":7265,"Ú¯Ø°Ø´Øª":7266,"ÙĤØ¨":7267,"pir":7268,"Ġstre":7269,"Ġrange":7270,"known":7271,"Ġthin":7272,"ĠÙĦØ§ÛĮ":7273,"ĠØ³ÙĪÙĨ":7274,"Ġgrowth":7275,"ÚĨØ§Ø±Ùĩ":7276,"ams":7277,"Ġshown":7278,"ĠCharles":7279,"Ġhung":7280,"ĠÙħØŃØ³":7281,"Ġharm":7282,"ĠÙ¾ÛĮÙĪØ³Øª":7283,"17":7284,"Pe":7285,"ĠØ¯ÙĪÙĨÙħ":7286,"gu":7287,"Ġcentral":7288,"back":7289,"ĠÙħÙĨØªÙĤÙĦ":7290,"Ġtypes":7291,"Ġestablished":7292,"EC":7293,"ĠThat":7294,"ĠPaul":7295,"Ġforced":7296,"ĠÙĪØ§Ø¨Ø³ØªÙĩ":7297,"och":7298,"ĠÙĨØ§Ø¯":7299,"ĠØ¯Ø±ÙħÛĮ":7300,"Ġourselves":7301,"inc":7302,"Ġunderstanding":7303,"ĠExternal":7304,"Ġwatching":7305,"ĠØ§ÛĮÙĪØ§ÙĨ":7306,"Ġinterested":7307,"ĠØªÚ¯Ø²Ø§Ø³":7308,"Ø±Ø§ØŃ":7309,"Ġstone":7310,"Ġvirt":7311,"ĠâĪĴ":7312,"Ġrapid":7313,"ĠÚ©ÙĪØ¯Ú©ÛĮ":7314,"Ġstruck":7315,"ĠØªØ§ÙĦ":7316,"Ġmarry":7317,"oses":7318,"Ġfresh":7319,"ĠØ§Ø±ØªÙģØ§Ø¹":7320,"ĠÚ¯Ø±Ø³":7321,"ĠVol":7322,"Ġaddition":7323,"Only":7324,"Ġchemical":7325,"Ġwatched":7326,"Ġpsych":7327,"Ġcontribut":7328,"ĠÛµÛ":7329,"ĠØµÙĪØ±ØªØ´":7330,"Ġindustry":7331,"aching":7332,"ĠØ®Ø¯Ø§ÙĪÙĨØ¯":7333,"ĠØ§Ø³ØªØ±Ø§ÙĦÛĮØ§":7334,"Ġforms":7335,"ĠØŃÛĮØ§Øª":7336,"inated":7337,"Ø³ØªÙĨ":7338,"ĠHow":7339,"ĠÙĨÙģÙĪØ°":7340,"Ġnucle":7341,"ĠØ±ÙĩØ¨Ø±ÛĮ":7342,"Ġfixed":7343,"ĠÚ©ØªØ§Ø¨Ø®Ø§ÙĨÙĩ":7344,"ĠÙ¾ÛĮÚĨÛĮØ¯":7345,"Although":7346,"ĠØ²ÙĨØ¬":7347,"oked":7348,"Ġuses":7349,"ĠÙħØ¹ÙħØ§Ø±ÛĮ":7350,"Ab":7351,"cad":7352,"rial":7353,"OS":7354,"Ø¬ÙĨ":7355,"ĠÙħØµÙĨÙĪØ¹ÛĮ":7356,"ÙĪÙ¾":7357,"istance":7358,"Ġ2015":7359,"ĠÙĨÛĮØ±ÙĪ":7360,"Ġfinished":7361,"ĠØ¨Ú©ÙĨÙħ":7362,"Ġbeg":7363,"Ġshop":7364,"ĠØªÙĪØ§ÙĨÛĮ":7365,"ĠÙħØ¬Ø§Ø²":7366,"Ġrelated":7367,"Ġnone":7368,"Ø§ÙĪÛĮØ±":7369,"Ø§ÙĦÛĮØ§ÛĮÛĮ":7370,"ÙĪØ³ÛĮ":7371,"ĠGree":7372,"Ġproduce":7373,"ĠØ¢Ø¯ÙħÛĮ":7374,"ingu":7375,"ils":7376,"alled":7377,"ĠØ¨ÛĮØ§":7378,"anta":7379,"ĠÙĤØ¨ÙĦÛĮ":7380,"ĠÙ¾ÙĪØ´Ø´":7381,"Your":7382,"ØµÙĪØ±Øª":7383,"ĠClyde":7384,"ĠÙħØ±ØªØ¨":7385,"ĠÙĨØ§Ù¾Ø¯ÛĮØ¯":7386,"Ġhumans":7387,"Ġinvolved":7388,"Ġfro":7389,"odd":7390,"Ġorganization":7391,"ĠØ®ÙĪØ¯Ø±ÙĪ":7392,"ĠØªØ±Ø§ÙĨÙĩ":7393,"ĠLa":7394,"ĠØªØ£ÛĮÛĮØ¯":7395,"ĠØ¬Ø¹Ø¨Ùĩ":7396,"ancial":7397,"ĠÙĤØ§":7398,"Ġlie":7399,"ĠWin":7400,"Ġtend":7401,"Ġserious":7402,"ĠØ®Ø±Ø¬":7403,"ĠØ¸Ø§ÙĩØ±Ø§":7404,"IV":7405,"ĠØ§ÙģØ²ÙĪØ¯":7406,"ĠÙĨØªØ§ÛĮØ¬":7407,"Ġbeside":7408,"Ġfaces":7409,"Ø®ØµØµ":7410,"ini":7411,"ĠØ§Ø±Ø¨Ø§Ø¨":7412,"ĠØ¢Ø´ÙĨ":7413,"rian":7414,"Ġpattern":7415,"Ġfavor":7416,"Ġiron":7417,"Ġplease":7418,"Ġriver":7419,"Ġnormal":7420,"lier":7421,"ĠØ¨Ø¯Ùħ":7422,"ĠØ¨Ø¯ØªØ±":7423,"AN":7424,"Ġbenef":7425,"Ġmaint":7426,"ĠKh":7427,"µÛ°":7428,"ĠÙĨØ¸Ø±Ùħ":7429,"Ġconditions":7430,"ĠØ´Ú©Ø³ØªÙĩ":7431,"ĠIndian":7432,"ĠØ³ÙĤ":7433,"ĠØ±ÙĪØ²ÙĩØ§ÛĮ":7434,"Ġgets":7435,"Ġregular":7436,"year":7437,"ĠÂ·":7438,"ĠØ§Ú©Ø³":7439,"ĠÙħØ§Ø³":7440,"Ġlegs":7441,"ĠØ¨ÙĦØ§ÙģØ§ØµÙĦÙĩ":7442,"ĠReg":7443,"ĠFrank":7444,"Can":7445,"rank":7446,"ij":7447,"ĠØ¬ÛĮÙĨ":7448,"Ġsequ":7449,"ÙĢÙĨ":7450,"Ġinfluence":7451,"Ġterrible":7452,"ÙħÛĮØ±":7453,"Ġclothes":7454,"ĠÛ±Û¶":7455,"edia":7456,"Ġpaid":7457,"Ġshot":7458,"ĠÛ±Û¹Û±Û":7459,"Ġbroke":7460,"Ġopportunity":7461,"Ġnine":7462,"text":7463,"ĠÙħØ«Ø¨Øª":7464,"Ġafternoon":7465,"ĠÙĩÙħØ³Ø±Ø´":7466,"Ah":7467,"ĠÚ©ÛĮÙĦÙĪÙħØªØ±":7468,"fess":7469,"Ġdut":7470,"ĠÛ±Û±":7471,"ĠÚ¯ÙĪÙĨØ§":7472,"Ú©ØªÙĪØ±":7473,"ĠØ±Ø¯ÛĮ":7474,"Ġsweet":7475,"Ġjour":7476,"Ġrealized":7477,"off":7478,"Ġhun":7479,"Ġneck":7480,"ĠÙħØªØŃØ¯":7481,"Le":7482,"Ø±Ø¶":7483,"ĠØ¨Ø²ÙĨÙħ":7484,"orses":7485,"ĠÙħÛĮÚ©Ø±Ø¯":7486,"Ġlines":7487,"ĠÛµÛ°":7488,"pping":7489,"Ġwit":7490,"org":7491,"ĠØ¹ÙĤÙĦ":7492,"Ġnotice":7493,"Ġconflict":7494,"night":7495,"ĠØ³ÙĨØ¬":7496,"ĠPri":7497,"rate":7498,"Ġfirm":7499,"Ġgentleman":7500,"Ø§Ø¯Ø«Ùĩ":7501,"Ġleading":7502,"Ġbottom":7503,"ĠÙħØ³Ø¦ÙĪÙĦ":7504,"ĠØ®Ø§Ú©Ø³ØªØ±ÛĮ":7505,"wood":7506,"ISBN":7507,"ait":7508,"ÙĪÙĦØ§":7509,"ĠÙĨÙĤØ§Ø·":7510,"ĠØ§Ø¯Ø¨ÛĮ":7511,"ĠJapanese":7512,"ground":7513,"ĠÚĨØ´ÙħØ§ÙĨØ´":7514,"aign":7515,"ĠCast":7516,"ĠPort":7517,"Ġchief":7518,"ĠÙĨØ¸Ø±Ø´":7519,"Ġteeth":7520,"ĠPrince":7521,"Ġnote":7522,"ĠÛĮØ§ÙģØªÙĨ":7523,"ĠØºØ°Ø§ÛĮÛĮ":7524,"ĠØªØ¶":7525,"Ø´Ø§":7526,"Ġpale":7527,"oles":7528,"iforn":7529,"Ġspeech":7530,"Ġsurround":7531,"ĠÙħÙĦØª":7532,"ulf":7533,"inese":7534,"Ġimprove":7535,"ĠÙħØ§Øª":7536,"Ġobl":7537,"ĠØ¢ÙĪØ±Ø¯ÙĨØ¯":7538,"ĠNor":7539,"Ġaverage":7540,"Ġfool":7541,"Ġapproach":7542,"ĠÙĨØ¨ÙĪØ¯Ùĩ":7543,"ĠØ§ØªÙĪÙħØ¨ÛĮÙĦ":7544,"ĠÙħØ§Ø¬":7545,"isions":7546,"ĠÙĦØ±":7547,"ĠÙħÙĦÙĦ":7548,"Ġwalls":7549,"fl":7550,"ĠÙģÛĮØ²ÛĮÚ©":7551,"ĠIm":7552,"Ø§ÙĪÙĩ":7553,"gged":7554,"ĠØ¢Ø´Ù¾Ø²":7555,"Ġanimal":7556,"Ġthroughout":7557,"ÙĪØ§Ø±Ø¯":7558,"ĠØŃØ°Ùģ":7559,"ĠÚ¯Ø§Ùħ":7560,"road":7561,"Ġneither":7562,"Ġvir":7563,"ĠØ¯Ø§ÙĨÛĮÙħ":7564,"ĠØ¹ÙĦØ§ÙħØª":7565,"ufact":7566,"vey":7567,"ĠÚ©Ø±Ø¯ÛĮØ¯":7568,"ĠØ§ÙĪØª":7569,"pper":7570,"ET":7571,"ÙĪØ´ÛĮ":7572,"Ġspot":7573,"Ġholding":7574,"Ġdrawing":7575,"ĠÙ¾Ø§ÛĮØ¯":7576,"Ġfreedom":7577,"ĠÙħØªØµÙĦ":7578,"ĠØ¢Ø±Ø§ÙħÛĮ":7579,"ĠRussia":7580,"Their":7581,"ĠØªØ±ÙĪØ±ÛĮ":7582,"ship":7583,"Ġtrain":7584,"Pr":7585,"ghan":7586,"Ġ23":7587,"Ġdrew":7588,"Ġchurch":7589,"Ġ22":7590,"Ġinte":7591,"ashion":7592,"Ġempty":7593,"ĠÙģÙĪØ±Ø§":7594,"ĠØ³ÙĦØ·":7595,"âĢĮ":7596,"Christ":7597,"ĠØ¨Ø¹Ø¯Ø§":7598,"Ġinstit":7599,"ĠÙģØ¶Ø§ÛĮÛĮ":7600,"ĠØ¨Ø³Ø§Ø²":7601,"ĠØ®Ø´ÙĨ":7602,"¹Û°":7603,"Ġbod":7604,"ĠØ³ÛĮÙĦ":7605,"ĠÙģÚ©Ø±ÛĮ":7606,"ĠØ§ÙĦÙģ":7607,"ĠÙĨÚ¯":7608,"Ġdisappe":7609,"ĠArch":7610,"Ġrepeated":7611,"Ġstudies":7612,"Ġexplain":7613,"ĠÚĺÙĨØ±Ø§ÙĦ":7614,"Ġpun":7615,"Ġmathemat":7616,"Ġfingers":7617,"Come":7618,"ĠÚ©ÙĨØª":7619,"unities":7620,"Ġenter":7621,"Ġadvant":7622,"Ø¢Ùħ":7623,"ĠÚ©Ø§ÙĦÛĮ":7624,"ĠÙĨÙĪØ§Ø²":7625,"ĠChristian":7626,"ĠØªØ±Ø¬ÛĮØŃ":7627,"ÙĦØ§Øª":7628,"icles":7629,"ĠBo":7630,"ĠFil":7631,"ĠÙĨÚ¯ÙĩØ¯Ø§Ø±ÛĮ":7632,"Ø¯Ø§Ùģ":7633,"atin":7634,"cean":7635,"Ġlarger":7636,"Ġmessage":7637,"Ġstars":7638,"ĠOn":7639,"ĠØ§ÙħØªØŃ":7640,"Ġsac":7641,"agon":7642,"ĠÙĨÛĮÚ©":7643,"ĠÙĨØ§Ù¾Ø°ÛĮØ±":7644,"hold":7645,"Ġcru":7646,"Ù¾Ø§ÛĮÛĮ":7647,"ĠPark":7648,"ago":7649,"ĠØ³Ø±Ø§Øº":7650,"Ġtarget":7651,"ĠØ¨Ø¨Ø±Ø¯":7652,"ĠIraq":7653,"ĠÛ±Û´":7654,"Ø§ÙģØ¹":7655,"Ġreported":7656,"ĠÙħØ¹Ø¯":7657,"ĠØ±Ø¶":7658,"ĠÙħÙĨÙĪ":7659,"ĠÙħÙĨÙģ":7660,"ØªÛĮÚ©":7661,"using":7662,"Ġshape":7663,"Ġconce":7664,"ĠØ¯ÛĮØ¯Ø§Ø±":7665,"ĠØ¬ÙĨØ¨Ùĩ":7666,"Ġmultip":7667,"Ġpractice":7668,"ĠÙħÛĮØ®":7669,"ĠØªØ±Ø³ÛĮØ¯":7670,"ÙģÛĮÙĦ":7671,"Ġfle":7672,"Ġbell":7673,"ĠØ¯ÙĪØ³ØªÛĮ":7674,"ĠJean":7675,"ĠØ³ÙĪØ¦":7676,"more":7677,"Ġbeauty":7678,"Ġblind":7679,"ĠØ¨ÙĪÙħÛĮ":7680,"Ø¨Ø³ÛĮØ§Ø±ÛĮ":7681,"ĠÙĤÙĩØ±ÙħØ§ÙĨ":7682,"Other":7683,"ĠÙĨÙĪØ±ÛĮ":7684,"ĠCoun":7685,"ailed":7686,"ĠMich":7687,"Go":7688,"uous":7689,"ĠØ¹Ø°":7690,"ĠÚ©Ø´ÛĮØ¯ÙĨ":7691,"Ġpressure":7692,"Ġopinion":7693,"Ġforest":7694,"Ġresponse":7695,"ĠÙħÙĨØ¯":7696,"ĠØ±Ø§Ø¶ÛĮ":7697,"ĠBill":7698,"ĠâĢľ":7699,"Ø¬ÙĪØ§ÙĨ":7700,"Ú©ÙĨÙĨØ¯Ùĩ":7701,"ÙħØ±Ø¯Ùħ":7702,"Ġliked":7703,"Ġfamilies":7704,"house":7705,"Ð¸":7706,"ĠÙģØ¯Ø±":7707,"sec":7708,"Ġreligious":7709,"Ġinqu":7710,"Ġended":7711,"ĠØ§Ø¶Ø·Ø±":7712,"ĠØ¯Ø±Ùĩ":7713,"Ġboat":7714,"ĠÛ²Û°Û°Û¸":7715,"ĠÙģØ±Ø³ØªØ§Ø¯Ùĩ":7716,"De":7717,"cast":7718,"Ġhorses":7719,"ÙĦÙĪØª":7720,"ĠÛ²Û°Û°Û¹":7721,"onel":7722,"ĠØ®Ø§ÙĦ":7723,"ĠØŃÙĪØ²Ùĩ":7724,"ĠÙĩØ²Ø§Ø±Ø§ÙĨ":7725,"Ġbal":7726,"osite":7727,"ĠØ´Ú©ÙĦÛĮ":7728,"198":7729,"Ø´ÛĮØ±":7730,"Ġmir":7731,"Ġvari":7732,"ØºØ±":7733,"Ġ190":7734,"ĠÙĨØ¯Ø§Ø´ØªÙħ":7735,"Ġmole":7736,"ifornia":7737,"otes":7738,"antic":7739,"ĠÚ©Ø´ÛĮ":7740,"Ġdestroy":7741,"Ġpassion":7742,"ĠØ§ÙĪØ³Øª":7743,"ĠLF":7744,"ĠSpanish":7745,"Ġsmell":7746,"Ġtrade":7747,"ĠÚĨÙĩØ§Ø±Ùħ":7748,"ĠØ´Ø¹Ø±":7749,"Two":7750,"ĠÙĪÛĮÚ©ÛĮ":7751,"Ġincreased":7752,"ĠØ³ØªÙĪÙĨ":7753,"ĠØ±Ø§Ø³ØªÛĮ":7754,"Ġincluded":7755,"ĠØ¨ÙĪÙĦ":7756,"Ġrelative":7757,"ĠØªØ´ÙĪÛĮÙĤ":7758,"Ø´ÙĩØ±":7759,"Ġcred":7760,"ĠØ¬Ø³ØªØ¬ÙĪ":7761,"ĠØŃØ¯ÛĮ":7762,"ĠØŃØ§Ø¯Ø«Ùĩ":7763,"ÙħØ§ÙĨØ¯Ùĩ":7764,"Ġliber":7765,"Ġactivity":7766,"acing":7767,"ĠØ¨Ø±ÙĪÛĮÙħ":7768,"ĠÙ¾Ø§ÛĮÚ¯Ø§Ùĩ":7769,"ĠØ¯ÛĮØ¯Ú¯Ø§Ùĩ":7770,"Ġasking":7771,"ĠÙĬÙĥ":7772,"Ù¾Ø±Ø§":7773,"Ġcaused":7774,"olly":7775,"Ġluck":7776,"Ġgraph":7777,"Ġperformance":7778,"Ġtelevision":7779,"Ġactive":7780,"Ġlabor":7781,"kay":7782,"mione":7783,"ÙħÙ¾":7784,"Ġ()":7785,"ĠCr":7786,"ounded":7787,"ĠØ§ÙģØºØ§ÙĨ":7788,"ÙĪÙĨÙħ":7789,"Ġlean":7790,"Ġmedic":7791,"ĠÙħÙĩØ±Ø¨Ø§ÙĨ":7792,"Ġtreatment":7793,"Ġcommer":7794,"ĠØ¨Ú¯Ø°Ø§Ø±Ø¯":7795,"zen":7796,"Ø²ÙħØ§ÙĨÛĮ":7797,"ĠØ®ÙĦØ§Ùģ":7798,"Ġnoticed":7799,"ĠÙĨÙħÙĪØ¯Ùĩ":7800,"ĠØŃÙģØ§Ø¸Øª":7801,"pro":7802,"ĠØ¨Ú¯ÛĮØ±ÛĮØ¯":7803,"Ø§ÙĨØ§":7804,"ĠØ¹Ø±Ø¨":7805,"Ġplain":7806,"izations":7807,"ĠÙ¾ÛĮØ±ÙħØ±Ø¯":7808,"ĠØ¨Ø±Ø¬Ø³ØªÙĩ":7809,"Ġconsequ":7810,"BC":7811,"ĠØ¯Ø±Ú¯ÛĮØ±":7812,"ĠÙĦØ§ÛĮÙĩ":7813,"ĠØªÙħØ§Ø´Ø§Ú¯Ø±":7814,"isters":7815,"ID":7816,"MS":7817,"Ġ\"(":7818,"pered":7819,"Ġgives":7820,"Ġï":7821,"Ġsymb":7822,"Ġobv":7823,"Are":7824,"atives":7825,"ĠÙ¾ÙĦØ§":7826,"Ġonline":7827,"Ġyouth":7828,"Ġshows":7829,"ĠJack":7830,"ĠØ±Ø§ÛĮØ§ÙĨÙĩ":7831,"ĠØ§Ø·ÙĦØ§Ø¹Ø§ØªÛĮ":7832,"ĠØ¢Ø²Ø§Ø±":7833,"anda":7834,"ĠList":7835,"ĠTED":7836,"ĠÙħØŃØµÙĪÙĦØ§Øª":7837,"Did":7838,"ÙģÙĩØ±Ø³Øª":7839,"Ø®ÙĨØ¯ÛĮ":7840,"Ġstick":7841,"Ġrid":7842,"Ø¦ÙĦ":7843,"ĠItalian":7844,"ĠAfrican":7845,"Ġtouch":7846,"ĠÚ¯Ø°Ø±Ø§ÙĨØ¯":7847,"¸Û°":7848,"Ø¨Ø§Ø²ÛĮ":7849,"Ġrare":7850,"iano":7851,"Ġclim":7852,"yr":7853,"Ġ^":7854,"ĠGlo":7855,"Ġfeed":7856,"ĠThis":7857,"ĠItaly":7858,"ĠØ²ÙĪØ±":7859,"Ġweight":7860,"Ġchoice":7861,"ĠØ®ÙĪØ§ÙĩØ´":7862,"ĠØ±Ø§ÙĩÙĨÙħ":7863,"ĠØ¬ÙħØ¹ÛĮ":7864,"ĠÙĨÙĪÛĮØ³ÛĮ":7865,"ĠÙħÙĦØ§ØŃ":7866,"ĠÙħØµØ±":7867,"ĠØ¹Ø¬ÛĮØ¨ÛĮ":7868,"ĠØ¢Ù¾":7869,"Ġren":7870,"Ġ2002":7871,"Ġther":7872,"Ú©Ø§Ø±Ø§ÙĨ":7873,"orrow":7874,"Ġlaid":7875,"ÙĨÙĪØ´Øª":7876,"ĠØ±ÙĤØ§Ø¨Øª":7877,"Ø®Ø¯Ø§":7878,"ĠØ¨ÛĮÙģØª":7879,"78":7880,"ym":7881,"itable":7882,"Ġfit":7883,"Ġfarm":7884,"ĠÚĨØ§ÙĤ":7885,"ste":7886,"Ø§Ø´Ø§":7887,"Cl":7888,"ĠØ®Ø¨Ø±ÛĮ":7889,"ĠØ¯Ø§ÙĨÙĨØ¯":7890,"ĠØ¨Ø§ÛĮØ³ØªÛĮ":7891,"ĠØ§ÙĦÚ©ØªØ±ÛĮÚ©ÛĮ":7892,"iot":7893,"Ġhang":7894,"ĠØŃØ±ÙģÛĮ":7895,"Ġbran":7896,"Ġtone":7897,"Ġalgorithm":7898,"ĠÙĩÙĦ":7899,"ĠÛ±Û³":7900,"eles":7901,"ĠØ§ÙħØªÛĮ":7902,"ĠØ¨Ø±Ø¯ÙĨ":7903,"Ġsuccessful":7904,"ĠÙĪØ¬":7905,"Ġbeat":7906,"ĠKore":7907,"Ġprint":7908,"ĠØ¬ÛĮØ¨":7909,"ĠÙħØ®ØªÙĦÙģÛĮ":7910,"Ġremembered":7911,"ĠØ¢ÙĨØ§":7912,"rance":7913,"ĠØ±ÛĮØ§Ø³Øª":7914,"ĠÚ¯ÙĪØ±":7915,"ĠÙ¾Ø¯ÛĮ":7916,"ĠØ¬ÙģØª":7917,"Ã³n":7918,"ĠÚ¯ÛĮØª":7919,"ĠThom":7920,"Ġtall":7921,"Ú©Ø¨":7922,"ĠØ§ÙĪÙĨØ¬Ø§":7923,"Ġolder":7924,"ĠÙħÙĩØ§Ø±Øª":7925,"ĠBook":7926,"Ø¨Ø±ØªØ§":7927,"ĠSystem":7928,"ĠÙ¾Ø§Ø¯Ø´Ø§Ùĩ":7929,"Ġjournal":7930,"Ġassum":7931,"ĠÙħØªÙĪØ³Ø·":7932,"Ġmanufact":7933,"under":7934,"olved":7935,"ĠØªÙĪÙĦØ¯":7936,"roud":7937,"ĠÙĨÙĤØ±Ùĩ":7938,"Ġscientific":7939,"Ġobserved":7940,"ĠAustralia":7941,"ĠØ±ÙħØ§ÙĨ":7942,"Ġturns":7943,"aimed":7944,"Ø³ÙĪØ±":7945,"Ġmanagement":7946,"ĠÙĨÙĩØ§ÛĮÛĮ":7947,"·Û°":7948,"Ġancient":7949,"ĠØ¨Ø¹Ø¯ÙĩØ§":7950,"ĠØªÙĪÙĨÙħ":7951,"ĠØ§Ø®ØªØµØ§Øµ":7952,"Pro":7953,"ÙĨØ®":7954,"ĠØªÙĪÙĤÙģ":7955,"Ġsynt":7956,"ĠÚ©Ø´ÙĪØ±ÙĩØ§":7957,"Ġsupposed":7958,"Ġalive":7959,"ĠØ¸ÙĩØ±":7960,"ĠØ¯Ø±ÛĮØ§ÚĨÙĩ":7961,"hered":7962,"ĠÚ©Ø±Ø¨ÙĨ":7963,"::":7964,"ĠÚĨÛĮÙĨÛĮ":7965,"ĠSpe":7966,"ĠÙħØ«ÙĦØ§":7967,"ĠÙĨØ¯Ùĩ":7968,"onia":7969,"arian":7970,"Ġprogress":7971,"ĠØ¹Ø±Ø¶Ùĩ":7972,"Ġtax":7973,"ĠâĢı":7974,"ĠØ¨Ø§Ø¨Ø§":7975,"ĠØ¹Ø¯Ùĩ":7976,"ĠÙ¾Ø±ØªØ§Ø¨":7977,"ĠØ²ÙĨÙħ":7978,"Ġrule":7979,"Ġkit":7980,"Ġcareer":7981,"ye":7982,"ĠDist":7983,"ĠWestern":7984,"ĠÙĨØ´ÙĨ":7985,"ĠQue":7986,"Ø¦ÛĮØ¯":7987,"Ġlose":7988,"ĠØ¢Ø±Ø²":7989,"ĠÙĦÙĩØ³ØªØ§ÙĨ":7990,"ĠØ¨Ø§ÙģØª":7991,"ĠCalifornia":7992,"Ġarrest":7993,"Ġequal":7994,"ĠSov":7995,"ĠÙħØŃØ¯":7996,"Ġtea":7997,"Ġhouses":7998,"Our":7999,"Ġlying":8000,"Ø¬ÛĮØª":8001,"ÙĪÙĦØª":8002,"Ġincludes":8003,"Ø§Ø¨Ø±ÛĮ":8004,"cow":8005,"ĠØ¯Ø§ÙĪ":8006,"Ġhaven":8007,"Ġexch":8008,"Ġknowing":8009,"Ú¯ÙģØªÙħ":8010,"la":8011,"ĠÙĤØ±Ø¨Ø§ÙĨÛĮ":8012,"berg":8013,"Ġoffer":8014,"ĠØ¶Ø±Ø¨":8015,"ĠØ³ÙĪØ±Ø§Ø®":8016,"ĠSoviet":8017,"ĠØ±Ø§ÙĨØ¯":8018,"ĠÙĦØŃÙĨÛĮ":8019,"burg":8020,"ĠÙħÙĨÙģÛĮ":8021,"ÙħÚ¯Ø±":8022,"Ø¹Ø¯Ùĩ":8023,"ĠØ§ØªÙħ":8024,"Ġimpact":8025,"Ġjourney":8026,"ĠØ¯Ø®":8027,"ĠÚ¯ÙĨØ¬":8028,"ĠØ¨Ø±Ø§ÙĨ":8029,"ĠØ¹Ø±Ø§ÙĤ":8030,"ĠRed":8031,"Ġpresident":8032,"ĠØ§Ø³Ø±Ø§Ø¦ÛĮÙĦ":8033,"ĠØªÙħØ±ÛĮÙĨ":8034,"Ġpocket":8035,"ÙĤÛĮØ¨":8036,"ĠØªÙħØ§ÛĮÙĦ":8037,"Ġwants":8038,"ĠÙ¾ÙĪØ´Ø§ÙĨ":8039,"sp":8040,"Ø§ÛĮØ§ÙĨ":8041,"ĠMat":8042,"Ġblock":8043,"Ġeventually":8044,"ĠÚĨØ§ÙĦØ´":8045,"ĠØªØŃÙĤ":8046,"Ġspect":8047,"ĠØ¨Ú¯ÛĮØ±ÙĨØ¯":8048,"asha":8049,"ĠÙ¾Ø°ÛĮØ±ÙģØª":8050,"ĠÚĨØ§ÛĮ":8051,"ĠÙħÙĪÙĩØ§ÛĮ":8052,"Ø¢Ø¨":8053,"ĠHen":8054,"Ġstock":8055,"uls":8056,"ĠØªØ±Ø¬ÙħÙĩ":8057,"Ġintelligence":8058,"ĠØ´Ø§Ø±":8059,"ĠØ§ÛĮÙĨÚ©":8060,"ĠØ´ÙĪØ±ÙĪÛĮ":8061,"ÙĨØ¸":8062,"Ġwand":8063,"Ø±ÛĮØ´":8064,"Ġlibr":8065,"ĠØ¨Ø¨ÛĮÙĨÛĮÙħ":8066,"aling":8067,"Ú©ÛĮØª":8068,"rawn":8069,"Ġpotential":8070,"Ġgall":8071,"Ġmel":8072,"ÙģØ±Ø§ÙĨ":8073,"ĠØ¨Ú©Ø´Ø¯":8074,"ĠÙĤØ§Ø¨ÙĦÛĮØª":8075,"Ø¯Ú©ØªØ±":8076,"Ġcard":8077,"eal":8078,"Ġcatch":8079,"Ġseat":8080,"earch":8081,"Ġdesert":8082,"Ġreasons":8083,"ĠÚ¯ÙģØªÛĮ":8084,"clock":8085,"Ġloud":8086,"ips":8087,"ĠØ§Ø³ÙĦØ§ÙħÛĮ":8088,"ĠÙĩØ§Ø±":8089,"Ø¢Ø±":8090,"asy":8091,"ĠCong":8092,"ĠÙħÙĪØ²Ùĩ":8093,"ĠØªØ§Ø¨Ø³ØªØ§ÙĨ":8094,"ĠÙĨØ§Ø¨ÙĪØ¯":8095,"ĠØ®ÙĪØ§Ùħ":8096,"Ø²Ø§ÛĮ":8097,"Ġ2001":8098,"cript":8099,"Ġox":8100,"Ġbare":8101,"ĠØ³ÙĨØªÛĮ":8102,"ĠÙ¾Ø±ÙĪØ±Ø´":8103,"ĠNat":8104,"Ġangry":8105,"Ġsurprise":8106,"Ø±Ø¯ÙĨ":8107,"Ø¯ÙĩÙħ":8108,"Ú©Ø±Ùĩ":8109,"Ġsomebody":8110,"Ġdocument":8111,"Tr":8112,"ĠØªØµØ§ÙĪÛĮØ±":8113,"Ġintroduced":8114,"Ġfeatures":8115,"ĠÙħØŃØ³ÙĪØ¨":8116,"ĠÙ¾ÙĪÙĦÛĮ":8117,"umbled":8118,"ÙĨØ§Ú©ÛĮ":8119,"Ġ27":8120,"ĠØ¢ÙĨØ¯Ø±Ùĩ":8121,"pic":8122,"Ġhit":8123,"Ġeast":8124,"Ø¢ÛĮ":8125,"Ġoccasion":8126,"rif":8127,"ÙĢØ§":8128,"ĠÙĨÚ©ÙĨØ¯":8129,"ĠÙħØŃØ§Ø³Ø¨Ùĩ":8130,"Ø¹ÙĦ":8131,"ĠÙ¾ÙĨØ¬Ø§Ùĩ":8132,"Ġdegree":8133,"Ġforth":8134,"ĠØµØŃÛĮØŃ":8135,"ĠRos":8136,"ĠChinese":8137,"ĠÙĨØ¨ÙĪØ¯ÙĨØ¯":8138,"ĠØ¨ØªÙĪØ§ÙĨÙĨØ¯":8139,"ĠØªÙĦÙĪÛĮØ²ÛĮÙĪÙĨ":8140,"enge":8141,"Ġfashion":8142,"ĠØ³Ø§ÙĦÛĮ":8143,"Ġhospital":8144,"ĠØ¯Ø§ÛĮ":8145,"ĠÙģØ±Ø²ÙĨØ¯Ø§ÙĨ":8146,"ĠÙħØ¤Ø³":8147,"Ġfal":8148,"ĠÙĦØ¨Ùĩ":8149,"oved":8150,"Ġaim":8151,"Ġbase":8152,"Ġcircumst":8153,"ĠÙĪØ²ÙĨ":8154,"Ġpark":8155,"ĠØ±Ø§Ø²":8156,"ĠØ¢ÙħÙĪ":8157,"pected":8158,"Ġring":8159,"ĠÙħØŃÚ©ÙĪÙħ":8160,"ĠØ§Ø±Ø§Ø¯Ùĩ":8161,"ĠØ¨Ø±Ø¯ÙĨØ¯":8162,"Ġfeelings":8163,"Ġproperty":8164,"ĠØ¬ÙĪÙĨ":8165,"olic":8166,"ÙĪÙħÙĩ":8167,"Ġ80":8168,"volution":8169,"Ġ60":8170,"Ġhurt":8171,"ĠÙĪØ§ÛĮ":8172,"ĠÙĩÙħØ³":8173,"eless":8174,"ĠÛ¸Û":8175,"Ġvac":8176,"ĠTrans":8177,"Ġguard":8178,"ĠÙĨØ§ÙĩØ§Ø±":8179,"IT":8180,"Ġspite":8181,"ĠØ¨Ø¯ÙĩÙĨØ¯":8182,"Ġappearance":8183,"ĠInstitute":8184,"IC":8185,"acity":8186,"Ġearlier":8187,"ĠØªØ³ÙĦÛĮÙħ":8188,"ĠÚ©ÙĨØ§ÙĨ":8189,"Ġsuc":8190,"ĠSwed":8191,"Ġ1990":8192,"ĠØ¢ÙĪØ§Ø²":8193,"uh":8194,"atab":8195,"ĠSaint":8196,"Mrs":8197,"Ġsoldiers":8198,"Ø¨Ø³":8199,"oured":8200,"ĠØ¬Ø§ÙĨØ¨":8201,"ĠØªØ£ÙħÛĮÙĨ":8202,"Ġwished":8203,"Ġbag":8204,"Ġrise":8205,"ĠØ¯Ø®ØªØ±Ø§ÙĨ":8206,"ĠPoland":8207,"ĠÙħØ§Ø±ÛĮØ§":8208,"ĠØ¨Ø±Ø¯Ø§Ø±":8209,"iliar":8210,"time":8211,"Ġshock":8212,"Ġhelped":8213,"Ø¬ÛĮÙĨ":8214,"Ġclos":8215,"ension":8216,"Ġviolence":8217,"Ø§ÛĮÙĨØ¬Ø§":8218,"Look":8219,"ĠØ´Ø¨Ùĩ":8220,"ĠÚ¯Ø§ÙĪ":8221,"ĠDor":8222,"ĠØŃØ§Ø¶Ø±ÛĮÙĨ":8223,"Ġentirely":8224,"roup":8225,"ĠÙħØ±Øº":8226,"ĠÚ©Ø§Ø±Ø®Ø§ÙĨÙĩ":8227,"ĠØ®Ø·Ø±ÙĨØ§Ú©":8228,"ĠÙħÙĩÙĨØ¯Ø³ÛĮ":8229,"ĠÚ©ÙĩÙĨÙĩ":8230,"ĠÛ²Û°Û±Û³":8231,"Ġeconomy":8232,"ydro":8233,"More":8234,"Ġprice":8235,"ĠÙģØ±Ø§ÙĪØ§ÙĨ":8236,"Ġassociated":8237,"ĠØ³Ø§ÛĮ":8238,"ĠÙĨØ¸ÛĮØ±":8239,"ĠÙĪØ³Ø§ÛĮÙĦ":8240,"Ġestim":8241,"Ġsignificant":8242,"ĠØ¹Ø¬ÙĦÙĩ":8243,"ithe":8244,"Ġgoal":8245,"ĠÙħÙħÚ©ÙĨÙĩ":8246,"Ġsolution":8247,"Ġpolicy":8248,"ØµØ§Ø¨":8249,"Ġfish":8250,"ĠÙģØ§ÙĨÛĮ":8251,"ĠØ¯ÙĪØ§Ø²Ø¯Ùĩ":8252,"oken":8253,"ĠWhite":8254,"lebr":8255,"Ġstore":8256,"Ġelements":8257,"ĠØ¨Ù¾Ø±Ø¯":8258,"Ind":8259,"ĠPers":8260,"ĠØ¯ÛĮØ¬ÛĮØª":8261,"ĠØ¨Ø§Ø´Ú¯Ø§Ùĩ":8262,"Ø¯Ø§ÛĮÛĮ":8263,"ĠÙħØ®ØµÙĪØµØ§":8264,"igned":8265,"Ø²Ø§Ø±Øª":8266,"ĠAfghan":8267,"Ġsucceed":8268,"Each":8269,"Ú©ÙħÛĮ":8270,"Ġseason":8271,"ĠØ§Ø´ØªØ±Ø§Ú©":8272,"Ġresources":8273,"ĠØ§ÙħØªØŃØ§ÙĨ":8274,"tte":8275,"ĠÙħÛĮÚ©Ø±ÙĪ":8276,"Ġissue":8277,"ĠÙĦØ±Ø²ÛĮØ¯":8278,"ca":8279,"Ġdry":8280,"tering":8281,"ĠÙħØ±Ø¯ÙħÛĮ":8282,"Ġfamous":8283,"Ġinterp":8284,"ffe":8285,"ĠRo":8286,"Ġru":8287,"ÙĬØ±":8288,"ĠÙ¾ÛĮØ±Ø§Ùĩ":8289,"Ġbecomes":8290,"30":8291,"ĠTV":8292,"ĠØ§Ø¹ØªØ±Ø§Ø¶":8293,"Ġissues":8294,"Ġyellow":8295,"IP":8296,"ĠØ±Ø£":8297,"ĠÙħÛĮØ§Ø¯":8298,"ĠÚ©Ø´Ø§ÙĪØ±Ø²ÛĮ":8299,"Ú¯ÙĨØ§ÙĦ":8300,"Ġtitle":8301,"ĠÙħØŃØª":8302,"ĠÚ¯ÙĦÙĪÙĦÙĩ":8303,"Ġgreatest":8304,"ĠMuslim":8305,"ĠØ®Ø§Ø·":8306,"ĠØ§Ø±Ø²ÛĮ":8307,"ĠØ´Ø¨Ø§Ùĩ":8308,"ĠØ®Ø±Ø§Ø¨":8309,"ĠØ§Ø¹ØªØ±Ø§Ùģ":8310,"Ġdefined":8311,"ĠÙĨÙĢ":8312,"ittee":8313,"cu":8314,"ÙģÛĮÙĦÛĮÙ¾":8315,"ĠØ±ÙĨÚ¯ÛĮ":8316,"ĠØ¨ÛĮÙĦ":8317,"Ġescape":8318,"ĠØ§ÙħØ±ÙĪØ²Ùĩ":8319,"ĠØ§Ø´ÛĮØ§":8320,"ords":8321,"ĠØ³ÙĤÙĪØ·":8322,"Ġ*\"":8323,"Ġrelease":8324,"Ġobjects":8325,"ĠÙ¾Ø¯":8326,"ĠÙħÙĪØ´":8327,"ĠØ¯ÙĩÛĮ":8328,"ĠØªÙĦÙĪÛĮØ²ÛĮÙĪÙĨÛĮ":8329,"Ø¶Ø§Ø¹":8330,"ĠØ¨ÛĮÚĨØ§Ø±Ùĩ":8331,"ĠLou":8332,"ĠØ¯ÛĮØ¯ÙĨØ¯":8333,"Ġice":8334,"ĠÙĪÙģ":8335,"ĠÛĮØ§ÙĨ":8336,"ĠPierre":8337,"ĠÙħØŃÙĤ":8338,"Ġflat":8339,"ĠÚ©ÙĪØªØ§ÙĩÛĮ":8340,"ĠØ§Ú©Ø«Ø±":8341,"Ġinj":8342,"ĠØ¶Ø¨Ø·":8343,"Ø¨ÙĪØ±Ú¯":8344,"oned":8345,"ĠRich":8346,"Ġnoise":8347,"Ú©ÙĪÙĨÛĮ":8348,"Ġquality":8349,"Ø¨Ø¯ÙĪÙĨ":8350,"ÙĪØ§ÙĤØ¹Ø§":8351,"ĠØ¢ÙģØ±":8352,"ĠÛ²Û°Û°Û¶":8353,"MA":8354,"ĠLaw":8355,"ĠÙħØŃÙħØ¯":8356,"ĠØ¯Ø§ÙĨØ´Ø¬ÙĪÛĮ":8357,"Ġcontinue":8358,"ĠÙħØªØ¹ÙĦÙĤ":8359,"ĠØ²Ø§Ø¯Ùĩ":8360,"ĠØ¬Ø°Ø¨":8361,"Ġrules":8362,"Ġstreets":8363,"ÙĪØ§ÛĮÛĮ":8364,"Ø·Ø¨":8365,"ĠÙħØ³Ú©ÙĪ":8366,"Ġgrass":8367,"ĠØ¬ÙĦÙĪÙĩ":8368,"Another":8369,"ÙĦÛĮØº":8370,"ĠÙĦÛĮÙĨ":8371,"ĠChurch":8372,"Ġindic":8373,"Good":8374,"Ø®ÙĪØ´":8375,"Ġfinancial":8376,"Ġhonor":8377,"Ġpredict":8378,"ĠMal":8379,"Sc":8380,"ĠÙħÛĮØªÙĪÙĨ":8381,"Ø§ÙĦÙĪ":8382,"Ġeth":8383,"ĠØ§ÙģÚ©ÙĨØ¯":8384,"ĠÙħØŃØ§ÙģØ¸Øª":8385,"Ø±ÙĨÚ¯":8386,"ĠØ¨ÙĪØ¯ÛĮ":8387,"obile":8388,"ĠÙħØ³ÙĦÙħØ§ÙĨ":8389,"ĠMartin":8390,"ĠDay":8391,"Ġdarkness":8392,"ĠGovern":8393,"mission":8394,"ĠMel":8395,"resp":8396,"ĠÙħØ§Ø¯Ø±Ùħ":8397,"Ġsilver":8398,"Ġbuildings":8399,"New":8400,"ĠÙĩØªÙĦ":8401,"ĠØªØ§Ú©ÙĨÙĪÙĨ":8402,"Ġadop":8403,"ĠØ¨Ø§Ø±ÙĩØ§":8404,"ĠØ³ÙĪØ¡":8405,"based":8406,"ĠØ¨Ø±Ú¯Ø²":8407,"ours":8408,"Ġagree":8409,"ÚĨÛĮØ²":8410,"ĠØ¢ØºÙĪØ´":8411,"Ġfemale":8412,"aches":8413,"Ġwealth":8414,"Its":8415,"Ġprote":8416,"arsh":8417,"ĠØ§ÛĮÙĨØªØ±ÙĨØªÛĮ":8418,"ĠØ±Ø¶Ø§ÛĮØª":8419,"¶Û°":8420,"ĠØ³ÛĮØ±":8421,"retched":8422,"Ġedge":8423,"ĠMiddle":8424,"ĠØµØ§Ùģ":8425,"ĠÙĤÙĦØ¹Ùĩ":8426,"erous":8427,"Ġreb":8428,"ĠCam":8429,"Ġrace":8430,"Ġcalm":8431,"ĠØµÙĨØ¹ØªÛĮ":8432,"Like":8433,"ault":8434,"Ġtom":8435,"ĠTurk":8436,"Ġwis":8437,"ĠØ¬ÙĪÛĮ":8438,"ĠØ¢ÙħØ±ÛĮÚ©Ø§ÛĮ":8439,"Ġrevolution":8440,"60":8441,"ĠØ¯ÙĪÛĮØ¯":8442,"ĠHigh":8443,"Ġunivers":8444,"Ġcampaign":8445,"ĠØªÙħØ§Ø´Ø§Ú¯Ø±Ø§ÙĨ":8446,"ĠØ¹Ùģ":8447,"ĠMo":8448,"ĠStud":8449,"Ġlistening":8450,"Ġdropped":8451,"Ġreligion":8452,"ĠÙĨØ±Ø®":8453,"Ø§ÙĦØ§ÙĨ":8454,"Ø³Ø§Ø³ÛĮ":8455,"ĠMoscow":8456,"ĠMac":8457,"Ġphone":8458,"Ġfinding":8459,"Ġlaws":8460,"ĠCouncil":8461,"ares":8462,"ĠÙĪØ§Ø¶":8463,"Ø¨Ø¯ÛĮÙĨ":8464,"ÙħÙĨÛĮ":8465,"ĠØ¨ÙĩØªØ±ÛĮ":8466,"Ġleaves":8467,"Ġincred":8468,"ĠÙĩÙħÚ¯ÛĮ":8469,"Ø¢ÙħÛĮØ²":8470,"Ġinstance":8471,"ĠØ¨Ø§Ùĩ":8472,"ĠØ§ÙĨØ¯Ø§Ùħ":8473,"Ġofficer":8474,"Ġconnected":8475,"kes":8476,"ĠØ¨Ø±Ø§":8477,"ĠØ±ÙĪØ²ÙĩØ§":8478,"ĠÙ¾ÚĺÙĪÙĩØ´":8479,"ĠSun":8480,"ĠÙħØªØ¹Ø¯":8481,"Ġimages":8482,"ĠØ²ÙħÛĮÙĨÛĮ":8483,"Ġplayer":8484,"Ġcorrect":8485,"Ġlegal":8486,"Ġjoined":8487,"Ġweb":8488,"Ġrank":8489,"ÙĢØª":8490,"Ġclub":8491,"ĠÙħØ³ÛĮØŃÛĮ":8492,"ĠGmina":8493,"umn":8494,"Ġpatients":8495,"ĠØ¨Ú¯ÛĮØ±Ùħ":8496,"Ġmotion":8497,"MDb":8498,"ĠÚ©Ø§ÙĦÛĮÙģØ±":8499,"ĠØµØ§Ø¯Ø±":8500,"Ġalt":8501,"Ġcoat":8502,"ĠØ§ÙĩØ¯Ø§Ùģ":8503,"ÙħØ²ÙħÙĩ":8504,"ÙħØ«ÙĦØ§":8505,"Ġfields":8506,"Ġopposite":8507,"Ðµ":8508,"ĠÙ¾Ø±ÙĨØ¯Ùĩ":8509,"Ġsmiling":8510,"Ġ189":8511,"ĠAssoci":8512,"ĠCenter":8513,"ĠMont":8514,"Ġcarbon":8515,"Ġapart":8516,"Ġpulled":8517,"fficial":8518,"Ġencour":8519,"ĠÙ¾Ø³Ø±Ø´":8520,"Ġsym":8521,"ĠØ³Ø±Ø¨Ø§Ø²Ø§ÙĨ":8522,"ĠÙĪØ²Ø§Ø±Øª":8523,"Ġstream":8524,"ulated":8525,"Ġdemocr":8526,"ĠÙĩØ¬":8527,"ĠØªÙĪØ¯Ùĩ":8528,"ĠØ¢Ø°":8529,"Ø±Ø§Ø¹":8530,"ĠÚ©ÛĮÙģÛĮØª":8531,"Ø´ÛĮÙħ":8532,"ØµØ§ÙĦ":8533,"ĠØ¯Ø³ØªÚ¯ÛĮØ±":8534,"Ġdance":8535,"ĠTer":8536,"ĠÛ±Û·Û":8537,"ĠØŃØ³Ø§Ø¨ÛĮ":8538,"Ġinterview":8539,"ĠØ±Ø³Øª":8540,"ĠMil":8541,"ĠØ§ÙħØª":8542,"Ġsounds":8543,"ĠØ¢Ø²ÙħØ§ÛĮØ´Ú¯Ø§Ùĩ":8544,"Ġkitchen":8545,"ront":8546,"ĠØ±Ø¤":8547,"ĠÙĨÚ¯Ø§Ø±":8548,"Ø§Ø¨ÙĤ":8549,"ĠØ§ÙĨØªÙĩØ§ÛĮ":8550,"Ġshoulder":8551,"upid":8552,"Ġarticle":8553,"Ġelectron":8554,"Ø°Ø§":8555,"cles":8556,"nam":8557,"plic":8558,"Ġstarting":8559,"Ġhonest":8560,"Ø®ÙĪØ§ÙĨ":8561,"ĠÙĤØ·Ø§Ø±":8562,"ĠØ§ÛĮØ±Ø§ÙĨÛĮ":8563,"ĠØµÙĨØ¯ÙĪÙĤ":8564,"People":8565,"ĠØ§Ø³ØªÛĮ":8566,"Ġpoet":8567,"Ġsand":8568,"Ġdread":8569,"ĠFed":8570,"ĠØ¨Ø±Ø¢ÙĪØ±Ø¯":8571,"ĠÙħØ§Ø¯Ø§Ùħ":8572,"ĠØºÛĮ":8573,"Ġsport":8574,"ĠØ¢Ø±Ø²ÙĪ":8575,"ĠØ§ÛĮÙħØ§ÙĨ":8576,"eff":8577,"Ø¹ÙħÙĦ":8578,"Ø¹ÙĦØ§ÙĪÙĩ":8579,"Ġisland":8580,"ĠÛ±Û·":8581,"ĠSociety":8582,"Ġexistence":8583,"ĠÙĨØªÙĪØ§ÙĨØ³Øª":8584,"ĠØ¯Ø²":8585,"Ġ1980":8586,"Ġobt":8587,"ĠØ¨Ø¹ÙĨÙĪØ§ÙĨ":8588,"Art":8589,"ĠØ´Ø§ÙĨØ³":8590,"ĠØ¨Ø§Ø¨":8591,"aval":8592,"Ġpa":8593,"Ġvalues":8594,"ĠÚ©ÙĦÛĮØ³Ø§ÛĮ":8595,"Ġradio":8596,"aria":8597,"ashed":8598,"ĠArmy":8599,"Ġmagic":8600,"ĠØ¬Ø°Ø§Ø¨":8601,"Ġinform":8602,"ĠØ¨ÛĮØ§ÙĪØ±Ø¯":8603,"Ġthank":8604,"Ġgrown":8605,"Ġtypically":8606,"Ġgames":8607,"Ø±ÙĪØ²ÛĮ":8608,"ĠØ³ÛĮÚ¯ÙĨØ§ÙĦ":8609,"Ġscar":8610,"Ø³Ø±Ø§ÙĨØ¬Ø§Ùħ":8611,"Ø§Ú¯Ø±ÚĨÙĩ":8612,"ĠØ¬ÛĮÙħØ²":8613,"Ġwest":8614,"ĠÙħÛĮØ§ÙĨÙĩ":8615,"ĠØ¹ÙħØ¯Ùĩ":8616,"ÙģØ±Ø§ÙĨØ³":8617,"Ġputting":8618,"Ġbecoming":8619,"ĠÙĨØ§Ø³":8620,"Ġonto":8621,"ĠØ·ÙĦØ§ÛĮÛĮ":8622,"Ø³ØªÙĪÙĨ":8623,"Ġoffered":8624,"Ø§ØŃØ³Ø§Ø³":8625,"ĠØ§ØµÙĪÙĦ":8626,"ĠØ¨Ø§Ø²ÛĮÚ©ÙĨ":8627,"ĠPeter":8628,"Û±":8629,"ĠÙħÙĨØ§Ø³":8630,"ĠAct":8631,"Ġinstant":8632,"ĠÙħÛĮÚ©ÙĨÙħ":8633,"Ġlaughing":8634,"Ġachieve":8635,"met":8636,"Ø³Ø§Ùħ":8637,"arrow":8638,"Ġmatch":8639,"ĠÙĨÙģØª":8640,"ĠAndrew":8641,"Ø±Ø§ÛĮÛĮ":8642,"ĠÙħÛĮØ´ÙĪØ¯":8643,"Ġindependent":8644,"Ø®Ø¯Ùħ":8645,"anted":8646,"ĠIsland":8647,"ĠØ§ÙħØªÛĮØ§Ø²":8648,"ĠØ®ÙĨ":8649,"ĠØªØ§Ø±":8650,"iana":8651,"ĠØ¨Ø®ÙĪ":8652,"Ø¨ÚĨÙĩ":8653,"ĠDes":8654,"ĠØ®ÙĪØ§Ø³ØªÙĨØ¯":8655,"ĠØ¬Ø³ØªØ¬ÙĪÛĮ":8656,"ĠÙģÙĤÛĮØ±":8657,"eper":8658,"ĠØ§Ø³ØªØ¯":8659,"Ġdeb":8660,"ĠØ´Ø±Ùħ":8661,"Ġavoid":8662,"eah":8663,"ĠØªÚ©Ø§ÙħÙĦ":8664,"ĠØµÙģØ±":8665,"ĠRoy":8666,"Ġsmaller":8667,"ĠÙĩÙĪØ§Ù¾ÛĮÙħØ§":8668,"Ġbodies":8669,"Ġcontact":8670,"Ġhappening":8671,"anned":8672,"Ġeffects":8673,"Ġnose":8674,"Ġcheck":8675,"Ø§ÙĨØªÛĮÙĨ":8676,"ĠGlobal":8677,"Ġtaught":8678,"ĠØ¯ÙĪØ±Ø¨ÛĮÙĨ":8679,"Ø§ÙĩÛĮÙħ":8680,"idae":8681,"ĠLib":8682,"Ġ28":8683,"ĠØ±Ø®Øª":8684,"ĠOh":8685,"ĠØ¢ÙĪØ±ÙĨØ¯":8686,"Ġmodels":8687,"ĠGrand":8688,"ĠØ§Ø³ØªØ®ÙĪØ§ÙĨ":8689,"ĠØ´Ú©ÙĨ":8690,"leep":8691,"ĠÙĤÛĮ":8692,"ĠÙĨØ¸Ø±ÛĮ":8693,"ĠØ§Ø¨Ø±Ø§Ø²":8694,"ĠÚ©ÙĪØ´ÛĮØ¯":8695,"ĠÙħØŃØ¨ÙĪØ¨":8696,"Ú¯Ø²Ø§Ø±":8697,"ĠØªÙĪÙĨÛĮ":8698,"ĠÙĩÛĮØ¦Øª":8699,"ĠÛ±Û¹Û²Û":8700,"Ø¯Ø§Ø±Ø§ÙĨ":8701,"ĠØ±ÙĪØ´ÙĨØ§ÛĮÛĮ":8702,"gency":8703,"Ġweap":8704,"ĠÙħÙĨØ·ÙĤÛĮ":8705,"ĠProv":8706,"ØŃØ±":8707,"ĠÙħÙģÛĮØ¯":8708,"ĠÙĨØ´ÙĪÙĨ":8709,"Ġaward":8710,"Ø·Ø¨ÛĮ":8711,"ĠÛ²Û°Û°Û·":8712,"gent":8713,"ĠÛĮÙĪ":8714,"ĠÛĮØ§Ø¯Ú¯ÛĮØ±ÛĮ":8715,"ĠÙģØ§ÛĮØ¯Ùĩ":8716,"Ġhabit":8717,"Ġspring":8718,"Ġevil":8719,"Ġtiny":8720,"Ġpet":8721,"ĠÛĮÙĤÛĮÙĨ":8722,"Ġuncle":8723,"Ġapprox":8724,"Ġchoose":8725,"Ġid":8726,"ĠØ¨Ø§ÙĨØ¯":8727,"ĠÙĨØ§Ø¯Ø±":8728,"Ġdust":8729,"ĠØŃÛĮØ§Ø·":8730,"icked":8731,"Ġsources":8732,"ĠØ§ÙģØºØ§ÙĨØ³ØªØ§ÙĨ":8733,"Ġfol":8734,"Ø¹Ùģ":8735,"ĠØ·ÙĦØ¨":8736,"ĠØ§ÙħØ¶Ø§":8737,"Ġsomewhere":8738,"Ġtwice":8739,"Ġcheek":8740,"Ú¯Ø§":8741,"Ġheaven":8742,"ĠØ¬Øº":8743,"Ø±Ø§Ø³ÛĮ":8744,"Ġburst":8745,"ÙģØ±Ø¯":8746,"Ġperfectly":8747,"ĠØ³ÙĦØ§ØŃ":8748,"ĠÚ©ÙģØ´":8749,"Ġsquare":8750,"ÙĦØ§Ú©":8751,"Ġtraining":8752,"ĠÛ²Û°Û°Ûµ":8753,"ĠÛ²Û°Û±Û´":8754,"ĠØ§ØŃØªÛĮØ§Ø·":8755,"ĠÙħØ§Ø¬Ø±Ø§":8756,"Ġmicro":8757,"ĠØ¨ÛĮÙĩ":8758,"ĠÙħØ·ÙĦ":8759,"vention":8760,"ĠSal":8761,"ument":8762,"ĠÙħÙĤØ±":8763,"Ø²ÛĮÙĩ":8764,"ĠÚ©ÛĮØ´":8765,"ĠØ¯Ø¹Ø§":8766,"ĠØ´Ø¬Ø§":8767,"Ġdate":8768,"ĠØ¹Ø¸":8769,"ĠThank":8770,"ĠØ¨ØŃØ±Ø§ÙĨ":8771,"ĠIranian":8772,"board":8773,"ÛĮØªØ±ÛĮ":8774,"SA":8775,"Ġult":8776,"ĠÚ©Ø´ÛĮØ¯ÙĨØ¯":8777,"Ġwindows":8778,"ih":8779,"ĠØ§Ø¯Ø¹Ø§":8780,"Ġproducts":8781,"Ú©Ø§ÙĦ":8782,"Ġthro":8783,"ĠØ¯Ø§Ø±ÙĨ":8784,"ĠØ¬ÙĨÚ¯ÛĮ":8785,"Ġprevious":8786,"Ð½":8787,"ĠØ§Ø³ØªØ±Ø§Øª":8788,"Ġshoulders":8789,"ushing":8790,"ØªØ§Ùħ":8791,"icide":8792,"ĠØ±ÛĮØ´":8793,"ĠÙħØ³ÛĮØŃ":8794,"Ġfly":8795,"anding":8796,"ĠÙħØ§Ø³Øª":8797,"ĠØªØ¨ÙĦÛĮØº":8798,"fessor":8799,"ÙĤÙĦØ§ÙĦ":8800,"Ġpieces":8801,"ĠØ§ÛĮØªØ§ÙĦÛĮØ§ÛĮÛĮ":8802,"ĠDen":8803,"ĠÙĨØ³Ø¨ØªØ§":8804,"ĠØªØ§Ø¨Ø¹":8805,"Ġfighting":8806,"ĠØ±Ø§Ø³":8807,"ĠØ³Ø±Ø²":8808,"ĠWind":8809,"Ġenemy":8810,"Ú©ÛĮØ¯":8811,"ĠØ¨Ø±ÙĪÙĨØ¯":8812,"Ú©ÙĪÙ¾":8813,"bre":8814,"Ġcars":8815,"Ġtools":8816,"ĠØ§ÙĨÙģ":8817,"ĠÚ©Ø§Ø±Ú¯Ø±":8818,"iance":8819,"Ġcharge":8820,"ĠØŁ\"":8821,"Ġheads":8822,"Ġlistened":8823,"ĠØ´Ø§Ø¹":8824,"ĠØ³Ø§Ø¯Ú¯ÛĮ":8825,"ĠØ§ÙĪÙĩ":8826,"Ġrecent":8827,"Ġstudent":8828,"Ġindividuals":8829,"Ø§ÙĩØ§ÛĮÛĮ":8830,"urb":8831,"Ø¢ÙĨÚĨÙĩ":8832,"ÙħØ§Ø±ÛĮ":8833,"ØŃØ§ÙģØ¸":8834,"Ġcontract":8835,"Ġpatient":8836,"ĠEdward":8837,"Ġhighest":8838,"Ġreaction":8839,"ĠJust":8840,"Ġfounded":8841,"Ġcalcul":8842,"Ġbasic":8843,"cher":8844,"Ġeld":8845,"Ø·ÛĮÙĦ":8846,"ĠØ¯Ø³ØªÙħ":8847,"Ġdetermined":8848,"ĠÙ¾Ø§ÙĦ":8849,"ÚĺÛĮÚ©":8850,"Ġ1970":8851,"Ġdu":8852,"Ġscale":8853,"Ġkid":8854,"ĠLu":8855,"ointed":8856,"Ġmaterials":8857,"Ġcelebr":8858,"Ġadvantage":8859,"ĠÙħØªØ£":8860,"Ġscene":8861,"Ġgate":8862,"Ġasse":8863,"ĠØªÙĪØµÛĮÙĩ":8864,"ĠØ¨ÛĮÙħØ§Ø±Ø§ÙĨ":8865,"Ġoblig":8866,"ĠØ¨Ø±Ø²":8867,"ologies":8868,"ĠÛĮÚ©Ø³Ø§ÙĨ":8869,"Ġfile":8870,"ĠÙĩÙħØ¯ÛĮÚ¯Ø±":8871,"ĠØ¨Ú¯ÛĮØ±ÛĮÙħ":8872,"Con":8873,"jo":8874,"pire":8875,"ĠØ¯Ø¨ÛĮØ±":8876,"ĠØ¢ÙĨÚ¯Ø§Ùĩ":8877,"ĠØ³ÛĮÚ¯Ø§Ø±":8878,"ĠØ¨Ø®Ø§Ø·Ø±":8879,"Ġinteract":8880,"ĠÙĨØ¯Ø§Ø±ÛĮÙħ":8881,"Ġlevels":8882,"Ġrecognized":8883,"ĠØ¨Ø±Ùģ":8884,"ĠServ":8885,"Ġdepart":8886,"Ġslightly":8887,"Ġspl":8888,"ĠMag":8889,"Ġrub":8890,"ĠØ§ÙĨÚ¯ÛĮØ²Ùĩ":8891,"ĠÙĦÛĮØ³Øª":8892,"ON":8893,"Ø±ÙģØªÙĩ":8894,"ĠØ¯Ø§Øº":8895,"Ø²Ø§Ø¨Øª":8896,"ĠÙħØªÙħ":8897,"ĠÛĮØ§Ø¨":8898,"see":8899,"iring":8900,"Ġwear":8901,"Ø¨Ø§Ø²Ø¨ÛĮÙĨÛĮ":8902,"ĠCentral":8903,"elve":8904,"Ġ26":8905,"Ġtired":8906,"ĠØ¯Ø²Ø¯":8907,"ĠEr":8908,"Ġamazing":8909,"ii":8910,"Ġpair":8911,"ĠØ§ÙĪØ¶Ø§Ø¹":8912,"ĠÙĨØ§Ú¯Ùĩ":8913,"ube":8914,"Ġunf":8915,"Ø§Ø¹Øª":8916,"ĠÙħÛĮÚ©ÙĨØ¯":8917,"ĠØ¨ÙĩØª":8918,"Ġrout":8919,"Ġshook":8920,"ĠÙĪØŃØ´ØªÙĨØ§Ú©":8921,"Ġmultiple":8922,"ĠÙħÙĤÛĮ":8923,"Ġprovided":8924,"Ġcart":8925,"ĠÚ©Ø§Ø±Ùħ":8926,"ĠÚĨÛĮÙĩ":8927,"ĠØ§ØŃØ³Ø§Ø³ÛĮ":8928,"ĠAsia":8929,"ĠÙħÙĪØ¬ÙĪØ¯Ø§Øª":8930,"Ġintegr":8931,"Ġanalysis":8932,"Ġflag":8933,"ĠÛĮØ§Ø¯Ø¯Ø§Ø´Øª":8934,"Ġmethods":8935,"Ġproud":8936,"ĠØ§ÙĦÙĩØ§Ùħ":8937,"ĠDepartment":8938,"ĠÙĪØ§Ùħ":8939,"Ġfully":8940,"ĠØ®ÙĪÛĮ":8941,"ĠØ¯ÙĪØ³ØªØ´":8942,"Ġhighly":8943,"ĠÙħØªÙģØ§ÙĪØªÛĮ":8944,"ĠØªØº":8945,"Ġstro":8946,"ĠÙħÙĤØ¯Ø§Ø±ÛĮ":8947,"ĠØ§Ø«Ø¨Ø§Øª":8948,"ĠCour":8949,"Ġcompon":8950,"ĠÙħØ³Ø¦ÙĪÙĦÛĮØª":8951,"ĠÙħØ¹Ø±Ø¶":8952,"ĠKar":8953,"Ġbreast":8954,"ĠÙ¾Ø±Ø³Ø´":8955,"Ġinvestig":8956,"Ø¬Ø§Ø±":8957,"ĠÚ¯Ø±Ú¯":8958,"ÙĦÙĪØ¨":8959,"Ø£Øª":8960,"ĠØ§Ø®ØªÙĦØ§Ùģ":8961,"ĠÙħÛĮÚ©ÙĨÙĨØ¯":8962,"Ġrough":8963,"ĠÙħÙĤØ¯Ùħ":8964,"ĠÛ²Û´":8965,"ĠØ¨ÙħØ¨":8966,"AP":8967,"ĠÙ¾Ø±ÙĪÙĨØ¯Ùĩ":8968,"Ġsurprised":8969,"Ġseparate":8970,"pen":8971,"ÑĢ":8972,"Ġsnow":8973,"ĠBank":8974,"ĠØ¨Ø®ÙĪØ±":8975,"Ġgeneration":8976,"ĠRobert":8977,"rees":8978,"ĠØ§Ø³ØªÙĤÙĦØ§ÙĦ":8979,"ĠÙħØªÙĪÙĦØ¯":8980,"Ġcarriage":8981,"Ġladies":8982,"Ġnerv":8983,"Ġconcent":8984,"ĠÙ¾Ø¯Ø±Ùħ":8985,"ĠÙ¾Ø§Ø´":8986,"ĠÙħØ³Ø§Ø¨ÙĤØ§Øª":8987,"Ġtemperature":8988,"Maybe":8989,"ĠÙĨØ§Ú¯ÙĩØ§ÙĨÛĮ":8990,"ias":8991,"nes":8992,"ĠWell":8993,"erved":8994,"Ġpure":8995,"ĠÙĨØ´ÙĪØ¯":8996,"azine":8997,"Ġlimited":8998,"ĠÚ©Ø§":8999,"ĠÙĪÛĮÙĦÛĮ":9000,"ĠØ¢Ø±Ø§":9001,"ĠØŃØ§Ú©":9002,"Ġaspect":9003,"olid":9004,"ĠØ®ÙĪØ¯Ú©Ø´ÛĮ":9005,"ĠÙħØªÙħØ±Ú©Ø²":9006,"ĠÙ¾Ø±ÛĮØ¯Ùĩ":9007,"ĠÛ²Û°Û°Û°":9008,"ĠØ¯Ø§ÙĨØ³ØªÙĨØ¯":9009,"ading":9010,"ĠÙģØ±ÙĤ":9011,"Ġhundreds":9012,"eds":9013,"Ġoccurred":9014,"razil":9015,"Ġble":9016,"lege":9017,"ĠØ§ÙĨØ¯Ø§Ø²ÛĮ":9018,"Ø§Ø®Ø±Ùĩ":9019,"ĠScarlett":9020,"ĠMinister":9021,"ĠØ®ÙĪØ±Ø´ÛĮØ¯ÛĮ":9022,"rodo":9023,"Ø±Ø§ÙģØª":9024,"ĠØ¯ÙĪÛĮ":9025,"Ġstyle":9026,"ĠÙħØ¨ØªÙĦØ§":9027,"after":9028,"ĠThey":9029,"ĠØ¨Ø®Ø§Ø±ÛĮ":9030,"ĠØ¯Ø±ÙĪØ§Ø²Ùĩ":9031,"ĠØ¢Ú©":9032,"Ġnation":9033,"ulations":9034,"ĠWil":9035,"ĠØ§Ø¹Ø¯Ø§Ø¯":9036,"ĠØ¯Ø±Ø³ØªÛĮ":9037,"emic":9038,"Ġagreed":9039,"ool":9040,"wide":9041,"ĠØŃØ±Ø§Ø±Øª":9042,"Ġtransform":9043,"Ġwonderful":9044,"ensis":9045,"ĠØ°Ú©Ø±":9046,"Ġextremely":9047,"Ġmal":9048,"Ø´ÙĨØ§Ø³ÛĮ":9049,"Ø¯Ø±Ø³":9050,"Ø§ÙĨÙĩØ§ÛĮ":9051,"Ġaltern":9052,"ĠÙħØ³Ú©ÙĪÙĨÛĮ":9053,"ĠÙ¾Ø²Ø´Ú©":9054,"Ġexecut":9055,"Im":9056,"Ø§Ø±ØªÛĮ":9057,"25":9058,"ura":9059,"ĠBen":9060,"Ġfamiliar":9061,"Ġtransport":9062,"Ġkinds":9063,"Ø§ÙĨØ¯Ùĩ":9064,"ĠMex":9065,"ĠÙĦÙĪÙĦÙĩ":9066,"ÙģÛĮÙĤ":9067,"Ġcurrently":9068,"Ġsuffering":9069,"gate":9070,"ĠÙ¾Ø±ÛĮØ¯":9071,"Ġuseful":9072,"Ġtim":9073,"ÚĨØ·ÙĪØ±":9074,"ĠÙĤØ§ÙĦØ¨":9075,"ulate":9076,"Ġallows":9077,"ĠÚ©ÙħÛĮØªÙĩ":9078,"ĠØ®Ø§ÙĨÙĪØ§Ø¯Ú¯ÛĮ":9079,"ĠØ¢ÙħÙĪØ²Ø´ÛĮ":9080,"ĠMa":9081,"ĠÙħØµØ§ØŃ":9082,"Ġelement":9083,"illy":9084,"Ġreceive":9085,"ĠØ¯ÙħØ§":9086,"amond":9087,"lov":9088,"ĠØªÙģÚ©Ø±":9089,"ĠØ§Ø±ÙĪÙ¾Ø§ÛĮÛĮ":9090,"80":9091,"ĠApp":9092,"Ġsole":9093,"ĠFred":9094,"ĠØ§ÙħØ´Ø¨":9095,"ogle":9096,"ĠØºØ°Ø§ÛĮ":9097,"Ġnewsp":9098,"Ġcounter":9099,"ĠØ¢Ø´Ù¾Ø²Ø®Ø§ÙĨÙĩ":9100,"Ġrat":9101,"ĠÚ©Ø§Ø±Ú¯Ø±Ø§ÙĨ":9102,"Ġune":9103,"Ġsolar":9104,"Ġclearly":9105,"Ġgod":9106,"urt":9107,"ĠMod":9108,"ÛĮØ²Ùħ":9109,"Ø¨Ø§ÙĦØ§Ø®Ø±Ùĩ":9110,"ĠÙĦØ¨Ø®ÙĨØ¯ÛĮ":9111,"ĠÙģØ±ÛĮØ¨":9112,"Ġrespond":9113,"Ø®ÙĪØ±Ø¯Ùĩ":9114,"ĠØ®Ø¬":9115,"ache":9116,"ĠÙħÙĪØ§Ùģ":9117,"ÙĢÙĩ":9118,"Ø¹ÙĩØ¯":9119,"Ġrooms":9120,"Ġwinter":9121,"ĠÙħØªØ´Ú©Ø±Ùħ":9122,"ÛĮÙħÛĮØªØ±ÛĮ":9123,"ĠHall":9124,"Ġforgotten":9125,"Ġcommercial":9126,"ĠÙħØ¹Ø§Ø¯ÙĦ":9127,"ervish":9128,"ĠØ®Ø²":9129,"Ġhadn":9130,"Ġpassing":9131,"Ġmerely":9132,"Ġworry":9133,"Ġsubst":9134,"Ġmoon":9135,"Ġdangerous":9136,"Ġcup":9137,"ston":9138,"ĠAward":9139,"Ø§ÙĤØ¹":9140,"Ġnobody":9141,"ensus":9142,"Ġbelief":9143,"ipe":9144,"ville":9145,"Ġfed":9146,"ĠØ§Ø±Ø³Ø§ÙĦ":9147,"ĠØ±Ø¨Ø±ØªØ§":9148,"ĠÙĨØ§ÛĮ":9149,"stead":9150,"ements":9151,"Ġexcited":9152,"Ġstupid":9153,"Ġcritic":9154,"ĠØ§Ø±Ø²ÛĮØ§Ø¨ÛĮ":9155,"ties":9156,"ona":9157,"Ġhar":9158,"Ø³ÛĮÚ©":9159,"Ġevolution":9160,"ĠØ³Ø±Ú¯Ø±Ùħ":9161,"rant":9162,"ÙĩÙĨÛĮ":9163,"ĠÚ©Ø§Ø¨":9164,"ĠMark":9165,"ĠCont":9166,"ĠRiver":9167,"ĠÙĨØ¯Ø§":9168,"ĠØ¨Ø§Ø²ÛĮÚ¯Ø±":9169,"ÙĪØ·Ùĩ":9170,"ĠÙĨÚĺØ§Ø¯":9171,"ga":9172,"ĠØ´ÙĦÛĮÚ©":9173,"ĠØ¢ÙĦÛĮ":9174,"Ġrail":9175,"ĠØ³Ø±Øª":9176,"Ġshared":9177,"ĠDar":9178,"peror":9179,"ĠØ§Ø¯ÙĪØ§Ø±Ø¯":9180,"Ġcris":9181,"Ú¯Ø±ÙĪÙĩ":9182,"Ø¢Ø±ÛĮ":9183,"Ø¢ÙħØ¯":9184,"ĠÙħØªØ®ØµØµ":9185,"Ġvision":9186,"ĠÙĦØ·Ùģ":9187,"Ġcitizens":9188,"ĠÙĨÙĩØ§Ø¯Ùĩ":9189,"Ġconnection":9190,"ĠØ«Ø±ÙĪØª":9191,"ĠØ³ÙĤÙģ":9192,"ĠRome":9193,"ĠEup":9194,"Once":9195,"ĠÛ²Û°Û±Ûµ":9196,"ĠÚ¯Ø´ÙĪØ¯":9197,"Mar":9198,"ĠÙ¾ÙĩÙĨ":9199,"ĠØ±ÙĪØ¨Ø±ÙĪ":9200,"Ġgrave":9201,"ØºÙĨ":9202,"ĠÙħØ§Ø¬Ø±":9203,"ĠOne":9204,"Ú©Ø³Ø§ÙĨØ¯Ø±":9205,"ĠGl":9206,"Ġhate":9207,"ĠThere":9208,"Ġmostly":9209,"Ġafterwards":9210,"Ġpictures":9211,"Ø³Ø§Ø®Øª":9212,"enced":9213,"this":9214,"Ø§Ø³Ú©Ø§Ø±":9215,"ĠØ´Ø±Ø·":9216,"Ġdevice":9217,"fast":9218,"Ø¨Ø®":9219,"Ġreact":9220,"ĠÙģÙĦØ³ÙģÙĩ":9221,"Ġresponsible":9222,"ĠÙħÙĪØ²":9223,"ĠØ´ÙĨÛĮØ¯Ùħ":9224,"ĠÙħØ§ÛĮÙĩ":9225,"Ø²Ùħ":9226,"ĠØ¢Ú¯Ø§ÙĩÛĮ":9227,"othe":9228,"Ġamb":9229,"ĠØ¬ÙĪØ§ÙĨØ§ÙĨ":9230,"Ú¯Ø°Ø´ØªÙĩ":9231,"ĠØ¬ÙĦØ³Ùĩ":9232,"ĠØ¨Ø®ÙĪØ§ÙĩØ¯":9233,"Ġbill":9234,"Ġthirty":9235,"ĠÙħØ±ØªØ¨Ùĩ":9236,"Ġconstit":9237,"Ġahead":9238,"Ø§ÙħØ±ÙĪØ²":9239,"Ġinstruct":9240,"ĠÙħØ·Ø§ÙĦØ¹Ø§Øª":9241,"Ġchanging":9242,"ĠÙĨÙħØ§ÛĮØ§ÙĨ":9243,"ĠÚ©Ø§ÙĦÛĮÙģØ±ÙĨÛĮØ§":9244,"uild":9245,"Ġgal":9246,"Ø§ÙĪØ²":9247,"Christophe":9248,"Ġsides":9249,"Ġordered":9250,"ĠÙħÛĮØ®ÙĪ":9251,"ĠÙħÙĦÚ©Ùĩ":9252,"ĠØ±ØªØ¨Ùĩ":9253,"rative":9254,"ÙģØ´":9255,"Ù¾Ø§ÙĨ":9256,"ĠØ¨Ø§Ùħ":9257,"Ø§ÙĤØª":9258,"ĠÙĩØ±ÚĨÙĨØ¯":9259,"ults":9260,"ĠÙħØºØ§Ø²Ùĩ":9261,"ĠØ±ÙĪØ¨Ùĩ":9262,"Ġshowing":9263,"Ø§Ø³ØªØ§ÙĨ":9264,"iments":9265,"Ġroof":9266,"Ġcoast":9267,"mark":9268,"ĠCat":9269,"oday":9270,"Ġsell":9271,"ĠØ§Ø³Ú©":9272,"ĠÙħØŃØ¯ÙĪØ¯ÛĮØª":9273,"ĠÙħØ¹ÙĦÙħ":9274,"ĠØ§ÙĪÙĨØ§":9275,"Ġtransfer":9276,"ĠØ´ÙĪØ±Ø§ÛĮ":9277,"Ġaccepted":9278,"Perhaps":9279,"ĠDistrict":9280,"ĠØ¨Ø°":9281,"Ġmort":9282,"ĠØ§ÙĨØ¹":9283,"ĠÚ©Ø§Ø±Ø¨Ø±":9284,"ĠØ®Ø·ÛĮ":9285,"ĠØ¹Ø±Ø¨ÛĮ":9286,"ĠØ§Ø³ÙĦØŃÙĩ":9287,"andom":9288,"ĠØ¨Ø±Ø§Ø¯Ø±Ø´":9289,"Ġsam":9290,"ĠØ¬Ø§Ø¯":9291,"ĠFin":9292,"itty":9293,"Ġframe":9294,"ĠKingdom":9295,"ĠÙĪØ§Ø¶ØŃ":9296,"ĠØªÛĮØ²":9297,"Ġschools":9298,"ĠÚĺØ§Ù¾ÙĨÛĮ":9299,"aming":9300,"ĠÙĨÚ¯Ø§ÙĩØ´":9301,"ĠInter":9302,"Ġfailed":9303,"inking":9304,"Ġdistinct":9305,"Ġguy":9306,"Ġmale":9307,"ĠØ²ÙħØ²ÙħÙĩ":9308,"ĠFore":9309,"Ġplants":9310,"Will":9311,"ĠÙ¾Ø§ÛĮØ´":9312,"ĠØ³Ø±ÙĨÙĪØ´Øª":9313,"Ġspoken":9314,"ĠØŃØ±Ú©Ø§Øª":9315,"vest":9316,"Ġhero":9317,"ĠÙħØªØºÛĮØ±":9318,"ĠØ´ÙĪØ®ÛĮ":9319,"Ġscr":9320,"Ġartist":9321,"Ø§ÙĩØ¯":9322,"Ø§ØªÛĮÚ©":9323,"Ú¯Ø±Ùĩ":9324,"ovna":9325,"ĠØ³ÙĨÚ¯ÛĮ":9326,"ĠÙģÙĦÙĪØ±":9327,"ĠØ¨Ø±Ú¯Ø±Ø¯Ø§ÙĨØ¯":9328,"Ġreflect":9329,"ĠÙħÛĮÚ©ÙĨÙĩ":9330,"Ġscientists":9331,"ĠØªØµØ§Ø¯ÙģÛĮ":9332,"ĠAssociation":9333,"Yet":9334,"à®":9335,"ĠØ±ÛĮØ®ØªÙĩ":9336,"Ġprograms":9337,"ĠØ¹Ø§ÙĦÙħ":9338,"ĠÙ¾ÛĮØ±Ø§ÙħÙĪÙĨ":9339,"ĠÙģÙĩÙħÛĮØ¯Ùħ":9340,"Ġmental":9341,"ems":9342,"Ġintended":9343,"Ġperce":9344,"Me":9345,"ÙħÛĮØ¯":9346,"ĠØ±ÛĮØ¯":9347,"ĠØ§ØµØ±Ø§Ø±":9348,"Ġflight":9349,"ĠØªØ²":9350,"ĠÙĨØµØ¨":9351,"Ù¾Ø±ÙĪ":9352,"ĠÙĩÙħØ§Ùĩ":9353,"Ġdrag":9354,"Ġexperiment":9355,"Ġbul":9356,"Ø¬ÙĨØ³":9357,"ĠTw":9358,"ĠFather":9359,"Ġscreen":9360,"Ġflu":9361,"Ġchest":9362,"Ġevident":9363,"ĠØ§ÙĦÚ©ØªØ±ÙĪÙĨ":9364,"22":9365,"Ã¤":9366,"ĠÚ©Ø«ÛĮ":9367,"Ġmath":9368,"ĠØ®Ø·ÙĪØ·":9369,"ĠÚ¯ÙĨØ¯":9370,"ÙĢÛĮ":9371,"Ġanybody":9372,"Ġremind":9373,"Ġuser":9374,"gl":9375,"Ø´ÙĪØ±":9376,"Ġears":9377,"uries":9378,"ÙĨØ§Ø·ÛĮ":9379,"ĠOff":9380,"ocol":9381,"ithecia":9382,"overy":9383,"Ø§Ø¯ÙĤ":9384,"Ġforg":9385,"ĠEupithecia":9386,"inet":9387,"ØºØ§Ùħ":9388,"ĠÚ©ÙĪØ¨":9389,"Ġmajority":9390,"ĠØ¢ÙħÛĮØ²ÛĮ":9391,"Ġdressed":9392,"verse":9393,"ĠÙ¾ÛĮØ´Ø§ÙĨÛĮ":9394,"ĠÙĨÙĪÚ©":9395,"Ġprefer":9396,"ĠÙģØ´Ø±Ø¯":9397,"Ġvictim":9398,"ĠØ§Ø³ØªØ±Ø§ØŃØª":9399,"ĠØ²ÙĪ":9400,"Ġdism":9401,"Ġrecently":9402,"ĠÙ¾Ø§Ø¦ÛĮÙĨ":9403,"Ġdemonst":9404,"ĠÚ¯ÙĪÙĨØ§Ú¯ÙĪÙĨ":9405,"zy":9406,"ÙĪØ±Ø¯Ùĩ":9407,"erable":9408,"Ġbrief":9409,"Ø§Ø³Ùģ":9410,"ÙĬØ²":9411,"Ġdiss":9412,"ĠØ«Ø±ÙĪØªÙħÙĨØ¯":9413,"ĠÚ©Ø§Ø´":9414,"ena":9415,"Ġusers":9416,"ĠUN":9417,"ĠØ²ÙĨÙĨØ¯":9418,"ĠÙĨØ®ÙĪØ§ÙĩÙħ":9419,"Ġtight":9420,"ĠÛ²Û±":9421,"ĠØ¨Ú¯Ø°Ø§Ø±ÛĮØ¯":9422,"Ġfilms":9423,"ĠØªØ®Ùħ":9424,"ĠÚ©Ø´Ø§ÙĨ":9425,"ĠÙĩÙĪÛĮØª":9426,"astern":9427,"ĠØªÙĪØ§ÙģÙĤ":9428,"ĠØ³Ø§Ú©ÙĨ":9429,"ĠØµØ¯ÙĩØ§":9430,"ĠØ¬ÙĪØ±Ø¬":9431,"Ġsexual":9432,"enes":9433,"Ø§ØªØ§":9434,"ĠØ´Ø¨Ø§ÙĩØª":9435,"ĠFirst":9436,"Ġdrawn":9437,"Ġknock":9438,"ĠØ¨ÛĮÙĨÛĮÙħ":9439,"Ġdigital":9440,"ĠØ§Ø³ØªØ¯ÙĦØ§ÙĦ":9441,"Ã§":9442,"ĠÚ©Ø§Ù¾":9443,"ĠØ¬Ø§ÙĦ":9444,"Ġsmart":9445,"liament":9446,"ĠÚ¯ÛĮØ§ÙĩØ§ÙĨ":9447,"Ġfalse":9448,"Ġopening":9449,"ĠÙĩÙħØ²ÙħØ§ÙĨ":9450,"olar":9451,"ĠÚĨØ´ÙħØ´":9452,"ĠØŃÙĪØ§Ø³":9453,"ĠÙħÙĨØµ":9454,"ĠÙ¾Ø¯ÛĮØ¯Ùĩ":9455,"ois":9456,"Ġtor":9457,"ĠØ¨ÛĮØ´ØªØ±ÛĮÙĨ":9458,"OR":9459,"ĠJer":9460,"ĠØ¯Ø±Ø®Ø´Ø§ÙĨ":9461,"ĠØ§ÙħÙ¾Ø±Ø§ØªÙĪØ±ÛĮ":9462,"ĠÚ¯Ø±Ø¨Ùĩ":9463,"Ú©ÙĨØª":9464,"erella":9465,"Ġrefuge":9466,"ĠØ¨Ø±Ø¯Ø§Ø´ØªÙĩ":9467,"ais":9468,"ĠÛ´Û°":9469,"Ġbeneath":9470,"Ġreferred":9471,"Ġcab":9472,"Ġweather":9473,"ĠÙĩØ§Ø¦ÛĮ":9474,"Ø¯Ø§Ø®":9475,"ception":9476,"Ġneighbor":9477,"Ġain":9478,"ĠÚ¯Ø°Ø§Ø´ØªÙĨØ¯":9479,"Ġwaited":9480,"atabase":9481,"40":9482,"Ø´Ø§ÙĩÛĮ":9483,"ĠØªØ¬Ø²ÛĮÙĩ":9484,"Ġwave":9485,"Ø§ÛĮÙĦÛĮ":9486,"Ġhast":9487,"ĠØ¨Ø§Ø²Ø³Ø§Ø²ÛĮ":9488,"Ġclimate":9489,"ĠØ¯ÙĦØ§ÛĮÙĦ":9490,"ÚĨØ±Ø®Ùĩ":9491,"Ġwitness":9492,"gers":9493,"ĠÚ¯Ø±Ø§ÛĮÛĮ":9494,"ĠØªØ±Ú©ÛĮÙĩ":9495,"Ġobserv":9496,"ĠØªØ§ÙĦØ§Ø±":9497,"ras":9498,"ented":9499,"Ø³ÛĮÙĦÙĩ":9500,"Ġproposed":9501,"ĠTechn":9502,"ÙĩÙħÛĮØ´Ùĩ":9503,"ss":9504,"Ġapparent":9505,"Ġexplained":9506,"Ġpleased":9507,"ĠØ¨Ø±ÙĪØ²":9508,"ĠÙģØ§ÛĮÙĦ":9509,"Ġscream":9510,"Before":9511,"Ġhearing":9512,"ĠBi":9513,"ĠØ±ÙģØªÛĮÙħ":9514,"Ġcoffe":9515,"ĠØªØŃØ³ÛĮÙĨ":9516,"ÙģÙĨØ¯":9517,"terday":9518,"ĠBrazil":9519,"ĠØ³Ø±ÙĪÛĮØ³":9520,"ĠRec":9521,"Ġworst":9522,"Ġmatters":9523,"ĠØ§ÙĨØ¨ÙĪÙĩ":9524,"ĠJo":9525,"ĠØµØ¯Ø§ÛĮØ´":9526,"Ġjoin":9527,"ĠÙħÙĤÛĮØ§Ø³":9528,"FA":9529,"Ø§Ø±ÙĨ":9530,"Ø¦ÙĪØ±":9531,"izab":9532,"ĠØ®Ø§Ø·Ø±Ø§Øª":9533,"ĠØ¢ÙħÙĪØ²Ø§ÙĨ":9534,"ĠÙĪÛĮØ±ÙĪØ³":9535,"Ġapplications":9536,"ĠHam":9537,"ĠÙħÙĢÛĮ":9538,"ĠThomas":9539,"DP":9540,"ĠÙĨØµÙģ":9541,"Ġhide":9542,"Ġpros":9543,"Ġorganizations":9544,"Ġhole":9545,"ĠÙĤØ¨ÛĮÙĦ":9546,"Ø¢Ø®Ø±":9547,"ĠCollege":9548,"Ġshadow":9549,"gn":9550,"Ġunknown":9551,"ishment":9552,"ĠÙħÙĨØ¸Ø±Ùĩ":9553,"Ġodd":9554,"Ġparties":9555,"Ø³Ø±ÛĮ":9556,"Ġmanaged":9557,"kin":9558,"ÙģØ±Ùħ":9559,"Ġcontains":9560,"Any":9561,"ĠÙĨÙħØ§ÛĮÙĨØ¯Ùĩ":9562,"ĠÙ¾ØªØ±":9563,"Ġ29":9564,"ĠØ¨Ø³ØªÚ¯ÛĮ":9565,"ads":9566,"ĠGreen":9567,"ĠÙģØ±ÙĪØ´Ú¯Ø§Ùĩ":9568,"ĠÙħÙĪØ§ÙģÙĤØª":9569,"Ġeager":9570,"ĠÚĨÙĩÙĦ":9571,"Ú©ØªØ§Ø¨":9572,"ĠÙĪØ§ÙĦØ¯ÛĮÙĨ":9573,"rical":9574,"spe":9575,"ĠÙĨØ§ÚĨØ§Ø±":9576,"Ġflow":9577,"aptain":9578,"ĠØ¨Ú¯ÙĪÛĮÛĮØ¯":9579,"HE":9580,"ctors":9581,"ĠØ§ØªØµØ§ÙĦ":9582,"ulture":9583,"Ġtong":9584,"ĠØ³ÙĪØ±ÛĮÙĩ":9585,"ĠØ°ÙĩÙĨÛĮ":9586,"ampions":9587,"ĠØ§ÙĦÛĮØ²Ø§Ø¨Øª":9588,"ĠÙ¾Ø±ÙĪØªØ¦ÛĮÙĨ":9589,"orough":9590,"Ġens":9591,"ĠÙħØ³Ø®Ø±Ùĩ":9592,"ÛĮÙĨØ§":9593,"ĠØ³ÙĦÛĮ":9594,"Ø¹Ø´":9595,"Ġaccident":9596,"Ġduty":9597,"ĠÙĩÛĮØ¯":9598,"ulous":9599,"ÙģØ±ÙĪØ¯":9600,"ĠØ§Ø®ØªØ±Ø§Ø¹":9601,"ĠØ¶Ø±ÙĪØ±ÛĮ":9602,"ĠØ¯Ø±Ø®Ø´ÛĮØ¯":9603,"ĠØ¯Ø®ØªØ±ÛĮ":9604,"rim":9605,"Ġnotes":9606,"ĠØªØ¹ÙĦÙĤ":9607,"Ġconsist":9608,"ĠØ¨Ø§Ø±ÛĮÚ©":9609,"ĠØªØµÙĪÛĮØ¨":9610,"can":9611,"ĠÙĨÛĮÙħÛĮ":9612,"Ġleader":9613,"ĠÙĨØŃÙĪÙĩ":9614,"ĠÛĮØ¯":9615,"ĠØ§ÙĨØ¨Ø§Ø±":9616,"ĠØ§Ø³ÙĦØ§Ùħ":9617,"Ġcalling":9618,"ĠØªÙĤÙĪÛĮØª":9619,"ĠØ¨Ø¯Ø±":9620,"Ġsen":9621,"ĠÙ¾Ø°ÛĮØ±ÛĮ":9622,"ĠÙĩÙĪØ´ÙħÙĨØ¯":9623,"ĠAtl":9624,"First":9625,"ÙħÛĮØªÛĮ":9626,"Ġash":9627,"ĠØ§ÛĮØ²":9628,"Ġvast":9629,"Ġbrown":9630,"ĠØºÛĮØ±ÙĤØ§Ø¨ÙĦ":9631,"ĠØ±ÙĩØ¨Ø±":9632,"Ġconstruct":9633,"Ġveh":9634,"ĠØ§ØªØŃØ§Ø¯":9635,".'":9636,"mar":9637,"ĠØ¨ÙĪØª":9638,"ÙģÙĪØ±":9639,"Ġplat":9640,"Ġstudied":9641,"ĠSocial":9642,"Ġdouble":9643,"Ġmentioned":9644,"ba":9645,"Ġwine":9646,"ita":9647,"Ġconvin":9648,"ĠJac":9649,"izes":9650,"ĠÙ¾Ø±ÚĨÙħ":9651,"ĠØ§ÙĨØŃ":9652,"Ġprior":9653,"Ġorders":9654,"Ġcoffee":9655,"Ø§Ø±ÙĩØ§":9656,"ĠÙħØ³ÙĦØŃ":9657,"ĠØ±Ø§ÛĮØ¬":9658,"fortun":9659,"Ġcultural":9660,"ynam":9661,"mitted":9662,"Ġtour":9663,"ĠØ¨Ø§Ú©ØªØ±ÛĮ":9664,"ĠØ§ÙĪØ¬":9665,"Ġattend":9666,"Ġinstrum":9667,"ĠMycos":9668,"phaerella":9669,"ĠMycosphaerella":9670,"Ġstated":9671,"ĠØªÙħÛĮØ²":9672,"Ġshoot":9673,"athy":9674,"ĠØ¬ÙĪØ§Ùħ":9675,"ĠÙĩÙĨØ±ÙħÙĨØ¯":9676,"ÙĦØ§ÛĮÙĨ":9677,"ĠDef":9678,"ĠÙĪÙħ":9679,"Ġfru":9680,"ĠScience":9681,"Ġfifty":9682,"Ġsettled":9683,"Ø§Ø¯ÙĦÙĩ":9684,"ĠØ®ÙĪØ´ÛĮ":9685,"Ġsignal":9686,"ĠØ¯Ú¯Ø±":9687,"aza":9688,"ĠHermione":9689,"ĠCompany":9690,"ĠÙĤØ±Ø§Ø±Ø¯Ø§Ø¯":9691,"ĠGold":9692,"anny":9693,"ĠØ¬Ø²Ø¦ÛĮØ§Øª":9694,"eed":9695,"Ġsch":9696,"ĠØ±Ø§Ùħ":9697,"entially":9698,"ĠØ´Ø±Ø§Ø¨":9699,"ĠØ´ÛĮØ·":9700,"Ġcarefully":9701,"ĠÙħØ·ÙħØ¦":9702,"ĠÙ¾Ø±Ø¯Ø§Ø²Ø´":9703,"Ġlibrary":9704,"ĠØ§Ú¯Ø±ÚĨÙĩ":9705,"Ġtraditional":9706,"Ġarchitecture":9707,"ĠÙĪÛĮÙĦÛĮØ§Ùħ":9708,"lymp":9709,"ĠBest":9710,"ĠØ§ÙĤØ§ÙħØª":9711,"mn":9712,"Ġmoments":9713,"Ú©Ø§ÙĪÛĮ":9714,"ĠÚĨØ§Ø±ÙĦØ²":9715,"Ġmillions":9716,"respond":9717,"Never":9718,"ĠØ´ÙĢ":9719,"Ġdoors":9720,"ĠÛ²Û°Û°Û³":9721,"nik":9722,"esh":9723,"ida":9724,"ĠØ§ÙĨØ¯Ú©":9725,"ĠØ§Ø³Ø±Ø§Ø±":9726,"ĠÙ¾Ø°ÛĮØ±ÙģØªÙĩ":9727,"ĠSund":9728,"Ġlies":9729,"Ġpresented":9730,"ĠØ°Ø±Ùĩ":9731,"ĠLevin":9732,"ĠØ§Ø®ØªÙĦØ§ÙĦ":9733,"ĠØ±ÙĪØ³ØªØ§ÛĮÛĮ":9734,"ĠÚ©ÛĮØ´ÙĪØª":9735,"ĠØ§Ù¾":9736,"ÙħØ§ÙĨØ¯":9737,"Ø¨ÛĮØ´":9738,"ĠØ¹ÙħØ¯":9739,"ĠØ¨ÙĦÙĨØ¯ÛĮ":9740,"ĠØªØ¦ÙĪØ±ÛĮ":9741,"ĠØ§Ø¶Ø·Ø±Ø§Ø¨":9742,"Ġbought":9743,"Ġhell":9744,"Ġvoices":9745,"Thus":9746,"ĠUK":9747,"Ġglance":9748,"See":9749,"ãĥ":9750,"Ġremains":9751,"Ġapplication":9752,"Ú©Ø§Ø³":9753,"estival":9754,"ĠØ´ÙĩØ±Øª":9755,"ĠØªÙģÙĨÚ¯":9756,"ĠÙ¾Ø°ÛĮØ±Ø§ÛĮÛĮ":9757,"ĠFilm":9758,"EE":9759,"rary":9760,"isco":9761,"Ġmap":9762,"ĠØ¢Ùģ":9763,"ogether":9764,"Ġdisapp":9765,"ĠÙĩÙħØ§ÙĨÙĨØ¯":9766,"Ġabsolutely":9767,"nding":9768,"ĠLatin":9769,"ÙĩØ±ÚĨÙĨØ¯":9770,"Ġdeveloping":9771,"ĠØ§Ø±ØªØ¨Ø§Ø·Ø§Øª":9772,"ĠÙ¾Ø§ÛĮØ¯Ø§Ø±":9773,"ÙĤØ¨ÙĦ":9774,"Ġhidden":9775,"Ġenorm":9776,"ÙĨØ¬ÛĮ":9777,"ĠAnna":9778,"Ġconstruction":9779,"win":9780,"ĠØ¬Ø§ÛĮÚ¯Ø§Ùĩ":9781,"Ġdirected":9782,"Ġoperation":9783,"anc":9784,"Ġsoci":9785,"ĠÙĨØ´ÛĮÙĨ":9786,"ĠØ®ÙĪØ´Ø´":9787,"ĠØ³Ù¾Ø§Ø³":9788,"ÉĻ":9789,"ĠÙĨØ±ÙĪ":9790,"ĠØ§Ø³Ú©Ø§Øª":9791,"ĠÙĩÙħØ§ÙĨØ·ÙĪØ±":9792,"Û²Û°":9793,"ĠÙĪÙĤÙĪØ¹":9794,"Ġhyp":9795,"ĠØ²Ø®Ùħ":9796,"Ġwaste":9797,"Ġrot":9798,"ĠÙħØ±Ø§Ø¬":9799,"Ù¾ÙĪØ´":9800,"ĠØ¹ÙĦÙģ":9801,"Ġunit":9802,"ĠÚ©Ø§ÙĨØ§ÙĦ":9803,"Ġproceed":9804,"ĠJane":9805,"ĠØ¯Ø§ÙĨØ´ÙħÙĨØ¯Ø§ÙĨ":9806,"Ġsharp":9807,"ĠProt":9808,"Sometimes":9809,"net":9810,"ØŃØ¯ÙĪØ¯":9811,"ĠØ§Ø³ØªØ«":9812,"Ú¯Ø±ÙģØª":9813,"ĠStreet":9814,"annel":9815,"Ġfunctions":9816,"Ġperformed":9817,"Ġdying":9818,"Ø¬ÙĩÛĮØ²":9819,"Ġinterrupt":9820,"Ġfourth":9821,"Ġappears":9822,"Ġmoral":9823,"ĠÙ¾ÙĨØ¯Ø§Ø´Øª":9824,"ĠSen":9825,"Ġpossibly":9826,"ĠØ¨Ø³ØªØ±":9827,"Ġpor":9828,"Ø§ÙħÙĦÙĩ":9829,"ĠAcad":9830,"estic":9831,"ĠÙħØ®Ø§Ø·":9832,"Ġoperating":9833,"Ġcauses":9834,"ØªÙĤØ±ÛĮØ¨Ø§":9835,"ĠIslamic":9836,"ĠÙģØª":9837,"osen":9838,"ĠJose":9839,"Ġbread":9840,"rep":9841,"Ø§ÛĮØ´ÛĮ":9842,"ĠÙĤØ´":9843,"ĠØ±ÙĪØŃÛĮ":9844,"ava":9845,"ĠÙħØ¬ÙħÙĪØ¹":9846,"Ġprepared":9847,"ĠRoyal":9848,"ĠØ±ØºÙħ":9849,"ĠÙĩÙĪÙĦ":9850,"Ġaren":9851,"ÙĩØ±Ø§ÙĨ":9852,"ĠÙĤØ¯ÛĮÙħ":9853,"AM":9854,"Ġthrew":9855,"ĠØ¨Ø±ÙĪÛĮØ¯":9856,"ĠØ´ÛĮØ±ÛĮÙĨ":9857,"ĠØŃÛĮÙĨ":9858,"Ġstared":9859,"ĠCO":9860,"Ġexcell":9861,"Ġworkers":9862,"stein":9863,"ĠNow":9864,"Ġrealize":9865,"ĠÙħØ²Ø±":9866,"Ġconfess":9867,"ÙģØ¹":9868,"Ġadvent":9869,"Ġdiscover":9870,"ĠØ¨ÙĪØ³ÛĮÙĦÙĩ":9871,"Ġfootball":9872,"Ġpicked":9873,"ĠØªØ§Ø²":9874,"Ġfaster":9875,"ÙĨØ§ØµØ±":9876,"197":9877,"Ġ1960":9878,"Have":9879,"ĠÙĨØ¸Ø§Ø±Øª":9880,"ĠVo":9881,"Mus":9882,"Ġsin":9883,"ĠØ²Ø§ÙĨÙĪ":9884,"Ø§Ú¯ÙĪ":9885,"Ġearn":9886,"Ġsuggested":9887,"ĠØ²ÙħØ³ØªØ§ÙĨ":9888,"ĠÙ¾Ø¯ÛĮØ§":9889,"Ġflying":9890,"ĠÙ¾Ø§ÙĩØ§ÛĮ":9891,"illa":9892,"Ġshame":9893,"ĠÙħØ´Ø§ÙĪØ±":9894,"Ġcrim":9895,"ĠØŃÙĤÛĮÙĤÛĮ":9896,"gal":9897,"pet":9898,"Ø¢Ø®":9899,"Ġincome":9900,"bridge":9901,"Ø¯ÙĪØ¨Ø§Ø±Ùĩ":9902,"Ġdevices":9903,"inite":9904,"ÙĦØ§ÙĤ":9905,"ĠØ§ÛĮÙħÙĨÛĮ":9906,"Ġactivities":9907,"ÙħØªØ´":9908,"ĠØ¨Ø±ÛĮÙħ":9909,"isl":9910,"Ġalarm":9911,"ÙĩØ±Ú¯Ø²":9912,"ĠÙĨØŃÙĪÛĮ":9913,"atus":9914,"ĠØ§Ø²Ø´":9915,"Those":9916,"ĠStr":9917,"ĠRevolution":9918,"Ġgentlemen":9919,"ĠÙħÙĩØ§Ø¬Ø±Øª":9920,"Se":9921,"ĠÙĩØ¯ÛĮÙĩ":9922,"ĠMount":9923,"Ġcompared":9924,"Ġ1991":9925,"ĠØ®Ø´ÙħÚ¯ÛĮÙĨ":9926,"ĠÙĨÚ©ÙĨÛĮØ¯":9927,"omin":9928,"ĠÙĨÛĮØ§Ø²ÙħÙĨØ¯":9929,"ĠÙ¾Ø§Ø¯Ø´Ø§ÙĩÛĮ":9930,"iently":9931,"liv":9932,"Ġwid":9933,"ker":9934,"rier":9935,"Ġrecomm":9936,"Ġcrack":9937,"Ġdirector":9938,"Ġpromise":9939,"Ġwarn":9940,"Ø§ÛĮØ¹":9941,"ĠÚ¯Ø±Ø§Ùģ":9942,"Ġcharm":9943,"ÙĪØ´Ø§":9944,"ĠJul":9945,"ĠØ®ÙĪØ´ØŃØ§ÙĦÛĮ":9946,"ĠPrin":9947,"ĠØ¨Ø±Ø®ÙĪØ±Ø¯Ø§Ø±":9948,"ĠÚ©Ø§Ø±Ø¨Ø±Ø§ÙĨ":9949,"ĠØªØ¹Ø·ÛĮÙĦ":9950,"ĠÙĤØ¯Ø±ØªÙħÙĨØ¯":9951,"ĠØ®ÙĪØ§ÙĨÙĨØ¯Ùĩ":9952,"Ġhes":9953,"ĠØµØ§Ø¯ÙĤ":9954,"ĠOlymp":9955,"ĠØ¯Ø±ÛĮØ§ÛĮ":9956,"Ġcrisis":9957,".;":9958,"Ġsaf":9959,"Ġ1999":9960,"ĠØªØ¦Ø§ØªØ±":9961,"acle":9962,"ĠChe":9963,"ieur":9964,"eping":9965,"Ġcommonly":9966,"ĠØ¯Ø§ÙħÙĨÙĩ":9967,"ĠÙħØ®Ø§ÙĦÙģØª":9968,"Ġmission":9969,"urally":9970,"ĠGroup":9971,"ĠÙģØ±Ø³":9972,"Ġserve":9973,"Ġcreating":9974,"ĠØ¨ÙĨÛĮØ§Ø¯":9975,"Ġquarter":9976,"Ġlatter":9977,"Ġfold":9978,"ĠÙħØ·Ø¨":9979,"Ġsust":9980,"Ġcapable":9981,"Ġcapacity":9982,"ĠØ°ÙĩÙĨØ´":9983,"mas":9984,"ÅŁ":9985,"ÙĦØ§ÙĨØ¯":9986,"ĠØ§Ø³ØªÙĤ":9987,"Ġjustice":9988,"Ġminim":9989,"Ġsuspic":9990,"ander":9991,"ĠØ§ÙģØ³Ø§ÙĨÙĩ":9992,"ĠGreek":9993,"Ã¨":9994,"ÚĨÛĮÙĨ":9995,"Ġrang":9996,"ĠÙħØ´Ú©ÙĦÛĮ":9997,"Ġtrick":9998,"ĠØ¯Ø®ØªØ±Ø´":9999,"ĠÛ¶Û°":10000,"Ġprofessional":10001,"ĠÙħØ¤Ø³Ø³Ùĩ":10002,"ĠÙĩÙħØ³Ø§ÛĮÙĩ":10003,"ÙĨØ§ÛĮÛĮ":10004,"ĠÛ²Û°Û°Û´":10005,"ĠØ´ÛĮØ·Ø§ÙĨ":10006,"Ġofficers":10007,"Ġextraord":10008,"ÙħØ·Ùħ":10009,"isms":10010,"Ġasleep":10011,"ĠÂ°":10012,"ĠÛ±Û¹Û¹Û°":10013,"Ġwhispered":10014,"Ġcommunication":10015,"ĠÙģØ¯Ø±Ø§ÙĦ":10016,"Ø³ÛĮØ±":10017,"ĠØ¨ØªÙĪØ§ÙĨÛĮÙħ":10018,"ĠMuseum":10019,"umber":10020,"ĠÙħØªÙĩÙħ":10021,"Ġteach":10022,"Ġquietly":10023,"ĠØ¨ØªÙĪÙĨ":10024,"ĠØ¢ÙĨØ±Ø§":10025,"owned":10026,"ĠØ±ÙĪØ²Ø§ÙĨÙĩ":10027,"ĠÚ¯ÛĮØ¬":10028,"arts":10029,"ĠØ¨Ø¯Ø§ÙĨØ¯":10030,"ÙĨÛĮÚ©Ùģ":10031,"ala":10032,"omic":10033,"Ġgray":10034,"Ġpaint":10035,"ĠØ¨Ø±ØªØ±":10036,"Also":10037,"Û³":10038,"ÙĦØ§ÙĨ":10039,"ĠPat":10040,"osh":10041,"apole":10042,"ĠØ¹ÙĪØ§ÙħÙĦ":10043,"Ø°ÛĮÙĩ":10044,"iar":10045,"ĠÚ©Ø§Ø³Øª":10046,"ĠÙģÙĤØ±":10047,"Ad":10048,"PD":10049,"ĠØ¯Ø±ÙĪÙĨÛĮ":10050,"ĠHis":10051,"Ġcircumstances":10052,"ĠÛĮÚ©Ùĩ":10053,"ĠSat":10054,"ĠØ¯Ø®ØªØ±Ú©":10055,"ĠÙħØ°Ø§":10056,"ĠØºØ±ÛĮØ¨":10057,"itter":10058,"ĠÙ¾ÛĮÙĨ":10059,"ĠBul":10060,"alog":10061,"ĠÙģØ±ÙħÙĪÙĦ":10062,"Ġmountain":10063,"ĠMadame":10064,"wing":10065,"Ø¨Ø®Ø´":10066,"ĠØ¯ÙĪØ®Øª":10067,"Ø«Ø§":10068,"ested":10069,"ĠØªØŃØ±ÛĮÚ©":10070,"ĠØ´ÙħØ´ÛĮØ±":10071,"ĠMet":10072,"Ø¸ÙĩØ±":10073,"ĠÙ¾ÛĮÚ©Ø±":10074,"Ġqual":10075,"Ġfinger":10076,"ÙħÙĪØ±Ø¯":10077,"Ġimportance":10078,"Ġeffective":10079,"ĠÙĤÙĦØ¨ÛĮ":10080,"ĠØ³Ø±Ø²ÙĨØ´":10081,"va":10082,"itated":10083,"onsieur":10084,"Ø´ØªÛĮØ§ÙĤ":10085,"ashington":10086,"ĠÙ¾ÛĮØ±Ø§ÙĩÙĨ":10087,"Ø§Ø±Ùģ":10088,"Ġaudience":10089,"Ġnuclear":10090,"ÛĮØ±ÛĮ":10091,"ĠØ¬ÙĪØ´":10092,"Ġcompar":10093,"ĠØ¨Ø´Ùĩ":10094,"ĠÙħÛĮÚ©":10095,"ĠÙĨÙħØ§Ø¯":10096,"ĠØ¯ÙĨØ¨Ø§ÙĦÙĩ":10097,"Ġkeeping":10098,"ĠÙĤØ¶Ø§ÙĪØª":10099,"Ġbegun":10100,"cular":10101,"ĠØ¯Ø§ÙĨÙĩ":10102,"unched":10103,"ÙĪÙħÙĨØ¯":10104,"Ġwilling":10105,"ĠØ¨ÙĨÛĮØ§ÙĨ":10106,"ĠForce":10107,"ĠØ§Ø´ØªÛĮØ§ÙĤ":10108,"Ø·Ø±Ùģ":10109,"Ġaircraft":10110,"ĠØµØ®Ø±Ùĩ":10111,"ĠØ¯ÙĩÚ©Ø¯Ùĩ":10112,"ĠÙĨÛĮØ§Ø²ÛĮ":10113,"ĠØ±ÙĪÛĮØ´":10114,"angl":10115,"Ġchallenge":10116,"))":10117,"Ġdrop":10118,"Ġunable":10119,"Ġseconds":10120,"ĠØªÙĪÙĨÛĮÙħ":10121,"Ġattacks":10122,"ĠÙħÛĮØª":10123,"esp":10124,"ĠØ®ÙĪØ´Ùħ":10125,"ĠØµÙĦÛĮ":10126,"Ġtender":10127,"Ġdistingu":10128,"Ġdreams":10129,"ĠØ§Ø³ØªØ®Ø¯Ø§Ùħ":10130,"ĠAfghanistan":10131,"ĠØ´ØªØ±":10132,"ĠØ¯Ø±ÙħØ§ÙĨÛĮ":10133,"Ġeverywhere":10134,"Ġremoved":10135,"ĠÙĩÙħÙĪÙĨ":10136,"Ġflowers":10137,"ĠMichael":10138,"ĠØ¨Ø§Ø³ØªØ§ÙĨ":10139,"ĠÚ¯Ø±Ø§":10140,"ØµÙĪØ±":10141,"ĠØ§Ø³ÙĨ":10142,"Ú¯ÙĪÙĨÚ¯ÛĮ":10143,"ĠOrgan":10144,"ĠØªØ¬ÙĩÛĮØ²":10145,"Ġfurn":10146,"Ġvariety":10147,"Ġapplied":10148,"apoleon":10149,"wers":10150,"Ú©Ø±Ø§Ø³ÛĮ":10151,"ÙĦØ¦ÙĪÙĨ":10152,"Ġcreature":10153,"ĠÚ©ÛĮØª":10154,"edd":10155,"Ġho":10156,"ĠÛĮÙĪØ±":10157,"elle":10158,"ĠØ¨ÙĪØ¬ÙĪØ¯":10159,"ĠØ®Ø¯Ø§ØŃØ§ÙģØ¸":10160,"Ġdelic":10161,"ĠØ·ÙĨ":10162,"Ġsuicide":10163,"ĠØ®Ø±ÙĪØ¬ÛĮ":10164,"Ġdrug":10165,"Ġton":10166,"ĠSim":10167,"Ø§Ø³ÛĮÙĪÙĨ":10168,"ĠØ³ÙĨØ¯":10169,"ÙĩÙħÚĨÙĨØ§ÙĨ":10170,"CH":10171,"ĠAp":10172,"Ġbridge":10173,"ĠResearch":10174,"ĠØ¬ÙĪØ§ÙħØ¹":10175,"CO":10176,"fa":10177,"yth":10178,"ÙĪÛĮÙħ":10179,"ĠØ±Ø¨Ø§Øª":10180,"ĠÙ¾Ø±Ø§Ú©":10181,"olas":10182,"ĠProvince":10183,"Ġuniversity":10184,"irect":10185,"ĠÙ¾Ø§Ø±ÚĨÙĩ":10186,")\".":10187,"Ø³Ù¾":10188,"Ġbow":10189,"ĠØ´Ú©Ø±":10190,"Ġpapers":10191,"Ø³Ø±Øª":10192,"ĠØ¨ØªÙĪØ§ÙĨÙħ":10193,"Ġfalling":10194,"ĠHenry":10195,"Em":10196,"ÚĨÙĪØ¨":10197,"ĠBro":10198,"ĠØ§ÙĦÚ¯ÙĪ":10199,"ĠÚ©ÙĦØ§Ø³ÛĮÚ©":10200,"ĠÙħÙĦØ§ØŃØ¸Ùĩ":10201,"ÙĦÙħØ§ÙĨ":10202,"Ġneare":10203,"ĠFer":10204,"cip":10205,"Phil":10206,"ĠCongress":10207,"ĠLouis":10208,"ĠSmith":10209,"ĠHel":10210,"Ġotherwise":10211,"Ġrefused":10212,"Ġpleasant":10213,"porary":10214,"ĠÚ¯ÙĪØ±ÛĮ":10215,"Ġnarrow":10216,"ĠØ³ÛĮØ¨":10217,"hens":10218,"ĠGoogle":10219,"BS":10220,"ØªÛĮÙħ":10221,"ĠÛĮÙĦ":10222,"ØµØ±ÛĮ":10223,"ĠÚ©Ø§Ø±ÙĩØ§ÛĮÛĮ":10224,"Ġ.":10225,"ĠØ¨Ø®Øª":10226,"ĠÚ©Ø§ÙħÛĮ":10227,"reement":10228,"omer":10229,"Ġsevere":10230,"Ġsomehow":10231,"Ġdistribution":10232,"Ġstairs":10233,"olt":10234,"Ġcontext":10235,"ĠÙħØŃÙĦÙĩ":10236,"ĠØªÙĨÙĩ":10237,"Ġtells":10238,"ĠÛĮÙĪÙĨØ§ÙĨÛĮ":10239,"ĠØ¯Ø±Ú¯Ø°Ø´Øª":10240,"enth":10241,"Ġpersu":10242,"ĠØ®Ø±Ø³":10243,"amily":10244,"Ġstir":10245,"ĠØŃØ¶Ø±Øª":10246,"ĠAsh":10247,"Ġprimary":10248,"izabeth":10249,"Such":10250,"ĠØªÙĢ":10251,"bits":10252,"iest":10253,"ĠÚ©ÙħØªØ±ÛĮ":10254,"ÙħÙĪÙĤ":10255,"Ġwondered":10256,"Both":10257,"ugg":10258,"Ú¯ÙĨØ¯":10259,"ĠØ¢Ø³Øª":10260,"ĠGal":10261,"Ġsake":10262,"ĠØ§ÛĮÙĨØ·ÙĪØ±":10263,"Ġappre":10264,"ĠÙģØ¹ÙĦÛĮ":10265,"Ġfallen":10266,"Ġrising":10267,"Ġreview":10268,"Ġ2016":10269,"Ġcloser":10270,"ÛĮØ§Ø¯":10271,"ĠØ¯Ø±Ø¨Ø§Ø±":10272,"idents":10273,"Ġcrime":10274,"Ġengineering":10275,"Ġnegative":10276,"ĠNations":10277,"ĠØ³ÙĪØ§Ø±ÛĮ":10278,"Ġends":10279,"ĠØ¨Ø§ÙĦØ§Øª":10280,"ĠØ§Ø¹Ø¯":10281,"alls":10282,"ĠØ¢ÙħØ§Ø±":10283,"Ġcontain":10284,"atherine":10285,"Ġcollection":10286,"ĠØ¨ÙĬ":10287,"ĠØ®ÙĦÛĮ":10288,"Ø³ÛĮØ³ØªÙħ":10289,"Ú©Ø²ÛĮÚ©":10290,"99":10291,"Ġbacter":10292,"Ġtool":10293,"omys":10294,"ÙĪÙĦÛĮÙĨ":10295,"Ġdescend":10296,"Ġpoly":10297,"ĠFranc":10298,"Ġoptim":10299,"Ġadministrative":10300,"Ú©Ø¯Ø§Ùħ":10301,"Ġinput":10302,"Ø§ÙĦØ§Øª":10303,"ĠØ¬ÙĪØ±ÛĮ":10304,"ands":10305,"ÙħÙĨØª":10306,"ĠÙģØ§Ø±Øº":10307,"ĠØ§Ø¯Ø±":10308,"ÙģÙĪØ±Ø¯":10309,"ĠØ§ÙħÙ¾Ø±Ø§":10310,"ÙĪØ²Øª":10311,"ĠÙĨÙĪØ§Ø®Øª":10312,"Ġconstant":10313,"Ed":10314,"ua":10315,"Ø¨ØªÛĮ":10316,"ĠØ±ÙĪØ§ÙĨÛĮ":10317,"Ġpity":10318,"Ġimper":10319,"Ġexer":10320,"Ġsav":10321,"ĠÙ¾ÛĮØ´ÛĮÙĨ":10322,"ĠØ®ÙĪØ´Ø¨Ø®Øª":10323,"Ġyesterday":10324,"Ġutter":10325,"Ġdogs":10326,"ĠÙħØŃÙĪ":10327,"Ġtwelve":10328,"Ġpointed":10329,"ĠØ¢Ø³ÛĮØ§":10330,"ĠØ§Ø±Ø¯ÙĪ":10331,"Ø³ÙħÙĩ":10332,"inate":10333,"ĠNot":10334,"ĠÙĨØ¯Ø§Ø¯Ùĩ":10335,"Ø§ÙģÙĦ":10336,"Ġdrove":10337,"Ġtouched":10338,"Ġwidely":10339,"ĠØªØŃÙĤÛĮØ±":10340,"jean":10341,"ĠAh":10342,"ĠHIV":10343,"ĠØ§ÙĦÚ©ØªØ±ÙĪÙĨÛĮ":10344,"ĠØ¨ÛĮÙģØªØ¯":10345,"ĠÙħØ²Ø±Ø¹Ùĩ":10346,"Ġ90":10347,"Ġaston":10348,"father":10349,"Ġwearing":10350,"ĠSil":10351,"ĠTimes":10352,"ĠØ¢ÙĦÙĪØ¯Ùĩ":10353,"ĠÙħØ¬Ø¯Ø¯":10354,"ĠØ¨ÛĮØ§ÛĮÛĮØ¯":10355,"Ġvent":10356,"ĠÙĨÛĮØ§Ùħ":10357,"ĠØ§Ø³Ú©ÙĨ":10358,"Ġreply":10359,"Ġbasis":10360,"ĠRichard":10361,"Ø¨ÙĦÛĮ":10362,"ĠØ±ÙĪØ³":10363,"osis":10364,"ĠØ®ÙĪØ§ÙĩØ±Ø´":10365,"ĠÚ©ÙħÙĪÙĨÛĮ":10366,"ĠØ¨Ø¯ÙĩÛĮÙħ":10367,"Ġsigned":10368,"Ġaside":10369,"umped":10370,"ĠØ§Ø®Ø¨Ø§Ø±":10371,"Com":10372,"akistan":10373,"Ġcorrespond":10374,"Ñģ":10375,"Ù¾ÙĨØ¬":10376,"ÙħÙĨØ³ØªØ§ÙĨ":10377,"ĠØªØ¹ÙĤÛĮØ¨":10378,"ĠWindows":10379,"TP":10380,"ĠÙĨÛĮØ´":10381,"Ġpainting":10382,"ĠÙħØ¬Ø¯Ø¯Ø§":10383,"ĠØ¬Ø§ÛĮØ´":10384,"cely":10385,"ĠÙģØ±Ø§ØªØ±":10386,"ĠÙħØ¯Ø§ÙĪ":10387,"ĠØ¬ÙĨØ³":10388,"ĠØ¨Ø¯ÙĩÛĮ":10389,"Ġ70":10390,"Ġshouted":10391,"Ġcous":10392,"uzz":10393,"ĠØ±Ø£ÛĮ":10394,"Ú©ÙĪØ±":10395,"ĠÚĨÚ¯ÙĪÙĨÚ¯ÛĮ":10396,"Ø±ÙĪØŃ":10397,"ĠØ§ÙĨÚ¯ÛĮØ²ÛĮ":10398,"ĠÙģØ´Ø±Ø¯Ùĩ":10399,"Ġprojects":10400,"ĠÙĩÙħÚ©Ø§Ø±":10401,"ÙĩØ§Ø¦ÛĮ":10402,"ĠØ¯ÙĪÚĨØ±Ø®Ùĩ":10403,"Ġinnov":10404,"Ġcarrying":10405,"mine":10406,"Äģ":10407,"Ú¯ÛĮØ³":10408,"ÙħÙĪÙĨØ¯":10409,"Ø¯Ø§ÙĨØ´":10410,"ĠØ§Ø¬ØªÙħØ§Ø¹":10411,"Ġchosen":10412,"Nothing":10413,"ĠØ³ÙĦØ§ÙħØªÛĮ":10414,"Tom":10415,"Ġhydro":10416,"Ġ\".":10417,"ĠÙħØ¹Øª":10418,"Ġanywhere":10419,"ÙĪØªØ±ÛĮ":10420,"hetic":10421,"Ġfan":10422,"Ġfran":10423,"ĠØ³ÙĩÙħ":10424,"ĠÙĤÙģÙĦ":10425,"atell":10426,"Ø¯Ø§Ú©":10427,"ĠÛ±Û¹Û¸Û°":10428,"Ø±ÙĤ":10429,"Ġexpressed":10430,"rieved":10431,"cs":10432,"Ø±Ø§Ø¨":10433,"ÙħØ±Ø§":10434,"Ġhill":10435,"ØŃØ³":10436,"ĠFrodo":10437,"rous":10438,"Ġoriginally":10439,"ĠÙħØ¤Ø«Ø±":10440,"ĠÏ":10441,"ĠÙĪÙĪØ¯":10442,"ĠÛĮØ§Ø±":10443,"Ġsuit":10444,"ĠÙħØ´ØªØ§ÙĤ":10445,"gment":10446,"ĠÙħÙĪØ§ÙģÙĤ":10447,"ĠØªØ¬Ø¯ÛĮØ¯":10448,"ĠLife":10449,"Ġunique":10450,"ĠÙĨØ´ÛĮÙĨÛĮ":10451,"Ġcourage":10452,"Ġcollege":10453,"Ġefforts":10454,"ĠØ±Ø¯ÛĮÙģ":10455,"ĠØ§Ø¹Ø¯Ø§Ùħ":10456,"86":10457,"Ġincl":10458,"ĠØªÙĪØ§ÙĨØ³ØªÙĩ":10459,"Ġpride":10460,"ĠØ³Ø±ÛĮØ§ÙĦ":10461,"ĠÙħØ¨Ø§Ø¯Ø§":10462,"Ġthroat":10463,"ĠÚĨÙĪØ¨ÛĮ":10464,"ĠØ§ØŃÙħÙĤØ§ÙĨÙĩ":10465,"Ø¯ÙĪØ´":10466,"ĠØªÙĩØ±Ø§ÙĨ":10467,"ĠØŃØ´":10468,"ĠØ¬ÙĨØ§Ø¨":10469,"ĠØ³ÙĩØ§Ùħ":10470,"Ġfortune":10471,"ĠØ±ØŃ":10472,"ĠØ¢ÙĨÙĦØ§ÛĮÙĨ":10473,"ĠÚ¯Ø±ÙģØªØ§Ø±":10474,"Ġyounger":10475,"Ġdivided":10476,"Ġsuffer":10477,"oor":10478,"ÙĪØ¹ÛĮ":10479,"ĠØ¨Ø±ÙĨ":10480,"rol":10481,"ĠEmpire":10482,"iques":10483,"Ġplatform":10484,"32":10485,"Ú¯ÙĪÙĨÛĮ":10486,"Ġaband":10487,"ĠWomen":10488,"Ù¾Ø³Ø±":10489,"ĠØªØŃÙĪÛĮÙĦ":10490,"Ġpoll":10491,"ĠØ¨Ø§ÙĦØ§ÛĮÛĮ":10492,"yer":10493,"ĠÙħÛĮÙĪÙĩ":10494,"ÙĬÙĦ":10495,"Ġplans":10496,"Ġsolid":10497,"Ġadvanced":10498,"Ġprogramming":10499,"Ġcomputers":10500,"Ġreduce":10501,"ĠÙĪØ§Ø¯Ø§Ø±":10502,"atically":10503,"Ġcodes":10504,"Ġnorthern":10505,"ifying":10506,"ĠØ§ÙħÙĪØ§Ø¬":10507,"Ġknees":10508,"Ġaccomp":10509,"ĠÙħÙĩØ±Ø¨Ø§ÙĨÛĮ":10510,"Pl":10511,"Ø´ÙĨØ¯":10512,"Ġban":10513,"lement":10514,"Ġaffection":10515,"ĠØ§ÙĩÙħÛĮØªÛĮ":10516,"ĠSee":10517,"Ġoperations":10518,"Ġconcerned":10519,"FC":10520,"ÙĦØ·":10521,"ĠØ³Ø±ÙĪØ±":10522,"Ø§ÙĪÙĦÛĮ":10523,"ĠØ¨Ø§Ø²Ø¯ÛĮØ¯":10524,"Ġlights":10525,"ĠØªÙħØ§Ø´Ø§ÛĮ":10526,"Ġphysic":10527,"ĠØ§Ø«Ø±ÛĮ":10528,"Ġsafety":10529,"IA":10530,"Ø¯ÛĮØ±":10531,"ĠÙģÙĪÙĦ":10532,"illed":10533,"ĠÛ²Û²":10534,"Ġvisual":10535,"ĠÚ©Ø¬Ø§Ø³Øª":10536,"Ġcere":10537,"Ù¾ÙĪ":10538,"EN":10539,"ĠÚ¯ÙĦÙĩ":10540,"utch":10541,"aya":10542,"amber":10543,"ĠØ®ÙĪØ¯Ø¯Ø§Ø±ÛĮ":10544,"Ġcritical":10545,"Ġphilosophy":10546,"Ù¾Ø°ÛĮØ±":10547,"ĠÙ¾ÛĮØ¯":10548,"ĠÙĩØ±ÙħÛĮÙĪÙĨ":10549,"ĠØ¬ÙĨØ§ÛĮØª":10550,"Ġactions":10551,"ĠØªÙĤÙĦ":10552,"hesis":10553,"Ġdifficulty":10554,"ĠØ¬Ø±Ø£Øª":10555,"ĠOffice":10556,"ador":10557,"ĠØŃØ±Ú©ØªÛĮ":10558,"ĠÙħØ®ÙĦÙĪ":10559,"ĠØ§Ø®ÙĦØ§ÙĤ":10560,"Ġbra":10561,"ĠØ®ÙģÙĩ":10562,"verty":10563,"ĠØ±ÙĪØºÙĨ":10564,"ĠÚ©ÛĮØ³Ùĩ":10565,"ĠØ¹Ø±ÙĤ":10566,"ÙħØ¹ÙħÙĪ":10567,"happ":10568,"Ġprotection":10569,"ĠØ±Ø§ÙĩÙĨÙħØ§ÛĮÛĮ":10570,"Ġterrit":10571,"ĠØªØ±Ú©ÛĮØ¨ÛĮ":10572,"ÙĨØ§Øª":10573,"ĠØ±ÙĪØ´ÛĮ":10574,"Ú©ÙĦÙĨÛĮÚ©Ùģ":10575,"Ø§ØµÙĦØ§":10576,"Ġpoverty":10577,"Ø±ÛĮÙĤØ§ÛĮÛĮ":10578,"Ġdescribe":10579,"Ġmovie":10580,"xford":10581,"phone":10582,"razy":10583,"ĠØ§ÙħÛĮØ¯ÙĪØ§Ø±Ùħ":10584,"unn":10585,"ĠÙĦØŃØ¸":10586,"ĠØ®ÙĦØ§ØµÙĩ":10587,"ĠÛ±Û¹Û°Û":10588,"ĠÙ¾Ø§ÙĨØ²Ø¯Ùĩ":10589,"ÙħÛĮÙħÛĮ":10590,"Ú©ÙĪØ³":10591,"Ġsouthern":10592,"edy":10593,"ĠStep":10594,"ĠØ®ÙĪØ±Ø¯ÙĨØ¯":10595,"ÑĤ":10596,"ĠÚ©ÙĦÙĩ":10597,"ĠIP":10598,"ĠØ¶Ø¹Ùģ":10599,"Ġexplan":10600,"ĠØ±Ø¹":10601,"ĠHuman":10602,"ÙĪÙģØ§ÙĨ":10603,"ÙĨØ§ÛĮ":10604,"Ø§ØªÙĦ":10605,"Ø§ØªÙĪØ±":10606,"ĠTri":10607,"Ġdriving":10608,"Ġtomorrow":10609,"ĠØ¨Ø±Ø²ÛĮÙĦ":10610,"Ú©ÙĪØ¨":10611,"ĠâĢ¦":10612,"Ø±Ø¯Ú¯ÛĮ":10613,"Ġgro":10614,"Ú©ÙĦØ§ÛĮ":10615,"Ġsupply":10616,"ĠÚĨØ±Ø®Ùĩ":10617,"Ġfrightened":10618,"ĠÚ©Ø§ÙĪ":10619,"Ġmaxim":10620,"Ġactual":10621,"Ġlocation":10622,"ĠÚ©ÙĨØ¬Ú©Ø§ÙĪÛĮ":10623,"Ġheight":10624,"Ø·ÙĨ":10625,"unist":10626,"Ġphysics":10627,"ĠØªØµÙĪÛĮØ±ÛĮ":10628,"ĠÙĤØ³ÙħØªÛĮ":10629,"Ø¬ÙĨÚ¯":10630,"leg":10631,"ĠAlexandrov":10632,"ĠCas":10633,"ĠØºÙĪÙĦ":10634,"ĠÙħØŃÛĮØ·ÛĮ":10635,"ĠØ§Ø³ØªØ±Ø§ØªÚĺÛĮ":10636,"Ġenormous":10637,"God":10638,"ĠÚ¯ÙĪØ³":10639,"Ø§Ø³Ø±":10640,"Ġvia":10641,"ĠØ§Ø³ÛĮØ¯":10642,"Ġpromised":10643,"ĠØµØ±ÙģØ§":10644,"ĠÙħØŃØ¯ÙĪØ¯Ùĩ":10645,"ĠÚ©Ø§Ø²":10646,"ĠØ¢Øª":10647,"stairs":10648,"ĠØ¨Ø¯Ø¨Ø®ØªÛĮ":10649,"Ø§ØŃØª":10650,"ĠØ§Ø¨Ø¯Ø§":10651,"Ġmachines":10652,"yal":10653,"Ø´ØªÙĨ":10654,"ĠØ®Ø·Ø§Ø¨":10655,"ÙģØ§Ø¹ÛĮ":10656,"ĠØºØ±ÙĪØ±":10657,"Ġbitter":10658,"ĠØ§Ø´ÛĮØ§Ø¡":10659,"Ø±Ø§ÙĩÛĮ":10660,"ĠÙħØªØ±ÛĮ":10661,"Ġcounty":10662,"ĠØ³ÙĪØ¦Ø¯":10663,"ML":10664,"bel":10665,"ffered":10666,"ÙħØ§ÛĮ":10667,"ĠØ¹Ø§Ùħ":10668,"ĠÙĥØ±Ø¯":10669,"Today":10670,"mosp":10671,"Ø¯ÙĪØ³Øª":10672,"ĠRat":10673,"apes":10674,"ĠØºÛĮØ±Ùĩ":10675,"ĠÙĨÙĪØ§Ø±":10676,"ĠÙĦØ§Ø³":10677,"Ġ1998":10678,"ĠØ®Ø§Ø·Ø±Ùĩ":10679,"ĠÚ©Ø§Ø®":10680,"Ø²ÙĨØ¯Ú¯ÛĮ":10681,"Ø§Ø±Ø§Øª":10682,"Ġegg":10683,"ĠÚ©ÙĨÚ¯Ø±Ùĩ":10684,"ØªÛĮÚ©ÛĮ":10685,"Ø¢ÙĪØ±":10686,"Ø¨Ú¯Ø°Ø§Ø±":10687,"ĠØªØ¸Ø§Ùĩ":10688,"Ġstaff":10689,"ĠÙĦØ¹":10690,"iger":10691,"ĠLos":10692,"ĠÚ¯Ø°Ø±Ø¯":10693,"ĠØªØ¹Ø§Ø¯ÙĦ":10694,"ĠÙĨØ¨ÙĪØ¯Ùħ":10695,"Ġelection":10696,"Ġexclaimed":10697,"ĠØ¯Ø§ÛĮØ±Ùĩ":10698,"Ġdesper":10699,"ĠJewish":10700,"Ġdefinition":10701,"Ġbirds":10702,"ĠØ¯ÙĦÛĮÙĦÛĮ":10703,"ĠØ³ÙĦØ·ÙĨØªÛĮ":10704,"Ø³Ø§Ø¯":10705,"itz":10706,"ĠØ§ÛĮÙĨØ³Øª":10707,"ØµÛĮØ±":10708,"ĠIf":10709,"Ġanger":10710,"Ġprocesses":10711,"ĠØ¨Ø±Ø³Ø§ÙĨØ¯":10712,"Ġmurm":10713,".)":10714,"ses":10715,"vant":10716,"Ø¨Ø§Ø¯":10717,"ĠØºØ±ÙĪØ¨":10718,"Ġunless":10719,"Ġbreakfast":10720,"ĠØ±ÙĪÛĮØ¯Ø§Ø¯":10721,"ĠØ¯ÙħÙĪÚ©Ø±Ø§Øª":10722,"ĠØ´Ú©ÙĨØ¬Ùĩ":10723,"ĠÙħØ·Ø¨ÙĪØ¹":10724,"ĠØ¯Ø±Ø´Øª":10725,"ĠValjean":10726,"Over":10727,"Ġpages":10728,"ompl":10729,"ĠØ§Ø³ØªÙĨ":10730,"ĠØªØ¬Ø§ÙĪØ²":10731,"Ġlots":10732,"ĠÙħØ¨ØªÙĨÛĮ":10733,"Ġcopy":10734,"ĠPrize":10735,"64":10736,"Very":10737,"ĠØªØ®ØªÙĩ":10738,"ĠØ³Ø±Ø³":10739,"ĠÙģØ±ÙĪØ´ÛĮ":10740,"Ġdepth":10741,"ÙħØªØ´Ú©Ø±Ùħ":10742,"ĠØ§Ø³ØªÙĪØ¯ÛĮ":10743,"amental":10744,"Ú¯Ø±ÙģØªÙĩ":10745,"Ú¯Ø±ÚĨÙĩ":10746,"oper":10747,"Ġrandom":10748,"ĠÙģØ±Ø§Ø²":10749,"Ø§ÙĨØ¯Ø§Ø²":10750,"ĠÙĩÙħÛĮÙĨØ·ÙĪØ±":10751,"Ġ2017":10752,"Ġdaily":10753,"ĠÙĩÙĢÙħ":10754,"ĠÚ¯Ø±Ø³ÙĨÚ¯ÛĮ":10755,"SS":10756,"Ġocean":10757,"ĠÙĤÙģ":10758,"ĠLong":10759,"ĠTo":10760,"ĠÙ¾ÛĮØ´Ø±ÙģØªÙĩ":10761,"ĠÚ©ÙĦØ¨Ùĩ":10762,"ÙĩÙĨÚ¯Ø§Ùħ":10763,"Ġcircle":10764,"ĠÙħØ³ØªÙĤÛĮÙħØ§":10765,"ĠØ²Ø´Øª":10766,"Ġsem":10767,"onscious":10768,"Ġcalls":10769,"ovitch":10770,"ÙħÙħ":10771,"Ø§ÙĦÛĮØ²":10772,"Ø§ÙĦØ¹ÙħÙĦ":10773,"ĠWashington":10774,"Ġaccompl":10775,"Ġidentity":10776,"ĠØ§ÙĬ":10777,"ĠÙĪØ§Ø´":10778,"Ġdare":10779,"ĠØ§Ø³ØªØ±":10780,"Ġsuffered":10781,"ĠØ¨Ø§Ø²Ú¯Ø±Ø¯":10782,"Ú©Ø´Ø§ÙĨ":10783,"ĠØ¯ÙĩØ§ÙĨØ´":10784,"Ġphotograph":10785,"ĠÙħØ¯Ø§Ø±Ø³":10786,"ĠØ¹Ø±ÙĪØ³ÛĮ":10787,"ĠØªØºØ°ÛĮÙĩ":10788,"Ø¨Ø§ÛĮ":10789,"ĠØ´Ø§ÛĮØ³ØªÙĩ":10790,"icago":10791,"ĠÙĩØ³ØªÙĨ":10792,"ĠÚ©ÙĦØ§Ùħ":10793,"Ġregions":10794,"ĠØ¹Ø¯Ø§ÙĦØª":10795,"ĠØ§ÙħÙĨÛĮØªÛĮ":10796,"ĠDemocr":10797,"Ġnervous":10798,"ĠÙĪØµÙĦ":10799,"ĠÙ¾ÙĦÛĮ":10800,"ĠRad":10801,"Ġsmoke":10802,"ĠØ§Ø±ØªØ¨Ø§Ø·ÛĮ":10803,"Ġgrav":10804,"ĠØ´ÙĩØ±ÙĪÙĨØ¯Ø§ÙĨ":10805,"bly":10806,"ww":10807,"ĠÚ©ÙĪØ§ÙĨ":10808,"ĠÙĩØ´Ø¯":10809,"ĠØ®Ø³ØªÚ¯ÛĮ":10810,"Ġpit":10811,"Ġnarr":10812,"ĠØ¯ÛĮÙĪÛĮØ¯":10813,"Ġcommunities":10814,"Ġacid":10815,"Ġburning":10816,"ĠÙĩÛĮØ¯Ø±ÙĪ":10817,"ÙĨÙĤ":10818,"ĠÚ©Ø¬":10819,"ĠØŃØ§ÙĪÛĮ":10820,"Ġmurder":10821,"ĠÙ¾Ø±Ø§Ú©ÙĨØ¯Ùĩ":10822,"ĠÙĤØ§Ø±Ùĩ":10823,"Ø§ÙĤØ¨Øª":10824,"ĠØ§ÙĨØ¯Ø§Ø²Ø¯":10825,"Ġcreation":10826,"ĠÙħÛĮÚ©ÙĨÛĮÙħ":10827,"Ġcaptain":10828,"Ġproof":10829,"Ġdesk":10830,"ĠÚ¯Ø±Ø¯Ø§ÙĨØ¯":10831,"low":10832,"ĠBur":10833,"ĠProfessor":10834,"Ġzero":10835,"ĠCaptain":10836,"rang":10837,"Ġanti":10838,"Ġnodd":10839,"Ġsolve":10840,"Ø¯Ø§Ú©Ø«Ø±":10841,"ĠØ¢ÙĨØ¬":10842,"Ġsevent":10843,"Though":10844,"ĠÙĨØ§Ø´ÙĨ":10845,"Ġrequires":10846,"iable":10847,"zed":10848,"ĠÙħÙĪÛĮ":10849,"assion":10850,"Ġbomb":10851,"uts":10852,"ĠÙħÙĩÙħØ§ÙĨÛĮ":10853,"Ġconfidence":10854,"Ġtroops":10855,"Ġaid":10856,"Ġaunt":10857,"ĠØ´Ø¯ÛĮØ¯ÛĮ":10858,"ĠÛ±Û¹Û·Û°":10859,"Ġaccur":10860,"ĠÚ©ØªØ§Ø¨ÛĮ":10861,"annon":10862,"ĠTurkish":10863,"ĠØ§ÙħØ§ÙĨ":10864,"ĠÙĨØ¹":10865,"Ġbent":10866,"ensity":10867,"ĠØ¬ÙĨØ¨":10868,"ĠYes":10869,"Ġadvice":10870,"Ġpolitics":10871,"Ġstayed":10872,"Ġthrow":10873,"Ġdeclared":10874,"Ġinfect":10875,"ĠØ¬Ø§Ø±ÛĮ":10876,"ĠAri":10877,"Ġsymp":10878,"Ġ1986":10879,"ĠÙĪØ§Ø³Ø·Ùĩ":10880,"ĠØ§Ø¯Ø¨ÛĮØ§Øª":10881,"ÙħÙĪØ±":10882,"icy":10883,"ĠÙĨØ§ÙħØ²Ø¯":10884,"ÙħØ±Ø¯ÛĮ":10885,"Ġhotel":10886,"Ġgradu":10887,"ĠØ´Ø§Ø¹Ø±":10888,"ĠÙħØ¹ÛĮ":10889,"Ġpig":10890,"ĠÙħØ±Ø§Øª":10891,"ĠØ´ÙĨØ¨Ùĩ":10892,"Ġordinary":10893,"Ġcontrast":10894,"ĠÙĤØ´ÙĨÚ¯":10895,"70":10896,"kins":10897,"ĠØ¯ÙĪÙĨÛĮ":10898,"Ġwore":10899,"ano":10900,"anded":10901,"ĠØªØ®ÙħÛĮÙĨ":10902,"Ġinitial":10903,"ĠÙħØµØ§ØŃØ¨Ùĩ":10904,"ØŃØªÙħØ§":10905,"ĠÙħØ±Ø¨Ø¹":10906,"Ġassist":10907,"Ġabsor":10908,"Ġteacher":10909,"Ġtongue":10910,"Miss":10911,"ĠØªÙĪÙĨÙĩ":10912,"ĠØ³ÙĢ":10913,"ĠØ¨Ø±Ø³Ø§ÙĨ":10914,"ĠØ®ÙĪØ§Ø±":10915,"ĠÙħØ¬Ø³ÙħÙĩ":10916,"Ġprovides":10917,"Ġindustrial":10918,"ÙħØ¹ÙħÙĪÙĦØ§":10919,"yp":10920,"Ú¯ÙĪØ´":10921,"ĠØ¹ÙĨØ§ØµØ±":10922,"Ġanaly":10923,"ĠÙ¾Ø±Ùĩ":10924,"Ġblank":10925,"ĠØ§Ø¹ØªØ¨Ø§Ø±":10926,"Ø§ÙĨÚ¯Ø§Ø±":10927,"Ġinterpret":10928,"ÙĨØ§Ø·ÛĮØ³ÛĮ":10929,"Åį":10930,"ÙħØ±ÛĮ":10931,"Ġtaste":10932,"ÙĤØ§Ø¨":10933,"ĠÚ©Ø´Ùħ":10934,"ĠÙĪØ³ÛĮØ¹":10935,"Gr":10936,"ĠØ±Ø¯Ùĩ":10937,"enger":10938,"ĠØ®Ø§ÙĦÙĩ":10939,"Ġwriter":10940,"Ġlimit":10941,"ĠÙĨØ§ÙĦÙĩ":10942,"Ġphen":10943,"ĠÙĩÙħÛĮØ´":10944,"Ġforty":10945,"Ġfactors":10946,"ĠØªÚ©ÙĨÛĮÚ©":10947,"arrass":10948,"Ġrapidly":10949,"ĠØ¯ÛĮØ¬ÛĮØªØ§ÙĦ":10950,"ĠØ¯Ø±Ø´":10951,"ĠØªØ¹Ø§ÙħÙĦ":10952,"ĠÚ¯ÛĮØ±ÙĨØ¯Ùĩ":10953,"Ġstaring":10954,"usted":10955,"Ġprecise":10956,"ÙĨØ¸Ø±":10957,"Ø¯ÙĪÙħ":10958,"Ġemotion":10959,"rich":10960,"ĠØªØ³Øª":10961,"ĠVer":10962,"Ġcompleted":10963,"Ġeasier":10964,"urgis":10965,"Ġteaching":10966,"ĠØ¯ÙĪØ®ØªÙĩ":10967,"ĠØ±Ø³Ùħ":10968,"Ġrecognize":10969,"Ġfault":10970,"Ġdespite":10971,"ĠØªÙĤØ§Ø¶Ø§":10972,"ĠØ¨ÚĨ":10973,"lease":10974,"ĠÚ©Ø§ÙĦØ¬":10975,"Ġinternal":10976,"rome":10977,"ĠØ¨Ú¯Ùħ":10978,"Ġ1994":10979,"ĠØ¨Ø¨ÛĮÙĨÙĨØ¯":10980,"bur":10981,"ĠØ±Ø¨":10982,"Ġliqu":10983,"ggie":10984,"El":10985,"iro":10986,"ÄŁ":10987,"Ġlaughter":10988,"Ġreject":10989,"Ø®ØµÛĮ":10990,"ĠØ¹ÙħÙĤ":10991,"Ġcollabor":10992,"Ġconsciousness":10993,"Ġconvinced":10994,"acters":10995,"ĠCamp":10996,"ĠPakistan":10997,"ĠØ´ÙħØ§Ø³Øª":10998,"ĠØ°Ø±Ø§Øª":10999,"ĠâĢĮ:":11000,"ĠÚĨÙħÙĨ":11001,"ĠDel":11002,"ĠØ´Ú©Ø§Ùģ":11003,"ĠØªØ´Ú©Ø±":11004,"ĠÛ²Û³":11005,"Ġresearc":11006,"ĠÙħØ²Ø§ØŃ":11007,"ĠÙĨÚ¯ÙģØª":11008,"Ġcosts":11009,"Ġinnoc":11010,"ĠÙħÙĤØ§ÙħØ§Øª":11011,"ĠÙ¾ÛĮÙħØ§ÙĨ":11012,"ora":11013,"ĠÙĩÙħØ¯":11014,"Ø¦Ùħ":11015,"Ġoutput":11016,"aren":11017,"ĠÙģÚ©Ø±Ø´":11018,"uing":11019,"Ġdetails":11020,"attered":11021,"ĠØ§ÛĮÙĨÚ©Ø§Ø±":11022,"ĠÛĮÚ©Ø´ÙĨØ¨Ùĩ":11023,"ĠØªØ§Ø¬":11024,"ĠÙħØªÙĤØ§":11025,"Ġunex":11026,"Ġfactor":11027,"Ġfailure":11028,"Ġrobot":11029,"ĠÙħÙĪÙĦÚ©ÙĪÙĦ":11030,"pired":11031,"sk":11032,"war":11033,"ĠØ´ÙĪÛĮ":11034,"ĠØ³ÛĮØ¯":11035,"ĠCath":11036,"Ġatmosp":11037,"Ġcheer":11038,"Ġstatus":11039,"AL":11040,"ĠØ¨ÙĪØ¯Ø¬Ùĩ":11041,"ĠÙģÙĪØ±ÛĮ":11042,"Ġformal":11043,"ĠØ³Ø¹Ø§Ø¯Øª":11044,"worth":11045,"ĠEconom":11046,"ĠÙĨÚ¯ÙĩØ¨Ø§ÙĨ":11047,"Ġdeeply":11048,"ĠØ§Ø´Ú©Ø§ÙĦ":11049,"Ġstruggle":11050,"Qu":11051,"encies":11052,"alle":11053,"Ġgrey":11054,"esty":11055,"Ø§Ø³ØªÙģØ§Ø¯Ùĩ":11056,"ĠØ§ÙĦÙĦÙĩ":11057,"Ġphr":11058,"Ġincreasing":11059,"Ġraise":11060,"ĠÚ©Ø§Ø±Ø¨Ø±Ø¯ÛĮ":11061,"Ġcredit":11062,"Ġapproximately":11063,"Ġpra":11064,"ĠØ¹ÙĨØµØ±":11065,"Ġcontem":11066,"Ø§ØŃØªÙħØ§ÙĦ":11067,"ĠØ§ÙĨØªÙĤØ§Ø¯":11068,"ĠØ¨Ú©ÙĨÛĮÙħ":11069,"ĠÛ¸Û°":11070,"SP":11071,"oz":11072,"ĠÚ©Ø§Ø±ÙĦ":11073,"ighed":11074,"ĠØ¹ÙħÙĩ":11075,"Ġvisible":11076,"Ġtruly":11077,"ĠØ´Ø¹ÙĦÙĩ":11078,"Ġirrit":11079,"ĠÙĪØ¹Ø¯Ùĩ":11080,"ĠØ§ÙħÙĨ":11081,"ĠØ§Ø´ØºØ§ÙĦ":11082,"Instead":11083,"Ġ1996":11084,"Ġlaunched":11085,"ØªØ®Øª":11086,"ĠØ¨Ø§Ø¨Øª":11087,"ĠÚ¯Ø°Ø±Ø§ÙĨ":11088,"Ġafford":11089,"Ġsymbol":11090,"Ġtheore":11091,"ĠFree":11092,"Ġmovements":11093,"ĠØ¬Ø¯ÙĪÙĦ":11094,"Ġvul":11095,"Ġaffected":11096,"Ġdestroyed":11097,"Ø§ÙĦØ¨Ø§":11098,"Ġprove":11099,"Philip":11100,"Ùł":11101,"ĠØ§Ø°":11102,"ĠÙĨØ±Ø³":11103,"ÙģØ±Ùĩ":11104,"ĠKe":11105,"Ġseek":11106,"ĠØ§Ø³Ø§Ø³Ø§":11107,"Ġestablish":11108,"Ġextraordinary":11109,"Sp":11110,"Ġing":11111,"Ġcod":11112,"Ù¾ÙĨ":11113,"ÚĺÛĮÙħ":11114,"ĠØ¨ÙĨÚ¯":11115,"ivered":11116,"place":11117,"ipment":11118,"Ġsetting":11119,"ĠØªØ¬Ø±Ø¨ÛĮ":11120,"ĠØ³Ø§ÙħØ§ÙĨÙĩ":11121,"ĠJews":11122,"Ø®Ø¨Ø±":11123,"ĠØŃØ³Ø§Ø³":11124,"ĠØ·Ø±Ø§ØŃ":11125,"Ġbusy":11126,"ĠØ³Ù¾Ø±ÛĮ":11127,"Ġtechnologies":11128,"Ġexchange":11129,"Û²Û°Û°Û":11130,"ÙĩØ¯Ùģ":11131,"Ġben":11132,"ĠØ³Ø§ÙĦØ§ÙĨÙĩ":11133,"apter":11134,"iform":11135,"ĠØªØ§Ø²Ú¯ÛĮ":11136,"Ø§Ø¨ÙĦÙĩ":11137,"Ú¯Ø±ÙħÛĮ":11138,"ĠØ¨ÙĨØ§Ùħ":11139,"Ġpassage":11140,"ĠSea":11141,"ĠÙħØ¬Ø§Ø²Ø§Øª":11142,"ĠÙĩÙħÛĮØ´Ú¯ÛĮ":11143,"SI":11144,"ÙĦÛĮÚ©ÙĨ":11145,"aks":11146,"Ġengaged":11147,"ĠÙģØ±ØµØªÛĮ":11148,"ĠÙħÙĨØŃØµØ±":11149,"ĠÙĨØ§Ø¯ÛĮØ¯Ùĩ":11150,"ĠØ¨ØµÙĪØ±Øª":11151,"ĠØ§Ø³ØªØ¹Ø¯Ø§Ø¯":11152,"Ġseized":11153,"ĠNob":11154,"ÙĪÙĦÛĮÚ©":11155,"ĠÙĪØ¶Ø¹ÛĮ":11156,"Ø¨Ø¨ÛĮÙĨ":11157,"ĠÙĨÙĪØ¬ÙĪØ§ÙĨ":11158,"Ġexamples":11159,"ĠGeorg":11160,"ĠÚ¯ÙĪØ¯":11161,"ĠÙģÙĨÛĮ":11162,"ĠTex":11163,"Ġanxious":11164,"Ġtail":11165,"Ø±Ø§Ø³ØªÛĮ":11166,"ĠÙħÙĨØ·ÙĤ":11167,"Ġdiagn":11168,"ĠØ¢ÙģØ±ÛĮÙĤØ§ÛĮÛĮ":11169,"da":11170,"ÙĤØ§ÛĮÙĤ":11171,"ydgate":11172,"ØªØ¹":11173,"Ø§ÛĮÙģ":11174,"ima":11175,"Ġwithd":11176,"ĠFound":11177,"ĠØŃØ³ÙĨ":11178,"liver":11179,"Ġcycle":11180,"Ġdefend":11181,"ĠØ§ÙĦÚ©ØªØ±ÙĪÙĨÛĮÚ©ÛĮ":11182,"ĠÅ":11183,"Ġreck":11184,"riff":11185,"Ġchain":11186,"ĠØ§Ø±Ø²Ø§ÙĨ":11187,"ĠVoices":11188,"ĠÙĨÙħÙĪØ¯ÙĨØ¯":11189,"Ġhurried":11190,"ĠØŃÙĪØ§Ø¯Ø«":11191,"Ġsongs":11192,"Ġdrugs":11193,"even":11194,"ĠØ´ÙĦ":11195,"Ġfancy":11196,"ĠØ¯Ø±Ú¯ÛĮØ±ÛĮ":11197,"ĠØ±Ø³ÛĮØ¯ÛĮÙħ":11198,"Ġstarts":11199,"Ġdecide":11200,"Ġnetworks":11201,"iat":11202,"ĠØ§ÙħØ±ÛĮÚ©":11203,"ÙĬØª":11204,"ĠØ¢Ø²ÙħÙĪÙĨ":11205,"ĠØ±ÙĪØ³ØªØ§":11206,"Ø¬Ø¯":11207,"ÙĪÙĨÚ¯":11208,"ÚĺØ§ÙĨØ³":11209,"avy":11210,"ĠÙħÛĮØ²Ø¨Ø§ÙĨ":11211,"Ġhumanity":11212,"Ġcharacters":11213,"Ġsinging":11214,"Ġhealthy":11215,"Ġbrothers":11216,"ĠØ§ÙĤØ¯Ø§ÙħØ§Øª":11217,"Ø´Ø¯Ùĩ":11218,"ĠØ¢ÙħØ¯Ùħ":11219,"ĠØ§Ø±Ø´Ø¯":11220,"ĠØ¯Ø§ÙĨØ´Ú©Ø¯Ùĩ":11221,"En":11222,"Ø¨ÙĨØ¯":11223,"ĠØ¨Ø§Ø²ÙĪÛĮ":11224,"ĠÛ±Û¶Û":11225,"ĠÙģÙĦØ³Ø·":11226,"ĠÛĮÙĩÙĪØ¯ÛĮØ§ÙĨ":11227,"ĠAcademy":11228,"Ġax":11229,"Ġwet":11230,"Ġcro":11231,"Ø§Ø³Ùħ":11232,"Ø§ÙĨØ¯ÙĨ":11233,"Ġmetal":11234,"ĠØ¯Ø³ØªÙĪØ±Ø§ÙĦØ¹ÙħÙĦ":11235,"ĠØ³Ø§Ø¨ÙĤÙĩ":11236,"ĠQuix":11237,"ĠÚ¯Ø´ØªÙĩ":11238,"ĠØ¬Ø³Ùħ":11239,"ĠØµÙħÛĮÙħ":11240,"ĠØºØ§ÙĦØ¨Ø§":11241,"Ġblow":11242,"ĠØ±ÙĩØ¨Ø±Ø§ÙĨ":11243,"Ġadvance":11244,"Ġstructures":11245,"Ġembarrass":11246,"Ġestimated":11247,"arl":11248,"Ġeffic":11249,"Ġneur":11250,"equ":11251,"ãģ":11252,"Ġtum":11253,"Ġtort":11254,"ĠØ¬Ø±Ø§ØŃÛĮ":11255,"ĠÚĨØ§Ø¯Ø±":11256,"ÛĮØ§ÙģØª":11257,"ØªØµÙĪØ±":11258,"ÙĴ":11259,"ĠÚ©Ø§Ø±Ùĩ":11260,"Ø¯ÛĮÚ©":11261,"Ø§ØŃÛĮ":11262,"Ġbless":11263,"Ġworldwide":11264,"ĠØ¢Ø´ÙĨØ§ÛĮÛĮ":11265,"Ġwaves":11266,"Ġconclud":11267,"Ġmyster":11268,"Ø³Ø§Ø¹Øª":11269,"Ġfigures":11270,"Ġrecorded":11271,"Ġsympt":11272,"Ag":11273,"Ù¾Ø´Øª":11274,"oma":11275,"ultural":11276,"ĠArk":11277,"ĠTurkey":11278,"ĠØ¸Ø±ÙģÛĮØª":11279,"sey":11280,"ĠØ±ÙĪØª":11281,"ĠÚ©ÙĪÚĨÙĪÙĦÙĪ":11282,"Ġsets":11283,"ttp":11284,"ĠØ¯ÙħÙĪÚ©Ø±Ø§Ø³ÛĮ":11285,"onic":11286,"Ġcrazy":11287,"ĠØ¨Ø±Ø§ÛĮØ´Ø§ÙĨ":11288,"ĠØ¹ÙħØ¯ØªØ§":11289,"ĠØªØ¬ÙĩÛĮØ²Ø§Øª":11290,"ĠQuixote":11291,"AD":11292,"Would":11293,"inent":11294,"isp":11295,"ĠÙĨÙħØ§ÙĨØ¯Ùĩ":11296,"Ġfond":11297,"arge":11298,"ĠAre":11299,"ĠMen":11300,"Ġswim":11301,"ĠÙģØ±Ø§ÙĪØ§ÙĨÛĮ":11302,"Ġforever":11303,"ĠØŃÙħÙĦØ§Øª":11304,"ĠÚ©Ø§ÙħÙ¾ÛĮÙĪØªØ±ÛĮ":11305,"Ø§Ø·Ø¹":11306,"ĠØ§Ø¶Ø§ÙģÛĮ":11307,"iency":11308,"ÙħÙĨØ¸ÙĪØ±Ùħ":11309,"nic":11310,"Ġfet":11311,"Ġpushed":11312,"ila":11313,"ĠLake":11314,"adian":11315,"ĠØ²ÙĨØ´":11316,"Ġstrate":11317,"Ġreplaced":11318,"Us":11319,"ĠÙħØ¬Ø§":11320,"ĠØ±ÙģÛĮÙĤ":11321,"ĠÙĨØµÛĮ":11322,"ĠØ¬Ú©":11323,"ĠBor":11324,"Ġpurch":11325,"ĠÙģÙĦØ²":11326,"Ġbasically":11327,"Ġstrategy":11328,"ÙĦØª":11329,"ican":11330,"ĠÚ©ÙĨÙĪÙĨÛĮ":11331,"acks":11332,"Ġtreated":11333,"ĠØ§Ø³Ø¨Ø§Ø¨":11334,"ĠKorea":11335,"erves":11336,"ĠØ³Ø±ÙħØ§":11337,"ellect":11338,"aved":11339,"ĠÙħØ¯ÙĨÛĮ":11340,"ĠØ¨ÙģØ±Ø³Øª":11341,"some":11342,"Ġtal":11343,"Ġgather":11344,"ĠCap":11345,"ivodes":11346,"ĠÚ©Ø´ÙĪØ±ÛĮ":11347,"ĠÙĤØ·Ø¹Ø§":11348,"ĠØ¯ÙħØ§ÛĮ":11349,"ĠÙĤÙĦØ¨Ø´":11350,"ĠÙĨÙĪØ´ÛĮØ¯":11351,"ivodeship":11352,"ĠØ¯Ú©":11353,"Ø±ÛĮØ²":11354,"ĠBay":11355,"ĠBig":11356,"ĠØ±ÙģØªØ§Ø±ÛĮ":11357,"ĠÚ¯ÛĮØ±Ùħ":11358,"ØªØ±ÙĪ":11359,"ĠAv":11360,"Ġfrag":11361,"Ġhorri":11362,"Ġsupported":11363,"ĠÙħØ¹ÙĨØ§":11364,"Ġuncom":11365,"ĠØªÙĪØ§ÙĨØ³ØªÛĮÙħ":11366,"Ġnumerous":11367,"Ġadditional":11368,"Ġequival":11369,"Ġfaint":11370,"ÙħØ§ÙĤ":11371,"ĠØ³ÙĨÚ¯ÛĮÙĨÛĮ":11372,"ĠØ¬ÛĮØº":11373,"ĠService":11374,"Ø§ØªÙĪÙĨ":11375,"ĠÙħØ¹Ø§ÙħÙĦÙĩ":11376,"ĠÙ¾Ø±ØªÙĪ":11377,"ĠØ¢ÙĪØ±Ø¯Ùħ":11378,"Ø§ÙĨÚ¯ÛĮØ²":11379,"ĠØ§Ú©Ø³ÛĮØ¯":11380,"ĠÙħÚ©Ø²ÛĮÚ©":11381,"only":11382,"Ġwheel":11383,"Ġsaved":11384,"pective":11385,"ĠØ¢Ø³Ø§ÙĨÛĮ":11386,"Ġ1950":11387,"ĠÚ©ÙĪØ´Ø´":11388,"ĠØ¯Ø§ÙĨØ´Ø¬ÙĪÛĮØ§ÙĨ":11389,"ĠÚ©Ø«ÛĮÙģ":11390,"Ø¯Ø§Ø³ØªØ§ÙĨ":11391,"ĠØ±ØŃÙħ":11392,"Ġlat":11393,"otion":11394,"Ġexhib":11395,"Ġclosely":11396,"ÙĦØŃØ¸Ùĩ":11397,"Ġcandid":11398,"CC":11399,"chief":11400,"ÚĺØ§ÙĨ":11401,"ĠÙĪØ±ÙĤ":11402,"ĠÛ²Û°Û°Û²":11403,"Ġ1995":11404,"Ġdevil":11405,"ĠØªÙĤØ§Ø¶Ø§ÛĮ":11406,"ĠØŃØ¯Ø§Ú©Ø«Ø±":11407,"ĠCup":11408,"Ġservant":11409,"ĠBrown":11410,"Ġauthority":11411,"ĠÙħÙħÙĨÙĪØ¹":11412,"ĠØ¨ØºÙĦ":11413,"isher":11414,"ĠFace":11415,"mbly":11416,"ĠØ¨Ø·Ø±ÛĮ":11417,"Ø®ÙĪØ±":11418,"Ø§ÙħÙ¾":11419,"imp":11420,"ĠProject":11421,"ĠSecurity":11422,"Ø±ÙĪÛĮÛĮ":11423,"ĠÚĨØ§Ø±Ùĩ":11424,"ĠØ®ÙĪØ¯Ú©Ø§Ø±":11425,"Ġunits":11426,"ĠÛ²Û°Û°Û±":11427,"Ġmagazine":11428,"Ġdisappeared":11429,"case":11430,"ĠØ¨Ø®ÙĪØ±Ø¯":11431,"ĠØ¨ÙĩØ§ÙĨÙĩ":11432,"ĠØ³Ú©Ùĩ":11433,"Ø¬ÛĮØ¨":11434,"ĠØªÙģØ³ÛĮØ±":11435,"ĠØªÙĦÙĤÛĮ":11436,"ĠÙĨØ§Ù¾ÙĦØ¦ÙĪÙĨ":11437,"ÙĤØ¯":11438,"ĠÛĮØ§Ø²Ø¯Ùĩ":11439,"Ġeating":11440,"ĠÚ©ÙĨÙģØ±Ø§ÙĨØ³":11441,"ĠJournal":11442,"ĠØ±ÙĪØŃØ§ÙĨÛĮ":11443,"Ġmotor":11444,"zing":11445,"inging":11446,"ota":11447,"ette":11448,"ĠSur":11449,"ĠCP":11450,"Ø´ÛĮÙĨØ¯":11451,"soft":11452,"Ġ186":11453,"Ġtraffic":11454,"Ġjudge":11455,"ĠSunday":11456,"ĠØ¨ÛĮØ²":11457,"ĠOfficial":11458,"Ġfever":11459,"ĠÚ¯Ø±Ø¯ÙĨØ¯":11460,"ĠÙ¾ÙĨØ¬Ùħ":11461,"Ġhurry":11462,"Ġcrossed":11463,"ĠVoivodeship":11464,"Bes":11465,"Ġwww":11466,"ĠØ²Ø§Ø±":11467,"Ġrum":11468,"Ġcurious":11469,"ĠWeb":11470,"ampionship":11471,"Ġcig":11472,"ÙĪÛĮØ§":11473,"ĠØ¨Ø¯ÙĦ":11474,"ĠØ¸Ø±ÛĮÙģ":11475,"ĠÙħÙĨØ¸Ùħ":11476,"ĠPersian":11477,"OL":11478,"atre":11479,"ĠØ¨ÙĩÙħ":11480,"ÚĨØ´ÙħØ§ÙĨ":11481,"ĠÙħÙĤØ§Ø¨ÙĦÙĩ":11482,"Ġaffairs":11483,"Ġchalleng":11484,"ÙĪÙĤÛĮ":11485,"ĠMic":11486,"akh":11487,"osette":11488,"ĠØ®Ø§ÙĨÚ¯ÛĮ":11489,"Ġillness":11490,"Ġmedicine":11491,"ĠØ±Ø³ØªÙĪØ±Ø§ÙĨ":11492,"Ġpowers":11493,"ĠÚ¯Ø§ÙĦ":11494,"ĠØ¨Ø±ÙĪÛĮ":11495,"ĠØ§ÛĮÙĢÙĨ":11496,"ĠØ³Ø§Ø²ÙĨØ¯":11497,"ĠØ´Ú©Ùħ":11498,"Ġacad":11499,"Ġhonour":11500,"Ġcow":11501,"Ø¯Ø±Ø¨Ø§Ø±Ùĩ":11502,"ĠØ±ÙĪÛĮÙħ":11503,"Ġsoil":11504,"Ġ1997":11505,"Ġsigns":11506,"ĠEmperor":11507,"ĠÙħØ±Ø§ÙĤØ¨":11508,"Ð¾Ð":11509,"Ú¯ÙħØ§ÙĨ":11510,"Ġminds":11511,"Ġarrested":11512,"ĠØŃØ¬Ùħ":11513,"Ġregret":11514,"ĠCarl":11515,"Ġmissing":11516,"yet":11517,"ÚĨØ§Ø±Ø¯":11518,"urance":11519,"ĠSum":11520,"ÙĩØ§Ø´":11521,"ĠÙħØ§ÙĦÛĮØ§Øª":11522,"Ġdespair":11523,"Ġfasc":11524,"igr":11525,"ĠÚ¯Ø±ÙģØªÛĮÙħ":11526,"ĠÚ¯Ø°Ø§Ø´ØªÙħ":11527,"Ġdecre":11528,"Ġinvited":11529,"ĠMexico":11530,"othea":11531,"vis":11532,"Ø§ÙĩØ§ÛĮØ´":11533,"ĠOld":11534,"ĠØ¨Ø®Ø§Ø±":11535,"Ú©Ø§ÙĨØ³":11536,"ĠØ¢ÙĪØ±Ùħ":11537,"ĠClub":11538,"Ġhistorical":11539,"tical":11540,"ĠØ§ÛĮÙĨØ¬Ø§Ø³Øª":11541,"Ġwel":11542,"ĠRights":11543,"ĠØ¯ÙĪØ³ØªØ§ÙĨÙĩ":11544,"Ø§Ø´ÛĮÙĩ":11545,"ĠØ¢ÙģØ±ÛĮÙĤØ§ÛĮ":11546,"Ġelder":11547,"part":11548,"ĠØ¨ÙĪØ¯ÛĮØ¯":11549,"thur":11550,"Ġkm":11551,"osa":11552,"Ġdozen":11553,"ĠØ§ÙĦÙħÙ¾":11554,"ĠÙĨÛĮÙħÚ©Øª":11555,"Ġprofound":11556,"Ġburied":11557,"ĠÙħØ¨ÙĩÙħ":11558,"Ġinstitutions":11559,"ĠØ¯Ø´Øª":11560,"ØŃØ§Øª":11561,"amma":11562,"ĠGood":11563,"log":11564,"ĠØ§Ø±ÙħÙĨØ³ØªØ§ÙĨ":11565,"ĠÛĮØ§ÙģØªÙĨØ¯":11566,"Ġcurt":11567,"Ġreduced":11568,"Ġmistake":11569,"BM":11570,"ĠØ¨Ø¬Ø§ÛĮ":11571,"ĠÚ©Ø§Ø³":11572,"Ġupper":11573,"Ġconver":11574,"ĠÙ¾ÛĮØªØ±":11575,"Ġmanage":11576,"Ø§Ø±ØªÙħØ§ÙĨ":11577,"ĠGovernment":11578,"24":11579,"sky":11580,"Ġmurd":11581,"Ġinhab":11582,"ĠÙ¾ÙĪØ±Øª":11583,"Ġintention":11584,"udge":11585,"ĠÚĨÙĨØ§ÙĨÚ©Ùĩ":11586,"Ġmountains":11587,"ĠPalest":11588,"ĠTexas":11589,"³Û°":11590,"ĠÙĨØ§ÙĤ":11591,"ĠØ²Ø§ÙĨ":11592,"ĠCD":11593,"ÙĢÙħ":11594,"Ġdecades":11595,"culiar":11596,"ĠÙĨÛĮØ§":11597,"ĠØ¨Ø¯ÛĮÙħ":11598,"ĠØ¨Ø¯ÙĨØ´":11599,"Ġscri":11600,"Ġembr":11601,"Ġinstinct":11602,"ĠÙħØºØ²ÛĮ":11603,"asked":11604,"ĠØ¯Ø§ÙĪØ·":11605,"33":11606,"from":11607,"Ġlit":11608,"ĠElect":11609,"ĠÛĮØ§Ø¯Ùħ":11610,"ĠØ´ÙĩØ±Ø¯":11611,"ĠØ¨Ø®Ø´ÛĮØ¯":11612,"ographic":11613,"Ġhorror":11614,"Ġsequence":11615,"Ġgar":11616,"ĠÙģØ§":11617,"ĠÙĦÙħØ³":11618,"ĠÙĤÙĦÙħØ±ÙĪ":11619,"ĠØ¬Ø¨Ùĩ":11620,"ĠCivil":11621,"Ġfundamental":11622,"CP":11623,"Ø§Ø¯ÙħÛĮ":11624,"Ø¬ÙĪØ±":11625,"Ø¯ÙĩÛĮ":11626,"ĠØ§Ø¬Ø±Ø§ÛĮÛĮ":11627,"Ø°ÛĮØ±Ø¯":11628,"ĠØªØµØ§Ø¯Ùģ":11629,"Ġmic":11630,"Ġgay":11631,"ĠÚ©ÙĨØ¯Ùĩ":11632,"ĠÛ²Û°Û°":11633,"Ġcrying":11634,"Ġviolent":11635,"Ġrepresented":11636,"oration":11637,"ĠSar":11638,"ÙĪÙĦÛĮØ¯":11639,"Ġproved":11640,"bey":11641,"Ġ500":11642,"ĠÙĨØ¯Ø§Ø±ÛĮØ¯":11643,"ĠÚĺÙĨØªÛĮÚ©ÛĮ":11644,"ĠØ§Ú©Ø«":11645,"ĠØ§Ø³ØªÙĤØ¨Ø§ÙĦ":11646,"upp":11647,"ÛĮÙĨØ²":11648,"ĠÙĤØ¨Ø±":11649,"Ġstorm":11650,"gend":11651,"ĠØ§Ø±ÙħÙĨÛĮ":11652,"ĠÙħØ±Ø§ØŃÙĦ":11653,"ĠØ¬Ø³Ø¯":11654,"Ġprinciple":11655,"ĠArmenia":11656,"ĠÙĨÙĪØ²Ø§Ø¯":11657,"ĠØ³Ø±ØªØ§Ø³Ø±":11658,"ÙħØ§Øª":11659,"Ø³ØªÛĮÚ©":11660,"ĠØ¢Ø¯Ø±Ø³":11661,"Ġye":11662,"ĠPublic":11663,"ĠLet":11664,"Ġcomposed":11665,"Ġcoach":11666,"ĠÙĨÙģØ¹":11667,"ĠØ´ÙģØ§Ùģ":11668,"Ġrevealed":11669,"Ġfaced":11670,"Ġdign":11671,"Ġunhapp":11672,"ĠØ¬Ø²Ø§ÛĮØ±":11673,"Ġstandards":11674,"ĠÙ¾Ø§Ú©Ø³ØªØ§ÙĨ":11675,"Ġreference":11676,"ĠØ¨Ø§Ø²Ø¯Ø§Ø´Øª":11677,"ostov":11678,"Ġpeculiar":11679,"force":11680,"Ġthrown":11681,"ĠØŃÚ©Ø§ÛĮØª":11682,"ĠÙħÛĮØ®ÙĪØ§Ùĩ":11683,"ĠÙĦÙĨ":11684,"ĠØ¯ÛĮÙĪØ§ÙĨ":11685,"udden":11686,"ĠØ²ÙĨØ¯Ú¯":11687,"ĠÙĪØ§ÙĤØ¹Ùĩ":11688,"ĠÙĨÙħÙĪØ¯Ø§Ø±":11689,"ĠØ¨Ú¯Ø°Ø§Ø±Ùħ":11690,"ĠÚ¯Ø°Ø§Ø±ÙĨØ¯":11691,"Ġdamage":11692,"ĠÙĨØ¸Ùħ":11693,"ĠVict":11694,"ĠÙ¾Ø°ÛĮØ±Ø´":11695,"Ġequipment":11696,"Ġstranger":11697,"ĠØ¢ÙħÛĮØ®ØªÙĩ":11698,"Ġphenomen":11699,"ØªØ§Ø²Ùĩ":11700,"Ġded":11701,"Ġsection":11702,"Ġremaining":11703,"ĠÙ¾Ø±Ø³ÛĮØ¯Ùħ":11704,"Ġshoes":11705,"ĠNapoleon":11706,"Ġimpl":11707,"Ġ35":11708,"Ġdecisions":11709,"ĠLeague":11710,"Ġetc":11711,"Ø§ÙħÛĮØ¯ÙĪØ§Ø±":11712,"ÙĨÛĮÙħ":11713,"Ø´Ø§Ø±":11714,"Ġpill":11715,"umph":11716,"Ø§Ø³Ø§Ø³":11717,"orders":11718,"Ù¾Ø±Ø¯":11719,"Ġnations":11720,"ØµØª":11721,"Ġstring":11722,"ĠØ³ÙģØ§Ø±Ø´":11723,"nie":11724,"ĠÙħÙĪØ§Ø¸":11725,"Ø¢Ø¯Ùħ":11726,"ĠTor":11727,"lessly":11728,"Ġcontrary":11729,"Ġfrequently":11730,"ronsky":11731,"²Û°":11732,"ĠÚ©ÙĪÙĦ":11733,"ĠØ±ÚĺÛĮÙħ":11734,"Ġpressed":11735,"ĠØ²Ø¨":11736,"agrid":11737,"Ø¢ÙĨØ§":11738,"ĠÚ©ÙĪÚĨÚ©ØªØ±":11739,"Ġbiggest":11740,"ĠEmma":11741,"ĠØªØ®ØªØ®ÙĪØ§Ø¨":11742,"cop":11743,"ĠØ¨Ø§Ø±Ø¯":11744,"ÙĦÚ©ÙĨ":11745,"Ø³Ø§ÛĮØª":11746,"ĠØ¬Ø±ÛĮ":11747,"ĠÙĦØ´":11748,"Ø«Ùĩ":11749,"ĠØ§ÙĦØªØŃ":11750,"ĠOK":11751,"ĠÚ©ÙĦÛĮØ¯ÛĮ":11752,"Ġresistance":11753,"ĠInformation":11754,"ĠÚ¯Ø°Ø§Ø´ØªÙĨ":11755,"Ġclasses":11756,"ĠCommittee":11757,"ĠØ¯ÛĮØ±ÙĪØ²":11758,"Br":11759,"ĠØ®Ø±Ø§":11760,"ĠØ¬Ø§Ø³":11761,"ĠLove":11762,"ĠPeople":11763,"Ġcamera":11764,"Ġweapons":11765,"ĠÙĩØ´Ø¯Ø§Ø±":11766,"vard":11767,"athered":11768,"Ġwhale":11769,"ĠÚ¯ÙĪÚ¯ÙĦ":11770,"Ġtrial":11771,"ĠØ¨Ø¨ÙĨØ¯":11772,"ĠØ±ÛĮØ§Ø¶ÛĮØ§Øª":11773,"ĠÙ¾ÙĩÙĦÙĪØ§ÙĨ":11774,"Ġadopted":11775,"Ġtiss":11776,"Ġsought":11777,"ĠØ³Ø¯Ùĩ":11778,"Ġque":11779,"ĠØ¨Ø¹Ø¯Ø§Ø²":11780,"Ġwrit":11781,"ĠÙ¾Ø§Ù¾":11782,"Ġdelay":11783,"essel":11784,"ĠØ¯Ø§Ø±Ø§ÛĮÛĮ":11785,"Ø®ØªÙĨ":11786,"ĠØ§ÙĦÚ©Øª":11787,"ĠOpen":11788,"Ġoccurs":11789,"ĠØ¯Ø±Ø¢ÙħØ¯Ùĩ":11790,"Ø®Ø¯ÙħØª":11791,"ĠØ¬ØºØ±Ø§ÙģÛĮ":11792,"Ġbeings":11793,"iders":11794,"ĠØ¹Ø¨Ø¯":11795,"ĠØ±Ø§ÙĩØ±ÙĪ":11796,"ĠÚ©Ø´ÛĮØ¯Ùħ":11797,"ĠØ®ÙĦÛĮØ¬":11798,"Ġpil":11799,"Ġdynam":11800,"ÛĮØ¯Ø§ÙĨ":11801,"lets":11802,"ĠØ¬Ø§Ø¨":11803,"Ġstress":11804,"ĠÚ¯Ø±ÙħØ§":11805,"ĠØ²ÛĮØ³ØªÛĮ":11806,"ĠÛ²Û·":11807,"Ġpossibility":11808,"ĠÛ²Û°Û±Û¶":11809,"ĠØ±Ø§Ø³ØªØ´":11810,"ĠÙĩØ±Ø§Ø³":11811,"ĠØ®Ø±Ø¯Ùĩ":11812,"ĠØ³ÙĦÙĪ":11813,"ĠØ¯Ø§Ø³ØªØ§ÙĨÛĮ":11814,"TS":11815,"mal":11816,"ania":11817,"ĠØ®Ø§ÙĪØ±":11818,"ĠØ§ÙģØ±Ø§":11819,"Ġmorrow":11820,"cried":11821,"sm":11822,"Ġarmed":11823,"Ġpersons":11824,"Ġaffair":11825,"Ġborder":11826,"oting":11827,"Ġconvent":11828,"Ġ31":11829,"Ġproperties":11830,"ado":11831,"ĠÙĩÙħØ±Ø§ÙĩÛĮ":11832,"ĠÛĮÚ©Ø³":11833,"ĠDervish":11834,"ĠEst":11835,"ĠWood":11836,"ĠÙĤØ±Ø¶":11837,"Ġdistant":11838,"ĠÙģÙĩÙħÙħ":11839,"Ġexperienced":11840,"Ø¯ÙĪØ´ÛĮØ²Ùĩ":11841,");":11842,"BA":11843,"Ø³Ø¹ÛĮ":11844,"Ø³Ú©ÙĪ":11845,"Ġmood":11846,"Ø§Ø¯ÛĮØ±":11847,"ĠÚ¯ÙĦÛĮ":11848,"Ġgest":11849,"ØµØ¨ØŃ":11850,"Ġplayers":11851,"Ġgovernments":11852,"ĠØ³ÙĪÙħÛĮÙĨ":11853,"Ġfavorite":11854,"Ġbenefit":11855,"ĠØ§ÙĨÙģØ¬Ø§Ø±":11856,"rete":11857,"Ø§Ø±Ø³ØªØ§ÙĨ":11858,"ØŃØ¯":11859,"amie":11860,"Ġanyway":11861,"ĠØ¨ÙĨÙĪÛĮØ³":11862,"ĠSyria":11863,"ĠÙĦØ±Ø²Ùĩ":11864,"IM":11865,"ÙĪÚĨ":11866,"ato":11867,"Ø§Ø±Ø¯ÛĮ":11868,"Ġdomestic":11869,"Up":11870,"ÙĩØ§Ùħ":11871,"ĠÙħØ¯Ø§Ùħ":11872,"ĠChicago":11873,"Ġbegins":11874,"Ġpreviously":11875,"Ġinstructions":11876,"mother":11877,"ĠÙĨÚ¯Ø°":11878,"ĠØ´ÛĮÚ©":11879,"Ġlunch":11880,"Ø±ÛĮØ³":11881,"ĠÙĤØ·Ø¹Ø§Øª":11882,"Ġ1992":11883,"stitution":11884,"ĠCastile":11885,"Ġwestern":11886,"seless":11887,"ĠÙħØ³Ø§ÙĦÙĩ":11888,"Ġexpensive":11889,"ĠØ®ÙĦØ§Øµ":11890,"uilding":11891,"Was":11892,"iated":11893,"ĠÚ©Ø±ÙĪ":11894,"Ġcateg":11895,"stone":11896,"ĠIr":11897,"ĠRel":11898,"ĠWork":11899,"ĠØŃØ§ÙĦØ´":11900,"ĠÙħØ§ÙĨØ¯ÙĨ":11901,"ĠØ¨Ø±Ø®ÙĦØ§Ùģ":11902,"Ġà¤":11903,"ĠØ§ÙĦÙħÙ¾ÛĮÚ©":11904,"ĠØ§ÙĨÚ¯ÙĦÛĮØ³":11905,"Ġentrance":11906,"ĠØªØŃØµÛĮÙĦØ§Øª":11907,"Ġepis":11908,"23":11909,"ĠØ¢ÛĮÙĨÙĩ":11910,"Ġpounds":11911,"alu":11912,"Ø§ÙħØ±ÙĪØ²Ùĩ":11913,"ĠØ¬Ø§Ø³Øª":11914,"Ġroll":11915,"ildren":11916,"Fin":11917,"cont":11918,"Ġbrill":11919,"ĠPan":11920,"ÚĨÙĩØ§Ø±":11921,"Ġcompetition":11922,"iosity":11923,"45":11924,"ĠØ¨Ø±ÛĮØ¯":11925,"riet":11926,"ĠÙ¾Ø§ÛĮØªØ®Øª":11927,"ĠÙħØ§ÙĩÙĪØ§Ø±Ùĩ":11928,"cycl":11929,"Ġplanning":11930,"ĠØ§Ø¨ØªØ¯Ø§ÛĮÛĮ":11931,"Ġrelatively":11932,"Ø§ÙĩÙĪ":11933,"Ġimpat":11934,"Ġsubs":11935,"Ø¨ÙĨØ§ÛĮ":11936,"ĠâĻª":11937,"Ġcircu":11938,"Ġliterature":11939,"Tell":11940,"ĠØ§ÙĦØ§":11941,"Ġdial":11942,"ÚĨÙĩØ±Ùĩ":11943,"Ġgain":11944,"throp":11945,"ĠÚ©Ø§Ø±Ú©ÙĨØ§ÙĨ":11946,"ĠÚ¯ÙĪØ¦ÛĮ":11947,"ĠÙħÙĨØ¸ÙĪØ±Ùħ":11948,"ØªÛĮÙĨ":11949,"ĠÙħØŃØªØ±":11950,"ĠØ´ÙħØ¹":11951,"Ġgenetic":11952,"ĠÙĨÛĮØ§ÙħØ¯Ùĩ":11953,"ĠÙħØªÙĤØ§Ø¹Ø¯":11954,"olit":11955,"ĠØ¨ÛĮÚ¯Ø§ÙĨÙĩ":11956,"ĠBa":11957,"ĠJes":11958,"Ġstatement":11959,"Ġfavour":11960,"ĠØªØ¯Ø±ÛĮØ¬":11961,"Mad":11962,"ĠÙĩÙĦÙĨØ¯":11963,"ĠLady":11964,"ĠØ¯Ø¨ÛĮØ±Ø³ØªØ§ÙĨ":11965,"ĠÙħÚ¯ÛĮ":11966,"ĠØ¨ÙĩØ§Ø±":11967,"ĠØ³Ø¯":11968,"Ġyield":11969,"Ø¯ÛĮÙĤ":11970,"Ġrode":11971,"Ġ45":11972,"ĠØ¨Ú©ÙĨÛĮØ¯":11973,"Ġrecords":11974,"Ġfifteen":11975,"Ġmathematics":11976,"uddenly":11977,"ĠØ¨Ø§Ø²ÙĨØ´":11978,"ĠÙħÙĦØ§ÛĮÙħ":11979,"ĠØªÚ©ÙħÛĮÙĦ":11980,"ĠÙħØ±ÛĮØ¶":11981,"ĠØ¯ÙĪØ±ÛĮ":11982,"Ø¹Ø§Ø±":11983,"ĠPot":11984,"ĠVir":11985,"Ġbringing":11986,"ĠBritain":11987,"ĠÙħØ§ÛĮØ¹":11988,"ĠCharl":11989,"Ġdawn":11990,"´Û°":11991,"ÙĦÙĨØ¯ÛĮ":11992,"ĠØ¨ÙĩÛĮÙĨÙĩ":11993,"Ø§ÙħØ§ÙĨ":11994,"Ġconcl":11995,"Ø¨Ø§ØŃ":11996,"ĠØ¨Ø²ÙĨÙĨØ¯":11997,"ĠØºÙĦØ·":11998,"Ġwhisper":11999,"nikov":12000,"ĠØŃØ§Ø´ÛĮÙĩ":12001,"iveness":12002,"Ġcompos":12003,"Ø¢ÙĨØ¬Ø§":12004,"ĠØ§ÙģØªØ§Ø¯ÙĨØ¯":12005,"Ġmulti":12006,"ĠSweden":12007,"Te":12008,"ÙĪÚ¯Ø±":12009,"Ġhal":12010,"ĠÙĨØ´Ø§ÙĨÛĮ":12011,"ĠÙĨÙĪÛĮØ³Ø¯":12012,"ĠØ¨Ø§ÙĩÙĪØ´":12013,"ooth":12014,"ĠÚ©ÙĨÙĪÙĨ":12015,"ĠSing":12016,"ĠMicro":12017,"ĠCons":12018,"ĠÙħØ¹Ø¬":12019,"Ġseriously":12020,"ĠÛ²Û¸":12021,"Ġcenturies":12022,"ÙĨØ®Ø³ØªÛĮÙĨ":12023,"hi":12024,"Ġrom":12025,"ĠØ§Ú©Ø³ÛĮ":12026,"Ġfuel":12027,"Ġlic":12028,"Ġsomewhat":12029,"ĠÙħØ§Ø¯Ø±Ø¨Ø²Ø±Ú¯":12030,"Ġtechniques":12031,"ĠWho":12032,"Ġjobs":12033,"Ġfought":12034,"ĠÙħÙĪØ´Ú©":12035,"ĠØ¹ÙħØ§Ø±Øª":12036,"Ġbrand":12037,"Ġguys":12038,"ĠNews":12039,"ĠTracy":12040,"ÙģØµÙĦ":12041,"ÙĤÙĦØ¨":12042,"ĠØ¨Ø±Ø¯Ùħ":12043,"ĠØ´Ø¨Ø§ÙĨÙĩ":12044,"Ġservants":12045,"ammad":12046,"ĠElizabeth":12047,"ÙĪØ§Ø³":12048,"ØªÙĪÙĨÛĮ":12049,"ÙĪØ¯ÙĪØ±":12050,"Ġmobile":12051,"ĠØ¨ÙĨØ´ÛĮÙĨ":12052,"Ġchildhood":12053,"ĠØ±ÛĮØ³Ú©":12054,"ĠØ¢Ø´ÙģØªÙĩ":12055,"ipping":12056,"21":12057,"Ø³ÙħÛĮ":12058,"Ù¾ÙĪÙĦ":12059,"sect":12060,"ĠÙĦÚ©Ùĩ":12061,"Ġagric":12062,"ĠØ¬Ø¯Ø§Ú¯Ø§ÙĨÙĩ":12063,"Ġsoftly":12064,"ĠArmenian":12065,"Ġquantum":12066,"About":12067,"Ø²Ø¨Ø§ÙĨ":12068,"ĠØ·Ø±":12069,"Ġmeat":12070,"Ġride":12071,"raham":12072,"Three":12073,"ĠÙĨØ´Ø§Ø·":12074,"Ġuncertain":12075,"ĠØ´ÙĦÙĪØ§Ø±":12076,"ĠØ¯ÛĮÙħÛĮØªØ±ÛĮ":12077,"Ġbond":12078,"asp":12079,"Ġfoc":12080,"ĠØ¯ÙĨØ¨Ø§ÙĦØ´":12081,"Ġelected":12082,"Ġdriven":12083,"ĠSuper":12084,"ĠØ¨Ø§Ø²ÙħÛĮ":12085,"ĠÙħØ±ÙĪØ±":12086,"Ġrelationships":12087,"Ġurban":12088,"Later":12089,"water":12090,"Ø§ÙģØ±":12091,"eling":12092,"Ġjump":12093,"Ġpron":12094,"ĠØ§Ø¯Ø¹":12095,"ĠÙħÙĪØ¶ÙĪØ¹ÛĮ":12096,"Ġfruit":12097,"Dr":12098,"Ġsatell":12099,"lend":12100,"ĠØ²ÛĮÙĨ":12101,"ensions":12102,"Ġconserv":12103,"Ġargument":12104,"ĠØ¨ÛĮÙĩÙĪØ¯Ùĩ":12105,"ĠÙħØ±Ø§ØªØ¨":12106,"Ġsisters":12107,"Ġwounded":12108,"ĠØ§Ø³ØªØ¹":12109,"ĠÙģØ§Ø¬":12110,"ĠØ§ÙħØ±ÙĪØ²ÛĮ":12111,"ĠJim":12112,"Ġgrat":12113,"ĠÙħÙĨØ§ÙģØ¹":12114,"Ġflood":12115,"Take":12116,"Ø§ÙħÛĮÙĨ":12117,"Ġfeature":12118,"ĠØ¨Ø±Ú¯Ø´ØªÙĩ":12119,"Ġenvironmental":12120,"Ġcomfortable":12121,"ĠÙĪÛĮØ¯Ø¦":12122,"ĠØ®ÙĨÚ©":12123,"AF":12124,"ÙĨÙĦ":12125,"Ø¨ÙĩØªØ±":12126,"Ġvote":12127,"Ø¨Ø±Ø§Ø¯Ø±":12128,"Ġclin":12129,"ĠÙĨÙģØ±ÛĮ":12130,"Ġclever":12131,"Ġhandsome":12132,"CR":12133,"ÙħÙĪØ¯":12134,"ÚĨÚ¯ÙĪÙĨÙĩ":12135,"ĠÙĩÙħØ¬ÙĨØ³":12136,"Ġshel":12137,"Ġsail":12138,"Ġsorts":12139,"cules":12140,"Ġsoldier":12141,"ĠÚ©Ø¨":12142,"Ġow":12143,"ĠÛ±Û¹Û¶Û°":12144,"Ġconsists":12145,"Ġartists":12146,"Ġsolutions":12147,"ĠØ´ÙĪØ±Ø´":12148,"ĠØ§ÙĨØªÙĤØ§Ùħ":12149,"Ú©Ø§ØªØ±ÛĮÙĨ":12150,"ĠÙħØ³Ø§ÙģØ±Øª":12151,"ĠÚ©Ù¾ÛĮ":12152,"ĠÙĤØµÙĩ":12153,"Ġcomment":12154,"ĠNik":12155,"ĠØ´ÙĩØ±ÙĩØ§":12156,"Ġsatisfied":12157,"Ġ\"*":12158,"ĠÙħØŃÙĪØ±":12159,"ÙħØ¯Øª":12160,"Ġcolon":12161,"Ġrefers":12162,"ĠHealth":12163,"Ġtrip":12164,"Ġindependence":12165,"ĠÙ¾ÙĩÙĦÙĪÛĮ":12166,"ĠØ¬Ø§ÙĦØ¨ÛĮ":12167,"ÚĨØ³Ø¨":12168,"Ġsyn":12169,"Ġbigger":12170,"ĠØŃØ§Ú©Ùħ":12171,"jan":12172,"such":12173,"ĠÛĮØ§Ø±ÛĮ":12174,"ØºÙĦÛĮ":12175,"ĠØ¢ÙĤØ§ÛĮØ§ÙĨ":12176,"ĠØ¢ÙĪÛĮØ²Ø§ÙĨ":12177,"ĠJoseph":12178,"Americ":12179,"inem":12180,"inating":12181,"itement":12182,"Ġfant":12183,"arly":12184,"Ġpin":12185,"Ġexha":12186,"Ú¯Ø²ÛĮØ±":12187,"Ġsubsequ":12188,"Ġminor":12189,"Ġbehavi":12190,"Ġlod":12191,"opher":12192,"ĠÙħØ¬Ø§Ø²ÛĮ":12193,"ÙĨØ´ÛĮÙĨ":12194,"Ġbottle":12195,"ĠØ¢Ø³ØªØ§ÙĨÙĩ":12196,"ĠØ±Ú¯":12197,"rix":12198,"ĠØ±ÙĪÙħÛĮ":12199,"ĠEv":12200,"ĠÚ¯Ø±ÚĨÙĩ":12201,"Ġglanced":12202,"Ġedition":12203,"Ġmarked":12204,"Ġprobability":12205,"ishes":12206,"ĠØ¨Ø±Ø§ÛĮØªØ§ÙĨ":12207,"Ġrates":12208,"ĠÙĨÙĪØ¨Øª":12209,"ĠØ®ÙĪØ´Ø¨Ø®ØªÛĮ":12210,"Ġ188":12211,"ØªÙĨØ§Ø¨":12212,"Ġrestrict":12213,"Ġstronger":12214,"ÙĨÙĪÙĨ":12215,"ĠØªÙĨØ¯ÛĮ":12216,"Ġyard":12217,"ĠØ¹Ø·":12218,"ĠÙħØ¬Ø³Ùħ":12219,"ĠØ§Ø¯Ø¨":12220,"ĠØ®ÛĮØ³":12221,"ĠØªÙĦØ®":12222,"ĠMarius":12223,"Ġdetermine":12224,"Ge":12225,"ĠÚ©Ø±Ø§Ùģ":12226,"cel":12227,"Ġemph":12228,"ĠÙ¾ÛĮØ±ÙĪØ²":12229,"Ú¯Ø±Ø¯Ø§ÙĨÛĮ":12230,"ĠSecret":12231,"Bl":12232,"Ûµ":12233,"Ġvessel":12234,"Ġintellect":12235,"ĠØ¯ÙĪØ±ØªØ±":12236,"ĠØ¸ÙĩÙĪØ±":12237,"ĠØ¹ÙĤØ§ÛĮØ¯":12238,"Ġpurs":12239,"ĠØ®Ø¬Ø§ÙĦØª":12240,"Besides":12241,"ĠØ´Ø±ÛĮÚ©":12242,"alph":12243,"ĠAwards":12244,"ĠØ¯ÛĮÚ¯":12245,"Ġmyst":12246,"Ġyours":12247,"Ø¨ÙĦØ¯ÙĪØ±":12248,"Ġimpression":12249,"ounce":12250,"ĠÙħØ§ÙĨØ¯ÙĨØ¯":12251,"Ġtrave":12252,"ĠØ¬Ø´ÙĨÙĪØ§Ø±Ùĩ":12253,"Ġsucceeded":12254,"ĠCourt":12255,"Ø¹ÙĦÛĮ":12256,"Ġnative":12257,"ĠÙĪØ±Ø§ÙĨØ³Ú©ÛĮ":12258,"ĠØªÙģØ±ÛĮØŃ":12259,"asket":12260,"ĠØµØ¨ØŃØ§ÙĨÙĩ":12261,"ĠÙĨØŃÙĪ":12262,"ĠAngeles":12263,"Ġunexpected":12264,"Ø§ÙĤÛĮ":12265,"ĠGand":12266,"ĠRob":12267,"ishop":12268,"azz":12269,"Ġinspired":12270,"ĠØ¹ÙħÛĮÙĤÛĮ":12271,"ĠMusic":12272,"Ġclaimed":12273,"ĠØªØ¶ÙħÛĮÙĨ":12274,"Ġashamed":12275,"ĠÙĩØ±Ø¯ÙĪ":12276,"Ġbath":12277,"ĠÚ¯Ø±Ø¯Ø§ÙĨ":12278,"ĠPhilos":12279,"Ġobvious":12280,"ÚĨÙĤØ¯Ø±":12281,"ĠØŃÙĪØµ":12282,"Ġreform":12283,"ĠÙĨØ§ÙħØ´":12284,"rene":12285,"ĠIslands":12286,"ĠØ§Ø³ÙħØ´":12287,"Ġregarded":12288,"Ġprinciples":12289,"ĠØ·ÙĨØ§Ø¨":12290,"ĠÚ©ÙĩÚ©Ø´Ø§ÙĨ":12291,"ĠØŃØ§Ú©ÛĮ":12292,"ĠYour":12293,"ĠØªØ§Ø¨ÙĦÙĪ":12294,"Ġkissed":12295,"Ø®Ø¯Ø§ÛĮ":12296,"ĠMunicipality":12297,"ĠÙĦØ±Ø¯":12298,"orted":12299,"ĠÙĨØ¯Ø§Ø±ÛĮ":12300,"ĠÙĪØ¶ÙĪØŃ":12301,"Ġforehead":12302,"Ġprotein":12303,"ÙħØ³ÛĮ":12304,"Ø§Ø±Ú¯Ø§ÙĨ":12305,"ĠÙ¾ÙĪÙĨØ¯":12306,"Ġisol":12307,"ĠÙĦÚ¯":12308,"ĠÙħÙĪØ«Ø±":12309,"ĠØ¢Ø³ÙĪØ¯Ùĩ":12310,"ĠØ®Ø±ÙĪØ¬":12311,"Ġacquaint":12312,"ĠØ¬Ø¨ÙĩÙĩ":12313,"ĠØ±Ø¨Ø·":12314,"ĠCy":12315,"Ø¢ÙĨØ§ÙĨ":12316,"ÙĩØ±ÙħÛĮÙĪÙĨ":12317,"rav":12318,"ĠÙħØ¨ÙĦØº":12319,"tr":12320,"ĠÚ©Ø±Ø§":12321,"ĠÚ©Ø±Ùħ":12322,"ĠØ®ÙĢ":12323,"iffe":12324,"Ġdece":12325,"ĠØ³Ø±ÙĪØ¯":12326,"ĠFamily":12327,"Ġunw":12328,"icking":12329,"Ġfollows":12330,"Ø¨Ø±Ø¯Ø§Ø±ÛĮ":12331,"Ú©Ùģ":12332,"ĠØ®ÛĮØ²":12333,"ĠÙ¾ÛĮØ§ÙĨÙĪ":12334,"theless":12335,"Ġbackground":12336,"ĠØ¨ÙĢØ§":12337,"ĠØ²Ø®ÙħÛĮ":12338,"Music":12339,"ĠSub":12340,"ĠÙħÙĪÙĤØª":12341,"Ġrou":12342,"ĠÙħØ·ÙĦÙĤ":12343,"ĠÚ©ÙĨØ§Ø±Ø´":12344,"ĠWhy":12345,"ĠØµØ±ÙģÙĩ":12346,"Ġreports":12347,"livier":12348,"Ġmarch":12349,"ĠØ®ÙĪÚ©":12350,"ĠÙ¾Ø±ÙĨØ¯Ú¯Ø§ÙĨ":12351,"velopment":12352,"Ġlogic":12353,"ĠØ¹Ø¸ÛĮÙħÛĮ":12354,"PS":12355,"ĠØŁ...":12356,"ĠØªØ£Ú©ÛĮØ¯":12357,"Ġapproached":12358,"Ġrequest":12359,"ĠÙħØ§Ø±ÛĮÙĪØ³":12360,"ĠØ±Ø§ÙĨÙĨØ¯Ú¯ÛĮ":12361,"Ġteachers":12362,"Ġresponsibility":12363,"ĠØ¯Ø§ÙĨØ´ÙħÙĨØ¯":12364,"fall":12365,"ĠÙĩØ±Ú¯ÙĪÙĨÙĩ":12366,"cipl":12367,"Ġbrains":12368,"Ġactor":12369,"Ġgoods":12370,"ĠØ¯Ø§ÙħÙĨ":12371,"ĠÙĦØ±Ø²Ø§ÙĨ":12372,"Ġliterally":12373,"ĠÙĪÛĮØ¯Ø¦ÙĪ":12374,"Ġfate":12375,"Ġstudio":12376,"ĠÙĪØ±Ø²Ø´ÛĮ":12377,"cest":12378,"ĠÙĩØ§ÙĨ":12379,"ĠÙĨÙĪÙħ":12380,"ĠÚ©ÙĦÙħØ¨ÛĮØ§":12381,"ĠØ¹Ø¨Ø§Ø±ØªÙĨØ¯":12382,"Ø´Ø±Ú©Øª":12383,"Ġnodded":12384,"pal":12385,"Ġtear":12386,"ĠØ¬ÙĪØ§Ø¨ÛĮ":12387,"ĠÙĦØ§ØºØ±":12388,"ĠØ§ÙĦÙĩÛĮ":12389,"ĠØ²Ø§ÙĪÛĮÙĩ":12390,"Ġdeliver":12391,"ĠLibrary":12392,"Ġgathered":12393,"ÙģØªÚ¯ÛĮ":12394,"urse":12395,"ĠØ¨ÛĮØ³ØªÙħ":12396,"ĠÙħØŃÙĪØ·Ùĩ":12397,"ĠØ¨Ø¯Ø¨Ø®Øª":12398,"Ġconfused":12399,"ĠØ¨Ø¨Ø®":12400,"ĠØ¹ØµØ¨Ø§ÙĨÛĮØª":12401,"ĠÙħØ£ÙħÙĪØ±ÛĮØª":12402,"otic":12403,"Ġshaking":12404,"ova":12405,"Ġappointed":12406,"Ġcolumn":12407,"ĠÙĨÚ©Ø±Ø¯Ùħ":12408,"Ġhoped":12409,"ĠØ¢ÙĪÛĮØ®ØªÙĩ":12410,"Ġoccupied":12411,"Ġï»":12412,"Ġsymptoms":12413,"adium":12414,"ĠLin":12415,"ĠNich":12416,"Ġdiscovery":12417,"Ø·Ø¨ÙĤ":12418,"Ú¯Ø²Ø§Ø±Ùħ":12419,"Gen":12420,"ĠØ²Ø¨Ø§ÙĨÛĮ":12421,"term":12422,"unction":12423,"Ġgoals":12424,"ĠÛ¹Û°":12425,"aul":12426,"awn":12427,"ĠÙĩÙĪØ³":12428,"Ġhanded":12429,"ĠComput":12430,"Ġdriver":12431,"ĠMinistry":12432,"Sim":12433,"orial":12434,"Ġnoted":12435,"ĠØ³ÙĪØ³ÛĮ":12436,"ĠØ¯ÙĩÙĨØ¯Ú¯Ø§ÙĨ":12437,"ĠØ´ÙĨØ§Ø³Ùħ":12438,"Ġdegrees":12439,"ĠØªØ¯Ø±ÛĮØ³":12440,"ĠØ¹Ø°Ø§Ø¨":12441,"ĠAk":12442,"ĠÙĨØ¯Ø±Øª":12443,"ĠØ´ÙĪÙĤ":12444,"Ġperman":12445,"ĠStu":12446,"Ġinfinite":12447,"ĠÙĨÙĪÛĮØ³ÙĨØ¯Ú¯Ø§ÙĨ":12448,"ĠCanadian":12449,"ĠØ±Ø§ÙĨÙĨØ¯Ùĩ":12450,"Ġastron":12451,"ĠÙ¾ÛĮÚĨÛĮØ¯Ú¯ÛĮ":12452,"ĠØ¨ÙĪØªÙĩ":12453,"Ġwedd":12454,"ÙĤÙĪÙĦ":12455,"Ġcas":12456,"Ġpush":12457,"ĠBas":12458,"Ġworn":12459,"Ġflower":12460,"ĠÙĥØ§Ø±":12461,"Ġ978":12462,"Ġnaturally":12463,"DA":12464,"ØªÙĪÛĮ":12465,"ĠØ¯Ø±Ø®Ø´":12466,"ĠÚ¯ÛĮÙĦ":12467,"irmed":12468,"amin":12469,"emen":12470,"Ġcommitted":12471,"Ġbreaking":12472,"Ġclock":12473,"Ġsteel":12474,"US":12475,"hand":12476,"mond":12477,"Ġsan":12478,"icing":12479,"ĠLittle":12480,"ĠÙħØ±Ø¯ÙĩØ§":12481,"Ġhousehold":12482,"Ġkilling":12483,"Ġlayer":12484,"Ġstrike":12485,"point":12486,"hett":12487,"stro":12488,"Ġunp":12489,"Ġunlike":12490,"Ġapply":12491,"ĠÛ²Û¶":12492,"Ġcrew":12493,"Ġalternative":12494,"cyclop":12495,"ÙĪØ§Øª":12496,"ØªØ¹Ø¯Ø§Ø¯":12497,"ĠØ®Ø§Øª":12498,"Ø³ÛĮÙĦÛĮ":12499,"ĠØ±ÙĪØ¨ÙĦ":12500,"ĠØªØ±Ø¨ÛĮØª":12501,"ÙĬÙĩ":12502,"Ġagreement":12503,"ĠØªÙĨØ´":12504,"Ġdrunk":12505,"Ġillust":12506,"Ġexcitement":12507,"ĠGenus":12508,"Ġproced":12509,"ĠFr":12510,"ĠØ¯ÛĮØ¯ÛĮÙħ":12511,"Ġadmit":12512,"ĠÚ©ÙħÙ¾Ø§ÙĨÛĮ":12513,"Ġexcellent":12514,"ãĤ":12515,"Ġlosing":12516,"ĠØ¹Ø§ÙĤÙĦ":12517,"Ġrelief":12518,"Û±Û³Û":12519,"Ġvolume":12520,"ĠÛ·Û°":12521,"Ġtradition":12522,"ef":12523,"ĠØ¨Ø¯Ø§ÙĨÙħ":12524,"icks":12525,"Ġdifferences":12526,"Ġincor":12527,"Ġoxy":12528,"Ġneighborhood":12529,"Ġgri":12530,"ĠMother":12531,"ĠRue":12532,"ĠØ®Ø·Ø§":12533,"Û±Û¸Û":12534,"ĠÚ©Ø§ØªÙĪÙĦÛĮÚ©":12535,"Ġmassive":12536,"Ġheavily":12537,"Ġwire":12538,"agues":12539,"Ġexists":12540,"ĠØ´Ú©Ø§ÛĮØª":12541,"Ù¾Ø±Ø³Øª":12542,"ĠâĢİ.":12543,"Ġskills":12544,"Ġcruel":12545,"Ø¢Ø®Ø±ÛĮÙĨ":12546,"Ġgiant":12547,"Ġvague":12548,"Ġplane":12549,"Ø´ÙħØ§Ø±ÛĮ":12550,"ĠÙħÙĤØ§Ø¯ÛĮØ±":12551,"ĠÙħØ·Ø§ÙĦØ¨":12552,"Ġgrandfather":12553,"ĠÙĨÙħØ§ÛĮÙĨØ¯Ú¯Ø§ÙĨ":12554,"ĠÙĨØ§Ø²Ú©":12555,"ÅĤ":12556,"ĠÙĪÚ©ÛĮÙĦ":12557,"Ġdull":12558,"ÛĮÙħÙĨ":12559,"acles":12560,"ÙħÛĮÙĦÛĮ":12561,"ĠÙĪÛĮÙĨØ¯":12562,"ĠÙĪØ¬ÙĪØ¯Ø´":12563,"Ú©Ø³ÙĪÙĨ":12564,"Ġnewspaper":12565,"ĠØ´ÙĪÙĨ":12566,"anie":12567,"Ġplate":12568,"ĠØ¨Ø±Ø¯Ø§Ø±Ø¯":12569,"ĠÙ¾Ø¯Ø±Ø¨Ø²Ø±Ú¯":12570,"Ġfacts":12571,"ĠÙ¾Ø±Ø¯Ø§Ø²Ø¯":12572,"ĠØ·ÛĮÙģ":12573,"Ġdiseases":12574,"Ġalgorithms":12575,"EL":12576,"writ":12577,"ĠØŃØ±ÙĪÙģ":12578,"ĠÙĦØ§Ø±ÛĮ":12579,"ĠØ´Ø®ØµØ§":12580,"Ġships":12581,"Ġignor":12582,"OK":12583,"ĠØ¨Ø¨Ø±ÛĮ":12584,"ĠØ¨Ø®ÙĪØ§Ø¨":12585,"ĠØŃØ¨Ø³":12586,"ĠÙĩØ§ÛĮÙħØ§ÙĨ":12587,"Ġstones":12588,"Ġowned":12589,"Ġattribut":12590,"Ġphase":12591,"ĠÙĪØ§Ú©Ø³":12592,"Ġportra":12593,"ĠÚ©Ø´ØªÙĨ":12594,"ĠØªØŃÙĤÛĮÙĤØ§ØªÛĮ":12595,"ĠIntelligence":12596,"ĠÙħÙĨØ§Ø³Ø¨ÛĮ":12597,"Ġinner":12598,"ĠØ§ÙĨÚ©Ø§Ø±":12599,"Ġflesh":12600,"Ġobst":12601,"ĠÙĦÛĮØ²":12602,"Ġbranch":12603,"iy":12604,"ĠØ±Ø³ÛĮØ¯Ùħ":12605,"Ġsustain":12606,"ĠÙħÙħ":12607,"ĠÙĨÛĮÙĪ":12608,"ĠOb":12609,"ĠÙĨÛĮØ³ØªÛĮ":12610,"Ġelectrical":12611,"Ġabsence":12612,"ĠØ´Ú¯ÙģØªÛĮ":12613,"Everything":12614,"Ġfrequency":12615,"ĠÙ¾Ø´ÛĮÙħ":12616,"Ġintellig":12617,"Ġspin":12618,"ĠØ§Ø¬ØªÙĨØ§Ø¨":12619,"Ġcuriosity":12620,"Ã³w":12621,"ĠNatasha":12622,"ÙħØ¯ÛĮ":12623,"ĠØ¯ÙĬ":12624,"Ġprisoners":12625,"Ġdrinking":12626,"Ġanxiety":12627,"Ġpaused":12628,"Ġscarcely":12629,"Ġcousin":12630,"ĠÙĨØ§Ø´ÙĨØ§Ø®ØªÙĩ":12631,"nor":12632,"Ġstiff":12633,"ĠØ¨Ø§Ø²Ø±Ú¯":12634,"ĠÙħØ¹Ø°":12635,"ĠØ§Ø´ÙĦÛĮ":12636,"Ġcreatures":12637,"ĠØ±Ø³ÙĨØ¯":12638,"Ġacting":12639,"ologist":12640,"Ġsimpl":12641,"Ġfriendly":12642,"Ġlifted":12643,"Ġelectricity":12644,"ĠØ§ÙĦÙħØ§Ø³":12645,"cknow":12646,"ĠThen":12647,"ĠØ§Ø¹ØµØ§Ø¨":12648,"Ġdemon":12649,"Ġstepped":12650,"ĠScot":12651,"Ġprimarily":12652,"ĠØªØ±ÙĪØ±ÛĮØ³Ùħ":12653,"ĠØ¢Ø±Ø²ÙĪÛĮ":12654,"Ġexplanation":12655,"hus":12656,"occ":12657,"ĠDu":12658,"ĠUr":12659,"Ú©ÙĦØ§ÛĮØ¯":12660,"ĠÙħØ±ØªÚ©Ø¨":12661,"Ġbedroom":12662,"ĠØªØ®Ø±ÛĮØ¨":12663,"ĠØ¨Ø¯Ø§ÙĨÛĮØ¯":12664,"Ġsatisfaction":12665,"Ġvictory":12666,"ĠØ¨Ø³Ø§Ø²ÛĮÙħ":12667,"ĠÙħÚ¯":12668,"ÙĦØ°Ø§":12669,"Ġpuzz":12670,"Ø³ÛĮØ§":12671,"ØªØ±Ø³":12672,"ĠØ¨Ú¯Ø°Ø§Ø±ÙĨØ¯":12673,"ĠÙĨØ§Ø®ÙĪØ´":12674,"ĠFoundation":12675,"bitt":12676,"ØµÙĪØ¯":12677,"Ø®ØªÙĨØ¯":12678,"ĠPo":12679,"ĠÙĨÙĪØ§ØŃÛĮ":12680,"Ġinterests":12681,"Ġhoriz":12682,"Ġsons":12683,"Ġkil":12684,"Ġfeels":12685,"ĠÙĨÙĪØ§Ø²Ø´":12686,"28":12687,"host":12688,"ype":12689,"ÙĤÙĪÙĩ":12690,"Ġworried":12691,"ĠJeff":12692,"ĠÛĮØ§Ø¯Ø¢ÙĪØ±ÛĮ":12693,"ificial":12694,"ĠØ¬Ø²Ø¡":12695,"Ġsword":12696,"Ġsentence":12697,"Ġbalance":12698,"Ġequivalent":12699,"Ġfart":12700,"Ġstor":12701,"osha":12702,"Ġresolution":12703,"Ġfinish":12704,"anguage":12705,"Û²Û°Û":12706,"Ġidentified":12707,"Ġdemocracy":12708,"Ġatmosphere":12709,"IR":12710,"Ġbits":12711,"ĠÙħÛĮØ±Ø§":12712,"ĠÙģØ±Ú©Ø§ÙĨØ³":12713,"Ø§ÙĪØ§":12714,"ĠÙ¾Ø±ÙĪÙģØ³":12715,"ĠØ³Ø·ÙĪØŃ":12716,"Ġpriest":12717,"ĠØ®ÙĪÙĨØ³":12718,"Ġtrembling":12719,"ĠØ¬Ø§Ø¯ÙĪÛĮÛĮ":12720,"ĠÚ©Ø±Ø§ÙģØ±Ø¯":12721,"ĠØ¯Ø±ÙħÙĪØ±Ø¯":12722,"ario":12723,"Ġchose":12724,"Ġprem":12725,"ĠÙ¾ÙĦÚ©Ø§ÙĨ":12726,"ĠÙħØªØ¹Ø¬Ø¨":12727,"ĠØºØ±ÛĮØ¨Ùĩ":12728,"ĠÙģØ§Ø±Ø³ÛĮ":12729,"ĠÙħØ¹Ø¯ÙĨ":12730,"27":12731,"Ú©ÙĪÙĩ":12732,"orter":12733,"ĠØµØ¯Ùħ":12734,"ĠHT":12735,"ĠØ±ÙĪØ²Ùĩ":12736,"ĠØ¯Ø®ØªØ±ÙĩØ§":12737,"ĠØ¨Ø´ÙĪÙħ":12738,"ĠØµÙĨØ§ÛĮØ¹":12739,"Ġcomponents":12740,"ĠØ¨Ø¹Ø¯Ø§Ø²Ø¸ÙĩØ±":12741,"ĠØªØ¯":12742,"ĠÙ¾Ø§Øª":12743,"ĠÚ¯Ø²ÛĮÙĨÙĩ":12744,"Ġloose":12745,"Ġcompassion":12746,"ĠÙħØ¯Ø§ÙĦ":12747,"Ġstudying":12748,"ĠÚ©ÛĮØªÛĮ":12749,"Ġideal":12750,"Ġcorpor":12751,"ÙħØ¹ÙĦÙĪÙħ":12752,"Ġsuperior":12753,"Ġgalax":12754,"Jean":12755,"Ġresist":12756,"Ġcoord":12757,"Ġgrin":12758,"ĠØ³Ø§Ø¹ØªÛĮ":12759,"ĠLeÃ³n":12760,"Ġsurrounded":12761,"Ø²ÙĨØ§ÙĨ":12762,"erk":12763,"ĠØ±Ø§Ú©":12764,"elly":12765,"ÙĢØ§ÙĨ":12766,"ĠØªÙħØ³":12767,"Ġgene":12768,"othy":12769,"ØªØ±ÛĮØ³ÛĮ":12770,"ĠØ¬ÙĦØ¯":12771,"apping":12772,"ĠCatholic":12773,"Ġfocused":12774,"ĠÙĪÙĤØ§ÛĮ":12775,"Ġcore":12776,"Ġmyth":12777,"ĠÚ©Ø§ÙħÙ¾":12778,"Ú©Ø²ÛĮÙħ":12779,"ĠIII":12780,"ĠÙĪØ§ÙĨÙħ":12781,"Ġindu":12782,"olm":12783,"Ġrow":12784,"Ġgreatly":12785,"ĠAmericans":12786,"Ġexperiences":12787,"ĠØ®ÙĪÛĮØ´ØªÙĨ":12788,"Val":12789,"ĠÚ¯ÙĦÙĪ":12790,"Ġreven":12791,"olve":12792,"ĠØ¨ÛĮØ§Ø¨":12793,"aine":12794,"ĠFar":12795,"Ġremote":12796,"ela":12797,"akers":12798,"Ġpractical":12799,"ĠØ¨Ø²ÙĨÛĮØ¯":12800,"ĠØ¨Ø§Ø¯ÛĮ":12801,"Ġacknow":12802,"Ġmuseum":12803,"Ø¨ÛĮÙĦÙĩ":12804,"ÛĮØªØ§ÙĨ":12805,"Ġdepartment":12806,"ĠØ´ÙĨØ§Ø®ØªÛĮ":12807,"Ġawful":12808,"Ġteams":12809,"Ġbanks":12810,"Ġauthorities":12811,"Ġprofessor":12812,"ĠØ´ÛĮØ·Ø§ÙĨÛĮ":12813,"ĠÚ©ÙĪÛĮ":12814,"eding":12815,"ĠØ³Ø±Ø¯Ùĩ":12816,"ĠÙħÙĨÙĩ":12817,"Ġnegot":12818,"ĠÙģØ±Ø¢ÛĮ":12819,"itya":12820,"Ġrolled":12821,"Ġpolitic":12822,"Ġspirits":12823,"ĠSecond":12824,"29":12825,"ĠØ±ÙĪÛĮÚ©Ø±Ø¯":12826,"ĠÙĤØ±Ø¢ÙĨ":12827,"Ġgrate":12828,"Ġ1930":12829,"Ġnode":12830,"standing":12831,"ĠÙĨÙĤØµ":12832,"ĠPhys":12833,"ĠØ¨ÙĨØ¯Ø±":12834,"Ġarrival":12835,"ĠØ¨Ø®ÙĪØ§ÙĨØ¯":12836,"Ġhanging":12837,"ĠØ¨Ø§ÙĩÙħ":12838,"Ġselected":12839,"oping":12840,"ĠBon":12841,"Ġconqu":12842,"ĠOxford":12843,"ĠØ±ÙĤÙħ":12844,"ĠÙĨÙħØ§ÛĮØ´Ú¯Ø§Ùĩ":12845,"ĠÙĨØ§ØªØ§Ø´Ø§":12846,"ealous":12847,"isation":12848,"Ġweren":12849,"Ġsecure":12850,"ĠØªØ±ÛĮØ³ÛĮ":12851,"Ġobviously":12852,"umbledore":12853,"ĠØ§Ø±Ø¯ÙĪÚ¯Ø§Ùĩ":12854,"Ġbeast":12855,"ĠÙģÛĮØ±":12856,"utation":12857,"Ø§Ø¨ÙĩÛĮ":12858,"ÙĩØ§Ø³Øª":12859,"Ġthinks":12860,"duc":12861,"ĠÚĨØ´ÙħÙĩ":12862,"Ġgolden":12863,"ĠØ²ÙĨØ¬ÛĮØ±Ùĩ":12864,"Ġtonight":12865,"48":12866,"ĠØ·ÙĪÙģØ§ÙĨ":12867,"illing":12868,"Ġshru":12869,"ĠEastern":12870,"Ġlock":12871,"range":12872,"Ġbold":12873,"Ġblame":12874,"Ġ187":12875,"ĠChristmas":12876,"Ġviews":12877,"ĠØ¨ÙĩØ¯Ø§Ø´ØªÛĮ":12878,"ĠØ²ÙĪØ¬":12879,"ĠÙĪØ§ÙĨÙħÙĪØ¯":12880,"every":12881,"Ø¸Ùħ":12882,"Ø¢Ú¯Ø§Ùĩ":12883,"Ġproport":12884,"Ø§Ø±ÙĩØ§ÛĮÛĮ":12885,"Ġcook":12886,"Ġhearts":12887,"55":12888,"Col":12889,"Ġwake":12890,"ulse":12891,"ĠÙĦÙĨÚ¯":12892,"ĠRock":12893,"ĠNorthern":12894,"ĠØ´ÙĪØ§ÙĩØ¯":12895,"Ġslept":12896,"box":12897,"ĠØ¨ÙĨÛĮØ§Ø¯ÛĮ":12898,"agnan":12899,"ĠØ±Ø¤ÛĮ":12900,"ĠPrincess":12901,"ÙĨÛĮØ±":12902,"ĠMem":12903,"ĠÙĦØ³":12904,"ĠBol":12905,"Ġworship":12906,"ĠViet":12907,"ĠØ®Ø§Ø±ÙĤ":12908,"ĠØ¹ÙĦØ§ÙĤ":12909,"Ġfunny":12910,"ĠØ¯Ø±Ø¯Ø³Ø±":12911,"ØªÙĦØ±":12912,"ĠQueen":12913,"cope":12914,"Ġq":12915,"ØªØ§Ø±ÛĮ":12916,"ĠÙĪØµÙģ":12917,"ØŃØ´":12918,"agger":12919,"ĠØºØ§Ø±":12920,"ĠØªØ¹ÙħÛĮØ±":12921,"ĠÙĦÛĮÚ¯":12922,"Ġdiamond":12923,"ĠCommission":12924,"ĠØ¢Ú©Ø§Ø¯ÙħÛĮ":12925,"List":12926,"PC":12927,"tle":12928,"Ø§Ø±ÛĮØ¯":12929,"ĠØ´Ø¯ÛĮ":12930,"Ġshirt":12931,"Ġallowing":12932,"ĠWal":12933,"Ġunus":12934,"ĠÙĨØ§Ú¯Ø²ÛĮØ±":12935,"ĠÙ¾Ø±ÙĪØªÚ©ÙĦ":12936,"Ġresearchers":12937,"ÙĪØ¬Ùĩ":12938,"icit":12939,"ØŃØ±Ùģ":12940,"ĠØªÙĪÙĩ":12941,"ĠPlan":12942,"Artagnan":12943,"life":12944,"iture":12945,"ĠØ§ÛĮÙĨÙĪ":12946,"uted":12947,"ĠAzer":12948,"ĠØ³Ø±Ú¯Ø±ÙħÛĮ":12949,"ĠTown":12950,"ĠØªØºÛĮÛĮØ±ÛĮ":12951,"Ġstrateg":12952,"Ġimagination":12953,"Ġincredible":12954,"pass":12955,"Ðº":12956,"Ú©ÙĪÙĨ":12957,"ĠÙĪØ§Øª":12958,"also":12959,"ĠØ¨Ø±ÛĮØ¯Ùĩ":12960,"str":12961,"ĠCatherine":12962,"ĠJoe":12963,"Ġelections":12964,"Ġmanufacture":12965,"Ġscript":12966,"ĠØ³ÙĦÙĪÙĦÛĮ":12967,"rors":12968,"ĠØ®Ø§Ø³Øª":12969,"ĠØ³ØŃØ±":12970,"Ġgained":12971,"ĠØŃØ¬":12972,"ĠÛĮÚ©Ù¾Ø§Ø±":12973,"ĠMill":12974,"ĠLiber":12975,"ÙĬÙĥ":12976,"ĠØ¨Ø¯ØªØ±ÛĮÙĨ":12977,"Ġuns":12978,"ĠÚ©ÛĮØ³Øª":12979,"Ġtechnical":12980,"ograp":12981,"Ġprofession":12982,"ĠÙĤÙĩØ±ÙħØ§ÙĨÛĮ":12983,"Ġarranged":12984,"EM":12985,"Ġcert":12986,"oria":12987,"ĠØ²ÛĮØ±Ø²ÙħÛĮÙĨ":12988,"ĠØ¹ÙĦØ§Ø¦Ùħ":12989,"ĠØ³Ù¾Ø±Ø¯Ùĩ":12990,"ko":12991,"Ã¸":12992,"ĠØªÛĮÙĦ":12993,"lyosha":12994,"ĠÚĨÙĬØ²":12995,"ĠØ®ÙĪØ¯Ø±ÙĪÛĮÛĮ":12996,"ĠØºØ§ÙģÙĦ":12997,"Ġnoble":12998,"ĠØªÙĨÙĪØ¹":12999,"ĠØ®Ø´Ú©ÛĮ":13000,"Ø§ØºÙĦØ¨":13001,"ĠØ§Ø³ØªØ®Ø±Ø§Ø¬":13002,"ĠØ§ÙħØªØ¯Ø§Ø¯":13003,"Ġsports":13004,"ĠÙ¾Ø±ÙĪÙģØ³ÙĪØ±":13005,"Ġmac":13006,"umed":13007,"apy":13008,"Ġcomplicated":13009,"ĠÙħØªØ£Ø³Ùģ":13010,"ĠSouthern":13011,"ĠPop":13012,"Ġdoctors":13013,"ĠØ§ÙĦÙĨ":13014,"ĠÚ©ÙħØªØ±ÛĮÙĨ":13015,"Ġsmooth":13016,"ĠÙħØ³ØªÙĨØ¯":13017,"ĠØ±Ø®ØªØ®ÙĪØ§Ø¨":13018,"ĠÙħØ¯Ø§ÙĪÙħ":13019,"Ġvisited":13020,"ĠØ´ÙĨØ§ÙĪØ±":13021,"Ġevidently":13022,"Ø§ØªØ´":13023,"Ġpartner":13024,"ĠInc":13025,"ĠÙĨØ´Ø³ØªÙĨØ¯":13026,"ĠØ§ÙģØ³Ø±Ø¯Ú¯ÛĮ":13027,"ĠÙħØªØ¹Ø¯Ø¯ÛĮ":13028,"west":13029,"Û´":13030,"Ø¹ÛĮØ¯":13031,"Ġgle":13032,"ĠØ¨Ø±Ø§ÛĮØª":13033,"ĠDis":13034,"ĠØ§Ø¬Ø§Ø±Ùĩ":13035,"mann":13036,"ĠÚ¯ÙĪØ´ÛĮ":13037,"ĠØ³ØªØ§ÛĮØ´":13038,"ĠÙ¾Ø¯ÛĮØ¯Ø§Ø±":13039,"Ġmaintain":13040,"Ġexercise":13041,"ĠÙĤØ´ÙĪÙĨ":13042,"oped":13043,"Ġ''":13044,"ĠÙ¾Ø³ÙĨØ¯":13045,"Ġcontempt":13046,"ĠÛ±Û°Û":13047,"Ġtesting":13048,"ĠØ¨Ú¯ÙĪÛĮÙĨØ¯":13049,"ĠÙħÛĮØ¯ÙĩØ¯":13050,"Ġdancing":13051,"omach":13052,"Ġstuck":13053,"ĠBy":13054,"ĠRose":13055,"ĠLy":13056,"Ġlocked":13057,"ÙĪØ¨ÙĪØ³":13058,"Ø¨Ø§ÙĦÙĩ":13059,"Ġswift":13060,"ĠÛµÛ°Û°":13061,"ĠÙģÙĩÙħÛĮØ¯Ùĩ":13062,"Ġliquid":13063,"ÙĪÙĩØ§":13064,"asters":13065,"ĠØ¨Ø±Ø¹Ú©Ø³":13066,"ilty":13067,"ĠRog":13068,"ĠEve":13069,"Ġplays":13070,"ĠÛĮÙĪÙĨØ§ÙĨ":13071,"Ġcombined":13072,"Ġaltogether":13073,"IL":13074,"ĠÙħÛĮØ´Ø¯":13075,"Ġfier":13076,"etime":13077,"ĠPre":13078,"ĠPost":13079,"Ġextended":13080,"ĠØ´Ú©ÙĪÙĩ":13081,"ĠØ®ÛĮØ§ÙĦÛĮ":13082,"ĠØ³ØªØ§Ø±Ú¯Ø§ÙĨ":13083,"Ġwondering":13084,"ĠFacebook":13085,"Under":13086,"ĠØ®ÙĦÙĪØª":13087,"igen":13088,"ĠØ¨Ø±ÙĩÙĨÙĩ":13089,"Ġbacteria":13090,"Sec":13091,"Ø³ÙĪÙħ":13092,"ĠØ¬ÙĪÛĮÛĮ":13093,"ÙħÙĪØ³ÛĮÙĤÛĮ":13094,"ĠVan":13095,"Ġconstantly":13096,"Ġresem":13097,"Ġfriendship":13098,"Ġmainly":13099,"ĠÙħØ°ÙĩØ¨":13100,"Bet":13101,"Ø§ÛĮØ§":13102,"oral":13103,"ĠÙ¾Ø±Ø§":13104,"Ġforb":13105,"Ġsees":13106,"ĠBella":13107,"aping":13108,"ĠØ¯ÙĦØ³":13109,"ĠØ¨ÙĢÙĪØ¯":13110,"Ġsleeping":13111,"Ġcombination":13112,"ĠØ§ÙĦÚ¯ÙĪÛĮ":13113,"ĠAustralian":13114,"ĠØ®Ø¯Ø§ØŃØ§ÙģØ¸ÛĮ":13115,"!\"":13116,"inter":13117,"ĠØ¬Ø¨Ø±Ø§ÙĨ":13118,"ader":13119,"TV":13120,"Ġpause":13121,"Ø§ÙħÙĦÛĮ":13122,"ĠLydgate":13123,"Ø¨Ø±ÙĨØ§ÙħÙĩ":13124,"Ġroot":13125,"ĠØ¹ÙħÙĪÙħ":13126,"Ġfrancs":13127,"Ġvary":13128,"ĠStand":13129,"ĠØŃØ³Ø¨":13130,"ĠØ¯Ø±Ø¯ÙĨØ§Ú©":13131,"Ġemotions":13132,"ĠØ¯Ø®Ø§ÙĦØª":13133,"65":13134,"CM":13135,"ĠØ§ÚĨ":13136,"ante":13137,"Ġ1989":13138,"ĠØ®ÙĪØ´ØŃØ§ÙĦÙħ":13139,"100":13140,"ĠÚ©ÛĮÙĨ":13141,"itar":13142,"ĠØŃØ³ÛĮ":13143,"Ġseated":13144,"ĠTime":13145,"Ġconcert":13146,"ĠØ±Ø§Ø¯ÛĮÙĪÛĮÛĮ":13147,"Ġclouds":13148,"Ġmathematical":13149,"47":13150,"ØªÙģ":13151,"Ġfer":13152,"Ġrh":13153,"loc":13154,"pless":13155,"ĠØªØµØ¯ÛĮÙĤ":13156,"ĠStan":13157,"Ġrelation":13158,"ocal":13159,"ĠÙħÙĪØ¶ÙĪØ¹Ø§Øª":13160,"ĠÙħØ¯Ø±Ú©":13161,"Ġpatterns":13162,")}":13163,"ÙħØ±Ùĩ":13164,"ĠÚ©ÙĪØ²Øª":13165,"Ġhint":13166,"rog":13167,"ĠÙĦÚ©":13168,"ĠJurgis":13169,"ĠÙħØ¹ÛĮÙĨ":13170,"ĠÙħØ´Ø§Ø¨ÙĩÛĮ":13171,"ĠÙħÙĨØªÙĩÛĮ":13172,"ĠØ³Ø±Ø´Ø§Ø±":13173,"Ø§Ø¬Ø§Ø²Ùĩ":13174,"ĠØ²ÛĮØ¨Ø§ÛĮ":13175,"ĠØ´Ø§Ú¯Ø±Ø¯":13176,"Ġhungry":13177,"ĠÙĤØ§Ø¶ÛĮ":13178,"Ġreward":13179,"ĠÙħÙĪØ§ÙĤØ¹":13180,"Through":13181,"aws":13182,"Ġentertain":13183,"ĠÙħØºÙĨØ§Ø·ÛĮØ³ÛĮ":13184,"ĠØ¯Ø§ÙĨØ´Ú¯Ø§ÙĩÛĮ":13185,"ĠPeters":13186,"Ġessential":13187,"Ù¾Øª":13188,"Ġgently":13189,"Ġstret":13190,"elf":13191,"ĠÙħØ¹Ø·":13192,"Ġuniform":13193,"Ġexisting":13194,"ĠØ¹Ø§Ø´ÙĤØ§ÙĨÙĩ":13195,"Sever":13196,"Ġthee":13197,"inger":13198,"ĠÙĤØ¨ÛĮÙĦÙĩ":13199,"Ġancest":13200,"ession":13201,"ĠÙ¾ÛĮØ±ÙĪÛĮ":13202,"ĠØªÙĦÚ¯Ø±":13203,"Ġwoods":13204,"ĠØ¨ÙĪØ³ÛĮØ¯":13205,"ĠØ®Ø§ØªÙħÙĩ":13206,"Ø³Ø§Øª":13207,"Ø²ÙĨÛĮ":13208,"Ġexternal":13209,"ĠOliver":13210,"ĠØ°ÙĩÙĨÙħ":13211,"ĠÙħØ£ÙħÙĪØ±":13212,"Ø¦ÙĪØ±ÙĦÛĮ":13213,"Ġappreci":13214,"Ġtorn":13215,"ĠÙĪØ§Ø¯":13216,"ĠØªØ§ÛĮÛĮØ¯":13217,"Ġcards":13218,"ĠIMDb":13219,"ĠØ³Ø§Ø®ØªÙĨØ¯":13220,"Ġoldest":13221,"ĠÚ©ÙĦÛĮÙģ":13222,"Ġdram":13223,"ĠEngine":13224,"Ġlargely":13225,"evin":13226,"Ġprisoner":13227,"ĠAlexander":13228,"OT":13229,"ĠÙħØ§Ø¯ÛĮ":13230,"ali":13231,"emies":13232,"ĠØ§Ø³ÛĮØ±":13233,"Ġdepends":13234,"ĠØ§Ø®ÛĮØ±Ø§":13235,"ĠØ¨ÙħÛĮ":13236,"ĠÙĨØ§ÙĪ":13237,"itors":13238,"ĠØ®ÙĦØ§ÙĦ":13239,"ĠØ¢ÙĨØªÛĮ":13240,"ĠMonsieur":13241,"ules":13242,"ĠRa":13243,"Ø§ÛĮÙĨÚ©":13244,"ĠÙħØªØ±ÙĪ":13245,"Ġcompre":13246,"Ġindex":13247,"ĠØ¨Ú©ÙĨÛĮ":13248,"ĠÙĪØ¸Ø§ÛĮÙģ":13249,"Ø¸Ø§ÙĩØ±Ø§":13250,"Ġsales":13251,"ĠØªÙ¾":13252,"ĠÚĨØ´":13253,"acific":13254,"uments":13255,"osm":13256,"Ø®ÙĪÙģ":13257,"Ġ300":13258,"ĠØ§Ø®Ø±Ø§Ø¬":13259,"ĠØ¨ÙĦÛĮ":13260,"ĠÙĨÙĬ":13261,"ĠMars":13262,"iler":13263,"ĠHaw":13264,"ĠÚ©ÙħÚ©ÛĮ":13265,"ĠÙĨÙħÚ©":13266,"Ġburned":13267,"ĠØ¯Ø§Ø¦ÙħÛĮ":13268,"ĠMoon":13269,"ĠÙħØªØ§Ø³Ùģ":13270,"ĠØŃØ±ÙģØ´":13271,"ĠProgram":13272,"Ġtechnique":13273,"ĠØ¨Ø¨Ø±ÙĨØ¯":13274,"Ġguns":13275,"Ġperceived":13276,"bra":13277,"ĠÙĩÙĨØ¯ÛĮ":13278,"ication":13279,"Ø·Ø§Ùģ":13280,"idel":13281,"iths":13282,"ĠAli":13283,"Ġadvert":13284,"ĠÙĪÛĮØªÙĨ":13285,"ĠStar":13286,"ĠØªÙĪÙĨÛĮØ¯":13287,"ĠScott":13288,"Ġdaughters":13289,"ĠBerlin":13290,"ĠØ¨Ø±Ø§ÙĨÚ¯ÛĮ":13291,"Ġapparently":13292,"ÙħÙĩÙħ":13293,"heast":13294,"ĠÙĪØªÛĮ":13295,"ĠØ±ÙĨ":13296,"arse":13297,"ĠDan":13298,"ĠØ¯Ø³ØªÙħØ§ÙĦ":13299,"ĠÛ±ÛµÛ":13300,"onsense":13301,"Ġshouldn":13302,"Ġunhappy":13303,"OC":13304,"Ġtick":13305,"Ø³ÙĦÙĩ":13306,"itzer":13307,"ĠØ§Ø²Ø§ÛĮ":13308,"Ġease":13309,"iry":13310,"uration":13311,"ĠØ®ÙĪØ§Ø¯":13312,"ĠLab":13313,"Ġpartners":13314,"ĠÙĤØ·Ø¹ÛĮ":13315,"ÙĪØ·ÛĮ":13316,"ĠPrime":13317,"Ġhomes":13318,"ĠØ²ÙĨØ¬ÛĮØ±":13319,"05":13320,"ĠØªØ±ÙĪ":13321,"ÚĨÙĨ":13322,"Ġsheep":13323,"ÙħØ§Ø¯Ø§Ùħ":13324,"Ġclaims":13325,"ĠØ¯Ø§ÙĪØ·ÙĦØ¨":13326,",;":13327,"bai":13328,"Ġstim":13329,"quis":13330,"ĠDutch":13331,"ĠØŃÙĤÙĪÙĤÛĮ":13332,"Ġarticles":13333,"Ġparam":13334,"Ġadmir":13335,"Ġsorrow":13336,"ĠØ¬Ø¯Ø§ÛĮÛĮ":13337,"ĠÙħÙĪØ³Ø³Ùĩ":13338,"ĠÙħÛĮØ³":13339,"ĠØ¯Ø±Ø³ØªÙĩ":13340,"Ø®Ø·":13341,"ĠÚ©ÙĨØ³Ø±Øª":13342,"usal":13343,"Ġshif":13344,"ĠEnd":13345,"Ġattached":13346,"ĠSpace":13347,"ÙģÛĮÙĦÙħ":13348,"ĠOrganization":13349,"bar":13350,"ÙĪØº":13351,"ĠÙĩØ¯":13352,"ĠAut":13353,"ĠEll":13354,"Rum":13355,"Ġbatter":13356,"Ġmaid":13357,"ĠOri":13358,"Ø§ØµØ±Ùĩ":13359,"Ġconsult":13360,"ikip":13361,"ĠØ®ÙĪØ§Ø¨ÛĮØ¯Ùĩ":13362,"Ġparticles":13363,"Ġprocessing":13364,"Ġtotally":13365,"ĠØ´Ø§Ø®Øµ":13366,"Ġmixed":13367,"John":13368,"ĠØ´ØªØ§":13369,"ĠÛĮÙĪÙĨÛĮ":13370,"Ø§ÙĦØ¯":13371,"Ġknife":13372,"ĠÙħØ³ØªÙĤØ±":13373,"ĠÙ¾ÙĨØ¬Ùĩ":13374,"ĠÙħØ§ÛĮÚ©ÙĦ":13375,"Ġobliged":13376,"long":13377,"Ġwise":13378,"Ø®Ø§ÙĨÙĪ":13379,"ĠMaxim":13380,"ÙĪØ²Ùģ":13381,"ĠØ«Ø¨Ø§Øª":13382,"Ġprotest":13383,"ÙĩØ§ÙĨ":13384,"ĠØ¨Ø±Ø§ÙĨÚ¯ÛĮØ²":13385,"Ġyards":13386,"Ġintense":13387,"ĠÙħØŃØ§Ú©":13388,"Ġjealous":13389,"ĠÙĤØ·Ø¨":13390,"ĠÙħÙĦÚ©":13391,"Ġleads":13392,"ĠÙ¾Ø§Ø¯Ø§Ø´":13393,"ĠØ¯Ø±Ø´Ú©Ùĩ":13394,"Ġwedding":13395,"ĠØ¯ÛĮÙĨÛĮ":13396,"ĠLoss":13397,"ĠÙĨÛĮØ±ÙĪÙħÙĨØ¯":13398,"Ġmemories":13399,"Ġfactory":13400,"Ġtruck":13401,"ĠØ¸Ø§ÙĩØ±ÛĮ":13402,"Ġbesides":13403,"ĠÙħØ³ÙĦÙħØ§ÙĨØ§ÙĨ":13404,"Ġelectronic":13405,"ĠØ¢ÙĨØ¬ÙĦØ³":13406,"down":13407,"rast":13408,"Ø¹Ø¨":13409,"Ø¨Ø§Ø·":13410,"Ġbiological":13411,"ĠÚ¯Ø±Ø³ÙĨÙĩ":13412,"Ġconsequence":13413,"ĠØµÙĦÛĮØ¨":13414,"ĠÙħØ¬Ø§ÙĪØ±":13415,"bi":13416,"yan":13417,"ØªØ²":13418,"Ġgrief":13419,"ĠSol":13420,"ĠBob":13421,"ĠDiv":13422,"ĠØ§Ø¹ØªÙĨØ§":13423,"ĠNobel":13424,"Ġhorrible":13425,"Ġpipe":13426,"Ġstable":13427,"ĠColl":13428,"ĠÙĦØ·ÛĮ":13429,"Ġchannel":13430,"eph":13431,"Ġthanks":13432,"ĠÙĨÙĤØ¯":13433,"Ġsuppl":13434,"Ġexplos":13435,"Ġpainful":13436,"Ġawarded":13437,"Get":13438,"Ø¹Ø§Ø¯":13439,"Ġec":13440,"ĠØ¯ÛĮÙĪ":13441,"ĠØ¢ÙģØ±ÛĮÙĨ":13442,"Ġpoetry":13443,"ĠØ§ÙħÙ¾Ø±Ø§Ø·ÙĪØ±":13444,"PA":13445,"Ú©Ø§ÙĪ":13446,"onna":13447,"ĠØ¨Ø§Ø³ØªØ§ÙĨÛĮ":13448,"usse":13449,"ĠTem":13450,"Ġabst":13451,"Ġboots":13452,"Ø®ÛĮØ§ÙĦ":13453,"Ġappropri":13454,"Ġeastern":13455,"Ġsacrif":13456,
[...]
