<s>
<pad>
</s>
<unk>
!
"
#
$
%
&
'
(
)
*
+
,
-
.
/
0
1
2
3
4
5
6
7
8
9
:
;
<
=
>
?
@
A
B
C
D
E
F
G
H
I
J
K
L
M
N
O
P
Q
R
S
T
U
V
W
X
Y
Z
[
\
]
^
_
`
a
b
c
d
e
f
g
h
i
j
k
l
m
n
o
p
q
r
s
t
u
v
w
x
y
z
{
|
}
~
¡
¢
£
¤
¥
¦
§
¨
©
ª
«
¬
®
¯
°
±
²
³
´
µ
¶
·
¸
¹
º
»
¼
½
¾
¿
À
Á
Â
Ã
Ä
Å
Æ
Ç
È
É
Ê
Ë
Ì
Í
Î
Ï
Ð
Ñ
Ò
Ó
Ô
Õ
Ö
×
Ø
Ù
Ú
Û
Ü
Ý
Þ
ß
à
á
â
ã
ä
å
æ
ç
è
é
ê
ë
ì
í
î
ï
ð
ñ
ò
ó
ô
õ
ö
÷
ø
ù
ú
û
ü
ý
þ
ÿ
Ā
ā
Ă
ă
Ą
ą
Ć
ć
Ĉ
ĉ
Ċ
ċ
Č
č
Ď
ď
Đ
đ
Ē
ē
Ĕ
ĕ
Ė
ė
Ę
ę
Ě
ě
Ĝ
ĝ
Ğ
ğ
Ġ
ġ
Ģ
ģ
Ĥ
ĥ
Ħ
ħ
Ĩ
ĩ
Ī
ī
Ĭ
ĭ
Į
į
İ
ı
Ĳ
ĳ
Ĵ
ĵ
Ķ
ķ
ĸ
Ĺ
ĺ
Ļ
ļ
Ľ
ľ
Ŀ
ŀ
Ł
ł
Ń
ĠØ
Ø§
ÛĮ
ÙĨ
Ø±
Ùĩ
ÙĪ
Ùħ
Ø¯
Øª
Ġt
Ú©
ĠØ¨
ĠØ§
he
Ġa
ĠÙħ
ÙĦ
Ø³
in
Ġâ
ĠâĢ
ĠÚ©
ĠØ¯
ĠâĢĮ
Ø´
Ø²
Ġthe
Ø§ÙĨ
re
Ø¨
Ġo
Ġs
Ġw
Ú¯
Ùģ
ĠÙĪ
Ø§ÛĮ
er
ĠØ±
nd
ĠÙĩ
at
Ø§Ø±
Ø³Øª
ÙĨØ¯
ÙĤ
on
is
ĠØª
ĠÙĨ
ĠØĮ
ou
it
Ġc
ed
Ġb
ĠØ´
en
ÛĮÙĨ
ĠÙħÛĮ
ÙĪØ¯
Ġh
Ġf
or
ĠØ¯Ø±
Ġm
ĠØ¨Ùĩ
an
ing
Ġof
Ù¾
es
ĠØ¢
ĠÚ©Ùĩ
Ġto
ĠØ®
ĠØ³
ar
Ġp
Ø¹
Ø±Ø¯
Ġin
Ġd
al
ĠØ±Ø§
Ġand
as
Ġth
ÚĨ
Ø®
ĠØ§Ø²
Ø§Ø¯
Ġl
ĠÙ¾
ÛĮØ¯
Ø¬
ĠØ¨Ø§
ic
ĠÚ¯
om
ĠÛĮ
Ø§ÙĦ
Ø§Ùħ
le
Ġn
ØŃ
ÙĪØ±
ll
ĠØ¨Ø±
ion
ĠØ§Ø³Øª
Ġhe
ĠØ§ÛĮÙĨ
ĠØ¬
Ġg
Ġe
ĠØ¨ÙĪØ¯
Ġbe
ly
ÙģØª
ĠÚĨ
ÙĪÙĨ
Ø§Ùĩ
ot
st
ĠÙģ
ad
Ø·
ve
Ø´Øª
ent
ow
ut
ĠØ¢ÙĨ
ĠØ²
Ø±ÛĮ
ĠØŃ
im
ÙĦÛĮ
id
Ġre
ĠÚ©Ø±Ø¯
se
ĠØ´Ø¯
Ġthat
Øµ
ÛĮÙħ
ĠÙĩÙħ
Ġy
ld
ac
ÛĮØ±
ĠI
et
Ġwas
Ġon
ĠØ¹
ro
ÙĪÛĮ
ĠÙĩØ§ÛĮ
Ġis
gh
ĠÙĤ
Ø§Ø¨
ver
ĠÛĮÚ©
ay
Ġu
Ġit
ÙħÛĮ
ir
Ø§Øª
Ġyou
am
ur
ĠÚ©ÙĨ
Ġfor
Ġwh
Ġ(
Ø§Ø²
The
ĠØ§ÙĪ
ith
Ġst
Ġwe
ÙĪØ§ÙĨ
ĠÙĩØ§
ĠÙħÙĨ
Ø³ÛĮ
ct
ĠS
ĠÛ
ce
Ġwith
Ġas
ĠA
ri
ter
ch
ĠM
's
ØªÛĮ
ĠØ®ÙĪ
ĠC
Ġan
Ø¯Ø±
Ú¯Ø±
and
ÙĦØ§
ol
ĠØ§ÛĮ
ation
her
il
ĠØ®ÙĪØ¯
ĠØ¨Ø±Ø§ÛĮ
Ø®Øª
ÙħØ§
Ġhis
Ø±ÙĪ
Ø±Ø§
Ø¶
if
Ø§Ø´Øª
Ġat
Ø§Ø±ÛĮ
ĠØ±ÙĪ
ght
ÙĪÙĦ
ĠØ§ÙĨ
ÛĮØ²
ke
Ø§ÙĨÛĮ
ĠØ¨ÛĮ
ÙĩØ§
Ġnot
Ø§Ø¯Ùĩ
Ø¸
Ġha
ĠØµ
od
Ø°
Ġse
ĠØ·
ul
ĠÙĦ
Ġhad
ould
ain
ĠØ¯Ø§Ø±
Ġ"
Ġ1
ĠÙħÙĪ
ĠP
th
Ġde
ill
ag
us
op
Ġher
Øº
Ø¯Ùĩ
ĠØ´Ø¯Ùĩ
ĠB
Û°
ore
ĠØ¯ÙĪ
Ø§ÛĮÛĮ
ÙħØ§ÙĨ
Ġme
ist
Ú¯ÛĮ
Ø«
ess
rom
..
Ġcon
um
ĠØªØ§
Ġcom
ØªØ±
pe
ĠØªÙĪ
Ġr
Ġk
Ø¨Ùĩ
ĠØ¯ÛĮ
Ø§ÙĨÙĩ
Ø§Ø³
Ġare
ab
Ø¦
ĠØ³Ø±
Ġby
red
ĠÚ©Ø§Ø±
ĠÚ¯ÙģØª
un
Ø¢
ant
Ġsh
Ġ*
Ġor
em
Ø¨ÛĮ
Ġhave
ÙĨÚ¯
os
Ø§ÙĤ
el
ers
Ġhim
Ġne
Ú©Ùĩ
ĠØŁ
Ġli
Ġex
qu
Ġthis
ĠØ¯Ø§Ø´Øª
ĠG
ĠÙ¾ÛĮ
est
ĠØªØ±
ĠR
Ġfrom
Ø§ÛĮÙĨ
Ġsu
ĠD
±Û
pp
Ġdo
ĠÛĮØ§
Ġal
ate
ĠÙħØ§
Ġv
ÙĨÛĮ
ig
ĠØ¨Ø§Ø´
ĠÚ©ÙĨØ¯
Ġso
ĠÙģØ±
res
ity
ĠÙĨÙħÛĮ
nt
ĠL
ĠT
ÙĩØ§ÛĮ
art
Ġpro
ard
all
Ġall
ĠH
ĠØ³Ø§ÙĦ
out
ort
Ú¯Ø§Ùĩ
Ø¯ÛĮ
Ġgo
Ú©ÛĮ
ust
ĠF
ĠE
ok
ĠØ¯Ø³Øª
Ġab
Ġlo
Úĺ
Ø¨Ø±
ap
Ġch
ĠÚ¯Ø±
ich
Ø§ÙĪ
Ú©ÙĨ
Ġthey
Ġ2
Ġwor
au
ĠØªÙĪØ§ÙĨ
ĠØ¢Ùħ
ÙĤÛĮ
ĠØ¯Ùĩ
Ġshe
ome
ÙĩØ±
Ø§ÛĮØ¯
ÙĦÙĩ
ĠÙĨÛĮ
Ø¹ÛĮ
ĠØ´ÙĪØ¯
ĠØ¯Ø§Ø¯
ĠØ§Ùħ
Ġ=
Ø§Ø±Ùĩ
ĠØ§ÙĨØ¯
Ġwhe
ive
Ġwere
ie
ally
ÙĨØ¯Ùĩ
ĠÙĩØ±
't
ĠÂ
ĠN
ÛĮØ§
Ġsa
Ġmy
He
ĠÙħØª
ĠØ¨Ø§Ø²
very
ĠW
our
rou
Ø´Ø§ÙĨ
ies
ak
Ø¨Ø§
ÙģØ±
Ġcan
Ġone
Ġint
ĠÙĩØ³Øª
ast
ĠÛ±Û
Ø¹Ø¯
ÛĮØ¯Ùĩ
Ġup
Ġkn
ight
ame
ĠÙħØŃ
ge
ous
Ġle
Ø±Ùģ
00
ĠØŃØ§ÙĦ
ĠØº
ry
Ø§Ø®Øª
ong
ind
ell
ÙĪØ´
Ú©Ø±
Ġj
ci
Ġwhich
iv
ack
ĠØ®ÙĪØ§Ùĩ
ide
Ġout
ÙĪÙħ
Ø¨Øª
ĠJ
ĠÚĨÛĮØ²
ĠØ§Ø³
ĠÙħØ¹
ÙħÙĨ
ment
one
ÙĪØ±ÛĮ
ĠÚĨÙĩ
ra
ÙĬ
Ġwho
Ġwould
ÙĩÙħ
Ġthem
Ġus
ĠÚ©Ø´
Ġbut
And
ÙĢ
ure
It
Ø§Ø³Øª
ĠØ¨Ø¯
ĠØ±ÙĪÛĮ
Ú©Øª
ost
ÙģØªÙĩ
Ġman
ther
ÙĪØ²
ine
ÚĨÙĩ
fe
Ġpl
Ġ19
ud
ĠØ´ÙħØ§
ĠØ¯ÛĮÚ¯Ø±
Ùĭ
Ġthere
Ġabout
ĠÙ¾Ø±
pt
ĠØ§ÙĦ
Ġtheir
ĠØ±Ø³
ĠÙĨØ¯
Ġ-
own
ĠÚ©Ø±Ø¯Ùĩ
ÙĶ
Ġwhat
ĠØ§Ø´
Ø§Ø¯ÛĮ
ĠÙĩÙħÙĩ
Ø¬Ùĩ
ĠØ¯Ø§ÙĨ
ace
ĠØ¨Ø§Ø´Ø¯
ear
Ø§ÙĦÛĮ
ĠÙħØ±Ø¯
ĠÙ¾ÛĮØ´
ĠÙħØ±
ran
ĠÙĨÙĪ
ĠÙĨØ¸
Ġbeen
lo
ĠÙĤØ±
Th
ĠÛ²
ated
ia
ber
ime
Ġno
¹Û
sel
Ø§Ø±Ø¯
ĠÚ¯Ø°
Ġsaid
ck
ĠÚ©ÙĨÙĨØ¯
Ġ'
ÛĮÙĦ
Ø¬Ø§
Ġlike
ĠØ¯Ø§Ø±Ø¯
Ġmore
Ø®ÙĪ
ake
are
ian
ĠÙĩÛĮ
ĠØ¨Ø²
ice
ÛĮÙĦÛĮ
Ġim
ond
ĠØ±ÙģØª
ÙĨØ§
ĠÚ©ÙĪ
Ø§ÙħØ§
act
Ġun
ĠÙħØ´
age
Ġag
pl
ÙĤØª
ĠÙĨØ§Ùħ
itt
og
ink
Ø§Ùģ
ass
Ġen
In
...
ĠK
Ġpe
per
ĠÚ©Ùħ
ĠO
ĠâĢĵ
Ġcould
ven
Ø¹Øª
ĠÙĨÙħ
Ø´ÛĮ
iz
ions
Ġwhen
ite
hing
ru
ĠÚ©ÙĨÙħ
ĠU
Ġother
ĠØ§Ø±
ĠØªÙĨ
hed
Ø¬ÙĪØ¯
Ġdis
ĠØ§Øª
Ġar
ip
ĠÙħØ³
so
Ø§ÙĨØ¯
ound
ĠØ§ØŃ
Ġhas
ĠØ±ÙĪØ²
ary
Ġif
Ġcomp
Ġinto
ÙħÛĮÙĨ
Ġsome
ence
ÙħÙĪ
Ġro
Ø¹Ùĩ
ĠØ¨ÙĪØ¯ÙĨØ¯
ĠØ¨ÛĮÙĨ
Ø±Ùĩ
ĠØªÙħ
Ġqu
Ġsp
reat
Ġyour
ĠØ³ÛĮ
Ġtime
ĠÙĨÙĩ
ble
Ġtw
ep
ĠÙĨÛĮØ³Øª
Ġany
able
Ø¯Ùħ
ical
Ø³ØªÙĩ
cc
Ġknow
ĠØ´ÙĪ
ĠÙĨØ´
ĠÙ¾Ø³
ĠØ²ÙĨØ¯
Ġfe
ÙĨÛĮÙĨ
Ġwill
ĠÙĪØ§ÙĤ
Ġbec
Ø¯Ø§
But
Ġdid
ÙĤÙĩ
ĠÙĨØ§
Ġlook
ause
self
Ø´Ùħ
Ġaf
ople
ount
ress
ree
ish
ĠØ¨Ø³ÛĮ
ĠØ±Ø§Ùĩ
Ú©ÙĦ
Ø±Ø¯Ùĩ
ĠØ²ÛĮ
ĠÙħÙĤ
ĠÂ»
ire
ĠV
Ġad
ang
Ġover
ays
av
ÛĮÚ©
ĠØĽ
Ø´Ùĩ
Ġpr
ĠÚ©ÙĦ
ose
ĠÙħØ¯
Ġthan
Ø±Ú¯
ĠØ§ÙħØ§
te
Ù¾Ø³
ĠØ¨Ø§ÛĮØ¯
for
Ġcl
Ø§Ø·
ÙĪØ³
ÙĤØªÛĮ
ÙģØ§Ø¯Ùĩ
irst
ÙĨØ¬
ren
Ø³ØªØ§ÙĨ
ile
ÙĪÙĨÙĩ
ign
Ø§ÛĮØ´
nder
ĠØ´Ø±
ĠØ´ÙĨ
Ø§Ø²Ùĩ
Ġpeople
ings
ĠÛ±Û¹Û
Ġper
ĠÙĨØ¸Ø±
Ø§ÙħÙĩ
ÙĦÙĪ
Ġvery
other
ĠÙħØ«
the
ach
Ġsee
ild
ĠØ§Ø³ØªÙģØ§Ø¯Ùĩ
ØªØ´
ĠØ¨Ø¹Ø¯
urn
ĠÙĪÛĮ
Ø¬Ø§Ùħ
Ø§Ø¯Ø±
ĠØ¹ÙĨ
Ú©Ø§Ø±
ĠÙ¾Ø§ÛĮ
ĠÙĩÛĮÚĨ
ĠÚ¯Ø±ÙģØª
Û°Û
ved
ĠØ¨Ø§Ø±
ÙĨØ§ÙĨ
ĠÙ
ĠÙĪØ¬ÙĪØ¯
ÙĪØ§
ĠÙħØ¬
ade
ĠØ§Ùģ
ĠØ¨Ú¯
Ġcont
ĠÙĤØ±Ø§Ø±
ect
ult
Ġthou
ory
Ġpart
Ø§ÙħÛĮ
ĠÙĨÛĮØ²
Ø¨Ø§Ø±Ùĩ
ĠØªØµ
Ġyear
port
bl
Ġonly
ĠØ³Ø§Ø®Øª
ÙĨÙĩ
ance
ĠØ¯ÙĪØ±
You
ĠØ¯ÛĮØ¯
ĠÚĨÛĮØ²ÛĮ
ations
ĠØ¬Ùĩ
ĠÙģÚ©Ø±
Ġte
Ø²ÛĮ
Ġfirst
Ġour
ĠÙĩØ³ØªÙĨØ¯
ÙĤØ·
Ġam
ff
ĠØ¬Ùħ
ĠÚĨÙĨØ¯
Ġres
Ġco
Ġjust
ĠÂ«
ĠØ®ÛĮÙĦÛĮ
Ø´ØªØ±
ĠØªØŃ
Ġtwo
Ø´ØªÙĩ
Ø®Øµ
ĠÙĨØ¨
ĠØ§ÙĨÚ¯
Ġwork
ĠSt
ue
ĠØ¹ÙĨÙĪØ§ÙĨ
ĠØ§Ø¬
Ø²Ø§Ø±
Ø¨Ø§ÙĨ
cl
ick
ĠÙħÙĪØ±Ø¯
wn
Ú¯Ùĩ
Ġ--
ÙĪØ±Øª
ĠÙħØ§ÙĨ
ĠCh
Ġthen
Ġspe
we
Ġnow
ĠØ§Ú¯Ø±
ÙĪÙĦÛĮ
ĠØ¹Ùħ
Ġthink
Ġgr
ÛĮØª
ĠØ¨Ø®
ÙĪØ±Ø¯
She
ater
ĠØªÙĪØ³
Ø¢ÙĨ
ĠÚ©Ø±Ø¯ÙĨØ¯
Ø´ÙĨ
Ġbo
ĠØ¨ÙĦ
Ġoff
Ø§Øµ
ĠØ²ÙĨØ¯Ú¯ÛĮ
Ġhow
ĠØ²ÛĮØ±
ĠâĢ¬
ĠØ¨Ø²Ø±Ú¯
ĠØ¯ÙĦ
ĠØ¯Ø§Ø¯Ùĩ
ark
but
Wh
ÙħØª
Ġfo
ife
ĠØ§ÙĨØ¬Ø§Ùħ
Ġalso
right
ens
ĠØ§Ø·
ĠØ³ÙĪ
Ġevery
Ġagain
ĠÙĪØ§ÙĤØ¹
ord
tern
ĠÚ©ÙĨÛĮÙħ
ĠÛĮÚ©ÛĮ
ĠØ·ÙĪØ±
Ġdes
Ġbet
ÙĪÙĩ
Ø¦ÛĮ
Ġget
Ġbr
ft
ĠØ¨Ø±Ø¯
ĠØ²Ø¯
Ġpo
ew
ĠØ¨Ø³ÛĮØ§Ø±
ction
ĠØ§ÙĨØª
mer
So
Ø§ØŃ
ĠØ§Øµ
Ġunder
Ġthese
ial
fore
Ġback
Ġsm
Ú©Ø§ÙĨ
alk
Ø³Ùĩ
Ġ/
vel
ÙĦØ¨
Ú¯Ø±ÛĮ
They
ĠØ³Ø§Ø²
vers
ĠÙĨÙĤ
ict
ĠÚĺ
ĠØ®Ø§ÙĨ
ase
uch
Ú©Ø³
ĠØ§ÛĮÙĨÚ©Ùĩ
Ġwant
Ġits
ÙĪØª
ĠØ¯ÙĩØ¯
ĠØ´ÙĩØ±
ĠÚ©Ø±Ø¯ÙĨ
Ġhand
ons
ÙĪÙĨÛĮ
ov
ĠÙĨÚ¯Ø§Ùĩ
ĠØ§ÙģØª
Ġ20
ĠÙĩÙħØ§ÙĨ
omet
Ø¯ÛĮØ¯
ied
ĠÚ©Ø±Ø¯Ùħ
Ø³ØªÙħ
Ø±ÛĮÚ©
ĠØªÙħØ§Ùħ
Ġpre
ĠØ¬ÙĨ
ĠØ¢ÙħØ¯
orn
ward
ious
ng
Ø£
're
Ġtr
du
ÙģÛĮ
ĠØ®Ø§ÙĨÙĩ
Ø§Ø±Øª
Ġsc
This
Ġdown
ĠÚ©ÙĨÛĮØ¯
Ø¯Ø§ÛĮ
Ø§ÙħÙĦ
ittle
Ø¶ÛĮ
Ġact
hen
ĠÙĩØ§ÛĮÛĮ
ather
ĠØ±Ø³ÛĮØ¯
Ġway
Ġsay
ors
Ġ200
Ø§Ø®
ĠØ¨ÛĮØ´ØªØ±
ĠØ§ÙĪÙĦ
ition
int
ĠÚ¯Ø±Ø¯
ÙħØ§ÙĨÛĮ
ĠThe
ĠØ§Ø¯
We
ces
Ø§Ø¨Ø±
Ġmost
iss
Ġafter
Ġwhere
Ġeven
ÙĪØ¨
Ø³Ø±
ath
Ø¨ÙĦ
).
ĠØ®ÙĪØ§ÙĩØ¯
ĠØ¯Ø§Ø´ØªÙĩ
ĠØ¢ÙĨÙĩØ§
ĠÙĩÙħÛĮÙĨ
ÙĲ
Ø§Ú©
Ġlittle
man
Ġnew
Ġfl
ĠØªÙĨÙĩØ§
ull
rough
Ġsy
ple
ily
Ġlong
ĠØªØ¹
ØªÙħ
ĠÙĩÙĨ
ood
ĠÙħØ·
ove
Ġbl
round
Ġcomm
ĠÙħØ«ÙĦ
Ġsuch
be
way
ĠØ´Ø¨
ĠØ¬Ø§ÛĮ
ĠØ²ÙħÛĮÙĨ
Ġmuch
ÙħÙĩ
ĠØ²ÙĨ
Ġworld
Ġgoing
ØªØ§Ø¨
ĠØŃØ±Ùģ
ÙĤØ§ÛĮ
Ġrem
Ø¸Ùĩ
Ġdon
ĠÙĨØ¨ÙĪØ¯
ĠÙĨØ²
Ø®ÛĮ
ĠÙħØ±Ø§
Ġmade
Ø³Ø§ÙĨ
ĠÙĪÙĤØªÛĮ
ĠØ´ÙĪÙĨØ¯
Ġright
ced
ĠØªÙĪØ³Ø·
ĠØ¶
Ú¯Ø§ÙĨ
ates
Ġbefore
gan
Ġdif
Ġbecause
ne
Ġform
ĠÚ¯ÛĮ
ĠØ§ÙĪÙĨ
ĠØ¬Ø§
ĠÚ©ÙĪÚĨ
oss
Ø§ÙĩÛĮ
ents
ĠØ¢Ø±
Ø¨Ø§ÙĦ
ĠUn
Ġthrough
Ġcall
Ø§Ø¨ÙĦ
ful
ØŃÛĮ
ough
Ġyears
ail
ince
ĠÚĨÙĪÙĨ
Ġ_
Ġshould
ys
ĠØµÙĪØ±Øª
Ġind
ØºÛĮ
Ġthought
ĠAr
Ø§ØªÛĮ
ĠØ³Ùĩ
ĠØ¨Ø§Ø²ÛĮ
Ġgood
Ġwr
Ġmay
Ġsomet
ÙħÚ©ÙĨ
Ġ3
Ġser
ave
Ø§Ú¯Ø±
ĠØªÙĤ
ving
Ġhere
Ġrec
ĠÙĨØ³
Ø³Ø§Ø³
ÙĨØ§ÙħÙĩ
form
".
Ġday
ans
ert
ĠØ®ÙĪØ§Ø³Øª
ĠÙĦØŃ
Ġcons
ĠØ¢Ø¨
ØªØ§
ited
ĠØ¢Ø²
ĠÙĨØ´Ø§ÙĨ
ars
rent
ness
ÙĨØ¯ÛĮ
ĠÛĮØ§Ø¯
ĠØ´Ùħ
ĠØ¢ÙĪØ±Ø¯
ĠØ²ÙħØ§ÙĨ
Ġey
Ġmake
ĠÙħÛĮØ§ÙĨ
Ġlife
ĠÙģÙĤØ·
Ø¬ÛĮ
ÙĪÛĮÛĮ
end
ĠØ³Ø§
ational
ise
ty
ĠÚ¯ÙĪ
Ġapp
lect
ĠÙĩÙħÚĨ
ĠØ¨ÛĮØ±
ÛĮØ¯Ø§
Ø±Ùħ
Ġ201
Ø¨ÛĮÙĨ
aw
igh
Û°Û°
augh
ves
Ġown
Ø§Ø´
ĠØŃØ¯
ĠÚ¯Ø±ÙģØªÙĩ
ĠÙĦØ¨
Ġnever
ual
Ġold
ĠÙĨØ¯Ø§Ø´Øª
ually
Ġcount
Ú¯Ø²
ĠÚ©Ø´ÙĪØ±
There
ĠØ®Ø·
ÛĮØ´Ùĩ
Ø³ØªÛĮ
ÙĪØ¹
ĠØªÙĪØ§ÙĨØ¯
Ġwell
ÙĩÛĮ
ĠØ§Ø¹
ĠØ¯Ø§Ø±ÙĨØ¯
Ġmany
ÙħÙĦ
ĠIn
olog
Ġgen
ĠÙĨÙģØ±
air
Ġatt
ĠÚ©Ø³ÛĮ
ĠØ¬ÙĪ
Ġgreat
ĠÙħØ±Ø¯Ùħ
ĠØ®ÙĪØ´
'm
ĠØ´Ú©
ible
ject
Ġph
ÙĦÙģ
Ġcome
Ġrel
ĠØ¢ÙħØ±ÛĮÚ©
ĠØ¯Ø±Ø¨Ø§Ø±Ùĩ
Ø²Ùĩ
ĠØ°
ĠØ®ÙĪØ¨
Ġsec
Ø§Ø·Ø±
ĠY
Ġsame
Ġbu
ouse
Ġthose
ĠØŃØ±
ĠØµØŃ
ib
Ġused
Ġacc
ÛĮØ±Ùĩ
ÙģÙĩ
Ø³Ùħ
ĠØ¨ÛĮØ±ÙĪÙĨ
ĠÙĤØ¯Ø±
Ġhapp
ĠÚĨÙĨÛĮÙĨ
Ø§ÛĮØª
ĠÚĨØ´Ùħ
ĠÙħÙħÚ©ÙĨ
ØªØ±ÛĮÙĨ
ĠØ¢ÙĦ
aking
Ø¬Ø±
ried
Ġwom
les
Ġbeing
ØªÙĪØ§ÙĨ
ower
ĠØ·Ø±Ùģ
ĠÚ©Ø³
ob
ĠÙĪÙĦÛĮ
ĠØ§ØŃØ³Ø§Ø³
Ġcr
Ù¾ÛĮ
ĠØ¨Ø§ÙĦØ§
az
ĠØ´Ø¯ÙĨØ¯
ĠØªØºÛĮ
ody
ix
Ġtoo
ĠØ¬ÙĨÚ¯
Ø¹ÛĮØª
Ġask
Ø·ÙĪØ±
Ġac
Ġbel
ĠÙ¾Ø±ÙĪ
Ġend
Ġturn
ĠØªØ´
Ø±ÙĪØ¹
ĠÚ©Ø§Ùħ
ĠÙħØ§ÙĨÙĨØ¯
Ø®ØªØ±
stem
ĠØ¯ÙĪØ³Øª
ĠÙĪÙĤØª
ĠØ¯ÛĮÚ¯Ø±ÛĮ
hes
ÙĩÙĨ
ank
thing
ØŃØ§ÙĦ
've
old
Ġem
Ġke
Ġmust
ĠÚ¯Ø±ÙĪ
ĠØ¨Ø¯Ùĩ
ms
ics
Ġneed
aid
Ġsl
oc
Ġwent
oth
Ø¨Ø§Ø±
ĠØ´Ùĩ
Ú©ÙĪ
ĠØŃØ³
ĠØ¹ÙĦ
ubl
ĠÙģØ±ÙĪ
ĠÙ¾ÛĮØ¯Ø§
ÙĪÙĤ
Ġcar
ĠØºÛĮØ±
ĠØ¨ÙĨ
ĠØ¨ÙĪØ¯Ùħ
Ø§Ø²ÛĮ
ĠÙĪØ±
ec
ĠØªØºÛĮÛĮØ±
ĠØ¨Ø§ÙĦ
ph
Ġlet
ween
Ø±ÛĮÙĨ
Ø²Ø´
Ġcame
Ġchild
ating
ĠØ·ÙĪÙĦ
ĠØ´Ø±ÙĪØ¹
Ġob
Ġthree
Ġhead
pect
Ġhum
ĠÙģÛĮÙĦ
Ø´Ø¯
ting
What
ĠØ¢ÙĨØ¬Ø§
ĠØ¨ÙĪØ¯Ùĩ
ĠØ¸
Ø§ÛĮÙĦ
cess
ÛĮÙĨÙĩ
ĠØ¯Ø§ÙĨØ´
land
ĠÙ¾Ø´Øª
ĠØŃØªÛĮ
Ġent
imes
led
ÙĪØ§Ø±
ÛĮÙĨÛĮ
ĠØ¨Ø±Ú¯
ared
Ġdiffe
Ġstill
ont
ĠÛĮÙĩ
Ġhimself
ened
ĠØ®Ø§Ø·Ø±
Ġtake
ĠÚ¯ÙĪØ´
ĠÛ²Û°
ÙĪØ¯ÛĮ
Ø«Ø±
ĠMr
Ġsomething
gin
ĠØªØ§Ø±ÛĮ
ĠÚ©ØªØ§Ø¨
ĠØ®ÙĪØ¯Ø´
Ġfound
cial
vent
ĠÚ¯Ø°Ø§Ø´Øª
Ġgot
fect
Ġop
ÛĮÙħÛĮ
ady
ning
ĠÙħÙĩ
Ġdist
get
ĠÚ©ÙĪÚĨÚ©
ØªÙĪ
Ø§Ø¶
),
Ġbetween
ier
ØµØ¯
'll
ĠØ¨ÛĮÙħ
Ø®ÙĪØ§Ùĩ
ĠÚ©Ø´ÛĮØ¯
ĠÙ¾ÙĨØ¬
Ġseem
Ġreg
ĠØ¨ÛĮØ´
rans
Ġear
ĠØ²Ø¨Ø§ÙĨ
aughter
Ġlast
Ġthings
Ġaway
Ġeyes
ĠØ«
Ġinc
Ġpers
ĠØ³ÙĦ
ĠØªØ¨
xt
ĠÙĨØ²Ø¯ÛĮ
Ġimp
Ġinst
ĠØªÙĪØ§ÙĨØ³Øª
Ġsur
Ġtell
ular
Ø§ÛĮÙĩ
ÙĦÛĮØ³ÛĮ
ĠØªØ±ÛĮÙĨ
gg
ĠØ§ØªØ§ÙĤ
Ġstart
ros
Ġset
Ġmight
ĠØ§ÛĮÙĨØ¬Ø§
ased
ĠÙĥ
Ġword
ĠÙħØ§Ùĩ
ĠØ³ÙĨ
ĠÚ©Ø§Ø±ÛĮ
Ġuse
¸Û
uring
ĠØ¯ÙĨ
Ø¹Ø§Øª
ric
Ġreally
ific
und
Ġ{
Ġtalk
Ġsystem
ere
ows
cept
ĠØªÙĪÙĦ
wh
ÙģØ§
ĠØ¬Ø²
ĠØ§Ø®
Ġter
ĠÙĨÚ©
ĠÚ©ÙĨØ§Ø±
ĠØ³Ø®
Ġ4
ĠØ¨Ø¯ÙĪÙĨ
Ú¯ÙĪ
Ø§Ø¨ÛĮ
Ġfeel
Ø±Ø¨
ĠØ§ÙģØ±
ĠÙ¾ÛĮØ±
ÙħØ¯
ĠØ®ÛĮ
Ġfam
."
ØªÙĪÙĨ
ĠØ¯Ø®ØªØ±
ities
Ġcol
Ġpass
Ø³ÛĮØ¯
ĠØ§Ø·ÙĦØ§
gr
Ġmat
Ġpol
ĠÛ²Û°Û
ĠØ´Ø¯ÙĨ
Ġsupp
ĠÙ¾Ø§
ĠØ¬Ø§ÙĨ
ident
ĠØ¯ÙĨÛĮ
ah
Ġroom
Ġret
ork
Ġdec
ĠÙħØµ
Ġwithout
ÚĺÛĮ
als
ÙĦÛĮÙĦ
Ø¨Ø±Ø§ÛĮ
ĠÙĤØ·
Ġput
ÙĪØµ
ĠØªØ£
Ġgl
ered
ĠØ±ÛĮ
ĠØ´Ø±Ú©Øª
Ġap
ĠÙħØ§Ø¯Ø±
That
Ġpres
ever
ĠÙ¾Ø¯Ø±
Ġsub
³Û
Ù¾Ø±
cho
ished
Ø¯Ø§Ø±
ĠØ®ÙĪØ§ÙĨ
ĠØ¬Ø¯ÛĮØ¯
Ġinter
ÙĩÙĨÚ¯
If
ĠÚ©ÙĦÛĮ
Ġface
Ġnum
ĠØ¯Ø±Ø³Øª
ĠÙħÙĦ
cy
Ġeach
li
arch
ÙĤØ§
Ġstud
ways
Ø®Ø§ÙĨÙĩ
ĠÚ©ÛĮ
ale
ĠØ¯Ø§Ø±Ùħ
ĠAir
ĠÛ±
ĠØ¨Ø®Ø´
clud
Ø§ÙĨØ³
Ġaround
Ġsim
ĠØ´Ø®Øµ
ĠØ¬ÙĩØ§ÙĨ
ĠØ¯Ø±ÛĮØ§
ĠÙħØ³Øª
ĠØ¢ÛĮ
up
ĠÙĨÙħÙĪØ¯
its
ĠØŃÙĤ
ĠÙĩÙĨÚ¯
Ø±Ø§Ùĩ
Ġmen
Ġexp
ĠÙĩÙĨÙĪØ²
ative
ĠØ¹ÙĤ
ĠÚĨØ±Ø§
ĠØ¨Ø´
ret
Ġlar
Ġgu
ĠÚ¯Ø±ÙĪÙĩ
Ġcalled
Ø¨ÙĪØ±
ĠØ§Ùĩ
owing
ĠTh
Ġhel
Ġins
Ġthing
Ú©Ø²
ures
Ġdoes
ĠØµØ¯Ø§ÛĮ
Ġprodu
Ġgener
When
ĠØ§ÛĮØ§ÙĦ
ĠØ¨Ø¹
ĠÙĦÛĮ
ĠØ®Ø§Ø±
ters
Ġreal
ĠØ¨ÚĨÙĩ
Ġleft
ĠØ®Ø±
ĠÙħÛĮØ²
Ġmet
Ġanother
ĠÛ²Û°Û°Û
ĠÙħØ®
ĠØ§Ø¹Øª
ĠØ¬ÙĪØ§ÙĨ
ĠÚĨÙĩØ§Ø±
ten
ĠÛĮØ§ÙģØª
ĠÙĨØ²Ø¯ÛĮÚ©
ps
arm
Ġdifferent
ub
here
Ġmon
Ùī
ĠØ±ÙĨÚ¯
ÙĪÙĤØªÛĮ
Ġcour
Ġ18
Ġtrans
ÚĺÙĩ
Ø§Ù¾
Ġ5
ĠØ¨ÙĦÙĨØ¯
ism
ĠØµØŃØ¨Øª
ĠRe
Ġmod
riend
ivers
Ø´ØªÛĮ
ĠÚ©ÙħÚ©
ĠØªÙĪØ¬Ùĩ
Ġadd
ØªÙħØ§
ĠÙħÙĪØ¶
ØªØ§ÙĨ
ĠÙħØªØŃ
Ġinv
ange
ĠØ¨Ø±ÙĨØ§ÙħÙĩ
Ġfind
Ġplay
As
Ø¯Ø§Ùħ
19
ĠØ²ÛĮØ§Ø¯ÛĮ
ĠÙħØº
Ġmom
Ġstr
ĠÙģÛĮÙĦÙħ
Ġlooked
oy
ner
ÙĩØ§ÛĮÛĮ
ĠÚ©ÙħÛĮ
ĠÙĨÛĮØ±
Ġhouse
ĠØ³Ø§Ø¹Øª
ution
ĠÛ²Û
ĠØ§ÛĮØ³Øª
hip
velop
Ø¯Ø§ÙĨ
Ø±Ø§Ùģ
ĠÙĦØŃØ¸Ùĩ
ĠØ¢ÙĤØ§ÛĮ
ÙĪØ·
ility
Ġfr
ĠØ¢ÙħØ±ÛĮÚ©Ø§
Ú©ÙĨÙĪÙĨ
ĠØ§Ø±Øª
ĠØ³ÛĮØ³ØªÙħ
ĠØ±ÙĪØ¯
ĠØŃØ±Ú©Øª
ĠØ¨Ø§Ø´ÙĨØ¯
Ø°ÛĮØ±
io
ÙģØ§ÙĤ
ĠØ®ÙĪØ±Ø¯
Ø¬Ø§Ø¯
Ġche
Ġtook
For
Ġlight
ĠØŃØ§ÙĦÛĮ
Ġwhile
ĠØ¯ÙĤÛĮ
Ġmin
ĠØ§ÙĨØ¯Ø§Ø²Ùĩ
owed
Ġplace
ĠØªÙĪÙĦÛĮØ¯
ĠÙĦØ§
alf
Ġbelie
ÙĤØ§Øª
ĠØ§ÙĪÙĦÛĮÙĨ
ĠÚ¯ÙĪÙĨÙĩ
ger
ĠØ®ÙĪØ§ÙĩÙħ
Ġlove
Ġmem
Ġnight
Ġfact
iness
How
Ġkind
meric
ĠØµØ¯
Ġalways
ĠÙĪØ§Ø±Ø¯
ized
Ġcent
ĠØ¢Ø´
Ø±ÙĪØ²
ĠØ§ÙģØªØ§Ø¯
den
Ġrep
Ġev
ĠÙħÙĩÙħ
ĠÙ¾Ø±Ø¯
Ġnothing
ĠØ§ÙĨØªØ®
ists
On
ĠØ§Ø¨
ross
ĠØ®Ø§ÙĨÙĪ
Ø´ÛĮØ¯
Ú¯ÙģØª
ØªÙĨ
ĠÙħÙĪÙĤ
Ġref
der
ĠØ¯ÛĮØ¯Ùĩ
Ġfin
ÙħÛĮÙħ
less
Ġair
ĠÙģØ¹
Ġfoll
ĠØ¯ÙĩÙĨØ¯
min
ĠÙĨÛĮØ§Ø²
ĠÙħØ®Øª
ĠØ³Ø¨
Ġpoint
ĠØ´ÛĮ
Ú¯ÛĮØ±ÛĮ
ern
Ġyoung
ĠØ®Ø§ÙĨÙħ
Ġcur
Ġupon
elt
Ġfriend
ĠLe
ĠØ§ØªÙģØ§ÙĤ
ĠØ§ÛĮØ¬Ø§Ø¯
ĠØ§ÙģØ±Ø§Ø¯
Ġsaw
Ø®ØªÙĩ
amp
Ġinclud
ĠØ§ÙĨÚ¯ÙĦÛĮØ³ÛĮ
Ġcap
ĠØ¯ÙĨØ¨Ø§ÙĦ
Ġposs
Ú¯Ø°
gy
ĠØŃÙħ
Ġunderst
Ġide
Ġsmall
ĠØ¢Ø®
ained
ek
ĠÚĨÛĮ
Ġdisc
ted
'd
ĠØªØ¬
Ġperson
ÙĨØ¯Ø§ÙĨ
to
vern
ĠØ´Ú©ÙĦ
ĠØŃØ¶
ĠØªÙģ
Ġ199
ments
Ġbeh
any
ote
ĠÙĩÙħÛĮØ´Ùĩ
ĠØ§ÙģØ²
ĠÛ²Û°Û±Û
Ø§Ø®ØªÙĩ
iet
ĠØ§ÙĨØªØ®Ø§Ø¨
ĠâĢİ
Ġgiv
ched
ts
ublic
ĠØ³ÙĪÛĮ
ĠØªÚ©
ĠÙĨØ³Ø¨Øª
Ø¨Ø¹Ø¯
arry
Ġcre
ages
ata
Ø§Ø¦
na
ĠØ§ÙĨØ³Ø§ÙĨ
ĠØ¢ÙħØ¯Ùĩ
ĠØ¹ÙħÙĦ
ĠØ²ÙħØ§ÙĨÛĮ
ĠØ¯Ø§Ø®
Now
Ġhelp
ĠØ¯ÙĪÙĦ
ĠAl
ĠÙĩØ§ÛĮØ´
ĠØ¯ÙĪØ¨Ø§Ø±Ùĩ
rist
ĠIs
ĠAmeric
ĠCom
Ġagainst
Ġfew
Ġknown
Ġhuman
Ø¡
ĠÙĨØ¯Ø§Ø±Ø¯
ĠÙħÙĪØ¶ÙĪØ¹
Ġhigh
ĠÙĤØ¨ÙĦ
ĠÙ¾ÙĪÙĦ
ĠÚ©ÙĪØ¯
ÛĮØ²ÛĮ
ĠÙĪØ§ÙĤØ¹Ø§
·Û
ĠØ§Ø¯Ø§ÙħÙĩ
chool
ĠÙĩÙħÚĨÙĨÛĮÙĨ
ĠØ³Ùģ
ĠÙħÛĮÙĦÛĮ
she
ÙĪÙĨØ¯
oun
ĠØŃØ§ÙĦØ§
ĠÙģØ±Ø¯
ÙĤÙĦ
Ġexam
ĠÙħÙĨØ·
ax
Ú¯ÙĪÙĨÙĩ
ØªÛĮØ¬Ùĩ
ĠØ±ÙģØªÙĩ
ĠÚ¯ÙĦ
ĠÙĨØ¯Ø§Ø±
Ġonce
Ġconf
Ø¨Ø§ÙĨÛĮ
Ġthough
Ġmind
ĠØ¨Ú¯ÙĪ
Ø¨Ø·
aph
Ġever
Ø¯ÛĮÚ¯Ø±
Ø¹Ø¯Ø§Ø¯
ĠÙĨÙģ
ĠØ¢Ø¯Ùħ
ik
ÙĨÙħ
uc
Ġbegan
oice
ĠØ¨Ø¨ÛĮÙĨ
ĠØ®ÙĪØ§Ø¨
ense
Ġfour
Ġstand
rit
Ġmoment
ute
ÙĪØ³Øª
Ġbetter
ology
ĠÙĤØ¯
ÙĨØ´
said
day
Ġsign
ĠÙĤØ§Ø¨ÙĦ
Ġed
ired
ĠDe
Ġdevelop
ĠÙĪØ§
ĠÙĩÙħØ±Ø§Ùĩ
ĠÙħÛĮÙĦ
Ġart
irl
con
ash
ĠØ¬ÙĦÙĪ
ertain
ically
Ø±Ø®
outh
chn
uss
ula
Ġboth
ield
Ġname
ines
ĠØ³Ø±ÛĮ
ĠØ³ÛĮØ§
Ø¨ØªÙĩ
Ø§ÙĪØª
ÙĪÛĮØ³
osed
ĠØ¨ÙĩØªØ±
Ġpower
ÙĪÛĮØ´
ÙĦØ³
At
Ġhome
ĠÙģØ±ÛĮ
ality
ĠØ§ÛĮÙħ
ĠAirport
uth
ĠØŃØ§Ø¶
ÙĪØ¯Ùĩ
Ġhard
Ġwater
ĠØ´Ø§Ùĩ
ĠØ¹ÙĦØ§
Ġel
ices
Ø§Ø¨Ø±Ø§ÛĮÙĨ
Ġdire
Ø¹ÙĨÛĮ
ĠØ±ÙĪØ´
ĠØ¨Ø±Ø§Ø¨Ø±
ĠØ¯ÙĦÛĮÙĦ
rew
Ġsecond
ĠÙĪØŃ
ĠØ®Ø§ÙĨÙĪØ§Ø¯Ùĩ
Ġgive
ĠØ®ÙĪØ¯Ùħ
ĠÚ¯ÙģØªÙĩ
Ġdr
Ġfil
000
iew
ĠØ¯Ø§Ø±ÛĮÙħ
ĠÙĨÛĮÙħ
Ġass
Ø§ÙĪØ±
ĠØ¢Øº
Ġheart
Laughter
ĠØ¨ÙĪ
Ġcare
ĠØŃÙĦ
Ø§ÙĨÚ¯
ural
´Û
ĠØ¢ÙĨÚ©Ùĩ
ĠÚ¯Ø±ÛĮ
ĠÚ©ÙĨÙĨØ¯Ùĩ
Ġprov
Ġcomple
ĠÚ©ÙĨÛĮ
ĠÙĤØ¨
arn
Ġmean
ĠØ³ÙĨÚ¯
Ġrest
ĠØ§ÛĮØ±
ĠÚĨÙĨØ§ÙĨ
ĠÙĨØªÛĮØ¬Ùĩ
Ġread
ex
most
ĠØ¯Ø§Ø³Øª
Ġquest
Ø³Ø§
ĠØ²Ø¯Ùĩ
Ġappe
Ġbook
ĠÙħØ¯Ø±
¶Û
ug
Ø¹Ø«
ÛĮØ¯ÛĮ
ĠÙħØ¯Øª
Ġmother
ÙĤØ¯Ø±
ĠØªØ§Ø¨
Ġsw
ĠÛµ
Ġfather
Ø±Ø´
ĠÙĩÙĪØ§
Ø§ÙģÛĮ
Ġknew
ined
Ġtold
Ø§Ø²Ùħ
ĠØ³Ø·
Ø§ÙĦÙĩ
ĠÙĨØ®
ĠØ³Øª
ĠØ¯Ø§ÙĨØ³Øª
Ġfelt
ĠÙ¾Ø§ÛĮÛĮÙĨ
ĠØ´Ø§ÛĮØ¯
ÛĮØ¯ÙĨ
alth
Ġseemed
Ġdidn
ently
ĠØ§ØµÙĦÛĮ
ÙħØ±Ø¯
Ġblo
ĠÙħØ§Ø±
Ø§Ø¨Øª
ering
oh
ins
ock
ook
ĠØ³Ø§Ø®ØªÙĩ
ĠØ¨Ú©
ĠÙĤØ§ÙĨ
Ġasked
Ø¬Ø¨
ĠÙħØ§ÙĨØ¯
ene
ĠØ¯Ø§Ø´ØªÙĨØ¯
ÙĩØ±Ùĩ
com
Ø±Ø²
Ġtry
ĠØ¢ÙħÙĪØ²
orm
ĠÙĪØ¶
Ø±Ø³ÛĮ
Ġsk
ĠØ¬ÙĪØ§Ø¨
aps
ĠØ¨ØªÙĪØ§ÙĨ
Ġbus
Ġ6
ĠØ¢ÙĨÚĨÙĩ
ĠNew
Ġnumber
ina
Ø¤
Ġdet
angu
ised
ĠØ¨Ø§Ø¹Ø«
Ġcle
Ø¨Ø±ÛĮ
ĠÙģØ¶
ĠÙģØ±ÙĪØ¯
Ù¾Ø§
Ú¯Ø±Ø¯
ason
Ġwalk
Ġpartic
No
Ġloc
ĠÚ¯Ø°Ø´ØªÙĩ
Ġwomen
ĠZ
wards
akes
Ġsol
ement
Ġvis
Ú©ØªØ±
Ø®ÙĨØ¯Ùĩ
ature
ĠÚ¯ÛĮØ±
ÙĦØ§ØŃ
Ġside
ĠÙĨÚ¯Ùĩ
ĠÙħÙĨØ¸
oney
Well
ĠØŃÛĮ
ird
erv
Ġsince
Ġinf
Ġext
ĠØ³Ù¾
ÙħØ²
ĠØŃÙĤÛĮ
ĠØ´Ø§ÙħÙĦ
Ø¨Ø§Ø²
ĠSh
Ø·ÛĮ
br
Ġchar
Ø¨ÙĨ
ung
ĠØ¨Ø³ÛĮØ§Ø±ÛĮ
Ġactually
Ø±ÛĮÙģ
ĠÙ¾Ø±Ø³ÛĮØ¯
ĠÙħÙĨØª
ants
Ø¨Ø¯
Ġmed
iversity
His
Ġwind
Ġunderstand
ĠÙģØ±Ø§ÙĨ
ĠUnited
Ġimport
ither
cri
atch
ately
ize
ĠÚ©Ø±Ø¯ÛĮÙħ
ĠÙħØ±Ú¯
Ø²ÛĮØ±
Ġfamily
ĠØ®Ø§Øµ
ĠÙĨÙĪØ¹
Ġexper
ĠÙħØªÙĪ
Ø±ÛĮÙĤ
Ġhands
ains
ĠÙĨØ§ÙħÙĩ
Ġunt
Ġlooking
ÚĨÙĪÙĨ
cent
ĠØ§Ø·ÙĦØ§Ø¹Ø§Øª
Ġdone
ĠÙ¾Ø§Ø³
Ġocc
Ġmo
ĠØ¯Ø±Ø¢
ĠØ´Ø§ÙĨ
Ġopen
me
ley
Ġsing
ann
Ġseen
Ġless
ĠSe
Ġsil
ĠØ¢ÛĮØ¯
Ġhalf
Ġenough
ets
Ġdoor
Then
ĠØºØ°
ĠHe
Ġchildren
ĠSp
med
Ġgrou
ĠØ®Ø¯Ùħ
iting
Ġreturn
ĠØ¬Ø§ÛĮÛĮ
Ġbuild
ĠÙģØ±Ø§
ĠØªØµÙħÛĮÙħ
ĠØ¬ÙĩØ§ÙĨÛĮ
ĠÙħØªØŃØ¯Ùĩ
ĠØ²ÙĨØ§ÙĨ
Ġbre
ĠØªÙĦ
ĠØ®ÙĪØ¨ÛĮ
ĠPro
",
ĠØ³Ø®Øª
ĠØ§Ø«Ø±
ĠÙħØ´Ú©ÙĦ
ÙĪÙĦÙĪ
ĠAnd
Ġgirl
ĠØ±Ùĩ
Ġlater
Ġhour
ral
ope
ĠÙĨÙĪØ±
ĠØ¯Ø§Ø¯ÙĨ
ling
Ġlist
Ùĥ
ĠÙ¾Ø§Ø±
ĠØ·Ø¨ÛĮ
Ġtre
Ġheard
Ġrun
erest
ream
ĠÙģÙĩÙħ
ØµÙĦ
Ġmar
ries
ĠØ¯ÙĨÛĮØ§
Ø§ÛĮØ±
ury
ĠÙħÚ©
uro
ĠØ¬Ø§Ùħ
ÙĦÛĮÙĩ
aj
Ø±ÛĮØ¨Ø§
Ġtoget
Ġproble
ÙĨÙĪ
ĠØ®ÙĪØ±
ĠÙ¾Ø°ÛĮØ±
let
ĠØ§ÛĮØ§ÙĦØ§Øª
ron
Ġtogether
ember
Ú©Ùħ
ĠÙĩØ±Ú¯Ø²
ĠØ¢Ø±Ø§Ùħ
ĠÙ¾Ø§ÛĮØ§ÙĨ
Ø§ÙħØª
ĠQ
ÙĬÙĨ
ruct
Ġfar
Ġdays
ĠØ³ÙħØª
Ø§ÙĩØ§ÛĮ
Ġnext
Ġanything
Ø´ØªØ±ÛĮ
Ġgovern
Ġ10
ĠÙ¾ÙĪØ´
Ø§ÛĮÙĨØ¯
ĠØ¨Ú¯Ø°
Ø¯ÛĮÙĦ
de
Ġmus
Ġwa
ĠØ¢Ùĩ
ĠEng
ÙĩÙħÙĩ
ĠØºØ±
Ġoften
Ø¨Ø¹
ĠIt
Ġlead
ital
ĠØ¹Øµ
ĠØ§Ø³Ù¾
Ġduring
ĠØ®Ø´
Ġwoman
Ø§ÙĨÙħ
Ġelect
ĠØªÙĪÙĨ
ĠÙħØ¹ÙħÙĪ
Ġwhy
Ġnear
Ġsat
Ġexpl
Ø´ÛĮÙĨ
ided
unic
pped
Ġdef
An
fter
illion
Ġinterest
pend
Ġans
ĠØ¢Ø³
ÙĪÙģ
Ġpat
Ø§ÙħØ¨Ø±
Ġturned
Ġty
Ġlarge
Ġschool
ĠØ¨Ø³
ĠØ±ÙĪØ´ÙĨ
Ø±Ø§ØŃÛĮ
ĠØ§Ø´Øª
that
ÙĨØª
Ġcontin
ĠÙĨØ§Ø±
aring
Ø±Ø§Ø¦
ames
ĠØ¯Ø§Ø³ØªØ§ÙĨ
ĠÙħØ³Ø¦
Ġdem
Ġdesign
ably
Ġtechn
ĠØ§Ø¬Ø§Ø²Ùĩ
Ġcountry
ÙĦØ§Ùģ
Ú©Ø§
ÙħÛĮØª
ĠAs
ĠØŃØ¯ÙĪØ¯
Ġple
ĠØ¢Ø²Ùħ
ÙĦÙħ
ues
Ú©Ø±Ø¯
ĠØ§ÙĨØ¯Ø§Ø®Øª
ĠØ³Ø§Ø²ÙħØ§ÙĨ
ully
ĠØŃØ§ÙĦØª
ĠØ®Øµ
ØªÙħØ§ÙĦ
oll
Ø¨ØŃ
aint
ĠPr
formation
ĠØªØ§Ø±ÛĮØ®
ĠØ§ÙĤØª
Ġlot
Ġvar
ĠØ³ÛĮØ§Ùĩ
ĠInd
ĠØ¯Ø§ÙĨØ´Ú¯Ø§Ùĩ
ides
ĠÙĦØ¨Ø§Ø³
ĠØªÙħØ§
orth
ĠPh
ĠØ¬ÙħØ¹
Ġvoice
Ġmove
att
Ġcourse
Ġlangu
ĠÙ¾ÛĮÚĨ
Ø§ÙħÙĪØ´
Ġspec
Ġpop
aken
ĠØ§ÙĤ
Ø«ÛĮØ±
Ø¨Ø±Ø¯
ĠØ¢ÙĪ
Ø±Øª
ĠÙħØªÙĪØ¬Ùĩ
ØŃÙĩ
ĠGod
not
Ġprocess
Ġbro
Ġ198
Ø²Ø§Ø¯Ùĩ
Ġbest
Û±Û
aut
ĠØ³Ø±Ø§
erman
ÙĦØ§Ùħ
ĠØ¯ÙĪÙĦØª
ĠÙĩØ²Ø§Ø±
ĠØ±Ø§Ø³Øª
ĠØ¨ÙĪØ¯ÙĨ
Ġfore
Ø¨ÛĮÙĩ
Ġwords
gram
ĠØ¢ØºØ§Ø²
ĠÙ¾Ø³Ø±
ĠØªØ¨Ø¯ÛĮÙĦ
ĠÛ³
ÙĪØ§Ø¬
Ġcond
ØµÛĮ
ĠÙĦÙĪ
Ġkeep
Ġval
ØªØ±ÛĮ
ĠØ¯ÙĪÙħ
ĠÙĩØ³ØªÙħ
row
ĠÙħØ±Øª
Ġwhole
ĠÚ©ÙĪØª
Ġclo
ĠØŃØ§Ø¶Ø±
ĠÙĩÙĪ
ured
ĠØ§Ø±ØªØ¨Ø§
Ġtri
ĠAn
ĠÙħØ¬ÙħÙĪ
ĠØ§Ø¬ØªÙħØ§
Ġdirect
ĠØªØŃØª
Ġstop
ĠÙħÙĨØ·ÙĤÙĩ
raw
ĠØ´Ø¯Ùħ
ĠÙħÙĪÙģ
Ġuntil
Ġfive
Ġalmost
Ġequ
body
bed
ĠÚ¯Ø³Øª
ying
ĠØ¯Ø§Ø®ÙĦ
ĠÙģØ´
Ġorgan
Ġfun
Ø¯ÙĪ
ĠÙħÙĦÛĮ
Ġmoney
ĠØ¨ÙĢ
ĠÙħÙĪØ¬ÙĪØ¯
Ø¹Ø§
Ø³ØªÛĮÙĨ
Ġcertain
my
Ġ7
ĠFran
ogr
ĠØªÙĪÛĮ
ĠÙĤØ¯Ø±Øª
ĠWh
ĠØ³Ø®ÙĨ
ĠØ¹ÙħÙĪ
ĠØ¹Ø±
Ú©Ø§Ø±ÛĮ
Ø§ÙĨØª
ety
Ø±Ø§Øª
Ġformula
ĠØ®Ø¨Ø±
ĠØ²ÛĮØ±Ø§
ĠÚ©Ø±ÛĮ
Ġstate
Ġwar
Ġserv
Ġ8
Ġ9
Ġsci
ĠÙĪØ§ÙĦ
ĠØ¨ÙĦÚ©Ùĩ
ÙħÛĮØ²
els
Ġbecame
ĠØ§Ø±ÙĪ
ĠÙħØ®ØªÙĦÙģ
bers
Ġchange
ĠØ¢ÛĮØ§
ĠØªÙĪØ§ÙĨÙĨØ¯
ĠØ¯Ùħ
used
ĠØ¯Ø±Ø¯
Ø±Ø³
ton
ged
selves
ØŃØ§ÙĦØ§
Ø§ÙĨÛĮØ§
Ġexample
Ø¯Ùģ
aces
ĠØ²ÛĮØ§Ø¯
Ġadv
Ø®ÙĪØ±Ø¯
ĠÙĨÚ¯Ø±
ĠØ¨Ø³ØªÙĩ
Ġtru
ternational
ĠØ¯Ø±ÛĮØ§ÙģØª
ĠÚ©Ø§ÙħÙĦØ§
Ø¨Ø§Øª
Ġhaving
Ġdep
Ġappro
Ġquite
Ã©
Ġtimes
ĠØ³Ø§Ø²ÛĮ
ĠÚ¯ÙĪÛĮØ¯
Ġtra
une
ĠØ¯Ø§Ø±Ø§ÛĮ
ĠÛĮØ¹ÙĨÛĮ
uck
ĠØªÙĦØ§
Ġprot
ĠØ§Ú©ÙĨÙĪÙĨ
ĠØ§ÙĤØªØµ
ĠØ±ÙģØªØ§Ø±
ĠØ®Ø§Ø±Ø¬
Ġyet
Ġchang
orld
Al
ĠØ±ÙĤ
Ġpur
ery
ane
ĠChrist
ĠØ¨Ø§ÙĨ
Ġwanted
conom
ĠÚ©Ø§ÙĦ
ĠMar
ÙĦÙĤ
ĠØ´ÙĪØ±
ĠÚĨÙĩØ±Ùĩ
ĠØ¹Ø´
Ø¦ÙĨ
ĠØ¯Ø±ÛĮ
ĠStates
Ġhist
ĠØ³Ø±Ø¹Øª
Ġshall
ffect
ĠØ®ØµÙĪØµ
ask
ĠØ¯Ø§Ø¯ÙĨØ¯
Ùı
Ġdri
Ġable
Ġbig
ĠÙħØ·Ø§ÙĦ
ention
ÙĪÛĮÙĤ
ĠØ¨ØŃ
Ø§ØµÙĦÙĩ
ĠØ·Ø¨
ĠÙĪØ³
ĠØŃÙĤÛĮÙĤØª
ĠØªÙĤØ±ÛĮØ¨Ø§
ÙĤØ±
Ġwithin
yle
Ġdeath
ĠÚ¯ÛĮØ±ÛĮ
Ġlaw
rence
Ġpri
Ġcor
ision
ĠÙħØªÙģ
Ġdark
ĠØ®ÙĪØ§ÙĨØ¯
Ġimportant
ium
aster
Ø§ØªØ±
Ø§ÙĩØ´
ĠØ³Ø·ØŃ
Ú¯Ø§Ø±
Ø¸Ø±
ived
Ġconst
work
of
Ġmonth
ĠØ®Ø¯Ø§
Ġdel
Ġsound
Ġbody
Ú¯ÙĩØ§ÙĨ
ĠØ§Ø®Øª
ØŃØªÛĮ
ĠÚ©Ø´ØªÛĮ
Ú©ÛĮÙĦ
ĠØ¬ÙĦ
ĠÚ©ÙĨÙĩ
Ġ0
play
ĠØªØ§Ø²Ùĩ
ĠØ®ÙĪÙĨ
ĠØ¹ÙĪ
ĠØ´ÙĨØ§Ø³
Ġdoing
ister
Ġmil
ĠØ¸Ø§Ùĩ
ĠÙ¾Ø§Ø³Ø®
Ġblack
Ú¯ÛĮØ±
ĠAf
Ø³ÛĮÙĤÛĮ
Ġalong
ĠØ§ØŃØªÙħØ§ÙĦ
ĠØ¢ÙĨØ§ÙĨ
Ġresult
bs
ĠØ§Ø´Ø§Ø±Ùĩ
ĠØ¨Ø³Øª
ĠÚ¯ÛĮØ±Ø¯
Ġland
ĠÙĨØ®ÙĪØ§Ùĩ
ĠØ¨ÛĮÙħØ§Ø±
reen
Ġkill
ÛĮÙĨÚ¯
Ġeas
ĠÙĨÙĪØ´ØªÙĩ
ĠØ³Ø±Ø´
oke
ee
ĠØ¨Ø±Ø®ÛĮ
ĠEuro
Ø±ØŃ
Ø§Ø¬
ĠØµÙģ
Ġ{\
Ġ+
Ġpolit
ĠØ§Ø²Ø¯
ats
ract
Ġcontro
Ø©
Ġdata
ĠØªØµÙĪØ±
ĠØªØ¹Ø¯Ø§Ø¯
Ġidea
men
Ġmark
ĠØªØ±Ø³
Ġopp
ĠÙĩÙĨÚ¯Ø§Ùħ
My
ĠØ§Ø¶
Ø¬ÙĪ
ped
Ġrequ
ĠØªÙĪØ³Ø¹Ùĩ
ÙĪØ§ÙĨÛĮ
Ġeverything
ison
ĠØ·Ø±ÛĮÙĤ
Ġcity
ĠÙħÛĮÙĦÛĮÙĪÙĨ
ĠÙħØ«Ø§ÙĦ
Ġpublic
ĠÙĪÙĨ
Ġbelieve
ĠÙħÛĮÚ©ÙĨ
Ø²ÙĨ
Ø±ÛĮØ§ÙĨ
Ġbegin
Ġele
where
Ġest
Ġgave
ĠÚ¯ÙģØªÙħ
ĠÙħØ§ÙĦ
ases
Ø°ÛĮ
ĠØªØ±Ú©
pr
ĠÚĨÚ¯ÙĪÙĨÙĩ
ulation
ĠÚ©Ø§ÙħÙĦ
ization
ĠØ§ÙģØ²Ø§ÛĮØ´
use
ĠØ´ÙĨØ§
Ġothers
Ø´ÙħØ§
Ġclass
ĠØ¨ÛĮÙħØ§Ø±ÛĮ
Ùĳ
ĠØ³ÙģÛĮØ¯
Ġpar
Ġcell
ĠØ·Ø±Ø§ØŃÛĮ
Ø±ÚĺÛĮ
Ġfell
ffic
Ø¸Ø§Ø±
Ġlive
Ġpos
ĠØµØ¯Ø§
ĠUniversity
Ġgiven
All
Ġes
ĠØ¢ÙĪØ±
ĠSo
ĠâĢĻ
ĠØ³Ø§Ø¯Ùĩ
One
ĠÙĨÙħØ§ÛĮØ´
Ġeng
ĠÚ¯Ø§Ùĩ
dden
ony
ĠØ¢ØªØ´
ĠØªØ±Ú©ÛĮ
itch
Ú©Ø±ÛĮ
ĠØ§Ø±ØªØ¨Ø§Ø·
ĠØ¯Ø±Ø®Øª
ÙĦØ§Ø³
ĠGerman
ĠØ¯Ø±ØµØ¯
Ġorder
ÙĪØ¨ÛĮ
Ġsoon
ĠØ¯Ø±ÙĪÙĨ
Ġoper
ĠÙĩÙģØªÙĩ
Ġ197
ressed
Ġsent
ĠÙ¬
orning
Ġpresent
Ġeffect
ĠÙģØ±ÛĮØ§Ø¯
Ġbecome
cle
ĠØ¬ÙħÙĩ
ĠØªÙĩ
Ġmyself
Ġshort
ape
Ġsort
Ø¯Ø§Ø±ÛĮ
ient
ĠÙĨÙĤØ´
Ġsix
ĠØ¨Ø§ÙĪØ±
ÙħÙĨØ¯
Ch
ĠÚ©Ø§ÙĨ
ĠÚĨØ·ÙĪØ±
ĠÙħØ±Ø¨
ĠØ³Ø±Ùħ
Ġri
Ġstarted
Ġherself
Ø¬Ø§ÙĨ
Ø§Ø¨Ùĩ
ĠEurope
Ġrece
Ġsudden
ĠÙģØ±ÙĪØ¯Ú¯Ø§Ùĩ
Ġsure
ĠØ¯Ø§ÙĨÙħ
Ø´ÙħØ§ÙĨ
Ġquestion
--
Ø¯ÙĪØ¯
iver
Ġtown
ÙĩÛĮÚĨ
ĠØ¨Ø§ÛĮ
ØªÙĦ
Ø§Øº
Ġcommon
Ġresp
ĠÙĪØ³ÛĮ
ories
Ġoffic
Ġbit
ĠØ¢ÛĮÙĨØ¯Ùĩ
ØªØ±ÙĦ
ĠÙĪØ§ÙĤØ¹ÛĮ
ÙĨÙħÛĮ
Ġweek
ready
Ġprof
ÙĨØ§Ú©
Ġbehind
ĠÙĨØ´Ø¯Ùĩ
ĠØ¹Ø²
ĠØ¬ÙħÙĦÙĩ
ott
Ø§Ø¹
ĠWorld
ĠÙħÙĤØ§Ø¨ÙĦ
ĠØ®ÙĪØ§ÙĩÙĨØ¯
Ġsit
ĠØ§Ø¬ØªÙħØ§Ø¹ÛĮ
Ġshow
ued
ØŃØª
ÚĨÙĨØ¯
ĠÙĪØŃØ´Øª
Ø§ÙĪÙĨ
Oh
ĠÙħØ¬ÙħÙĪØ¹Ùĩ
Ø±ÛĮØª
Ġleg
ience
idd
ĠWe
ĠØ±Ø§ÛĮ
Ø³ÙħØª
ÛĮØ²Ùĩ
ĠØ¨Ø±Ø¯Ø§Ø´Øª
Ġbed
Ġmorning
Ġgovernment
ĠÙĨÙĪÛĮØ³
St
Ġsever
Ø®Ø´
Ġdev
ÚĨÙĨÛĮÙĨ
Ġbusiness
Ġprogram
ĠØ¬ÙĩØª
After
ĠAmerican
ĠÚ¯Ø°Ø´Øª
ĠØ´Ø¨ÛĮÙĩ
Ġpain
Ġsle
Ġpossible
eng
Ġamong
Ġplan
ograph
ead
ĠÛĮØ§ÙģØªÙĩ
Ġcomput
ĠØµØ¨ØŃ
ĠØ´ÙĨØ§Ø®ØªÙĩ
ĠØ§ÙĨØ±ÚĺÛĮ
Ġincre
Ġwhite
ode
ior
Ġstory
que
Ġfull
ĠÙ¾ÙĦ
ĠÙħØ±Ø¨ÙĪØ·
Ġdisplay
ĠØ¬ÙĪØ±
ĠØªÙĦØ§Ø´
ĠØ§Ø²Ø¯ÙĪØ§Ø¬
acy
Ġaw
ÙĦÛĮØ³
Ø¦ÛĮØ³
ma
ĠØ²ÙĪØ¯
ccess
App
Ø§Ø¨Ø§ÙĨ
ĠÙĤØ§ÙĨÙĪÙĨ
Ġinformation
rench
ĠØ³Ù¾Ø³
Ġrather
ze
Ġtaken
ĠÙ¾ÙĨ
Û²
ĠÚ¯ÙĪÛĮ
ĠÙħÙĪØ³ÛĮÙĤÛĮ
ĠØ§ÙģØªØ§Ø¯Ùĩ
ĠØ³Ø¹ÛĮ
ĠØ§ÙĨØªØ¸Ø§Ø±
Ġwon
ÙħØ¹
ha
ĠØ¢Ø²Ø§Ø¯
Ġhold
Ġprom
Ġ&
Ø®ÙĪØ¨
olution
ÛĮØ¯Ùħ
fort
Ġleast
ĠØ§Øº
ctor
ĠÙħØ¹Ùħ
ĠâĢĮ.
Ġhor
ĠØ¨Ø§ÙĤÛĮ
though
ĠÙĨÙĪØ´Øª
ĠÙĨØ§Ù¾
ĠÙħØ¯Ø±Ø³Ùĩ
Ġcase
ĠØ§ÙħØ±ÙĪØ²
haps
ĠØ§Ø¨Øª
ĠâĻ
ÙĪÙĨØª
ĠØ¨Ø±ÙĪ
Ø§Ø¨Ø¯
ians
Ġrese
lish
read
Ø¢ÛĮØ§
ĠÙĦØ§Ø²Ùħ
ĠÙģØ±ÙħØ§ÙĨ
amed
ks
ĠÚ©ÙĨØªØ±ÙĦ
Ø§ÙĦØª
ĠÙħØ´Ø®Øµ
ole
ional
by
ĠØ§ÙħÛĮØ¯
ĠØ§Ø³Ø§Ø³
ĠØ®Ø·Ø±
To
ØµØ±
ĠØ¯Ø´
ÙĪÛĮØ±
Ġseveral
side
ĠØ³Ø±Ø¯
Ġalready
Ø¯Ø§Ø´Øª
ards
Ġmaking
ĠØ¯Ø§Ø´ØªÙħ
ĠØ¨Ø¯ÙĨ
ĠÙħÙĪÙĤØ¹
ĠØ¯ÙĪØ±Ùĩ
iron
Ġusing
iter
Ġeconom
ror
ĠØ¯ÙĤÛĮÙĤÙĩ
atic
ĠÚ©Ø§ÙģÛĮ
ĠØ²ÙĨØ¯Ùĩ
Ġmag
Ø§Ø³ÛĮ
Ø±ÛĮÙĩ
Ø§ÙĨØ´
Ġelse
Ø§ÙĩØ§
Why
ĠØ·ÛĮ
Ġinde
ĠØ¹Ø´ÙĤ
ĠÙĨØ´Ø³Øª
ĠØ¬ÙħØ¹ÛĮØª
ĠÙĥÙĩ
ĠØ¨ÛĮØ´ØªØ±ÛĮ
ÙĪÙĩØ§ÛĮ
Ġlearn
ĠØ¢Ø²ÙħØ§ÛĮØ´
ĠÙħÙĨØªØ´
ĠâĢĶ
Ġsays
nect
Ġav
aced
ĠØµÙĨØ¯
Ġmeans
ĠØ¯Ø§Ø±ÛĮ
ots
ÙĪØ§Ø±Ùĩ
Ġfilm
ĠÙĨØ§Ø±Ø§ØŃ
ĠØ§Ø³Ø¨
These
ĠØ¨Ú¯ÛĮØ±
ĠØµØ±Ùģ
ĠØ§ÙĦÙħÙĦ
ÚĨÛĮ
ÚĨØ§Ø±
ĠÚ¯Ø±Ùħ
ĠØ°ÙĩÙĨ
fic
ĠØ¯ÙĪÙĨ
ergy
Ġearly
eth
ĠÚ©Ø§ÙĩØ´
che
ĠÚ©Ø±
ien
ĠÙħØ³ÛĮ
Ø§Ø³Ø¨
Ġspeak
ĠÙħØ¹ÙħÙĪÙĦØ§
ĠÂ».
ĠÙ«
Ġacross
ĠÙħÙĨØªØ´Ø±
Ø§ÙĦØ¨
ĠØ¹Ø¬ÛĮ
arent
Ġsupport
ĠÙħØºØ²
ĠÙ¾Ø±Ø¯Ø§Ø®Øª
Yes
Ġround
ĠÛ´
Ø§ÙĦÛĮØª
Ġhear
Ø³Ø§ÙĦ
Ġgroup
Ġmatter
ĠØ§ÙĨØªÙĤ
ĠÙĨØ´Ø³ØªÙĩ
Ø¨ÙĨØ§Ø¨Ø±Ø§ÛĮÙĨ
sh
wer
ĠØ¹ÙħÙĪÙħÛĮ
fully
Ġfall
ĠØŃÙħÙĦÙĩ
ĠØªÙħØ§Ø´
ĠÙħØ§Ø´ÛĮÙĨ
Ġfree
Ġphys
Ġori
ĠPar
rought
ĠÙģÙĦ
ĠÙĩØ¯Ùģ
lause
undred
ribut
ĠÛ±Û¹Û¹Û
ĠÙĤØ³ÙħØª
ĠÚĺÙĨ
rict
ober
ĠØ¯ÛĮÚ¯Ø±Ø§ÙĨ
ĠØ´Ø¨Ú©Ùĩ
Ġclose
ĠØ¨Ø§Ø´ÛĮØ¯
ĠØªÙĪØ§ÙĨÙħ
Ø²ÛĮØ±Ø§
ĠØ³ÙģØ±
ĠØ¬Ø§ÙħØ¹Ùĩ
ĠØ§ÙħÚ©Ø§ÙĨ
ousand
ĠØªØ´Ú©ÛĮÙĦ
ider
ĠØ§ÛĮØ¯
ĠØ¨Ø±Ø§Ø¯Ø±
unity
ĠØ¨Ø±ÙħÛĮ
oph
ÛĮØ¯ÙĨØ¯
ĠØ¢Ø³ÛĮ
....
ĠÛĮÙĨ
ĠØ®Ø§Ú©
co
ĠØ¶Ø±
ĠØ¨ÙĩØªØ±ÛĮÙĨ
Ġ15
ression
ĠØ¬Ø¯Ø§
Ġred
ĠCl
ĠØ§Ø³Ùħ
ĠÙħØ´Øº
Ġrepl
ĠØ¹ÙĦØ§ÙĤÙĩ
Ġreason
ean
rop
ĠØ¯ÙĩÙħ
ĠÚĨØ±Ø®
Ġ196
ÙĪÛĮÙĩ
ĠØ¹ÙĤØ¨
mber
ĠØ¯Ø³ØªÙĩ
eral
Ġpast
ĠØ¯Ø±Ú©
ĠØ¨ÛĮÙĨÛĮ
ĠØ¨ÙĨØ¯
ĠØªØ®
tend
gen
Ġobs
ĠØ¯Ø±ÙĪ
Ġwond
Ġlow
Ø³Ù¾Ø³
ives
Ġhealth
ĠÙħØ²
Ġcir
ĠØªØ¬Ø±
ĠBe
ĠØ¯ÙĩÙĩ
ĠX
Ġflo
Ġtable
Ġmillion
Ġparticular
ohn
Ġrele
Ġtem
Ø±Ø§ÙĨ
ĠÙħØŃÛĮ
ai
aining
Ġsun
ĠØªØ¹Ø±ÛĮÙģ
aim
ĠÛĮÚ©Ø¯ÛĮÚ¯Ø±
Ġhundred
Ø¶Ø§ÛĮ
Applause
ĠØªØ±ØªÛĮ
oud
ĠØ¯Ø§Ø±ÛĮØ¯
Ġmeet
Ġlanguage
Ġproblem
cing
Ġalone
Ġca
ĠØ¬Ø³Øª
ĠØ±ÙģØªÙĨ
ĠØªØŃÙĤÛĮ
ĠCon
ĠØ¬ÛĮ
ĠMrs
ÙĪÛĮØª
Ġfre
Ø²ÛĮÙĨÙĩ
ĠÚ©Ø³Ø§ÙĨÛĮ
ĠØ¢ÙĪØ±ÛĮ
Ġcoming
ening
20
ĠØ¨ÛĮØ§ÙĨ
Ġtop
Ġsocial
iously
Ġstrong
Ġsingle
ev
ached
ĠØ·Ø¨ÛĮØ¹ÛĮ
uff
Ø§ÙĨÙĪ
Ġsuccess
ĠÙħØ´ØºÙĪÙĦ
Ġfriends
Ġthousand
Ø´Ø§ÛĮØ¯
ĠØªÙĪØ§ÙĨÛĮÙħ
ĠÙħØ¹ÙĨÛĮ
ĠØ¯Ø§Ø±Ùĩ
ĠÚ©ÙĦÙħÙĩ
Ġage
Ġexpect
µÛ
lex
Ġquick
Ġve
ÛĮÚ©ÛĮ
ĠÙģØ¹Ø§ÙĦÛĮØª
Ġmusic
ĠØ§Ø·Ø±Ø§Ùģ
ĠØ§ÙĦÙħÙĦÙĦÛĮ
Ø®ÙĨØ¯
ĠÙģØ±Ø³Øª
ĠFrench
Ġlay
asure
Ġfire
ĠÚĨØ´ÙħØ§ÙĨ
ĠÙħØ§ÙĨØ¯Ùĩ
Ġnat
acter
cer
ĠÙģØ±ÙĪØ´
lf
Ġenergy
ĠØ¨Ú©ÙĨ
ĠCol
ĠØ¹Ø¶
ÙħØ±
ĠÚ¯Ø´Øª
Ġcreat
ÙĪÙĨØ§
Ġobject
ĠØ¨Ø²Ø±
ĠÙĨÚ©Ø±Ø¯
ÙĪÙĦÙĩ
reet
ĠØ³ÙĪÙħ
Ø§Ø¯Øª
aper
Ġgone
ĠÙ¾Ø²Ø´
Ġdescri
ĠØ³ÛĮØ§Ø³ÛĮ
Ġabs
Ø±ÙģØª
ĠBr
ÙħØ«
ĠÙĨÙħØ§ÛĮ
ÙģØ±ÛĮ
Ø®ØµÙĪØµ
ĠØ¯Ø³ØªÙĪØ±
ĠØ§Ø±Ø§Ø¦
ĠØ¬Ø±ÛĮØ§ÙĨ
itting
ÙĨØ¯Ú¯Ø§ÙĨ
ogn
Ø®Ùĩ
Ø±Ø§ÙĦ
ified
Ġcountries
ĠÙĤØ¯Ùħ
ĠØ§Ø±Ø§Ø¦Ùĩ
Ġstep
ler
Ú¯Ø§ÙĩÛĮ
ĠØªØ³
Ġboy
ĠYou
Ġheld
Ġanim
yd
ĠØ¨Ø§Ø¯
ĠÙħØŃÙĦ
Ġdi
Ġtoday
ĠComm
Ġline
son
Ġbeaut
Ġeither
ĠEm
Ġill
Ġbad
ĠØ´Ú©Ø³Øª
lu
Ġdou
ĠØŃØ¶ÙĪØ±
Ø³ØªÙģ
Ġbrought
Ġfield
bal
ush
ÙĤØ·Ùĩ
Ø¨ÙĪØ¯
ĠØªØ±ÛĮ
Ø®Ø¨
Ġthinking
ØªÙĤ
Ġprob
ĠÙ¾ÙĨØ¬Ø±Ùĩ
Ġris
ĠØ§ÛĮØ±Ø§ÙĨ
Ġfront
ĠØ¨Ø±Ø³
ĠÚĺØ§ÙĨ
ĠØ±Ø³Ø¯
ĠØ¹Ø§ÙĦÛĮ
Ġson
ĠÚ¯Ùĩ
Ú©ÙĪÙħ
Ø´Ø§Ùĩ
ĠÙĨÛĮØ±ÙĪÛĮ
ĠØ±Ø¯
now
oul
Ġwall
ĠÛ°
ĠØ¨Ø§Ø´Ùħ
Ú©Ø´
ĠØ¢ÙĪØ±Ø¯Ùĩ
Some
Ġsoft
ĠÙĨØ¬
ĠØŃÙĤÙĪÙĤ
Ġbrother
ones
ĠÙħØ¯ÙĦ
ĠÚ©Ø¬Ø§
itions
ĠÙħÙĨØ¸ÙĪØ±
ĠØ§ØºÙĦØ¨
Ø§ÙĦØ¨ØªÙĩ
ĠØ§ÛĮØ¯Ùĩ
Ġthemselves
Ġdead
Ġmaj
ĠØ¨Ø§Ø²Ú¯
ĠØ¨Ø¹Ø¶ÛĮ
ĠÚ©ÙħØªØ±
ĠØ³Ø±Ø®
ĠØ§Ø¹ÙĦØ§Ùħ
ĠØ±Ø´Ø¯
Ġste
Ø§ÙģÙĩ
style
ording
ĠSc
ÙĩÙħØ§ÙĨ
Ú©Ø³ÛĮ
Ø¢ÙĤØ§ÛĮ
Ú©ÙĨØ¯
Ġleave
ciety
ØªØ´ÙĪÛĮÙĤ
ĠÙħÙĪØ§Ø¯
ĠØ§Ø¨Ø±
Ġwhether
Ġra
ĠØ³ÙĦÙĪÙĦ
ĠÙĩØ³ØªÛĮÙħ
Ġfear
Ġorigin
ĠØ®ÛĮØ§ÙĦ
Her
hem
ĠÙĤÙĦØ¨
Ġago
ĠØªÙĪØ§ÙĨÛĮØ¯
Ġimag
Ġgeneral
ĠØ´Ø®ØµÛĮ
ĠØ¯ÛĮØ¯ÙĨ
ches
Ġann
ĠÙħØ´Ø§Ùĩ
Ġbrain
ĠØ¯ÙĦØ§Ø±
ĠEx
Â«
ĠØ¢Ø®Ø±ÛĮÙĨ
ĠØ´Ø±Ø§ÛĮ
Ġwife
ĠÙģØ±Ø§ÙĨØ³Ùĩ
ĠÙĨØ±Ùħ
ĠÙĤØ±ÙĨ
Ġspace
ĠRuss
ÙĨÚ¯ÛĮ
Ø¨Ø§Ùĩ
ilt
Ø±ÙĪÙģ
Ġcompany
unt
ĠØ¨Ø§ÙĦØ§ÛĮ
ĠGr
ission
ator
ĠÚ©ÙĪØªØ§Ùĩ
ĠØ±ÛĮØ§
ĠØªØµÙĪÛĮØ±
Ġworking
ĠÙħØ§ÙĦÛĮ
Ø¨Ø´
ĠWar
Not
aged
Ġstran
Ġnews
Ø¬Ø¹
par
Ġfoot
Ġbar
Ġtrue
oon
oint
put
Ġstood
ÙĨØ³
ĠØ³Ø§Ø®ØªÙħØ§ÙĨ
iddle
ĠØ¹Ø¨
ĠØªÚ©Ø§ÙĨ
ĠÙħØ¬Ø¨ÙĪØ±
ÙĦØŃ
Ġmov
Ø²Ø¯
ĠØ§ÙĦØ¹
Ø®ÙĪØ¯
ÙħØ§ÙĦ
ĠØ¯Ø±Ø§Ø²
ĠØ®ÙĪÛĮØ´
ief
itive
ĠÙģØ±Ø²
ky
ae
ĠØ·ÙĪØ±ÛĮ
ĠÙĩÙħÚĨÙĨØ§ÙĨ
ĠØ´Ø´
ÙģÚ©Ø±
ĠØªØ±ØªÛĮØ¨
ĠÙħØ°
ids
Ġhope
ĠÙĨÚ©Ø±Ø¯Ùĩ
ĠÙĨÙĩØ§ÛĮ
ĠÙĨÙĤØ·Ùĩ
Ø®Ø±Ùĩ
ĠØ´Ø¹
ĠØ³Ø§ÙĦÙĩ
Ø¸ÛĮÙħ
ĠØªÛĮÙħ
Ġcomplete
ĠÚ¯Ø°Ø§Ø±ÛĮ
ĠØ¨Ø²Ø±Ú¯ÛĮ
airs
Ġconnect
ĠIran
ĠÚ©Ø´ÛĮØ¯Ùĩ
Ġcal
Ġsum
Ġrev
ĠÚ©Ùģ
iol
Ø®ÛĮÙĦÛĮ
ored
Do
ĠØ±Ø§Ø¨Ø·
ĠÙ¾ÙĪ
ĠÙ¾ÛĮØ´ÙĨÙĩ
Ġtrying
Ø±Ø§ÛĮ
Ġwhom
ĠÙĩÙģØª
Ø³ÙĪÙĨ
rodu
ÙĤÛĮÙĩ
Ġvill
ĠØ²ÙħÛĮÙĨÙĩ
ĠØ±ÙĪØŃ
ĠØ¢ÙħØ§Ø¯Ùĩ
ÙħÙĤ
ĠAfric
,"
Ġdisplaystyle
ÙĪÙĦÙĪÚĺÛĮ
Ġmain
Ú©Ø§Øª
ĠØªÙĦÙģ
ivid
Ġattack
ĠÙħÛĮØ¯Ø§ÙĨ
Ġreport
Ø¨ÛĮÙĦ
Ġpercent
ĠÙĩÙĨØ¯
Ø§Ø´ÛĮ
ĠØ¨Ø±Ú¯Ø±Ø¯
ĠÙĨØ®Ø³ØªÛĮÙĨ
ÛĮØ´
ĠØ§ÙĦØ¨ØªÙĩ
ination
ĠØ¨Ø±Ø®ÙĪØ±Ø¯
With
ĠØ®Ø¯ÙħØª
Ġclear
ĠÙĩÙĨÚ¯Ø§ÙħÛĮ
ÙĦÙĪÙħ
Ġcontrol
ÚĨØ±Ø§
ĠØ¨Ø±Ø±Ø³ÛĮ
Ġfut
ĠØ§ÛĮØ³ØªØ§Ø¯Ùĩ
ĠÚ©ÙĦÙħ
etwork
Ġlevel
Ġtest
Ġexist
ĠØ§Ø±Ø²Ø´
ster
bo
Ø´ÙĪÙĨ
Ġsaying
Ġfur
ĠØªÙĪØ¶ÛĮ
ĠâĻ«
ĠØ´ÛĮØ±
Ġground
Ġlost
ĠØ¨Ø±Ø®
ÙģØ§Ø¹
ĠMiss
ĠØ¯ÙĩÛĮÙħ
Ø§Ø¯ÙĦ
Ġincluding
Ø§Ø²Ø¯
Ġperform
ĠØ´ÙĩØ±Ø³ØªØ§ÙĨ
ĠØ¨ÙĨØ¯ÛĮ
ĠÙĦØ°
ius
ĠÚ¯Ø°Ø§Ø´ØªÙĩ
ÙĤÛĮÙħ
Ġdeep
Ø²Ø§Ø±Ø´
Ġliving
ĠÙĪÙĦ
Ġpoor
ÙĩÙħÚĨÙĨÛĮÙĨ
ĠØ§ØµÙĦØ§
you
ĠØ²Ø¯ÙĨ
itary
Ġview
ÙĦÙĨØ¯
ĠØ¨Ø±ÙĪØ¯
ĠÚ¯Ø±Ø¯Ø¯
ances
Ġproject
Ú¯ÛĮØ±Ø¯
Ġcult
utes
Ú¯ÙĪÙĨ
ĠØ³Ú©
ĠØ®ÛĮØ§Ø¨Ø§ÙĨ
Ø§ÙĤÙĦ
ĠTr
Ġprop
ĠØ¯ÛĮÙĪØ§Ø±
ĠÚ©Ø¯Ø§Ùħ
ĠÙĨØ§Ú¯ÙĩØ§ÙĨ
Ġstay
However
ring
Ġcannot
ental
ption
Ġhon
with
ĠØ¯Ø§Ùħ
ĠGe
NA
ĠØ¨Ú¯Ø°Ø§Ø±
ĠØ¹Ú©Ø³
ĠBl
ficult
ĠØ´ÙĪÙĩØ±
ĠØ¢Ø®Ø±
ĠØ¢ÙħÙĪØ²Ø´
ĠÙģØ±Øµ
ÙĪØ§ÙĦ
ĠSy
ĠØ¹Ø¯
ĠÙĨÙģØ³
ĠÙħØ·Ùħ
ĠØ§Ø±ÙĪÙ¾Ø§
Ø¨Ø§ÛĮØ¯
Ġlonger
ĠØ¨Ø¯ÙĩØ¯
Ġsuddenly
ĠÙħØªÙģØ§ÙĪØª
aught
Ġdifficult
ĠÙĦÙĩ
IS
ØªÙĪØ±
Ġitself
Ø®ØªÛĮ
ford
Ùİ
Ġtowards
ĠØ¹ÙħÙĦÛĮ
ĠCount
Ġ17
ĠØ®Ø´Ùħ
ĠØ¯Ø¹
Ġhistory
cum
sy
enn
ĠÚ©ÙĢ
ĠØ¯Ø§Ø¯Ùħ
ĠØ¨Ø±Ú¯Ø´Øª
ĠÙ¾Ø§Ú©
ÙĪØ²ÛĮ
ĠÙĨÚ¯Ø±ÛĮ
iod
osp
ĠØ±ÙĨØ¬
ÙģÙĤØ·
Ġarm
Ġang
ĠOr
ĠØ¨Ø±Ø¯Ùĩ
ĠØ´Ø¯Øª
soci
ĠØ±Ø³ÛĮØ¯Ùĩ
ĠÚĺÙĪ
ĠÙĪØ¨
Ġlab
Ġbas
ÙĬØ¯
mb
Ġblood
urg
ĠÙħØ³Ø¦ÙĦÙĩ
Ġwatch
Ġsometimes
200
ĠØ§ÙĨÚ¯ÛĮØ²
ĠEd
Ġla
ĠÙ¾Ø§Ø¯
Ø§Ø¨Ø¹
ĠÙĨÚ©ÙĨ
Ġ194
Ġfeet
ĠÛ³Û
ĠÙħØ´Ø§ÙĩØ¯Ùĩ
ourn
Ġpay
ĠÙĩÙĪØ´
ĠØ§ÛĮØ´Ø§ÙĨ
ĠØµÙĪØ±
Ġpassed
Ġmajor
ude
Ġfeeling
ĠEnglish
ĠÙħÙĩØ±
cul
ÙĤÙģ
Ġmot
Ġpie
ĠØ®ÙĪØ§ÙĩÛĮÙħ
ĠØ³Ø§Ø¨
ĠØµÙĨ
ĠÚĨÛĮÙĨ
Ġself
ĠÙĪØ³ÛĮÙĦÙĩ
ĠÙĤØ§Ø¯Ø±
ĠÙħØ±Ø¯ÛĮ
Ġbring
Mr
Ġexc
ĠÙħØ±Ú©Ø²
they
Ġanswer
unicip
ĠØªÙĪØ¶ÛĮØŃ
Ġhappened
Ġremember
ĠØ¨Ø±Ø§ÛĮØ´
Ġmonths
ĠÙģÛĮ
Ġappl
ĠØ§ÙĨØ³
ÙĬÙħ
ĠÛ¶
Ø³ÛĮÙħ
ĠMan
Ġpolitical
ternal
Ø®ÛĮØµ
Ø±ÙģÛĮ
ĠØ·ÙĪÙĦØ§ÙĨÛĮ
ĠÛ±Û¸Û
ĠØ¬ÙħÙĩÙĪØ±ÛĮ
Ġwin
ĠØ§Ø¬Ø±Ø§
ĠØªÙĪØµÛĮ
Ġsystems
irt
ĠJohn
ĠØ¢ÙħØ±ÛĮÚ©Ø§ÛĮÛĮ
ĠØ±Ø¦ÛĮØ³
Ġhair
ØµÙĪÙĦ
ĠÙ¾Ø±ÙĪÚĺÙĩ
ĠØ¹Ø²ÛĮØ²
resent
Ġfuture
ĠØ¨Ú¯ÙĪÛĮÙħ
Ġactiv
Ġsense
urs
ĠØªØ£Ø«ÛĮØ±
ĠØ±Ø®
Ġhur
ĠØ±ÙģØªÙĨØ¯
ĠYork
ĠÙģØ§ØµÙĦÙĩ
Ġlim
ĠØŃØ³Ø§Ø¨
Ø«ÛĮ
rie
ĠÚ©Ø§Øª
line
ĠÙħØŃÛĮØ·
ĠØ³Ø±ÛĮØ¹
tt
ĠØ§ÙĬÙĨ
ĠCar
ĠPol
Ġsold
ĠØªØ¬Ø±Ø¨Ùĩ
Ø²ÙħÛĮÙĨ
Ġglo
ĠÙħØ¯ÛĮ
ĠÚĨÙĤØ¯Ø±
idence
af
ĠÙħØªÙĨ
Ġtalking
ilar
ÙħØ³
Ġhours
Ø®ÙĪØ§Ø³Øª
Ġfood
ĠÙĨÙħÙĪÙĨÙĩ
ĠÙħÙĦØ§
ĠTe
ĠÙĪØ¶Ø¹
aly
ÙģØ¸
ĠPhil
Ġdiv
ĠØ¯ÛĮØ¯Ùħ
ĠÙĤÙĦ
por
ĠÚ¯Ùħ
Ġroad
ĠÚ¯Ø§ÙĩÛĮ
Ġaut
bit
itten
ĠAd
apan
ÙĩØ±ÛĮ
Ġproper
ÙħØ§Ø¯
ĠÙħØ§ÙĩÛĮ
Ġcut
ĠÙħØŃØ¯ÙĪØ¯
ĠÙģØ´Ø§Ø±
cious
ĠÚ¯ÙĨ
Ġrad
Ġconc
ĠGen
Ġfig
ĠCan
ĠÚĨÙĨØ¯ÛĮÙĨ
band
ĠØ®ÙĨØ¯Ùĩ
ability
Ġfollowing
Ġgrow
ĠØ¨Ø¹Ø¯ÛĮ
ØµÙĩ
ĠØŃØ¶Ø§Ø±
ĠBrit
Ø³Ø¨
ought
Ġbi
ĠÙĩÙĨØ±
Ġ12
cially
fer
ĠMin
ĠÙħÛĮÙĦØ§Ø¯ÛĮ
Ġ#
Ġtyp
ĠØ¢ÙĩÙĨÚ¯
ĠÙĨÙĩØ§ÛĮØª
Ø§Ø¯Ø§
Ø§Ø´ÙĤ
Ġmass
empt
Ġteam
ĠMe
ĠNational
ĠÙ¾ÛĮØ´ÙĨÙĩØ§Ø¯
ĠØ¯Ú©ØªØ±
ĠØ®ÙĪØ±Ø´ÛĮØ¯
ille
ĠØ¹ÙĪØ¶
ĠÙĪÛĮØ±
.,
iled
Ġpract
ĠØ´Ø±Ø§ÛĮØ·
ĠØ§ÙĪØ±
Ú¯ÛĮÙĨ
ĠØ±Ø§Ø¨Ø·Ùĩ
Ġcost
Ġabove
bled
ĠGo
Ġsqu
Ġdream
ĠØ§Ø®ØªÛĮ
ĠÙħØ·Ø§ÙĦØ¹Ùĩ
ĠPl
ĠÙĨØ¨Ø§
ĠÙ¾Ø§ÛĮÙĩ
ĠØ¯Ùģ
ĠØ§ÛĮÙĨØªØ±
Ġtried
Ġgetting
ĠØ¨Ù¾
Ġ16
ophe
ÙĩÙħÛĮÙĨ
app
ĠÙħØ¤
then
yn
ĠØ¯Ø±ÙħØ§ÙĨ
ana
ĠØ§Ø´ØªØ¨Ø§Ùĩ
")
Ġgent
ĠØ¯ÙĪØ±Ø§ÙĨ
ĠÚ¯Ø±Ø¯ÛĮØ¯
ĠÙĩØ²ÛĮÙĨÙĩ
ĠØ®Ùħ
ĠÙĨØ¯Ø§Ø±Ùħ
ĠØ¨Ø®Ø´ÛĮ
ÙĩØ±Ø³Øª
ĠØ§Ø·ÙĦØ§Ø¹
ĠØªØ´Ø®ÛĮØµ
ĠØ®ÙĪØ§ÙĩÛĮØ¯
ĠÙĨØ¸Ø§ÙħÛĮ
ĠØ§Ø³ØªØ®
aving
ĠØ¨Ø±ÛĮØª
Ø§ÙĩÙħ
Ġvers
Ġident
ĠÙħØ³ÛĮØ±
ĠØ¯ÛĮØ±
over
Ġbuilding
ĠØ§Ø«
Ar
Ġbased
ĠÙħÚ©Ø§ÙĨ
Ġcold
ĠØµÙĨØ¯ÙĦÛĮ
ØŃØ§ÙĦÛĮ
Ġsour
Ġgame
ĠØ¨ØŃØ«
ĠÙħØ±Ø¯Ø§ÙĨ
ĠØªÙĪØ±
Ġpict
Ġnon
ĠØ¢Ø¨ÛĮ
ĠÙ¾ÙĪØ³Øª
Ġsleep
Ú¯ÙĨ
lled
ÙĦØ§ÙĦ
ĠÙĩØ±ÛĮ
Ġtaking
ĠØ¬Ø±
ĠÙħÙģ
ĠCent
ĠÙħÙĤØ¯Ø§Ø±
ĠInternational
Ø§Ø±Ø§ÙĨ
Ø§ÙĪÙĦ
Ø´Ø¨
ĠØ¨Ø¯Ø§ÙĨ
ĠSouth
Ġentire
Ġcentury
Ġauth
ĠØ¢Ø²Ø§Ø¯ÛĮ
ĠÙ¾ÙĨÙĩ
Ø§ÛĮÙħ
ĠÚ¯Ø²Ø§Ø±Ø´
ÙĪØ§ÙĨÙĩ
Ġrelations
Ġdest
Ġ195
ĠØºØ°Ø§
ĠÙĪÛĮÚĺÙĩ
gest
ĠÛ±Û°
ively
Ø¬ÙĪÛĮ
Ø·Ø§ÙĨ
Ġ193
Ġpost
ĠÙĤØ¯ÛĮÙħÛĮ
ĠUS
Ġten
ÚĺÙĨ
ĠØ¨Ø§Ø´ÛĮÙħ
ĠØ³Ø±Ø§Ø³Ø±
Ġstat
ĠØªÛĮ
ĠØ¨Ø§Ø²Ú¯Ø´Øª
Ġlate
hern
ÙĪÙĦØ¯
ondon
ĠØ²ÛĮØ¨Ø§
Ġrecogn
gor
ĠØ¨Ú¯ÛĮØ±Ø¯
ĠÙĨÚ¯Ø±ÛĮØ³Øª
ĠÙĩÙħØ³Ø±
Ø¨Ø§Ø¨
ĠØ¢ÙĦÙħØ§ÙĨ
ØµÛĮÙĦ
Ġsuper
Ø§Ø±Ø´
Ġport
aterial
Ġperhaps
ĠØ¯Ø³ØªØ´
Ġenv
tered
ĠØ¢ÙĩØ³ØªÙĩ
Ġstru
ĠÚĨÙ¾
ĠØ±Ø³ÙħÛĮ
ges
ĠÙĨØ³Ø®Ùĩ
Ø§Ø¸
ĠÙħØ§ÛĮ
ĠØ¨ÙĨØ§Ø¨Ø±Ø§ÛĮÙĨ
Ġmis
ĠÚ©Ø´ÙĪØ±ÙĩØ§ÛĮ
ĠÙĨÙĤØ´Ùĩ
ÛĮÙĦÛĮÙ¾
ĠØ¨ÙĤÛĮÙĩ
Ø³ØªÚ¯ÛĮ
ividual
Ġiss
Ġdoesn
Ġevening
ĠØ®ÙĨØ¯
Ġdro
ĠØ®ÙĦØ§
ĠØ§Ø³ØªØ§ÙĨ
ĠØ§ÙĤØªØµØ§Ø¯ÛĮ
ĠÙħØ¹ÙĨ
Ġpubl
Ġord
Ġbreak
ĠHarry
ĠÙģØ±Ø§ÙħÙĪØ´
ĠÙħÙĪÙģÙĤ
Ġfail
Ġdraw
Ġdeal
ĠÙĩØ³ØªÛĮØ¯
ales
ĠÙħØ®ØµÙĪØµ
ĠÙģØ±Ø§ÙĨØ³
ĠØŃÛĮÙĪØ§ÙĨ
Ġthird
Ġeduc
BN
By
ĠØ®ÛĮØ±Ùĩ
ĠØµÙģØŃÙĩ
enty
Ġarri
ĠØŃÙħÙĦ
ĠØ¸Ø§ÙĩØ±
rel
ĠÚ©Ø§Ø±ÙĩØ§ÛĮ
Ġwrong
ĠÙħØ³Ø§
Ġhus
ĠÚ¯Ø±ÙģØªÙĨ
Ġdear
Ġhig
which
Ġstudy
Ġhowever
ĠØ´Ø§ÙĩØ²Ø§Ø¯Ùĩ
ĠØ³Ø±ÙħØ§ÛĮÙĩ
ĠØ§ÛĮØª
uge
ney
ÙĤÛĮØª
ĠÙĨÚ¯Ø§ÙĩÛĮ
Ġemp
ĠØ´ÙĪÙħ
ĠØ±ÙĪØ³ÛĮ
ivil
ĠÙħØ§Ø±ÛĮ
ĠØ¨ÙĨÛĮ
ĠØ³Ø§ÙĨ
ĠÙģÙĪÙĤ
ĠÙĦØ¨Ø®ÙĨØ¯
ĠØ¨ÛĮØ¯
Ġsubject
Ġcomes
ĠMy
ĠØŃÙģØ¸
ĠÙħØŃÙĦÛĮ
Ġperiod
Ø¢ÙĨÙĩØ§
head
10
Ġminutes
²Û
Ø¬Ùħ
Ø¨Ø³ÛĮ
ĠÙĤÛĮÙħ
ĠÚ¯ÙĪÛĮÛĮ
Ġmoved
ĠÚ©Ø´Ùģ
ĠTur
Ø·Ø±
ĠØ¨ÙĦÙĩ
Ġbur
ĠÚ©ÙĪØ¯Ú©Ø§ÙĨ
Ø§Ø±ÙĩØ§ÛĮ
ĠØ§Ø´Ú©
Be
Ø¯Ø³Øª
Ġnetwork
ially
Ġhappy
Ġz
Ġmeth
Ø³ÛĮØ³
ĠÙĨØ®ÙĪØ§ÙĩØ¯
Ġmach
ĠØ¯Ø³ØªÚ¯Ø§Ùĩ
itted
Ø§ÛĮÛĮØ¯
Ø§ÙģØ¸
ĠØ®ÙĪØ´ØŃØ§ÙĦ
Ġmodel
Ø¶Ø§
ĠØŃÙĪ
Ġnatural
Ø§Ø¦ÙĦ
ĠÙħÙĢ
Ġsecret
Ġcry
ipp
iful
Ú©ØªÙĩ
Ù¾ÛĮÙħ
Ú©ØªØ±ÛĮ
Ø²ÙĪ
ĠÙĨØ²Ø¯
ĠJapan
Ġbreat
ĠØ´ÙĨØ§Ø³ÛĮ
ĠØ¯Ø§Ø´ØªÙĨ
ĠØ¹Ø¬ÛĮØ¨
Ġpret
Ø§ÙĨÛĮØ§ÛĮÛĮ
ĠØŃÙħØ§ÛĮØª
Ġarea
ĠÙ¾Ùĩ
Ġfight
ÙģÙĦ
ĠØ§ÙĪÙĦÛĮÙĩ
ĠØ§ÙĦØ¹Ø§Ø¯Ùĩ
ĠÙĨØ§Ø¨
ĠØ¬Ø§Ø¯Ùĩ
ĠØ´ÛĮÙħÛĮ
Ø³ØªØ±
ÙĦÛĮÙħ
Ġresearch
ØªÙĩ
Ġtreat
ĠPet
Ġtrou
ĠAust
Ġexact
Ġinvol
Ġcharacter
Ġinside
ĠØ¯ÙĪØ´
ĠØ²ÛĮØ¨
ĠØ·Ø¨ÙĤÙĩ
val
Ġprin
Ø§ÙĨØ¬Ø§Ùħ
ĠØ¬ÙĨÙĪØ¨
ĠØ¨ÙħØ§ÙĨ
arth
Ø§Ø¯Ú¯ÛĮ
ĠÛ±Û¹Û¸Û
Ġcurrent
ply
Ġlink
Ġindividual
ĠÙ¾ÛĮØ§Ø¯Ùĩ
ĠØ²ÛĮØ³Øª
Ġant
Ġkept
ĠÛ¸
Ġwindow
ĠGu
ĠØ¬ÙĨÙĪØ¨ÛĮ
Ġslow
ĠØ§ÙĩÙħÛĮØª
Let
ĠÚ©Ø´Øª
ĠØ±Ø´ØªÙĩ
Ġgentle
Ġeight
pri
Ġoutside
Ġaccount
ĠØ§Ø¶Ø§ÙģÙĩ
ĠÙħØµØ±Ùģ
idge
ĠØ±ÙĪØ²ÙĨØ§ÙħÙĩ
unicipality
ĠÚ©ÙĪÙĩ
ĠØ¨Ø§ÙĨÚ©
Ġsens
arr
ĠØ²ÙĨÛĮ
ĠÙĦØ±Ø²
ĠÚ©Ø§ÙħÙ¾ÛĮ
ecause
Ġmult
ĠØ¨Ø±Ø¬
ĠÙħØŃØµÙĪÙĦ
Ġtou
action
Ġadm
ĠØ§Ø®ØªÛĮØ§Ø±
Ġdaughter
Ø¨Ø±Ø§ÙĨ
ĠØ¨ÙĪØ¯ÛĮÙħ
urity
Ġrecord
ØªØŃ
Ġled
ĠØ¯Ø±Ø¢ÙħØ¯
Ġrespect
ĠÙħØ±ØŃ
Ġdied
ĠØ¬Ø§ÛĮØ²Ùĩ
Ġviol
ĠÙ¾Ø±Ø³
ĠÙĨØ¨Ø§ÛĮØ¯
ĠØªØ±Ø§
ols
Ġenc
Ġmakes
ising
Ġevent
ĠÙĩØ´Øª
ware
Ġ30
Ġearth
Ġjob
Is
Ġhot
ĠØ¹ÙħÛĮ
ump
ÙĨØ¯Ú¯ÛĮ
Ġmaterial
ĠØ¯ÙĪØ³ØªØ§ÙĨ
ledge
ino
ĠØ±Ø§Ø¬Ø¹
Ġpriv
ĠØ¬Ø°
ĠÚ¯ÙģØªÙĨØ¯
Ġproduct
Ġvillage
Ú¯Ø±Ø§ÙĨ
Ġstruct
Ø²ÙĦ
ĠØ¬ÙĨØ³ÛĮ
ĠÙħØ³ØªÙĤÛĮÙħ
ades
ĠÙħØªØ±
Ø¯Ø±ÛĮ
Ø´ÙĪ
ceed
ĠÚ©ÙĪØ´
Ġhusband
amm
ĠØ§ØŃØªÛĮ
aves
ule
Ø®Ø§ÙĨÙħ
ĠÙģÙĪØª
ĠØ§Ø³ÙĦ
ĠÙĨØª
Ġer
van
ĠÙĨÛĮÙħÙĩ
ken
ĠØ¹Ø§Ø´ÙĤ
Ġnecess
Ġswe
ĠØ¨Ø¯Ø³Øª
Ø³ÙĪ
Ġ13
Ġsurpr
ĠÙħØ±Ú©
ĠÚ©Ø¯
ĠÙħØªØ¹
ĠÚĨÛĮØ²ÙĩØ§ÛĮÛĮ
Ġwhose
ĠChar
ĠØ§ÙĨØ³Ø§ÙĨÛĮ
bt
ĠØ³ÙĪØ§ÙĦ
Ġtechnology
urch
ĠRep
Ø³ØªØ§ÙĨÛĮ
ĠØ®Ø§ÙĦÛĮ
ĠAll
Ġarms
ĠÚĺØ§Ù¾
Ġyourself
iding
ĠAm
ĠØ§ÙĦØ§ÙĨ
Ġ11
ĠFe
âĢ
ÙĪØ±Ø§
ference
stit
Ġborn
ĠÙĦØ§Øª
Ġvol
ĠEl
atter
ples
Ġpopulation
like
ĠÙĨØ¬Ø§Øª
Ã³
ĠÙħÙĬ
ĠØ¬Ø¯ÛĮ
Ø²Ø¨
ĠÙħØ¯ØªÛĮ
ĠAb
Ġexcept
rences
ĠÙĤÛĮØ§
Ø¦ÛĮÙĨ
ĠSw
Ġphot
ĠÙª
Ġrelig
Ġà
ĠØ´Ú¯ÙģØª
Ġappear
ĠØ¨Ùħ
ĠØ¨Ø®ÙĪØ§Ùĩ
Ġletter
attle
ĠÙĨÛĮØ³ØªÙĨØ¯
medi
Ġconvers
ĠÙħØ³Ø§Ø¨
ĠØ¨ÛĮØ³Øª
odes
Ø§Ø±Ú©
ĠØ§ÙħÙĨÛĮ
Ġeye
ÙĪØªØ±
Ġprotect
ĠØ·Ø±ØŃ
Ġusually
ĠÙħØ±ÛĮ
Ġlives
Ġpretty
ĠØ®Ø±ÛĮØ¯
ĠØ¹Ø¨Ø§Ø±Øª
ĠAlex
Ġmer
Ġ("
Ġsimple
ellig
ĠØ¹ÙĦØª
ĠØ¹ÙĦÙħÛĮ
riage
ĠÚ¯Ø°Ø±
ĠØ§ÛĮØ³ØªØ§Ø¯
Ġmess
apt
Ġwritten
ĠØ§Ú©
inary
Ġsn
ĠØ±ÙĪØ³Øª
ining
gs
idered
Ġdeter
hel
Ġfa
ĠÛĮÙĪÙĨ
ĠØ¹ÛĮÙĨ
antly
ĠØªÚ©Ø±
Ġcross
Ġredu
Ġi
ĠÙģØ±Ø§ÙĨØ³ÙĪÛĮ
Ġpress
ishing
Ġcomb
rest
oms
ili
ĠÙģØ±Ø§Ø±
ĠÙĨØ´Ø¯
ĠMay
Ġmethod
Ġrepresent
ĠÙħÙĨØªØ¸Ø±
Ġscient
ese
ĠØ§Ø±ØªØ´
ĠÙħØ±Ø§ÙĤ
ration
Ø±ÙĪÛĮ
Ġbene
Ø§Ø¯ÙĪ
ĠØ´ÙħØ§ÙĦ
ĠÙħØ¨Ø§Ø±
Ġbank
ĠØ§ÙģØ³
ĠØ¨Ø±ÙĤ
Ġtele
ĠÙģØ±ØµØª
Ġmor
ential
ĠÙĨÙĪØ¹ÛĮ
Ġcorn
ĠÙħÛĮØ²Ø§ÙĨ
}}
Ġcou
Every
Ġgra
ops
ÙĨÛĮÚ©
Ġposition
mp
ĠØ¨Ùģ
ÙĪØ±Ú©
ĠØ§ÙħØ±
ĠØ´Ø§Ùħ
Ġaccept
Ġdecided
ĠJu
Ġcomputer
vin
ĠÙĤØ¨ÙĦØ§
when
ĠØ´ÙĨÛĮØ¯Ùĩ
Ġlaugh
ØªØ³
ĠÙĤØ·Ø¹
Ġreceived
ĠÙħÙĦØ§ÙĤØ§Øª
Ø¶ÛĮÙĩ
light
ocr
Ġprobably
Ġ14
ĠØ³ÛĮØ§Ø³Øª
Ø¨ÙĦÙĩ
Ġengine
ĠØ¨Ú¯ÙĪÛĮØ¯
ĠØ¹Ø±Ø¶
istic
ĠÙĤÛĮØ§ÙģÙĩ
Ġinstead
pecially
ÙĪØ±ÛĮÙĩ
oman
imate
got
Ġauthor
ĠÚ¯ÙĪØ´Ùĩ
ÙĨØªÛĮ
ĠØ§ÙĨÚ¯ÙĦ
ĠØ¢ÙħÛĮØ²
Ġwasn
ological
Ø§ÛĮÙĤ
Ġarg
Ġarch
ĠKing
ĠÙĨØŃ
Ġsmile
Ġsomeone
ĠÛĮÛĮ
ĠØªÙĩÛĮ
ĠØ§Ú©Øª
ĠÛ±Û¹Û·Û
Ġtruth
ĠÚ©ÙĪØ¯Ú©
ĠØ¨Ø±Ø¢
ĠLondon
Ġwalked
Ø§Ø±Ùħ
ĠÙħÙĨØ§Ø¨Ø¹
ĠÙĨØ§Ø±Ø§ØŃØª
ming
Ø³Ú©
ĠØ¢ÙĦØ¨
ĠØ§ÙĦÚ¯
Ġinvest
ĠØªÙħØ§ÙħÛĮ
Ġnor
ĠÙĬ
ĠØ´ÙĨØ§Ø®Øª
Ġsimilar
Because
Ġcouldn
ĠPe
ĠÙ¾Ø¯Ø±Ø´
ĠÙĨØªÙĪØ§ÙĨ
ĠÙ¾ÙĨÙĩØ§ÙĨ
Ġsong
Ġspecial
ĠÙĤØµØ¯
Ġnature
ĠØ®ÙĪØ¯Ø´Ø§ÙĨ
Ġheav
ĠØ¨ØªÙĪØ§ÙĨØ¯
ĠÙĦØ°Øª
ĠÙĨØ±
Ġquickly
Ġpaper
ival
ĠØ«Ø§Ø¨Øª
ĠØ´Ø¯ÛĮØ¯
how
ĠØ¯Ø±Ø¬Ùĩ
Ġsociety
Ġparent
ĠØ¨Ø§Øº
Ø¨Ø²
Ġmembers
ĠNorth
ĠÚ©ÙĦØ§Ø³
ously
ideo
Ġspir
Ġmarket
ÙĩÙĨÚ¯Ø§ÙħÛĮ
ĠØ³Ø§ÛĮØ±
ĠØ¯Ø³ØªÛĮ
Ġtot
ĠØ¯ÙĩÛĮØ¯
Ġopened
ĠØ¹Ø¶ÙĪ
ada
Ġdevelopment
loy
ĠÙĩÛĮØ¬Ø§ÙĨ
Ġseries
ĠØ¯ÙĤØª
ament
overed
Û°Û°Û°
ÙĪÛĮÙĦ
ĠWill
go
ÙħØ´
Ġnational
ĠØ¨Ø§ÛĮØ³Øª
ĠØ¨Ø§Ø²Ø§Ø±
ĠØ±ÙĪÙĨØ¯
ĠÙħØ¹ÙĦÙĪÙħ
ĠØ®ÙĪØ§Ø³ØªÙħ
ÙĨÚ¯Ø§Ùĩ
Ġpick
ĠÛ·
ĠØ±ÙĤØµ
ØªÙĨÙĩØ§
Ġinflu
hers
iling
Ġfunction
ĠØºØ±ÛĮ
ĠØ³Ø§ØŃ
ĠFor
Ġconsidered
Ø¯ÛĮÙĨ
Ġtheory
ÙĪÛĮØ²ÛĮ
Ġindust
Ġbuilt
ĠÙ¾Ø±ÙĪØ§Ø²
ike
ĠÙĤÙĪÛĮ
ĠArab
Ġwish
ĠÙħÙĪØ±
Ġfill
Ġjo
Ġimm
ØºÙĦ
ĠÚĨÛĮØ³Øª
Ø¨ÛĮØ±
ĠØ³ÙĪØ§Ø±
ĠØ³Ø±Ø¨Ø§Ø²
ĠÙģØ¹Ø§ÙĦ
Ġreturned
Ġcamp
Ġforward
ĠØ®Ø§ÙħÙĪØ´
ĠÚĨÛĮØ²ÙĩØ§
ĠØ´ÙĨÛĮØ¯
ĠÙ¾ÛĮÚĨÛĮØ¯Ùĩ
uz
Ġforce
unch
ĠHer
Ġkey
ĠÙħÙĨØ§Ø³Ø¨
ÙĪØ²Ùĩ
ironment
Ġmist
Ú¯Ø§ÙĨÙĩ
ÚĨÙĨØ§ÙĨ
Ġsex
ift
ĠØ§ÛĮØ§ÙĦØª
ĠÚ¯Ø³ØªØ±Ø¯Ùĩ
ĠÚ©ÛĮÙĦ
ĠNo
Ø¦ÙĪ
ĠII
Ġship
anger
ires
lam
Ġce
Ġdise
ĠØ§ÙĨØªÙĤØ§ÙĦ
ĠÙģØ±Ùħ
Here
oe
Ø§ÙģØ¸Ùĩ
Ġlocal
oot
ĠØ§ØªØŃ
ĠØ¹Ø¨ÙĪØ±
Ġservice
ĠØ±ÙĪØ²ÛĮ
Ġcreated
±Û°
Ġadded
Ġ100
Ġperfect
face
Ú¯ÙĦ
Ġyes
ĠÙħÙĪØ§Ø±Ø¯
Ġ2010
Ġbeginning
Ġscience
uct
Ġpot
Ġcompan
ĠØ§Ø¹Ø¶Ø§ÛĮ
Ġsoul
Ġchanged
Ġcried
Ø¯ÙĨ
ĠAmerica
ĠQu
ĠÙħØ§Ø¯Ø±Ø´
Ġwonder
Ø§ÙĨÚ¯ÙĦÛĮØ³ÛĮ
ĠØ§ØŃØªÙħØ§ÙĦØ§
ĠÙĨØ¸Ø±ÛĮÙĩ
Ġwide
Ø±Ø§Ø³
Ġspecies
ĠÙħØ·ÙħØ¦ÙĨ
Ġthr
ĠÙħØ®Ø§ÙĦ
Ù¾ÛĮØ´
ĠÙģØ±Ø§ÙĩÙħ
Ġut
Ġmemory
ĠØ§Ø¨ØªØ¯Ø§
view
Ġgrand
ĠØ¯Ø±Ø³
ĠØ¯ÙĨÛĮØ§ÛĮ
yond
ĠØ±Ø§ÙĨ
ĠÚ©Ø´ØªÙĩ
ĠØ±ÙĩØ§
ĠØ¨Ø§Ø±ÛĮ
Ġsus
ences
Ø¨ÛĮÙĨØ¯
ggest
Ġcolle
ĠÙħØ±ØŃÙĦÙĩ
ĠÙĪØ§ØŃ
ØºØ§ÙĦ
Ġsitting
ĠÚ©Ø³Ø¨
ĠØ¯ÛĮÙĨ
Ù¾Ùĩ
Ġgreen
Ġtrad
ĠØ³Ú¯
ĠIS
ĠØ§Ø³ØªØ§ÙĨØ¯
Ø¯ÙĩØ§ÛĮ
ÛĢ
Ġimpro
Don
ĠØ§ÙĨØ¬
ÙĨØ¯ÙĨ
ĠCounty
Ġran
ĠØ¹Ùĩ
Ġlocated
Ø±Ø§Ú©
hood
ĠÙ¾Ø´ØªÛĮ
ĠÙĨÙħØ§ÛĮØ¯
ĠÙħØ´Øª
Ø§ØŃØ¨
ÙħÛĮÙĨØ§ÙĨ
ĠÙħÙĨØ¬Ø±
Ġcommand
agn
ĠØ®ÙĪØ§ÙĩÛĮ
Ġmilitary
Ø§Ø±ØªÛĮÙĨ
Ġprison
ĠØ®ØµÙĪØµÛĮ
Ġsir
ighb
ÙģØ³
ĠØ³ÛĮÙĨÙĩ
urd
ĠØ§ÙĨÚ¯ÙĦØ³ØªØ§ÙĨ
Ġcreate
ĠØªØ±Ú©ÛĮØ¨
ĠÛĮØ§Ø¨Ø¯
Ø¹ØªÛĮ
ĠØ¨Ø²ÙĨ
Ø±Ø§Ø±
ĠØ§Ú¯Ùĩ
Ø§ØµÙĦ
Ġbooks
Ġprofess
11
ĠØªÛĮØ±
ÚĨÛĮØ²ÛĮ
ĠÙħØ§Ø¯
Ġattention
ĠØ³Ø¨Ø²
ĠÚĨÙĪØ¨
ĠÚ©ÙĪÚĨÚ©ÛĮ
cus
ĠÚ©ÙĪØ±
Ġmount
ĠØ¯ÙģØª
ĠØ¢Ø³ÙħØ§ÙĨ
ĠÙħØ´ØªØ±
bon
iction
ĠØ«Ø±ÙĪ
ĠØ¢ÙģØ±ÛĮ
Ġmiss
Ġsuggest
Ġaccess
ĠØ³ØªØ§Ø±Ùĩ
ĠÚ¯ÙĪÛĮÙĨØ¯
ume
Ġstrange
Ġir
Ġdue
ØŃÛĮÙĩ
ĠÙĪØ¸
ĠØªÚ©Ø±Ø§Ø±
add
ĠØ§ÙĨÚ¯Ø´Øª
Ġfollowed
ÙħØ«ÙĦ
Ġworked
Ø¸ÙĩØ§Ø±
ĠÙĤÛĮÙħØª
ĠØ§ÙĦÛĮ
ox
Ġready
Ġsend
ĠØ§Ø®ÙĦØ§
Ø²Ø§
ĠÛ±Ûµ
iam
rid
uk
Ä±
Ġfurther
ĠÚ©ÙĦØ§Ùĩ
Ġestab
ĠParis
anced
Ġdoll
ĠÛ±Û³Û
ĠØ¨Ø¨ÛĮÙĨÙħ
ara
iment
ĠÙħØ¹Ø±ÙģÛĮ
Ø«Ø§Ø±
Ġcoll
Ġgold
ĠGeor
ĠØªÙĪØ§ÙĨØ§ÛĮÛĮ
ĠØªÙĦÙĪÛĮØ²ÛĮ
raft
ĠÙĩÙĪØ§Ù¾ÛĮÙħ
ĠØ¨Ø¯ÛĮ
Ġways
Ġstri
Ġlived
ĠØ§ÙĨØ¯Ú©ÛĮ
Ġbott
Ġteac
ĠÙĨØ¯Ø§Ø±ÙĨØ¯
ĠØ²ØŃ
ĠÙħØ±Ø¯Ùĩ
ÙħÙĪÙĨ
ĠÙħÙĨØ§Ø·
Ġwood
omen
ĠØ§ÙĤØ¯Ø§Ùħ
Ġfing
ĠHar
Ø¹ÛĮÛĮÙĨ
ĠØªØ®Øª
ĠFl
cks
ĠÙħÙĪÙģÙĤÛĮØª
ĠØªÙĨØ¯
ĠØŃØ²Ø¨
Ġparty
Ġcapt
Ġoccur
ging
Ø²Ø§ÙĨ
Ġdom
ĠÙĤÙĪØ§ÙĨ
ĠPart
ears
Ġwrote
Ġdeveloped
estern
ĠØ´ÙħØ§ÙĦÛĮ
ĠÙ¾Ø³Øª
ĠØ¨Ø±Ø®Ø§Ø³Øª
ĠØ¢ÙħÛĮ
ency
Ġx
ushed
istan
ruction
ØµÙģ
ĠÙĦØª
ĠÚ¯ÛĮØ±ÙĨØ¯
ED
Ġtree
Ġeff
Ø®ÙĪØ§Ø¨
ĠØ±ÙģØªÙħ
Ġquiet
ĠØ¯ÚĨØ§Ø±
ĠÚ©Ø§Øº
ĠØ±Ø§ØŃØª
Thank
ĠØ±ÙĪØ§ÙĨ
ĠØ´Ø§ÙĨÙĩ
Ġsepar
ĠÚĨÛĮØ²ÙĩØ§ÛĮ
ĠØ§ØŃØªØ±
ĠØ¯ÙĩÙĨØ¯Ùĩ
ĠØ®Ø§ØµÛĮ
ĠØ³Ø¨Ú©
etic
ĠÛ¹
Ġrepe
ĠÙĦØ§ØªÛĮÙĨ
Û±Û¹Û
ĠFrance
Ġsitu
artment
ĠØµØŃÙĨÙĩ
Ġcompl
cient
itude
Ġseven
Ġaff
Ġexperience
Ã¼
ĠÚ¯Ø´
Ù¾Ø¯Ø±
ÙĦÛĮØª
Ġfav
ØµØ¯Ø§ÛĮ
ĠÙĪØ§Ø±
Ġsuff
Ġcells
Ġcause
ĠBritish
ique
ĠØ¢Ø¯
Ġbehav
Ø´ÙĨØ§Ø³
Ġbeautiful
Ø¯Ø³
ĠÙħØ§Ø¯Ùĩ
reme
ĠÚ¯Ø±ÙģØªÙĨØ¯
Ø®Ø±
ĠØ¬ÙĦÙĪÛĮ
raid
ĠØ¨Ø±ÛĮØªØ§ÙĨÛĮØ§
ĠÙĨØ¯Ø§Ø´ØªÙĩ
Ø§ÙģØª
Ġchem
Ġpull
ĠØ®ÙĪØ±Ø¯Ùĩ
Ġvalue
ball
ked
raz
Ġstopped
omb
Ġobser
ĠØ§Ø¸ÙĩØ§Ø±
ĠÙħÙĪØ¬Ø¨
Ġconsider
Ġsimply
Ġintrodu
ingly
Ġcrit
yl
Ġtype
ĠØ·ÙĦ
From
ĠÙħØ¨Øª
Ø§Ø±ÛĮØ³
ĠØ¢ÙħØ¯ÙĨØ¯
Ġtill
Ġfast
ĠMarch
Ġattempt
ĠÙĤØ¨ÙĪÙĦ
Ġmovement
Ġreached
Ġ25
ĠØ§Ø·ÙħÛĮÙĨØ§ÙĨ
sequ
Ġvarious
ĠØªØ¹ÛĮÛĮÙĨ
Ġbecom
ĠØªØŃÙħÙĦ
ØªÙħÙĨØ¯
ĠÛ´Û
Ġappeared
do
ĠØ§ÙĤØªØµØ§Ø¯
Ġcontinued
ĠØ®Ø¨
ĠÚĨÙĨØ¯Ø§ÙĨ
ĠÚ¯ÙĪÛĮÙħ
Ġformer
Ġinn
ĠÙĨÙĤÙĦ
Ġglass
ĠÙħÛĮØ´
ĠÎ
Ġrob
ĠØ²ÙĨØ¯Ø§ÙĨ
owers
ĠØºÙħ
Ġkilled
ĠEn
Ġnamed
ĠÛ±Û¹Û¶Û
ague
ĠÃ
Ú©Ø±ÙĪ
icle
ĠÙħØ¯ÛĮØ±ÛĮØª
ĠØºØ±Ø¨ÛĮ
ĠØªÚ©ÙĨ
Ø§ÙĪØ±Ø¯
Ġesc
Ġstanding
uel
ÙĪÛĮÙĨ
ĠØºÙĦ
Ġimmedi
ĠØªØŃÙĤÛĮÙĤ
Ġsor
Ġbes
ĠVal
ĠÙ¾Ø²Ø´Ú©ÛĮ
ĠØ¬Ø¯
Ġblue
ĠMus
agement
ĠØ´Ø§Ø¯
lling
Ġge
Ġcommunity
Ġgirls
ĠÙħØ¨
ĠâĪ
ĠMad
Ġterri
ĠÙ¾ÙĦÛĮØ³
ĠÙģØ±ÙĩÙĨÚ¯
sc
ills
ĠÙħÙĤØ§Ùħ
ĠÙĩÙħÚ©Ø§Ø±ÛĮ
ama
ĠÙĨØ´Ø§ÙĨÙĩ
ournal
Sh
ĠØ§Ø¨Ø²Ø§Ø±
ĠÙ¾ÛĮØ´Ø±ÙģØª
ØªØ´Ø§Ø±
ĠØ±Ø³Ø§ÙĨØ¯
ĠBut
inct
Ø§Ø¨Ø·
Ġfine
ĠHist
itect
Ġdistrict
ibility
ĠØ¯Ø§Ø®ÙĦÛĮ
ĠØ¢ÙģØª
Ø§Ú©ÛĮ
ÙĩÙĪØ±
ica
Ġmiddle
his
ĠØªÙĪØ§ÙĨØ³ØªÙħ
ĠØ´Ø§ÛĮ
Ġstreet
ĠÙħÙĤØ§ÛĮ
AS
ÙĪÛĮØ¯
Ø¯Ø§Ø¯
usion
ta
Ġsea
Ġmouth
ĠÙĤÙĩ
there
ĠØ§ÙģØ²Ø§Ø±
ĠØ¯Ø±Ø®
who
ĠØ®Ø§Ø±Ø¬ÛĮ
Ġfif
Ġpublished
Ġneighb
Ġmeant
ĠØ§Ø¹ØªÙħØ§Ø¯
Ø³Ø§ÛĮ
ĠMed
Ġjud
wered
Ġdie
Ġterm
ÙĪØ±Ø§ÙĨ
ĠÙĨÙĤØ§Ø´ÛĮ
ĠØ®ÙĪØ¯Øª
ĠJune
ray
isf
ĠÙħÙĤØ§ÛĮØ³Ùĩ
ĠØ¨Ø¨ÛĮÙĨØ¯
Ø±Ø§ÙĨÛĮ
Ġver
Ġspecific
Ú©ÙĨØ´
ĠØŃÙĦÙĤÙĩ
ĠØ³ÙĪØ¯
ĠÙĨØ§Ø®
ny
ĠØ³Ø§Ùħ
ĠØªØ¹Ø¬Ø¨
ĠÚ¯Ø³ØªØ±Ø´
Ø³Ø§Ø²ÛĮ
Ġseeing
ĠØ§ØŃØ³Ø§Ø³Ø§Øª
ĠØ³Ú©ÙĪØª
Harry
ĠÙĨÛĮØ±ÙĪÙĩØ§ÛĮ
Ġpath
ĠØ´Ø®ØµÛĮØª
Ġdepend
ĠØ¨Ø²ÙĨØ¯
ĠØ§ÙĪÙĤØ§Øª
ĠÙħØ¹ÙħÙĪÙĦ
Ø§Ø±ÙĪ
ey
ĠÙħÙģÙĩ
ĠØ´Ø§Ø®
ĠØ³ÛĮÙħ
aven
ĠÙħØ³ÙĦ
ĠØ²Ø¯ÙĨØ¯
ØªØµ
Ø³ÙĦ
Ġdecl
Ġworks
Ø§Ø¯Ø«
ĠÙĩØ³ØªÛĮ
ĠØ¨ÛĮØ§ÛĮØ¯
Ġpurp
ĠÚĨØ§Ø±
ĠØ¨Ø¨
Ø§ÙĨÙĪØ³
ĠØªÙģØ§ÙĪØª
ĠØªÚ©Ùĩ
ĠÚĨØ§Ù¾
ĠØ±Ùģ
ÙĤØ±Ø§Ø±
Ġbab
ĠJan
inal
Ø¬Ø§Ø³Øª
ĠØ¹ÙĦÛĮÙĩ
ĠØ§ÙĨÚ¯Ø§Ø±
ĠØ§Ø³Ù¾Ø§ÙĨÛĮØ§
ĠÛ±Û¹Û´Û
Ġmaybe
ights
ĠAfrica
ĠÙĪÛĮÙĨ
Ġafraid
ĠÙ¾Ø±Ø¯Ø§Ø²
ĠRes
ĠCal
ĠØŃØ±ÙģÙĩ
ĠÚ©Ø±Ùĩ
ĠØ§ÙĨÙĤÙĦ
ĠØ®Ø³ØªÙĩ
ĠØªÙĤØ³ÛĮÙħ
ĠIndia
ĠØªØ¦
ĠØ¬Ø²ÛĮØ±Ùĩ
Ġfloor
ĠØ§Ø®ÛĮØ±
Ġavail
ĠÙģÙĦØ³
uary
Ġproblems
ĠÙĪÙĤ
Ú¯Ø°Ø§Ø±
Ġdin
ĠØ¯Ø§ÙĨÛĮØ¯
ĠÚ©ÙĦÙħØ§Øª
CA
ØŃÙĦ
ĠØ¯Ø±ÛĮØ§ÛĮÛĮ
Ġenvironment
Ġknowledge
Ġ2012
18
Ġ$
ptember
Ġfix
emy
ĠØ³Ø§Ø²Ø¯
ya
ĠÙĨÚ©ØªÙĩ
ĠEarth
ĠØ¹ÙħØ±
Ġespecially
ĠØ«Ø¨Øª
ĠÙĩÙħÚĨÙĪÙĨ
Ġrights
ĠØ¯Ø§ÙĨØ¯
ĠDon
rupt
ĠØ¢ÙĩÙĨ
ĠÙģØ±Ø§ÛĮÙĨØ¯
Ġoffice
ĠØªÙĩÛĮÙĩ
Ġwrite
Ġinclude
Ġast
Ú©Ø´ÛĮ
Ġcomplex
Ø´Ø±
ĠÙĩÙĪØ§ÛĮÛĮ
Ġrespons
Ġlearned
Ġbeyond
ĠÙ¾ÛĮØ§Ùħ
ĠSec
ĠØ§Ø·Ø§ÙĤ
ĠÙĤÙĪØ§ÙĨÛĮÙĨ
ounced
chie
ĠØ¬Ø§ÙĦØ¨
wo
ĠÙħÙĩØ§
ĠÙģØ¶Ø§ÛĮ
Ġsister
chan
Ġsett
ĠÙħØ´Ø§Ø¨Ùĩ
ĠÙģÙĨØ§
ĠÙĨÙĩØ§Ø¯
ĠSan
ĠÚ©Ø§Ø±Ø¨Ø±Ø¯
ĠÙĪØ§ÙĤØ¹ÛĮØª
ÙĪØ±Ø´
Ġhop
ĠØ¨Ø´ÙĪØ¯
oices
ĠÙħØ´Ú©ÙĦØ§Øª
Ø³Ùģ
ĠØ§ÙģØªØ¯
Ġcarry
ĠPa
ĠÙĨÛĮÙĪÛĮ
Ġcivil
ĠÙģØ§Ø±
Ġ50
Ġreplied
ĠÙĪÛĮÙĦ
Ġfund
ĠØ¨Ø¯ÛĮÙĨ
Ú¯Ø§Ø±ÛĮ
Ø§Ø²Ø¯Ùĩ
ager
Ġpred
itor
ĠØ¨Ú¯ÙĪÛĮ
osing
itional
ĠØ§ØªÙģØ§ÙĤÛĮ
Ġtwenty
iff
ĠÙĦÙĨØ¯ÙĨ
Ġeffort
Ġpeace
Ġmodern
Un
Ø³Ú©Ùĩ
ĠØ¬ÙĨÚ¯ÙĦ
uf
Ã¡
ĠØ®Ø´Ú©
Ġdesp
Ġexactly
ĠÙħØ±Ú©Ø²ÛĮ
ĠCity
ĠØ±ÛĮØ®Øª
ĠÚ©ÙĨÙĨØ¯Ú¯Ø§ÙĨ
Ġclaim
ĠØ¨ÛĮØ¯Ø§Ø±
ĠØ¬Ø³
ÙĪÛĮÚĨ
Ù¾ÙĦ
ĠÙ¾ÙĨØ§Ùĩ
ĠÙĨÙĪÛĮ
lock
Ġeveryone
reed
Ġprev
ĠØ§Ø¯Ø§Ø±Ùĩ
ĠØªÙĦÙģÙĨ
ators
ĠØ¢ÙĦÙħØ§ÙĨÛĮ
ites
ÙĪØ§Ø¹
Ø¨Ø²Ø±Ú¯
Ø¨Ø§Ø±ÛĮ
Ġassoci
Ġreleased
ĠâĢĿ
ĠØªØ§Ùħ
bec
Ġanyone
ĠØ³ÙĨØª
ĠØ¨ÛĮÙĨØ¯
ĠØ¨Ø§Ø´Ùĩ
Ġtrees
ĠÚ©Ø±ÛĮØ³ØªÙģ
ĠØ´ÛĮÙħÛĮØ§ÛĮÛĮ
ĠÙħØ¯Ø§Ø±
ĠØ³ÙĪØ²
ĠÛ±Û¹
ĠÚ©ÙĦØ§ÛĮØ¯
ĠCo
ĠØ¢Ø³ÛĮØ¨
ength
ĠØ¢ÙĦØ¨ÙĪÙħ
asc
ĠØ¨ÙĩØ±Ùĩ
ĠØ¯Ø¹ÙĪØª
Ġwat
Ġmaster
resh
Ġeasy
ĠØ³Ø§ÙĦÚ¯ÛĮ
ternet
ĠÙĨÛĮØ³ØªÙħ
Ġcollect
ĠÙĤÙĪÙĦ
ĠÙħØ¯ÛĮØ±
Ġspoke
ography
ĠÐ
ĠÙĤÙĩØ±
ĠØ³ÙĪØ±
ĠØ§ÙģØ±Ø§Ø¯ÛĮ
ĠÙħØ°Ùĩ
ĠÙħØ§ÛĮÙĦ
ĠÙĨØ§Øª
dom
ÙħØ§Ø¯Ø±
Ġhappen
ĠØ´ÙĩØ±ÛĮ
ĠØ§Ø³Ù¾Ø§ÙĨÛĮØ§ÛĮÛĮ
Ġofficial
arily
Ġfort
ram
Ġneeded
Ø§ÙĨÛĮÙĩ
ĠÙħÙĨØ§Ø·ÙĤ
Ġtoward
Ġregard
ĠØªÙĪØµÛĮÙģ
ĠØ¯ÙģØªØ±
ÙĪØªÛĮ
Ġking
ĠÙĤØ±ÙħØ²
ĠÙģØ±Ø²ÙĨØ¯
ĠØ§ÙĨØªØ´Ø§Ø±
Ġ2008
iant
ĠChristophe
ĠÙ¾Ø§Ø±ÛĮØ³
Ø§ÙĦÛĮØ§
ĠÙĩØ±ÚĨÙĩ
Ġmarried
ĠØ®Ø±ÙĪ
ĠØªØŃØµÛĮÙĦ
Ġ2011
Ġfac
ĠBer
owd
ĠÙ¾Ø§ÙĨ
set
Ġwhis
Ġdoctor
Of
ĠØ¹ÙĤÛĮØ¯Ùĩ
ĠØªÚ©ÙĨÙĪÙĦÙĪÚĺÛĮ
ĠØªØ±Ø¯
gorith
ĠÚ¯ÙħØ§ÙĨ
Ġwouldn
ĠØŃÚ©ÙĪÙħ
Ġdoubt
iverse
ĠÙ¾Ø®Ø´
ĠØ±Ø³ÛĮØ¯ÙĨ
ĠÚ©ÛĮÙģ
ĠØ¨Ø±Ú¯Ø²Ø§Ø±
Ġquestions
Ġshare
Ġ2009
ugust
Ġcast
ris
Ø±ÙĪÙħ
Ø³ÛĮÙĨ
Ġinternational
ĠÙģÙĤ
irth
ĠÙħÙĪÙĤØ¹ÛĮØª
ĠØ¹ÙĦÙħ
Ġstra
oly
Ġspent
ĠØ¯Ø³ØªØ±Ø³ÛĮ
ctober
ban
ĠMon
ĠØ§Ø³Ø§Ø³ÛĮ
Ġcommunic
ĠÙĪØ¶Ø¹ÛĮØª
ĠÚ©Ø§ÙħÙ¾ÛĮÙĪØªØ±
Ø±Ø§ÙĤ
ĠØ¯Ø´ÙħÙĨ
ĠÙħØŃØ¨
Ġideas
Ġapplic
ĠØ§ÙģÚ©Ø§Ø±
Ø¯Ø§ÙĪ
Ú©ÙĦÛĮ
icro
Ġworth
AT
cil
ĠPress
Ġprim
ĠØ¨Ø¨Ø±
ĠØ±Ø§ÙĩÛĮ
Ġcontr
ĠSeptember
Ġindepend
ĠRussian
ĠÚ¯Ø°Ø§Ø±
ĠÙĪØ±ÙĪØ¯
ĠØ¹Ø§Ø¯ÛĮ
ĠØ®Ø¯ÙħØ§Øª
12
Ú©ØªÛĮ
ĠÚ¯Ø±ÙģØªÙħ
Ġexpression
Ġdrink
ĠDav
ĠØ¯ÙĤÛĮÙĤ
Ġdig
Ġpack
Ø¯ÙĪØ±
Ġsal
ÚĺÚ¯ÛĮ
ĠØ¨Ø´Ø±
?"
Ġpolic
ĠØ²ÛĮØ¨Ø§ÛĮÛĮ
Ġeat
iers
ĠØ§ÙĨØ¯ÛĮØ´Ùĩ
Ġpiece
reng
ØªÙħØ§Ùħ
ĠEuropean
ĠØ§ÙĦÚ©ØªØ±
Ġdanger
ferences
rum
ĠWest
ĠØ¬Ø¯ÛĮØ¯ÛĮ
Ġwaiting
ĠGermany
Ġfair
ĠØ¢ÙĨØ¯
ĠØ±ÙĪØ¯Ø®Ø§ÙĨÙĩ
ĠJew
ĠØ³ÛĮÙĨ
Ġda
ĠØ±ÙĪÙħ
what
irm
Ø±ÛĮÙħ
Ø¬Ø§ÛĮ
ĠØ§ÛĮÙĨÙĩ
ĠJuly
Ġmeaning
ĠÙĨÛĮÙĪÛĮÙĪØ±Ú©
ĠØ¨ÛĮÙĨÛĮØ¯
Ġcop
Ġrelationship
ĠÙĦØ·
Ġindeed
ĠØ¹Ø§ÙħÙĦ
ĠAt
ĠÙħØ¹ØªÙĤ
Ġtemper
ĠØªØ§ÙĨ
Ú©ÙĨØ§ÙĨ
fered
ĠØ±ÙĪØ³ÛĮÙĩ
Ø§Ø¯ÙĩØ§ÛĮ
ĠÙħÚ¯Ø±
Ø¦ÙĪÙĨ
uses
Ġur
ĠØ§ØµÙĦ
ĠØ§ÙĩÙĦ
ĠØ¢Ø´Ú©Ø§Ø±
Ġhy
Ġsilence
Ø´Ú©
Ġsize
ĠØ³Ø§Ø¨ÙĤ
ĠÙħØ¨Ø§Ø±Ø²Ùĩ
lying
Ġloved
Ġchance
Ġbox
Ġhorse
Ġcompletely
Ġmid
ilos
ĠÛ°Û°Û°
ĠNe
Ġeducation
omp
ned
Ø¨Ø±ÙĪ
ĠEngland
Ø§Ú©ÙĨÙĪÙĨ
het
ĠÙħÙĤØ§ÙĪ
ĠØ³Ù¾Øª
Ġburn
Ġnorm
ĠØªØµØ§Ø¯
Ġ2013
ĠÙ¾Ø±ÙĪØª
ĠÙĪØ³Ø·
ĠPres
ĠØªØ§Ø«ÛĮØ±
ĠÙħØ´ØªØ±Ú©
ĠÙģØµÙĦ
ĠÙħÙĩÙĨØ¯
Ġcapital
ustom
Ġamount
ĠØªØ§Ø±ÛĮÚ©
ĠØ§ÙĦÙĩ
Ġlargest
Ø¬Ø²
ĠØ¬Ø¹
ĠØ§ÙĨØ¯ÛĮ
ibly
Ġregion
Ġrunning
ĠØ³Ø§ÛĮÙĩ
bum
ĠØ´ÛĮÙĪÙĩ
ka
ĠPer
Ġaffect
pril
ĠØ¢Ø«Ø§Ø±
ĠÚ©Ø±Ø¯ÛĮ
Ġconcept
ĠØ¯ÙĦØ´
Ġchair
Ġconversation
Ġlooks
ÙĦØ²
ÙĤØ§ÙĨ
ĠÙĨØ§ÙħÛĮØ¯Ùĩ
Ġ>
Ġhost
ĠÙĩØ§ÛĮØ´Ø§ÙĨ
ossible
ĠØªØ¬Ø§Ø±ÛĮ
Ġsearch
bsite
ĠÙĢ
ĠÙħØŃØ¶
Ġstudents
Ġcoun
Ġprinci
Ġwarm
ĠØ³Ø®ÙĨØ§ÙĨ
Ġparents
ĠØªØºÛĮÛĮØ±Ø§Øª
Ġmunicipality
ĠØ¯ÙģØ§Ø¹
ĠØ´ÙħØ§Ø±Ùĩ
ÙĪØ±Ùħ
ĠØ³Ø±Ø²ÙħÛĮÙĨ
izing
Ġgoes
Ġsight
ĠÙģÙĨØ§ÙĪØ±ÛĮ
well
iny
ĠSam
Ġband
ĠØ²ØŃÙħØª
ĠØ®Ø¯Ø§ÛĮ
Ú©Ø±Ùħ
Ø¨Ø®Øª
bling
ovember
ĠØ§ÙĪÙĨÙĩØ§
lands
ĠØ·Ø¨ÛĮØ¹Øª
Ġproduced
aur
ĠØ¯ÙĤÛĮÙĤØ§
ÙħÛĮÙĦ
ĠÙĨØ§Ø´ÛĮ
ĠØ³Ø¤
Ø®Ø§Øµ
Ú¯Ø§ÙĨÛĮ
Ġstates
Ġcam
oid
ĠØ±ÛĮØ²
ĠChina
ĠØ®Ø´ÙĪÙĨØª
Ġisn
Ø¹Ø¯Ø§Ø¯ÛĮ
Ġavailable
Ġdress
ĠÙĨØ¨Ø±Ø¯
aud
ĠØªØ§Ø±ÛĮÚ©ÛĮ
Ġmember
Ġinit
Ġ2006
ĠØ¢Ø´ÙĨØ§
Ġstreng
ĠØ³Ù¾ØªØ§ÙħØ¨Ø±
Ġ[
gress
Ġrul
ify
ĠØ®ÙĪØ§ÙĨØ¯ÙĨ
Ġsignific
minist
Ġfem
199
ĠØ§ØŃØªØ±Ø§Ùħ
Ø¦Øª
Ġfigure
ald
ĠÙĨÚ¯Ø±Ø§ÙĨ
ĠØ¨Ø¯ÙĩÙħ
cember
ĠÚ¯ÛĮØ§Ùĩ
ĠØµØ§ØŃØ¨
Ø§ÙģÙĤ
Ġep
ĠPal
ĠØ¨ÙģÙĩÙħ
ĠÚ¯ÙģØªÙĨ
ĠTom
ification
aled
iced
Ġacqu
Ġpersonal
Ġweeks
Ġeconomic
ER
ĠØ¨Ø·
arden
mit
ĠØ¶Ø¹ÛĮ
ĠØ³Ø®ØªÛĮ
ĠOctober
Ġphysical
ĠAustral
Ã¶
room
ĠÙĤØ§ÛĮÙĤ
ĠÙĨÙħØ§ÛĮÙĨØ¯
Ġparts
ĠØ¬Ø´ÙĨ
ĠØ±ÛĮØ§Ø¶ÛĮ
ĠÙħØŃÚ©Ùħ
Ġbroad
Ġrate
ĠØ¯ÛĮÚ¯Ùĩ
Ġliter
During
Ġcode
ĠÙĤØ¶ÛĮÙĩ
Ġnearly
ĠØªÛĮØ±Ùĩ
Ø±ÙĪØ²Ùĩ
ĠØŃØ§ØµÙĦ
Ġcrowd
umb
Or
ĠMor
Ġemot
Ġaction
ĠÚ©ÙĦØ§
Ø§Ø±Ú©Øª
ĠShe
elligence
ÙĪÙħÛĮ
Ġclot
ghed
Ø§Ø¬Ùĩ
Ġwild
Ø¢Ùĩ
ĠÙĪÛĮÚĺÚ¯ÛĮ
ĠBar
kn
ĠØ¨ÙĪÛĮ
ĠØ§ÙħÛĮØ¯ÙĪØ§Ø±
aff
ĠØ§ÙĨØ¯Ø§Ø²
Ġtravel
Ġtit
ero
ĠØ§ØµØ·
Ġentered
ĠØ§ÙĨÙĪØ§Ø¹
Ġgroups
ĠÙģØ±Ø³ØªØ§Ø¯
ĠØ¹ÙĦÛĮ
ĠÚ¯Ø±ÛĮÙĩ
ĠÙħØ³Ø§ÙģØ±
ĠÚ¯Ø§Ø²
ĠØ¶Ø¯
Ġexec
Ġvideo
ĠÛ±Û²
ĠÙ¾Ø±Øª
ĠØ§ÙģØªØ®
Ġaud
aded
Ġsatisf
ĠØ¨Ø²Ø±Ú¯ØªØ±ÛĮÙĨ
was
Ġstraight
ĠÙħØ³Ø§Ø¦ÙĦ
Ġrole
ĠØŃØ¯Ø§ÙĤÙĦ
Ú©ÛĮÙĨ
ĠÙĩÙĨØ±ÛĮ
ĠAugust
Ġversion
Ġdeg
ĠDr
ĠØ±ÙĪØ§Ø¨Ø·
ĠÙħÙħÙĨ
Ġlikely
Ġpicture
Ph
Ġlady
ĠMary
Ġslight
ĠApril
ĠØ¸Ø±Ùģ
Ġtakes
atory
unk
Ġallow
Ġaddress
ĠØ¯Ø³
Ġalgorith
Ġvict
Ġspend
while
ĠÙĪØ§ØŃØ¯
Ġlif
ĠÙĨÙĪÛĮØ³ÙĨØ¯Ùĩ
Ġmoving
rey
ĠØ§ÙĨØ¬ÙħÙĨ
ĠÙĩØ³ØªÙĩ
olute
atever
Ġachie
Ġseems
ĠÙģÙĩÙħÛĮØ¯
Ġfrequ
Ú©ÙĪÙĦ
ÚĨØ´Ùħ
Ġlad
Ġdam
ĠØ§ØªÙĪÙħ
Ø£Ùħ
ĠØ±Ø§Ø¯ÛĮ
ĠØ³Ø§ØŃÙĦ
ham
Ú¯ÙĪÛĮ
Ġremained
ÙĪØ³ØªÙĩ
ĠÙħÙĪØªÙĪØ±
ĠØ¹ÙĩØ¯Ùĩ
ĠÙĤÙĩÙĪÙĩ
utions
Ġones
ĠÙĪØ¬Ùĩ
Ġopport
ĠMc
ĠØªÙĩØ¯ÛĮØ¯
Ġrisk
lla
Ġpolice
ĠØ¨Ø¨ÛĮÙĨÛĮØ¯
ĠØ¬ÙĦØ¨
ĠÙħØªØ´
ĠØ³ÙĪØ®Øª
ĠØ¬Ø§ÛĮÚ¯Ø²
ĠÙħØ¬ÙĦØ³
ĠAlexand
ĠSpain
Ġdemand
ĠÙĨÙĪØ´
ĠMos
Ġhigher
!...
ĠØ¨Ø·ÙĪØ±
Ġcy
ĠÚ¯ÙģØªÚ¯ÙĪ
Ġ|
Ġhat
ĠÙĪØ§Ú©ÙĨØ´
Ġcomfort
ĠØ§ÙħÙĪØ±
ÙĪÙĦÛĮØª
ĠÙħÙĪÙĨ
ĠÙĪØ§Ø¨
ĠØ´ÙħØ§Ø±
Ġvisit
ĠØ¯ÙĪØ´ÛĮØ²Ùĩ
ĠÙ¾Úĺ
Ġshowed
Ú¯Ø±Ø¯Ø§ÙĨ
ĠØ´Ø±ÙĤÛĮ
ĠØ®ÛĮØ±
ĠØµÙĪØ±ØªÛĮ
Ú©ÛĮÙĩ
Ġstar
Ġconcern
Ġ2007
50
ĠØªÙĪÙ¾
ĠØªÙħØ§Ø´Ø§
Ġplaces
ĠÚ©Ø§ØºØ°
ari
ĠØ³Ø§Ø®ØªØ§Ø±
ĠØŃØªÙħØ§
ĠEast
Ġfeat
Ġplayed
Ġanswered
asant
ĠÙħØ¹Ø±ÙĪÙģ
Ġrock
Ġallowed
Ġlower
ensive
Ġdiscuss
Ø§ÙĪÙĦÛĮÙĨ
ĠÙĦØŃØ§Ø¸
ught
isted
Ġweak
ĠÚ©ÙħØ§ÙĦ
ĠÙĩÙĢ
Ġbelieved
ĠØ³Ø¨Ø¨
Ġstandard
ĠDecember
ĠØ´Ø§Ø¯ÛĮ
ĠØ²Ùħ
ĠÚ©Ø§ÙĦØ³Ú©Ùĩ
ĠØ¯ÙĨØ¯Ø§ÙĨ
Ġraised
Just
ĠNovember
ĠØ¹ÙħÙĦÚ©Ø±Ø¯
Re
ĠÚĨØ±
Ġcompet
ĠÚ©ÙĦÛĮØ¯
Ġbound
ÙĪØ±ÛĮØªÙħ
rael
ĠØ§ØŃÙħÙĤ
ĠØ§Ø¬Ø±Ø§ÛĮ
Ġball
ĠØ¨ÙĩØ¨ÙĪØ¯
ĠØŃÛĮÙĪØ§ÙĨØ§Øª
come
ĠØ¯ÛĮÙĪØ§ÙĨÙĩ
ĠÙ¾ÙĦÙĩ
ilities
ĠÙĨØ§Ùĩ
ĠØŃØ§ÙģØ¸Ùĩ
ĠØ¹ØµØ¨Ø§ÙĨÛĮ
Ġdetermin
Ġpen
Ġterms
ĠLord
ĠÙħØŃØ§Ø³
ĠØ°Ø®
Ġ192
Ġknows
ĠØ¨ÛĮØ§ÙĪØ±
Ġdisease
rect
Ġgrew
ĠÙ¾ÛĮÙĪÙĨØ¯
onst
ĠÛĮØ®
Ġmad
Ġgiving
ĠÙĩØ¯Ø§ÛĮ
Ø¬ÙħÙĩ
Ġdefe
Ġmachine
ĠØŃÚ©ÙĪÙħØª
ani
ÙĨØ§Ùħ
Ø§ÛĮØ²
anish
Ø¹Ùħ
bert
ĠØ¨ÙĢÙĩ
ĠAnt
ĠØ¯Ø±ÙĪØº
ĠÙħÛĮØ¯Ùĩ
ÛĮÙģÙĩ
ĠÙ¾ÛĮÙħ
ĠØ´ØªØ§Ø¨
Ġmut
Ġsource
Ġ2005
asion
ables
Ð°
Ú©Ø¯Ùĩ
arlet
Ġdiscovered
ĠØºØ±Ø¨
Ġchanges
Ġslowly
ÙĦØ§ÙĪÙĩ
ĠRepublic
Ø±Ø¯ÙĪ
Ġrefer
ĠGreat
lim
Ġden
Ġshout
ĠØ§Ø¹ÙħØ§ÙĦ
ĠJanuary
Ġ<
iety
Ġtotal
Ġemploy
ØºØ§ÙĨ
ĠÛ³Û°
Ġanimals
ĠÙģÛĮÙĦÛĮÙ¾
ĠØ¨ÙĩØ´
ĠÚĺÙĪØ¦ÙĨ
Ġcolor
Ġund
ĠØ¹ÙĦÙĪÙħ
asing
Ġareas
Ġrose
Ġspread
ĠÙĩÙĪØ§ÛĮ
Ø§ÙĦÙħ
mon
ching
osition
Ġstories
Ġimpossible
itation
ĠØ®ÙĦÙĤ
Ġthus
ĠØ®ÙĪØ±Ø¯ÙĨ
sych
Ġunc
Ġwait
ĠØ¨ÙĦÙĪ
ĠÙģØ±Ø§ÙĨÚ©
Ġcorner
ĠØ³Ø§ÙĦÙħ
lict
Ġdru
ĠØ¨ÛĮØª
Ø³ÛĮÙĦ
ĠRober
Ġquar
Ġclosed
ÙħÙħÚ©ÙĨ
ĠÙģÛĮØ²ÛĮ
Ġalthough
Ġterror
ĠÙħÙĪØ³
cience
While
Ġfellow
ÙħØŃ
ĠØ§ÙĤÛĮ
Ø·Ùĩ
Ġmanner
Acc
ÙĪØ§ÙĤ
ĠØ¹ÙħÛĮÙĤ
era
ĠÛĮØ±
key
Ġspeed
ĠØ¨ÙĪØ³
irty
ĠØ´ÙĪÛĮÙħ
ĠØ§ØµÙĦØ§ØŃ
king
eness
icated
ĠØ®ÙĪØ¯ÙħØ§ÙĨ
Ġlear
cia
Ġprep
Ġprevent
ĠÙĨØ³ÙĦ
Ġphilos
ĠÙħØ®ÙģÛĮ
Ġchall
ĠÙħÛĮÙĨ
ĠØªØµÙĪÛĮ
ĠØ¢ÙĪÛĮ
ĠÙģÙĩØ±Ø³Øª
ÙĦØ§ÙģØ§ØµÙĦÙĩ
ĠÙħØ±ØªØ¨Ø·
ĠWhat
ĠØ§ÙħÙĨÛĮØª
Ġdinner
Ġcases
hemat
ĠØ¨Ø§Ø±Ùĩ
ĠØ§ÛĮÙĨØªØ±ÙĨØª
ĠParty
Ġlau
ĠØ§Ø³ØªØ§ÙĨØ¯Ø§Ø±Ø¯
Ġgas
ients
ÙĪØŃ
ĠØ®ÙĪØ§ÙĩØ±
Ø²ÙħØ§ÙĨ
ÙĤÛĮÙĨ
ĠState
ione
ĠØ¹ÙħÙĦÛĮØ§Øª
ĠÙħÙģÙĩÙĪÙħ
ĠØ¬ÙĨØ¨Ø´
ĠÛĮÙĩÙĪØ¯ÛĮ
bing
verage
ĠØ§Ú©ØªØ¨Ø±
Ġdollars
oes
Ġnumbers
Ġimmediately
ĠÙħÙĪÙĦ
Ġarchitect
Ġmention
Ġthreat
oking
Ġproduction
ĠØ³ÙĨÚ¯ÛĮÙĨ
ĠØ¢ÙģØªØ§Ø¨
ĠØ¢Ø±Ø§ÙħØ´
Ġnecessary
ĠÙħØ±Ø§ÙĤØ¨Øª
ux
ÙĨÙĪØ¹ÛĮ
Ġpopular
Ø§Ø®Ø±
ĠØ¢ÙĦÙĪØ¯
ki
Ġthoughts
Ø±Ø§Ø¶
field
ĠØ±Ø²
Ġheat
ĠÙħÛĮÙĦÛĮØ§Ø±Ø¯
Ġsafe
ĠØ¨Ø§ÙĦØ§ØªØ±
Ġdistribut
ĠÙ¾ÙĪØ´ÛĮØ¯Ùĩ
Ġlog
ĠÙģØ±ÙħØ§ÙĨØ¯Ùĩ
Ġglad
Ġamaz
ĠÙħÚ©Ø§ÙĨÛĮ
ancy
ĠØ¹Ø±ÙĪ
ĠÚ¯Ø±Ø§ÙĨ
ĠÙĦØŃÙĨ
ĠØ¯Ø±Ø®ÙĪØ§Ø³Øª
ria
ĠØ´ÙĪÛĮØ¯
ĠÙħØ§Ø±Ø³
ĠSer
ĠØ±Ø³Ø§ÙĨÙĩ
ĠÙħØ¬Ø¯
ĠØ¨ÙĨØ§
ĠØ¯ÙĪØ¯
ĠÙĨØ¯ÛĮØ¯Ùĩ
Ù¾Ø±Ø§Øª
ĠÙħÙī
Ġcat
Ġfinally
ĠØ±ÙĪÙĨ
Ú¯Ø±Ùħ
Ġcand
Ġrap
ÙĨØ²
ĠÙħÙĤØ§ÙĦÙĩ
ĠIslam
Ġtext
ĠArt
ĠØ³Ø¹
Ġwriting
ĠØ³Ø§Ú©Øª
ĠØ³ÙĦØ§Ùħ
ĠÙħØ¹ÙħÙĪÙĦÛĮ
ĠÛ²Û°Û±Û°
ĠØ¹Ø¸ÛĮÙħ
arc
ĠØ¢ÛĮÙĨØ¯
ĠÚ©ÛĮÙĦÙĪÙħ
Ġlips
Ġlinks
ĠØ®Ø±Ø¯
ucle
Ġhosp
Ġemer
ĠÙħÙĩØ§Ø¬Ø±
Ġcarried
Ġmechan
Ġminute
Ú©Ø§Ùħ
rov
ctions
ĠÙĤØ§ÙĨÙĪÙĨÛĮ
joy
Ø²Ø¯Ùĩ
Where
Ø³ÛĮÙĪÙĨ
ĠØ¨Ø§Ø´ÛĮ
ails
Ġdistance
Ġprivate
Ġder
ĠØ´Ø¯ÛĮÙħ
ĠÚ©ÙĨÙĨ
Ø¨Ø±Ø®ÛĮ
ĠÙħØ´Ø§Ø±Ú©Øª
ĠØ³Ø¤Ø§ÙĦ
ĠØ´ÙĩØ±ÙĩØ§ÛĮ
Ġimagine
ĠÚ©Øª
ĠÙħÙĨØ²ÙĦ
Ġtrem
ĠØ¢ÙĤØ§
Ġgun
ĠÙħÙĪØ¬
ises
ĠØ±ÙĪÛĮØ¯
ĠÚĺØ§Ù¾ÙĨ
reg
ĠDNA
ees
iation
ners
ĠÚ¯ÙĪØ´Øª
ĠPhilip
Ø³ØªØ±ÛĮ
ÛĮÙĩ
ĠPresident
appe
ĠØµØ¯Ø§ÛĮÛĮ
ĠØ²ÙĨÚ¯
ĠØ¨Ø±Ø³Ø¯
ĠØ§ÙĨØ¨
Ġdocum
ĠØŃÛĮØ±
ĠÚ©Ø§Ø±ÙĩØ§
Ġmur
Ġextreme
ĠØ³Ùħ
ĠØ¨Ø±ÙĪÙħ
ĠØ´Ø±ØŃ
ĠÙĨÚ¯Ø±Ø§ÙĨÛĮ
II
vision
Ø¯ÙĦ
ĠÙħÙĪØ§Ø¬Ùĩ
ÙĪÙĤÙģ
bru
ÃŃ
Ġnorth
Ġlength
ĠØ§Ø®ØªØµ
Ġglobal
Ġdifference
ĠØ´Ø§
Ġarmy
Ġextra
Ø±ÛĮØŃ
ĠMart
ĠÚ©Ø´Ø¯
Ġmine
Ø¨Ø±Øª
Ø§Ø¯ÛĮÙĩ
Ø¨ÛĮÙĨÛĮ
ĠInt
ĠØ¹Ø§Ø¯Øª
Ø¹Ú©Ø³
Ø±Ø§Ø¬
Since
Ġconscious
Ø§ÛĮØ¬
ĠÙĨØ§ÙĨ
ĠÙħÛĮØ´Ùĩ
ĠØ²Ø§
ĠHistory
Ġsecurity
Ġfinal
Ø³Ú©ÛĮ
ĠMer
Ġalbum
ÛĮØ§Ø·
ĠÙ¾ÙĩÙĦ
Ø´Ø§ÙĩØ²Ø§Ø¯Ùĩ
ĠAg
ĠÚ©Ø´Ø§ÙĪØ±
ĠØ´ÙĨÛĮØ¯ÙĨ
Ù¾ÛĮØ±
Ú©Ø±ÛĮØ³ØªÙģ
Ú¯Ø°Ø§Ø±ÛĮ
Ġmedia
Ġopt
Ø¨ÙĪ
ĠØ¯Ø§ÙĨÛĮ
Ù¾Ø²
ĠÙĤØ§Ø¨
ĠÚ©Ø§ÙĨØ§Ø¯Ø§
ĠØ§ÛĮØªØ§ÙĦÛĮØ§
ĠØ¨Ø±Ùĩ
ĠÙ¾Ø§Ø±Ú©
Ġcouple
ĠÙħÛĮØªÙĪØ§ÙĨ
Ø§Ø¯Ø§Ø±
Ġkids
ØºÛĮØ±
Ġhistor
iles
ĠØ®ÙĪØ¯ØªØ§ÙĨ
rief
aries
Ġbroken
ĠØ±Øª
Ġet
Ġstuff
Ġremark
ĠØ¨Ø±ÛĮ
teen
Ġbelong
According
Ġpurpose
ĠComp
ech
Ø±Ú©Ø²
Ġwebsite
ĠÙħÙĩÙħØ§ÙĨ
Ø¯Ø§ÙĪÙĨØ¯
itiz
ĠØ¬Ø²Ø¦ÛĮ
Ġoil
lyde
ĠÙħØ·Ø±ØŃ
Ġyell
Ø¸Ø§Ùĩ
ĠBlack
ÙĪØ§ÛĮ
ĠØ²Ø®
ĠSm
Ġsurface
Ġparticularly
lin
Ġemb
ĠÙ¾Ø±ÛĮ
ĠØ·Ø±Ø²
Ġbreath
ĠÛ¶Û
Ġdisp
ĠØ¹Ø¯Ø¯
15
Ġcaught
ĠÚ©ÙĢÙĩ
olf
erve
ĠØªÙĤØ§Ø¶
ĠØ¨Ú©Ø§Ø±
Ġprovince
Ġexpected
ĠØ±Ø§ØŃØªÛĮ
ÙĨØ§Ú¯ÙĩØ§ÙĨ
Ġheavy
ĠØ¬ÛĮÙħ
ĠÙĨÙĪØ§ÙħØ¨Ø±
order
Ġbelow
ĠØ³ÙĦØ§ÙħØª
ĠØªÙĨÚ¯
Ġpal
ĠØ¹Ø¯Ùħ
ĠÚ©ÙĦÛĮØ³Ø§
ĠØ¢Ø±ÛĮ
Ø§ÙĪÛĮ
ĠÙĪØ±ÙĪØ¯ÛĮ
Ø¯Ø±Ø³Øª
ĠÙ¾ÙĨØ¯
ĠÙħÙĨØŃ
ĠØµØ¨Ø±
istry
ĠÚ©Ø§Ø±Ø´
Ġstrength
ĠÙĤÙĦÙħ
ĠÙħØ³ØªÙĤÙĦ
ĠØ±ÛĮØ´Ùĩ
ĠÙħÙĤØ¯Ø³
ĠÙħÙĩÙħÛĮ
ÙģØ§Ø¸
ĠIsrael
Ġimage
Ġsurv
Many
ÙħØ·
astic
13
ĠØ¨Øª
arp
omm
ests
ĠØ¯ÙĪÙĦØªÛĮ
ÙħÛĮÙĪÙĨ
ĠØªÙĪØ§ÙĨØ³ØªÙĨØ¯
ĠÙĨØ§ØŃÛĮÙĩ
Ġpleasure
Ġopin
ĠÙ¾Ø´ØªÛĮØ¨Ø§ÙĨÛĮ
ĠØ±Ùħ
ĠØ±Ú©
ÙĩØ§ÛĮØ´
ĠÙĪØ§Ø³
Ġsteps
Ġpp
ĠÙħÙĨØ¨Ø¹
Ġresour
Ġdefin
Ġsilent
Ġ40
ĠØ¯ÙĩØ§ÙĨ
Ġneeds
ĠØ¹Ø²ÛĮØ²Ùħ
no
ĠÙģØ±Ø¶
Ġspirit
ivity
ĠÚĨØ§ÙĦ
ierre
ĠØ¹ØµØ¨ÛĮ
ĠÚ¯ÙĨØ§Ùĩ
Ġbillion
ĠÙĤØ·Ø¹Ùĩ
Ġreading
ĠÙĩØ¯Ø§ÛĮØª
dd
Ġbirth
Ġanx
ĠØµÙĦØŃ
Ġspeaking
chen
Ø±Ú©
ØµØ¨
ĠÙ¾ÛĮÙĪØ³ØªÙĩ
Ġsky
ĠØ¨Ø´ÙĨ
ĠÙħØªÙĪÙĤÙģ
ĠÙĦØº
Ø¬Ø§ÛĮÛĮ
ĠØ¯Ø³Ø§ÙħØ¨Ø±
ĠØ§Ø´Ø®Ø§Øµ
ĠÙħØ³Ø§Ø¨ÙĤÙĩ
alys
ĠØ¨Ø±Ø§ÛĮÙħ
Ġdirectly
ĠÚ©ÙĪÚĨÙĩ
Ġpossess
Ġoriginal
lt
Ġmill
ĠØ¯Ø§Ø¦
Ġtrust
ĠÙĪØ¸ÛĮÙģÙĩ
ĠØ¶Ø¹ÛĮÙģ
Ġsoftware
ĠÙ¾Ø±Ø³Øª
Ø§ÙĨØ³Ú©ÛĮ
ĠØ¯Ø§ÙĨØ´Ùħ
Ġcool
ĠØ¢ÙģØ±ÛĮÙĤØ§
Ġforget
ĠØ¨ÛĮÙĨÙħ
ĠØ¶ÙħÙĨ
ÛĮÙĨÙĪ
ĠØ°Ø®ÛĮØ±Ùĩ
Most
ĠÙĩÙĨØ±Ùħ
MD
ĠÙ¾Ø±Ø¯Ùĩ
ĠØ¹ÛĮ
ĠØ³Ø§Ø®ØªÙĨ
Ġess
Ø¢ÙĨÚ¯Ø§Ùĩ
Ġtears
vered
fection
ĠÙħØ¶
ÙĤØ§Ø¯
ether
Ġjoy
bered
Ġought
Ø§ÙħÛĮØ¯
ĠØ§Ø³Ú©Ø§Ø±
Ġturning
Ø§ÛĮØ¯Ùĩ
ÙĨØ§Ø³ÛĮ
Ġpock
ĠÛ±Û°Û°
Ġguess
ĠØ·Ø¨ÙĤ
Ġestabl
Ġenjoy
Ġprince
ĠØ¨Ø¯ÙĩÛĮØ¯
ĠØ±Ø³ÛĮØ¯ÙĨØ¯
Ġtrouble
Ø§ÙħÙĪÙĨ
ĠÙħØ±Ø²
ĠÙģØ±Ø¯Ø§
ĠØ§ÙĨÙĤÙĦØ§Ø¨
bes
ĠØ²ÙĪØ¯ØªØ±
Ġmere
ĠØ´ÛĮØ´Ùĩ
ĠØ§ÛĮÙĨÙĩØ§
Ġtalked
gypt
Ġinteresting
ÙħØ¬
ĠØ¨Ø§ÙĦØ§Ø®Ø±Ùĩ
ios
amb
Ġmagn
Even
roy
bruary
ĠÚĺØ§ÙĨÙĪÛĮÙĩ
Ù¾Ø§Ø±
Ġgrowing
ĠØ¬ÙĦÙĪÚ¯ÛĮØ±ÛĮ
Ġforces
ĠSu
ĠØªØŃÙĦÛĮÙĦ
ĠØªÙĪØ¬ÙĩÛĮ
ĠØ¬ÙĪØ§ÙĨÛĮ
book
ĠAng
Ġkiss
Ġhous
ores
ĠØ¹ÙĦØ§ÙĪÙĩ
Ø¢ÙĪØ±ÛĮ
Ġfilled
ounds
Ġneg
ĠØ¯ÙħÙĪ
ÙĪØ±ÙĨ
ĠÙĨØ²Ø¯ÛĮÚ©ÛĮ
Ø±Ø¯ÛĮ
rig
ĠØ¶Ø±Ø¨Ùĩ
ĠÛ²Ûµ
Ġevidence
Ġstructure
cked
tended
Ù¾Ø§ÛĮ
ĠÚ©Ø´ÛĮØ´
ĠØ¢ÙħØ¯ÙĨ
ĠØ¨ÛĮÙħØ§Ø±Ø³ØªØ§ÙĨ
à¤
Ø±ÛĮØ¨
ĠSte
ĠØ§ÙĨØ¯Ø§Ø®ØªÙĩ
ÙĪÙĤØª
eration
ĠØ·ÙĦØ§
Ġ24
eter
ĠØ§ÙĨØªØ®Ø§Ø¨Ø§Øª
ĠØ§ÙĦÚ¯ÙĪØ±ÛĮØªÙħ
ĠØ¨ÙĦØ§
ĠInternet
Ġcho
because
abor
Ġculture
ĠÙĨØ¨Ø§Ø´Ø¯
Ø¨Ø®ØªÛĮ
Ġfat
Who
Ú©Ø±Ø§Øª
Ġgreater
ĠØ§ÙģØªØ®Ø§Ø±
ĠÙħØ®ØªÙĦ
ĠØ®ÙĨØ¯ÛĮØ¯
ØŃÙħ
ĠØ§Ø³ØªØ§Ø¯
ĠÚ¯Ø±ÙĪÙĩÛĮ
vert
ĠØ³Ø±Ø§ÙĨØ¬Ø§Ùħ
ĠÙģØ±Ø¯ÛĮ
rs
ÛĮØ¹ÙĨÛĮ
ĠØ®ÙĦ
Ġairport
ĠÙ¾Ø§Ø±Ùĩ
ĠÚ¯Ø±Ø¯Ø´
Ġcertainly
Ġstrugg
ĠØ´Ùģ
Ġgenerally
Ġlanguages
ĠØ¯Ø±ØŃØ§ÙĦÛĮ
Ġconv
axim
Ġskin
ĠÚ©Ø±Ø¨
ĠØ¢ÙĨÙĤØ¯Ø±
Ġtask
Ġconsum
ĠÙħØŃØ§ÙģØ¸
Ø¨ÙĦÚ©Ùĩ
ÙĩÙĨÚ¯ÛĮ
ĠÙĨØ®Ø³Øª
AR
ĠØªÙ¾Ùĩ
Ġ2000
Ø±Ø§ÙģÛĮ
Ø±ÙĪÙĨ
ÙĪØ§Ø±ÛĮ
Ġshut
Ġtransl
Ø¯Ø®ØªØ±
Ø¨Ø¹Ø¶ÛĮ
zer
Ġhom
ĠØ§ÙĪØ§Ø®Ø±
Ġrain
ĠÙħØŃØ¨Øª
Ġ21
ØŃÛĮØŃ
ĠÙĨÙĪØ´ØªÙĨ
Am
Ġshad
ĠØ¯Ø§Ø´ØªÛĮÙħ
Ġempt
aste
Ġdescribed
ashing
Ġability
plement
Ġbright
Ġexcl
Ġpray
ĠDavid
ĠÙħÙĤØ§ÙĪÙħØª
Ġfreed
Ø®ÛĮØ±
ĠØ§ÙĤÛĮØ§ÙĨÙĪØ³
ĠØ¢Ú¯Ø§Ùĩ
ĠØ¢Ø³Ø§ÙĨ
born
ĠØ³Ø§ÛĮØª
ĠØ´Ú©Ø§Ø±
Ġhuge
ĠØ³Ø±ÙĪ
ĠÛ±Û¸
ĠÙĪØ±Ø²Ø´
Per
ĠØ³Ø±Ø·Ø§ÙĨ
ĠØªØ¬Ø§Ø±Øª
udd
Ġforgot
ĠØ®ÙĪØ§ÙĨØ¯Ùĩ
Ġevents
Ġdirection
Ġcompanies
ĠØ±ÛĮØ²ÛĮ
ĠØªÙĪØ²ÛĮ
Ġgrad
ĠÚ¯Ø±Ø¯ÙĨ
ping
ĠSchool
Ġfocus
ĠÙģØ¶Ø§
ĠØ¨Ø±ÙĨØ¯Ùĩ
Ġlearning
Ġsick
ES
ĠÙĪØ²ÛĮØ±
Ġbird
ĠØ¯Ø±ÙĨÚ¯
ĠSch
ĠRoman
ĠÙĨØ¯Ø§Ø¯
ĠØ³ÛĮØ§Ø±Ùĩ
pha
Ġoccup
):
rain
ĠÚĨÚ©
vere
Ġmeasure
Ø§Ú¯Ùĩ
ĠÛ±Û¹Û³Û
bles
Ġeverybody
ĠArmen
ÙħØ§Ø±
Ġsave
Ġdesigned
ĠØªØ¯Ø±ÛĮ
Ġstation
Ġplant
ĠØªØŃÙĤÛĮÙĤØ§Øª
Ú¯ÙĪÛĮÛĮ
ĠÙĩØ§Ø³Øª
ĠØªÙħØ±Ú©Ø²
ended
ĠÙħØ§Ùħ
Ġdeli
ĠØ¢ÙĪØ±Ø¯ÙĨ
Ġpowerful
gar
Ġboys
wise
Ġdim
aped
ĠØ§Ø±Ø²
Ġsummer
ĠØ¨Ù¾Ø±
ĠÚ©Ø§ØªØ±ÛĮÙĨ
ĠÙħØ´ØªØ±ÛĮ
ĠØ´Ø§Ø®Ùĩ
Ġtherefore
useum
ÙĨÛĮØ§
ĠØ¯Ø§ÙĨØ³ØªÙħ
za
Ġbaby
Ø§Ø±Ø§
Ġreach
Ġ2014
Ġsituation
ĠÙħØ¹ÙĨØ§ÛĮ
ĠÙĪÛĮØ¯
Ø¨Ø±Ú¯
ĠØªØ±Ø¯ÛĮØ¯
ĠÙħØªÙĪØ³
Ġsuppose
Ġresults
Ġcenter
Ġunderstood
Ġforeign
Ġdelight
asons
ĠØ¯Ø§Ø¯Ú¯Ø§Ùĩ
lected
Ġmeeting
Ø¯ÛĮÙĩ
rill
Ø±Ø§Ø³Øª
Ġcancer
ĠÙħÙĪÙĤØ¹ÛĮ
Ġnice
Ġrich
Ø§ÙĪØªÛĮ
ĠÙ¾ÚĺÙĪÙĩ
uman
ĠØ´ÙĦÙĪ
ĠÙĨÚĺ
Ġhall
ĠØ¹ØµØ±
ĠRon
iving
Ġtar
Ġelectric
ĠÙĨØ§Ø±Ø§ØŃØªÛĮ
ĠØ®ÙĪØ§Ø³ØªÙĩ
ÙĩÙĨÙĪØ²
Ø³ÙĨ
Ġadminist
ĠFebruary
ĠØªØ¹Ø¯Ø§Ø¯ÛĮ
ĠÙĨØ§Ø²
ĠØªØ§Ø±ÛĮØ®ÛĮ
ĠÙĪØ²
ĠØ¯Ø§Ø±ÙĪ
ĠØ«Ø§ÙĨÛĮÙĩ
Ø¦ÛĮÙĩ
Ġarrived
apers
Ġ2004
May
ĠÙĪØ±Ø²
Ġprovide
ĠØ¨Ø±ÙĨØ¯
ÙĪØ±ÛĮØª
ĠØ¯Ø®Øª
ĠØ¨Ø®ÙĪØ§ÙĨ
Ġparticip
ĠØºØ±ÙĤ
ĠØŃØ°
imately
ÙħÙĨØ¸
ĠØ¨ÙĩØ¯Ø§Ø´Øª
ĠÛ²Û°Û±Û±
Ø¨Ø³ÛĮØ§Ø±
ĠØ¨ÙĪØ±
ĠÙħÛĮØ¯
Ø±ÙĪØ¨
ĠØŃØ¯Ø³
ĠJames
ÙĢØ±
oo
ĠØ¨Ø±ÙĤØ±Ø§Ø±
Ġhardly
rons
ĠÙĪØŃØ´ÛĮ
ĠØ¹Ø¬
ĠÙģÙĪØªØ¨Ø§ÙĦ
ĠØ¢ÙĪØ±ÛĮÙĦ
hest
ĠÙĩØ§ÛĮÙħ
ĠCor
Ø±Ø§ØŃØª
Ø±Ø§ÙĦÛĮØ§
ÙĪØ°
ĠØ±ÙħØ²
cell
Ø¨ÛĮØ´ØªØ±
ĠÙħØ±Ø§Ø³Ùħ
ĠÙģÛĮØ²ÛĮÚ©ÛĮ
ĠÚ¯Ø²
ĠØŃØ§ÙĦØªÛĮ
Ġfollow
ophy
ĠWilliam
Ġign
Ø°ÛĮØ±ÛĮ
ÙħØ¯Ùĩ
oring
ĠØ¨ÙħØ§ÙĨØ¯
ĠÙ¾Ø¯ÛĮØ¯
Ġworse
ĠØ¯Ø§Ø¯ÛĮÙħ
Ġhappens
Ġgaz
Ø¢ÙĦ
Ġdrive
alian
ĠØ¯Ø±Ø¢ÙĪØ±Ø¯
14
een
Ġfright
oted
Ġaccording
mina
Ġsouth
Ġwhatever
IN
craft
Ġconduct
ĠÙħØ¹ØªÙĤØ¯
Ø§Ø¦ÛĮ
cies
Ġformed
Ġbear
ĠØ§ØªØŃØ§Ø¯ÛĮÙĩ
ÙĦÛĮÚ©
ĠÙĤØ³Ùħ
Ġmarriage
ĠÙħØ°ÙĩØ¨ÛĮ
Ġarran
Ø´ÙĨØ¨Ùĩ
Ġexperien
ĠGeneral
Ġbehavior
hab
ĠØŃÙģØ§Ø¸
ĠÙĩÙħÙĪØ§Ø±Ùĩ
ateg
Ø¨ÛĮØª
ĠØ¯Ø³ØªØ±Ø³
lection
ÛĮØ²ÛĮÚ©
Ġbattle
ÙħØ§Ø³
ĠØ¬ÙħÙĩÙĪØ±
had
Ġgarden
ĠØ²ÙĪØ¯ÛĮ
ÙħØ§ÙĨÙĩ
ĠØ§ÙĦÚ©ØªØ±ÛĮ
ĠØ§ÙĨØ¯ÛĮØ´ÛĮØ¯
Ġmiles
Ġdog
Ġplaying
ĠØ¨ÙģØ±
ÙĦÛĮÙĨ
ĠØ³Ø§ÙĦÙĨ
Ġdesire
ĠØ¨Ú©ÙĨØ¯
ĠÛ·Û
ĠØ§ÛĮØ³ØªÚ¯Ø§Ùĩ
idden
ĠDo
orthern
aker
ĠØ¬Ø§ÛĮÚ¯Ø²ÛĮÙĨ
ĠØ§Ø³Ø±Ø§Ø¦
Ġcontent
Ø·ÙĪØ±ÛĮ
ĠCanada
ĠÙħÛĮØ±
ĠØªØ£Ø³ÛĮØ³
iqu
ĠØ±Ø³Ø§ÙĨ
ĠØŃÚ©Ùħ
cise
rem
ÙĤØ§Ø¨ÙĦ
Ġtrack
Ġremem
arlett
ĠÙħØ¨ÙĦ
Ġcondition
ĠØ¯ÙĦÛĮ
Ø§ÙĨØ¯Ø±
ĠØ¨Ø±Ùħ
ØºÙĩ
Ø¦Ùĩ
ĠReferences
ĠØªØ§ÛĮ
Ġtelling
ĠØŃØ§ÙĦÛĮÚ©Ùĩ
ĠØ³Ø®ÙĨØ±Ø§ÙĨÛĮ
Ġannounced
ĠØŃÛĮØ±Øª
Ġnames
Ġreve
ĠÚ¯Ø±Ùĩ
alysis
Ex
ĠÙħØ§Ø±ØªÛĮÙĨ
ĠØ´Ø±ÙĤ
ĠÛ±Û¹ÛµÛ
16
su
aked
Ġinvent
isc
ĠÚ©ÙĨØ¬
ĠÙĪØ§ÚĺÙĩ
onse
ĠÙĨÙĪØ²
Ø§ÙħØ¯
ĠØŃÚ©
ĠÙħØ¬ÙĦÙĩ
ĠØªÙĪØ²ÛĮØ¹
ĠØ¨Ú¯ÛĮØ±ÛĮ
Ġimplement
Ġaftern
Ġmedical
ĠÙħØ¨Ùĩ
ØŃÙĤ
ĠÚĨØ³Ø¨
ĠØ²Ø±Ø¯
ĠØ§ÙĨØ¯ÙĪÙĩ
ĠØªÙĨÙĩØ§ÛĮÛĮ
Ġclean
Ġpan
ĠÙģÙĪØ±ÛĮÙĩ
Ġpositive
arb
outhern
Ġuniverse
Ġthousands
Ø¨ÛĮØ§
ĠØ¯ÙĦÙħ
ĠØ´Ø§ÙĩØ¯
ØºÙħ
ĠØ¯Ø±Ø®ØªØ§ÙĨ
ett
Ġcourt
Ġrequire
Ġlaughed
Ġattract
Ġhappiness
ĠÚ©Ø§Ø±Øª
ĠØ¯ÙģØ¹Ùĩ
ella
ĠÙħØ§ÙĨØ¹
Ġpoints
Ġbuy
Ġsad
Ġautom
ĠØ¯Ø±ÙĩÙħ
ĠØ²ÙĨØ¯Ø§ÙĨÛĮ
Ġcustom
ĠUnion
ĠÙħØ®Ø§ÙĦÙģ
Ġcities
ĠØªÚ©ÛĮÙĩ
ĠØ§ÙĪÙĦÛĮ
Ġabsolute
Ú¯Ø³
ĠÚ¯Ø°Ø§Ø±Ø¯
ico
rated
Ġloss
ĠØ¨Ø§Ø±Ø§ÙĨ
Ø¬ÛĮØŃ
ĠØ§ØµØ·ÙĦØ§ØŃ
ĠÙĤØ¶
ĠEgypt
ĠÙĨÙģØ±Øª
Ø±ÙĪØ´
aging
erson
ĠÙħØ´ÙĩÙĪØ±
ĠÙĤØ¯Ø±ÛĮ
Ġrequired
ĠGeorge
just
ĠØ§Ø®ÙĦØ§ÙĤÛĮ
ipped
ĠÚĨÙĨÚ¯
ĠÙħØ¯Ø±ÙĨ
Ġremain
Ġdecision
Ne
Ġthick
ĠØ´ÙĨØ§Ø³Ø§ÛĮÛĮ
Ġaware
ÙģØªÛĮ
ĠØªÙĨØ¸ÛĮÙħ
Ġsorry
Ġfaith
Ġcloud
ĠØ¨Ø±Ø¯Ø§Ø±ÛĮ
Ġreality
ĠØµÙĨØ¹Øª
ĠØ´ÙĪÙĩØ±Ø´
hib
Ġsite
Ġnovel
Ġcover
Ġplanet
Ġcitiz
Ġmix
Ġleaving
Ġexpress
Ġlisten
AC
Ð¾
Ġcovered
ls
ĠÛ²Û°Û±Û²
,'
ÚĨØ±Ø®
ĠØ¬Ø§Ø¯ÙĪ
ĠØ¯ÙĪÙħÛĮÙĨ
ĠØªÙħØ§Ø³
ĠÙĤØ±Ø§Ø±Ø¯
cos
ĠÙħØ£Ùħ
ĠØ¯Ø´ÙĪØ§Ø±
Ġboard
ĠInstit
iber
ĠBel
ĠDep
Ġstage
Ġplaced
ĠÚ©ÙħÙ¾
Ġleaders
ĠØ²Ø¯Ùħ
Ġcircum
Ġeasily
ancing
Ġwalking
ĠØ§ÙĪØ§ÛĮÙĦ
cend
Ġvan
ĠÙģØ±ÙĩÙĨÚ¯ÛĮ
Ġservices
ĠÙĤØªÙĦ
Ġsmiled
ĠÙħØ·ÙĦØ¨
ĠÙ¾ÛĮØ±ÙĪØ²ÛĮ
ÙĪÚ©
Ø³Ø§Ø²
ilies
ĠØ§ÙģØ³Ø±
Ġserved
ĠÙĥÙĨ
ĠSir
Ġ2003
ĠBab
ĠÚĺÙĪØ¦ÛĮÙĩ
omy
ĠØªÚ¯Ø²
lor
ÙĨÙĪØ§ÙĨ
ĠØ§ØŃØªÛĮØ§Ø¬
ĠØ´ØºÙĦ
ĠÙĨØ¸Ø§Ùħ
ĠØ´ÙĩØ±ÙĪ
ÙĩÙħÛĮ
ĠÙģÙĨ
Ġquant
ĠÙĨØ¯Ø§Ø´ØªÙĨØ¯
Ġincrease
Ġtro
alt
ĠØ¬Ø±Ùħ
ĠÙ¾Ø±ÚĨ
Ø®ÙĪØ§ÙĩÛĮ
Ġusual
ĠIvan
ola
Ġmeas
ĠØ§ÙħÙ¾Ø±Ø§Øª
raq
ĠÚĨØ±Ø§Øº
ĠØ¯Ø§
ĠØ§Ø¹ØªÙĤØ§Ø¯
fficient
ÛĮÛĮØ¯
Ġpage
ÙĢØ¯
Ø§Ø´ØªÙĩ
ÙħØ±Ú©Ø²
Somet
Ġlack
istics
ĠHouse
Ġletters
ĠISBN
ÙħØ§ÙĨÙĨØ¯
Ġdetect
ael
ĠDem
ĠØ¨Ø²Ø±Ú¯ØªØ±
Ġpresence
ĠÛ¹Û
Ú¯Ø°Ø´Øª
ÙĤØ¨
pir
Ġstre
Ġrange
known
Ġthin
ĠÙĦØ§ÛĮ
ĠØ³ÙĪÙĨ
Ġgrowth
ÚĨØ§Ø±Ùĩ
ams
Ġshown
ĠCharles
Ġhung
ĠÙħØŃØ³
Ġharm
ĠÙ¾ÛĮÙĪØ³Øª
17
Pe
ĠØ¯ÙĪÙĨÙħ
gu
Ġcentral
back
ĠÙħÙĨØªÙĤÙĦ
Ġtypes
Ġestablished
EC
ĠThat
ĠPaul
Ġforced
ĠÙĪØ§Ø¨Ø³ØªÙĩ
och
ĠÙĨØ§Ø¯
ĠØ¯Ø±ÙħÛĮ
Ġourselves
inc
Ġunderstanding
ĠExternal
Ġwatching
ĠØ§ÛĮÙĪØ§ÙĨ
Ġinterested
ĠØªÚ¯Ø²Ø§Ø³
Ø±Ø§ØŃ
Ġstone
Ġvirt
ĠâĪĴ
Ġrapid
ĠÚ©ÙĪØ¯Ú©ÛĮ
Ġstruck
ĠØªØ§ÙĦ
Ġmarry
oses
Ġfresh
ĠØ§Ø±ØªÙģØ§Ø¹
ĠÚ¯Ø±Ø³
ĠVol
Ġaddition
Only
Ġchemical
Ġwatched
Ġpsych
Ġcontribut
ĠÛµÛ
ĠØµÙĪØ±ØªØ´
Ġindustry
aching
ĠØ®Ø¯Ø§ÙĪÙĨØ¯
ĠØ§Ø³ØªØ±Ø§ÙĦÛĮØ§
Ġforms
ĠØŃÛĮØ§Øª
inated
Ø³ØªÙĨ
ĠHow
ĠÙĨÙģÙĪØ°
Ġnucle
ĠØ±ÙĩØ¨Ø±ÛĮ
Ġfixed
ĠÚ©ØªØ§Ø¨Ø®Ø§ÙĨÙĩ
ĠÙ¾ÛĮÚĨÛĮØ¯
Although
ĠØ²ÙĨØ¬
oked
Ġuses
ĠÙħØ¹ÙħØ§Ø±ÛĮ
Ab
cad
rial
OS
Ø¬ÙĨ
ĠÙħØµÙĨÙĪØ¹ÛĮ
ÙĪÙ¾
istance
Ġ2015
ĠÙĨÛĮØ±ÙĪ
Ġfinished
ĠØ¨Ú©ÙĨÙħ
Ġbeg
Ġshop
ĠØªÙĪØ§ÙĨÛĮ
ĠÙħØ¬Ø§Ø²
Ġrelated
Ġnone
Ø§ÙĪÛĮØ±
Ø§ÙĦÛĮØ§ÛĮÛĮ
ÙĪØ³ÛĮ
ĠGree
Ġproduce
ĠØ¢Ø¯ÙħÛĮ
ingu
ils
alled
ĠØ¨ÛĮØ§
anta
ĠÙĤØ¨ÙĦÛĮ
ĠÙ¾ÙĪØ´Ø´
Your
ØµÙĪØ±Øª
ĠClyde
ĠÙħØ±ØªØ¨
ĠÙĨØ§Ù¾Ø¯ÛĮØ¯
Ġhumans
Ġinvolved
Ġfro
odd
Ġorganization
ĠØ®ÙĪØ¯Ø±ÙĪ
ĠØªØ±Ø§ÙĨÙĩ
ĠLa
ĠØªØ£ÛĮÛĮØ¯
ĠØ¬Ø¹Ø¨Ùĩ
ancial
ĠÙĤØ§
Ġlie
ĠWin
Ġtend
Ġserious
ĠØ®Ø±Ø¬
ĠØ¸Ø§ÙĩØ±Ø§
IV
ĠØ§ÙģØ²ÙĪØ¯
ĠÙĨØªØ§ÛĮØ¬
Ġbeside
Ġfaces
Ø®ØµØµ
ini
ĠØ§Ø±Ø¨Ø§Ø¨
ĠØ¢Ø´ÙĨ
rian
Ġpattern
Ġfavor
Ġiron
Ġplease
Ġriver
Ġnormal
lier
ĠØ¨Ø¯Ùħ
ĠØ¨Ø¯ØªØ±
AN
Ġbenef
Ġmaint
ĠKh
µÛ°
ĠÙĨØ¸Ø±Ùħ
Ġconditions
ĠØ´Ú©Ø³ØªÙĩ
ĠIndian
ĠØ³ÙĤ
ĠØ±ÙĪØ²ÙĩØ§ÛĮ
Ġgets
Ġregular
year
ĠÂ·
ĠØ§Ú©Ø³
ĠÙħØ§Ø³
Ġlegs
ĠØ¨ÙĦØ§ÙģØ§ØµÙĦÙĩ
ĠReg
ĠFrank
Can
rank
ij
ĠØ¬ÛĮÙĨ
Ġsequ
ÙĢÙĨ
Ġinfluence
Ġterrible
ÙħÛĮØ±
Ġclothes
ĠÛ±Û¶
edia
Ġpaid
Ġshot
ĠÛ±Û¹Û±Û
Ġbroke
Ġopportunity
Ġnine
text
ĠÙħØ«Ø¨Øª
Ġafternoon
ĠÙĩÙħØ³Ø±Ø´
Ah
ĠÚ©ÛĮÙĦÙĪÙħØªØ±
fess
Ġdut
ĠÛ±Û±
ĠÚ¯ÙĪÙĨØ§
Ú©ØªÙĪØ±
ĠØ±Ø¯ÛĮ
Ġsweet
Ġjour
Ġrealized
off
Ġhun
Ġneck
ĠÙħØªØŃØ¯
Le
Ø±Ø¶
ĠØ¨Ø²ÙĨÙħ
orses
ĠÙħÛĮÚ©Ø±Ø¯
Ġlines
ĠÛµÛ°
pping
Ġwit
org
ĠØ¹ÙĤÙĦ
Ġnotice
Ġconflict
night
ĠØ³ÙĨØ¬
ĠPri
rate
Ġfirm
Ġgentleman
Ø§Ø¯Ø«Ùĩ
Ġleading
Ġbottom
ĠÙħØ³Ø¦ÙĪÙĦ
ĠØ®Ø§Ú©Ø³ØªØ±ÛĮ
wood
ISBN
ait
ÙĪÙĦØ§
ĠÙĨÙĤØ§Ø·
ĠØ§Ø¯Ø¨ÛĮ
ĠJapanese
ground
ĠÚĨØ´ÙħØ§ÙĨØ´
aign
ĠCast
ĠPort
Ġchief
ĠÙĨØ¸Ø±Ø´
Ġteeth
ĠPrince
Ġnote
ĠÛĮØ§ÙģØªÙĨ
ĠØºØ°Ø§ÛĮÛĮ
ĠØªØ¶
Ø´Ø§
Ġpale
oles
iforn
Ġspeech
Ġsurround
ĠÙħÙĦØª
ulf
inese
Ġimprove
ĠÙħØ§Øª
Ġobl
ĠØ¢ÙĪØ±Ø¯ÙĨØ¯
ĠNor
Ġaverage
Ġfool
Ġapproach
ĠÙĨØ¨ÙĪØ¯Ùĩ
ĠØ§ØªÙĪÙħØ¨ÛĮÙĦ
ĠÙħØ§Ø¬
isions
ĠÙĦØ±
ĠÙħÙĦÙĦ
Ġwalls
fl
ĠÙģÛĮØ²ÛĮÚ©
ĠIm
Ø§ÙĪÙĩ
gged
ĠØ¢Ø´Ù¾Ø²
Ġanimal
Ġthroughout
ÙĪØ§Ø±Ø¯
ĠØŃØ°Ùģ
ĠÚ¯Ø§Ùħ
road
Ġneither
Ġvir
ĠØ¯Ø§ÙĨÛĮÙħ
ĠØ¹ÙĦØ§ÙħØª
ufact
vey
ĠÚ©Ø±Ø¯ÛĮØ¯
ĠØ§ÙĪØª
pper
ET
ÙĪØ´ÛĮ
Ġspot
Ġholding
Ġdrawing
ĠÙ¾Ø§ÛĮØ¯
Ġfreedom
ĠÙħØªØµÙĦ
ĠØ¢Ø±Ø§ÙħÛĮ
ĠRussia
Their
ĠØªØ±ÙĪØ±ÛĮ
ship
Ġtrain
Pr
ghan
Ġ23
Ġdrew
Ġchurch
Ġ22
Ġinte
ashion
Ġempty
ĠÙģÙĪØ±Ø§
ĠØ³ÙĦØ·
âĢĮ
Christ
ĠØ¨Ø¹Ø¯Ø§
Ġinstit
ĠÙģØ¶Ø§ÛĮÛĮ
ĠØ¨Ø³Ø§Ø²
ĠØ®Ø´ÙĨ
¹Û°
Ġbod
ĠØ³ÛĮÙĦ
ĠÙģÚ©Ø±ÛĮ
ĠØ§ÙĦÙģ
ĠÙĨÚ¯
Ġdisappe
ĠArch
Ġrepeated
Ġstudies
Ġexplain
ĠÚĺÙĨØ±Ø§ÙĦ
Ġpun
Ġmathemat
Ġfingers
Come
ĠÚ©ÙĨØª
unities
Ġenter
Ġadvant
Ø¢Ùħ
ĠÚ©Ø§ÙĦÛĮ
ĠÙĨÙĪØ§Ø²
ĠChristian
ĠØªØ±Ø¬ÛĮØŃ
ÙĦØ§Øª
icles
ĠBo
ĠFil
ĠÙĨÚ¯ÙĩØ¯Ø§Ø±ÛĮ
Ø¯Ø§Ùģ
atin
cean
Ġlarger
Ġmessage
Ġstars
ĠOn
ĠØ§ÙħØªØŃ
Ġsac
agon
ĠÙĨÛĮÚ©
ĠÙĨØ§Ù¾Ø°ÛĮØ±
hold
Ġcru
Ù¾Ø§ÛĮÛĮ
ĠPark
ago
ĠØ³Ø±Ø§Øº
Ġtarget
ĠØ¨Ø¨Ø±Ø¯
ĠIraq
ĠÛ±Û´
Ø§ÙģØ¹
Ġreported
ĠÙħØ¹Ø¯
ĠØ±Ø¶
ĠÙħÙĨÙĪ
ĠÙħÙĨÙģ
ØªÛĮÚ©
using
Ġshape
Ġconce
ĠØ¯ÛĮØ¯Ø§Ø±
ĠØ¬ÙĨØ¨Ùĩ
Ġmultip
Ġpractice
ĠÙħÛĮØ®
ĠØªØ±Ø³ÛĮØ¯
ÙģÛĮÙĦ
Ġfle
Ġbell
ĠØ¯ÙĪØ³ØªÛĮ
ĠJean
ĠØ³ÙĪØ¦
more
Ġbeauty
Ġblind
ĠØ¨ÙĪÙħÛĮ
Ø¨Ø³ÛĮØ§Ø±ÛĮ
ĠÙĤÙĩØ±ÙħØ§ÙĨ
Other
ĠÙĨÙĪØ±ÛĮ
ĠCoun
ailed
ĠMich
Go
uous
ĠØ¹Ø°
ĠÚ©Ø´ÛĮØ¯ÙĨ
Ġpressure
Ġopinion
Ġforest
Ġresponse
ĠÙħÙĨØ¯
ĠØ±Ø§Ø¶ÛĮ
ĠBill
ĠâĢľ
Ø¬ÙĪØ§ÙĨ
Ú©ÙĨÙĨØ¯Ùĩ
ÙħØ±Ø¯Ùħ
Ġliked
Ġfamilies
house
Ð¸
ĠÙģØ¯Ø±
sec
Ġreligious
Ġinqu
Ġended
ĠØ§Ø¶Ø·Ø±
ĠØ¯Ø±Ùĩ
Ġboat
ĠÛ²Û°Û°Û¸
ĠÙģØ±Ø³ØªØ§Ø¯Ùĩ
De
cast
Ġhorses
ÙĦÙĪØª
ĠÛ²Û°Û°Û¹
onel
ĠØ®Ø§ÙĦ
ĠØŃÙĪØ²Ùĩ
ĠÙĩØ²Ø§Ø±Ø§ÙĨ
Ġbal
osite
ĠØ´Ú©ÙĦÛĮ
198
Ø´ÛĮØ±
Ġmir
Ġvari
ØºØ±
Ġ190
ĠÙĨØ¯Ø§Ø´ØªÙħ
Ġmole
ifornia
otes
antic
ĠÚ©Ø´ÛĮ
Ġdestroy
Ġpassion
ĠØ§ÙĪØ³Øª
ĠLF
ĠSpanish
Ġsmell
Ġtrade
ĠÚĨÙĩØ§Ø±Ùħ
ĠØ´Ø¹Ø±
Two
ĠÙĪÛĮÚ©ÛĮ
Ġincreased
ĠØ³ØªÙĪÙĨ
ĠØ±Ø§Ø³ØªÛĮ
Ġincluded
ĠØ¨ÙĪÙĦ
Ġrelative
ĠØªØ´ÙĪÛĮÙĤ
Ø´ÙĩØ±
Ġcred
ĠØ¬Ø³ØªØ¬ÙĪ
ĠØŃØ¯ÛĮ
ĠØŃØ§Ø¯Ø«Ùĩ
ÙħØ§ÙĨØ¯Ùĩ
Ġliber
Ġactivity
acing
ĠØ¨Ø±ÙĪÛĮÙħ
ĠÙ¾Ø§ÛĮÚ¯Ø§Ùĩ
ĠØ¯ÛĮØ¯Ú¯Ø§Ùĩ
Ġasking
ĠÙĬÙĥ
Ù¾Ø±Ø§
Ġcaused
olly
Ġluck
Ġgraph
Ġperformance
Ġtelevision
Ġactive
Ġlabor
kay
mione
ÙħÙ¾
Ġ()
ĠCr
ounded
ĠØ§ÙģØºØ§ÙĨ
ÙĪÙĨÙħ
Ġlean
Ġmedic
ĠÙħÙĩØ±Ø¨Ø§ÙĨ
Ġtreatment
Ġcommer
ĠØ¨Ú¯Ø°Ø§Ø±Ø¯
zen
Ø²ÙħØ§ÙĨÛĮ
ĠØ®ÙĦØ§Ùģ
Ġnoticed
ĠÙĨÙħÙĪØ¯Ùĩ
ĠØŃÙģØ§Ø¸Øª
pro
ĠØ¨Ú¯ÛĮØ±ÛĮØ¯
Ø§ÙĨØ§
ĠØ¹Ø±Ø¨
Ġplain
izations
ĠÙ¾ÛĮØ±ÙħØ±Ø¯
ĠØ¨Ø±Ø¬Ø³ØªÙĩ
Ġconsequ
BC
ĠØ¯Ø±Ú¯ÛĮØ±
ĠÙĦØ§ÛĮÙĩ
ĠØªÙħØ§Ø´Ø§Ú¯Ø±
isters
ID
MS
Ġ"(
pered
Ġgives
Ġï
Ġsymb
Ġobv
Are
atives
ĠÙ¾ÙĦØ§
Ġonline
Ġyouth
Ġshows
ĠJack
ĠØ±Ø§ÛĮØ§ÙĨÙĩ
ĠØ§Ø·ÙĦØ§Ø¹Ø§ØªÛĮ
ĠØ¢Ø²Ø§Ø±
anda
ĠList
ĠTED
ĠÙħØŃØµÙĪÙĦØ§Øª
Did
ÙģÙĩØ±Ø³Øª
Ø®ÙĨØ¯ÛĮ
Ġstick
Ġrid
Ø¦ÙĦ
ĠItalian
ĠAfrican
Ġtouch
ĠÚ¯Ø°Ø±Ø§ÙĨØ¯
¸Û°
Ø¨Ø§Ø²ÛĮ
Ġrare
iano
Ġclim
yr
Ġ^
ĠGlo
Ġfeed
ĠThis
ĠItaly
ĠØ²ÙĪØ±
Ġweight
Ġchoice
ĠØ®ÙĪØ§ÙĩØ´
ĠØ±Ø§ÙĩÙĨÙħ
ĠØ¬ÙħØ¹ÛĮ
ĠÙĨÙĪÛĮØ³ÛĮ
ĠÙħÙĦØ§ØŃ
ĠÙħØµØ±
ĠØ¹Ø¬ÛĮØ¨ÛĮ
ĠØ¢Ù¾
Ġren
Ġ2002
Ġther
Ú©Ø§Ø±Ø§ÙĨ
orrow
Ġlaid
ÙĨÙĪØ´Øª
ĠØ±ÙĤØ§Ø¨Øª
Ø®Ø¯Ø§
ĠØ¨ÛĮÙģØª
78
ym
itable
Ġfit
Ġfarm
ĠÚĨØ§ÙĤ
ste
Ø§Ø´Ø§
Cl
ĠØ®Ø¨Ø±ÛĮ
ĠØ¯Ø§ÙĨÙĨØ¯
ĠØ¨Ø§ÛĮØ³ØªÛĮ
ĠØ§ÙĦÚ©ØªØ±ÛĮÚ©ÛĮ
iot
Ġhang
ĠØŃØ±ÙģÛĮ
Ġbran
Ġtone
Ġalgorithm
ĠÙĩÙĦ
ĠÛ±Û³
eles
ĠØ§ÙħØªÛĮ
ĠØ¨Ø±Ø¯ÙĨ
Ġsuccessful
ĠÙĪØ¬
Ġbeat
ĠKore
Ġprint
ĠØ¬ÛĮØ¨
ĠÙħØ®ØªÙĦÙģÛĮ
Ġremembered
ĠØ¢ÙĨØ§
rance
ĠØ±ÛĮØ§Ø³Øª
ĠÚ¯ÙĪØ±
ĠÙ¾Ø¯ÛĮ
ĠØ¬ÙģØª
Ã³n
ĠÚ¯ÛĮØª
ĠThom
Ġtall
Ú©Ø¨
ĠØ§ÙĪÙĨØ¬Ø§
Ġolder
ĠÙħÙĩØ§Ø±Øª
ĠBook
Ø¨Ø±ØªØ§
ĠSystem
ĠÙ¾Ø§Ø¯Ø´Ø§Ùĩ
Ġjournal
Ġassum
ĠÙħØªÙĪØ³Ø·
Ġmanufact
under
olved
ĠØªÙĪÙĦØ¯
roud
ĠÙĨÙĤØ±Ùĩ
Ġscientific
Ġobserved
ĠAustralia
ĠØ±ÙħØ§ÙĨ
Ġturns
aimed
Ø³ÙĪØ±
Ġmanagement
ĠÙĨÙĩØ§ÛĮÛĮ
·Û°
Ġancient
ĠØ¨Ø¹Ø¯ÙĩØ§
ĠØªÙĪÙĨÙħ
ĠØ§Ø®ØªØµØ§Øµ
Pro
ÙĨØ®
ĠØªÙĪÙĤÙģ
Ġsynt
ĠÚ©Ø´ÙĪØ±ÙĩØ§
Ġsupposed
Ġalive
ĠØ¸ÙĩØ±
ĠØ¯Ø±ÛĮØ§ÚĨÙĩ
hered
ĠÚ©Ø±Ø¨ÙĨ
::
ĠÚĨÛĮÙĨÛĮ
ĠSpe
ĠÙħØ«ÙĦØ§
ĠÙĨØ¯Ùĩ
onia
arian
Ġprogress
ĠØ¹Ø±Ø¶Ùĩ
Ġtax
ĠâĢı
ĠØ¨Ø§Ø¨Ø§
ĠØ¹Ø¯Ùĩ
ĠÙ¾Ø±ØªØ§Ø¨
ĠØ²ÙĨÙħ
Ġrule
Ġkit
Ġcareer
ye
ĠDist
ĠWestern
ĠÙĨØ´ÙĨ
ĠQue
Ø¦ÛĮØ¯
Ġlose
ĠØ¢Ø±Ø²
ĠÙĦÙĩØ³ØªØ§ÙĨ
ĠØ¨Ø§ÙģØª
ĠCalifornia
Ġarrest
Ġequal
ĠSov
ĠÙħØŃØ¯
Ġtea
Ġhouses
Our
Ġlying
Ø¬ÛĮØª
ÙĪÙĦØª
Ġincludes
Ø§Ø¨Ø±ÛĮ
cow
ĠØ¯Ø§ÙĪ
Ġhaven
Ġexch
Ġknowing
Ú¯ÙģØªÙħ
la
ĠÙĤØ±Ø¨Ø§ÙĨÛĮ
berg
Ġoffer
ĠØ¶Ø±Ø¨
ĠØ³ÙĪØ±Ø§Ø®
ĠSoviet
ĠØ±Ø§ÙĨØ¯
ĠÙĦØŃÙĨÛĮ
burg
ĠÙħÙĨÙģÛĮ
ÙħÚ¯Ø±
Ø¹Ø¯Ùĩ
ĠØ§ØªÙħ
Ġimpact
Ġjourney
ĠØ¯Ø®
ĠÚ¯ÙĨØ¬
ĠØ¨Ø±Ø§ÙĨ
ĠØ¹Ø±Ø§ÙĤ
ĠRed
Ġpresident
ĠØ§Ø³Ø±Ø§Ø¦ÛĮÙĦ
ĠØªÙħØ±ÛĮÙĨ
Ġpocket
ÙĤÛĮØ¨
ĠØªÙħØ§ÛĮÙĦ
Ġwants
ĠÙ¾ÙĪØ´Ø§ÙĨ
sp
Ø§ÛĮØ§ÙĨ
ĠMat
Ġblock
Ġeventually
ĠÚĨØ§ÙĦØ´
ĠØªØŃÙĤ
Ġspect
ĠØ¨Ú¯ÛĮØ±ÙĨØ¯
asha
ĠÙ¾Ø°ÛĮØ±ÙģØª
ĠÚĨØ§ÛĮ
ĠÙħÙĪÙĩØ§ÛĮ
Ø¢Ø¨
ĠHen
Ġstock
uls
ĠØªØ±Ø¬ÙħÙĩ
Ġintelligence
ĠØ´Ø§Ø±
ĠØ§ÛĮÙĨÚ©
ĠØ´ÙĪØ±ÙĪÛĮ
ÙĨØ¸
Ġwand
Ø±ÛĮØ´
Ġlibr
ĠØ¨Ø¨ÛĮÙĨÛĮÙħ
aling
Ú©ÛĮØª
rawn
Ġpotential
Ġgall
Ġmel
ÙģØ±Ø§ÙĨ
ĠØ¨Ú©Ø´Ø¯
ĠÙĤØ§Ø¨ÙĦÛĮØª
Ø¯Ú©ØªØ±
Ġcard
eal
Ġcatch
Ġseat
earch
Ġdesert
Ġreasons
ĠÚ¯ÙģØªÛĮ
clock
Ġloud
ips
ĠØ§Ø³ÙĦØ§ÙħÛĮ
ĠÙĩØ§Ø±
Ø¢Ø±
asy
ĠCong
ĠÙħÙĪØ²Ùĩ
ĠØªØ§Ø¨Ø³ØªØ§ÙĨ
ĠÙĨØ§Ø¨ÙĪØ¯
ĠØ®ÙĪØ§Ùħ
Ø²Ø§ÛĮ
Ġ2001
cript
Ġox
Ġbare
ĠØ³ÙĨØªÛĮ
ĠÙ¾Ø±ÙĪØ±Ø´
ĠNat
Ġangry
Ġsurprise
Ø±Ø¯ÙĨ
Ø¯ÙĩÙħ
Ú©Ø±Ùĩ
Ġsomebody
Ġdocument
Tr
ĠØªØµØ§ÙĪÛĮØ±
Ġintroduced
Ġfeatures
ĠÙħØŃØ³ÙĪØ¨
ĠÙ¾ÙĪÙĦÛĮ
umbled
ÙĨØ§Ú©ÛĮ
Ġ27
ĠØ¢ÙĨØ¯Ø±Ùĩ
pic
Ġhit
Ġeast
Ø¢ÛĮ
Ġoccasion
rif
ÙĢØ§
ĠÙĨÚ©ÙĨØ¯
ĠÙħØŃØ§Ø³Ø¨Ùĩ
Ø¹ÙĦ
ĠÙ¾ÙĨØ¬Ø§Ùĩ
Ġdegree
Ġforth
ĠØµØŃÛĮØŃ
ĠRos
ĠChinese
ĠÙĨØ¨ÙĪØ¯ÙĨØ¯
ĠØ¨ØªÙĪØ§ÙĨÙĨØ¯
ĠØªÙĦÙĪÛĮØ²ÛĮÙĪÙĨ
enge
Ġfashion
ĠØ³Ø§ÙĦÛĮ
Ġhospital
ĠØ¯Ø§ÛĮ
ĠÙģØ±Ø²ÙĨØ¯Ø§ÙĨ
ĠÙħØ¤Ø³
Ġfal
ĠÙĦØ¨Ùĩ
oved
Ġaim
Ġbase
Ġcircumst
ĠÙĪØ²ÙĨ
Ġpark
ĠØ±Ø§Ø²
ĠØ¢ÙħÙĪ
pected
Ġring
ĠÙħØŃÚ©ÙĪÙħ
ĠØ§Ø±Ø§Ø¯Ùĩ
ĠØ¨Ø±Ø¯ÙĨØ¯
Ġfeelings
Ġproperty
ĠØ¬ÙĪÙĨ
olic
ÙĪÙħÙĩ
Ġ80
volution
Ġ60
Ġhurt
ĠÙĪØ§ÛĮ
ĠÙĩÙħØ³
eless
ĠÛ¸Û
Ġvac
ĠTrans
Ġguard
ĠÙĨØ§ÙĩØ§Ø±
IT
Ġspite
ĠØ¨Ø¯ÙĩÙĨØ¯
Ġappearance
ĠInstitute
IC
acity
Ġearlier
ĠØªØ³ÙĦÛĮÙħ
ĠÚ©ÙĨØ§ÙĨ
Ġsuc
ĠSwed
Ġ1990
ĠØ¢ÙĪØ§Ø²
uh
atab
ĠSaint
Mrs
Ġsoldiers
Ø¨Ø³
oured
ĠØ¬Ø§ÙĨØ¨
ĠØªØ£ÙħÛĮÙĨ
Ġwished
Ġbag
Ġrise
ĠØ¯Ø®ØªØ±Ø§ÙĨ
ĠPoland
ĠÙħØ§Ø±ÛĮØ§
ĠØ¨Ø±Ø¯Ø§Ø±
iliar
time
Ġshock
Ġhelped
Ø¬ÛĮÙĨ
Ġclos
ension
Ġviolence
Ø§ÛĮÙĨØ¬Ø§
Look
ĠØ´Ø¨Ùĩ
ĠÚ¯Ø§ÙĪ
ĠDor
ĠØŃØ§Ø¶Ø±ÛĮÙĨ
Ġentirely
roup
ĠÙħØ±Øº
ĠÚ©Ø§Ø±Ø®Ø§ÙĨÙĩ
ĠØ®Ø·Ø±ÙĨØ§Ú©
ĠÙħÙĩÙĨØ¯Ø³ÛĮ
ĠÚ©ÙĩÙĨÙĩ
ĠÛ²Û°Û±Û³
Ġeconomy
ydro
More
Ġprice
ĠÙģØ±Ø§ÙĪØ§ÙĨ
Ġassociated
ĠØ³Ø§ÛĮ
ĠÙĨØ¸ÛĮØ±
ĠÙĪØ³Ø§ÛĮÙĦ
Ġestim
Ġsignificant
ĠØ¹Ø¬ÙĦÙĩ
ithe
Ġgoal
ĠÙħÙħÚ©ÙĨÙĩ
Ġsolution
Ġpolicy
ØµØ§Ø¨
Ġfish
ĠÙģØ§ÙĨÛĮ
ĠØ¯ÙĪØ§Ø²Ø¯Ùĩ
oken
ĠWhite
lebr
Ġstore
Ġelements
ĠØ¨Ù¾Ø±Ø¯
Ind
ĠPers
ĠØ¯ÛĮØ¬ÛĮØª
ĠØ¨Ø§Ø´Ú¯Ø§Ùĩ
Ø¯Ø§ÛĮÛĮ
ĠÙħØ®ØµÙĪØµØ§
igned
Ø²Ø§Ø±Øª
ĠAfghan
Ġsucceed
Each
Ú©ÙħÛĮ
Ġseason
ĠØ§Ø´ØªØ±Ø§Ú©
Ġresources
ĠØ§ÙħØªØŃØ§ÙĨ
tte
ĠÙħÛĮÚ©Ø±ÙĪ
Ġissue
ĠÙĦØ±Ø²ÛĮØ¯
ca
Ġdry
tering
ĠÙħØ±Ø¯ÙħÛĮ
Ġfamous
Ġinterp
ffe
ĠRo
Ġru
ÙĬØ±
ĠÙ¾ÛĮØ±Ø§Ùĩ
Ġbecomes
30
ĠTV
ĠØ§Ø¹ØªØ±Ø§Ø¶
Ġissues
Ġyellow
IP
ĠØ±Ø£
ĠÙħÛĮØ§Ø¯
ĠÚ©Ø´Ø§ÙĪØ±Ø²ÛĮ
Ú¯ÙĨØ§ÙĦ
Ġtitle
ĠÙħØŃØª
ĠÚ¯ÙĦÙĪÙĦÙĩ
Ġgreatest
ĠMuslim
ĠØ®Ø§Ø·
ĠØ§Ø±Ø²ÛĮ
ĠØ´Ø¨Ø§Ùĩ
ĠØ®Ø±Ø§Ø¨
ĠØ§Ø¹ØªØ±Ø§Ùģ
Ġdefined
ĠÙĨÙĢ
ittee
cu
ÙģÛĮÙĦÛĮÙ¾
ĠØ±ÙĨÚ¯ÛĮ
ĠØ¨ÛĮÙĦ
Ġescape
ĠØ§ÙħØ±ÙĪØ²Ùĩ
ĠØ§Ø´ÛĮØ§
ords
ĠØ³ÙĤÙĪØ·
Ġ*"
Ġrelease
Ġobjects
ĠÙ¾Ø¯
ĠÙħÙĪØ´
ĠØ¯ÙĩÛĮ
ĠØªÙĦÙĪÛĮØ²ÛĮÙĪÙĨÛĮ
Ø¶Ø§Ø¹
ĠØ¨ÛĮÚĨØ§Ø±Ùĩ
ĠLou
ĠØ¯ÛĮØ¯ÙĨØ¯
Ġice
ĠÙĪÙģ
ĠÛĮØ§ÙĨ
ĠPierre
ĠÙħØŃÙĤ
Ġflat
ĠÚ©ÙĪØªØ§ÙĩÛĮ
ĠØ§Ú©Ø«Ø±
Ġinj
ĠØ¶Ø¨Ø·
Ø¨ÙĪØ±Ú¯
oned
ĠRich
Ġnoise
Ú©ÙĪÙĨÛĮ
Ġquality
Ø¨Ø¯ÙĪÙĨ
ÙĪØ§ÙĤØ¹Ø§
ĠØ¢ÙģØ±
ĠÛ²Û°Û°Û¶
MA
ĠLaw
ĠÙħØŃÙħØ¯
ĠØ¯Ø§ÙĨØ´Ø¬ÙĪÛĮ
Ġcontinue
ĠÙħØªØ¹ÙĦÙĤ
ĠØ²Ø§Ø¯Ùĩ
ĠØ¬Ø°Ø¨
Ġrules
Ġstreets
ÙĪØ§ÛĮÛĮ
Ø·Ø¨
ĠÙħØ³Ú©ÙĪ
Ġgrass
ĠØ¬ÙĦÙĪÙĩ
Another
ÙĦÛĮØº
ĠÙĦÛĮÙĨ
ĠChurch
Ġindic
Good
Ø®ÙĪØ´
Ġfinancial
Ġhonor
Ġpredict
ĠMal
Sc
ĠÙħÛĮØªÙĪÙĨ
Ø§ÙĦÙĪ
Ġeth
ĠØ§ÙģÚ©ÙĨØ¯
ĠÙħØŃØ§ÙģØ¸Øª
Ø±ÙĨÚ¯
ĠØ¨ÙĪØ¯ÛĮ
obile
ĠÙħØ³ÙĦÙħØ§ÙĨ
ĠMartin
ĠDay
Ġdarkness
ĠGovern
mission
ĠMel
resp
ĠÙħØ§Ø¯Ø±Ùħ
Ġsilver
Ġbuildings
New
ĠÙĩØªÙĦ
ĠØªØ§Ú©ÙĨÙĪÙĨ
Ġadop
ĠØ¨Ø§Ø±ÙĩØ§
ĠØ³ÙĪØ¡
based
ĠØ¨Ø±Ú¯Ø²
ours
Ġagree
ÚĨÛĮØ²
ĠØ¢ØºÙĪØ´
Ġfemale
aches
Ġwealth
Its
Ġprote
arsh
ĠØ§ÛĮÙĨØªØ±ÙĨØªÛĮ
ĠØ±Ø¶Ø§ÛĮØª
¶Û°
ĠØ³ÛĮØ±
retched
Ġedge
ĠMiddle
ĠØµØ§Ùģ
ĠÙĤÙĦØ¹Ùĩ
erous
Ġreb
ĠCam
Ġrace
Ġcalm
ĠØµÙĨØ¹ØªÛĮ
Like
ault
Ġtom
ĠTurk
Ġwis
ĠØ¬ÙĪÛĮ
ĠØ¢ÙħØ±ÛĮÚ©Ø§ÛĮ
Ġrevolution
60
ĠØ¯ÙĪÛĮØ¯
ĠHigh
Ġunivers
Ġcampaign
ĠØªÙħØ§Ø´Ø§Ú¯Ø±Ø§ÙĨ
ĠØ¹Ùģ
ĠMo
ĠStud
Ġlistening
Ġdropped
Ġreligion
ĠÙĨØ±Ø®
Ø§ÙĦØ§ÙĨ
Ø³Ø§Ø³ÛĮ
ĠMoscow
ĠMac
Ġphone
Ġfinding
Ġlaws
ĠCouncil
ares
ĠÙĪØ§Ø¶
Ø¨Ø¯ÛĮÙĨ
ÙħÙĨÛĮ
ĠØ¨ÙĩØªØ±ÛĮ
Ġleaves
Ġincred
ĠÙĩÙħÚ¯ÛĮ
Ø¢ÙħÛĮØ²
Ġinstance
ĠØ¨Ø§Ùĩ
ĠØ§ÙĨØ¯Ø§Ùħ
Ġofficer
Ġconnected
kes
ĠØ¨Ø±Ø§
ĠØ±ÙĪØ²ÙĩØ§
ĠÙ¾ÚĺÙĪÙĩØ´
ĠSun
ĠÙħØªØ¹Ø¯
Ġimages
ĠØ²ÙħÛĮÙĨÛĮ
Ġplayer
Ġcorrect
Ġlegal
Ġjoined
Ġweb
Ġrank
ÙĢØª
Ġclub
ĠÙħØ³ÛĮØŃÛĮ
ĠGmina
umn
Ġpatients
ĠØ¨Ú¯ÛĮØ±Ùħ
Ġmotion
MDb
ĠÚ©Ø§ÙĦÛĮÙģØ±
ĠØµØ§Ø¯Ø±
Ġalt
Ġcoat
ĠØ§ÙĩØ¯Ø§Ùģ
ÙħØ²ÙħÙĩ
ÙħØ«ÙĦØ§
Ġfields
Ġopposite
Ðµ
ĠÙ¾Ø±ÙĨØ¯Ùĩ
Ġsmiling
Ġ189
ĠAssoci
ĠCenter
ĠMont
Ġcarbon
Ġapart
Ġpulled
fficial
Ġencour
ĠÙ¾Ø³Ø±Ø´
Ġsym
ĠØ³Ø±Ø¨Ø§Ø²Ø§ÙĨ
ĠÙĪØ²Ø§Ø±Øª
Ġstream
ulated
Ġdemocr
ĠÙĩØ¬
ĠØªÙĪØ¯Ùĩ
ĠØ¢Ø°
Ø±Ø§Ø¹
ĠÚ©ÛĮÙģÛĮØª
Ø´ÛĮÙħ
ØµØ§ÙĦ
ĠØ¯Ø³ØªÚ¯ÛĮØ±
Ġdance
ĠTer
ĠÛ±Û·Û
ĠØŃØ³Ø§Ø¨ÛĮ
Ġinterview
ĠØ±Ø³Øª
ĠMil
ĠØ§ÙħØª
Ġsounds
ĠØ¢Ø²ÙħØ§ÛĮØ´Ú¯Ø§Ùĩ
Ġkitchen
ront
ĠØ±Ø¤
ĠÙĨÚ¯Ø§Ø±
Ø§Ø¨ÙĤ
ĠØ§ÙĨØªÙĩØ§ÛĮ
Ġshoulder
upid
Ġarticle
Ġelectron
Ø°Ø§
cles
nam
plic
Ġstarting
Ġhonest
Ø®ÙĪØ§ÙĨ
ĠÙĤØ·Ø§Ø±
ĠØ§ÛĮØ±Ø§ÙĨÛĮ
ĠØµÙĨØ¯ÙĪÙĤ
People
ĠØ§Ø³ØªÛĮ
Ġpoet
Ġsand
Ġdread
ĠFed
ĠØ¨Ø±Ø¢ÙĪØ±Ø¯
ĠÙħØ§Ø¯Ø§Ùħ
ĠØºÛĮ
Ġsport
ĠØ¢Ø±Ø²ÙĪ
ĠØ§ÛĮÙħØ§ÙĨ
eff
Ø¹ÙħÙĦ
Ø¹ÙĦØ§ÙĪÙĩ
Ġisland
ĠÛ±Û·
ĠSociety
Ġexistence
ĠÙĨØªÙĪØ§ÙĨØ³Øª
ĠØ¯Ø²
Ġ1980
Ġobt
ĠØ¨Ø¹ÙĨÙĪØ§ÙĨ
Art
ĠØ´Ø§ÙĨØ³
ĠØ¨Ø§Ø¨
aval
Ġpa
Ġvalues
ĠÚ©ÙĦÛĮØ³Ø§ÛĮ
Ġradio
aria
ashed
ĠArmy
Ġmagic
ĠØ¬Ø°Ø§Ø¨
Ġinform
ĠØ¨ÛĮØ§ÙĪØ±Ø¯
Ġthank
Ġgrown
Ġtypically
Ġgames
Ø±ÙĪØ²ÛĮ
ĠØ³ÛĮÚ¯ÙĨØ§ÙĦ
Ġscar
Ø³Ø±Ø§ÙĨØ¬Ø§Ùħ
Ø§Ú¯Ø±ÚĨÙĩ
ĠØ¬ÛĮÙħØ²
Ġwest
ĠÙħÛĮØ§ÙĨÙĩ
ĠØ¹ÙħØ¯Ùĩ
ÙģØ±Ø§ÙĨØ³
Ġputting
Ġbecoming
ĠÙĨØ§Ø³
Ġonto
ĠØ·ÙĦØ§ÛĮÛĮ
Ø³ØªÙĪÙĨ
Ġoffered
Ø§ØŃØ³Ø§Ø³
ĠØ§ØµÙĪÙĦ
ĠØ¨Ø§Ø²ÛĮÚ©ÙĨ
ĠPeter
Û±
ĠÙħÙĨØ§Ø³
ĠAct
Ġinstant
ĠÙħÛĮÚ©ÙĨÙħ
Ġlaughing
Ġachieve
met
Ø³Ø§Ùħ
arrow
Ġmatch
ĠÙĨÙģØª
ĠAndrew
Ø±Ø§ÛĮÛĮ
ĠÙħÛĮØ´ÙĪØ¯
Ġindependent
Ø®Ø¯Ùħ
anted
ĠIsland
ĠØ§ÙħØªÛĮØ§Ø²
ĠØ®ÙĨ
ĠØªØ§Ø±
iana
ĠØ¨Ø®ÙĪ
Ø¨ÚĨÙĩ
ĠDes
ĠØ®ÙĪØ§Ø³ØªÙĨØ¯
ĠØ¬Ø³ØªØ¬ÙĪÛĮ
ĠÙģÙĤÛĮØ±
eper
ĠØ§Ø³ØªØ¯
Ġdeb
ĠØ´Ø±Ùħ
Ġavoid
eah
ĠØªÚ©Ø§ÙħÙĦ
ĠØµÙģØ±
ĠRoy
Ġsmaller
ĠÙĩÙĪØ§Ù¾ÛĮÙħØ§
Ġbodies
Ġcontact
Ġhappening
anned
Ġeffects
Ġnose
Ġcheck
Ø§ÙĨØªÛĮÙĨ
ĠGlobal
Ġtaught
ĠØ¯ÙĪØ±Ø¨ÛĮÙĨ
Ø§ÙĩÛĮÙħ
idae
ĠLib
Ġ28
ĠØ±Ø®Øª
ĠOh
ĠØ¢ÙĪØ±ÙĨØ¯
Ġmodels
ĠGrand
ĠØ§Ø³ØªØ®ÙĪØ§ÙĨ
ĠØ´Ú©ÙĨ
leep
ĠÙĤÛĮ
ĠÙĨØ¸Ø±ÛĮ
ĠØ§Ø¨Ø±Ø§Ø²
ĠÚ©ÙĪØ´ÛĮØ¯
ĠÙħØŃØ¨ÙĪØ¨
Ú¯Ø²Ø§Ø±
ĠØªÙĪÙĨÛĮ
ĠÙĩÛĮØ¦Øª
ĠÛ±Û¹Û²Û
Ø¯Ø§Ø±Ø§ÙĨ
ĠØ±ÙĪØ´ÙĨØ§ÛĮÛĮ
gency
Ġweap
ĠÙħÙĨØ·ÙĤÛĮ
ĠProv
ØŃØ±
ĠÙħÙģÛĮØ¯
ĠÙĨØ´ÙĪÙĨ
Ġaward
Ø·Ø¨ÛĮ
ĠÛ²Û°Û°Û·
gent
ĠÛĮÙĪ
ĠÛĮØ§Ø¯Ú¯ÛĮØ±ÛĮ
ĠÙģØ§ÛĮØ¯Ùĩ
Ġhabit
Ġspring
Ġevil
Ġtiny
Ġpet
ĠÛĮÙĤÛĮÙĨ
Ġuncle
Ġapprox
Ġchoose
Ġid
ĠØ¨Ø§ÙĨØ¯
ĠÙĨØ§Ø¯Ø±
Ġdust
ĠØŃÛĮØ§Ø·
icked
Ġsources
ĠØ§ÙģØºØ§ÙĨØ³ØªØ§ÙĨ
Ġfol
Ø¹Ùģ
ĠØ·ÙĦØ¨
ĠØ§ÙħØ¶Ø§
Ġsomewhere
Ġtwice
Ġcheek
Ú¯Ø§
Ġheaven
ĠØ¬Øº
Ø±Ø§Ø³ÛĮ
Ġburst
ÙģØ±Ø¯
Ġperfectly
ĠØ³ÙĦØ§ØŃ
ĠÚ©ÙģØ´
Ġsquare
ÙĦØ§Ú©
Ġtraining
ĠÛ²Û°Û°Ûµ
ĠÛ²Û°Û±Û´
ĠØ§ØŃØªÛĮØ§Ø·
ĠÙħØ§Ø¬Ø±Ø§
Ġmicro
ĠØ¨ÛĮÙĩ
ĠÙħØ·ÙĦ
vention
ĠSal
ument
ĠÙħÙĤØ±
Ø²ÛĮÙĩ
ĠÚ©ÛĮØ´
ĠØ¯Ø¹Ø§
ĠØ´Ø¬Ø§
Ġdate
ĠØ¹Ø¸
ĠThank
ĠØ¨ØŃØ±Ø§ÙĨ
ĠIranian
board
ÛĮØªØ±ÛĮ
SA
Ġult
ĠÚ©Ø´ÛĮØ¯ÙĨØ¯
Ġwindows
ih
ĠØ§Ø¯Ø¹Ø§
Ġproducts
Ú©Ø§ÙĦ
Ġthro
ĠØ¯Ø§Ø±ÙĨ
ĠØ¬ÙĨÚ¯ÛĮ
Ġprevious
Ð½
ĠØ§Ø³ØªØ±Ø§Øª
Ġshoulders
ushing
ØªØ§Ùħ
icide
ĠØ±ÛĮØ´
ĠÙħØ³ÛĮØŃ
Ġfly
anding
ĠÙħØ§Ø³Øª
ĠØªØ¨ÙĦÛĮØº
fessor
ÙĤÙĦØ§ÙĦ
Ġpieces
ĠØ§ÛĮØªØ§ÙĦÛĮØ§ÛĮÛĮ
ĠDen
ĠÙĨØ³Ø¨ØªØ§
ĠØªØ§Ø¨Ø¹
Ġfighting
ĠØ±Ø§Ø³
ĠØ³Ø±Ø²
ĠWind
Ġenemy
Ú©ÛĮØ¯
ĠØ¨Ø±ÙĪÙĨØ¯
Ú©ÙĪÙ¾
bre
Ġcars
Ġtools
ĠØ§ÙĨÙģ
ĠÚ©Ø§Ø±Ú¯Ø±
iance
Ġcharge
ĠØŁ"
Ġheads
Ġlistened
ĠØ´Ø§Ø¹
ĠØ³Ø§Ø¯Ú¯ÛĮ
ĠØ§ÙĪÙĩ
Ġrecent
Ġstudent
Ġindividuals
Ø§ÙĩØ§ÛĮÛĮ
urb
Ø¢ÙĨÚĨÙĩ
ÙħØ§Ø±ÛĮ
ØŃØ§ÙģØ¸
Ġcontract
Ġpatient
ĠEdward
Ġhighest
Ġreaction
ĠJust
Ġfounded
Ġcalcul
Ġbasic
cher
Ġeld
Ø·ÛĮÙĦ
ĠØ¯Ø³ØªÙħ
Ġdetermined
ĠÙ¾Ø§ÙĦ
ÚĺÛĮÚ©
Ġ1970
Ġdu
Ġscale
Ġkid
ĠLu
ointed
Ġmaterials
Ġcelebr
Ġadvantage
ĠÙħØªØ£
Ġscene
Ġgate
Ġasse
ĠØªÙĪØµÛĮÙĩ
ĠØ¨ÛĮÙħØ§Ø±Ø§ÙĨ
Ġoblig
ĠØ¨Ø±Ø²
ologies
ĠÛĮÚ©Ø³Ø§ÙĨ
Ġfile
ĠÙĩÙħØ¯ÛĮÚ¯Ø±
ĠØ¨Ú¯ÛĮØ±ÛĮÙħ
Con
jo
pire
ĠØ¯Ø¨ÛĮØ±
ĠØ¢ÙĨÚ¯Ø§Ùĩ
ĠØ³ÛĮÚ¯Ø§Ø±
ĠØ¨Ø®Ø§Ø·Ø±
Ġinteract
ĠÙĨØ¯Ø§Ø±ÛĮÙħ
Ġlevels
Ġrecognized
ĠØ¨Ø±Ùģ
ĠServ
Ġdepart
Ġslightly
Ġspl
ĠMag
Ġrub
ĠØ§ÙĨÚ¯ÛĮØ²Ùĩ
ĠÙĦÛĮØ³Øª
ON
Ø±ÙģØªÙĩ
ĠØ¯Ø§Øº
Ø²Ø§Ø¨Øª
ĠÙħØªÙħ
ĠÛĮØ§Ø¨
see
iring
Ġwear
Ø¨Ø§Ø²Ø¨ÛĮÙĨÛĮ
ĠCentral
elve
Ġ26
Ġtired
ĠØ¯Ø²Ø¯
ĠEr
Ġamazing
ii
Ġpair
ĠØ§ÙĪØ¶Ø§Ø¹
ĠÙĨØ§Ú¯Ùĩ
ube
Ġunf
Ø§Ø¹Øª
ĠÙħÛĮÚ©ÙĨØ¯
ĠØ¨ÙĩØª
Ġrout
Ġshook
ĠÙĪØŃØ´ØªÙĨØ§Ú©
Ġmultiple
ĠÙħÙĤÛĮ
Ġprovided
Ġcart
ĠÚ©Ø§Ø±Ùħ
ĠÚĨÛĮÙĩ
ĠØ§ØŃØ³Ø§Ø³ÛĮ
ĠAsia
ĠÙħÙĪØ¬ÙĪØ¯Ø§Øª
Ġintegr
Ġanalysis
Ġflag
ĠÛĮØ§Ø¯Ø¯Ø§Ø´Øª
Ġmethods
Ġproud
ĠØ§ÙĦÙĩØ§Ùħ
ĠDepartment
ĠÙĪØ§Ùħ
Ġfully
ĠØ®ÙĪÛĮ
ĠØ¯ÙĪØ³ØªØ´
Ġhighly
ĠÙħØªÙģØ§ÙĪØªÛĮ
ĠØªØº
Ġstro
ĠÙħÙĤØ¯Ø§Ø±ÛĮ
ĠØ§Ø«Ø¨Ø§Øª
ĠCour
Ġcompon
ĠÙħØ³Ø¦ÙĪÙĦÛĮØª
ĠÙħØ¹Ø±Ø¶
ĠKar
Ġbreast
ĠÙ¾Ø±Ø³Ø´
Ġinvestig
Ø¬Ø§Ø±
ĠÚ¯Ø±Ú¯
ÙĦÙĪØ¨
Ø£Øª
ĠØ§Ø®ØªÙĦØ§Ùģ
ĠÙħÛĮÚ©ÙĨÙĨØ¯
Ġrough
ĠÙħÙĤØ¯Ùħ
ĠÛ²Û´
ĠØ¨ÙħØ¨
AP
ĠÙ¾Ø±ÙĪÙĨØ¯Ùĩ
Ġsurprised
Ġseparate
pen
ÑĢ
Ġsnow
ĠBank
ĠØ¨Ø®ÙĪØ±
Ġgeneration
ĠRobert
rees
ĠØ§Ø³ØªÙĤÙĦØ§ÙĦ
ĠÙħØªÙĪÙĦØ¯
Ġcarriage
Ġladies
Ġnerv
Ġconcent
ĠÙ¾Ø¯Ø±Ùħ
ĠÙ¾Ø§Ø´
ĠÙħØ³Ø§Ø¨ÙĤØ§Øª
Ġtemperature
Maybe
ĠÙĨØ§Ú¯ÙĩØ§ÙĨÛĮ
ias
nes
ĠWell
erved
Ġpure
ĠÙĨØ´ÙĪØ¯
azine
Ġlimited
ĠÚ©Ø§
ĠÙĪÛĮÙĦÛĮ
ĠØ¢Ø±Ø§
ĠØŃØ§Ú©
Ġaspect
olid
ĠØ®ÙĪØ¯Ú©Ø´ÛĮ
ĠÙħØªÙħØ±Ú©Ø²
ĠÙ¾Ø±ÛĮØ¯Ùĩ
ĠÛ²Û°Û°Û°
ĠØ¯Ø§ÙĨØ³ØªÙĨØ¯
ading
ĠÙģØ±ÙĤ
Ġhundreds
eds
Ġoccurred
razil
Ġble
lege
ĠØ§ÙĨØ¯Ø§Ø²ÛĮ
Ø§Ø®Ø±Ùĩ
ĠScarlett
ĠMinister
ĠØ®ÙĪØ±Ø´ÛĮØ¯ÛĮ
rodo
Ø±Ø§ÙģØª
ĠØ¯ÙĪÛĮ
Ġstyle
ĠÙħØ¨ØªÙĦØ§
after
ĠThey
ĠØ¨Ø®Ø§Ø±ÛĮ
ĠØ¯Ø±ÙĪØ§Ø²Ùĩ
ĠØ¢Ú©
Ġnation
ulations
ĠWil
ĠØ§Ø¹Ø¯Ø§Ø¯
ĠØ¯Ø±Ø³ØªÛĮ
emic
Ġagreed
ool
wide
ĠØŃØ±Ø§Ø±Øª
Ġtransform
Ġwonderful
ensis
ĠØ°Ú©Ø±
Ġextremely
Ġmal
Ø´ÙĨØ§Ø³ÛĮ
Ø¯Ø±Ø³
Ø§ÙĨÙĩØ§ÛĮ
Ġaltern
ĠÙħØ³Ú©ÙĪÙĨÛĮ
ĠÙ¾Ø²Ø´Ú©
Ġexecut
Im
Ø§Ø±ØªÛĮ
25
ura
ĠBen
Ġfamiliar
Ġtransport
Ġkinds
Ø§ÙĨØ¯Ùĩ
ĠMex
ĠÙĦÙĪÙĦÙĩ
ÙģÛĮÙĤ
Ġcurrently
Ġsuffering
gate
ĠÙ¾Ø±ÛĮØ¯
Ġuseful
Ġtim
ÚĨØ·ÙĪØ±
ĠÙĤØ§ÙĦØ¨
ulate
Ġallows
ĠÚ©ÙħÛĮØªÙĩ
ĠØ®Ø§ÙĨÙĪØ§Ø¯Ú¯ÛĮ
ĠØ¢ÙħÙĪØ²Ø´ÛĮ
ĠMa
ĠÙħØµØ§ØŃ
Ġelement
illy
Ġreceive
ĠØ¯ÙħØ§
amond
lov
ĠØªÙģÚ©Ø±
ĠØ§Ø±ÙĪÙ¾Ø§ÛĮÛĮ
80
ĠApp
Ġsole
ĠFred
ĠØ§ÙħØ´Ø¨
ogle
ĠØºØ°Ø§ÛĮ
Ġnewsp
Ġcounter
ĠØ¢Ø´Ù¾Ø²Ø®Ø§ÙĨÙĩ
Ġrat
ĠÚ©Ø§Ø±Ú¯Ø±Ø§ÙĨ
Ġune
Ġsolar
Ġclearly
Ġgod
urt
ĠMod
ÛĮØ²Ùħ
Ø¨Ø§ÙĦØ§Ø®Ø±Ùĩ
ĠÙĦØ¨Ø®ÙĨØ¯ÛĮ
ĠÙģØ±ÛĮØ¨
Ġrespond
Ø®ÙĪØ±Ø¯Ùĩ
ĠØ®Ø¬
ache
ĠÙħÙĪØ§Ùģ
ÙĢÙĩ
Ø¹ÙĩØ¯
Ġrooms
Ġwinter
ĠÙħØªØ´Ú©Ø±Ùħ
ÛĮÙħÛĮØªØ±ÛĮ
ĠHall
Ġforgotten
Ġcommercial
ĠÙħØ¹Ø§Ø¯ÙĦ
ervish
ĠØ®Ø²
Ġhadn
Ġpassing
Ġmerely
Ġworry
Ġsubst
Ġmoon
Ġdangerous
Ġcup
ston
ĠAward
Ø§ÙĤØ¹
Ġnobody
ensus
Ġbelief
ipe
ville
Ġfed
ĠØ§Ø±Ø³Ø§ÙĦ
ĠØ±Ø¨Ø±ØªØ§
ĠÙĨØ§ÛĮ
stead
ements
Ġexcited
Ġstupid
Ġcritic
ĠØ§Ø±Ø²ÛĮØ§Ø¨ÛĮ
ties
ona
Ġhar
Ø³ÛĮÚ©
Ġevolution
ĠØ³Ø±Ú¯Ø±Ùħ
rant
ÙĩÙĨÛĮ
ĠÚ©Ø§Ø¨
ĠMark
ĠCont
ĠRiver
ĠÙĨØ¯Ø§
ĠØ¨Ø§Ø²ÛĮÚ¯Ø±
ÙĪØ·Ùĩ
ĠÙĨÚĺØ§Ø¯
ga
ĠØ´ÙĦÛĮÚ©
ĠØ¢ÙĦÛĮ
Ġrail
ĠØ³Ø±Øª
Ġshared
ĠDar
peror
ĠØ§Ø¯ÙĪØ§Ø±Ø¯
Ġcris
Ú¯Ø±ÙĪÙĩ
Ø¢Ø±ÛĮ
Ø¢ÙħØ¯
ĠÙħØªØ®ØµØµ
Ġvision
ĠÙĦØ·Ùģ
Ġcitizens
ĠÙĨÙĩØ§Ø¯Ùĩ
Ġconnection
ĠØ«Ø±ÙĪØª
ĠØ³ÙĤÙģ
ĠRome
ĠEup
Once
ĠÛ²Û°Û±Ûµ
ĠÚ¯Ø´ÙĪØ¯
Mar
ĠÙ¾ÙĩÙĨ
ĠØ±ÙĪØ¨Ø±ÙĪ
Ġgrave
ØºÙĨ
ĠÙħØ§Ø¬Ø±
ĠOne
Ú©Ø³Ø§ÙĨØ¯Ø±
ĠGl
Ġhate
ĠThere
Ġmostly
Ġafterwards
Ġpictures
Ø³Ø§Ø®Øª
enced
this
Ø§Ø³Ú©Ø§Ø±
ĠØ´Ø±Ø·
Ġdevice
fast
Ø¨Ø®
Ġreact
ĠÙģÙĦØ³ÙģÙĩ
Ġresponsible
ĠÙħÙĪØ²
ĠØ´ÙĨÛĮØ¯Ùħ
ĠÙħØ§ÛĮÙĩ
Ø²Ùħ
ĠØ¢Ú¯Ø§ÙĩÛĮ
othe
Ġamb
ĠØ¬ÙĪØ§ÙĨØ§ÙĨ
Ú¯Ø°Ø´ØªÙĩ
ĠØ¬ÙĦØ³Ùĩ
ĠØ¨Ø®ÙĪØ§ÙĩØ¯
Ġbill
Ġthirty
ĠÙħØ±ØªØ¨Ùĩ
Ġconstit
Ġahead
Ø§ÙħØ±ÙĪØ²
Ġinstruct
ĠÙħØ·Ø§ÙĦØ¹Ø§Øª
Ġchanging
ĠÙĨÙħØ§ÛĮØ§ÙĨ
ĠÚ©Ø§ÙĦÛĮÙģØ±ÙĨÛĮØ§
uild
Ġgal
Ø§ÙĪØ²
Christophe
Ġsides
Ġordered
ĠÙħÛĮØ®ÙĪ
ĠÙħÙĦÚ©Ùĩ
ĠØ±ØªØ¨Ùĩ
rative
ÙģØ´
Ù¾Ø§ÙĨ
ĠØ¨Ø§Ùħ
Ø§ÙĤØª
ĠÙĩØ±ÚĨÙĨØ¯
ults
ĠÙħØºØ§Ø²Ùĩ
ĠØ±ÙĪØ¨Ùĩ
Ġshowing
Ø§Ø³ØªØ§ÙĨ
iments
Ġroof
Ġcoast
mark
ĠCat
oday
Ġsell
ĠØ§Ø³Ú©
ĠÙħØŃØ¯ÙĪØ¯ÛĮØª
ĠÙħØ¹ÙĦÙħ
ĠØ§ÙĪÙĨØ§
Ġtransfer
ĠØ´ÙĪØ±Ø§ÛĮ
Ġaccepted
Perhaps
ĠDistrict
ĠØ¨Ø°
Ġmort
ĠØ§ÙĨØ¹
ĠÚ©Ø§Ø±Ø¨Ø±
ĠØ®Ø·ÛĮ
ĠØ¹Ø±Ø¨ÛĮ
ĠØ§Ø³ÙĦØŃÙĩ
andom
ĠØ¨Ø±Ø§Ø¯Ø±Ø´
Ġsam
ĠØ¬Ø§Ø¯
ĠFin
itty
Ġframe
ĠKingdom
ĠÙĪØ§Ø¶ØŃ
ĠØªÛĮØ²
Ġschools
ĠÚĺØ§Ù¾ÙĨÛĮ
aming
ĠÙĨÚ¯Ø§ÙĩØ´
ĠInter
Ġfailed
inking
Ġdistinct
Ġguy
Ġmale
ĠØ²ÙħØ²ÙħÙĩ
ĠFore
Ġplants
Will
ĠÙ¾Ø§ÛĮØ´
ĠØ³Ø±ÙĨÙĪØ´Øª
Ġspoken
ĠØŃØ±Ú©Ø§Øª
vest
Ġhero
ĠÙħØªØºÛĮØ±
ĠØ´ÙĪØ®ÛĮ
Ġscr
Ġartist
Ø§ÙĩØ¯
Ø§ØªÛĮÚ©
Ú¯Ø±Ùĩ
ovna
ĠØ³ÙĨÚ¯ÛĮ
ĠÙģÙĦÙĪØ±
ĠØ¨Ø±Ú¯Ø±Ø¯Ø§ÙĨØ¯
Ġreflect
ĠÙħÛĮÚ©ÙĨÙĩ
Ġscientists
ĠØªØµØ§Ø¯ÙģÛĮ
ĠAssociation
Yet
à®
ĠØ±ÛĮØ®ØªÙĩ
Ġprograms
ĠØ¹Ø§ÙĦÙħ
ĠÙ¾ÛĮØ±Ø§ÙħÙĪÙĨ
ĠÙģÙĩÙħÛĮØ¯Ùħ
Ġmental
ems
Ġintended
Ġperce
Me
ÙħÛĮØ¯
ĠØ±ÛĮØ¯
ĠØ§ØµØ±Ø§Ø±
Ġflight
ĠØªØ²
ĠÙĨØµØ¨
Ù¾Ø±ÙĪ
ĠÙĩÙħØ§Ùĩ
Ġdrag
Ġexperiment
Ġbul
Ø¬ÙĨØ³
ĠTw
ĠFather
Ġscreen
Ġflu
Ġchest
Ġevident
ĠØ§ÙĦÚ©ØªØ±ÙĪÙĨ
22
Ã¤
ĠÚ©Ø«ÛĮ
Ġmath
ĠØ®Ø·ÙĪØ·
ĠÚ¯ÙĨØ¯
ÙĢÛĮ
Ġanybody
Ġremind
Ġuser
gl
Ø´ÙĪØ±
Ġears
uries
ÙĨØ§Ø·ÛĮ
ĠOff
ocol
ithecia
overy
Ø§Ø¯ÙĤ
Ġforg
ĠEupithecia
inet
ØºØ§Ùħ
ĠÚ©ÙĪØ¨
Ġmajority
ĠØ¢ÙħÛĮØ²ÛĮ
Ġdressed
verse
ĠÙ¾ÛĮØ´Ø§ÙĨÛĮ
ĠÙĨÙĪÚ©
Ġprefer
ĠÙģØ´Ø±Ø¯
Ġvictim
ĠØ§Ø³ØªØ±Ø§ØŃØª
ĠØ²ÙĪ
Ġdism
Ġrecently
ĠÙ¾Ø§Ø¦ÛĮÙĨ
Ġdemonst
ĠÚ¯ÙĪÙĨØ§Ú¯ÙĪÙĨ
zy
ÙĪØ±Ø¯Ùĩ
erable
Ġbrief
Ø§Ø³Ùģ
ÙĬØ²
Ġdiss
ĠØ«Ø±ÙĪØªÙħÙĨØ¯
ĠÚ©Ø§Ø´
ena
Ġusers
ĠUN
ĠØ²ÙĨÙĨØ¯
ĠÙĨØ®ÙĪØ§ÙĩÙħ
Ġtight
ĠÛ²Û±
ĠØ¨Ú¯Ø°Ø§Ø±ÛĮØ¯
Ġfilms
ĠØªØ®Ùħ
ĠÚ©Ø´Ø§ÙĨ
ĠÙĩÙĪÛĮØª
astern
ĠØªÙĪØ§ÙģÙĤ
ĠØ³Ø§Ú©ÙĨ
ĠØµØ¯ÙĩØ§
ĠØ¬ÙĪØ±Ø¬
Ġsexual
enes
Ø§ØªØ§
ĠØ´Ø¨Ø§ÙĩØª
ĠFirst
Ġdrawn
Ġknock
ĠØ¨ÛĮÙĨÛĮÙħ
Ġdigital
ĠØ§Ø³ØªØ¯ÙĦØ§ÙĦ
Ã§
ĠÚ©Ø§Ù¾
ĠØ¬Ø§ÙĦ
Ġsmart
liament
ĠÚ¯ÛĮØ§ÙĩØ§ÙĨ
Ġfalse
Ġopening
ĠÙĩÙħØ²ÙħØ§ÙĨ
olar
ĠÚĨØ´ÙħØ´
ĠØŃÙĪØ§Ø³
ĠÙħÙĨØµ
ĠÙ¾Ø¯ÛĮØ¯Ùĩ
ois
Ġtor
ĠØ¨ÛĮØ´ØªØ±ÛĮÙĨ
OR
ĠJer
ĠØ¯Ø±Ø®Ø´Ø§ÙĨ
ĠØ§ÙħÙ¾Ø±Ø§ØªÙĪØ±ÛĮ
ĠÚ¯Ø±Ø¨Ùĩ
Ú©ÙĨØª
erella
Ġrefuge
ĠØ¨Ø±Ø¯Ø§Ø´ØªÙĩ
ais
ĠÛ´Û°
Ġbeneath
Ġreferred
Ġcab
Ġweather
ĠÙĩØ§Ø¦ÛĮ
Ø¯Ø§Ø®
ception
Ġneighbor
Ġain
ĠÚ¯Ø°Ø§Ø´ØªÙĨØ¯
Ġwaited
atabase
40
Ø´Ø§ÙĩÛĮ
ĠØªØ¬Ø²ÛĮÙĩ
Ġwave
Ø§ÛĮÙĦÛĮ
Ġhast
ĠØ¨Ø§Ø²Ø³Ø§Ø²ÛĮ
Ġclimate
ĠØ¯ÙĦØ§ÛĮÙĦ
ÚĨØ±Ø®Ùĩ
Ġwitness
gers
ĠÚ¯Ø±Ø§ÛĮÛĮ
ĠØªØ±Ú©ÛĮÙĩ
Ġobserv
ĠØªØ§ÙĦØ§Ø±
ras
ented
Ø³ÛĮÙĦÙĩ
Ġproposed
ĠTechn
ÙĩÙħÛĮØ´Ùĩ
ss
Ġapparent
Ġexplained
Ġpleased
ĠØ¨Ø±ÙĪØ²
ĠÙģØ§ÛĮÙĦ
Ġscream
Before
Ġhearing
ĠBi
ĠØ±ÙģØªÛĮÙħ
Ġcoffe
ĠØªØŃØ³ÛĮÙĨ
ÙģÙĨØ¯
terday
ĠBrazil
ĠØ³Ø±ÙĪÛĮØ³
ĠRec
Ġworst
Ġmatters
ĠØ§ÙĨØ¨ÙĪÙĩ
ĠJo
ĠØµØ¯Ø§ÛĮØ´
Ġjoin
ĠÙħÙĤÛĮØ§Ø³
FA
Ø§Ø±ÙĨ
Ø¦ÙĪØ±
izab
ĠØ®Ø§Ø·Ø±Ø§Øª
ĠØ¢ÙħÙĪØ²Ø§ÙĨ
ĠÙĪÛĮØ±ÙĪØ³
Ġapplications
ĠHam
ĠÙħÙĢÛĮ
ĠThomas
DP
ĠÙĨØµÙģ
Ġhide
Ġpros
Ġorganizations
Ġhole
ĠÙĤØ¨ÛĮÙĦ
Ø¢Ø®Ø±
ĠCollege
Ġshadow
gn
Ġunknown
ishment
ĠÙħÙĨØ¸Ø±Ùĩ
Ġodd
Ġparties
Ø³Ø±ÛĮ
Ġmanaged
kin
ÙģØ±Ùħ
Ġcontains
Any
ĠÙĨÙħØ§ÛĮÙĨØ¯Ùĩ
ĠÙ¾ØªØ±
Ġ29
ĠØ¨Ø³ØªÚ¯ÛĮ
ads
ĠGreen
ĠÙģØ±ÙĪØ´Ú¯Ø§Ùĩ
ĠÙħÙĪØ§ÙģÙĤØª
Ġeager
ĠÚĨÙĩÙĦ
Ú©ØªØ§Ø¨
ĠÙĪØ§ÙĦØ¯ÛĮÙĨ
rical
spe
ĠÙĨØ§ÚĨØ§Ø±
Ġflow
aptain
ĠØ¨Ú¯ÙĪÛĮÛĮØ¯
HE
ctors
ĠØ§ØªØµØ§ÙĦ
ulture
Ġtong
ĠØ³ÙĪØ±ÛĮÙĩ
ĠØ°ÙĩÙĨÛĮ
ampions
ĠØ§ÙĦÛĮØ²Ø§Ø¨Øª
ĠÙ¾Ø±ÙĪØªØ¦ÛĮÙĨ
orough
Ġens
ĠÙħØ³Ø®Ø±Ùĩ
ÛĮÙĨØ§
ĠØ³ÙĦÛĮ
Ø¹Ø´
Ġaccident
Ġduty
ĠÙĩÛĮØ¯
ulous
ÙģØ±ÙĪØ¯
ĠØ§Ø®ØªØ±Ø§Ø¹
ĠØ¶Ø±ÙĪØ±ÛĮ
ĠØ¯Ø±Ø®Ø´ÛĮØ¯
ĠØ¯Ø®ØªØ±ÛĮ
rim
Ġnotes
ĠØªØ¹ÙĦÙĤ
Ġconsist
ĠØ¨Ø§Ø±ÛĮÚ©
ĠØªØµÙĪÛĮØ¨
can
ĠÙĨÛĮÙħÛĮ
Ġleader
ĠÙĨØŃÙĪÙĩ
ĠÛĮØ¯
ĠØ§ÙĨØ¨Ø§Ø±
ĠØ§Ø³ÙĦØ§Ùħ
Ġcalling
ĠØªÙĤÙĪÛĮØª
ĠØ¨Ø¯Ø±
Ġsen
ĠÙ¾Ø°ÛĮØ±ÛĮ
ĠÙĩÙĪØ´ÙħÙĨØ¯
ĠAtl
First
ÙħÛĮØªÛĮ
Ġash
ĠØ§ÛĮØ²
Ġvast
Ġbrown
ĠØºÛĮØ±ÙĤØ§Ø¨ÙĦ
ĠØ±ÙĩØ¨Ø±
Ġconstruct
Ġveh
ĠØ§ØªØŃØ§Ø¯
.'
mar
ĠØ¨ÙĪØª
ÙģÙĪØ±
Ġplat
Ġstudied
ĠSocial
Ġdouble
Ġmentioned
ba
Ġwine
ita
Ġconvin
ĠJac
izes
ĠÙ¾Ø±ÚĨÙħ
ĠØ§ÙĨØŃ
Ġprior
Ġorders
Ġcoffee
Ø§Ø±ÙĩØ§
ĠÙħØ³ÙĦØŃ
ĠØ±Ø§ÛĮØ¬
fortun
Ġcultural
ynam
mitted
Ġtour
ĠØ¨Ø§Ú©ØªØ±ÛĮ
ĠØ§ÙĪØ¬
Ġattend
Ġinstrum
ĠMycos
phaerella
ĠMycosphaerella
Ġstated
ĠØªÙħÛĮØ²
Ġshoot
athy
ĠØ¬ÙĪØ§Ùħ
ĠÙĩÙĨØ±ÙħÙĨØ¯
ÙĦØ§ÛĮÙĨ
ĠDef
ĠÙĪÙħ
Ġfru
ĠScience
Ġfifty
Ġsettled
Ø§Ø¯ÙĦÙĩ
ĠØ®ÙĪØ´ÛĮ
Ġsignal
ĠØ¯Ú¯Ø±
aza
ĠHermione
ĠCompany
ĠÙĤØ±Ø§Ø±Ø¯Ø§Ø¯
ĠGold
anny
ĠØ¬Ø²Ø¦ÛĮØ§Øª
eed
Ġsch
ĠØ±Ø§Ùħ
entially
ĠØ´Ø±Ø§Ø¨
ĠØ´ÛĮØ·
Ġcarefully
ĠÙħØ·ÙħØ¦
ĠÙ¾Ø±Ø¯Ø§Ø²Ø´
Ġlibrary
ĠØ§Ú¯Ø±ÚĨÙĩ
Ġtraditional
Ġarchitecture
ĠÙĪÛĮÙĦÛĮØ§Ùħ
lymp
ĠBest
ĠØ§ÙĤØ§ÙħØª
mn
Ġmoments
Ú©Ø§ÙĪÛĮ
ĠÚĨØ§Ø±ÙĦØ²
Ġmillions
respond
Never
ĠØ´ÙĢ
Ġdoors
ĠÛ²Û°Û°Û³
nik
esh
ida
ĠØ§ÙĨØ¯Ú©
ĠØ§Ø³Ø±Ø§Ø±
ĠÙ¾Ø°ÛĮØ±ÙģØªÙĩ
ĠSund
Ġlies
Ġpresented
ĠØ°Ø±Ùĩ
ĠLevin
ĠØ§Ø®ØªÙĦØ§ÙĦ
ĠØ±ÙĪØ³ØªØ§ÛĮÛĮ
ĠÚ©ÛĮØ´ÙĪØª
ĠØ§Ù¾
ÙħØ§ÙĨØ¯
Ø¨ÛĮØ´
ĠØ¹ÙħØ¯
ĠØ¨ÙĦÙĨØ¯ÛĮ
ĠØªØ¦ÙĪØ±ÛĮ
ĠØ§Ø¶Ø·Ø±Ø§Ø¨
Ġbought
Ġhell
Ġvoices
Thus
ĠUK
Ġglance
See
ãĥ
Ġremains
Ġapplication
Ú©Ø§Ø³
estival
ĠØ´ÙĩØ±Øª
ĠØªÙģÙĨÚ¯
ĠÙ¾Ø°ÛĮØ±Ø§ÛĮÛĮ
ĠFilm
EE
rary
isco
Ġmap
ĠØ¢Ùģ
ogether
Ġdisapp
ĠÙĩÙħØ§ÙĨÙĨØ¯
Ġabsolutely
nding
ĠLatin
ÙĩØ±ÚĨÙĨØ¯
Ġdeveloping
ĠØ§Ø±ØªØ¨Ø§Ø·Ø§Øª
ĠÙ¾Ø§ÛĮØ¯Ø§Ø±
ÙĤØ¨ÙĦ
Ġhidden
Ġenorm
ÙĨØ¬ÛĮ
ĠAnna
Ġconstruction
win
ĠØ¬Ø§ÛĮÚ¯Ø§Ùĩ
Ġdirected
Ġoperation
anc
Ġsoci
ĠÙĨØ´ÛĮÙĨ
ĠØ®ÙĪØ´Ø´
ĠØ³Ù¾Ø§Ø³
ÉĻ
ĠÙĨØ±ÙĪ
ĠØ§Ø³Ú©Ø§Øª
ĠÙĩÙħØ§ÙĨØ·ÙĪØ±
Û²Û°
ĠÙĪÙĤÙĪØ¹
Ġhyp
ĠØ²Ø®Ùħ
Ġwaste
Ġrot
ĠÙħØ±Ø§Ø¬
Ù¾ÙĪØ´
ĠØ¹ÙĦÙģ
Ġunit
ĠÚ©Ø§ÙĨØ§ÙĦ
Ġproceed
ĠJane
ĠØ¯Ø§ÙĨØ´ÙħÙĨØ¯Ø§ÙĨ
Ġsharp
ĠProt
Sometimes
net
ØŃØ¯ÙĪØ¯
ĠØ§Ø³ØªØ«
Ú¯Ø±ÙģØª
ĠStreet
annel
Ġfunctions
Ġperformed
Ġdying
Ø¬ÙĩÛĮØ²
Ġinterrupt
Ġfourth
Ġappears
Ġmoral
ĠÙ¾ÙĨØ¯Ø§Ø´Øª
ĠSen
Ġpossibly
ĠØ¨Ø³ØªØ±
Ġpor
Ø§ÙħÙĦÙĩ
ĠAcad
estic
ĠÙħØ®Ø§Ø·
Ġoperating
Ġcauses
ØªÙĤØ±ÛĮØ¨Ø§
ĠIslamic
ĠÙģØª
osen
ĠJose
Ġbread
rep
Ø§ÛĮØ´ÛĮ
ĠÙĤØ´
ĠØ±ÙĪØŃÛĮ
ava
ĠÙħØ¬ÙħÙĪØ¹
Ġprepared
ĠRoyal
ĠØ±ØºÙħ
ĠÙĩÙĪÙĦ
Ġaren
ÙĩØ±Ø§ÙĨ
ĠÙĤØ¯ÛĮÙħ
AM
Ġthrew
ĠØ¨Ø±ÙĪÛĮØ¯
ĠØ´ÛĮØ±ÛĮÙĨ
ĠØŃÛĮÙĨ
Ġstared
ĠCO
Ġexcell
Ġworkers
stein
ĠNow
Ġrealize
ĠÙħØ²Ø±
Ġconfess
ÙģØ¹
Ġadvent
Ġdiscover
ĠØ¨ÙĪØ³ÛĮÙĦÙĩ
Ġfootball
Ġpicked
ĠØªØ§Ø²
Ġfaster
ÙĨØ§ØµØ±
197
Ġ1960
Have
ĠÙĨØ¸Ø§Ø±Øª
ĠVo
Mus
Ġsin
ĠØ²Ø§ÙĨÙĪ
Ø§Ú¯ÙĪ
Ġearn
Ġsuggested
ĠØ²ÙħØ³ØªØ§ÙĨ
ĠÙ¾Ø¯ÛĮØ§
Ġflying
ĠÙ¾Ø§ÙĩØ§ÛĮ
illa
Ġshame
ĠÙħØ´Ø§ÙĪØ±
Ġcrim
ĠØŃÙĤÛĮÙĤÛĮ
gal
pet
Ø¢Ø®
Ġincome
bridge
Ø¯ÙĪØ¨Ø§Ø±Ùĩ
Ġdevices
inite
ÙĦØ§ÙĤ
ĠØ§ÛĮÙħÙĨÛĮ
Ġactivities
ÙħØªØ´
ĠØ¨Ø±ÛĮÙħ
isl
Ġalarm
ÙĩØ±Ú¯Ø²
ĠÙĨØŃÙĪÛĮ
atus
ĠØ§Ø²Ø´
Those
ĠStr
ĠRevolution
Ġgentlemen
ĠÙħÙĩØ§Ø¬Ø±Øª
Se
ĠÙĩØ¯ÛĮÙĩ
ĠMount
Ġcompared
Ġ1991
ĠØ®Ø´ÙħÚ¯ÛĮÙĨ
ĠÙĨÚ©ÙĨÛĮØ¯
omin
ĠÙĨÛĮØ§Ø²ÙħÙĨØ¯
ĠÙ¾Ø§Ø¯Ø´Ø§ÙĩÛĮ
iently
liv
Ġwid
ker
rier
Ġrecomm
Ġcrack
Ġdirector
Ġpromise
Ġwarn
Ø§ÛĮØ¹
ĠÚ¯Ø±Ø§Ùģ
Ġcharm
ÙĪØ´Ø§
ĠJul
ĠØ®ÙĪØ´ØŃØ§ÙĦÛĮ
ĠPrin
ĠØ¨Ø±Ø®ÙĪØ±Ø¯Ø§Ø±
ĠÚ©Ø§Ø±Ø¨Ø±Ø§ÙĨ
ĠØªØ¹Ø·ÛĮÙĦ
ĠÙĤØ¯Ø±ØªÙħÙĨØ¯
ĠØ®ÙĪØ§ÙĨÙĨØ¯Ùĩ
Ġhes
ĠØµØ§Ø¯ÙĤ
ĠOlymp
ĠØ¯Ø±ÛĮØ§ÛĮ
Ġcrisis
.;
Ġsaf
Ġ1999
ĠØªØ¦Ø§ØªØ±
acle
ĠChe
ieur
eping
Ġcommonly
ĠØ¯Ø§ÙħÙĨÙĩ
ĠÙħØ®Ø§ÙĦÙģØª
Ġmission
urally
ĠGroup
ĠÙģØ±Ø³
Ġserve
Ġcreating
ĠØ¨ÙĨÛĮØ§Ø¯
Ġquarter
Ġlatter
Ġfold
ĠÙħØ·Ø¨
Ġsust
Ġcapable
Ġcapacity
ĠØ°ÙĩÙĨØ´
mas
ÅŁ
ÙĦØ§ÙĨØ¯
ĠØ§Ø³ØªÙĤ
Ġjustice
Ġminim
Ġsuspic
ander
ĠØ§ÙģØ³Ø§ÙĨÙĩ
ĠGreek
Ã¨
ÚĨÛĮÙĨ
Ġrang
ĠÙħØ´Ú©ÙĦÛĮ
Ġtrick
ĠØ¯Ø®ØªØ±Ø´
ĠÛ¶Û°
Ġprofessional
ĠÙħØ¤Ø³Ø³Ùĩ
ĠÙĩÙħØ³Ø§ÛĮÙĩ
ÙĨØ§ÛĮÛĮ
ĠÛ²Û°Û°Û´
ĠØ´ÛĮØ·Ø§ÙĨ
Ġofficers
Ġextraord
ÙħØ·Ùħ
isms
Ġasleep
ĠÂ°
ĠÛ±Û¹Û¹Û°
Ġwhispered
Ġcommunication
ĠÙģØ¯Ø±Ø§ÙĦ
Ø³ÛĮØ±
ĠØ¨ØªÙĪØ§ÙĨÛĮÙħ
ĠMuseum
umber
ĠÙħØªÙĩÙħ
Ġteach
Ġquietly
ĠØ¨ØªÙĪÙĨ
ĠØ¢ÙĨØ±Ø§
owned
ĠØ±ÙĪØ²Ø§ÙĨÙĩ
ĠÚ¯ÛĮØ¬
arts
ĠØ¨Ø¯Ø§ÙĨØ¯
ÙĨÛĮÚ©Ùģ
ala
omic
Ġgray
Ġpaint
ĠØ¨Ø±ØªØ±
Also
Û³
ÙĦØ§ÙĨ
ĠPat
osh
apole
ĠØ¹ÙĪØ§ÙħÙĦ
Ø°ÛĮÙĩ
iar
ĠÚ©Ø§Ø³Øª
ĠÙģÙĤØ±
Ad
PD
ĠØ¯Ø±ÙĪÙĨÛĮ
ĠHis
Ġcircumstances
ĠÛĮÚ©Ùĩ
ĠSat
ĠØ¯Ø®ØªØ±Ú©
ĠÙħØ°Ø§
ĠØºØ±ÛĮØ¨
itter
ĠÙ¾ÛĮÙĨ
ĠBul
alog
ĠÙģØ±ÙħÙĪÙĦ
Ġmountain
ĠMadame
wing
Ø¨Ø®Ø´
ĠØ¯ÙĪØ®Øª
Ø«Ø§
ested
ĠØªØŃØ±ÛĮÚ©
ĠØ´ÙħØ´ÛĮØ±
ĠMet
Ø¸ÙĩØ±
ĠÙ¾ÛĮÚ©Ø±
Ġqual
Ġfinger
ÙħÙĪØ±Ø¯
Ġimportance
Ġeffective
ĠÙĤÙĦØ¨ÛĮ
ĠØ³Ø±Ø²ÙĨØ´
va
itated
onsieur
Ø´ØªÛĮØ§ÙĤ
ashington
ĠÙ¾ÛĮØ±Ø§ÙĩÙĨ
Ø§Ø±Ùģ
Ġaudience
Ġnuclear
ÛĮØ±ÛĮ
ĠØ¬ÙĪØ´
Ġcompar
ĠØ¨Ø´Ùĩ
ĠÙħÛĮÚ©
ĠÙĨÙħØ§Ø¯
ĠØ¯ÙĨØ¨Ø§ÙĦÙĩ
Ġkeeping
ĠÙĤØ¶Ø§ÙĪØª
Ġbegun
cular
ĠØ¯Ø§ÙĨÙĩ
unched
ÙĪÙħÙĨØ¯
Ġwilling
ĠØ¨ÙĨÛĮØ§ÙĨ
ĠForce
ĠØ§Ø´ØªÛĮØ§ÙĤ
Ø·Ø±Ùģ
Ġaircraft
ĠØµØ®Ø±Ùĩ
ĠØ¯ÙĩÚ©Ø¯Ùĩ
ĠÙĨÛĮØ§Ø²ÛĮ
ĠØ±ÙĪÛĮØ´
angl
Ġchallenge
))
Ġdrop
Ġunable
Ġseconds
ĠØªÙĪÙĨÛĮÙħ
Ġattacks
ĠÙħÛĮØª
esp
ĠØ®ÙĪØ´Ùħ
ĠØµÙĦÛĮ
Ġtender
Ġdistingu
Ġdreams
ĠØ§Ø³ØªØ®Ø¯Ø§Ùħ
ĠAfghanistan
ĠØ´ØªØ±
ĠØ¯Ø±ÙħØ§ÙĨÛĮ
Ġeverywhere
Ġremoved
ĠÙĩÙħÙĪÙĨ
Ġflowers
ĠMichael
ĠØ¨Ø§Ø³ØªØ§ÙĨ
ĠÚ¯Ø±Ø§
ØµÙĪØ±
ĠØ§Ø³ÙĨ
Ú¯ÙĪÙĨÚ¯ÛĮ
ĠOrgan
ĠØªØ¬ÙĩÛĮØ²
Ġfurn
Ġvariety
Ġapplied
apoleon
wers
Ú©Ø±Ø§Ø³ÛĮ
ÙĦØ¦ÙĪÙĨ
Ġcreature
ĠÚ©ÛĮØª
edd
Ġho
ĠÛĮÙĪØ±
elle
ĠØ¨ÙĪØ¬ÙĪØ¯
ĠØ®Ø¯Ø§ØŃØ§ÙģØ¸
Ġdelic
ĠØ·ÙĨ
Ġsuicide
ĠØ®Ø±ÙĪØ¬ÛĮ
Ġdrug
Ġton
ĠSim
Ø§Ø³ÛĮÙĪÙĨ
ĠØ³ÙĨØ¯
ÙĩÙħÚĨÙĨØ§ÙĨ
CH
ĠAp
Ġbridge
ĠResearch
ĠØ¬ÙĪØ§ÙħØ¹
CO
fa
yth
ÙĪÛĮÙħ
ĠØ±Ø¨Ø§Øª
ĠÙ¾Ø±Ø§Ú©
olas
ĠProvince
Ġuniversity
irect
ĠÙ¾Ø§Ø±ÚĨÙĩ
)".
Ø³Ù¾
Ġbow
ĠØ´Ú©Ø±
Ġpapers
Ø³Ø±Øª
ĠØ¨ØªÙĪØ§ÙĨÙħ
Ġfalling
ĠHenry
Em
ÚĨÙĪØ¨
ĠBro
ĠØ§ÙĦÚ¯ÙĪ
ĠÚ©ÙĦØ§Ø³ÛĮÚ©
ĠÙħÙĦØ§ØŃØ¸Ùĩ
ÙĦÙħØ§ÙĨ
Ġneare
ĠFer
cip
Phil
ĠCongress
ĠLouis
ĠSmith
ĠHel
Ġotherwise
Ġrefused
Ġpleasant
porary
ĠÚ¯ÙĪØ±ÛĮ
Ġnarrow
ĠØ³ÛĮØ¨
hens
ĠGoogle
BS
ØªÛĮÙħ
ĠÛĮÙĦ
ØµØ±ÛĮ
ĠÚ©Ø§Ø±ÙĩØ§ÛĮÛĮ
Ġ.
ĠØ¨Ø®Øª
ĠÚ©Ø§ÙħÛĮ
reement
omer
Ġsevere
Ġsomehow
Ġdistribution
Ġstairs
olt
Ġcontext
ĠÙħØŃÙĦÙĩ
ĠØªÙĨÙĩ
Ġtells
ĠÛĮÙĪÙĨØ§ÙĨÛĮ
ĠØ¯Ø±Ú¯Ø°Ø´Øª
enth
Ġpersu
ĠØ®Ø±Ø³
amily
Ġstir
ĠØŃØ¶Ø±Øª
ĠAsh
Ġprimary
izabeth
Such
ĠØªÙĢ
bits
iest
ĠÚ©ÙħØªØ±ÛĮ
ÙħÙĪÙĤ
Ġwondered
Both
ugg
Ú¯ÙĨØ¯
ĠØ¢Ø³Øª
ĠGal
Ġsake
ĠØ§ÛĮÙĨØ·ÙĪØ±
Ġappre
ĠÙģØ¹ÙĦÛĮ
Ġfallen
Ġrising
Ġreview
Ġ2016
Ġcloser
ÛĮØ§Ø¯
ĠØ¯Ø±Ø¨Ø§Ø±
idents
Ġcrime
Ġengineering
Ġnegative
ĠNations
ĠØ³ÙĪØ§Ø±ÛĮ
Ġends
ĠØ¨Ø§ÙĦØ§Øª
ĠØ§Ø¹Ø¯
alls
ĠØ¢ÙħØ§Ø±
Ġcontain
atherine
Ġcollection
ĠØ¨ÙĬ
ĠØ®ÙĦÛĮ
Ø³ÛĮØ³ØªÙħ
Ú©Ø²ÛĮÚ©
99
Ġbacter
Ġtool
omys
ÙĪÙĦÛĮÙĨ
Ġdescend
Ġpoly
ĠFranc
Ġoptim
Ġadministrative
Ú©Ø¯Ø§Ùħ
Ġinput
Ø§ÙĦØ§Øª
ĠØ¬ÙĪØ±ÛĮ
ands
ÙħÙĨØª
ĠÙģØ§Ø±Øº
ĠØ§Ø¯Ø±
ÙģÙĪØ±Ø¯
ĠØ§ÙħÙ¾Ø±Ø§
ÙĪØ²Øª
ĠÙĨÙĪØ§Ø®Øª
Ġconstant
Ed
ua
Ø¨ØªÛĮ
ĠØ±ÙĪØ§ÙĨÛĮ
Ġpity
Ġimper
Ġexer
Ġsav
ĠÙ¾ÛĮØ´ÛĮÙĨ
ĠØ®ÙĪØ´Ø¨Ø®Øª
Ġyesterday
Ġutter
Ġdogs
ĠÙħØŃÙĪ
Ġtwelve
Ġpointed
ĠØ¢Ø³ÛĮØ§
ĠØ§Ø±Ø¯ÙĪ
Ø³ÙħÙĩ
inate
ĠNot
ĠÙĨØ¯Ø§Ø¯Ùĩ
Ø§ÙģÙĦ
Ġdrove
Ġtouched
Ġwidely
ĠØªØŃÙĤÛĮØ±
jean
ĠAh
ĠHIV
ĠØ§ÙĦÚ©ØªØ±ÙĪÙĨÛĮ
ĠØ¨ÛĮÙģØªØ¯
ĠÙħØ²Ø±Ø¹Ùĩ
Ġ90
Ġaston
father
Ġwearing
ĠSil
ĠTimes
ĠØ¢ÙĦÙĪØ¯Ùĩ
ĠÙħØ¬Ø¯Ø¯
ĠØ¨ÛĮØ§ÛĮÛĮØ¯
Ġvent
ĠÙĨÛĮØ§Ùħ
ĠØ§Ø³Ú©ÙĨ
Ġreply
Ġbasis
ĠRichard
Ø¨ÙĦÛĮ
ĠØ±ÙĪØ³
osis
ĠØ®ÙĪØ§ÙĩØ±Ø´
ĠÚ©ÙħÙĪÙĨÛĮ
ĠØ¨Ø¯ÙĩÛĮÙħ
Ġsigned
Ġaside
umped
ĠØ§Ø®Ø¨Ø§Ø±
Com
akistan
Ġcorrespond
Ñģ
Ù¾ÙĨØ¬
ÙħÙĨØ³ØªØ§ÙĨ
ĠØªØ¹ÙĤÛĮØ¨
ĠWindows
TP
ĠÙĨÛĮØ´
Ġpainting
ĠÙħØ¬Ø¯Ø¯Ø§
ĠØ¬Ø§ÛĮØ´
cely
ĠÙģØ±Ø§ØªØ±
ĠÙħØ¯Ø§ÙĪ
ĠØ¬ÙĨØ³
ĠØ¨Ø¯ÙĩÛĮ
Ġ70
Ġshouted
Ġcous
uzz
ĠØ±Ø£ÛĮ
Ú©ÙĪØ±
ĠÚĨÚ¯ÙĪÙĨÚ¯ÛĮ
Ø±ÙĪØŃ
ĠØ§ÙĨÚ¯ÛĮØ²ÛĮ
ĠÙģØ´Ø±Ø¯Ùĩ
Ġprojects
ĠÙĩÙħÚ©Ø§Ø±
ÙĩØ§Ø¦ÛĮ
ĠØ¯ÙĪÚĨØ±Ø®Ùĩ
Ġinnov
Ġcarrying
mine
Äģ
Ú¯ÛĮØ³
ÙħÙĪÙĨØ¯
Ø¯Ø§ÙĨØ´
ĠØ§Ø¬ØªÙħØ§Ø¹
Ġchosen
Nothing
ĠØ³ÙĦØ§ÙħØªÛĮ
Tom
Ġhydro
Ġ".
ĠÙħØ¹Øª
Ġanywhere
ÙĪØªØ±ÛĮ
hetic
Ġfan
Ġfran
ĠØ³ÙĩÙħ
ĠÙĤÙģÙĦ
atell
Ø¯Ø§Ú©
ĠÛ±Û¹Û¸Û°
Ø±ÙĤ
Ġexpressed
rieved
cs
Ø±Ø§Ø¨
ÙħØ±Ø§
Ġhill
ØŃØ³
ĠFrodo
rous
Ġoriginally
ĠÙħØ¤Ø«Ø±
ĠÏ
ĠÙĪÙĪØ¯
ĠÛĮØ§Ø±
Ġsuit
ĠÙħØ´ØªØ§ÙĤ
gment
ĠÙħÙĪØ§ÙģÙĤ
ĠØªØ¬Ø¯ÛĮØ¯
ĠLife
Ġunique
ĠÙĨØ´ÛĮÙĨÛĮ
Ġcourage
Ġcollege
Ġefforts
ĠØ±Ø¯ÛĮÙģ
ĠØ§Ø¹Ø¯Ø§Ùħ
86
Ġincl
ĠØªÙĪØ§ÙĨØ³ØªÙĩ
Ġpride
ĠØ³Ø±ÛĮØ§ÙĦ
ĠÙħØ¨Ø§Ø¯Ø§
Ġthroat
ĠÚĨÙĪØ¨ÛĮ
ĠØ§ØŃÙħÙĤØ§ÙĨÙĩ
Ø¯ÙĪØ´
ĠØªÙĩØ±Ø§ÙĨ
ĠØŃØ´
ĠØ¬ÙĨØ§Ø¨
ĠØ³ÙĩØ§Ùħ
Ġfortune
ĠØ±ØŃ
ĠØ¢ÙĨÙĦØ§ÛĮÙĨ
ĠÚ¯Ø±ÙģØªØ§Ø±
Ġyounger
Ġdivided
Ġsuffer
oor
ÙĪØ¹ÛĮ
ĠØ¨Ø±ÙĨ
rol
ĠEmpire
iques
Ġplatform
32
Ú¯ÙĪÙĨÛĮ
Ġaband
ĠWomen
Ù¾Ø³Ø±
ĠØªØŃÙĪÛĮÙĦ
Ġpoll
ĠØ¨Ø§ÙĦØ§ÛĮÛĮ
yer
ĠÙħÛĮÙĪÙĩ
ÙĬÙĦ
Ġplans
Ġsolid
Ġadvanced
Ġprogramming
Ġcomputers
Ġreduce
ĠÙĪØ§Ø¯Ø§Ø±
atically
Ġcodes
Ġnorthern
ifying
ĠØ§ÙħÙĪØ§Ø¬
Ġknees
Ġaccomp
ĠÙħÙĩØ±Ø¨Ø§ÙĨÛĮ
Pl
Ø´ÙĨØ¯
Ġban
lement
Ġaffection
ĠØ§ÙĩÙħÛĮØªÛĮ
ĠSee
Ġoperations
Ġconcerned
FC
ÙĦØ·
ĠØ³Ø±ÙĪØ±
Ø§ÙĪÙĦÛĮ
ĠØ¨Ø§Ø²Ø¯ÛĮØ¯
Ġlights
ĠØªÙħØ§Ø´Ø§ÛĮ
Ġphysic
ĠØ§Ø«Ø±ÛĮ
Ġsafety
IA
Ø¯ÛĮØ±
ĠÙģÙĪÙĦ
illed
ĠÛ²Û²
Ġvisual
ĠÚ©Ø¬Ø§Ø³Øª
Ġcere
Ù¾ÙĪ
EN
ĠÚ¯ÙĦÙĩ
utch
aya
amber
ĠØ®ÙĪØ¯Ø¯Ø§Ø±ÛĮ
Ġcritical
Ġphilosophy
Ù¾Ø°ÛĮØ±
ĠÙ¾ÛĮØ¯
ĠÙĩØ±ÙħÛĮÙĪÙĨ
ĠØ¬ÙĨØ§ÛĮØª
Ġactions
ĠØªÙĤÙĦ
hesis
Ġdifficulty
ĠØ¬Ø±Ø£Øª
ĠOffice
ador
ĠØŃØ±Ú©ØªÛĮ
ĠÙħØ®ÙĦÙĪ
ĠØ§Ø®ÙĦØ§ÙĤ
Ġbra
ĠØ®ÙģÙĩ
verty
ĠØ±ÙĪØºÙĨ
ĠÚ©ÛĮØ³Ùĩ
ĠØ¹Ø±ÙĤ
ÙħØ¹ÙħÙĪ
happ
Ġprotection
ĠØ±Ø§ÙĩÙĨÙħØ§ÛĮÛĮ
Ġterrit
ĠØªØ±Ú©ÛĮØ¨ÛĮ
ÙĨØ§Øª
ĠØ±ÙĪØ´ÛĮ
Ú©ÙĦÙĨÛĮÚ©Ùģ
Ø§ØµÙĦØ§
Ġpoverty
Ø±ÛĮÙĤØ§ÛĮÛĮ
Ġdescribe
Ġmovie
xford
phone
razy
ĠØ§ÙħÛĮØ¯ÙĪØ§Ø±Ùħ
unn
ĠÙĦØŃØ¸
ĠØ®ÙĦØ§ØµÙĩ
ĠÛ±Û¹Û°Û
ĠÙ¾Ø§ÙĨØ²Ø¯Ùĩ
ÙħÛĮÙħÛĮ
Ú©ÙĪØ³
Ġsouthern
edy
ĠStep
ĠØ®ÙĪØ±Ø¯ÙĨØ¯
ÑĤ
ĠÚ©ÙĦÙĩ
ĠIP
ĠØ¶Ø¹Ùģ
Ġexplan
ĠØ±Ø¹
ĠHuman
ÙĪÙģØ§ÙĨ
ÙĨØ§ÛĮ
Ø§ØªÙĦ
Ø§ØªÙĪØ±
ĠTri
Ġdriving
Ġtomorrow
ĠØ¨Ø±Ø²ÛĮÙĦ
Ú©ÙĪØ¨
ĠâĢ¦
Ø±Ø¯Ú¯ÛĮ
Ġgro
Ú©ÙĦØ§ÛĮ
Ġsupply
ĠÚĨØ±Ø®Ùĩ
Ġfrightened
ĠÚ©Ø§ÙĪ
Ġmaxim
Ġactual
Ġlocation
ĠÚ©ÙĨØ¬Ú©Ø§ÙĪÛĮ
Ġheight
Ø·ÙĨ
unist
Ġphysics
ĠØªØµÙĪÛĮØ±ÛĮ
ĠÙĤØ³ÙħØªÛĮ
Ø¬ÙĨÚ¯
leg
ĠAlexandrov
ĠCas
ĠØºÙĪÙĦ
ĠÙħØŃÛĮØ·ÛĮ
ĠØ§Ø³ØªØ±Ø§ØªÚĺÛĮ
Ġenormous
God
ĠÚ¯ÙĪØ³
Ø§Ø³Ø±
Ġvia
ĠØ§Ø³ÛĮØ¯
Ġpromised
ĠØµØ±ÙģØ§
ĠÙħØŃØ¯ÙĪØ¯Ùĩ
ĠÚ©Ø§Ø²
ĠØ¢Øª
stairs
ĠØ¨Ø¯Ø¨Ø®ØªÛĮ
Ø§ØŃØª
ĠØ§Ø¨Ø¯Ø§
Ġmachines
yal
Ø´ØªÙĨ
ĠØ®Ø·Ø§Ø¨
ÙģØ§Ø¹ÛĮ
ĠØºØ±ÙĪØ±
Ġbitter
ĠØ§Ø´ÛĮØ§Ø¡
Ø±Ø§ÙĩÛĮ
ĠÙħØªØ±ÛĮ
Ġcounty
ĠØ³ÙĪØ¦Ø¯
ML
bel
ffered
ÙħØ§ÛĮ
ĠØ¹Ø§Ùħ
ĠÙĥØ±Ø¯
Today
mosp
Ø¯ÙĪØ³Øª
ĠRat
apes
ĠØºÛĮØ±Ùĩ
ĠÙĨÙĪØ§Ø±
ĠÙĦØ§Ø³
Ġ1998
ĠØ®Ø§Ø·Ø±Ùĩ
ĠÚ©Ø§Ø®
Ø²ÙĨØ¯Ú¯ÛĮ
Ø§Ø±Ø§Øª
Ġegg
ĠÚ©ÙĨÚ¯Ø±Ùĩ
ØªÛĮÚ©ÛĮ
Ø¢ÙĪØ±
Ø¨Ú¯Ø°Ø§Ø±
ĠØªØ¸Ø§Ùĩ
Ġstaff
ĠÙĦØ¹
iger
ĠLos
ĠÚ¯Ø°Ø±Ø¯
ĠØªØ¹Ø§Ø¯ÙĦ
ĠÙĨØ¨ÙĪØ¯Ùħ
Ġelection
Ġexclaimed
ĠØ¯Ø§ÛĮØ±Ùĩ
Ġdesper
ĠJewish
Ġdefinition
Ġbirds
ĠØ¯ÙĦÛĮÙĦÛĮ
ĠØ³ÙĦØ·ÙĨØªÛĮ
Ø³Ø§Ø¯
itz
ĠØ§ÛĮÙĨØ³Øª
ØµÛĮØ±
ĠIf
Ġanger
Ġprocesses
ĠØ¨Ø±Ø³Ø§ÙĨØ¯
Ġmurm
.)
ses
vant
Ø¨Ø§Ø¯
ĠØºØ±ÙĪØ¨
Ġunless
Ġbreakfast
ĠØ±ÙĪÛĮØ¯Ø§Ø¯
ĠØ¯ÙħÙĪÚ©Ø±Ø§Øª
ĠØ´Ú©ÙĨØ¬Ùĩ
ĠÙħØ·Ø¨ÙĪØ¹
ĠØ¯Ø±Ø´Øª
ĠValjean
Over
Ġpages
ompl
ĠØ§Ø³ØªÙĨ
ĠØªØ¬Ø§ÙĪØ²
Ġlots
ĠÙħØ¨ØªÙĨÛĮ
Ġcopy
ĠPrize
64
Very
ĠØªØ®ØªÙĩ
ĠØ³Ø±Ø³
ĠÙģØ±ÙĪØ´ÛĮ
Ġdepth
ÙħØªØ´Ú©Ø±Ùħ
ĠØ§Ø³ØªÙĪØ¯ÛĮ
amental
Ú¯Ø±ÙģØªÙĩ
Ú¯Ø±ÚĨÙĩ
oper
Ġrandom
ĠÙģØ±Ø§Ø²
Ø§ÙĨØ¯Ø§Ø²
ĠÙĩÙħÛĮÙĨØ·ÙĪØ±
Ġ2017
Ġdaily
ĠÙĩÙĢÙħ
ĠÚ¯Ø±Ø³ÙĨÚ¯ÛĮ
SS
Ġocean
ĠÙĤÙģ
ĠLong
ĠTo
ĠÙ¾ÛĮØ´Ø±ÙģØªÙĩ
ĠÚ©ÙĦØ¨Ùĩ
ÙĩÙĨÚ¯Ø§Ùħ
Ġcircle
ĠÙħØ³ØªÙĤÛĮÙħØ§
ĠØ²Ø´Øª
Ġsem
onscious
Ġcalls
ovitch
ÙħÙħ
Ø§ÙĦÛĮØ²
Ø§ÙĦØ¹ÙħÙĦ
ĠWashington
Ġaccompl
Ġidentity
ĠØ§ÙĬ
ĠÙĪØ§Ø´
Ġdare
ĠØ§Ø³ØªØ±
Ġsuffered
ĠØ¨Ø§Ø²Ú¯Ø±Ø¯
Ú©Ø´Ø§ÙĨ
ĠØ¯ÙĩØ§ÙĨØ´
Ġphotograph
ĠÙħØ¯Ø§Ø±Ø³
ĠØ¹Ø±ÙĪØ³ÛĮ
ĠØªØºØ°ÛĮÙĩ
Ø¨Ø§ÛĮ
ĠØ´Ø§ÛĮØ³ØªÙĩ
icago
ĠÙĩØ³ØªÙĨ
ĠÚ©ÙĦØ§Ùħ
Ġregions
ĠØ¹Ø¯Ø§ÙĦØª
ĠØ§ÙħÙĨÛĮØªÛĮ
ĠDemocr
Ġnervous
ĠÙĪØµÙĦ
ĠÙ¾ÙĦÛĮ
ĠRad
Ġsmoke
ĠØ§Ø±ØªØ¨Ø§Ø·ÛĮ
Ġgrav
ĠØ´ÙĩØ±ÙĪÙĨØ¯Ø§ÙĨ
bly
ww
ĠÚ©ÙĪØ§ÙĨ
ĠÙĩØ´Ø¯
ĠØ®Ø³ØªÚ¯ÛĮ
Ġpit
Ġnarr
ĠØ¯ÛĮÙĪÛĮØ¯
Ġcommunities
Ġacid
Ġburning
ĠÙĩÛĮØ¯Ø±ÙĪ
ÙĨÙĤ
ĠÚ©Ø¬
ĠØŃØ§ÙĪÛĮ
Ġmurder
ĠÙ¾Ø±Ø§Ú©ÙĨØ¯Ùĩ
ĠÙĤØ§Ø±Ùĩ
Ø§ÙĤØ¨Øª
ĠØ§ÙĨØ¯Ø§Ø²Ø¯
Ġcreation
ĠÙħÛĮÚ©ÙĨÛĮÙħ
Ġcaptain
Ġproof
Ġdesk
ĠÚ¯Ø±Ø¯Ø§ÙĨØ¯
low
ĠBur
ĠProfessor
Ġzero
ĠCaptain
rang
Ġanti
Ġnodd
Ġsolve
Ø¯Ø§Ú©Ø«Ø±
ĠØ¢ÙĨØ¬
Ġsevent
Though
ĠÙĨØ§Ø´ÙĨ
Ġrequires
iable
zed
ĠÙħÙĪÛĮ
assion
Ġbomb
uts
ĠÙħÙĩÙħØ§ÙĨÛĮ
Ġconfidence
Ġtroops
Ġaid
Ġaunt
ĠØ´Ø¯ÛĮØ¯ÛĮ
ĠÛ±Û¹Û·Û°
Ġaccur
ĠÚ©ØªØ§Ø¨ÛĮ
annon
ĠTurkish
ĠØ§ÙħØ§ÙĨ
ĠÙĨØ¹
Ġbent
ensity
ĠØ¬ÙĨØ¨
ĠYes
Ġadvice
Ġpolitics
Ġstayed
Ġthrow
Ġdeclared
Ġinfect
ĠØ¬Ø§Ø±ÛĮ
ĠAri
Ġsymp
Ġ1986
ĠÙĪØ§Ø³Ø·Ùĩ
ĠØ§Ø¯Ø¨ÛĮØ§Øª
ÙħÙĪØ±
icy
ĠÙĨØ§ÙħØ²Ø¯
ÙħØ±Ø¯ÛĮ
Ġhotel
Ġgradu
ĠØ´Ø§Ø¹Ø±
ĠÙħØ¹ÛĮ
Ġpig
ĠÙħØ±Ø§Øª
ĠØ´ÙĨØ¨Ùĩ
Ġordinary
Ġcontrast
ĠÙĤØ´ÙĨÚ¯
70
kins
ĠØ¯ÙĪÙĨÛĮ
Ġwore
ano
anded
ĠØªØ®ÙħÛĮÙĨ
Ġinitial
ĠÙħØµØ§ØŃØ¨Ùĩ
ØŃØªÙħØ§
ĠÙħØ±Ø¨Ø¹
Ġassist
Ġabsor
Ġteacher
Ġtongue
Miss
ĠØªÙĪÙĨÙĩ
ĠØ³ÙĢ
ĠØ¨Ø±Ø³Ø§ÙĨ
ĠØ®ÙĪØ§Ø±
ĠÙħØ¬Ø³ÙħÙĩ
Ġprovides
Ġindustrial
ÙħØ¹ÙħÙĪÙĦØ§
yp
Ú¯ÙĪØ´
ĠØ¹ÙĨØ§ØµØ±
Ġanaly
ĠÙ¾Ø±Ùĩ
Ġblank
ĠØ§Ø¹ØªØ¨Ø§Ø±
Ø§ÙĨÚ¯Ø§Ø±
Ġinterpret
ÙĨØ§Ø·ÛĮØ³ÛĮ
Åį
ÙħØ±ÛĮ
Ġtaste
ÙĤØ§Ø¨
ĠÚ©Ø´Ùħ
ĠÙĪØ³ÛĮØ¹
Gr
ĠØ±Ø¯Ùĩ
enger
ĠØ®Ø§ÙĦÙĩ
Ġwriter
Ġlimit
ĠÙĨØ§ÙĦÙĩ
Ġphen
ĠÙĩÙħÛĮØ´
Ġforty
Ġfactors
ĠØªÚ©ÙĨÛĮÚ©
arrass
Ġrapidly
ĠØ¯ÛĮØ¬ÛĮØªØ§ÙĦ
ĠØ¯Ø±Ø´
ĠØªØ¹Ø§ÙħÙĦ
ĠÚ¯ÛĮØ±ÙĨØ¯Ùĩ
Ġstaring
usted
Ġprecise
ÙĨØ¸Ø±
Ø¯ÙĪÙħ
Ġemotion
rich
ĠØªØ³Øª
ĠVer
Ġcompleted
Ġeasier
urgis
Ġteaching
ĠØ¯ÙĪØ®ØªÙĩ
ĠØ±Ø³Ùħ
Ġrecognize
Ġfault
Ġdespite
ĠØªÙĤØ§Ø¶Ø§
ĠØ¨ÚĨ
lease
ĠÚ©Ø§ÙĦØ¬
Ġinternal
rome
ĠØ¨Ú¯Ùħ
Ġ1994
ĠØ¨Ø¨ÛĮÙĨÙĨØ¯
bur
ĠØ±Ø¨
Ġliqu
ggie
El
iro
ÄŁ
Ġlaughter
Ġreject
Ø®ØµÛĮ
ĠØ¹ÙħÙĤ
Ġcollabor
Ġconsciousness
Ġconvinced
acters
ĠCamp
ĠPakistan
ĠØ´ÙħØ§Ø³Øª
ĠØ°Ø±Ø§Øª
ĠâĢĮ:
ĠÚĨÙħÙĨ
ĠDel
ĠØ´Ú©Ø§Ùģ
ĠØªØ´Ú©Ø±
ĠÛ²Û³
Ġresearc
ĠÙħØ²Ø§ØŃ
ĠÙĨÚ¯ÙģØª
Ġcosts
Ġinnoc
ĠÙħÙĤØ§ÙħØ§Øª
ĠÙ¾ÛĮÙħØ§ÙĨ
ora
ĠÙĩÙħØ¯
Ø¦Ùħ
Ġoutput
aren
ĠÙģÚ©Ø±Ø´
uing
Ġdetails
attered
ĠØ§ÛĮÙĨÚ©Ø§Ø±
ĠÛĮÚ©Ø´ÙĨØ¨Ùĩ
ĠØªØ§Ø¬
ĠÙħØªÙĤØ§
Ġunex
Ġfactor
Ġfailure
Ġrobot
ĠÙħÙĪÙĦÚ©ÙĪÙĦ
pired
sk
war
ĠØ´ÙĪÛĮ
ĠØ³ÛĮØ¯
ĠCath
Ġatmosp
Ġcheer
Ġstatus
AL
ĠØ¨ÙĪØ¯Ø¬Ùĩ
ĠÙģÙĪØ±ÛĮ
Ġformal
ĠØ³Ø¹Ø§Ø¯Øª
worth
ĠEconom
ĠÙĨÚ¯ÙĩØ¨Ø§ÙĨ
Ġdeeply
ĠØ§Ø´Ú©Ø§ÙĦ
Ġstruggle
Qu
encies
alle
Ġgrey
esty
Ø§Ø³ØªÙģØ§Ø¯Ùĩ
ĠØ§ÙĦÙĦÙĩ
Ġphr
Ġincreasing
Ġraise
ĠÚ©Ø§Ø±Ø¨Ø±Ø¯ÛĮ
Ġcredit
Ġapproximately
Ġpra
ĠØ¹ÙĨØµØ±
Ġcontem
Ø§ØŃØªÙħØ§ÙĦ
ĠØ§ÙĨØªÙĤØ§Ø¯
ĠØ¨Ú©ÙĨÛĮÙħ
ĠÛ¸Û°
SP
oz
ĠÚ©Ø§Ø±ÙĦ
ighed
ĠØ¹ÙħÙĩ
Ġvisible
Ġtruly
ĠØ´Ø¹ÙĦÙĩ
Ġirrit
ĠÙĪØ¹Ø¯Ùĩ
ĠØ§ÙħÙĨ
ĠØ§Ø´ØºØ§ÙĦ
Instead
Ġ1996
Ġlaunched
ØªØ®Øª
ĠØ¨Ø§Ø¨Øª
ĠÚ¯Ø°Ø±Ø§ÙĨ
Ġafford
Ġsymbol
Ġtheore
ĠFree
Ġmovements
ĠØ¬Ø¯ÙĪÙĦ
Ġvul
Ġaffected
Ġdestroyed
Ø§ÙĦØ¨Ø§
Ġprove
Philip
Ùł
ĠØ§Ø°
ĠÙĨØ±Ø³
ÙģØ±Ùĩ
ĠKe
Ġseek
ĠØ§Ø³Ø§Ø³Ø§
Ġestablish
Ġextraordinary
Sp
Ġing
Ġcod
Ù¾ÙĨ
ÚĺÛĮÙħ
ĠØ¨ÙĨÚ¯
ivered
place
ipment
Ġsetting
ĠØªØ¬Ø±Ø¨ÛĮ
ĠØ³Ø§ÙħØ§ÙĨÙĩ
ĠJews
Ø®Ø¨Ø±
ĠØŃØ³Ø§Ø³
ĠØ·Ø±Ø§ØŃ
Ġbusy
ĠØ³Ù¾Ø±ÛĮ
Ġtechnologies
Ġexchange
Û²Û°Û°Û
ÙĩØ¯Ùģ
Ġben
ĠØ³Ø§ÙĦØ§ÙĨÙĩ
apter
iform
ĠØªØ§Ø²Ú¯ÛĮ
Ø§Ø¨ÙĦÙĩ
Ú¯Ø±ÙħÛĮ
ĠØ¨ÙĨØ§Ùħ
Ġpassage
ĠSea
ĠÙħØ¬Ø§Ø²Ø§Øª
ĠÙĩÙħÛĮØ´Ú¯ÛĮ
SI
ÙĦÛĮÚ©ÙĨ
aks
Ġengaged
ĠÙģØ±ØµØªÛĮ
ĠÙħÙĨØŃØµØ±
ĠÙĨØ§Ø¯ÛĮØ¯Ùĩ
ĠØ¨ØµÙĪØ±Øª
ĠØ§Ø³ØªØ¹Ø¯Ø§Ø¯
Ġseized
ĠNob
ÙĪÙĦÛĮÚ©
ĠÙĪØ¶Ø¹ÛĮ
Ø¨Ø¨ÛĮÙĨ
ĠÙĨÙĪØ¬ÙĪØ§ÙĨ
Ġexamples
ĠGeorg
ĠÚ¯ÙĪØ¯
ĠÙģÙĨÛĮ
ĠTex
Ġanxious
Ġtail
Ø±Ø§Ø³ØªÛĮ
ĠÙħÙĨØ·ÙĤ
Ġdiagn
ĠØ¢ÙģØ±ÛĮÙĤØ§ÛĮÛĮ
da
ÙĤØ§ÛĮÙĤ
ydgate
ØªØ¹
Ø§ÛĮÙģ
ima
Ġwithd
ĠFound
ĠØŃØ³ÙĨ
liver
Ġcycle
Ġdefend
ĠØ§ÙĦÚ©ØªØ±ÙĪÙĨÛĮÚ©ÛĮ
ĠÅ
Ġreck
riff
Ġchain
ĠØ§Ø±Ø²Ø§ÙĨ
ĠVoices
ĠÙĨÙħÙĪØ¯ÙĨØ¯
Ġhurried
ĠØŃÙĪØ§Ø¯Ø«
Ġsongs
Ġdrugs
even
ĠØ´ÙĦ
Ġfancy
ĠØ¯Ø±Ú¯ÛĮØ±ÛĮ
ĠØ±Ø³ÛĮØ¯ÛĮÙħ
Ġstarts
Ġdecide
Ġnetworks
iat
ĠØ§ÙħØ±ÛĮÚ©
ÙĬØª
ĠØ¢Ø²ÙħÙĪÙĨ
ĠØ±ÙĪØ³ØªØ§
Ø¬Ø¯
ÙĪÙĨÚ¯
ÚĺØ§ÙĨØ³
avy
ĠÙħÛĮØ²Ø¨Ø§ÙĨ
Ġhumanity
Ġcharacters
Ġsinging
Ġhealthy
Ġbrothers
ĠØ§ÙĤØ¯Ø§ÙħØ§Øª
Ø´Ø¯Ùĩ
ĠØ¢ÙħØ¯Ùħ
ĠØ§Ø±Ø´Ø¯
ĠØ¯Ø§ÙĨØ´Ú©Ø¯Ùĩ
En
Ø¨ÙĨØ¯
ĠØ¨Ø§Ø²ÙĪÛĮ
ĠÛ±Û¶Û
ĠÙģÙĦØ³Ø·
ĠÛĮÙĩÙĪØ¯ÛĮØ§ÙĨ
ĠAcademy
Ġax
Ġwet
Ġcro
Ø§Ø³Ùħ
Ø§ÙĨØ¯ÙĨ
Ġmetal
ĠØ¯Ø³ØªÙĪØ±Ø§ÙĦØ¹ÙħÙĦ
ĠØ³Ø§Ø¨ÙĤÙĩ
ĠQuix
ĠÚ¯Ø´ØªÙĩ
ĠØ¬Ø³Ùħ
ĠØµÙħÛĮÙħ
ĠØºØ§ÙĦØ¨Ø§
Ġblow
ĠØ±ÙĩØ¨Ø±Ø§ÙĨ
Ġadvance
Ġstructures
Ġembarrass
Ġestimated
arl
Ġeffic
Ġneur
equ
ãģ
Ġtum
Ġtort
ĠØ¬Ø±Ø§ØŃÛĮ
ĠÚĨØ§Ø¯Ø±
ÛĮØ§ÙģØª
ØªØµÙĪØ±
ÙĴ
ĠÚ©Ø§Ø±Ùĩ
Ø¯ÛĮÚ©
Ø§ØŃÛĮ
Ġbless
Ġworldwide
ĠØ¢Ø´ÙĨØ§ÛĮÛĮ
Ġwaves
Ġconclud
Ġmyster
Ø³Ø§Ø¹Øª
Ġfigures
Ġrecorded
Ġsympt
Ag
Ù¾Ø´Øª
oma
ultural
ĠArk
ĠTurkey
ĠØ¸Ø±ÙģÛĮØª
sey
ĠØ±ÙĪØª
ĠÚ©ÙĪÚĨÙĪÙĦÙĪ
Ġsets
ttp
ĠØ¯ÙħÙĪÚ©Ø±Ø§Ø³ÛĮ
onic
Ġcrazy
ĠØ¨Ø±Ø§ÛĮØ´Ø§ÙĨ
ĠØ¹ÙħØ¯ØªØ§
ĠØªØ¬ÙĩÛĮØ²Ø§Øª
ĠQuixote
AD
Would
inent
isp
ĠÙĨÙħØ§ÙĨØ¯Ùĩ
Ġfond
arge
ĠAre
ĠMen
Ġswim
ĠÙģØ±Ø§ÙĪØ§ÙĨÛĮ
Ġforever
ĠØŃÙħÙĦØ§Øª
ĠÚ©Ø§ÙħÙ¾ÛĮÙĪØªØ±ÛĮ
Ø§Ø·Ø¹
ĠØ§Ø¶Ø§ÙģÛĮ
iency
ÙħÙĨØ¸ÙĪØ±Ùħ
nic
Ġfet
Ġpushed
ila
ĠLake
adian
ĠØ²ÙĨØ´
Ġstrate
Ġreplaced
Us
ĠÙħØ¬Ø§
ĠØ±ÙģÛĮÙĤ
ĠÙĨØµÛĮ
ĠØ¬Ú©
ĠBor
Ġpurch
ĠÙģÙĦØ²
Ġbasically
Ġstrategy
ÙĦØª
ican
ĠÚ©ÙĨÙĪÙĨÛĮ
acks
Ġtreated
ĠØ§Ø³Ø¨Ø§Ø¨
ĠKorea
erves
ĠØ³Ø±ÙħØ§
ellect
aved
ĠÙħØ¯ÙĨÛĮ
ĠØ¨ÙģØ±Ø³Øª
some
Ġtal
Ġgather
ĠCap
ivodes
ĠÚ©Ø´ÙĪØ±ÛĮ
ĠÙĤØ·Ø¹Ø§
ĠØ¯ÙħØ§ÛĮ
ĠÙĤÙĦØ¨Ø´
ĠÙĨÙĪØ´ÛĮØ¯
ivodeship
ĠØ¯Ú©
Ø±ÛĮØ²
ĠBay
ĠBig
ĠØ±ÙģØªØ§Ø±ÛĮ
ĠÚ¯ÛĮØ±Ùħ
ØªØ±ÙĪ
ĠAv
Ġfrag
Ġhorri
Ġsupported
ĠÙħØ¹ÙĨØ§
Ġuncom
ĠØªÙĪØ§ÙĨØ³ØªÛĮÙħ
Ġnumerous
Ġadditional
Ġequival
Ġfaint
ÙħØ§ÙĤ
ĠØ³ÙĨÚ¯ÛĮÙĨÛĮ
ĠØ¬ÛĮØº
ĠService
Ø§ØªÙĪÙĨ
ĠÙħØ¹Ø§ÙħÙĦÙĩ
ĠÙ¾Ø±ØªÙĪ
ĠØ¢ÙĪØ±Ø¯Ùħ
Ø§ÙĨÚ¯ÛĮØ²
ĠØ§Ú©Ø³ÛĮØ¯
ĠÙħÚ©Ø²ÛĮÚ©
only
Ġwheel
Ġsaved
pective
ĠØ¢Ø³Ø§ÙĨÛĮ
Ġ1950
ĠÚ©ÙĪØ´Ø´
ĠØ¯Ø§ÙĨØ´Ø¬ÙĪÛĮØ§ÙĨ
ĠÚ©Ø«ÛĮÙģ
Ø¯Ø§Ø³ØªØ§ÙĨ
ĠØ±ØŃÙħ
Ġlat
otion
Ġexhib
Ġclosely
ÙĦØŃØ¸Ùĩ
Ġcandid
CC
chief
ÚĺØ§ÙĨ
ĠÙĪØ±ÙĤ
ĠÛ²Û°Û°Û²
Ġ1995
Ġdevil
ĠØªÙĤØ§Ø¶Ø§ÛĮ
ĠØŃØ¯Ø§Ú©Ø«Ø±
ĠCup
Ġservant
ĠBrown
Ġauthority
ĠÙħÙħÙĨÙĪØ¹
ĠØ¨ØºÙĦ
isher
ĠFace
mbly
ĠØ¨Ø·Ø±ÛĮ
Ø®ÙĪØ±
Ø§ÙħÙ¾
imp
ĠProject
ĠSecurity
Ø±ÙĪÛĮÛĮ
ĠÚĨØ§Ø±Ùĩ
ĠØ®ÙĪØ¯Ú©Ø§Ø±
Ġunits
ĠÛ²Û°Û°Û±
Ġmagazine
Ġdisappeared
case
ĠØ¨Ø®ÙĪØ±Ø¯
ĠØ¨ÙĩØ§ÙĨÙĩ
ĠØ³Ú©Ùĩ
Ø¬ÛĮØ¨
ĠØªÙģØ³ÛĮØ±
ĠØªÙĦÙĤÛĮ
ĠÙĨØ§Ù¾ÙĦØ¦ÙĪÙĨ
ÙĤØ¯
ĠÛĮØ§Ø²Ø¯Ùĩ
Ġeating
ĠÚ©ÙĨÙģØ±Ø§ÙĨØ³
ĠJournal
ĠØ±ÙĪØŃØ§ÙĨÛĮ
Ġmotor
zing
inging
ota
ette
ĠSur
ĠCP
Ø´ÛĮÙĨØ¯
soft
Ġ186
Ġtraffic
Ġjudge
ĠSunday
ĠØ¨ÛĮØ²
ĠOfficial
Ġfever
ĠÚ¯Ø±Ø¯ÙĨØ¯
ĠÙ¾ÙĨØ¬Ùħ
Ġhurry
Ġcrossed
ĠVoivodeship
Bes
Ġwww
ĠØ²Ø§Ø±
Ġrum
Ġcurious
ĠWeb
ampionship
Ġcig
ÙĪÛĮØ§
ĠØ¨Ø¯ÙĦ
ĠØ¸Ø±ÛĮÙģ
ĠÙħÙĨØ¸Ùħ
ĠPersian
OL
atre
ĠØ¨ÙĩÙħ
ÚĨØ´ÙħØ§ÙĨ
ĠÙħÙĤØ§Ø¨ÙĦÙĩ
Ġaffairs
Ġchalleng
ÙĪÙĤÛĮ
ĠMic
akh
osette
ĠØ®Ø§ÙĨÚ¯ÛĮ
Ġillness
Ġmedicine
ĠØ±Ø³ØªÙĪØ±Ø§ÙĨ
Ġpowers
ĠÚ¯Ø§ÙĦ
ĠØ¨Ø±ÙĪÛĮ
ĠØ§ÛĮÙĢÙĨ
ĠØ³Ø§Ø²ÙĨØ¯
ĠØ´Ú©Ùħ
Ġacad
Ġhonour
Ġcow
Ø¯Ø±Ø¨Ø§Ø±Ùĩ
ĠØ±ÙĪÛĮÙħ
Ġsoil
Ġ1997
Ġsigns
ĠEmperor
ĠÙħØ±Ø§ÙĤØ¨
Ð¾Ð
Ú¯ÙħØ§ÙĨ
Ġminds
Ġarrested
ĠØŃØ¬Ùħ
Ġregret
ĠCarl
Ġmissing
yet
ÚĨØ§Ø±Ø¯
urance
ĠSum
ÙĩØ§Ø´
ĠÙħØ§ÙĦÛĮØ§Øª
Ġdespair
Ġfasc
igr
ĠÚ¯Ø±ÙģØªÛĮÙħ
ĠÚ¯Ø°Ø§Ø´ØªÙħ
Ġdecre
Ġinvited
ĠMexico
othea
vis
Ø§ÙĩØ§ÛĮØ´
ĠOld
ĠØ¨Ø®Ø§Ø±
Ú©Ø§ÙĨØ³
ĠØ¢ÙĪØ±Ùħ
ĠClub
Ġhistorical
tical
ĠØ§ÛĮÙĨØ¬Ø§Ø³Øª
Ġwel
ĠRights
ĠØ¯ÙĪØ³ØªØ§ÙĨÙĩ
Ø§Ø´ÛĮÙĩ
ĠØ¢ÙģØ±ÛĮÙĤØ§ÛĮ
Ġelder
part
ĠØ¨ÙĪØ¯ÛĮØ¯
thur
Ġkm
osa
Ġdozen
ĠØ§ÙĦÙħÙ¾
ĠÙĨÛĮÙħÚ©Øª
Ġprofound
Ġburied
ĠÙħØ¨ÙĩÙħ
Ġinstitutions
ĠØ¯Ø´Øª
ØŃØ§Øª
amma
ĠGood
log
ĠØ§Ø±ÙħÙĨØ³ØªØ§ÙĨ
ĠÛĮØ§ÙģØªÙĨØ¯
Ġcurt
Ġreduced
Ġmistake
BM
ĠØ¨Ø¬Ø§ÛĮ
ĠÚ©Ø§Ø³
Ġupper
Ġconver
ĠÙ¾ÛĮØªØ±
Ġmanage
Ø§Ø±ØªÙħØ§ÙĨ
ĠGovernment
24
sky
Ġmurd
Ġinhab
ĠÙ¾ÙĪØ±Øª
Ġintention
udge
ĠÚĨÙĨØ§ÙĨÚ©Ùĩ
Ġmountains
ĠPalest
ĠTexas
³Û°
ĠÙĨØ§ÙĤ
ĠØ²Ø§ÙĨ
ĠCD
ÙĢÙħ
Ġdecades
culiar
ĠÙĨÛĮØ§
ĠØ¨Ø¯ÛĮÙħ
ĠØ¨Ø¯ÙĨØ´
Ġscri
Ġembr
Ġinstinct
ĠÙħØºØ²ÛĮ
asked
ĠØ¯Ø§ÙĪØ·
33
from
Ġlit
ĠElect
ĠÛĮØ§Ø¯Ùħ
ĠØ´ÙĩØ±Ø¯
ĠØ¨Ø®Ø´ÛĮØ¯
ographic
Ġhorror
Ġsequence
Ġgar
ĠÙģØ§
ĠÙĦÙħØ³
ĠÙĤÙĦÙħØ±ÙĪ
ĠØ¬Ø¨Ùĩ
ĠCivil
Ġfundamental
CP
Ø§Ø¯ÙħÛĮ
Ø¬ÙĪØ±
Ø¯ÙĩÛĮ
ĠØ§Ø¬Ø±Ø§ÛĮÛĮ
Ø°ÛĮØ±Ø¯
ĠØªØµØ§Ø¯Ùģ
Ġmic
Ġgay
ĠÚ©ÙĨØ¯Ùĩ
ĠÛ²Û°Û°
Ġcrying
Ġviolent
Ġrepresented
oration
ĠSar
ÙĪÙĦÛĮØ¯
Ġproved
bey
Ġ500
ĠÙĨØ¯Ø§Ø±ÛĮØ¯
ĠÚĺÙĨØªÛĮÚ©ÛĮ
ĠØ§Ú©Ø«
ĠØ§Ø³ØªÙĤØ¨Ø§ÙĦ
upp
ÛĮÙĨØ²
ĠÙĤØ¨Ø±
Ġstorm
gend
ĠØ§Ø±ÙħÙĨÛĮ
ĠÙħØ±Ø§ØŃÙĦ
ĠØ¬Ø³Ø¯
Ġprinciple
ĠArmenia
ĠÙĨÙĪØ²Ø§Ø¯
ĠØ³Ø±ØªØ§Ø³Ø±
ÙħØ§Øª
Ø³ØªÛĮÚ©
ĠØ¢Ø¯Ø±Ø³
Ġye
ĠPublic
ĠLet
Ġcomposed
Ġcoach
ĠÙĨÙģØ¹
ĠØ´ÙģØ§Ùģ
Ġrevealed
Ġfaced
Ġdign
Ġunhapp
ĠØ¬Ø²Ø§ÛĮØ±
Ġstandards
ĠÙ¾Ø§Ú©Ø³ØªØ§ÙĨ
Ġreference
ĠØ¨Ø§Ø²Ø¯Ø§Ø´Øª
ostov
Ġpeculiar
force
Ġthrown
ĠØŃÚ©Ø§ÛĮØª
ĠÙħÛĮØ®ÙĪØ§Ùĩ
ĠÙĦÙĨ
ĠØ¯ÛĮÙĪØ§ÙĨ
udden
ĠØ²ÙĨØ¯Ú¯
ĠÙĪØ§ÙĤØ¹Ùĩ
ĠÙĨÙħÙĪØ¯Ø§Ø±
ĠØ¨Ú¯Ø°Ø§Ø±Ùħ
ĠÚ¯Ø°Ø§Ø±ÙĨØ¯
Ġdamage
ĠÙĨØ¸Ùħ
ĠVict
ĠÙ¾Ø°ÛĮØ±Ø´
Ġequipment
Ġstranger
ĠØ¢ÙħÛĮØ®ØªÙĩ
Ġphenomen
ØªØ§Ø²Ùĩ
Ġded
Ġsection
Ġremaining
ĠÙ¾Ø±Ø³ÛĮØ¯Ùħ
Ġshoes
ĠNapoleon
Ġimpl
Ġ35
Ġdecisions
ĠLeague
Ġetc
Ø§ÙħÛĮØ¯ÙĪØ§Ø±
ÙĨÛĮÙħ
Ø´Ø§Ø±
Ġpill
umph
Ø§Ø³Ø§Ø³
orders
Ù¾Ø±Ø¯
Ġnations
ØµØª
Ġstring
ĠØ³ÙģØ§Ø±Ø´
nie
ĠÙħÙĪØ§Ø¸
Ø¢Ø¯Ùħ
ĠTor
lessly
Ġcontrary
Ġfrequently
ronsky
²Û°
ĠÚ©ÙĪÙĦ
ĠØ±ÚĺÛĮÙħ
Ġpressed
ĠØ²Ø¨
agrid
Ø¢ÙĨØ§
ĠÚ©ÙĪÚĨÚ©ØªØ±
Ġbiggest
ĠEmma
ĠØªØ®ØªØ®ÙĪØ§Ø¨
cop
ĠØ¨Ø§Ø±Ø¯
ÙĦÚ©ÙĨ
Ø³Ø§ÛĮØª
ĠØ¬Ø±ÛĮ
ĠÙĦØ´
Ø«Ùĩ
ĠØ§ÙĦØªØŃ
ĠOK
ĠÚ©ÙĦÛĮØ¯ÛĮ
Ġresistance
ĠInformation
ĠÚ¯Ø°Ø§Ø´ØªÙĨ
Ġclasses
ĠCommittee
ĠØ¯ÛĮØ±ÙĪØ²
Br
ĠØ®Ø±Ø§
ĠØ¬Ø§Ø³
ĠLove
ĠPeople
Ġcamera
Ġweapons
ĠÙĩØ´Ø¯Ø§Ø±
vard
athered
Ġwhale
ĠÚ¯ÙĪÚ¯ÙĦ
Ġtrial
ĠØ¨Ø¨ÙĨØ¯
ĠØ±ÛĮØ§Ø¶ÛĮØ§Øª
ĠÙ¾ÙĩÙĦÙĪØ§ÙĨ
Ġadopted
Ġtiss
Ġsought
ĠØ³Ø¯Ùĩ
Ġque
ĠØ¨Ø¹Ø¯Ø§Ø²
Ġwrit
ĠÙ¾Ø§Ù¾
Ġdelay
essel
ĠØ¯Ø§Ø±Ø§ÛĮÛĮ
Ø®ØªÙĨ
ĠØ§ÙĦÚ©Øª
ĠOpen
Ġoccurs
ĠØ¯Ø±Ø¢ÙħØ¯Ùĩ
Ø®Ø¯ÙħØª
ĠØ¬ØºØ±Ø§ÙģÛĮ
Ġbeings
iders
ĠØ¹Ø¨Ø¯
ĠØ±Ø§ÙĩØ±ÙĪ
ĠÚ©Ø´ÛĮØ¯Ùħ
ĠØ®ÙĦÛĮØ¬
Ġpil
Ġdynam
ÛĮØ¯Ø§ÙĨ
lets
ĠØ¬Ø§Ø¨
Ġstress
ĠÚ¯Ø±ÙħØ§
ĠØ²ÛĮØ³ØªÛĮ
ĠÛ²Û·
Ġpossibility
ĠÛ²Û°Û±Û¶
ĠØ±Ø§Ø³ØªØ´
ĠÙĩØ±Ø§Ø³
ĠØ®Ø±Ø¯Ùĩ
ĠØ³ÙĦÙĪ
ĠØ¯Ø§Ø³ØªØ§ÙĨÛĮ
TS
mal
ania
ĠØ®Ø§ÙĪØ±
ĠØ§ÙģØ±Ø§
Ġmorrow
cried
sm
Ġarmed
Ġpersons
Ġaffair
Ġborder
oting
Ġconvent
Ġ31
Ġproperties
ado
ĠÙĩÙħØ±Ø§ÙĩÛĮ
ĠÛĮÚ©Ø³
ĠDervish
ĠEst
ĠWood
ĠÙĤØ±Ø¶
Ġdistant
ĠÙģÙĩÙħÙħ
Ġexperienced
Ø¯ÙĪØ´ÛĮØ²Ùĩ
);
BA
Ø³Ø¹ÛĮ
Ø³Ú©ÙĪ
Ġmood
Ø§Ø¯ÛĮØ±
ĠÚ¯ÙĦÛĮ
Ġgest
ØµØ¨ØŃ
Ġplayers
Ġgovernments
ĠØ³ÙĪÙħÛĮÙĨ
Ġfavorite
Ġbenefit
ĠØ§ÙĨÙģØ¬Ø§Ø±
rete
Ø§Ø±Ø³ØªØ§ÙĨ
ØŃØ¯
amie
Ġanyway
ĠØ¨ÙĨÙĪÛĮØ³
ĠSyria
ĠÙĦØ±Ø²Ùĩ
IM
ÙĪÚĨ
ato
Ø§Ø±Ø¯ÛĮ
Ġdomestic
Up
ÙĩØ§Ùħ
ĠÙħØ¯Ø§Ùħ
ĠChicago
Ġbegins
Ġpreviously
Ġinstructions
mother
ĠÙĨÚ¯Ø°
ĠØ´ÛĮÚ©
Ġlunch
Ø±ÛĮØ³
ĠÙĤØ·Ø¹Ø§Øª
Ġ1992
stitution
ĠCastile
Ġwestern
seless
ĠÙħØ³Ø§ÙĦÙĩ
Ġexpensive
ĠØ®ÙĦØ§Øµ
uilding
Was
iated
ĠÚ©Ø±ÙĪ
Ġcateg
stone
ĠIr
ĠRel
ĠWork
ĠØŃØ§ÙĦØ´
ĠÙħØ§ÙĨØ¯ÙĨ
ĠØ¨Ø±Ø®ÙĦØ§Ùģ
Ġà¤
ĠØ§ÙĦÙħÙ¾ÛĮÚ©
ĠØ§ÙĨÚ¯ÙĦÛĮØ³
Ġentrance
ĠØªØŃØµÛĮÙĦØ§Øª
Ġepis
23
ĠØ¢ÛĮÙĨÙĩ
Ġpounds
alu
Ø§ÙħØ±ÙĪØ²Ùĩ
ĠØ¬Ø§Ø³Øª
Ġroll
ildren
Fin
cont
Ġbrill
ĠPan
ÚĨÙĩØ§Ø±
Ġcompetition
iosity
45
ĠØ¨Ø±ÛĮØ¯
riet
ĠÙ¾Ø§ÛĮØªØ®Øª
ĠÙħØ§ÙĩÙĪØ§Ø±Ùĩ
cycl
Ġplanning
ĠØ§Ø¨ØªØ¯Ø§ÛĮÛĮ
Ġrelatively
Ø§ÙĩÙĪ
Ġimpat
Ġsubs
Ø¨ÙĨØ§ÛĮ
ĠâĻª
Ġcircu
Ġliterature
Tell
ĠØ§ÙĦØ§
Ġdial
ÚĨÙĩØ±Ùĩ
Ġgain
throp
ĠÚ©Ø§Ø±Ú©ÙĨØ§ÙĨ
ĠÚ¯ÙĪØ¦ÛĮ
ĠÙħÙĨØ¸ÙĪØ±Ùħ
ØªÛĮÙĨ
ĠÙħØŃØªØ±
ĠØ´ÙħØ¹
Ġgenetic
ĠÙĨÛĮØ§ÙħØ¯Ùĩ
ĠÙħØªÙĤØ§Ø¹Ø¯
olit
ĠØ¨ÛĮÚ¯Ø§ÙĨÙĩ
ĠBa
ĠJes
Ġstatement
Ġfavour
ĠØªØ¯Ø±ÛĮØ¬
Mad
ĠÙĩÙĦÙĨØ¯
ĠLady
ĠØ¯Ø¨ÛĮØ±Ø³ØªØ§ÙĨ
ĠÙħÚ¯ÛĮ
ĠØ¨ÙĩØ§Ø±
ĠØ³Ø¯
Ġyield
Ø¯ÛĮÙĤ
Ġrode
Ġ45
ĠØ¨Ú©ÙĨÛĮØ¯
Ġrecords
Ġfifteen
Ġmathematics
uddenly
ĠØ¨Ø§Ø²ÙĨØ´
ĠÙħÙĦØ§ÛĮÙħ
ĠØªÚ©ÙħÛĮÙĦ
ĠÙħØ±ÛĮØ¶
ĠØ¯ÙĪØ±ÛĮ
Ø¹Ø§Ø±
ĠPot
ĠVir
Ġbringing
ĠBritain
ĠÙħØ§ÛĮØ¹
ĠCharl
Ġdawn
´Û°
ÙĦÙĨØ¯ÛĮ
ĠØ¨ÙĩÛĮÙĨÙĩ
Ø§ÙħØ§ÙĨ
Ġconcl
Ø¨Ø§ØŃ
ĠØ¨Ø²ÙĨÙĨØ¯
ĠØºÙĦØ·
Ġwhisper
nikov
ĠØŃØ§Ø´ÛĮÙĩ
iveness
Ġcompos
Ø¢ÙĨØ¬Ø§
ĠØ§ÙģØªØ§Ø¯ÙĨØ¯
Ġmulti
ĠSweden
Te
ÙĪÚ¯Ø±
Ġhal
ĠÙĨØ´Ø§ÙĨÛĮ
ĠÙĨÙĪÛĮØ³Ø¯
ĠØ¨Ø§ÙĩÙĪØ´
ooth
ĠÚ©ÙĨÙĪÙĨ
ĠSing
ĠMicro
ĠCons
ĠÙħØ¹Ø¬
Ġseriously
ĠÛ²Û¸
Ġcenturies
ÙĨØ®Ø³ØªÛĮÙĨ
hi
Ġrom
ĠØ§Ú©Ø³ÛĮ
Ġfuel
Ġlic
Ġsomewhat
ĠÙħØ§Ø¯Ø±Ø¨Ø²Ø±Ú¯
Ġtechniques
ĠWho
Ġjobs
Ġfought
ĠÙħÙĪØ´Ú©
ĠØ¹ÙħØ§Ø±Øª
Ġbrand
Ġguys
ĠNews
ĠTracy
ÙģØµÙĦ
ÙĤÙĦØ¨
ĠØ¨Ø±Ø¯Ùħ
ĠØ´Ø¨Ø§ÙĨÙĩ
Ġservants
ammad
ĠElizabeth
ÙĪØ§Ø³
ØªÙĪÙĨÛĮ
ÙĪØ¯ÙĪØ±
Ġmobile
ĠØ¨ÙĨØ´ÛĮÙĨ
Ġchildhood
ĠØ±ÛĮØ³Ú©
ĠØ¢Ø´ÙģØªÙĩ
ipping
21
Ø³ÙħÛĮ
Ù¾ÙĪÙĦ
sect
ĠÙĦÚ©Ùĩ
Ġagric
ĠØ¬Ø¯Ø§Ú¯Ø§ÙĨÙĩ
Ġsoftly
ĠArmenian
Ġquantum
About
Ø²Ø¨Ø§ÙĨ
ĠØ·Ø±
Ġmeat
Ġride
raham
Three
ĠÙĨØ´Ø§Ø·
Ġuncertain
ĠØ´ÙĦÙĪØ§Ø±
ĠØ¯ÛĮÙħÛĮØªØ±ÛĮ
Ġbond
asp
Ġfoc
ĠØ¯ÙĨØ¨Ø§ÙĦØ´
Ġelected
Ġdriven
ĠSuper
ĠØ¨Ø§Ø²ÙħÛĮ
ĠÙħØ±ÙĪØ±
Ġrelationships
Ġurban
Later
water
Ø§ÙģØ±
eling
Ġjump
Ġpron
ĠØ§Ø¯Ø¹
ĠÙħÙĪØ¶ÙĪØ¹ÛĮ
Ġfruit
Dr
Ġsatell
lend
ĠØ²ÛĮÙĨ
ensions
Ġconserv
Ġargument
ĠØ¨ÛĮÙĩÙĪØ¯Ùĩ
ĠÙħØ±Ø§ØªØ¨
Ġsisters
Ġwounded
ĠØ§Ø³ØªØ¹
ĠÙģØ§Ø¬
ĠØ§ÙħØ±ÙĪØ²ÛĮ
ĠJim
Ġgrat
ĠÙħÙĨØ§ÙģØ¹
Ġflood
Take
Ø§ÙħÛĮÙĨ
Ġfeature
ĠØ¨Ø±Ú¯Ø´ØªÙĩ
Ġenvironmental
Ġcomfortable
ĠÙĪÛĮØ¯Ø¦
ĠØ®ÙĨÚ©
AF
ÙĨÙĦ
Ø¨ÙĩØªØ±
Ġvote
Ø¨Ø±Ø§Ø¯Ø±
Ġclin
ĠÙĨÙģØ±ÛĮ
Ġclever
Ġhandsome
CR
ÙħÙĪØ¯
ÚĨÚ¯ÙĪÙĨÙĩ
ĠÙĩÙħØ¬ÙĨØ³
Ġshel
Ġsail
Ġsorts
cules
Ġsoldier
ĠÚ©Ø¨
Ġow
ĠÛ±Û¹Û¶Û°
Ġconsists
Ġartists
Ġsolutions
ĠØ´ÙĪØ±Ø´
ĠØ§ÙĨØªÙĤØ§Ùħ
Ú©Ø§ØªØ±ÛĮÙĨ
ĠÙħØ³Ø§ÙģØ±Øª
ĠÚ©Ù¾ÛĮ
ĠÙĤØµÙĩ
Ġcomment
ĠNik
ĠØ´ÙĩØ±ÙĩØ§
Ġsatisfied
Ġ"*
ĠÙħØŃÙĪØ±
ÙħØ¯Øª
Ġcolon
Ġrefers
ĠHealth
Ġtrip
Ġindependence
ĠÙ¾ÙĩÙĦÙĪÛĮ
ĠØ¬Ø§ÙĦØ¨ÛĮ
ÚĨØ³Ø¨
Ġsyn
Ġbigger
ĠØŃØ§Ú©Ùħ
jan
such
ĠÛĮØ§Ø±ÛĮ
ØºÙĦÛĮ
ĠØ¢ÙĤØ§ÛĮØ§ÙĨ
ĠØ¢ÙĪÛĮØ²Ø§ÙĨ
ĠJoseph
Americ
inem
inating
itement
Ġfant
arly
Ġpin
Ġexha
Ú¯Ø²ÛĮØ±
Ġsubsequ
Ġminor
Ġbehavi
Ġlod
opher
ĠÙħØ¬Ø§Ø²ÛĮ
ÙĨØ´ÛĮÙĨ
Ġbottle
ĠØ¢Ø³ØªØ§ÙĨÙĩ
ĠØ±Ú¯
rix
ĠØ±ÙĪÙħÛĮ
ĠEv
ĠÚ¯Ø±ÚĨÙĩ
Ġglanced
Ġedition
Ġmarked
Ġprobability
ishes
ĠØ¨Ø±Ø§ÛĮØªØ§ÙĨ
Ġrates
ĠÙĨÙĪØ¨Øª
ĠØ®ÙĪØ´Ø¨Ø®ØªÛĮ
Ġ188
ØªÙĨØ§Ø¨
Ġrestrict
Ġstronger
ÙĨÙĪÙĨ
ĠØªÙĨØ¯ÛĮ
Ġyard
ĠØ¹Ø·
ĠÙħØ¬Ø³Ùħ
ĠØ§Ø¯Ø¨
ĠØ®ÛĮØ³
ĠØªÙĦØ®
ĠMarius
Ġdetermine
Ge
ĠÚ©Ø±Ø§Ùģ
cel
Ġemph
ĠÙ¾ÛĮØ±ÙĪØ²
Ú¯Ø±Ø¯Ø§ÙĨÛĮ
ĠSecret
Bl
Ûµ
Ġvessel
Ġintellect
ĠØ¯ÙĪØ±ØªØ±
ĠØ¸ÙĩÙĪØ±
ĠØ¹ÙĤØ§ÛĮØ¯
Ġpurs
ĠØ®Ø¬Ø§ÙĦØª
Besides
ĠØ´Ø±ÛĮÚ©
alph
ĠAwards
ĠØ¯ÛĮÚ¯
Ġmyst
Ġyours
Ø¨ÙĦØ¯ÙĪØ±
Ġimpression
ounce
ĠÙħØ§ÙĨØ¯ÙĨØ¯
Ġtrave
ĠØ¬Ø´ÙĨÙĪØ§Ø±Ùĩ
Ġsucceeded
ĠCourt
Ø¹ÙĦÛĮ
Ġnative
ĠÙĪØ±Ø§ÙĨØ³Ú©ÛĮ
ĠØªÙģØ±ÛĮØŃ
asket
ĠØµØ¨ØŃØ§ÙĨÙĩ
ĠÙĨØŃÙĪ
ĠAngeles
Ġunexpected
Ø§ÙĤÛĮ
ĠGand
ĠRob
ishop
azz
Ġinspired
ĠØ¹ÙħÛĮÙĤÛĮ
ĠMusic
Ġclaimed
ĠØªØ¶ÙħÛĮÙĨ
Ġashamed
ĠÙĩØ±Ø¯ÙĪ
Ġbath
ĠÚ¯Ø±Ø¯Ø§ÙĨ
ĠPhilos
Ġobvious
ÚĨÙĤØ¯Ø±
ĠØŃÙĪØµ
Ġreform
ĠÙĨØ§ÙħØ´
rene
ĠIslands
ĠØ§Ø³ÙħØ´
Ġregarded
Ġprinciples
ĠØ·ÙĨØ§Ø¨
ĠÚ©ÙĩÚ©Ø´Ø§ÙĨ
ĠØŃØ§Ú©ÛĮ
ĠYour
ĠØªØ§Ø¨ÙĦÙĪ
Ġkissed
Ø®Ø¯Ø§ÛĮ
ĠMunicipality
ĠÙĦØ±Ø¯
orted
ĠÙĨØ¯Ø§Ø±ÛĮ
ĠÙĪØ¶ÙĪØŃ
Ġforehead
Ġprotein
ÙħØ³ÛĮ
Ø§Ø±Ú¯Ø§ÙĨ
ĠÙ¾ÙĪÙĨØ¯
Ġisol
ĠÙĦÚ¯
ĠÙħÙĪØ«Ø±
ĠØ¢Ø³ÙĪØ¯Ùĩ
ĠØ®Ø±ÙĪØ¬
Ġacquaint
ĠØ¬Ø¨ÙĩÙĩ
ĠØ±Ø¨Ø·
ĠCy
Ø¢ÙĨØ§ÙĨ
ÙĩØ±ÙħÛĮÙĪÙĨ
rav
ĠÙħØ¨ÙĦØº
tr
ĠÚ©Ø±Ø§
ĠÚ©Ø±Ùħ
ĠØ®ÙĢ
iffe
Ġdece
ĠØ³Ø±ÙĪØ¯
ĠFamily
Ġunw
icking
Ġfollows
Ø¨Ø±Ø¯Ø§Ø±ÛĮ
Ú©Ùģ
ĠØ®ÛĮØ²
ĠÙ¾ÛĮØ§ÙĨÙĪ
theless
Ġbackground
ĠØ¨ÙĢØ§
ĠØ²Ø®ÙħÛĮ
Music
ĠSub
ĠÙħÙĪÙĤØª
Ġrou
ĠÙħØ·ÙĦÙĤ
ĠÚ©ÙĨØ§Ø±Ø´
ĠWhy
ĠØµØ±ÙģÙĩ
Ġreports
livier
Ġmarch
ĠØ®ÙĪÚ©
ĠÙ¾Ø±ÙĨØ¯Ú¯Ø§ÙĨ
velopment
Ġlogic
ĠØ¹Ø¸ÛĮÙħÛĮ
PS
ĠØŁ...
ĠØªØ£Ú©ÛĮØ¯
Ġapproached
Ġrequest
ĠÙħØ§Ø±ÛĮÙĪØ³
ĠØ±Ø§ÙĨÙĨØ¯Ú¯ÛĮ
Ġteachers
Ġresponsibility
ĠØ¯Ø§ÙĨØ´ÙħÙĨØ¯
fall
ĠÙĩØ±Ú¯ÙĪÙĨÙĩ
cipl
Ġbrains
Ġactor
Ġgoods
ĠØ¯Ø§ÙħÙĨ
ĠÙĦØ±Ø²Ø§ÙĨ
Ġliterally
ĠÙĪÛĮØ¯Ø¦ÙĪ
Ġfate
Ġstudio
ĠÙĪØ±Ø²Ø´ÛĮ
cest
ĠÙĩØ§ÙĨ
ĠÙĨÙĪÙħ
ĠÚ©ÙĦÙħØ¨ÛĮØ§
ĠØ¹Ø¨Ø§Ø±ØªÙĨØ¯
Ø´Ø±Ú©Øª
Ġnodded
pal
Ġtear
ĠØ¬ÙĪØ§Ø¨ÛĮ
ĠÙĦØ§ØºØ±
ĠØ§ÙĦÙĩÛĮ
ĠØ²Ø§ÙĪÛĮÙĩ
Ġdeliver
ĠLibrary
Ġgathered
ÙģØªÚ¯ÛĮ
urse
ĠØ¨ÛĮØ³ØªÙħ
ĠÙħØŃÙĪØ·Ùĩ
ĠØ¨Ø¯Ø¨Ø®Øª
Ġconfused
ĠØ¨Ø¨Ø®
ĠØ¹ØµØ¨Ø§ÙĨÛĮØª
ĠÙħØ£ÙħÙĪØ±ÛĮØª
otic
Ġshaking
ova
Ġappointed
Ġcolumn
ĠÙĨÚ©Ø±Ø¯Ùħ
Ġhoped
ĠØ¢ÙĪÛĮØ®ØªÙĩ
Ġoccupied
Ġï»
Ġsymptoms
adium
ĠLin
ĠNich
Ġdiscovery
Ø·Ø¨ÙĤ
Ú¯Ø²Ø§Ø±Ùħ
Gen
ĠØ²Ø¨Ø§ÙĨÛĮ
term
unction
Ġgoals
ĠÛ¹Û°
aul
awn
ĠÙĩÙĪØ³
Ġhanded
ĠComput
Ġdriver
ĠMinistry
Sim
orial
Ġnoted
ĠØ³ÙĪØ³ÛĮ
ĠØ¯ÙĩÙĨØ¯Ú¯Ø§ÙĨ
ĠØ´ÙĨØ§Ø³Ùħ
Ġdegrees
ĠØªØ¯Ø±ÛĮØ³
ĠØ¹Ø°Ø§Ø¨
ĠAk
ĠÙĨØ¯Ø±Øª
ĠØ´ÙĪÙĤ
Ġperman
ĠStu
Ġinfinite
ĠÙĨÙĪÛĮØ³ÙĨØ¯Ú¯Ø§ÙĨ
ĠCanadian
ĠØ±Ø§ÙĨÙĨØ¯Ùĩ
Ġastron
ĠÙ¾ÛĮÚĨÛĮØ¯Ú¯ÛĮ
ĠØ¨ÙĪØªÙĩ
Ġwedd
ÙĤÙĪÙĦ
Ġcas
Ġpush
ĠBas
Ġworn
Ġflower
ĠÙĥØ§Ø±
Ġ978
Ġnaturally
DA
ØªÙĪÛĮ
ĠØ¯Ø±Ø®Ø´
ĠÚ¯ÛĮÙĦ
irmed
amin
emen
Ġcommitted
Ġbreaking
Ġclock
Ġsteel
US
hand
mond
Ġsan
icing
ĠLittle
ĠÙħØ±Ø¯ÙĩØ§
Ġhousehold
Ġkilling
Ġlayer
Ġstrike
point
hett
stro
Ġunp
Ġunlike
Ġapply
ĠÛ²Û¶
Ġcrew
Ġalternative
cyclop
ÙĪØ§Øª
ØªØ¹Ø¯Ø§Ø¯
ĠØ®Ø§Øª
Ø³ÛĮÙĦÛĮ
ĠØ±ÙĪØ¨ÙĦ
ĠØªØ±Ø¨ÛĮØª
ÙĬÙĩ
Ġagreement
ĠØªÙĨØ´
Ġdrunk
Ġillust
Ġexcitement
ĠGenus
Ġproced
ĠFr
ĠØ¯ÛĮØ¯ÛĮÙħ
Ġadmit
ĠÚ©ÙħÙ¾Ø§ÙĨÛĮ
Ġexcellent
ãĤ
Ġlosing
ĠØ¹Ø§ÙĤÙĦ
Ġrelief
Û±Û³Û
Ġvolume
ĠÛ·Û°
Ġtradition
ef
ĠØ¨Ø¯Ø§ÙĨÙħ
icks
Ġdifferences
Ġincor
Ġoxy
Ġneighborhood
Ġgri
ĠMother
ĠRue
ĠØ®Ø·Ø§
Û±Û¸Û
ĠÚ©Ø§ØªÙĪÙĦÛĮÚ©
Ġmassive
Ġheavily
Ġwire
agues
Ġexists
ĠØ´Ú©Ø§ÛĮØª
Ù¾Ø±Ø³Øª
ĠâĢİ.
Ġskills
Ġcruel
Ø¢Ø®Ø±ÛĮÙĨ
Ġgiant
Ġvague
Ġplane
Ø´ÙħØ§Ø±ÛĮ
ĠÙħÙĤØ§Ø¯ÛĮØ±
ĠÙħØ·Ø§ÙĦØ¨
Ġgrandfather
ĠÙĨÙħØ§ÛĮÙĨØ¯Ú¯Ø§ÙĨ
ĠÙĨØ§Ø²Ú©
ÅĤ
ĠÙĪÚ©ÛĮÙĦ
Ġdull
ÛĮÙħÙĨ
acles
ÙħÛĮÙĦÛĮ
ĠÙĪÛĮÙĨØ¯
ĠÙĪØ¬ÙĪØ¯Ø´
Ú©Ø³ÙĪÙĨ
Ġnewspaper
ĠØ´ÙĪÙĨ
anie
Ġplate
ĠØ¨Ø±Ø¯Ø§Ø±Ø¯
ĠÙ¾Ø¯Ø±Ø¨Ø²Ø±Ú¯
Ġfacts
ĠÙ¾Ø±Ø¯Ø§Ø²Ø¯
ĠØ·ÛĮÙģ
Ġdiseases
Ġalgorithms
EL
writ
ĠØŃØ±ÙĪÙģ
ĠÙĦØ§Ø±ÛĮ
ĠØ´Ø®ØµØ§
Ġships
Ġignor
OK
ĠØ¨Ø¨Ø±ÛĮ
ĠØ¨Ø®ÙĪØ§Ø¨
ĠØŃØ¨Ø³
ĠÙĩØ§ÛĮÙħØ§ÙĨ
Ġstones
Ġowned
Ġattribut
Ġphase
ĠÙĪØ§Ú©Ø³
Ġportra
ĠÚ©Ø´ØªÙĨ
ĠØªØŃÙĤÛĮÙĤØ§ØªÛĮ
ĠIntelligence
ĠÙħÙĨØ§Ø³Ø¨ÛĮ
Ġinner
ĠØ§ÙĨÚ©Ø§Ø±
Ġflesh
Ġobst
ĠÙĦÛĮØ²
Ġbranch
iy
ĠØ±Ø³ÛĮØ¯Ùħ
Ġsustain
ĠÙħÙħ
ĠÙĨÛĮÙĪ
ĠOb
ĠÙĨÛĮØ³ØªÛĮ
Ġelectrical
Ġabsence
ĠØ´Ú¯ÙģØªÛĮ
Everything
Ġfrequency
ĠÙ¾Ø´ÛĮÙħ
Ġintellig
Ġspin
ĠØ§Ø¬ØªÙĨØ§Ø¨
Ġcuriosity
Ã³w
ĠNatasha
ÙħØ¯ÛĮ
ĠØ¯ÙĬ
Ġprisoners
Ġdrinking
Ġanxiety
Ġpaused
Ġscarcely
Ġcousin
ĠÙĨØ§Ø´ÙĨØ§Ø®ØªÙĩ
nor
Ġstiff
ĠØ¨Ø§Ø²Ø±Ú¯
ĠÙħØ¹Ø°
ĠØ§Ø´ÙĦÛĮ
Ġcreatures
ĠØ±Ø³ÙĨØ¯
Ġacting
ologist
Ġsimpl
Ġfriendly
Ġlifted
Ġelectricity
ĠØ§ÙĦÙħØ§Ø³
cknow
ĠThen
ĠØ§Ø¹ØµØ§Ø¨
Ġdemon
Ġstepped
ĠScot
Ġprimarily
ĠØªØ±ÙĪØ±ÛĮØ³Ùħ
ĠØ¢Ø±Ø²ÙĪÛĮ
Ġexplanation
hus
occ
ĠDu
ĠUr
Ú©ÙĦØ§ÛĮØ¯
ĠÙħØ±ØªÚ©Ø¨
Ġbedroom
ĠØªØ®Ø±ÛĮØ¨
ĠØ¨Ø¯Ø§ÙĨÛĮØ¯
Ġsatisfaction
Ġvictory
ĠØ¨Ø³Ø§Ø²ÛĮÙħ
ĠÙħÚ¯
ÙĦØ°Ø§
Ġpuzz
Ø³ÛĮØ§
ØªØ±Ø³
ĠØ¨Ú¯Ø°Ø§Ø±ÙĨØ¯
ĠÙĨØ§Ø®ÙĪØ´
ĠFoundation
bitt
ØµÙĪØ¯
Ø®ØªÙĨØ¯
ĠPo
ĠÙĨÙĪØ§ØŃÛĮ
Ġinterests
Ġhoriz
Ġsons
Ġkil
Ġfeels
ĠÙĨÙĪØ§Ø²Ø´
28
host
ype
ÙĤÙĪÙĩ
Ġworried
ĠJeff
ĠÛĮØ§Ø¯Ø¢ÙĪØ±ÛĮ
ificial
ĠØ¬Ø²Ø¡
Ġsword
Ġsentence
Ġbalance
Ġequivalent
Ġfart
Ġstor
osha
Ġresolution
Ġfinish
anguage
Û²Û°Û
Ġidentified
Ġdemocracy
Ġatmosphere
IR
Ġbits
ĠÙħÛĮØ±Ø§
ĠÙģØ±Ú©Ø§ÙĨØ³
Ø§ÙĪØ§
ĠÙ¾Ø±ÙĪÙģØ³
ĠØ³Ø·ÙĪØŃ
Ġpriest
ĠØ®ÙĪÙĨØ³
Ġtrembling
ĠØ¬Ø§Ø¯ÙĪÛĮÛĮ
ĠÚ©Ø±Ø§ÙģØ±Ø¯
ĠØ¯Ø±ÙħÙĪØ±Ø¯
ario
Ġchose
Ġprem
ĠÙ¾ÙĦÚ©Ø§ÙĨ
ĠÙħØªØ¹Ø¬Ø¨
ĠØºØ±ÛĮØ¨Ùĩ
ĠÙģØ§Ø±Ø³ÛĮ
ĠÙħØ¹Ø¯ÙĨ
27
Ú©ÙĪÙĩ
orter
ĠØµØ¯Ùħ
ĠHT
ĠØ±ÙĪØ²Ùĩ
ĠØ¯Ø®ØªØ±ÙĩØ§
ĠØ¨Ø´ÙĪÙħ
ĠØµÙĨØ§ÛĮØ¹
Ġcomponents
ĠØ¨Ø¹Ø¯Ø§Ø²Ø¸ÙĩØ±
ĠØªØ¯
ĠÙ¾Ø§Øª
ĠÚ¯Ø²ÛĮÙĨÙĩ
Ġloose
Ġcompassion
ĠÙħØ¯Ø§ÙĦ
Ġstudying
ĠÚ©ÛĮØªÛĮ
Ġideal
Ġcorpor
ÙħØ¹ÙĦÙĪÙħ
Ġsuperior
Ġgalax
Jean
Ġresist
Ġcoord
Ġgrin
ĠØ³Ø§Ø¹ØªÛĮ
ĠLeÃ³n
Ġsurrounded
Ø²ÙĨØ§ÙĨ
erk
ĠØ±Ø§Ú©
elly
ÙĢØ§ÙĨ
ĠØªÙħØ³
Ġgene
othy
ØªØ±ÛĮØ³ÛĮ
ĠØ¬ÙĦØ¯
apping
ĠCatholic
Ġfocused
ĠÙĪÙĤØ§ÛĮ
Ġcore
Ġmyth
ĠÚ©Ø§ÙħÙ¾
Ú©Ø²ÛĮÙħ
ĠIII
ĠÙĪØ§ÙĨÙħ
Ġindu
olm
Ġrow
Ġgreatly
ĠAmericans
Ġexperiences
ĠØ®ÙĪÛĮØ´ØªÙĨ
Val
ĠÚ¯ÙĦÙĪ
Ġreven
olve
ĠØ¨ÛĮØ§Ø¨
aine
ĠFar
Ġremote
ela
akers
Ġpractical
ĠØ¨Ø²ÙĨÛĮØ¯
ĠØ¨Ø§Ø¯ÛĮ
Ġacknow
Ġmuseum
Ø¨ÛĮÙĦÙĩ
ÛĮØªØ§ÙĨ
Ġdepartment
ĠØ´ÙĨØ§Ø®ØªÛĮ
Ġawful
Ġteams
Ġbanks
Ġauthorities
Ġprofessor
ĠØ´ÛĮØ·Ø§ÙĨÛĮ
ĠÚ©ÙĪÛĮ
eding
ĠØ³Ø±Ø¯Ùĩ
ĠÙħÙĨÙĩ
Ġnegot
ĠÙģØ±Ø¢ÛĮ
itya
Ġrolled
Ġpolitic
Ġspirits
ĠSecond
29
ĠØ±ÙĪÛĮÚ©Ø±Ø¯
ĠÙĤØ±Ø¢ÙĨ
Ġgrate
Ġ1930
Ġnode
standing
ĠÙĨÙĤØµ
ĠPhys
ĠØ¨ÙĨØ¯Ø±
Ġarrival
ĠØ¨Ø®ÙĪØ§ÙĨØ¯
Ġhanging
ĠØ¨Ø§ÙĩÙħ
Ġselected
oping
ĠBon
Ġconqu
ĠOxford
ĠØ±ÙĤÙħ
ĠÙĨÙħØ§ÛĮØ´Ú¯Ø§Ùĩ
ĠÙĨØ§ØªØ§Ø´Ø§
ealous
isation
Ġweren
Ġsecure
ĠØªØ±ÛĮØ³ÛĮ
Ġobviously
umbledore
ĠØ§Ø±Ø¯ÙĪÚ¯Ø§Ùĩ
Ġbeast
ĠÙģÛĮØ±
utation
Ø§Ø¨ÙĩÛĮ
ÙĩØ§Ø³Øª
Ġthinks
duc
ĠÚĨØ´ÙħÙĩ
Ġgolden
ĠØ²ÙĨØ¬ÛĮØ±Ùĩ
Ġtonight
48
ĠØ·ÙĪÙģØ§ÙĨ
illing
Ġshru
ĠEastern
Ġlock
range
Ġbold
Ġblame
Ġ187
ĠChristmas
Ġviews
ĠØ¨ÙĩØ¯Ø§Ø´ØªÛĮ
ĠØ²ÙĪØ¬
ĠÙĪØ§ÙĨÙħÙĪØ¯
every
Ø¸Ùħ
Ø¢Ú¯Ø§Ùĩ
Ġproport
Ø§Ø±ÙĩØ§ÛĮÛĮ
Ġcook
Ġhearts
55
Col
Ġwake
ulse
ĠÙĦÙĨÚ¯
ĠRock
ĠNorthern
ĠØ´ÙĪØ§ÙĩØ¯
Ġslept
box
ĠØ¨ÙĨÛĮØ§Ø¯ÛĮ
agnan
ĠØ±Ø¤ÛĮ
ĠPrincess
ÙĨÛĮØ±
ĠMem
ĠÙĦØ³
ĠBol
Ġworship
ĠViet
ĠØ®Ø§Ø±ÙĤ
ĠØ¹ÙĦØ§ÙĤ
Ġfunny
ĠØ¯Ø±Ø¯Ø³Ø±
ØªÙĦØ±
ĠQueen
cope
Ġq
ØªØ§Ø±ÛĮ
ĠÙĪØµÙģ
ØŃØ´
agger
ĠØºØ§Ø±
ĠØªØ¹ÙħÛĮØ±
ĠÙĦÛĮÚ¯
Ġdiamond
ĠCommission
ĠØ¢Ú©Ø§Ø¯ÙħÛĮ
List
PC
tle
Ø§Ø±ÛĮØ¯
ĠØ´Ø¯ÛĮ
Ġshirt
Ġallowing
ĠWal
Ġunus
ĠÙĨØ§Ú¯Ø²ÛĮØ±
ĠÙ¾Ø±ÙĪØªÚ©ÙĦ
Ġresearchers
ÙĪØ¬Ùĩ
icit
ØŃØ±Ùģ
ĠØªÙĪÙĩ
ĠPlan
Artagnan
life
iture
ĠØ§ÛĮÙĨÙĪ
uted
ĠAzer
ĠØ³Ø±Ú¯Ø±ÙħÛĮ
ĠTown
ĠØªØºÛĮÛĮØ±ÛĮ
Ġstrateg
Ġimagination
Ġincredible
pass
Ðº
Ú©ÙĪÙĨ
ĠÙĪØ§Øª
also
ĠØ¨Ø±ÛĮØ¯Ùĩ
str
ĠCatherine
ĠJoe
Ġelections
Ġmanufacture
Ġscript
ĠØ³ÙĦÙĪÙĦÛĮ
rors
ĠØ®Ø§Ø³Øª
ĠØ³ØŃØ±
Ġgained
ĠØŃØ¬
ĠÛĮÚ©Ù¾Ø§Ø±
ĠMill
ĠLiber
ÙĬÙĥ
ĠØ¨Ø¯ØªØ±ÛĮÙĨ
Ġuns
ĠÚ©ÛĮØ³Øª
Ġtechnical
ograp
Ġprofession
ĠÙĤÙĩØ±ÙħØ§ÙĨÛĮ
Ġarranged
EM
Ġcert
oria
ĠØ²ÛĮØ±Ø²ÙħÛĮÙĨ
ĠØ¹ÙĦØ§Ø¦Ùħ
ĠØ³Ù¾Ø±Ø¯Ùĩ
ko
Ã¸
ĠØªÛĮÙĦ
lyosha
ĠÚĨÙĬØ²
ĠØ®ÙĪØ¯Ø±ÙĪÛĮÛĮ
ĠØºØ§ÙģÙĦ
Ġnoble
ĠØªÙĨÙĪØ¹
ĠØ®Ø´Ú©ÛĮ
Ø§ØºÙĦØ¨
ĠØ§Ø³ØªØ®Ø±Ø§Ø¬
ĠØ§ÙħØªØ¯Ø§Ø¯
Ġsports
ĠÙ¾Ø±ÙĪÙģØ³ÙĪØ±
Ġmac
umed
apy
Ġcomplicated
ĠÙħØªØ£Ø³Ùģ
ĠSouthern
ĠPop
Ġdoctors
ĠØ§ÙĦÙĨ
ĠÚ©ÙħØªØ±ÛĮÙĨ
Ġsmooth
ĠÙħØ³ØªÙĨØ¯
ĠØ±Ø®ØªØ®ÙĪØ§Ø¨
ĠÙħØ¯Ø§ÙĪÙħ
Ġvisited
ĠØ´ÙĨØ§ÙĪØ±
Ġevidently
Ø§ØªØ´
Ġpartner
ĠInc
ĠÙĨØ´Ø³ØªÙĨØ¯
ĠØ§ÙģØ³Ø±Ø¯Ú¯ÛĮ
ĠÙħØªØ¹Ø¯Ø¯ÛĮ
west
Û´
Ø¹ÛĮØ¯
Ġgle
ĠØ¨Ø±Ø§ÛĮØª
ĠDis
ĠØ§Ø¬Ø§Ø±Ùĩ
mann
ĠÚ¯ÙĪØ´ÛĮ
ĠØ³ØªØ§ÛĮØ´
ĠÙ¾Ø¯ÛĮØ¯Ø§Ø±
Ġmaintain
Ġexercise
ĠÙĤØ´ÙĪÙĨ
oped
Ġ''
ĠÙ¾Ø³ÙĨØ¯
Ġcontempt
ĠÛ±Û°Û
Ġtesting
ĠØ¨Ú¯ÙĪÛĮÙĨØ¯
ĠÙħÛĮØ¯ÙĩØ¯
Ġdancing
omach
Ġstuck
ĠBy
ĠRose
ĠLy
Ġlocked
ÙĪØ¨ÙĪØ³
Ø¨Ø§ÙĦÙĩ
Ġswift
ĠÛµÛ°Û°
ĠÙģÙĩÙħÛĮØ¯Ùĩ
Ġliquid
ÙĪÙĩØ§
asters
ĠØ¨Ø±Ø¹Ú©Ø³
ilty
ĠRog
ĠEve
Ġplays
ĠÛĮÙĪÙĨØ§ÙĨ
Ġcombined
Ġaltogether
IL
ĠÙħÛĮØ´Ø¯
Ġfier
etime
ĠPre
ĠPost
Ġextended
ĠØ´Ú©ÙĪÙĩ
ĠØ®ÛĮØ§ÙĦÛĮ
ĠØ³ØªØ§Ø±Ú¯Ø§ÙĨ
Ġwondering
ĠFacebook
Under
ĠØ®ÙĦÙĪØª
igen
ĠØ¨Ø±ÙĩÙĨÙĩ
Ġbacteria
Sec
Ø³ÙĪÙħ
ĠØ¬ÙĪÛĮÛĮ
ÙħÙĪØ³ÛĮÙĤÛĮ
ĠVan
Ġconstantly
Ġresem
Ġfriendship
Ġmainly
ĠÙħØ°ÙĩØ¨
Bet
Ø§ÛĮØ§
oral
ĠÙ¾Ø±Ø§
Ġforb
Ġsees
ĠBella
aping
ĠØ¯ÙĦØ³
ĠØ¨ÙĢÙĪØ¯
Ġsleeping
Ġcombination
ĠØ§ÙĦÚ¯ÙĪÛĮ
ĠAustralian
ĠØ®Ø¯Ø§ØŃØ§ÙģØ¸ÛĮ
!"
inter
ĠØ¬Ø¨Ø±Ø§ÙĨ
ader
TV
Ġpause
Ø§ÙħÙĦÛĮ
ĠLydgate
Ø¨Ø±ÙĨØ§ÙħÙĩ
Ġroot
ĠØ¹ÙħÙĪÙħ
Ġfrancs
Ġvary
ĠStand
ĠØŃØ³Ø¨
ĠØ¯Ø±Ø¯ÙĨØ§Ú©
Ġemotions
ĠØ¯Ø®Ø§ÙĦØª
65
CM
ĠØ§ÚĨ
ante
Ġ1989
ĠØ®ÙĪØ´ØŃØ§ÙĦÙħ
100
ĠÚ©ÛĮÙĨ
itar
ĠØŃØ³ÛĮ
Ġseated
ĠTime
Ġconcert
ĠØ±Ø§Ø¯ÛĮÙĪÛĮÛĮ
Ġclouds
Ġmathematical
47
ØªÙģ
Ġfer
Ġrh
loc
pless
ĠØªØµØ¯ÛĮÙĤ
ĠStan
Ġrelation
ocal
ĠÙħÙĪØ¶ÙĪØ¹Ø§Øª
ĠÙħØ¯Ø±Ú©
Ġpatterns
)}
ÙħØ±Ùĩ
ĠÚ©ÙĪØ²Øª
Ġhint
rog
ĠÙĦÚ©
ĠJurgis
ĠÙħØ¹ÛĮÙĨ
ĠÙħØ´Ø§Ø¨ÙĩÛĮ
ĠÙħÙĨØªÙĩÛĮ
ĠØ³Ø±Ø´Ø§Ø±
Ø§Ø¬Ø§Ø²Ùĩ
ĠØ²ÛĮØ¨Ø§ÛĮ
ĠØ´Ø§Ú¯Ø±Ø¯
Ġhungry
ĠÙĤØ§Ø¶ÛĮ
Ġreward
ĠÙħÙĪØ§ÙĤØ¹
Through
aws
Ġentertain
ĠÙħØºÙĨØ§Ø·ÛĮØ³ÛĮ
ĠØ¯Ø§ÙĨØ´Ú¯Ø§ÙĩÛĮ
ĠPeters
Ġessential
Ù¾Øª
Ġgently
Ġstret
elf
ĠÙħØ¹Ø·
Ġuniform
Ġexisting
ĠØ¹Ø§Ø´ÙĤØ§ÙĨÙĩ
Sever
Ġthee
inger
ĠÙĤØ¨ÛĮÙĦÙĩ
Ġancest
ession
ĠÙ¾ÛĮØ±ÙĪÛĮ
ĠØªÙĦÚ¯Ø±
Ġwoods
ĠØ¨ÙĪØ³ÛĮØ¯
ĠØ®Ø§ØªÙħÙĩ
Ø³Ø§Øª
Ø²ÙĨÛĮ
Ġexternal
ĠOliver
ĠØ°ÙĩÙĨÙħ
ĠÙħØ£ÙħÙĪØ±
Ø¦ÙĪØ±ÙĦÛĮ
Ġappreci
Ġtorn
ĠÙĪØ§Ø¯
ĠØªØ§ÛĮÛĮØ¯
Ġcards
ĠIMDb
ĠØ³Ø§Ø®ØªÙĨØ¯
Ġoldest
ĠÚ©ÙĦÛĮÙģ
Ġdram
ĠEngine
Ġlargely
evin
Ġprisoner
ĠAlexander
OT
ĠÙħØ§Ø¯ÛĮ
ali
emies
ĠØ§Ø³ÛĮØ±
Ġdepends
ĠØ§Ø®ÛĮØ±Ø§
ĠØ¨ÙħÛĮ
ĠÙĨØ§ÙĪ
itors
ĠØ®ÙĦØ§ÙĦ
ĠØ¢ÙĨØªÛĮ
ĠMonsieur
ules
ĠRa
Ø§ÛĮÙĨÚ©
ĠÙħØªØ±ÙĪ
Ġcompre
Ġindex
ĠØ¨Ú©ÙĨÛĮ
ĠÙĪØ¸Ø§ÛĮÙģ
Ø¸Ø§ÙĩØ±Ø§
Ġsales
ĠØªÙ¾
ĠÚĨØ´
acific
uments
osm
Ø®ÙĪÙģ
Ġ300
ĠØ§Ø®Ø±Ø§Ø¬
ĠØ¨ÙĦÛĮ
ĠÙĨÙĬ
ĠMars
iler
ĠHaw
ĠÚ©ÙħÚ©ÛĮ
ĠÙĨÙħÚ©
Ġburned
ĠØ¯Ø§Ø¦ÙħÛĮ
ĠMoon
ĠÙħØªØ§Ø³Ùģ
ĠØŃØ±ÙģØ´
ĠProgram
Ġtechnique
ĠØ¨Ø¨Ø±ÙĨØ¯
Ġguns
Ġperceived
bra
ĠÙĩÙĨØ¯ÛĮ
ication
Ø·Ø§Ùģ
idel
iths
ĠAli
Ġadvert
ĠÙĪÛĮØªÙĨ
ĠStar
ĠØªÙĪÙĨÛĮØ¯
ĠScott
Ġdaughters
ĠBerlin
ĠØ¨Ø±Ø§ÙĨÚ¯ÛĮ
Ġapparently
ÙħÙĩÙħ
heast
ĠÙĪØªÛĮ
ĠØ±ÙĨ
arse
ĠDan
ĠØ¯Ø³ØªÙħØ§ÙĦ
ĠÛ±ÛµÛ
onsense
Ġshouldn
Ġunhappy
OC
Ġtick
Ø³ÙĦÙĩ
itzer
ĠØ§Ø²Ø§ÛĮ
Ġease
iry
uration
ĠØ®ÙĪØ§Ø¯
ĠLab
Ġpartners
ĠÙĤØ·Ø¹ÛĮ
ÙĪØ·ÛĮ
ĠPrime
Ġhomes
ĠØ²ÙĨØ¬ÛĮØ±
05
ĠØªØ±ÙĪ
ÚĨÙĨ
Ġsheep
ÙħØ§Ø¯Ø§Ùħ
Ġclaims
ĠØ¯Ø§ÙĪØ·ÙĦØ¨
,;
bai
Ġstim
quis
ĠDutch
ĠØŃÙĤÙĪÙĤÛĮ
Ġarticles
Ġparam
Ġadmir
Ġsorrow
ĠØ¬Ø¯Ø§ÛĮÛĮ
ĠÙħÙĪØ³Ø³Ùĩ
ĠÙħÛĮØ³
ĠØ¯Ø±Ø³ØªÙĩ
Ø®Ø·
ĠÚ©ÙĨØ³Ø±Øª
usal
Ġshif
ĠEnd
Ġattached
ĠSpace
ÙģÛĮÙĦÙħ
ĠOrganization
bar
ÙĪØº
ĠÙĩØ¯
ĠAut
ĠEll
Rum
Ġbatter
Ġmaid
ĠOri
Ø§ØµØ±Ùĩ
Ġconsult
ikip
ĠØ®ÙĪØ§Ø¨ÛĮØ¯Ùĩ
Ġparticles
Ġprocessing
Ġtotally
ĠØ´Ø§Ø®Øµ
Ġmixed
John
ĠØ´ØªØ§
ĠÛĮÙĪÙĨÛĮ
Ø§ÙĦØ¯
Ġknife
ĠÙħØ³ØªÙĤØ±
ĠÙ¾ÙĨØ¬Ùĩ
ĠÙħØ§ÛĮÚ©ÙĦ
Ġobliged
long
Ġwise
Ø®Ø§ÙĨÙĪ
ĠMaxim
ÙĪØ²Ùģ
ĠØ«Ø¨Ø§Øª
Ġprotest
ÙĩØ§ÙĨ
ĠØ¨Ø±Ø§ÙĨÚ¯ÛĮØ²
Ġyards
Ġintense
ĠÙħØŃØ§Ú©
Ġjealous
ĠÙĤØ·Ø¨
ĠÙħÙĦÚ©
Ġleads
ĠÙ¾Ø§Ø¯Ø§Ø´
ĠØ¯Ø±Ø´Ú©Ùĩ
Ġwedding
ĠØ¯ÛĮÙĨÛĮ
ĠLoss
ĠÙĨÛĮØ±ÙĪÙħÙĨØ¯
Ġmemories
Ġfactory
Ġtruck
ĠØ¸Ø§ÙĩØ±ÛĮ
Ġbesides
ĠÙħØ³ÙĦÙħØ§ÙĨØ§ÙĨ
Ġelectronic
ĠØ¢ÙĨØ¬ÙĦØ³
down
rast
Ø¹Ø¨
Ø¨Ø§Ø·
Ġbiological
ĠÚ¯Ø±Ø³ÙĨÙĩ
Ġconsequence
ĠØµÙĦÛĮØ¨
ĠÙħØ¬Ø§ÙĪØ±
bi
yan
ØªØ²
Ġgrief
ĠSol
ĠBob
ĠDiv
ĠØ§Ø¹ØªÙĨØ§
ĠNobel
Ġhorrible
Ġpipe
Ġstable
ĠColl
ĠÙĦØ·ÛĮ
Ġchannel
eph
Ġthanks
ĠÙĨÙĤØ¯
Ġsuppl
Ġexplos
Ġpainful
Ġawarded
Get
Ø¹Ø§Ø¯
Ġec
ĠØ¯ÛĮÙĪ
ĠØ¢ÙģØ±ÛĮÙĨ
Ġpoetry
ĠØ§ÙħÙ¾Ø±Ø§Ø·ÙĪØ±
PA
Ú©Ø§ÙĪ
onna
ĠØ¨Ø§Ø³ØªØ§ÙĨÛĮ
usse
ĠTem
Ġabst
Ġboots
Ø®ÛĮØ§ÙĦ
Ġappropri
Ġeastern
Ġsacrif
Ġinterrupted
espite
Ġchamber
Ø§ÙĨØ¯Ø§Ø²ÛĮ
Ġrestaur
inations
imental
orent
Ġlect
ĠÚ©ÙħØ¨ÙĪØ¯
ĠØ¨Ø´Ø±ÛĮ
onym
illefort
ĠØ®ÙĦØ§ÙĤ
ĠØ§ÙĨÙĤÙĦØ§Ø¨ÛĮ
Ġassumed
ikipedia
Spe
Ġtank
ĠØ¬Ø§ÙħÙĩ
Ø§Ø²ÙĨØ¯
ĠHot
Ġgenes
ĠØ§ÙģØ²Ø§Ø±ÛĮ
ĠÙħØ§ÙĦÚ©ÛĮØª
ĠØ®Ø¯ÙħØªÚ©Ø§Ø±
Ġflew
erg
Ġlas
ĠÚ¯ÙĪÙĦØ¯
ĠMass
oster
ØªÙĪÙħÛĮ
Ġanswers
Ġcontrolled
Ġversions
ÙħØ§Ø±ØªÛĮÙĨ
ĠØ³ÛĮÙĦÛĮ
ĠÚĨÚ©Ø§Ø±
ĠØ±ÙĪØŃÛĮÙĩ
aret
Ġwhenever
ĠØ§ØŃÙĪØ§ÙĦ
Ġoverall
ĠØ³ÙĦØ³ÙĦÙĩ
ĠÙĤØ·Ø±Ùĩ
gery
Ġsignals
ĠØ´Ø±Ø§ÛĮØ·ÛĮ
ĠÙĩÙĪØ´ÛĮ
ĠØ³ÛĮÙĨÙħØ§
Ġvirus
ĠØ¨Ø§ÙĦØ§ØªØ±ÛĮÙĨ
nat
phe
ÙĩÙĪØ§
ĠÚ©ÙĩÙĨ
Ġtoler
Ø±Ø¯Ø³Øª
ĠØ¨Ø±Ø§Ùģ
Ġrear
ĠPubl
ĠFre
Ġdesired
ĠØ±Ø§Ø¯ÛĮÙĪ
01
Nat
ĠØ¨Ø´Ùħ
ĠØ®ÙĪÙĨÙĩ
ĠIll
Ġcentre
Ġextract
Ġmusical
Ġmilk
Ġachieved
Man
ĠÚ¯Ø§Ø±Ø¯
ØŃÙĤÛĮ
urned
Ġguide
Ġ1993
Ġclassical
ĠØ±Ú©ÙĪØ±Ø¯
ĠÙĩÙĨØ±ÙħÙĨØ¯Ø§ÙĨ
''
ĠØ§Ø¯Ø§
itants
ĠChem
osal
Ġvain
plom
Ġhandle
Ø³Ø±Ø´
ĠØŃÙħØ§Ùħ
ĠÚ¯Ø°Ø´ØªÙĨØ¯
Ġprincess
Ġfacing
Ġdiscussion
RI
lines
ÙĨÙħØ§
ĠÙħØŃØ±ÙĪÙħ
ĠKate
ĠØ¨Ø§ÙĦÙĤÙĪÙĩ
ĠØ§Ø«Ø±Ø§Øª
Ġerror
Ġmeasured
Ġcheeks
ĠVirgin
ĠÙħØ¨Ø¯
ĠÙĩÛĮÙĦ
ĠØ´ØºÙĦÛĮ
ĠLand
ĠYear
ructure
Ġconducted
Ø§ØŃØªÙħØ§ÙĦØ§
ĠØ²Ø§Ø¯
ÙĩØ±ÚĨÙĩ
ĠÙĨØ§ÙħÛĮØ¯
Ġspell
Ġtriumph
ĠÚ©ÛĮÙĦÙĪ
Ġbroadcast
ĠÛĮØ§Ø¨ÙĨØ¯
ĠÙĦØŃØ¸Ø§Øª
Ġske
Ø§ÛĮØªÛĮ
Ø§ÙħÙĪÙĨØ¯
urrent
umes
emed
ĠHell
ĠNetwork
ĠØ¬ÙĪØ§Ùĩ
Ġholds
without
ĠØ¢ÙĦÙĪØ¯Ú¯ÛĮ
ÙĨØ²Ø¯ÛĮÚ©
Ġforgive
Ġcriminal
IMDb
ÙĨØªÛĮØ¬Ùĩ
ĠSl
Ġneut
ĠHim
Ġshell
ĠØ¶Ø®
Ġattitude
Ġtermin
Ġparad
Ġpainted
Ġcombat
Ġdefinite
35
Ġwra
isible
Ø¹ÙĪØ¯
ĠØ¨Ø±Ø´
Ġattended
quar
ĠFestival
ĠÙĩØ±Ú¯Ø§Ùĩ
Ġunfortun
ĠØ³Ø§Ø²Ú¯Ø§Ø±
ÙģÛĮØ«
ĠÙħØ±Ø§Ú©Ø²
Ù¾Ø±Ø³ÛĮØ¯
ĠØŃÛĮØ§ØªÛĮ
ĠPortug
ĠÙĪÛĮÙĨØ¯ÙĪØ²
Ø®Ø§ÙĨÙĪØ§Ø¯Ùĩ
ĠÙĪØ§ÙĨ
ĠÙħÛĮÚ¯
orge
oto
Ġrushed
ĠNaz
ĠÙħÙĤØµØ¯
icken
Ġgrace
ĠÙħÛĮØ§ÙĨÚ¯ÛĮÙĨ
Ġ2018
ĠØ³Ø·ØŃÛĮ
ifferent
ĠSqu
ĠÙħØŃØ§ÙģØ¸Ùĩ
Ø§ÙĨØ¯Ø§
Ú¯ÙĪØ³Øª
Ġpursu
Ø¬ÙħØ¹ÛĮØª
Ġfifth
Ġridic
ĠÙħØ§Ø¬Ø±Ø§ÛĮ
ĠMicrosoft
Ø¨ÙĪÙĦ
Ġnom
Ġextend
Ġcareful
Ġdemons
ĠÙ¾Ø±Ø¯Ø§Ø²ÙĨØ¯Ùĩ
Ġuniversal
ĠØ±Ø¹Ø§ÛĮØª
ĠØ±Ø§Ø¨Ø±Øª
ĠÙ¾ÙĬ
ĠØ¹Ø§Ø·
celer
arks
ĠØ±ÛĮÚĨØ§Ø±Ø¯
Ġsites
ĠØ¨Ø®ÙĪØ§ÙĩÛĮØ¯
ĠØ®Ø§ÙĦØµ
ĠÚ©ÙħÙĪÙĨÛĮØ³Øª
Ġï»¿
Ø´ÛĮÙĨÛĮ
ĠÙĩØ§ÙĦ
Ġma
ĠØ¨Ø±Ù¾Ø§
ĠØŃÙħØ§
ĠØ³Ø±ÙĩÙĨÚ¯
ĠÙĨÛĮÙģØª
Ġguests
ĠÙĩØ¬ÙĪÙħ
Ø§ÙħÛĮØ¯ÙĪØ§Ø±Ùħ
Several
39
Ġstomach
ĠÙĦÚ©ÙĨ
Ø§ÛĮÙĨÚ©Ùĩ
Ġplanned
ruption
ĠØ§Ø¬Ø¨Ø§Ø±ÛĮ
Ġ32
ĠÛ²Û°Û±Û·
Ġdetail
Ġexecution
ĠÙħØŃØ§Ø³Ø¨Ø§Øª
iate
ÚĨØ³ØªØ±
ĠÙĩØ§ÙĬ
ĠPav
Ġplot
Ġcontained
ports
Ġacts
Ġenthus
Ġextent
ĠØ§Ú©Ø³ÛĮÚĺÙĨ
ĠØ®Ø§Ùħ
ĠÙħØ¹Ø§ÙĪÙĨ
ĠÙħØ¬Ø±ÙĪØŃ
ĠÙħØ¬Ùĩ
ĠÙĪÛĮØ¯ÛĮ
Ġstretched
ĠHa
Ġmode
ĠØ¢Ø³Ø§ÛĮØ´
ĠCommunist
09
ÙģØ§ÙĨ
ĠØ±ÙĦ
abilities
Ġspr
anged
ologists
Ġruns
Ġdelighted
ĠDorothea
37
ĠØ®Ø³
ĠØ³ÙĪØ§
omed
Ġefficient
ÙĪÙĦÙģ
ĠØ³Ø±Ø´Ø§ÙĨ
Ġmanager
Ú©ÙĦØ§Ø±
ĠReview
ĠØ¨Ú©ÙĨÙĨØ¯
addy
Ġbrilliant
ØªØ§ØŃ
ĠØ¢ÚĺØ§ÙĨØ³
ĠCop
ĠØ§ÛĮÙĦ
Ġ",
ĠRalph
ĠÚ¯Ø±ÛĮÙĨ
Ġseeking
ĠÙħØ·Ø§Ø¨ÙĤ
Ġreturning
Ġseparated
ĠMcG
Ġinvented
Ġhypot
Par
Ron
ĠÙħØ¨ÙĨØ§ÛĮ
ĠØ´Ø³Øª
Ġhers
ĠFanny
Ġintent
urel
Ġpregn
Ġhelping
Ġdeliber
bour
Ø¨ÙĪÙĨ
ĠØ´Ø·Ø±
Ġlovely
Ġemotional
Ġdemanded
ĠDoctor
Ġobtained
Ġoxygen
Ġnotion
ĠFort
ĠÙĨÙĩÙģØªÙĩ
Ú¯ÙĩÛĮ
ĠØ®ÛĮØ§ÙĨØª
Ġsubjects
Ġinvestment
ĠSancho
nce
Ø§Ø¨ÙĪØ³
ĠMaj
ikh
ĠConf
Ġmasses
ĠMeggie
ĠØ¬Ø±Ø¬
ĠArabic
Ġmysterious
ĠØ§ÙĦØªØŃØµÛĮÙĦ
Ð»
Ø±ÙĪØ±
Ġbones
ĠØ´Ø±Ø§ÙģØª
anab
Ø§ÙĦØªÛĮ
ums
ĠDire
ĠHu
rue
Ġsplend
ĠÙħØ®ÙĦÙĪØ·
ØªÚ©
ĠÚ©ÛĮÙĨÙĩ
ĠÙĨÙħØ§
Ġdatabase
ĠØ§ÙĪØ§Ø³
ĠRostov
ĠØ±Ø³Ø§ÙĨÛĮ
Ġdisag
ĠØ¨ÛĮÙĨÙĨØ¯
Ġscore
ĠØ§Ø¨ØªØ¯Ø§ÛĮ
ĠColonel
ĠÙĨÚ©ÙĨÙħ
ĠØ¨Ø±ÛĮØªØ§ÙĨÛĮØ§ÛĮÛĮ
Ġpossession
ĠAshley
Ġpiano
Ġthy
ĠÙĨÛĮØ³ØªÛĮÙħ
ĠVen
ÙĨØ¬Ø§ÙĨ
ĠØ·Ø±ÙģØ¯Ø§Ø±
Ġcreative
ĠÙħØ¨ÙĨÛĮ
RS
à¸
Ø³Ø¯
ĠØ³Ù¾Ø±
agers
anting
Ġowner
Ġperspective
Ġstrict
ĠÙ¾ÙĪØ´ÛĮØ¯
Ġequally
ĠÙ¾Ø²Ø´Ú©Ø§ÙĨ
ĠÙĪØ¨Ø³Ø§ÛĮØª
Ġidentify
going
Ġthrust
Ġcastle
ATA
Ġfederal
ĠØ³Ø§ÙĤ
ĠCa
Ġslipped
ĠØ§ÛĮØ§ÙĦØªÛĮ
ĠÚ¯ÛĮØ±ÛĮÙħ
Ġstrongly
ĠØ§Ø³ØªØ§ÙĨØ¯Ø§Ø±
Ġmuttered
Suddenly
Ġalle
ĠÙĨÙħØ§Ø²
ĠØ§Ø±Ø§Ø¨Ùĩ
Ġoverw
ĠØ²ÙĨØ§ÙĨÙĩ
ĠØ§Ø¹Ø·
ĠØ°ÙĪÙĤ
ĠÙħÙĦØŃÙĤ
Indeed
oj
Ø±ÛĮØ¯
Ú¯Ø§Ø±Øª
ĠÙĩÙħÚ¯Ø§ÙĨÛĮ
ĠØ¹Ø¨Ø§Ø±
ĠCraw
olnikov
ĠÙħÙĪØ³ÛĮ
ĠBus
ĠÙĤØ±Ø¨Ø§ÙĨ
Ġcommit
askolnikov
Ġemphas
ĠÙĪÙĤØ§ÛĮØ¹
wan
Ġsigh
ĠØ®Ø±Ùħ
Ġdirty
Ø§Ø²ÙĦ
Ġrag
abet
Ġorganized
ĠÚ©Ø±ÛĮØ³
ÙħØ¬ÙħÙĪ
Ġconsumption
Ġmolecules
Ġleaned
Ġaspects
ÙĪØ¶
ĠØ§Ø±Ø¯
ĠÚ©Ø§Ùĩ
nded
ĠÙħÛĮÙĩÙħØ§ÙĨ
Ø±ÛĮØ±
ĠÙħØŃØ§ØµØ±Ùĩ
ĠØ§Ø³ÙħÛĮØª
ĠØ§ÙĩØ¯Ø§
ĠÙĨØ®ÙĪØ§ÙĩÙĨØ¯
Ġbreathing
American
bow
Ġnurse
ĠØ¬Ø§ÙĩØ§ÛĮ
ĠÙĩÛĮØ¬
ĠOper
ĠØ¬ÙĨÙĪÙĨ
Ú©ÙĪÚ©
ÚĨÛĮØ§ÙĨ
vol
ÙĪØ¸
Ġthread
Ġaloud
ĠHill
Ú©ÙĨØ§Ø±
ourse
Ġimagined
Ġphotos
ÙĦÛĮÙģ
ĠBert
ĠGall
Ġjack
ĠÙĨØ§Ø´ÙĨØ§Ø³
ĠArgent
Ġguilty
ĠÚ©Ø±ÛĮØ³Øª
ØªÙĦØ§ÙĨ
Ġfairly
ĠÙħØªØ¹Ø¯Ø¯
ĠØ§Ø³ÙĨØ§Ø¯
ĠÙĨØ±Ø³ÛĮØ¯Ùĩ
Ġfarther
ĠÙģØ±Ø¢ÛĮÙĨØ¯
Sm
heim
Ġhills
uda
ointment
Ġexisted
Ġleadership
Ġtied
reland
ĠÙħÛĮÙĦÙĩ
ĠÙħÛĮÚ¯ÙĪ
Ġholid
ÙĪØ±ÙĩØ§ÛĮ
ĠPower
ĠØ±ÙĪØ²Ú¯Ø§Ø±
Ġqueen
Still
Ġplanets
Ġcryst
Ġmessages
ĠÙĨØ´ÙĨÛĮØ¯Ùĩ
ĠØ¢Ø°Ø±Ø¨
Ġsolemn
ĠÚ©ÙĪØ§ÙĨØªÙĪÙħÛĮ
itage
Ġselect
ĠØ³Ø±Ú¯Ø±Ø¯Ø§ÙĨ
ĠData
inding
ÙĪØ¨ÙĨ
ĠÙģØ±ÙĪØ®ØªÙĩ
Ġrepro
Ġoccas
ĠClass
ĠØ¨Ù¾ÙĪØ´
ĠMonte
ĠÙħØ§ÙħØ§ÙĨ
EG
mat
Ġâī
ĠÙĤØ§Ø¦ÙĦ
Ġvon
ĠØ§ØªÙħÛĮ
ĠØ§ØªÙĪØ¨ÙĪØ³
Ġspo
ĠÛ±Û¹ÛµÛ°
ĠÚ¯ÙĪØ´Ø´
ĠÙ¾Ø±Ø¯Ø§Ø®ØªÙĩ
Ġmirror
orous
Ġthorough
Ġlake
ĠNic
elling
ÙĪØ±ÛĮØ³
ureau
loyd
Ġprec
Ġcolors
ĠØ§ÙģØ²ÙĪØ¯Ùĩ
ĠÙħØªÙĨÙģØ±
Ġroads
ĠØ¨Ø¨Ø±Ùħ
ĠÙħÙĤØ±Ø±Ø§Øª
SM
Ø§Ø¬ÛĮ
Ø²Ø§Ùħ
atures
Ġnet
Ġstair
ĠCir
ĠÚ©Ø§Ø±Ú¯Ø±Ø¯Ø§ÙĨ
ĠØ³Ø§ÙĦÙĩØ§ÛĮ
Ġexperiments
ĠÛ±Û³Û¸Û
Ġrepeat
Ġaccompan
ĠØ¨Ø¬Ø²
ĠÙħÚĨ
ÙĦØ±
Ġbore
pel
ouring
ection
ĠDevelopment
ĠØ§ÛĮØ±ÙĦÙĨØ¯
ĠÙ¾Ø±Ø¯Ø§Ø®ØªÙĨØ¯
Ġdescription
ĠRoberta
uhammad
Ġbat
ĠØ´Ú©ÛĮ
asper
Ġriding
ĠØ§ØŃØªÙħ
ĠØŃØ±Ø§Ø±ØªÛĮ
ĠÛ²Û¹
ĠÙ¾Ø³Ø±Ú©
Again
ĠØ¯ÙģØ§Ø¹ÛĮ
Ù¾Ø²Ø´
Ġpink
ĠØ¨Ø±ÙĨÙħÛĮ
ĠØ¬ÙĪÙĦÛĮ
ques
ĠØ³ÛĮØ§ÙĩÛĮ
Ġproviding
Ġceased
ĠØ¨ÙĦÙĪÚ©
ĠÙĪØµ
ĠÙħÛĮØ¨ÛĮÙĨ
antes
ĠNAS
ĠOf
Ġdisorder
Ġsched
Ġincident
Ġ400
Ġaddressed
ĠÙĤØ¯ÙħÛĮ
ĠÙħØ§ÙĦÚ©
ĠØªÙĤÙĦÛĮØ¯
Int
icon
Ġgig
rose
ira
usive
Ø¢Ø´
ĠØªÙħØ¯ÙĨ
ĠVronsky
ĠÚ©ÙĦÛĮÙĩ
ĠÙħØ§Ø±ÚĨ
67
Ø¯ÙĪÙĦØª
Ġwhist
Ġjoint
ĠÙħØ´Ø±ÙĪØ¨
ĠØ²ÙĨØ¨ÙĪØ±
ĠØªØ´Ø±ÛĮÙģ
Ġstands
ĠColomb
ĠOrder
ĠØ¨Ø²ÙĨÛĮÙħ
Ú¯ÙģØªÙĩ
umble
ĠØ¯Ø§ÙĨØ³ØªÙĩ
Ġadvoc
ĠØªØ±Ø³ÙĨØ§Ú©
Ġterrif
Ù¾ÛĮØ±ÙħØ±Ø¯
ĠJacob
Ġsociet
Ġille
unning
resents
ĠÙĨÛĮØ§ÙģØª
Ú©ÙĦÛĮÙĨ
ĠÙģØ±ÙĪØ¯ÙĪ
ĠÙ¾Ø±ÛĮØ´Ø§ÙĨ
ĠØ§ÙģØ³Ø±Ø§ÙĨ
Ġbranches
ĠÙĩÙħØ§ÙĩÙĨÚ¯
ĠØªÙħØ³Ø®Ø±
Despite
fin
}\
ĠØ¨ÙĩØ´Øª
ĠØ§ÙģØªØªØ§ØŃ
ĠYan
Ġgender
Ġtranslation
Finally
OM
lar
Ø§Ù¾ÛĮ
Ġsighed
Ġsharing
ÛĮÚ©Ø³
ĠØ±Ø³ÛĮØ¯Ú¯ÛĮ
ĠØ³Ø±Ø¯ÛĮ
Ġtelephone
Ġwooden
Ġmeasures
ĠØŃÙĪØµÙĦÙĩ
ureliano
Ø´Ø§Ø±ÛĮ
ĠØ²ÙĦÛĮ
ÙĪÛĮØ²
ĠTim
ĠNether
ĠØ§Ø·Ø§Ø¹Øª
Ġresulting
ĠØ§Ø¨Ø±Ø§ÙĩÛĮÙħ
reedom
ĠÙħØ¯Ø§Ø®
ĠÙĩØ§Ùħ
ller
ource
Ø³ÙħØ³
Ġannual
Ġdivision
Ġera
ĠØ®Ø±ÛĮØ¯Ø§Ø±ÛĮ
Ġcollected
ĠCambridge
Ġdignity
Ø§ÙĨÙĪØ±Ø¯
Ġcot
ancho
Ù¾ÙĪØ³Øª
ĠØ±Ø§ÙĦÙģ
Ġnut
Ġexcess
ĠKen
ĠÙħØµÙħÙħ
nergy
ĠÛ±Û¹Û¹Û´
Ġunconscious
Ġarrang
IG
press
Ø²ÛĮÙĨ
ĠØªØ¨Ø±
ÙĪÙĨØ²ÛĮ
ĠØªØ±Ø³Ùħ
ĠLuc
ĠWater
ĠÙĨØ¯Ø§Ø±Ùĩ
Ġdisg
Ġnights
Ġelim
Ġswitch
Ġvacc
Ġsplit
Please
SE
somet
organ
Ġgift
ØµØ¯ÛĮ
acher
ĠØ·ÙĨÛĮÙĨ
Ġconference
ĠHome
ordan
ĠØ¬Ø§Ø°
ĠÙĦÛĮÙĪØ§ÙĨ
Ġrenew
ĠØ¹ÙģÙĪÙĨØª
Ġfolks
Ġmaximum
ĠØ§ØŃØªÙħØ§ÙĦÛĮ
500
ĠØªÙĦÛĮ
ĠWith
ĠÙĨÙĪØ¢ÙĪØ±ÛĮ
Ġagent
Ġbetray
Ġentry
Ġsupper
Ġ1985
aneously
Ġavo
Ġmotiv
Ġtasks
Ġroughly
ĠØªÙĨÛĮ
ĠØ¨Ø±Ø§Ø¨Ø±ÛĮ
ĠÙģØ¯Ø§
ĠÚ©Ø§Ø±Ú¯Ø±Ø¯Ø§ÙĨÛĮ
ĠÙĨÛĮØ§ÙħØ¯
Ġundert
issions
hess
ĠØ¨ÙĨÙĪÛĮ
Ġartificial
Ø«ÛĮØ±ÛĮ
ĠØ§Ø¨Ø²Ø§Ø±ÙĩØ§ÛĮ
Ġremarkable
Ġlucky
Rumex
ĠÙħØŃØ§Ú©ÙħÙĩ
ĠÙĨØ§Ø²ÛĮ
Ġadapt
ĠØ¨Ø±Ú¯Ø±Ø¯Ø¯
Ġdistributed
Ġspiritual
allel
ĠØ§Ú©Ø«Ø±ÛĮØª
Ġhated
Ġlan
ĠÙĦØ¦ÙĪÙĨ
asty
gger
ĠØ®ÛĮØ§Ø¨
ĠØ¹ÙĩØ¯
mund
ĠØ´ØµØª
ĠÙĤÙĪÙħ
ĠØ¯ÙĪØ§Ùħ
iece
Ġjumped
ĠØ§Ø³ÙĤÙģ
ĠÙħØ§Ø±Ú©
ĠAnn
Ġelev
ĠØ¨Ø´ÙĨÙĪØ¯
ĠØ§ÙĨØ¹Ø·Ø§Ùģ
Ġvehicle
CL
ÙĨÙĪØ±
ÙĪØ¯Ø±
ĠØ¢Ø³ØªÛĮÙĨ
ĠIreland
ĠÚ©ÙĨØ§Ø±Ùĩ
ĠSa
ĠDie
Ø§Ø·Ùĩ
ĠØ§Ø¹ÙħØ§ÙĤ
Ġimpr
ĠØµØ¯Ø§ÙĩØ§ÛĮ
Ġconfident
Ġmarkets
Ġobsc
Ġlaunch
Ġcaptured
ĠÙħØ´ØªØ±ÛĮØ§ÙĨ
ÚĨØ§ÙĤ
Ġlung
ØŃØ¶
unte
ĠÙħØ¹ÙĦ
Ġplastic
enses
ĠÙģÛĮÙĦØ³
ĠØ³Ù¾Ø±Ø¯
ĠÚ¯Ø§Ø±ÛĮ
ĠØ¢ÙĨÛĮ
ĠØªØ±Ø´
Ġresc
Ġgrab
Ġflash
Ġremov
ĠÙ¾ÛĮØ±Ø²ÙĨ
ĠØ³ÛĮØ§Ø³ØªÙħ
Ġvalu
ĠÙĦÙĩÙĪÛĮÙĨ
Ġgaze
ĠØ¨Ø±Ø§Ø³Ø§Ø³
ĠEs
ÙĪØ³Ùĩ
Ġcoal
ĠÚ¯Ø±Ø¯ÛĮØ¯Ùĩ
Ġmedium
Ġannoy
Ġshadows
Ġvictims
ĠØ¬ØºØ±Ø§ÙģÛĮØ§ÛĮÛĮ
Õ¡
Ġbone
ĠØ³ÛĮÙĨÛĮ
asia
ĠÙ¾Ø³ØªÛĮ
amps
ÙĩØ§ÙĬ
okes
apse
ĠÙħØŃØªÙĪ
Ġclust
Ġmoves
Ġattacked
ĠÚ©ÙĪØ±Ùĩ
ĠØ¨ÛĮØ§ÙĪØ±ÙĨØ¯
aniel
Ġgradually
ĠØ³ÙĪØ³ÛĮØ§ÙĦÛĮ
ĠØªÙĪÙĩÛĮÙĨ
rd
orry
Ø·Ø±Ø¨
Ø¶Ùĩ
odor
ĠØªÙĪØ§ÙĦÛĮ
ĠÚ©Ø§Ø±Ø§ÛĮÛĮ
ĠÚ©Ø§Ø±ÙħÙĨØ¯
ronic
Ġeleven
ĠColumb
Ġmiserable
Ġcompanion
Ġspending
ÚĨØ´ÙħÙĩ
Ġsurvive
ĠÙĤÙģØ³Ùĩ
Ġinnocent
gly
Ø¯Ø±ØŃØ§ÙĦÛĮ
ĠØ§ÛĮÚ©Ø³
Ø¢ÙģØ±
Ġsufficient
ĠDeath
ĠØ¬Ø§ÙħØ¹
ollow
Ġdepression
ĠÙĦØ·ÙģØ§
ĠØ¨ÛĮØ§ÙĪØ±Ùħ
ĠØ´Ø¬Ø§Ø¹
ĠÚ©Ø§ÙħÛĮÙĪÙĨ
bird
ĠØ¨Ø´ÙĨØ§Ø³
Ø§Ø±ÛĮÙĨ
level
ĠØ¨Ø±ÚĨØ³Ø¨
ĠÙģØ³Ø§Ø¯
ĠWay
ĠØ³ÙĨÚ¯Ø±
liest
ĠÙħÙĨØªØ¸
Ġ1984
ĠÙħÙĪØ¬ÙĪØ¯ÛĮ
Ġcutting
Ġhopes
La
OU
ĠÙĨØ¬ÛĮØ¨
orse
Ġinher
Ġpretend
ĠØ¨Ú©Ø´Ùħ
ĠÙ¾Ø§Ø±ÙĦÙħØ§ÙĨ
ĠØ¯Ø³ØªÛĮØ§Ø¨ÛĮ
Ġholes
Ù¾Ø§Ø³
ĠØ¨Ø±ÙĩÙħ
uri
Ø§Ø²ÛĮØ±
ĠØªÙĪØ¬ÛĮ
ĠÙĨÙĪØ¨ÙĦ
ĠÚ©ÙĦØ§ÙĨ
ĠØ¨ÙĦØ¯
ĠØ¨ÛĮØ±ÙĪÙĨÛĮ
Ġconfirmed
ĠÙĤØ§ÙĨØ¹
Ġproperly
ĠØ³ÙĪØ²Ø§ÙĨ
Ġbud
Ġmile
ĠÙ¾ØªØ§ÙĨ
cha
Ú¯ÛĮØª
ĠÙħØŃØ±
ĠÙħØ±Ø¨ÛĮ
ĠØ§ØªÙĩØ§Ùħ
Ġspaces
ĠØ¹ÙħØ±Ø´
ĠÙħØ®Ø¯Ø±
Ġlesson
ĠTele
Ġadmitted
ĠØ´Ø§ÛĮØ¹
ĠØ¨Ú¯ÙĪÛĮÛĮÙħ
ĠØ§Ø¯ÛĮ
Ġmos
Ø¬ÛĮØ¯
Ġnurs
ĠØ¬ÙĨÛĮÙĨ
ĠØŃØ§ÙħÛĮ
agram
Ġshift
ĠÙħØ¬ÙĪØ²
ĠØ³Ø§Ø²ÙĨØ¯Ùĩ
ĠØ§ÙĩØ§ÙĦÛĮ
ĠLee
ĠÙħØ²Ùĩ
Ø±ÙĪØ³
pelled
ĠGriff
ĠWhen
eps
Ġkindness
ĠØ§Ø¨Ø±ÛĮ
Ġswall
ĠPolit
ĠØ¨ÙģÙĩÙħØ¯
ĠÙħÙĨÙģØ¬Ø±
Ø§Ú©Øª
hether
ÙĦØ§Ú¯
ĠBal
Ġpoison
Ú¯Ø²Ø§Ø±ÛĮ
ibilities
ĠØ¨ÛĮÙħÙĩ
ĠAlbert
Ġharder
roduction
ĠAzerbai
Ġtheories
Ġecho
adi
ĠCosette
Ġload
Ø´ÙĨÚ¯ÛĮ
Ġrecol
Ġevalu
ĠØ±ÙĪØ´ÙĨÛĮ
ĠØªØ³ÙĦÛĮ
ÙħØ·ÙħØ¦
anabus
ST
ĠØ¨Ø§ÙĩØ§Ø´
arted
ĠEp
Ġheaded
ĠÙħÚ©Ø«
Ġincreases
ĠÛ±Û¹Û¹Û±
Ġgazed
ĠØ¢Ù¾Ø§Ø±ØªÙħØ§ÙĨ
38
ØªÙĪÙħ
ĠÙħÚ©Øª
ĠØ±Ù¾
Ø§Ø¯Ø§Ø±ÛĮ
ĠØµÙĦØ§ØŃ
ĠPC
Ġabroad
Ġloves
Ġenemies
Ġcommission
Ġdistur
Ġsurvey
Ġveget
ĠPeace
Ġderived
Ġvariable
ĠNicholas
would
ØªÙĪØ³
inction
ĠÙĨÚ¯Ø§Ø±ÛĮ
ĠØ®ÙĪÙĨÛĮ
ĠÙĤÙĦÙĩ
Ġate
Ġpeasant
ĠÙħØ§ÙĩÛĮØª
Ġsinger
ĠParliament
Ø®ÙĪØ¯Ø´
scape
Ġmidst
Ġabandoned
ĠDemocratic
Ġintelligent
Û²Û°Û±Û
ns
inian
ĠÙ¾ÙĪØ±
icip
ĠØ¨Ø±Ø§ÙĪÙĨ
ĠÚ¯Ø°Ø§Ø±Ùħ
ĠØ¯ÙĦØª
Ġdiff
ĠØ¢Ø±Ø§ÛĮØ´
Ø¨Ø§Ø±Ø§ÙĨ
Ġbadly
ĠÚ¯Ø´ÙĪØ¯Ùĩ
Ġwaters
ĠÙħØªØ´Ú©ÙĦ
ĠÙĪØ§Ø³Ùĩ
ja
Ø¯ÙĪÙĨ
ĠØ³ÙĪØ³
ĠØ¨ÛĮØ§ÛĮÙĨØ¯
ĠØ§ØŃØ§Ø·Ùĩ
ĠØ§ÙĨØ¬Ø§ÙħØ´
ĠØ¨Ø§ÙĦØº
Ġretired
Ġapartment
ĠØ¬ÙĦÙĪØªØ±
ĠÚ¯Ø±ÛĮÙģÛĮØ«
Ġofficially
Ġlegisl
ĠØ§Ú©ØªØ´
Ġoverwhel
Ġtent
Ø¨ÛĮÙħ
ito
Ġmouse
ĠØ¯ÙĪÚ©
pted
Ġsyntax
ĠFederal
ĠFrancisco
ĠÙħÚ©Ø±
ÙģÙĪÙĨ
ĠÛĮØ³
eters
ĠØ·Ø¹
plied
Ġinvisible
ĠÙħÙĩÙħØªØ±ÛĮÙĨ
ĠÙĪØŃØ´ØªÙĨØ§Ú©ÛĮ
Ġissued
Ġmerch
Ġmissed
Ġsending
ĠEgyptian
Ġphrase
tes
ØªÙĪÙĦÛĮØ¯
ĠRoc
ĠÚ¯Ø±Ø§ÛĮØ´
ĠØ¨Ø§Ø²Ø§Ø±ÛĮ
Ø²ÛĮØª
Ġasks
Ġminister
Ġnecessarily
ĠØ´Ø·Ø±ÙĨØ¬
)"
Alex
ĠØ¯Ø§ÙĦ
Ġwolf
Ø§ÙĦÙħÙĩ
ĠØ§ÛĮÙĨÚ¯ÙĪÙĨÙĩ
ÙĨÛĮÙ¾
Ġtrained
ĠØ®Ø§Ø±Ø¬Ùĩ
ĠÙĪØ³ÛĮØ¹ÛĮ
ĠØ¯ÙģÙĨ
Ġargue
ĠØºÙħÚ¯ÛĮÙĨ
26
ÙĪÙĪ
ĠØ§Ú©ÙĪ
ĠâĨ
ØµØ¯Ø§
ĠØ¹Ø§ÙĤØ¨Øª
ĠPacific
Ġexceed
ĠÛ±Û²Û
ĠØ¨Ø¯ÙĪ
ĠÙĨØ§Ú©
Ġprices
ĠØºÛĮØ±ÙħÙħÚ©ÙĨ
ĠÙĨÛĮØ§Ø²ÙĩØ§ÛĮ
Ġconfusion
Ġeditor
ĠØ±Ø§ÛĮÚ¯Ø§ÙĨ
ictionary
Ġdocuments
ĠÙħÛĮØ¯ÙĪÙĨ
Ġrecommend
Sam
Ø¯ÙĨÛĮ
Ġsne
Ġbatt
ĠØ³Ø§Ø²Ùĩ
Ø®Ø§ÙĨ
ĠÙģÛĮÙĨ
ĠØ¢ÙĨØ¬Ø§ÛĮÛĮ
achel
ĠCrist
Ġrab
ĠDick
ĠVe
ĠØªÙĤØµÛĮØ±
Ġrepresents
ĠØ¢ÙħÙĪØ®Øª
ĠRoad
Ret
Ġbeard
ĠÙħÙĨÙħ
ĠMot
Ġrational
ĠÙħØ¹Ø§Ø´
ĠØ®ÙĪØ§Ø³ØªØ§Ø±
Ġinstruction
Ġdifferently
ĠQur
ĠAss
ĠØ¯Ø´ÙĪØ§Ø±ÛĮ
ĠØ±ÙħØ²ÛĮ
ĠIvanovna
Ġacquaintance
bell
wa
Ú©ÙĪØ¯
ĠÚ©Ø§ÙĨØ¯
ĠØªØ¹ÙĩØ¯
ĠØ¢ÙĩÛĮ
Ġinev
Ø¶ÙħÙĨ
ØºØ§ÙĦÛĮ
uns
ĠHoly
Ġloving
aki
Ġadults
Ø£ÙĦÙĩ
gging
Ġopposed
ĠÙĪÙĤÙģÙĩ
Ġnormally
ĠØ¨ÙĪØ³Ùĩ
ĠBooks
Ġdreadful
ĠÙħÛĮØªÙĪÙĨÙĩ
ÙħÚ©
uten
ĠAth
ĠÙħÙĤØµÙĪØ¯
ĠØ¬Ø²ÙĪ
Ġmonitor
Ġexcuse
ĠFlor
Ġcharming
ĠÚ©Ø§ÙĪØ´
Ġintellectual
Ã±
ÙĦØ±ÛĮ
Ġdared
ĠMax
olars
ĠÙģØ±ÙĪØ±
ĠØ§ÙĦØ¢ÙĨ
ĠÙħØ±Ø¯ÙħØ§ÙĨ
Ġdelivered
Ġtests
Ø®ÙĪØ§Ø³ØªÙĩ
Ġrecognition
ĠÙĨØ±ÙģØªÙĩ
Ġattempted
ĠØºÙĦØ¨Ùĩ
ĠØ¢ÙħÙĪØ®ØªÙĩ
ĠTechnology
Ø±Ø§ÙĨÙĩ
Ø®ÙĦØ§
Ġlone
Ġlord
ĠØ¨Ø§Ú©
olves
ĠØµØ±ÛĮØŃ
Ø§ÙĤØ¯
alling
Ġfled
ĠØ§Ø¹Ø±Ø§Ø¨
ĠÙĤØ·Ø±
ĠÙĦØ§Ú©
ĠØ¨Ø§ÙĨÙĪÛĮ
ÛĮÙĨÚ¯ØªÙĨ
Ġcomplexity
III
Ġinformed
Res
Sir
VD
Ġsadd
ĠØ¯Ø±ÙĪÛĮØ´
ĠÙĤØ§Ø±
urther
ĠÙħÙĨØ²
ĠØ³Ø±Ø§Ø²ÛĮØ±
ardens
Ġowners
Ġdecade
195
ĠØµÙģØŃØ§Øª
Ġcommander
Ġimmediate
ĠØ¹Ø°Ø±
44
Ġreaching
ĠGould
Which
ĠØ§ÙĪÙĦÙĪÛĮØª
Ġflung
ĠØ¨ÙĦÙĨØ¯ØªØ±
ĠØªÙĪÙĨØ³Øª
Ġinvolve
Ġmechanical
ĠÙħØ±Ø§Ø¬Ø¹Ùĩ
Ġtissue
ĠÙĪÛĮØªÙĨØ§Ùħ
zz
ÛĮØ³
ÙĨØ´Ø§ÙĨ
Ø¹Ø§ÙĦÛĮ
ÙħÛĮØ²ÛĮ
ĠØ¯ÙĪØ²
ĠØªØ±ÙĨ
ĠÙģØ±Ø´ØªÙĩ
ĠTal
ĠÚ©Ø´ÙĨØ¯
ĠØ¨Ú¯Ø±Ø¯
ĠÙĦÛĮØ¨Ø±
ĠTurks
Ġliberty
Ġvulner
ĠÙģØ§Ø¬Ø¹Ùĩ
Ġgrateful
rations
Ø§ÚĨ
ĠÙ¾ÙĢ
acious
umps
ĠGames
Ø¨Ø§Ø³ÛĮ
Ġprepar
ĠArts
ĠÛ±Û¹Û¹Û¸
ĠÚĨØ±Ø®ÛĮØ¯
Ġtypical
piration
ĠAlexandrovitch
ĠÛĮÚ©Ù¾Ø§Ø±ÚĨÙĩ
Barb
Ø±Ø¦ÛĮ
asingly
ĠDec
ĠØµØŃØ±Ø§
ĠÙĨÙģÙĩÙħ
ollowing
ĠÚ©Ø±ÛĮØ³ÙħØ³
ÙħØ³Ø¦
Ġbiology
ĠÚ©Ø´ØªØ§Ø±
Ġcapture
kward
ÙĨÙĪØ¹
ĠÙ¾Ø§ÙĩØ§ÛĮØ´
irs
Ġven
ardon
ĠØºØµÙĩ
ĠJones
ĠOut
Ġanymore
ĠØ§Ø¯Ø§Ø±ÛĮ
ĠØ§ÙģØªØ§Ø¯Ùħ
Ø¬ÙĪØ§Ø¨
ĠØ³Ø§ÙĨØªÛĮ
ĠÙĨÙĪØ²Ø¯ÙĩÙħ
Ġcigare
Ø´Ø§ÛĮ
ĠÙ¾Ø§ÛĮØ§ÙĨÛĮ
Ø§ÙħÛĮÙĩ
ĠÙĨÙĤØ§Ø´
ĠAsian
Ġvalley
ĠÃĹ
ĠÙħØ·ÙħØ¦ÙĨÙħ
ĠØ´ÛĮÚ©Ø§Ú¯ÙĪ
ĠCrawford
BI
Ú¯ÙĦÛĮ
Ø®ÙĪØ§ÙĨÛĮ
ĠØ¯ÛĮÚ©
ĠEduc
ĠArthur
Ġexplore
Ġfalls
ĠØ¶Ø±ÙĪØ±Øª
Ġinitially
ĠØ¬Ø§Ø¯ÙĪÚ¯Ø±
ĠÚ¯ÛĮØ±Ùĩ
ĠIBM
Ġshore
Ġdiscipl
Ø´ÙħÙĨØ¯
ĠØ§Ø±ØªÙĤØ§
evitch
ĠØ±ÙģØ¹
Ġimplementation
ĠØªØ¹Ø·ÛĮÙĦØ§Øª
ÛĮÙĪ
Ø±ÙĩØ§ÛĮ
Ġhob
ĠØ¢ØªÙĦØ§ÙĨ
ĠØ¹Ø¬Ø¨
ĠRam
Ġcompound
ĠÙħØ¯Ø§ÙģØ¹
ĠØ§Ø¨Ø²
Ġfiles
Ġinfl
Ġexciting
ĠØ§ÙģØ³Ø±Ø¯Ùĩ
Ġweakness
ĠØµØ¯ÙħÙĩ
07
PR
Sure
cr
Ġvig
ĠÙħØ³Ø§ØŃØª
Ġinstantly
Ø§Ø¦ÙĪ
ĠÛ³Û°Û°
enny
ĠÚ©Ø§ØºØ°ÛĮ
Ġpolicies
Ġcustomers
Ġconsequences
Ġultimately
Out
Ã¢
Ø¨Ø³ØªÚ¯ÛĮ
ĠØªØ±Ø§Ùģ
arling
Ġlamp
ĠÙģØ±Ø·
Ġbub
ĠÚ©Ø§Ø²ÙĪØ¨ÙĨ
ÙĪÙĪØ¯
Ú¯Ø´Øª
ĠÙĪØ®
Ø§ÛĮØ§ÛĮ
ĠÙģØ§ÙĤØ¯
ĠÙħÙĨØ¹
ĠØ±ÙĪØ§ÛĮØª
ĠÚ¯ÙģØªØ§Ø±
ÙħÙĪØ¶
ĠØ±ÛĮÙĩ
Ġbenefits
ÙģØ±ÙĪØ¯ÙĪ
ĠJesus
Ø³Ø±Ø§
Ø§ÙĨØ¯ÛĮ
ĠDam
icted
ĠØ§Ø¯ØºØ§Ùħ
ĠShannon
cription
Ġwaist
ĠÛ±Û¹Û¹Û¹
ĠBelg
Ġdebate
ĠÙĨØ§Ø¯Ø±Ø³Øª
ĠÙħÙĪØ§Ø¸Ø¨
pers
Ø¨Ø±Ø§
ĠRen
Ø§ÛĮÙĨÙĩØ§
ĠÙĨÛĮØ§ÙĪØ±Ø¯
ĠØ®ÙĪØ§ÙĨØ¯ÙĨØ¯
ĠÙħÛĮÚ©ÙĨÙĨ
Ġdiplom
Ø±Ø§Ø³Ú©ÙĦÙĨÛĮÚ©Ùģ
Ġofficials
Ġprincipal
audi
Next
ĠVietnam
Ġoh
ĠÙĨØ®ÙĪØ±Ø¯Ùĩ
ĠÙĩØ§Ú¯
ĠÙĦØ¨Ø§ÙĨ
Ġsugar
ĠFair
Ġdish
Ġimpress
ĠØ´Ø§ÙĨØ²Ø¯Ùĩ
Ø¨Ø¹ÙĦØ§ÙĪÙĩ
ĠØŃÙĪØ§ÙĦÛĮ
Ġwars
ÙĪÛĮØ¬
ĠCro
Ø¯Ø±ÙĪÛĮØ´
ĠTra
ĠHagrid
Ġupset
azar
ĠØ¯ÙĨÛĮØ§ÛĮÛĮ
ĠConst
ĠØ´ÛĮØ±ÛĮÙĨÛĮ
ĠÙĪÛĮØ±Ø§ÙĨ
ĠØ¨ÙħØ§ÙĨÙĨØ¯
ĠÙħØ¶Ø·Ø±Ø¨
ÙĦØ§ÙĨØ¯ÙĪ
Emma
49
Ġdining
ĠØ§ÛĮØ§Ùħ
avig
ĠØ³ÙĪØ®ØªÙĩ
ĠÙĨÙĤØ¶
Ġacceler
Ġhelps
ØªÙħØ§Ø³
Ġfinds
ĠØ¨Ú¯Ø°Ø§Ø±ÛĮÙħ
ÙħØ§Ùĩ
erate
ĠØŃØ§ÙħÙĦ
ĠAge
ĠØ¯Ø§Ø¯ÛĮ
ÙĪØ§Ø´
ĠØ´ÙħØ±Ø¯
ĠØ§Ø¹ÙĦ
iki
Ġprovin
ĠÛ±Û¹Û¹Ûµ
Ġargued
Ġspecifically
ĠØ¯Ø§Ø¦ÙħØ§
making
Ġpist
ĠØ¨Ø±ÙĪÙĨ
aco
ĠBah
eman
ĠLarry
ĠÙħØ¹Ø§Øµ
Ġbrings
ĠØ¬Ø§Ø¦ÛĮ
Ġexpans
ĠMaria
ØªØµÙħÛĮÙħ
ĠÚĨØ§Ø±ÚĨÙĪØ¨
ĠØ¨ÛĮÙĨØ¯Ø§Ø²Ø¯
Ġemployed
ĠØ§ØªÙħØ§Ùħ
ĠØ´Ø¬Ø§Ø¹Øª
Ġnearer
ĠGeorgia
des
ä¸
ØµØ§Ø±
igration
ĠÙĤØ±ÙĪÙĨ
Ġcondem
ĠÚ¯Ø´ØªÙĨØ¯
ĠØ¯ÛĮÙĪØ§Ø±ÙĩØ§ÛĮ
ni
ĠØ¹Ø«
agg
Ġsche
ÙħØ¯Ø§Ø¯
ĠØªÙĪÙĨØ³ØªÙħ
Ġcorrid
cerning
Ø§Ø¯ÙĪØ§Ø±Ø¯
Ġmagnetic
ĠÙ¾ØªØ§ÙĨØ³ÛĮÙĦ
ĠÙħØ§ÙĨÛĮ
ĠØ¨Ø±Ø§Øª
ÙħÛĮØ§ÙĨÙĩ
ĠØªØ¹ÙĦÛĮÙħ
ĠØŃØ³ÛĮÙĨ
Ġgenerate
Ú©Ø§Ø³ÛĮ
Ġawkward
ĠÙħØ§Ø¯Ø±ÛĮ
Ġsettle
Ġassem
ĠArkady
itzerland
DL
UN
Ø±ÙĪØ¯
Ø¯Ø³ØªÛĮ
Ø®ÙĦ
ÛĮØ±Ø§
ĠÚ©Ø§Ø±Ú¯Ø§Ùĩ
emp
Ġsheet
ÙĬØ§
ĠKitty
Ġentering
Ġ1988
Ġabsurd
ĠØ¨ÙģÙĩÙħÛĮÙħ
Something
Ġconstitution
ĠÙħØ°Ø§Ú©Ø±Ùĩ
ĠPetersburg
lan
ÙĪØ¦ÙĦ
Ø³ÙħØ§ÙĨ
ĠØ³Ø§Ø±
ĠBern
osure
ĠGre
Ġteen
Ġ1945
Ġpaying
ĠØªÛĮØ±Ø§ÙĨØ¯Ø§Ø²ÛĮ
Ġescaped
ĠIsraeli
Ġessentially
Ġfulf
orr
ĠAgency
ĠØ±ÙĪØ¨Ø§Øª
Ġserving
Ġproducing
ĠØ§ÙĨØ¯Ø§Ø®ØªÙĨØ¯
ĠÙĨÙħØ§ÛĮÙħ
ĠMeg
ĠØ§ØµÙĦØ§ØŃØ§Øª
Ġtables
Ø³Ø·
orus
aga
ÙĩØ§ÛĮÙħ
Ġouter
ĠÚ©ÙħØ±
ĠØ¢Ø±Úĺ
Ġsilk
ĠAR
Ø¨Ø±Ø®
Ġconscience
ĠØ®Ø¨Ø±ÙĨÚ¯
Ġslee
ĠÙĩÙĨØ¯ÙĪ
Ġexception
ĠØªØ§ÛĮÙħØ²
ture
ystem
Ø¨Ú©
ØµÛĮÙĦÛĮ
ĠØªÙħØ¬ÛĮØ¯
Ġgranted
ĠØ§Ø¨ÙĦÙĩ
ĠÙħØ´Ø®ØµÛĮ
ĠØ¬ÙĨØ³ÛĮØª
Ġà®
36
DE
coh
ÙģÙĪÛĮ
onom
ĠØ¨Ø§Ø·
Ø§ÙĦØ§
ĠÚĨØ§Ùĩ
ĠÙħÙĨØ¹Ú©Ø³
ĠMur
ĠÙħØŃØ±Ú©
ĠÙ¾ÛĮØ´Ú¯ÛĮØ±ÛĮ
ĠØ±ÙĪØ²ÙħØ±Ùĩ
ĠZeal
Ġsounded
Ġconnections
Ġlinked
Ġprivile
ĠØªØ§ÙħÛĮÙĨ
anglars
Ø¦ÙĪØ±ÙĦÛĮØ§ÙĨÙĪ
ÙħÙĪØ²
real
ĠÙ¾Øª
ĠIATA
ammed
ĠMaster
ĠØ¨ÛĮÙĦÛĮ
about
Ġjail
Ġadj
Ġcontaining
ĠChampionship
Ġprominent
ĠØ¹Ø¶ÙĪÛĮØª
Ġcandle
Ġgravity
Ġacademic
Had
ÙħÚ¯ÛĮ
ĠÙĩÙĪØ±
Ġcogn
ĠÚ¯ÙĪÙĨ
roll
ĠDark
ĠFire
ĠJon
ĠJava
looking
ĠØ³ÙĪØ¦ÛĮØ³
ĠÙħØµÛĮ
ĠÚ¯ÙĪÛĮØ§
ĠCarol
ĠÙ¾ÙĩÙĦÙĪ
ĠÙĪØ¬Ø¯Ø§ÙĨ
Ġbrave
Rem
Ġbasket
stan
ĠSanta
ĠÙģØ±Ø¶ÛĮÙĩ
ĠÙĩØ±Ú©Ø³
asted
pled
ØªØ§Úĺ
ĠØ§Ø¹ØªÙĨØ§ÛĮÛĮ
Ġelectro
Ġ1940
Ġstatistics
Ġportion
Ġaccounts
Ġinfluenced
Ġbelonged
epend
greg
ĠÙħÛĮÙħÙĪÙĨ
ĠØ¯Ø±Ø§Ùħ
imens
ĠAz
ĠMah
ĠØ·Ø¨Ø¹
Ġdeeper
ĠÚ¯ÙģØªÚ¯ÙĪÛĮ
Ġprecious
Ġremove
Ġblocks
Ġcontinues
Ġjudgment
Ġfolk
Ġconcluded
ĠØ§ÙĪØ§Ø³Ø·
Ġbowed
Ġgreet
Ġupstairs
inder
ĠØ¨Ø²Ø±Ú¯Ø³Ø§ÙĦ
Therefore
Ġinsult
Ġeconomics
Ġengineer
ĠØ§ÙĨÚ¯Ø´ØªØ§ÙĨ
Ġcommunicate
Ġpreferred
ĠØ§Ø³Ú©Ø§ØªÙĦÙĨØ¯
Ġunusual
krain
ÙħØ³Øª
Ú©Ø§Ø´
Ġcave
Ø¬Ø§Øª
ĠÙĨÛĮÙĪØ²
Ġplenty
Ġpermission
ĠØ³ÙĦØ·ÙĨØª
ĠGandalf
Ġsacrifice
ĠZealand
ĠÚ¯ÙģØªÛĮÙħ
ĠWall
ĠØ¬ÙĩØ´
ĠØ³Ø§Ú©ÙĨØ§ÙĨ
ĠAlice
ĠØªØ®ÛĮÙĦ
Ġdestruction
Ġï¼
Ġneurons
strode
PL
Ġbom
ÙĪØ¯ÙĨ
ÙĪÙĦØ§ÙĨ
ĠÙħÙĪØ§Ø±Ø¯ÛĮ
ĠBu
ĠDa
ĠÙĨØ§ÙħÛĮ
ĠØ¨Ø®Ø´Ø¯
Ù¾ÛĮÚĨ
ĠØ¨ÙĪØ¦
ĠÙ¾Ø§Ø±Ø§Ùħ
ĠÚĨØ³Ø¨ÛĮØ¯Ùĩ
Ġhydrogen
TA
Ø¯ÛĮÙħ
ĠØ¨Ø§Ø®Øª
Ġupd
ĠVillefort
Ġovercome
awa
Ġcolour
nape
Ġlessons
Ġ1968
ÙĤØ§ÙĨÙĪÙĨÛĮ
ĠÙħØ¨ÙĩÙĪØª
Ġrarely
Right
Ø²ÙĪÙĨ
Ġsou
ĠØµØ§ØŃ
ĠBell
ĠTay
ĠField
ĠØºÙĨÛĮ
ĠÙħØ³Ú©ÙĨ
ĠØ´ÙħØ§Ø±ÛĮ
ĠÙģÛĮÙĦØªØ±
Ġdefine
Ġ1987
ĠÙħØªÙģÚ©Ø±
ĠÙģÙĦØ²ÛĮ
Ġfortun
Ġresource
Ġconclusion
ĠGriffiths
since
inity
Ø§Ø±Ø¯ÛĮÙĩ
Ġcensus
Ġment
ĠØ¢ÛĮÙħ
Ġinsect
Ø§Ø¯ÙĨ
ĠØ¯ÛĮÙĪØ§Ø±ÛĮ
ÙĦØ¨Ø§Ø³
Ġpointing
Ġtreasure
Ġcontrovers
ĠÙħÙģØ§ÙĩÛĮÙħ
Ġattempts
ĠÙħØ¯ÛĮØ±Ø§ÙĨ
Ġpunishment
ĠØ¯Ú©ÙħÙĩ
Ġchallenges
ØĮ
Ġtu
ĠØ§Ø³ØªØ±ÛĮ
ĠMir
Ġselling
ĠJun
Ġresolved
ĠØªØŃÙĪÙĦ
ĠStat
ĠØ¯Ø§ÙĨØ´Ø¬ÙĪ
ĠØ§Ø¨Ø¹Ø§Ø¯
ĠÙģØ±ÙħØ§ÙĨØ±ÙĪ
ĠTwitter
Ġterritory
Ġefficiency
Ġinhabitants
ĠØ¹Ø¨Ø¯Ø§ÙĦ
Ġta
ĠâĢį
ĠÚ©ÛĮÙħ
Ġwound
oric
ĠÙ¾ÙĪØ²
rily
rive
ĠPy
Ġrural
eline
ĠÙħØ³ÙĦÙħ
ĠØ¨ÙĨØ´ÛĮÙĨØ¯
Ġsimult
Ġ185
ĠØªØ§Ø¨Ø´
ĠØ¹ÙħÙĪÙħØ§
ĠPlay
Û±Û¹Û¹Û
Ġpurposes
ÙħÙĪÙĦ
ĠÙħØ²Ø§Ø±
Ġhiding
ĠØ¯Ø±Ø¨
Ġmud
arant
ĠÚ¯ÙĪÙĦ
Ġnaked
ĠØ²Ø§ÛĮ
ĠØ²Ø¨Ø§ÙĦÙĩ
umin
Ġrage
Ġvic
ĠÙĨÛĮØª
ideos
ĠÙħØ¹Ú©ÙĪØ³
ĠÙħØ³Ø£ÙĦÙĩ
angle
ĠØŃØ³Ø§Ø³ÛĮ
Ġregist
ĠBlue
Ġconsiderable
ĠÙħÚ©Ø§ÙĨÛĮÚ©ÛĮ
Ġethnic
garet
Ġpow
Ø¬ÛĮÙħ
ĠMoh
ulating
ĠÙĦØ²ÙĪ
ĠÙħØ±Ø¯Ø§ÙĨÙĩ
ĠÙħÙĦØ§ÙĨÛĮ
Ġexpert
Ġpositions
Ġvisitors
Ġhospit
ĠØ¯Ø§Ø¦Ùħ
Ġadventure
Ġcord
Ġbon
ÙĪØ¯Ú¯ÛĮ
Ø§Ø¯Ø´
ilib
ĠØ³Ø§Ø¹Ø§Øª
ĠLeban
Ġvirtual
ĠØ¹Ø±Ø¨Ø³ØªØ§ÙĨ
ĠKorean
Ġgods
ĠØ¹ÙĦØ§ÙĤÙħÙĨØ¯
Bab
aver
ĠØ¨Ø±ØªØ±ÛĮ
Ø§ÙĤØ¨
ĠÙĤØ±Øµ
rub
ĠVin
ĠØ¹ÙĨÚ©Ø¨
ĠØ¹ÙħÙĦØ§
ĠÛĮØ§Ø¯Ø´
Ġexplo
Ġtransp
ĠÙĩÙħØ§ÙĩÙĨÚ¯ÛĮ
ĠÙħØŃØªØ±Ùħ
":
high
Ġwretched
ĠØ´Ø´Ùħ
Ġstraw
ĠMess
ĠBattle
ĠÛ±Û´Û
Ġknee
ĠØ§ÙģÙĤ
ĠØ¯ÛĮØ¯ÛĮ
ĠØ§Ø¨Ø¯
ĠØ§ÙĨØ¯Ø§Ø®ØªÙĨ
Ġwarning
ĠØ¨Ø§ÙĨÙĪ
ĠÙ¾ÙĦÚ©
ĠØ§ÙħÚ©Ø§ÙĨØ§Øª
ĠØ§Ø«Ø§
Ġmisery
Ġneighbors
Ġacquired
Ġopportunities
Ġearnest
ĠÙĪØ·ÙĨ
ĠØªÙĪØ±ÛĮ
Ġrent
ÙĪÛĮÚ©
ĠBre
ÙħÙĨØ§Ú©
ÛĮÙĦØ¯
Ġunion
Ġfeared
Ġcheap
ĠØŃÛĮØ«
ĠÙħÙĩÙħØ§ÙĨØ®Ø§ÙĨÙĩ
ĠÙĨÚ¯ÙģØªÙĩ
don
ĠØªØ¨Ø§Ø±
ĠØ´Ø±Ùģ
ÚĨØ±
Ġstored
ĠTok
ogen
ĠOs
ĠØªØ§Ø¨Ø³ØªØ§ÙĨÛĮ
ĠØ®ÙĪØ±Ø§Ú©
ĠÙĨÚ¯Ø±ÙģØªÙĩ
ĠØ³Ø§ØŃÙĦÛĮ
Ġglasses
Ġconcerns
Ø§ÙģØ±Ø§Ø¯
ĠØªÙĪØ¬ÛĮÙĩ
rad
ĠÚ©Ø±ÙĪÙħ
Ù¾Ø§ÛĮÙĩ
ĠÚĨØ§ÙĨÙĩ
ĠØ²Ùĩ
ĠDi
igan
ĠEN
ĠÚ¯Ø±Ø¯Ùħ
ĠÙģÛĮÙĦÙħÛĮ
comm
ĠÛ±Û¹Û¹Û¶
Ġdescribes
ĠØ¨Ø±Ø³ÛĮÙħ
ĠÙħÛĮØ¯Ø§ÙĨØ³Øª
Ġdivor
âĢľ
ÙħØ´Ú©ÙĦ
ĠÙĩÙĪØ§Ù¾ÛĮÙħØ§ÛĮ
Ġintroduction
Ġworthy
ĠÙħØªÙħØ§ÛĮØ²
ĠÙħØ¯Ø§Ø®ÙĦÙĩ
AA
rot
Ø¯ÙĦÛĮÙĦ
ĠØ¢ÙĦÙģ
Ġinex
ĠØ¨Ø±ÙĤÛĮ
ĠØ§ÛĮÙģØ§
Ġrac
Ġsmoking
ĠØ·Ø±ÙģÛĮ
obody
ĠØ³Ø§Ø²ÙħØ§ÙĨØ¯ÙĩÛĮ
Ġcausing
ĠØ¹ÛĮØ¨
Ġfirmly
ĠSwedish
Ġsample
Fl
Ġdiet
ĠDou
ĠØ§ÙĦØ¬Ø²
ĠØªØ£Ø®ÛĮØ±
Ġinsisted
Ġopposition
Ġsooner
related
Ġmounted
Ġprayer
ĠÙħØŃÙĤÙĤ
Ġwishes
ĠÙħØ¹Ø¬Ø²Ùĩ
ĠâĢł
ĠÚĨÙĦ
ĠÛĮÚ©Ø¨Ø§Ø±Ùĩ
ĠRh
were
Ġserver
Ġrecover
ĠÚ¯ÙĪØ§ÙĩÛĮ
Ġraising
ĠAllah
Ġbirthday
ĠØ§ÙħØ±ÛĮÚ©Ø§
ÙħØ¬ÙħÙĪØ¹Ùĩ
Hist
col
pat
ÙģØ§ÙĨÛĮ
stra
idering
ĠAN
Ġleaf
ÙĨØ§Ø¹
Ġformation
ĠØ¯ÙĪØ³ØªØ§ÙĨØ´
Ġwisdom
ĠÙ¾ÛĮØ¯Ø§ÛĮØ´
Ġabstract
ĠØ¬Ø§Ø°Ø¨Ùĩ
ĠØ¨Ø§ÙĨÚ¯
Ġcash
urday
ĠBet
ĠØ¯ÙĪØ±Ø¯Ø³Øª
Ġjoke
ĠØ¯ÙĦØ§Ø±ÛĮ
ansas
Ġskill
ĠÛ±Û¹Û¹Û²
Ġobserve
Ġsalt
Ġcouncil
Ġpossessed
Among
Ġhunger
ĠÙħØŃØªÙĪÛĮ
ĠAriza
ĠÙ¾Ø±ÙĩÛĮØ²
Ġcircuit
ĠNASA
ĠØªØ±Ø§ÙģÛĮÚ©
Ġcure
ĠAlyosha
andal
Ġlip
ĠRom
ĠTony
Ġchairs
inton
ĠØ§Ø¯ÙħÙĪÙĨØ¯
ĠØ§Ø¨Ø¯ÛĮ
Ġrefuse
Ø³Ø§ÙģØª
Ġdrift
Ġradiation
Ġdomain
ĠØ®Ø§ÙĪØ±ÙħÛĮØ§ÙĨÙĩ
Ġsatellite
ĠPhilosophy
Ġpermanent
mony
nds
Ø¬ÙĪÛĮÛĮ
Ø§Ø²ÙĨ
ĠBase
osom
ĠØºØ¨Ø§Ø±
Think
ĠUnder
ĠØªÙĨÙģØ³
Ġlasted
ĠDev
Ú©Ø´ÛĮØ´
ĠÙĨØ§ØªÙĪØ§ÙĨ
Ġuncomfort
ĠØ¨Øº
ouri
ĠØŃÙģØ±Ùĩ
ĠMuhammad
operation
ĠLes
Ġindign
ĠÚĨØ±Ø®Ø´
ĠGuard
cyclopedia
ipt
Ġcraw
Ġoffe
Ø¹Ø²
ĠÛĮÙĤÙĩ
ĠÙģÙĪ
ĠMas
aka
ĠØ§Ø±Ø«
ĠÙħØ¹ÙĨÙĪÛĮ
Ġvolunte
mers
Ġwing
Ú¯ÙĪØ±
Ġtower
asley
ĠØ³Ø±Ø´ÙħØ§Ø±ÛĮ
Ġpool
ØªØ§Ø¬
Ġdistract
Ġ75
Ġtowns
Ġenjoyed
ĠÙ¾ÙĪØ´Ø§ÙĨØ¯Ùĩ
ĠØ¨Ù¾Ø±Ø¯Ø§Ø²Ø¯
ĠØ¨Ø±Ø§ÙĬ
ĠØªØ¨ÙĦÛĮØºØ§Øª
Ġrailway
Ġensure
ÙĨØ§ØªØ§Ø´Ø§
ĠØ§Úĺ
Ø²Ø¨ÙĪØ±Ú¯
isa
itate
ĠØ§Ø³ØªÙĪØ§Ø±
ami
ĠGh
ĠØ¬Ø§ÙĨØ¨ÛĮ
Ġequation
zech
ĠÛ³Û±
ĠÙĨØ§Ø®Ø¯Ø§
ĠØ±Ø³Ø§ÙĨØ¯Ùĩ
Ġinnovation
ĠØ§Ø°ÛĮØª
Tube
ĠId
ĠAI
ĠBag
aubon
Ġreputation
ĠÙħØ³ÙĦÙħØ§
Ġemerged
ĠKhan
ĠØ¯ÙħÙĪÚ©Ø±Ø§ØªÛĮÚ©
friend
kind
made
ÙĨØ§Ø³
herent
ÙģØ§Ø±
Ø®ÙĪØ±ÛĮ
Ġrein
ĠØ¯ÛĮÙ¾
ĠØ¯Ø§Ø´ØªÙĨÛĮ
ĠØºØ§ÙĦØ¨
Ġpeas
atern
ften
Ġwanting
ÙģÛĮÙģ
Ø³ØªÛĮÚ©ÛĮ
Ġassert
ÙĨÙĪØ§Ø®Øª
Ġ1982
unicipal
Ġgrandmother
ĠÙĤÙĪØª
ĠÚ©ÙĨÛĮÙĨ
ĠSand
ĠAer
chin
Ú¯Ø±Ø§ÛĮÛĮ
ĠÙĦÙħ
abled
ĠHy
ĠØºØ¶
ĠÙħØ¹Ø§Ø¯ÙĦÙĩ
Ġrecon
ĠÙħÙĦØ§ÛĮ
Ġgenerations
ĠØ¢ÙĩÙĨÛĮ
until
Ġsuspect
ĠØ¨ÙģÙĩÙħÙħ
Ġliberal
ĠØ§Ø¯Ø±Ø§Ú©
Ġaccompanied
rating
Ø¨ÙĨØ¯ÛĮ
ÛĮÙĨØª
Ġpace
ĠØ¨Ø±ÛĮØ²
ĠBox
ØªØ±Ùĩ
ĠÙĩÛĮØª
Ġperpet
ĠØ³ÙĪÙģ
Ù¾Ø±Ø³ØªÛĮ
ĠÙģØ¹ÙĦØ§
Ġprofile
ĠØ¨Ø±Ø³ÙĨØ¯
ĠØ³Ú©ÙĪÙĨØª
Prince
ĠØ¨Ø¨Ø±ÛĮÙħ
TER
Ø¯ÙĩØ§
ĠØ¯ÙĪØ§ÙĨ
leys
ĠÚĨÛĮØ±Ùĩ
vet
Ġuseless
Ġdebt
ĠØªÙĪØ§Ø¨Ø¹
ĠHung
ĠEth
Ġjew
ÙħÛĮÙĨÛĮ
Ġroots
Ġreflected
Ġlinear
ĠØ¯Ø²Ø¯ÛĮ
Ø¨Ú¯Ø°Ø§Ø±ÛĮØ¯
Ġprecisely
ĠØ²ÙĨØ¯Ú¯ÛĮÙħ
Fe
Ñĥ
ĠÙħÙģØ±
atar
ĠÙĤÙĪØ§
ĠÙĤØ§ØªÙĦ
rium
Ø§Ø±ÛĮØ§
Ġcomr
aux
Ġshed
fulness
Ġestate
ĠSwitzerland
Ġimmense
Ġimproved
Ġfemin
ĠÙħÙĪØ²ÛĮÚ©
ĠÙħØ¹ØªØ¨Ø±
Ġwelcome
.:
Ġwings
Ġham
ĠJordan
ĠØ±Ø³ÙħÛĮØª
ĠÙĨØ§ÚĨÛĮØ²
bler
Ġinterface
ĠHeaven
Ġreceiving
Does
ĠÙĨØªÙĪØ§ÙĨØ³ØªÙĩ
ĠÙħØ·ÙĦØ¹
top
ĠÙĩØ§Ø¨
ĠØ´Ø±ÛĮÙģ
ĠMitya
Ġabrupt
Ġ1920
ĠKu
ĠØ§ÛĮÙħÛĮÙĦ
Ġ1979
Without
ĠÛ±Û¸Û¹Û
ĠÙħØ§ÛĮÚ©Ø±ÙĪ
ĠGuide
Ġcolleagues
ĠÙģØ±ÙħØ§ÙĨØ¯ÙĩÛĮ
ĠÙħØŃÙĤÙĤØ§ÙĨ
Ġinstrument
Ġmurmured
Iran
ÙħÙĨØ¯ÛĮ
Ø¯Ø¨
held
Ġaer
Ø§Ø±ÛĮÙħ
Ġnonsense
ĠCY
ĠØ¯Ø§Ø±ÙĪÙĩØ§ÛĮ
ĠEug
load
Ù¾Ø±Ø³
Ø¨Ø¹Ø¯ÙĩØ§
Ġkeeps
Ġdoub
ÙĪÙĦÙĪÚĺÛĮÚ©ÛĮ
Ġinvolves
attering
ĠØ¬Ø³ÙħÛĮ
ĠÙħÙħÙĨÙĪÙĨ
Ġfoolish
ĠMelanie
Ġrefugees
Yeah
Ġtur
ĠÙģÙĨØ¬Ø§ÙĨ
ĠØµÙħÛĮÙħÛĮ
ĠØŃØ¯ÙĪØ¯ÛĮ
ĠÙħÙĩØ§Ø±
ĠØ¨Ø´ÙĪÙĨØ¯
ĠÙĦØ§Ø§ÙĤÙĦ
Ø§Ø¹Ø¯Ùĩ
Ġcreates
ĠÙĨÙĩØ§ÛĮØªØ§
ĠÙĩÙģØªÙħ
ØŃÙĤÛĮÙĤØª
Ø®ÙĦØ§ØµÙĩ
66
Ġstations
agine
ĠÚ©Ø§Ø±Ø´Ø§ÙĨ
ĠØ¯Ø§Ø´ØªÛĮ
ogue
Ġpreced
aze
ĠÙħØ®ØªØµØ±
ĠIndust
Ġparallel
ĠAlexey
ĠØ±ÙĪØ³ØªØ§ÛĮ
Ġformerly
ĠÙĪÛĮØ¯Ø¦ÙĪÛĮÛĮ
ĠÙħÛĮØ±Ø§Ø«
pa
iner
Ø´Ø´
ĠØ¨ÙĩØªÙĪÙĨ
Ġsob
ĠØ§ÙħØ±ÛĮ
ĠStation
Ġactress
Ġsynd
ĠØ³Ø¨Ø²ÛĮ
ĠØŃÛĮÙĪØ§ÙĨÛĮ
ĠÛ³Ûµ
ĠÙħØ¹ØªÙĤØ¯Ùħ
ĠWinter
ĠNetherlands
Ġbunch
ĠMach
inson
ĠÙħØ±ÛĮØ®
Ġassociation
Ġemployees
ĠØ¯ÙĪÛĮØ³Øª
Ġincorpor
Ġsocieties
ĠÙħØ¹Ø§ØµØ±
Ġghost
imal
ĠCare
olen
ĠØ§ÙħÛĮØ¯ÛĮ
ĠØ¨Ø§Ø²ÛĮØ§ÙģØª
Ġconsent
ĠØ±ÙĨÚ¯Ø´
Ġapproaching
ĠÙĥÙĨÙĬÙħ
quarters
Mean
fly
mo
ati
ĠØªÙĦØ³
anz
ĠØ¢Ú¯ÙĪØ³Øª
ĠÙĤÛĮØ¯
una
Ġchin
ĠÙĩÛĮÙĪÙĦ
Ġarts
ĠØ®ÙĪØ§Ø³ØªÛĮÙħ
grad
ĠØ¢Ø²ÙħØ§ÛĮØ´ÛĮ
ĠÙĪÛĮØ±Ø§ÛĮØ´
ĠØ§ÙĪØ±Ø§ÙĤ
ĠØ®Ø¯Ø§ÛĮØ§ÙĨ
Pierre
Ġsed
Ù¾ÙĪØ±
Ø®ÙĪÙĨÙĩ
icus
Ġbeach
ĠØªÙĪÙħØ§Ø³
Ġshining
ĠDumbledore
ĠØ³ÙĪÙĨØ¯
ĠUncle
ĠØ¢Ø¨Ø§Ø¯
ĠÙ¾Ø³Ø±Ø§ÙĨ
ĠØ¨Ø±Ú¯Ø´ØªÙħ
Scarlett
Ġfurniture
Õ¡Õ
ĠØ¨ÙĩØ´ÙĪÙĨ
Ġped
Ġislands
ĠHind
0000
rying
ĠØ§Ø´Ø¹Ùĩ
ĠØ¨Ø²ÙĪØ¯ÛĮ
Ġfee
Ġprime
ĠØªØµØ±Ùģ
ĠØ²ÙĨØ¯Ú¯ÛĮØ´
Ġscared
Ġattent
ĠÛ²Û°Û±Û¸
Ġfellows
Ġ1975
Ġsurely
Ġwinning
ĠÙħÚ©Ø§ÙĨÛĮÚ©
Ġtact
Ġsilly
ĠÙ¾ÚĨ
Ġconven
ĠÙ¾ÛĮØºØ§Ùħ
ĠTour
ĠÙĨØ§Ø§ÙħÛĮØ¯
Ġlands
print
ĠØ¨Ø¯Ø§ÙĨÙĨØ¯
Ġuttered
ĠISO
Ø³Ø§Ø²ÙħØ§ÙĨ
Ġleaning
ĠØ¨Ø±Ú¯Ø²Ø§Ø±ÛĮ
ĠCristo
Barbus
Ã£
Ġsank
ĠÙģØ§Ø²
agin
Ġsofa
ĠFern
ÚĺÛĮÙĨ
ĠØ¨Ø²ÙĨÛĮ
ĠÙĨØ´ÛĮÙħÙĨ
ĠØ§ÙĪÙĨÙĪ
ĠÙĨØ³Ø¨ÛĮ
Ġgenius
Ġdefense
Ġdeaths
Ġphoto
Everyone
ĠOlympic
Ġbench
Ġappropriate
bus
Ø§ÛĮØ¬Ø§ÙĨ
irts
ĠØ³ÙĪÚ¯ÙĨØ¯
ĠØºÛĮØ±ÙĤØ§ÙĨÙĪÙĨÛĮ
ĠØ³ÙģÛĮØ¯ÛĮ
Ġmistress
Ġdomin
ĠÙħÙģÙĩÙĪÙħÛĮ
Ġcomponent
Ġminimum
85
Could
uously
Ġshake
ĠÙ¾ÛĮÚ©
Ġalign
ĠØ¨Ø§Ø²ØªØ§Ø¨
ĠÙĨÙħÛĮØ¯
ĠØ§Ø±Ú©
ÙĥÙĩ
Ġincredibly
Ġceremony
ĠØ´ØªØ§ÙģØª
bro
Ø¯ÙĦÙħ
isk
ĠÙĨÚ¯ÙĪ
ĠÙħÛĮØ±Ùħ
ĠØ¬Ùģ
Ġreign
ĠØ³Ø±Ú©ÙĪØ¨
ĠGil
ĠÙħØ¯Ø¹ÛĮ
ĠØªØ¨Ø¹ÛĮ
archy
engers
ophical
Ġantib
Ġsurprising
ĠØ¨Ø¨Ø±ÛĮØ¯
ĠØ§ÙĨØ¨Ø§Ø´ØªÙĩ
ĠØµØ§Ø¯ÙĤØ§ÙĨÙĩ
ĠSaturday
Ø±Ø¦ÛĮØ³
ĠØ¬ÛĮÙħÛĮ
char
ĠMove
Ġshr
apa
ÙģÛĮÙĩ
Ġparliament
Ġmystery
ĠÙħØŃØªÙĪØ§ÛĮ
Ġfired
ĠØ³Ø¦
Ġinternet
ÚĨØ§ÙĦ
Ġbew
ĠØ¨ÛĮØ§ÛĮÙħ
ĠÚ©Ø§Ø±ÙĪØ§ÙĨ
ĠÙĨØ§Ø¸Ø±
Ġpartly
ĠØ®ÙĪØ±Ùħ
ĠIndones
Ø®ÙĪØ¯Ùħ
Ġangle
Ġclimbed
ĠØ¨Ø±Ø§Ùī
ĠÛĮÙĪØ±Ú¯ÛĮØ³
orentino
Ġvaluable
Ġmail
llo
ĠÚ©ÙĦÙģØª
Ġgenerated
Ġfears
ĠÚ©ØªÚ©
Ġknocked
Ġprospect
ĠØªØ¸Ø§ÙĩØ±
rin
alia
ĠØ¨Ø±Øª
ĠÙĩÙħØ³Ø§ÛĮ
ĠÙĤØ§Ø¹Ø¯Ùĩ
Ġabuse
Ġhasn
ĠÙĨØ§Ø§Ùħ
ovie
Ġcommittee
Ġsilently
ĠÙĦØºÙĪ
Ġshooting
31
bin
kh
Ø±ÙĩØ§
ĠØ§Ø¯Ø§ÛĮ
ainted
Ġshar
ĠÙħØ´Ø±ÙĪ
ĠOlivier
ĠØ³Ø§Ø²ÙħØ§ÙĨÛĮ
ĠÚ©ÙħÛĮØ³ÛĮÙĪÙĨ
ernel
ĠÚ¯ÙĪÛĮÛĮØ¯
ĠÙĨÙħØ§ÛĮÛĮØ¯
ĠÚĨÚ©ÙħÙĩ
ĠØ§Ø¨Ø¯Ø§Ø¹
ÙĦÚ©
Ø§Ø±Ø¬
isle
ĠØªØ¯Ø§Ø±
itis
ĠØ¢Ø¨Ø±
ĠØ¬ÛĮÚ©
ĠSci
ĠDig
Ġkeen
Ġtransition
Ġ1976
ĠÛ±Û¹Û¹Û·
ĠØ¨Ø®ÙĪØ§ÙĩÙħ
Ġrobots
ĠÃĩ
Ġdepending
ĠØ§Ø±Ø²Ø´ÛĮ
Ġdedicated
ĠFlorida
89
Following
Nor
Ú©ÙĪÙĦÛĮ
ÙĤØ§Ùħ
ĠØªØ·Ø¨ÛĮ
Ġhaste
oming
ĠØ¬ÙĦØ³
stream
Ġatoms
Ġrust
ĠRhett
ĠFoot
Ġcha
ĠÙĨÛĮÚ©ÙĦØ§ÛĮ
ĠNick
ĠÙĨØ¯ÛĮØ¯
ĠÙĨØ§ÙħØ±Ø¦ÛĮ
Ġgotten
Ø®ÙĪØ§ÙĩØ´
ĠØ§ØªØ§ÙĤÛĮ
Ġcharged
ĠÚ¯Ø±ÙħØ§ÛĮ
Ġencoun
ĠÙħÙĩÙĨØ¯Ø³
ĠÙħØ±Ø²ÙĩØ§ÛĮ
Ġtranslated
sen
yes
ĠØ¢ÙĦÛĮØ³
seud
ĠØ§ÙĦÚ©Ø³Ø§ÙĨØ¯Ø±
Ġevolved
Ġhardware
Ġinfant
ĠUSA
ĠÙħØ¨Ø¯ÙĦ
ĠÄ
ÙħÙĦÛĮ
ĠØ±ÛĮÙĨ
aying
ĠBlo
ĠØ®ÙĪØ§ÙĩØ§ÙĨ
udes
Ġletting
ĠÙ¾Ø§Ú©Øª
Ġlawyer
Ġincreasingly
ĠSyrian
Ġwinner
Ġterrorism
Ġimplemented
ÙģØ±ÙĪØ¯Ú¯Ø§Ùĩ
ĠIrish
Having
Ø²ÛĮÙħ
ĠØ¢Ú¯
Ú¯Ø±Ø§
ĠØ®ÙĪØ¯ØªÙĪÙĨ
ĠBoy
ĠÙĨÛĮÚ©ÙĪ
their
Ġwhereas
Ġrelie
ĠØ¨Ø´ÙĤØ§Ø¨
ĠÚ¯Ø³ØªØ§Ø®
ĠØ³ÙĦÙĪÙĦÙĩØ§ÛĮ
ĠÙĦØ°Ø§
ĠÙĨØ§Ø¨ÙĪØ¯ÛĮ
ĠØ§Ø³ØªØ§ÙĨØ¯Ø§Ø±Ø¯ÙĩØ§ÛĮ
Ġscheme
Ant
vals
ĠÙĩÙģ
asm
ĠØµÙĪØªÛĮ
oded
ĠØªÙĪÙĤ
Ġbutton
Ġroyal
ĠÙħØ·ÙĦÙĪØ¨
ĠØ¨Ø§Ø²ÛĮÚ©ÙĨØ§ÙĨ
Ġearned
ÙħØ¯ØªÛĮ
Ġretreat
ĠØ§ÙģØªØ§Ø¯ÙĨ
Ġ1983
ĠØ¹Ø±Ø´Ùĩ
Ġ1973
ĠÚ¯ÙĪÛĮÛĮÙħ
ĠØªØ³ÙĦØ·
ennis
Ġmaintained
rer
ĠÙĩØ§Ø±ÙĪ
ĠØ¯Ø±ØŃØ§ÙĦ
aration
ĠØ§Ø³ØªÙĪ
ĠØ²ÙĨØ§
ÙĩØ§Ú¯
Ġrush
ĠTHE
ĠÙĨØ§ÙħØ¹
ĠØ¢Ø±ØªÙĪØ±
ĠØºÛĮØ±Ø¹
Ġhumili
Ġrevol
ĠReport
ÛĮØ§Ø·ÛĮÙĨ
ĠÙĨÚĺØ§Ø¯ÛĮ
ĠÙĪØ§Ø´ÛĮÙĨÚ¯ØªÙĨ
called
Ø§ÙĨÛĮØ¯
agu
Ġspare
Ġengage
Ġvillages
ĠÙĨØ±ÙħÛĮ
Ù¾Ø¯Ø±Ø´
ÙģØ±Ø§ÙĨÚ©
Ġproteins
Ġdeparture
ĠYanke
ĠØ±Ø¬
ĠÙĨØ±Ø¯Ùĩ
ÙĪØ¯Ø§
ĠØ¨Ø±ÙĦÛĮÙĨ
Ġugly
ĠJos
ĠÙĩÛĮÚ©ÙĦ
ĠÚ©ÙħØ¯ÛĮ
ĠØ®Ø±ÛĮØ¯Ùĩ
ĠÙĪØŃØ´
ÚĨÙĨØ§ÙĨÚ©Ùĩ
Ġbabies
Ġhatred
ĠØªØ±ÙĪØ±ÛĮØ³ØªÛĮ
ĠStudies
Ġscholars
kerchief
ded
Ġbeating
ĠICA
ĠEnergy
Ġlegend
ĠÙĨØ§ÙħÚ¯Ø°Ø§Ø±ÛĮ
Ø±Ú¯ÙĪØ´
Ġkeys
ĠØ®ÙĪØ±ÙĨØ¯
ÙģÛĮÙĦØ¯
Ġframework
Ġsympathy
fit
Ġstern
agen
ĠFour
ĠØ±Ø§ÙĩØ´
Ġswear
Ġnearby
ĠØ§Ø´ØªØ¨
Ġscientist
Ġmistaken
ĠArkadyevitch
foot
Ø§ÙĨØ³Ø§ÙĨ
ĠØ¢Ú©Ø³
Ġ(-
Ġstead
ĠAst
ĠCross
ĠFord
ĠÙħÛĮØ´ÙĪÙĨØ¯
secut
Ġeggs
Ġportrait
Ġkilomet
Ġstorage
ØªØ§Ø±ÛĮØ®
90
ĠØ¦
Ġwip
ĠÙĩØ±ÛĮØª
ĠSem
Ø¨Ø§ÙĪØ±
Ġbutter
ĠØ¨Ø´Ø±ÛĮØª
Ġassistance
ĠHead
Char
ĠÙħØ³ÛĮØ±ÛĮ
Ġsignificantly
Ġdesperate
ĠLau
Ġchrom
ĠNiger
ĠOcean
ØªÙĪØ¬Ùĩ
ĠAsse
ÙĤØ±Ø§Ø±ÛĮ
ÙģØ±ÛĮØ§Ø¯
Ġprotected
Ġsituations
Ġeaten
Ġcitizen
ĠMuslims
Ġvehicles
Ġcomparison
Ð²
Ġdict
acc
ĠØ¨ÛĮØ´Ùĩ
ĠÙĦÙģÙĪØ±
Ø¢ÙĦÛĮ
Ú©ÙĩØ§ÛĮ
Ġenvelop
ĠØ²ÙĨÙĨØ¯Ùĩ
Ġhelpless
ĠØŃØ§Ø¶Ø±Ø§ÙĨ
Ġsensitive
ĠÙħÛĮØªÙĪØ§ÙĨØ¯
ĠØ¢Ø±ÛĮØ«Ø§
ĠØ¹ÛĮØ³ÛĮ
ĠÙ¾ÙĪØ´Ø§ÙĨØ¯
Ġbarely
ÙħÙĪØ¶ÙĪØ¹
London
ĠÙĨÙ¾
ĠÙħÛĮØ®Ø§ÙĨÙĩ
asse
ÙĪØ§ÙĨØ´
ĠMond
ĠØ®ÙĪØ´Ùĩ
ĠCzech
ĠØ¨ÛĮØ§Ùħ
ĠØ¯Ø³ØªÙħØ²
Ġagency
ĠUkrain
ĠÙħØ³ÙĨ
Ø§ÙĨØ¯Ø§ÙĨ
Ġoffers
Ġsmallest
Ġsteady
Ø¨Ø§Ø¨Ø§
ĠDesign
ĠÙĦØ¹ÙĨØªÛĮ
ĠScotland
ĠØ¢Ø°Ø±Ø¨Ø§ÛĮØ¬Ø§ÙĨ
Women
iel
rick
zh
ĠØ²ÛĮØ¨Ø§Øª
ĠØ³ÙĪÙ¾
Ġhandkerchief
Ġfoundation
Ġexpecting
Ġsearching
Ġshouting
ĠØ¯Ú¯Ø±Ú¯ÙĪÙĨ
ĠGolden
Ġtunn
ĠØ¨ÙĤØ§ÛĮ
ĠÙħØ¨Ø§ØŃ
Ġbull
ĠØ·Ø§ÙĤØª
ĠBBC
ĠØªØ§Ø³ÛĮØ³
Ġchamp
ĠÙħØŃÙģ
ĠÙĨØ´Ø³ØªÙĨ
ÙĩÙħØ§ÙĨØ·ÙĪØ±
Ġsenses
ĠHarvard
Ġcopies
Ø±Ø§Ø³ØªØ´
Ġsurrounding
ĠÙħØ±Ø§Ø¬Ø¹Øª
ĠØ¨Ø§Ø²Ø±Ú¯Ø§ÙĨÛĮ
Ġhack
ĠØ¯Ø±Ø§Ø²ÛĮ
ĠØ®Ø§Ú©ÛĮ
ĠMason
antine
ĠØ¢ÙħØ§Ø±ÛĮ
akov
ĠÚ¯ÛĮØ§ÙĩÛĮ
ĠØªØ¨Ø¹ÛĮØ¯
ĠØ±Ø§Ø³ØªÙĪÙģ
ÙĤØ§ÙĨÙĪÙĨ
Ġpalace
ĠØ¨Ù¾Ø±Ø³Ùħ
ĠCorpor
ĠØ´ÙĦØ§ÙĤ
ĠØ¬ÙĪØ¯
ĠÙģØ±ÙĨ
ĠLi
ĠInf
ĠThree
ĠÙĪØ§Úĺ
Ġ1974
Û²Û
Ġreduction
Ø¨Ø®Ø´ÛĮ
ĠÙ¾ØªØ±Ø²Ø¨ÙĪØ±Ú¯
ĠÙĩÛĮØ¯Ø±ÙĪÚĺÙĨ
ĠPotter
TR
ï»
ndered
Ġfib
acco
ĠBC
ĠÙ¾ÛĮØ§ÙħØ¨Ø±
Ú©ÙĨÙĨØ¯Ú¯Ø§ÙĨ
onder
Ġages
Ġspat
Ġoffices
Ġaccord
ikes
ĠØ¨Ø³Ø§Ø²Ø¯
Ġshortly
ĠÙħÙħÙĨÙĪÙĨÙħ
Ġinstitution
ĠÙĪØ±Ø§
ĠMu
Ġath
Ġspark
ĠØ³ÛĮØªÛĮ
Ġrelax
Ġreflection
ÙĨÙħØ§ÛĮÛĮ
Ġassured
ĠÙħÛĮÚ©ÙĨÛĮØ¯
ĠØ¨Ø±ÙĪÚ©
ĠValley
ĠÚ©ÙħÙ¾ÛĮÙĨ
Ġjournalist
ĠAtlanta
ÙħØªØ±
ĠØ³Ú©ÙĪ
ĠØ§ÙĪÙħØ¯
ĠCle
ĠØ·ÙģÙĦ
opter
Ġmanif
ĠØ§ÙĦØªÙĨ
Ġsurre
Ġsurgery
ĠØ§ÛĮØ±Ø§Ø¯
ĠÙģØ±Ø§ÙĨØ³ÛĮØ³
ĠØªÙĦØ®ÛĮ
Ġprize
ĠYouTube
ĠBulstrode
69
car
ĠÙħÙĪÙĨØª
Ø²Ø§Ø¨
Ġbored
ĠØ´Ø¨ÛĮ
Ø§ØªØ§ÙĤ
ĠÙħÙĨØ´ÛĮ
ĠAunt
Ø±ÙĪØª
Ġatomic
Ġconcerning
ĠÙĨÙĪØ¨Ùĩ
Ġadding
Ġzone
Ġdismiss
Ġsenior
ĠØŃØ´Ø±Ùĩ
EO
atched
Ø¹ÙħÙĪ
Ġthunder
Ġselection
Ġshade
geon
ivina
ÙħÛĮÙĨØ§
Ġrocks
ĠØ¨Ø¹Ø¯Ø´
ĠØ§ØªÙģØ§ÙĤØ§Øª
Ġcloak
ĠØ¯Ø±ÙĪØ§ÙĤØ¹
ĠÙĩÙĨØ±ÙĩØ§ÛĮ
Ġtouching
Ø¯Ø®ØªØ±Ú©
Ġtimid
75
bor
vy
Ġsink
Ø³ØªÙħÛĮ
Ø®ÛĮÙĨ
ĠÙģÚ©
ĠÙģØ§Ø´
ĠØŃÙĤØ§ÛĮÙĤ
Ġorbit
ĠLabor
Ġgrim
being
ĠØ§Ø¹Ø¶Ø§
ĠPolish
ĠÙħØ±Ú©Ø¨
Ġbudget
Add
Ġcared
ĠØ¢ÙĨÙĩØ§ÛĮÛĮ
Ġknight
Ġclient
Ġbuck
Ġmuscle
Ġlonely
ĠØ§Ú©Ø±
enance
Ġmild
ĠÚ©Ø§Ø±Ú©Ø±Ø¯
Ø§ÛĮØ¯Ú¯ÛĮØª
Ġslave
Ġguarant
ÙĤØ¯Ø±Øª
Ġdepos
ÚĨÙĨØ¯ÛĮÙĨ
Ġarrive
Ġtroubled
Ġcharacteristics
PDF
igrants
Ke
OD
Å¡
ĠÚ©ÛĮÚ©
Ø¨ÙĦØ§
Ġokay
ĠÙĩÙħÚ©Ø§Ø±Ø§ÙĨ
Ø§ØªØŃ
ĠPen
ĠTre
ardier
ĠKer
ÙĦÙĪØ¹
Ø®ØµØµÛĮ
Ġdistress
Ġassess
ĠØ¯ÙĪÙĨÛĮØ¯
Ġsteam
ĠAdam
Ġlifetime
ĠÙĤØ§ÚĨØ§ÙĤ
'.
Ãł
Ø§ÙĬÙĨ
ĠÙħÙħØª
Ø¹Ø±
ĠÚ¯Ø³
Ø·Ø¦Ùĩ
ĠÙĤØ§Ùĩ
ĠOtt
ĠUp
Ġadult
uthor
ĠÙĨÙħØ§ÛĮØ´ÙĨØ§ÙħÙĩ
ĠÙħØ¶ØŃ
ĠÚ©ÙĨØ¬Ú©Ø§ÙĪ
Ġdisappear
ĠÙģÙĦØ³Ø·ÛĮÙĨ
dis
non
yodor
ÙħØº
Ġbree
ĠÙ¾Ø´ØªÙĩ
usions
ĠBuilding
ĠRight
ĠTwo
ĠÙĨÛĮØ³ØªÛĮØ¯
ĠÚ©ÙĦÛĮÙĨ
ĠLeg
Ġarguments
Ġsuspected
ĠØ´ÙĦÙĪØº
ĠEducation
iac
rec
ĠØ¯Ø±Ø³ÛĮ
Ġmob
ĠØ®ØªÙħ
ĠÙ¾Ø§ØªØ±
Ø¬Ú©
Ø¨ÙĩØªØ±ÛĮÙĨ
ĠÙ¾Ø±Ø³ÛĮ
ĠØªØ´Ø±ÛĮØŃ
alfoy
ĠClivina
ĠPhilipp
ĠAllen
ĠØ²ÙĨØ¯Ø§ÙĨÛĮØ§ÙĨ
Ġreminded
Ġphenomenon
ĠÙ¾Ø§Ø±Ø§ÙħØªØ±
ĠØ¯ÙĨØ§
Ú¯Ø§Ùħ
ĠÙ¾Ø´Ùħ
ĠÙĤÙħØ§Ø±
Ġstack
Ġdebut
Ġshy
ĠØ¯Ø§Ø´ØªÛĮØ¯
ĠRod
ÙĩØ§ÛĮØ´Ø§ÙĨ
ĠEG
ÙħÙĨØ·
ĠØ³ÙĪØª
ĠÚ©ÙĦÛĮØ³
Ġkindly
Ġassure
ĠBrother
ĠAbraham
ĠØºØ±ÛĮØ¨ÛĮ
ĠÙħÙĤØ§ÙĪÙħ
ĠØ§ÙħÙ¾Ø±Ø§ØªÙĪØ±
Ø§ÙĦÛĮØ²Ø§Ø¨Øª
ĠÙĦÙĨÚ¯Ø±
ĠLinux
ÙħØ§Ùħ
Ġteles
ĠÚ©Ø§Ø¨ÙĦ
ĠØ³ÙĪØ²ÛĮ
Ø®Ø§
Ġna
Ġgang
Ø§Ø¨ØªÛĮ
ĠÛĮÚ©Ùħ
ĠÙĦÙĤØ¨
ĠHit
ĠØ¬Ø§ÙĨØ´ÛĮÙĨ
ĠÚ¯Ø±ÛĮØ²
Ġ1981
Ġlabel
Ġchemistry
Ġtheater
ĠÙĨÚ¯Ø±Ø¯
ĠCard
ĠØ¯ÛĮÙĪØ§Ø±Ùĩ
ĠÚ©ÙĨØ¯ÛĮ
Ø§ÙĦÛĮÙĩ
Ġbrows
Ġengagement
Ġ1978
Ġeffectively
ÙħØ§Ø±ÛĮÙĪØ³
Ġreckon
Act
Har
Men
dy
ĠØªÙĩØ§
Ġharsh
ĠHay
ĠØ¯ÙĩØ§ÙĨÙĩ
Ġsaving
ĠÛ±Û±Û
ĠÙĨÙĪØ³Ø§ÙĨ
Ø¹ÙĩØ¯Ùĩ
Ø¯Ø§ÙĪÙĦ
Ġcrown
Ġearliest
Ġsurve
ĠØ¬Ø§ÙĨÙĪØ±Ø§ÙĨ
ĠÙģÙĦØ¬
ĠBabbitt
Ġconventional
Ġdisgust
ĠÙħØ²Ø§Ø±Ø¹
ĠØªØ¨Ø¹ÛĮØ¶
Okay
SR
yo
ÙħØ§ÛĮÛĮ
eriana
ĠÙĩÙĤ
stand
ØµÙĦÛĮ
ĠÙĦØ±ÛĮ
ĠHong
Ġintim
ĠÙ¾Ø±Ø´
ĠKat
ĠKong
Ø§Ú©Ø§
ĠØ¢ÙĦÙĨ
ĠØ®Ø§Ø·Ø±Ø´
ĠÙ¾Ø§ÙĪÙĦ
ĠØ¢Ø¯ÙħÙĩØ§
Ġdirections
Ġorganic
hematic
hind
Ø¨ÙĨØ§
Ø§ÛĮØ´Ø§ÙĨ
aned
Ġlux
ĠØ¬ÙĨØ§
ĠØ§ÙĨØµ
izard
Ġexped
ĠØªÙĪÙĨÙĦ
Ġroute
ĠForeign
ĠÚ©Ø§Ù¾ÛĮØªØ§ÙĨ
Ġpaintings
Ġepisode
Ġsplendid
Ġstaircase
ĠâĨĴ
Meanwhile
SF
Ġobey
Ġinfection
ĠØ§ÙĪÙħ
ĠSab
ĠAcc
Ġraw
ĠÙħØ±Ø¬Ø¹
ĠØ³Ø®ÙĨÛĮ
Ġ150
ĠØ´Ú©Ø³ØªÙĨ
Ġpractices
Ġanticip
Ġmercy
Ġregarding
Ġwriters
inema
ĠÙĪØ§Ú©Ø³ÙĨ
rastructure
ĠØ¹Ø«ÙħØ§ÙĨÛĮ
ÙģÙĩÙħ
aters
ĠÙĨØ§Ø¨Ø±
Ġbother
ĠØ®ÙĨØ¯Ø§ÙĨ
Ø§Ø¯Ø±ÛĮ
ĠÛĮØ§Ø¨ÛĮ
ĠØ¹Ø§Ø¬
Ġseats
Ġmeal
ĠHog
ĠØ§ÙĨØ¯ÙĪÙĨØ²ÛĮ
Ġunple
ĠØ¬Ø§ÙĨÙĪØ±
coming
ĠÙ¾Ø§Ø³Ø®ÛĮ
ÙĨØªÛĮÙĨÙĪ
Ġdesigns
ĠØ³ÙĪÙĨÛĮØ§
ollywood
ĠØ¢Ø±Ø§Ø³ØªÙĩ
Ġconstructed
Ġfishing
ĠØ³ÛĮØ²
Ġpump
Ġdies
ĠØ¬ÙħØ§
Ġgap
ĠØ¹Ø§Ø¯
ĠØ§ÙĪÙħØ¯Ùĩ
ØªÛĮÙĦ
Ø¶Ø§Ø±
Ġalcoh
ĠØ§ÙĦØªÙħØ§Ø³
Ġadjust
ÙħØªÙĪØ¬Ùĩ
took
ĠØ³Ù¾Ø§Ùĩ
ĠÙĦÙĪØ§Ø²Ùħ
Ġceiling
ĠÙĩÙĦÙĨØ¯ÛĮ
Ġobservation
ĠØ§Ø³Ú©ÙĨØ§Ø³
ĠPavlov
Dav
SN
file
replied
Ġhem
ÙħÛĮØ§ÙĨ
ĠÙħÙĨØ´
ĠÙ¾ÛĮØ±ÛĮ
Ú©ÙĦØª
Ġwrites
ĠØ®ÙĪØ¯Ø´ÙĪÙĨ
Ġexposed
ĠÙ¾ÙĨØ¨Ùĩ
ĠÚ©ÙĪÙĩØ³ØªØ§ÙĨ
Ġdollar
Ø²ÙĪØ¯
Ø²Ø§Ø³
Ù¾Ø±ÙĪÙģ
ĠGer
ĠFI
Ġrecovered
atively
Ġfrown
Ġoperate
ĠWeasley
Ø§Ø¯ÙĦØ§ÙĨÙĩ
ĠÙĨÙħØ§ÛĮÙĨØ¯Ú¯ÛĮ
Ġtremend
Ġexecuted
Ġratio
Ġutterly
Ġexpansion
Ġflex
roph
ÙĪÛĮØ³ÛĮ
ĠSul
ĠØ®ÙĪØ§Ø¨ÛĮ
anging
ĠÙĨÙĤØ´ÛĮ
plete
ĠØªØ¹Ø§Ø±Ùģ
Ġawake
ĠØ¹ÙħÙĦÛĮØ§ØªÛĮ
Ġlimits
Ġcompanions
Ã¼r
Ġuncomfortable
34
Four
Gu
aning
Ø®Ùħ
ĠÚ¯Ø±Ø¯Ùĩ
ĠØ§Ø³ØªØ±Ø³
ĠÙĨØ¸Ø±Ø§Øª
ĠÙħØ¬ÙħØ¹
plex
Ú©ÙĪØ¦
Ġproducer
Ġmeters
ĠLeon
ÙħÙĨØ¯Ø§ÙĨÙĩ
ÙģØ±Ø¯Ø§
ĠÚ©Ø´Ø§ÙĨØ¯
Second
care
Ø³Ø®
ĠØ¯Ø±Ø®ØªÛĮ
ĠØ¬Ø¨Ø±
ĠØ¹Ø§Ø±ÛĮ
ĠDet
Ġchoices
ĠÙħØ´Ùĩ
ĠØ§Ø±Ùĩ
ĠØ§ØªØ±ÛĮØ´
ĠØ¨Ú¯ÙĪÛĮÛĮ
Ġamuse
Ġboats
ĠØ´ÙĩØ±Ú©
ĠØ¨ÙĨØª
Ġmighty
Ġapproved
ĠÙĪØ³ÙĪØ³Ùĩ
ĠØŃÙĤÛĮÙĤØªØ§
Ġ1971
Ġpromote
Ġelsewhere
ĠÙĨÚ©ÙĨÛĮÙħ
Ġsuggests
ĠØ±ÙģØ§Ùĩ
Ġcustomer
ĠApple
ĠØ¢ÙĦÛĮÙĪØ´Ø§
',
bb
vi
Ġhttp
ĠSk
ĠÙĪÛĮÚ©ØªÙĪØ±
Ġtalks
ĠØ¯Ø±ÛĮÚĨÙĩ
Ġfloating
ĠÛ±Û¸Û¸Û
ĠØ¨Ø±Ø¢ÙĪØ±Ø¯Ùĩ
ĠØ´Ø§Ø¯ÙħØ§ÙĨÛĮ
ĠÙħØ§ÙħÙĪØ±ÛĮØª
Ġvirtue
ĠÙĨÙĪØ´ÛĮØ¯ÙĨÛĮ
ĠÙģÛĮÙĦØ³ÙĪÙģ
ĠØ¢Ø±ÚĺØ§ÙĨØªÛĮÙĨ
Ġpeasants
ĠØ¬ÙĦØ³Ø§Øª
cers
mary
instein
ĠÚ©ÙĪÙħ
Ø¨ÙĤÛĮÙĩ
ĠØ¨Ø±ÙĤØ±Ø§Ø±ÛĮ
ĠØ¬Ø²ÛĮ
Ø±ÛĮØ§
Ġsector
Ø¦ÙĪØ³
Ġlover
ĠÚ¯Ø±Ø§ÛĮ
ĠChris
Ġguitar
Ġtransmission
enez
Ġ1967
ĠØ®ÙĦØ§ÙĤÛĮØª
ĠÚĨØ§Ø±ÙĦÛĮ
ĠÙĪØ±Ø²Ø´Ú¯Ø§Ùĩ
ĠØ¨Ø±Ú¯Ø²ÛĮØ¯Ùĩ
Ġuneasy
ĠÙĦØ´Ú©Ø±
ancholy
ĠÙĪÙĨØ¯
itarian
Ġcosm
ĠØ²ØºØ§ÙĦ
Ġweary
ĠSant
istical
Ø¨ÛĮØ§ÛĮÛĮØ¯
ĠGor
Ġvideos
ĠUs
urning
Ú©ÙĪÚĨ
ĠØ¨ÙĨØ§ÛĮ
ĠØ®ÙĪØ§Ø¨ÛĮØ¯
ĠØ¨Ú©Ø´ÙĨØ¯
Ġauthors
Ġimmune
Valeriana
Rec
tion
ÙĪØ§Ùħ
ØµØ±Ùģ
Ġwash
kel
Ġneat
ĠDanglars
ĠHand
ĠFreedom
Ø¨Ø±Ùĩ
ÙĪØ²ÙĪÙģ
Ġamongst
ĠØ¨Ø±Ø§Ø¯Ø±Ø§ÙĨ
ĠÙħØ§ÙĩÛĮÚ¯ÛĮØ±ÛĮ
ĠØ¹ÛĮÙĨÚ©
Ġoccasionally
Ġfluid
ĠÚ©Ø§ÙħÙ¾Ø§ÛĮÙĦ
à¥
ĠÙħÙĩØ±Ùĩ
ĠÙĪØ±ÛĮ
Ġnerve
ĠØ¯ÛĮØ´Ø¨
ĠÙĨÙĪÙĩ
ĠÚ¯Ø°Ø§Ø±Ø§ÙĨ
Ġaged
ipher
ÙĦÙĪÚ©
Ġformat
Ġinstall
ĠØ§ÙĨØªØ®Ø§Ø¨ÛĮ
ĠØ¨ØªÙĪØ§ÙĨÛĮØ¯
ĠØ´ÙĨØ§Ø³Ø¯
Ø§ÙĪÙĨÙĩØ§
ĠÙħØ¹ÙĨØ§Ø³Øª
Ġcontrad
ĠÚĨØ±ÚĨ
Ġrecommended
ĠØŃØ´Ø±Ø§Øª
ĠStepan
Ġrestaurant
Ġcotton
nel
ÙĦØ§Ø²Ùħ
Ġfrank
anth
ĠAc
ĠMIT
ĠØ¯Ø§Ø±ÙĪÛĮÛĮ
ĠGar
ĠHon
ĠÙĨÙħØ§ÛĮÛĮ
Ø³Ø§ÙĨØ³
why
leton
ĠØ¨ÙħØ§ÙĨÙħ
ĠMedia
Ġhoping
mitri
Ġmechanism
ĠJackson
Ġweapon
Ġproportion
hire
list
Ġtap
Ø´ÙĪÛĮÛĮ
Ġfab
ĠÙ¾ÙħÙ¾
ÙĦÛĮÙĦÛĮ
ĠCorn
ÙĩØ±Ú¯Ø§Ùĩ
ĠJa
ĠÙħØ¯Ø§Ø±Ú©
Soon
Ġexamined
Ġmothers
Ġrisks
ĠØ¨Ø±Ú¯Ø±Ø¯Ùħ
ĠØ¯Ø§ÙħØ¨ÙĦØ¯ÙĪØ±
ĠØ´Ø§Ø±ÙĦ
ĠØ¯ÛĮØ¬ÛĮØªØ§ÙĦÛĮ
Ġobtain
Ġnewspapers
TC
ĠÙħÙĪØ§ÙĨ
asped
Ġitems
ĠØ·Ø±ÛĮ
Ġmanners
ĠÙħØ±Ø·
ĠØ¬ÙĩÙĨÙħ
ĠØ¢ÛĮÛĮÙĨ
ĠÙĪØ§Ú¯ÙĨ
Ú©Ø±Ø¯ÙĨÛĮ
Ġdifficulties
ĠØ§Ø´Ú©Ø§ÙĦÛĮ
Ġpenet
ĠRegion
Ġwrapped
"),
Cont
ĠÚ©Ø§ÙģÙĩ
atoes
ĠÙħÛĮØ´ÛĮ
ØµØŃ
ĠØ¹Ø³ÙĦ
ĠCR
ĠÙħØ§Ú©Ø²ÛĮÙħ
looked
ĠKr
ĠØ¬ÙħØ¹Ùĩ
ĠÚĨÙĨØ¯Ø§ÙĨÛĮ
Ġscan
amped
ucky
ĠÙĨÚ©Ø±Ø¯ÙĨØ¯
ĠÙħØ¤Ø¯Ø¨
ĠØ®ØµÙĪØµÛĮØ§Øª
ĠØ·ÙĦØ§ÙĤ
LA
ĠØ¨ÙĪØ¯Ú©Ùĩ
ĠIV
ĠSaudi
ĠÙħÙĪØ¨
ØºÛĮÛĮØ±
ika
Ġstaying
ÚĺÙĨØ±Ø§ÙĦ
Ø³ÙĪÙĦØ§
ĠÙĬØ§
ĠÙĪØ§Ø¨Ø³ØªÚ¯ÛĮ
Ġinequ
ĠCub
ĠÙģØ±ÙĤÛĮ
mented
actor
active
ĠØªÙĤØ¯ÛĮØ±
ĠØ§Ø¹Ø¸Ùħ
ĠÚĨØ´ÙħØ§ÙĨÛĮ
Ġglory
ĠHarold
ĠÛ´Ûµ
Ø´ÙĩØ±Ø³ØªØ§ÙĨ
88
Mart
Tw
Ø²Ø§ÙĤ
ĠÙĤØµØ±
ĠFrid
ĠÙħÙĤØ§ÙĦØ§Øª
Ġgramm
ĠØ¯Ø±Ø¢ÙĪØ±Ø¯Ùĩ
ĠØ¢Ø³ÙħØ§ÙĨÛĮ
Ġconsideration
Ġairports
hin
Ø¨ÙĦØ§ÙģØ§ØµÙĦÙĩ
ĠÙĪØ³ØªÙĨ
Ġhoney
ifies
ĠØ¢ÙħØ§Ø¯Ú¯ÛĮ
ĠÙħØ¬ÙĦ
Ġeveryday
Ġscenes
ĠÚ¯ÛĮØ³
ĠØ§Ø®Ùħ
ĠÙħØ®ØªØµ
ĠØ§Ø±ÙĪÙ¾Ø§ÛĮ
ĠModern
Levin
ÛĮØ¹
Ú©Ø¯
Ġstare
Ø§ÙĤØ¶
ĠØ¨Ø§Ø²Ùĩ
ĠÙħØŃØ§Ø³Ø¨
ĠÙħØ¹Øµ
inea
ĠÙĩÛĮÙ¾
rency
ĠChile
Ġdevoted
Ġclothing
Ġadministration
Ġattracted
ĠØ¨Ø³Ø§Ø²ÙĨØ¯
Ġsacred
Tracy
ĠØ§Ú©ØªØ´Ø§Ùģ
German
walk
ĠØ¯ÙĨØ¯
ÙģØ§ÙĦ
ĠØªØ®ØµØµÛĮ
ĠØ³ØªÙħ
Ø®ÙĪÙĨ
Ġbearing
ĠÛĮÚ©Ø¨Ø§Ø±
Ġstages
ĠØ®ÙĪØ²Ùĩ
oding
ĠØ³Ø±ÚĨØ´ÙħÙĩ
ĠDaza
ĠNavy
ÙģØ±Ø¶
cca
ĠÛ±Û¹Û³Û°
ĠÙĨÛĮØ²Ùĩ
ĠØªØŃÙħÛĮÙĦ
Ġtrace
ocation
Ġpolite
Ġfrac
ĠÙĪØ§Ú¯Ø°Ø§Ø±
ĠÙħÙĨØ¸ÙĪÙħÙĩ
Ġcontinually
ographical
ĠÛ±Û¹Û¹Û³
Ġcrossing
Ġrequirements
Ġmelancholy
ĠØ³Ù¾Ø§Ø³Ú¯Ø²Ø§Ø±Ùħ
Ġdynamic
Ġgesture
ĠICAO
ĠØ¯ÙĨØ¯Ùĩ
ĠÚĨØ§Ø¨
ĠØ·Ø§ÙĤ
ĠLaur
asting
Ġnois
ĠÙ¾Ø³Ø±Ùħ
ĠØ§ØªØ§ÙĤØ´
ĠØ§Ø·ÙĦØ§Ø¹ÛĮ
Ġvalid
Ġ1972
ĠÙĨÙĪØ´ØªÙħ
Ġ1969
ĠÛ±Û³Û¹Û
ustomed
Ġconcepts
Ġdepths
Ġaccurate
ĠTaylor
ĠØ¯ÛĮÙ¾ÙĦÙħ
rat
Ġ00
ÙĨØ¯ÛĮØ§
Ġtoss
otty
keeper
ĠTa
ĠÚ¯Ø±ÙħÛĮ
ĠÚ©ÙĪÚ©
ĠÙħØ´ÙĪØ±Øª
ĠÙĨØ²ÙĨ
atching
ĠØ¨Ú¯Ø°Ø±Ø¯
Ġsuccessfully
Ġburden
ĠÙģØ±Ø§ÙĨØ³ÙĪÛĮØ§ÙĨ
Unlike
ÙħØ·ÙħØ¦ÙĨ
CD
SO
ĠØ§Ø¨Ùĩ
Ġoption
ÙģÙĨ
Ġnavig
ĠØ·ÙĦÙĪØ¹
ĠBenn
Ø§ÙĦÛĮØ³Ùħ
ĠKim
Ġoffering
Ġlighted
ĠØªØ§Ø¨ÙĪØª
ĠØ´ÙĨØ§Ø³Ø§ÙĨ
ĠØ¬ÙĪØ±Ø§Ø¨
ÙħÙĪÙĤØ¹
Ġabsorbed
ĠØ§Ø¹Ø·Ø§
ĠØ³ÙĪÙĨØ¯Ø±Ø§
ez
ĠÙħÚ¯Ø³
Ø§ÛĮÙĨØ¯ÛĮ
Ġpy
entine
ĠØ§ÙĨÙĤ
ĠØ¨ÛĮØ§Ø¨Ø§ÙĨ
ĠDatabase
ĠLad
Ú©ÙĨÙĩ
ĠTheory
ĠØ¨ÙĩØªØ±Ùĩ
cribed
Ġstruggling
free
ĠÙħÙģØª
Ø´Ø±ÙĪØ¹
Ġdensity
ĠÛĮØ§ÙĦ
Ġnodes
ĠØ¹Ú©Ø§Ø³ÛĮ
Ġanalog
ĠBru
ĠØ§Ø´Ø±Ø§Ùģ
ĠØªÙĨÙģØ±
ĠØ§ÙģØ³ÙĪÙĨ
ighter
ĠØªØ¨Ø³Ùħ
cluding
ÙĨØ³Ø®Ùĩ
Ġbreathe
ĠÙħÙĪØ±ÚĨÙĩ
ĠÙĦØºØª
ĠÙħØ¹ØªÙĤØ¯ÙĨØ¯
Ġhunting
Ġinjury
Ġdistinguished
ĠColumbia
46
Mon
tailed
hent
Ø´Ú©ÙĦ
Ġdad
ĠÙģÙĪØ±
seen
ĠSon
ĠØ®ÙĪØ¯ÛĮ
unted
ĠDol
ĠLanguage
ĠNight
Ġleather
ĠKenn
ĠÙĨÙģØ±Ùĩ
Ġinteraction
ĠØ¯Ø§ÙĨØ³ØªÙĨ
ĠÙħÙĨØªÙĤ
ĠÛ´Û°Û°
ĠConstitution
ĠØªØ³Ø®ÛĮØ±
ĠØ¯ÛĮÙĪØ§Ø±ÙĩØ§
Ġangel
ĠJohnson
ascal
Ġhyper
ĠØ±Ø¨Ø·ÛĮ
Mer
lÄ±
uty
ĠÙĦØ²
ĠØªÙĪØ·Ø¦Ùĩ
ĠHol
ellow
ĠVill
Ġconsidering
ĠØŃØ³Ø§Ø¯Øª
ĠØªØ¨Ø§Ø¯ÙĦ
Ġcomputing
Ġfreely
coat
ĠArabs
Ø´ÙĨØ§Ø³Ø§ÙĨ
ĠMedic
Ġnearest
Û³Û
Ø¯Ø§Ø±ØªÛĮÙĨ
itating
anian
ĠÙ¾Ø°ÛĮØ±Ø¯
Ø§Ø²ÛĮÙħ
Ġric
ĠØµØ¯Ø§ÙĩØ§
Ġnecessity
ĠAmaz
Ġmidnight
ĠÙĪØŃØ´ÛĮØ§ÙĨÙĩ
ĠTransport
Ġdragged
ĠVirginia
Ġsimultaneously
went
word
ĠØ¨Ø®ØµÙĪØµ
Ø§ÙħÛĮÚ©
ĠØ¬Ø§Ø±ÙĪ
eton
ĠØªØ§Ø®Øª
ÙĦÙĩÙĪÛĮÙĨ
elli
Ø§Ú©Ø«Ø±
ĠÙħÛĮÙĦØ§Ø¯
Ġlocations
ĠÙ¾ÙĪØ³ØªÛĮ
Ġsubstant
Ġrejected
ĠÙĦØ·ÛĮÙģ
utenant
IX
vas
Ø§Ø«Ø±
ÙĨØ¯ÙĪ
Ġpitch
Ø¹Ø¬Ø¨
Ø°ÙĦ
ĠÙħÙĪØ§Ø²ÛĮ
Ø¨Ø§Ø´
ĠØ§Ø¬Ø²Ø§ÛĮ
Ġretire
ĠØ®ÙĪØ±Ø¯Ùħ
Ġreader
ĠØ¹Ø´ÙĤÛĮ
ĠØ®ÙĪÛĮØ´Ø§ÙĪ
ĠÙĪØ¨ÙĦØ§Ú¯
ĠÙģÛĮÙģØ§
ĠØ¨Ø±Ø®Ø§Ø³ØªÙĩ
Ġpulling
ĠÙĥÙĨÙĨØ¯
ĠÙħÛĮØ®ÙĪØ§Ùħ
ĠDirector
Give
iography
Ø³ÙĦØ§Ùħ
Ù¾Ø²ÛĮ
Ø¬ÙĪØ±ÛĮ
Ġbeer
state
ĠØŃÙĪÙħÙĩ
ĠÚ©ÙĨØ³
ĠCad
ĠØ¨ÛĮÙĪÙĩ
ĠÙĩØ±Ú©Ø¯Ø§Ùħ
Ġrope
Ġroles
ĠÙ¡
class
ÙĪØ±ØªÙħÙĩ
ĠÚ¯ÛĮÙĦØ§Ø³
ĠÛĮØ§ÙģØªÙħ
Ġfuneral
Ġsixty
ĠÛ±Û¹Û¸Û¹
ĠØ§ÙĪÙĦÛĮÙĪÛĮÙĩ
Ġdelicate
Madame
Ġridiculous
Ġillegal
Poor
oons
ÙħØ§ÛĮÛĮØ¯
ĠÚ©ÙĪÙĨ
ÙģÛĮÙĨ
Ġfoss
orph
ĠØ¯Ø±Ø¨Ø±
Ġtoile
ĠØ³ÙĨÛĮ
Ġlou
lly
Ġbegged
tery
uma
Ġshaped
ĠÙ¾Ø±Ø³Ùĩ
ĠØ³Ø§Ø®ØªÚ¯ÛĮ
Ġeleg
ĠArchitect
Ġtalent
ĠComputer
Part
eav
hran
Ø±Ø§Ø²
ĠÙĨØ§ÙĨÙĪ
Ġfiction
Ø§Ø¯ÙĪØ±
ÛĮÙħÙĩ
ĠAD
Ø§Ø³Ù¾
Ġprofit
ĠBridge
Ġidentical
ĠØ±Ø³Ø§ÙĨØ¯ÙĨ
ĠØªÙĦØ³Ú©ÙĪÙ¾
han
Ãº
orf
Ø¬ÛĮÙħÛĮ
ĠØŃÙĤÙĩ
ĠØ§ÙĨØ²
igious
Ġimplic
Ġagents
ĠÚ©ÙħØ±Ø¨
Ġregional
ĠÙħØªØŃØ±Ú©
Ġ64
Ġpainter
ĠÙĤØ±Ø¨Ø§ÙĨÛĮØ§ÙĨ
Ġinstruments
ĠÙģØªØŃ
ĠÙħØ¹Ø°Ø±Øª
ĠMovement
ĠSciences
Ø´Ø§ÙĨÛĮ
ĠSong
Ø´Ø§ÙĨØ¯
Ġdispl
ĠØªÙĤØ¯ÛĮÙħ
ĠÙĦÙĪØ³ÛĮ
Ġmanufacturing
ĠÙħÙĨØµÙĪØ¨
Ø¯Ø§ÙĨØ´Ú¯Ø§Ùĩ
ĠØ®ÙĪÙĨØ³Ø±Ø¯ÛĮ
Ġdiver
ĠÙĤÙģØ³
Ø¢Ø²
igma
ĠTop
ĠÙħØªÙĤØ§Ø¨ÙĦ
cling
ĠÙĨÙĤÙĦÛĮÙĩ
Ġpersist
ÙħØ¯Ø§ÙĨ
ĠØ§ÙĨØ¯Ø§Ø®ØªÙħ
Ġsupporting
Ġmeetings
ĠYoung
ĠCentre
ĠØ§ÙĪÙĦÛĮÙĪØ±
Ġthermal
Co
Ø´ÛĮØ¯Ùĩ
Ġbinary
ĠÙģØ§Ø³
ĠØ²ÙĪØ²Ùĩ
ĠÙĤØ´ÙĨÚ¯ÛĮ
ØªÛĮÙĪ
olay
ĠØ§ÙĦÚ©ÙĦ
ĠÙĨÙħØ±Ùĩ
ĠØ³Ø§Ø®ØªØ§Ø±ÛĮ
Ġ36
Ġmovies
ĠØ¯Ø¹ÙĪØ§
ĠØ§ÙĨØªØ´Ø§Ø±Ø§Øª
ĠØ¹Ø±ÙĪØ³
Ġremarked
ĠIraqi
ĠØ¨ÙĪÙĦØ³Øª
ĠÙĩÙħØ¯Ø±Ø¯ÛĮ
2000
AV
cal
wr
Ù¾ÛĮØ´Ùĩ
otr
ĠØ¹Ø·Ø±
ĠÙĦØ®Øª
Ø§ÛĮÙĨÙĩ
Ġcomposition
ĠÙħØ¬Ø²Ø§
Ġslip
Ġproduces
ĠØ±ÙĪØ¯Ùĩ
Ġedges
Ġparticle
ĠØ³Ù¾ÛĮØ¯
ĠÙģÛĮÙĪØ¯ÙĪØ±
ĠØ¢Ø´Ú©Ø§Ø±Ø§
ĠÚ¯ÙĪÙĨØ§Ú¯ÙĪÙĨÛĮ
Ġtransferred
Ġwithdraw
ĠAzerbaijan
ĠCorporation
Old
West
Ú©ÙĪØª
ĠØ®Ø§ÙĨØ¯Ø§ÙĨ
ĠMans
ĠRem
ĠHal
ĠFrom
ĠÙĦØ¨ÙĨØ§ÙĨ
ĠÙĩÙģØªØ§Ø¯
ĠÙħØ³ÙĦØ·
Ġthreatened
rigory
Ġruin
ĠÙħØ²Ø§ØŃÙħ
fare
olk
ĠØ¯ÙĪÙħÛĮ
Hey
ĠÙ¾Ø±ÙĪØ§ÙĨÙĩ
ĠÙĨØ¯Ø§Ø´ØªÛĮÙħ
Ġregime
Ġguards
Ġbusinesses
erald
ĠØ¨Ø±Ú¯Ø±Ø¯ÛĮÙħ
Ġaddressing
ĠØ´ÙĩØ±ÙĪÙĨØ¯
oiselle
Ġsuspicion
02
SD
TM
mist
ĠØ¯ÛĮØ³Ú©
ĠRing
ĠRet
ĠØ¯Ø§ÙĨØªØ³
Ġ33
ĠØ®ÙĪØ´Ú¯ÙĦ
ĠØ¹ØµØ¨
ĠÙ¾ÙĪØ³ØªÙĩ
ĠØ¯ÙģØ¹
ĠØ¨Ø®ÙĪØ§ÙĩÛĮÙħ
ĠÙħÙĪÙĦÚ©ÙĪÙĦÛĮ
ĠÙĦØºØ²
ĠØ±Ø§ÙĩÙĨÙħØ§ÛĮ
ĠÚ¯ÙĪØ³ÙģÙĨØ¯
ĠStandard
ĠØ¢ØªÙĦØ§ÙĨØªØ§
ĠÙħØ±Ø·ÙĪØ¨
Dana
SC
uros
Ø§Úĺ
ĠÚ©ÙħØ§ÙĨ
Ġdarling
otted
ĠØ´Ø¯ÛĮØ¯Ø§
ĠÙħÙĪÙĩØ§ÛĮØ´
Ø¢ÙħÛĮØ²ÛĮ
ĠØªØ±ÙĪÛĮØ¬
ĠTower
Ġchim
Ø´Ø§ÙĨÙĪÙĨ
iven
ĠÙħØ¹Ø¨Ø¯
ÙĬÙĬ
ĠØªÙĨØ¨ÛĮÙĩ
ĠØ®ÙĪØ´Ø§ÛĮÙĨØ¯
ĠØ°Ø§ØªÛĮ
Ġassume
Ġappeal
ĠCommon
Ġgrounds
Ġintroduce
Ġdefeat
ĠØ´ØªØ§Ø¨Ø§ÙĨ
ĠBaba
ĠØ¯Ø§Ø«Ø§
ĠSpecial
ĠÙģÙĪÙĦØ§Ø¯
found
ÙħØ®
Ġtourn
inte
Ġmask
Ġpier
Ġdeck
ĠØ³Ø±Ø¹ØªÛĮ
Ġvit
ĠØ²ÛĮØ±Ø¯
ĠØ¢Ø±Ú©
ÙģÙĩÙĪÙħ
ĠÙ¾ÙĨÙĩØ§ÙĨÛĮ
ĠAustria
ĠÙħØ¨Ø§Ø±Ø²
ĠØ®Ø§ÙħÙĪØ´ÛĮ
Ġgeomet
Ġfarmers
Ġestablishment
ĠØºØ¶Ø¨
Ú©ÙĨØ¯Ùĩ
Ø´ÙĤ
ĠÙħÛĮØ´ÙĨ
Ġdrank
ĠØ·ÙĨØ²
Ø¢Ø²Ùħ
ĠÙħØªØ¯Ø§ÙĪÙĦ
ĠWales
ĠØ¨ÙĦØº
ĠYeah
Ġcolored
Ġstopping
Ġprotocol
ĠØ¯Ø§ÙĨÙħØ§Ø±Ú©
Ġreplace
ĠEdition
Ġconversations
ĠEnter
ĠÙ¾ÙĨØ§ÙĩÙĨØ¯Ú¯Ø§ÙĨ
Ġdistinguish
ĠEconomic
ĠØ³ÙĪØ§ØŃÙĦ
ĠÙħØŃØ§Ø³Ø¨Ø§ØªÛĮ
ĠâĢĺ
ĠÙĨÙħØ§ÙĨØ¯
Ġcort
ashes
Ġstores
ĠSony
Ġlikes
ĠGirl
ÙĩØ§ÛĮØª
rane
ÛĮÙĦÙĨØ¯
Ġcloth
Ġpermitted
ĠÚ¯Ø±Ø¯ÙĨØ´
Ġmatrix
Ġmonster
Ġfewer
ĠØ³ÙģÛĮØ±
Ġ65
Ġlisted
ĠArabia
uzov
Ġcomplain
ĠØ¨ÛĮØ§ÙĪØ±ÛĮØ¯
ĠCasaubon
Ġromantic
orters
Ġlift
ĠÚ¯ÙĢ
ista
Ġintend
ĠJamie
ĠØ®Ø·Ø±ÛĮ
ØŃØ§ÙĦØª
Ġexpanded
ĠSpring
Ú©Ø±ÛĮØ³
ĠBeranabus
Ġinjured
Ø¯Ø§Ø®ÙĦ
ĠDefense
ĠØ¬Ø§Ø³ØªÛĮÙĨ
Ġimprison
ĠØ§Ø´ØªØ¨Ø§ÙĩÛĮ
rection
ĠÙĪÙĩ
Ġhorn
Ġpushing
Ġpardon
Ġgardens
thought
ĠÚ©Ø§Ø±Ø¢ÙħØ¯
ĠFyodor
ĠEvery
ĠÙħØ±Ø¯Ø§ÙĨÛĮ
ĠPhot
Ġresulted
Ġcultures
2005
ĠØ¨ÙĨÙĪÛĮØ³Ø¯
ĠØ§Ø¯Ø¹Ø§ÛĮ
Ġacknowled
ĠØªÙĦÚ¯Ø±Ø§Ùģ
Ġcorridor
Nobody
ĠØ¢Ø¦ÙĪØ±ÙĦÛĮØ§ÙĨÙĪ
ĠÙĩØ§ÛĮØª
ĠØ¨ÛĮØªÛĮ
ĠÙĦØ§Ø¨Ø¯
emoiselle
ĠØ§ÙħØ³Ø§ÙĦ
oston
ĠØ¯ÙĦØ®ÙĪØ§Ùĩ
adesh
Ġsweat
Ġcrowded
Ġprinted
Ġuniversities
ĠCatal
ht
Ġod
ĠØ®Ø±Ú¯ÙĪØ´
ghter
ctic
ĠAff
ĠPenn
Ġengin
ĠVas
ĠØ³Ø§Ø®ØªÙħØ§ÙĨÛĮ
Ġsla
Ġguest
ĠØªÙģØ§ÙĪØªÛĮ
Ġmuscles
Ġmarks
Ġbarrier
Ġpropag
Ġcivilization
Ġduties
ĠØ§ÙĦÚ©ØªØ±ÙĪÙĨÛĮÚ©
Ġassistant
ĠBusiness
95
ĠÙħÙĩÛĮ
Ø¨Ø§Ø³
ĠØŃØ¨Ø§Ø¨
ĠAtt
chi
ĠMouse
ĠLo
ĠØ§Ø³ÙħÛĮ
ĠÙĨØ´Ø³ØªÙħ
ĠØ¢Ø¨Ø¬ÙĪ
Ġinsist
ĠØ§Ø¨Ø±ÙĪ
ĠØªØ±Ø³ÛĮÙħ
Ġ1977
ĠPetrov
}}}
Ġengineers
ĠØ·ÙĦØ³Ùħ
Ġcollective
Ġpalm
Ġprosper
ÙħÙĪÙĤØ¹ÛĮ
ĠRadio
Ġfantastic
ĠØ§Ø¹ÙĦØ§ÙħÛĮÙĩ
fle
Ġhook
sters
ĠÙģÙĪÙĨ
ĠÙĩÙħØ©
riers
Ġconj
ĠÙ¾Ø±Ø³Ùħ
ptions
ĠÙ¾Ø³Ø±ÛĮ
Ġbrut
napped
ĠØ®ÙĪØ§Ø¨Ú¯Ø§Ùĩ
Ġreturns
ĠØ¹Ø±ØµÙĩ
Ġlandscape
ĠCommunity
ĠÙĩØ´ØªØ§Ø¯
Ġdependent
ĠØ¯Ø´ÙħÙĨØ§ÙĨ
ĠØ¬Ø§ÛĮÚ¯Ø²ÛĮÙĨÛĮ
ĠÚ©Ø§Ø±ÙħÙĨØ¯Ø§ÙĨ
ĠÚ¯Ø°Ø±Ø§ÙĨØ¯Ùĩ
Ù¾Ø±ÙĪÙģØ³ÙĪØ±
Ġcraft
ÙĪØ±ÙĩØ§
adow
ods
ØªØ±Ø§ÙĨÙĩ
ĠHan
iev
ĠNev
Ú©Ø±Ø§ÛĮÙĨ
ĠKal
ĠStone
Ġacted
Ġforming
Ġregister
Ġinfrastructure
ĠÙĦÙĪØŃ
ĠØ±ÙģØªØ§Ø±ÙĩØ§ÛĮ
Ġalongside
Ġphysically
ĠØ±Ø§ÙĨØ¯Ùĩ
Ġdressing
Ġconsumer
ĠGovernor
ĠÙĨØ±ÙĪÚĺ
87
Car
ds
will
Ġarose
Ġmart
ĠÚĨØ·ÙĪØ±ÛĮ
ĠIl
ilation
ĠÚ¯ÙģØªÛĮØ¯
Ġintr
ĠØ³ÛĮØ³ØªÙħÛĮ
ĠØ±ÛĮÙĪ
Ġirre
Ġvanished
ĠÙħÙĤØ¯ÙħÙĩ
ĠÙħØ®Ø§Ø·Ø¨
Ġphotographs
Ġswimming
ĠÙħØµÛĮØ¨Øª
ĠÙħØ§ÛĮÚ©Ø±ÙĪØ³Ø§ÙģØª
ĠØºÛĮØ±Ø¹Ø§Ø¯ÛĮ
ïº
ĠØ¨ÙģÙĩ
Ø¨Ø§ÛĮÛĮ
ĠÙĨØ±ÙģØª
Ġlists
ĠÙģÙĪØ±Ø¯
rooms
abul
ĠGene
ĠØ³Ø§ÙĦÙĩØ§
ĠFalls
ĠØ¨ÛĮÙĨØ§ÛĮÛĮ
ÙĪØªÛĮÙĨ
Ġassass
ĠØªØ§Ø±ÛĮØ®ÚĨÙĩ
ĠØ¶Ø±Ø±
Ġperiods
ĠØºÙĦØª
Ġgazing
Ġinquired
Ġmolecular
Nevertheless
Ġcategory
Comp
cule
Ø³ØªÙĨØ¯
Ġhid
Ø§Ø¯Ùģ
ĠÚ¯Ø§ÙĨÙĩ
ĠÛĮÙĪØªÛĮ
ĠÙĤÙĪÙĩ
Ġsto
ĠÙĦÙĤ
Ø¢ÙĨØ¯
ĠTreat
ÙĬÙĤ
ĠVis
Ġclut
Ġrecalled
erer
Ø§Ø¨ØªØ¯Ø§
Ġconcrete
Ġearthqu
Ġcommunications
ĠÚ©ÛĮÙĦÙĪÙħØªØ±ÛĮ
Ø¯ÙĦØ´
Ġguessed
ĠØªØ¸Ø§ÙĩØ±Ø§Øª
Ġbattery
ĠColombia
enezuel
Eng
Ġtale
itled
ĠØ¨ÛĮØ§ÙĨÛĮÙĩ
agic
ĠØ§Ø´Ø¹Ø§Ø±
ĠVic
ĠØ´ÙĨÙĪØ¯
ĠÚ©Ø§ÙĦØ§
Ġgloomy
Ġsouls
Ġprepare
Ġconviction
ĠØ¹ÙģÙĪ
reprene
ĠÙħØ°Ø§Ú©Ø±Ø§Øª
Ġengines
pan
xual
isal
ĠØ³ÙģØª
Ġdiversity
ĠØ±ÙĪØ¨Ø±
ĠTar
Ġclerk
Ġbrow
ĠØ¬ÙĨØ§Ø²Ùĩ
Ġscent
ĠØ¢Ø±ÙĨØ¬
ĠØ§ÙĨØ³Ø§ÙĨÙĩØ§
Ø±Ø³ÙĪÙĨ
ĠÙĨÚ¯Ø±ÙģØª
2004
Ġsquee
ippin
IDS
ĠØ¬Ø²ÛĮÛĮ
hov
uine
Ġfestival
ĠØ³Ú©Ø³
Ġdwell
Ġga
ĠÙĤØ±Ø§
Ø¶Ùħ
Ø¢Øª
Ġrolling
Ġresumed
Ú©Ø³Ø§ÙĨÛĮ
Ġnewly
Ġstrangers
Ġboxes
ĠÙħÙĪØ³Ø³Ø§Øª
ÙħØ·Ø§ÙĦ
ĠÚĨÙĨÚ¯Ø§ÙĦ
Ġconceal
Ġloudly
ĠÙģØ±Ø³ÙĪØ¯Ùĩ
ĠØŃØ³Ø§Ø³ÛĮØª
ilibrium
Ø±Ø¹
Ø¯Ø§Øª
Ġsale
ĠØªØ§ÛĮÙĦ
Ġshapes
ĠLight
venue
ĠØ¹ÙħØ±Ùħ
olds
ggotty
Ġpersonally
ĠÚĨØ±Ø®Ø§ÙĨØ¯
ĠÙĨÚ©ÙĨÙĨØ¯
Ġfunctional
Ġiniti
Ġdiscussed
Ú©Ø§ÙħÙĦØ§
ĠÙĨÙĪØ§Ø®ØªÙĨ
Ġexhausted
Pres
ÙħÙħÙĨ
Ġfires
Ġhed
utuzov
ĠBurg
Ġusage
ÙĢÙĢ
Ġ37
Ġmatches
ĠÙħØ±Ú¯Ø´
Ġsecrets
ĠØ§Ø®ØªØµØ§Ø±
Ġpockets
Ġencourage
Ġbehaviour
Certain
HR
World
have
uation
Ú©ÙĦØ§
ĠØ¨Ø³Ø§
Ú¯Ø§ØªÛĮ
Ġholy
ĠÚ¯Ø²Ø§Ø±
acement
change
ntil
auc
ĠØ¨Ø¯ÛĮØ¯
Ġbrid
ĠÙħØºØ²Ø´
Ġconfront
Ġequality
ĠÙģÙĦØ³ÙģÛĮ
Ġvariables
ĠSenate
Ġlatest
ĠØ§Ø±Ú©Ø³ØªØ±
Father
lers
ÙĩØ²Ø§Ø±
ØªØ§ÛĮ
ĠâĢ²
ĠØ¯ÙĦØ§
Ġlap
Ġnig
ĠØ¨Ø±Ø§ÙĤ
Ġrecept
ammy
ĠAureliano
ĠMit
ĠMore
ilton
Ø±Ø§Ø¶ÛĮ
ulus
ĠØ³Ø±ÙģÙĩ
ĠGran
ĠDana
Ġenh
Ġattach
Ù¾ÛĮÙĪÙĨØ¯
Ġending
ĠØ´ÙĩØ§Ø¯Øª
Ġpersonality
ĠØ¨ÙĪÚ©
Ġlanding
ĠÙħØ´Ø®ØµØ§Øª
ĠÙĤØ¶Ø§ÛĮÛĮ
ĠDorothy
ĠFederation
Imagine
ÙĦØ§ÛĮ
ĠÙĩØ¯Ø±
ĠÙĩØ§Ø±Øª
ĠØ´ÛĮÙħ
ĠÙħÛĮÚ¯Ùĩ
Ġbeam
ĠCensus
ĠÙĦØ§ÙĨÙĩ
ĠØ±ÙĪØ²Ø§ÙħÙĪÙĨØ¯
Ġquit
Ġcountenance
ĠÚ©Ø§ÙħÙĦÛĮ
Ġmetaph
ĠÙ¾ÙĪØ´ÛĮØ¯ÙĨ
ĠØªØ³Ú©ÛĮÙĨ
ĠÛ³Û²
ĠÙĤÛĮÙħØªÛĮ
Ġrepresentation
ĠÚ©Ø§Ø±Ø¨Ø±Ø¯ÙĩØ§ÛĮ
Ġcovering
ĠImper
ĠMathemat
ĠÙħÛĮØ®ÙĪØ§Ø¯
Ø¢ÙģØ±ÛĮÙĨ
Ġunpleasant
Frank
eries
Ġhollow
Ġtob
Ġpond
ĠØ§Ø³ØªØŃ
ĠØªÙĪÙĩÙħ
ĠØ¨Ø§Ø´Ú©ÙĪÙĩ
ĠHosp
ĠØ±ÙĪÛĮÙĩ
Ġflour
ĠÙ¾Ø§ÙĪÙĦÙĪ
rorism
ĠÙħÛĮØ¯Ø§ÙĨÙħ
ĠØ§Ø«ÙĨØ§
Ġthrowing
Ú©ÛĮÙĨØ²
ÛĮÙĨÙĪÚ©Ø³
Ġparticipants
ĠØ¬ÙĪÙĨØ²
Moreover
Ġcheerful
ĠÙĨØµÛĮØ¨
").
SL
ãĢ
Ø§ÛĮØ§Øª
ĠØ´ÛĮÙĦÛĮ
ĠØ¬ÙĨØ¬
olis
Ġseed
ĠØ¯Ø§Ø±ÙĪÛĮ
ieval
ĠØ¨Ø¯ÙĨÙĩ
oca
ĠÙħÚ©Ø§ÙĦÙħÙĩ
Ġgovernor
ĠØ¨Ø´ÙĨÙĪÙħ
ĠÛĮØ§ÙĨÚ©ÛĮ
imensional
UR
bf
hr
tic
vation
Ġwoke
ĠØ¬Ø±Ø§ØŃ
ĠIT
oli
ĠØ¨ÛĮØ§Ø¨Ø¯
Ġabund
ĠØ§ÙħÙĪØ§ÙĦ
ĠJe
Ġmanip
ĠÙħØ±Ø¯ÙĨ
ĠØ³Ø§Ø®ØªØ§Ø±ÙĩØ§ÛĮ
ivering
ĠÙħÙĩØ§Ø¬Ø±Ø§ÙĨ
ĠÙĪØ±Ø²ÛĮØ¯
ĠØ¨ÙģØ±ÙħØ§ÛĮÛĮØ¯
Ġdeserted
Ġcontemporary
Ġtorture
ĠÙģØ±Ø´
Ġcock
ĠØ§ÙĨØ¬Ø§ÙħÛĮØ¯
ĠÚ©Ø±Ø§ÛĮÙĩ
ĠÙħØ¹Ø¯ÙĨÛĮ
ĠØºÛĮØ¨Øª
Ġconcentration
Ġsyndrome
AB
à¦
ÙĪØ¨Øª
Ġcust
ĠØ¨Ø±Ø·Ø±Ùģ
ĠSound
ĠDaniel
ÚĺÙĪÙĦ
ĠÙĨÛĮØ³
lando
Ø§Ù¾ÙĪØ±
Ġcurve
ĠIsab
ĠØ´ÙĪØ±Ø´ÛĮ
ĠÙĦÙĩØ³ØªØ§ÙĨÛĮ
Ġkingdom
ĠÙħÙĨØŃÙĨÛĮ
ĠØªØ²Ø±ÛĮÙĤ
42
gence
Ġ×
Ġmamm
ĠØ¢Ø±Ùĩ
ĠØ³Ø³Øª
ĠÚĨØ§ÙĦÙĩ
ĠKn
ĠÙħØ³Ø¬Ø¯
ÙĦØ¨Ø®ÙĨØ¯
ĠÙģÙĩÙħÛĮØ¯ÙĨ
Ġabsent
Ġperforming
ĠØ¹Ø¯Ø¯ÛĮ
ĠØ®ÙĨØ¯ÛĮØ¯ÙĨØ¯
ĠØ¨ÙħÛĮØ±
ĠØ±ÙĪØ§ÙĨØ´ÙĨØ§Ø³ÛĮ
Ġfeatured
Ġmechanics
ĠÙ¾Ø§ÛĮØ¯Ø§Ø±ÛĮ
ĠÙħØ·ÙĦØ¨ÛĮ
Ġwidow
Ġprocedure
Su
culation
sur
Ø¯ÛĮÙħÛĮØªØ±ÛĮ
Ġturb
Ø§ÛĮØ³Øª
ĠØ³ØªÛĮ
Ġdio
Ġhence
ĠØ¬Ø§Ø¨Ùĩ
ĠÙĤÙĪÙħÛĮ
ĠÛĮÚ©ÙĨÙĪØ§Ø®Øª
urus
Ġstem
ĠÙĦØ§Ø±
ĠØ¯ÙĪØ³ØªÙħ
elled
perhaps
ĠOver
ĠØ¯ÛĮØ¯Ú¯Ø§ÙĨ
ĠÙĥÙĨØ¯
ĠØ§Ø¹ØªØ¨Ø§Ø±ÛĮ
ĠÙħÙĪØ¶Ø¹
ĠØ´ÛĮØ¨
ÙĪØ³ØªÙĪÙĨ
ĠÙĨÙĪØ±ÙĪÙĨ
Ġsunlight
Ġlabour
ĠØ¢Ø¯Ø§Ø¨
Ġcognitive
ĠØ³Ø¦ÙĪØ§ÙĦ
pread
reated
ĠØĮ"
ĠØ¢Ú¯ÙĩÛĮ
ĠØ±Ø§Ø´
Ġlun
Ġgown
aman
ĠØ¯Ø§Ø±Ø§
ĠØªØ±ØŃÙħ
ĠDmitri
Ġje
assan
ĠÙħØ¬Ø§ÙĦ
ĠÚ©ÙĪÚĨÙĪÙĦ
Ġcrash
ĠØªØ£Ø³Ùģ
ĠØ¯Ø±ÛĮØ§ÙģØªÙĩ
ĠØ±ÙĨÚ¯ÛĮÙĨ
Ø¹Ø§Ø¹
ÙĪØ¨ÛĮØª
ĠØ¨Ø§Ø²Ú¯Ø´ØªÙĩ
ĠÛ±Û¸Û·Û
Ġstriking
ĠÙĨÙĪØ´ÛĮØ¯ÙĨ
ĠØ§ÙħØªÙĨØ§Ø¹
ĠØ§Ø³ØªØ«ÙĨØ§
ĠPalestinian
Ġsharply
Charles
lav
zi
ĠÙħÙĪØ¯
itched
ĠÙģØ§ÙĦ
look
ĠÙĨØ§ÙħÙĨØ¯
ĠØ§ØŃØ²Ø§Ø¨
ĠØ¨Ø§Ø²ÛĮÚ¯Ø±Ø§ÙĨ
ĠÚ©Ø´ÙĪØ±ÙĩØ§ÛĮÛĮ
Ġendeav
graph
Ġsincere
Ġexperts
def
pended
Ø®ØµÙĪØµØ§
Within
ĠÛ±Û¹Û¸Û´
ĠØ§Ø³ØªÙĪØ¯ÛĮÙĪ
Ġgratitude
ĠØºØ§ÙģÙĦÚ¯ÛĮØ±
ĠÙħØ¬ÙĩØ²
Af
Ġtip
Ú©Ø§ÛĮ
itual
Ġmock
Ġlin
ĠÙĤÙĨØ¯
ulpt
ĠÚ©Ø§Ø±ÙĪÙĦÛĮÙĨ
ĠTit
ardo
ĠFront
Ġintimate
Ġagony
claimed
Ġ38
ĠØ³ØªØ§Ø¯
Ø¬ÙħÙĦÙĩ
ĠÛ±Û¹Û´Ûµ
Ġcounsel
Ġagreeable
ĠÙħØ³ÛĮØŃÛĮØª
Ġharvest
Ġcabin
ĠØ´ÙĩØ±Ø¯Ø§Ø±ÛĮ
Ġoccasions
gon
ĠÙ¾Ø´Ùĩ
ĠØ¨Ø§Ø®ØªÙĩ
ĠÚ©ÙĨØªØ³
ĠAmy
Ø¶Ø±
ĠBible
gered
ĠØ§ÙĦÙĤØ§
ĠÙ¾ÛĮØ´Ø®Ø¯ÙħØª
ÙĪÙĩØ§ÛĮÛĮ
Ġemail
Ġassigned
Ġsixth
Ġradical
ĠÙĨØ§Ø®Ø§ÙĦ
Ġpanic
Ġtherapy
Ġbeaten
Ġexecutive
Ġqueer
Ġdisagree
onomous
68
him
ĠÙħØ¸
ĠÙĪØ±Ø¯
ĠØ´ÛĮØ§Ø·ÛĮÙĨ
Ø³ÛĮÙĩ
ĠAP
Ú¯Ø±ÙĩØ§ÛĮ
ÙĦØ§Ø·
Ġju
ĠTheatre
Ġpreparing
ĠØ³ÙĪØ¦Ø¯ÛĮ
Ġlaboratory
Ġcelebrated
ĠÚ©ÙĪØ¨ÛĮØ¯
Edward
Ġgathering
Bel
Ø§Ø¸Ø±
ÛĮÙĪØ±
ØªØºÛĮÛĮØ±
orious
ĠØ³Ø±ÙĨÚ¯
Ġagencies
ĠÛ±Û¹Û²Û°
ilda
ĠUnivers
ĠArm
idespread
ĠÙħØ²Ø®
ĠÙģÛĮØ³
ĠØ³Ø§ÙĨÚ©ÙĪ
Ġfatal
ĠØ´ÙģÙĤØª
Ġattractive
ĠSystems
Ġstroke
ĠØ§ÙĦÚ¯ÙĪÙĩØ§ÛĮ
Upon
Between
¯į
Ð´
Ø¨ÙĪÛĮ
ĠØ¨ÙĩØ±
ĠØ³ÙħÛĮ
Ġpup
enter
ĠBos
abil
Ġorange
Ġalter
Ġoutcome
ĠÙħØ³Ø¯ÙĪØ¯
Ġscandal
ĠØ´ÙħØ±Ø¯Ùĩ
Ġbloody
ĠProdu
prise
Ġoperated
Ġ1964
Ġtested
2006
ĠTehran
Ġencry
ĠØ´ÙĨØ§Ø®ØªÙħ
ĠÙħÛĮØªÙĪØ§ÙĨÛĮÙħ
Ø¢Ø±Ø§Ùħ
Ġreactions
ĠAssembly
Further
zo
à´
ĠÙħÚ¯Ùĩ
ldom
ĠÙĦÛĮÙĨÙĪÚ©Ø³
Ġsovere
ĠØ§ÙħÙĦØ§Ú©
ÙĪÙħØ¹Ùĩ
ĠÙĨØ§ÙħØ²
assador
ĠØ´ÙĨÙĦ
Ġdecor
ĠÚ©ÛĮÙĩ
ĠØ§Ø´ØªØºØ§ÙĦ
ĠÙĪØ¨Ú¯Ø§Ùĩ
ĠÙħØ§ÙĩÛĮÚĨÙĩ
ĠSecretary
ĠÙĤØ§Ø±ÚĨ
eur
ĠØ¯Ø±ÙĩØ§ÛĮ
ĠÙ¾Ø±Ùģ
ĠØ¬Ø§Ùĩ
ĠÚĨØ§Ú©
otype
Ø³ÛĮØ±ÛĮ
ĠØ·Ø¹Ùħ
ØªØ±Ú©ÛĮ
ĠØºÙĦÛĮ
ĠKurd
Ø³Ø±Ùħ
ĠØ¸ÙĦ
Ġdecent
ĠÙĪÛĮØ±Ø¬ÛĮÙĨ
Ġopinions
Ġexpressions
Ġencouraged
break
ĠJustice
Ġcandidate
ĠCharlie
Ġhorizon
natural
ĠÙħÙĪØ¨Ø§ÛĮÙĦ
ĠÙħØ§Ø¨
ĠØ±ÙĤØª
Ġborders
Ø¬ÙĦ
Ġsear
oples
ÙĨÚ¯Ø§Ø±ÛĮ
ĠÙĨÙĪÛĮÙĨ
Ġamid
ĠÚĨÙĨØ¯ÛĮ
ĠStory
Ø§Ø±ØªØ²
athan
Ġrecording
obs
ĠIndepend
Ġorganisms
ĠÙħØªÙĨÙĪØ¹
ĠÙħØªÙĨØ§Ø³Ø¨
Ġdivine
Ġtroubles
ĠÙĨØ§ØªÙĪØ§ÙĨÛĮ
Ġquarters
Ġindicate
Ġporch
ĠÙĦÚ¯Ø¯
%.
aton
Ġchess
ĠØ´Ø§ÙĦ
ĠØ®Ø¯
ĠØ³Ø§ÙĨØª
ĠØ¨Ø§Øª
Ġsup
ĠHere
ĠÙģÛĮÙĦØ¯
ifications
ĠØ¨Ø¹ÛĮØ¯
ĠÙħØ´Ú©ÙĦØ§ØªÛĮ
ĠØ®ÙĪØ±Ø§Ú©ÛĮ
Ġpleas
ĠÙĪØ³Ø·ÛĮ
ĠÚĺÙĨÙĪÙħ
Ġamounts
Ġdenied
ĠSerb
ĠØ¯ÙħØ§Øº
Ġthoroughly
Ġbewild
Bo
Life
ÙĪÙĪÛĮÚĨ
Ø²ÙĨØ¯
Ġmast
still
ĠØ¢ÙĨØ³Øª
ĠØ¯Ø³ØªØ§ÙĨ
Ġbuying
Ġheadquarters
ÙħØ¯ÙĦ
ĠØ¢Ø´ÙĪØ¨
Ġcontinuous
ĠSoft
ĠÙģÛĮØµÙĦ
ĠSwiss
ĠØ³Ø¹ÙĪØ¯ÛĮ
Ġagriculture
ĠÚĨØ±ÚĨÛĮÙĦ
uv
Ġsang
ĠØ¢ØªÛĮ
ĠDelt
ÙĪØ±Ø¯ÛĮ
Ġrepair
Ġdiscrim
ervation
Ġadvis
Ġlowest
ĠÙĪÙĦØ²
ĠÙĩØ´ØªÙħ
ĠÙħÙħÙĦÙĪ
ĠâĢĮ...
Ġtow
Ġink
Ġheating
Ø±ÛĮÙģÛĮ
irk
ĠÙĦØ§Ø²
ĠLow
Ø§ÙĨØ¯Ø§Ø±Ø§ÙĨ
ĠØ§ØŃØ¶Ø§Ø±
Ġfeather
Ġours
ĠØ¨ÙĦÚĺÛĮÚ©
ovo
ĠØ²ÙĨØ§ÙĨÛĮ
phal
Ġgenerous
ĠØ¢Ø³ÛĮØ§ÛĮ
Ġ1965
Ġtopic
ĠEdmund
Ġsecretary
Ø¨Ø®ØªØ§ÙĨÙĩ
ĠÙĨØ§Ø³Ø§
Ġpronounced
ĠÙħÚ©Ø±Ø±
bury
ĠÙĪØ³Øª
ĠØ¯Ø±Ø¯ÛĮ
eting
rove
ĠSolar
ÙĦØ§Ø´
ĠBan
ĠRou
ĠNet
Ġarray
reek
closed
Ġpoem
Ġdont
Ġserves
ĠÚ©ÙĪÚĨÚ©Ø´
ĠØ¨Ø§ÙĨÚ©ÛĮ
Ġestimate
ĠAdminist
Ġ1939
Ġportal
ĠÙ¾Ø±Ø³Ø¯
Ġterrorist
ĠØ³Ø¹Ø§Ø¯
ÙħÙĨØ¸ÙĪØ±
Ø²Ø§ÛĮÙĨØ¯Ùĩ
ĠÙĤÛĮØ§Ùħ
Ġtremendous
,,
Lord
ÙĨØ±
ĠÙħØ§Ø²
inth
Ġintern
Ø¬ÙĪØ§ÙĨÛĮ
ĠØ¢ÙĨØ§Øª
ĠØ·Ø§ÙĦ
ÙĬØ§Ø±
ĠØ§ØªÙĪ
Ġsprang
Ú©Ø³ÙĦ
Ġindifferent
ĠArag
anks
Ġinterior
ĠÙħØºØ±ÙĪØ±
ĠØ³ÙģØ±ÛĮ
Ġcleared
Ġextrem
ĠÙĨØ¬ÙĪØ§
ĠØ´Ø§Ø¯ÙħØ§ÙĨ
Ġneighbour
ĠØ®Ø¯Ø§ÛĮØ§
ĠØ§Ø±Ø²Ø´ÙħÙĨØ¯
Ġparticipate
ĠØ³ÙĦÛĮÙĤÙĩ
ĠØªØ¬Ø±Ø¨ÛĮØ§Øª
Ġconverted
wig
oni
Ġpoured
ĠÙ¾ØªÛĮ
Ġnan
otte
Ġvib
ĠJud
Ú©ÙĦØ§Ùĩ
Ġgenuine
Ġmodified
Ġextensive
Ġequations
Ġeleph
ĠØ¢ÙĪØ±ÛĮØ¯
ĠÙĨØ§Ù¾Ø°ÛĮØ±ÛĮ
ĠÙĨØ¨Ø§Ø´
ĠÙĨØ±Ø³ÛĮØ¯
Ġhopeless
Ġfunding
rsula
Ġfrozen
ĠDarcy
ĠØ¨Ø§Ø±Ø¯Ø§Ø±ÛĮ
Ġsustainable
Retrieved
Ø¢ÙĦÛĮÙĪØ´Ø§
Cons
Dor
Five
bul
},
ĠØ±ÙĪØ§ÙĨÙĩ
Ġcher
Ġbars
ĠÙĤØ´Ø±
ĠÙĦÛĮØ¯ÛĮ
ĠØ§ÙħÛĮØ±
Ġ'.
former
Ġpartial
comes
Ġskull
ĠØ¨Ø§ÙĪØ±ÙĨ
Ġrig
ĠØ¨Ø±Ø¯Ø§Ø´ØªÙĨ
ĠÚ©ÙĦÙħØ§ØªÛĮ
Ġviewed
Ġliterary
Ġemergency
ĠSummer
Ġmurdered
Ac
Ø¨Ø³ØªÙĩ
Ġcub
icate
ĠÙģØ²Ø§ÛĮÙĨØ¯Ùĩ
illes
ĠBudd
ĠØªÙĪØ§ÙĦØª
ĠÙĨØ´Ø±ÛĮÙĩ
ĠØ±Ø§ÙĩÙĨÙħØ§
ĠÙħØ¬Ø°
answered
Ġregiment
Ġexplicit
ĠØ¨Ø³ØªÙĨ
ĠØ¢ÙĪØ±ÛĮÙħ
ĠConference
Hermione
Ġcollapse
Ã¡n
Ø¢ÙĩØ³ØªÙĩ
Ġsavage
Ġinclined
Ġcodice
ĠØ§Ø¨Ø²Ø§Ø±ÛĮ
hist
Ø§Ù¾ÛĮØ´
Ú©Ø±Ø¯Ùĩ
ĠØ®ÙĪØ±ÛĮ
Ø§ÙĩÛĮØ±
ĠSup
ÙĩØ§Ø³
uscript
ĠÚ©Ø§Ø±Ø¯
ĠRay
ĠEle
Ġchart
ĠØ¨Ø¯ÙĨÛĮ
ĠIsot
Ġdrama
although
Ġ1941
Ġsensation
Ġà¯į
ĠØ§Ø´Ø®Ø§ØµÛĮ
Ġsymbols
Ġpraise
Ġmicros
Ġnegoti
Ġcomprehens
Ġholiday
vo
zes
Ú¯Ø§ÙĦÛĮ
ĠØ±ÙĤÛĮØ¨
iva
ĠÙħØ¹ÙĦÙĤ
Ġassault
Ġlandl
Ġsupports
ĠManagement
Ġrespectively
Ġmarketing
Ġutil
ĠÙ¾Ø±Ø³ØªØ§Ø±ÛĮ
Ġmixture
ĠÙ¾ÙĦØ§Ø³ØªÛĮÚ©ÛĮ
ĠBrooke
Ġterrified
ĠØ¬ÙĨØ§ØŃ
Ġtobacco
ÙĪØ§Ø²
Ġtens
ÙĦØ§Ø¨Ø¯
Ġdamp
adel
ĠIN
Ø§ÙĨÛĮØ§ÙĨ
agan
ĠÚĨÛĮØ²ÛĮÙĩ
ÙĪØªØ§
ĠØ¨ÙĨØ¸Ø±
ĠØ®ÙĪØ§ÙĨØ¯Ùħ
ĠØ¨Ø¨ÛĮÙĨÛĮ
Ġsituated
Ġdecline
ĠØ²ÛĮØ±Ø²ÙħÛĮÙĨÛĮ
ĠÙĩØ§Ø±ÙĪØ§Ø±Ø¯
03
Until
mu
Ġtons
inus
Ù¾ÙĪØ±Øª
Ġnic
ĠØŃØ±ÛĮÙģ
ÙĨÚ¯Ùĩ
ĠGi
ĠÙĨØ´Ø±
ĠØ§ØŃØ³Ø§Ø³Ø§ØªÛĮ
Ġdistinction
Ġcenters
annels
Ġrelevant
Ġangrily
ĠHarriet
ĠÙģØ±Ø§ÛĮÙĨØ¯ÙĩØ§ÛĮ
Ġsettlement
Ġdefeated
Ġpsychology
ÙĨØ¸Ø§ÙħÛĮ
Ġproceeded
Ġtheorem
Ġadmiration
ĠØ¨Ø²Ø±Ú¯Ø³Ø§ÙĦØ§ÙĨ
ĠÙĨØ§Ø¨Ø±Ø§Ø¨Ø±ÛĮ
Ġalcohol
vironment
Ú©Ø§Ø±Ùĩ
rea
Ġwidespread
edge
ĠÙħÛĮÚ¯ÙĪÛĮ
Ø¬Ø±ÛĮÙĩ
Ġerect
ĠAC
ĠAle
Ø¯Ø±Ø®Øª
Ø°Ú©Ø±
illo
opes
ĠBad
Ġbye
Ġsuitable
ĠHom
ĠÙĩÛĮÙĪÙĦØ§
iley
ĠØ³ÙĪÙ¾Ø±
orney
ĠÛĮØ§Ø¯Øª
ĠØ¨Ø§ÙĦØ´
ĠØ²ÙħØ§ÙĨÛĮÚ©Ùĩ
Ġ1962
Ġdealing
Ġeducated
ĠÚ©Ø§ØªØ±ÛĮÙĨØ§
Ġautomatically
ĠØªØ¶Ø§Ø¯
ocolate
Ġisolated
Ã£o
ĠÚ©ÙħØ±Ø¨ÙĨØ¯
ĠÙĪÛĮÚ©
Ġinch
Ø§ÙħØªÛĮ
Ġrejo
ĠØ®ÙĪØ§Øµ
olph
ĠBureau
Ġshri
Ġliver
ĠÙħØªØŃÛĮØ±
Ø¯ÙĪÛĮÙĨ
ĠÛ±Û¸Û¶Û
ĠÙħØ³Ø§ÙĪÛĮ
ĠÙĪØ§ØŃØ¯ÙĩØ§ÛĮ
ÙħØ§Ø¯Ø±Ø´
Ġfacilities
Ġhastily
ĠRecords
ĠFriday
ĠÛĮÙĪØªÛĮÙĪØ¨
04
Supp
hester
ĠÛĮÚ¯Ø§ÙĨÙĩ
ĠÙģØ§Ùħ
ĠÙĤØ§Ø·Ø¹
riages
ĠØ§ÙĨÚ¯ÛĮ
Ġsuffic
ĠÙĨÙħÛĮØªÙĪØ§ÙĨ
Ġchap
Ø¨Ø§Ø´Ø¯
eller
Ġcompounds
ÙħÙĪØ³
ĠÚ©ÙĦØ§ÙĩØ´
ĠIns
Ġaccused
Ġaccustomed
ĠØ·Ø±ÙģØ¯Ø§Ø±Ø§ÙĨ
ormal
Ġ1948
ĠØºØ±ÛĮØ²Ùĩ
Ġoccupation
ĠÚ¯ÛĮØªØ§Ø±
ĠÙĨØ¯ÙĩØ¯
Ġshocked
ĠÙĪÙģØ§Ø¯Ø§Ø±
ĠÙħØ³ÛĮØŃÛĮØ§ÙĨ
ĠØ±Ø§Ø³Ú©ÙĦÙĨÛĮÚ©Ùģ
Ġhesitated
Ġaccomplished
Ø¯ÙĪÙħÛĮÙĨ
ĠÙĨÛĮØ§ÙģØªÙĩ
Ġrescue
http
Ã¥
ÙĨÚ©ØªÙĩ
ØªØ¨
ĠØ¨ØªÙĨ
Ġâģ
Ú¯ÙĪØ³
Ø§ÛĮØ¨
ĠØ±Ø´
ĠÙĩØ§ÙĦÛĮ
ouch
Ġcries
Ġcattle
Ġgates
ĠPu
ĠÙĨÛĮÙĦ
ĠÙħØ±Ø¬
ĠØ¬ÙĪØ§ÛĮØ²
Ġapproaches
ĠØ¢ÙģØªØ§Ø¨ÛĮ
Ġdimensions
ĠHospital
LL
Ġtough
ĠÚ¯ÙĨØ¯Ùĩ
Ø±ÙĪØ®ØªÙĩ
ĠØ§ÙĨØ¯ÛĮØ´
Ġcovers
ĠØ²Ø¯ÛĮÙħ
Ġindul
Ġreluct
ÙĪØ§Ø±Ø¶
Ġconfig
ĠGrace
ĠÙ¾ÛĮØ´ÙĨÙĩØ§Ø¯ÛĮ
ĠØªÙĦÙģÙĨÛĮ
Ġfurious
2003
ĠÙ¾Ø±Ø³ØªØ§Ø±
ĠÙħØ§ØªØ±ÛĮØ³
ĠBoard
Ø¹Ø´ÙĤ
ĠÛĮÚ©Ø³Ø±Ùĩ
Ġclinical
MM
faces
ĠØ¨ÙĪÙħ
ĠØ±ÛĮÙħ
ĠØ³Ø¨ÛĮÙĦ
Ġpound
ĠØµÙĪÙħØ¹Ùĩ
ĠØºØ±Ø´
ĠÙħØ´Ú©ÛĮ
ĠÚĺØ±Ùģ
issance
ĠØ¢Ø²Ø±Ø¯Ùĩ
ĠÙĤØ¯Ø±ØªÛĮ
ĠØ¢ÙĦÚ©Ø³Ø§ÙĨØ¯Ø±
ĠÙĨÚ©Ø´ÛĮØ¯
Ġapolog
ÙĨÙħÙĪÙĨÙĩ
ĠØ¨Ú¯Ø°Ø±
ĠÙħØ¹ÙħØ§Ø±
ĠÚ¯Ø±ÙħØ§ÛĮÛĮ
Ġreasonable
Ġcorners
Ġpassionate
ÙĨØ®Ø³Øª
ĠWilson
ĠAtlantic
ĠHotel
ĠArgentina
jud
Ø³ØªØ±ÙĪ
iti
Ġharb
arity
ĠÙĤØ§Ø·
Ġ(;
ĠÙĦØ§Ùħ
Ġloyal
Ø§Ø³ØªØ§Ø²ÛĮ
ĠÛ±Û¹Û´Û°
ĠØ¯ÛĮØ¯ÛĮØ¯
ĠChief
ĠØ§Ø·ÙĦØ³
ÙĪØªÙĨ
Ġscattered
ĠØªØ¹Ø¸ÛĮÙħ
never
Ø¨Ø¹Ø¯Ø§
ĠAlf
ĠØ³Ø±ÛĮØ¹ØªØ±
ĠÙħØ¹ÙĨØ§ÛĮÛĮ
Ġreducing
ĠÙĨØªÙĪØ§ÙĨØ¯
Ġphilosopher
Ġgallery
ĠDarwin
Ġembrace
highlight
GO
NU
iop
ĠØ¨ØµØ±ÛĮ
ĠÙħÙĤØª
ĠØ±Ø¨Ø¹
lete
ĠØ¨Ø±ÙĨØ¬
ĠØ²Ø±
uled
ĠPict
through
Ġshares
ĠØ¯Ø³ØªØ§ÙĪØ±Ø¯
perm
Ġclosing
ĠÙģØ±ÙĪØ®Øª
Ġawa
Ġgloom
ĠÙħÙĪÙĤØ¹ÛĮØªÛĮ
ĠMountain
ĠÚ¯ÙĪØ¯Ø§ÙĦ
Ġpilot
Ġlantern
ĠÙĨØ§Ø§ÙħÛĮØ¯ÛĮ
ĠHitler
rained
western
Ø§Ø±ÙĨØ¯
Ġfert
Ġming
ÙĪØ±Ø§ÙĨØ³Ú©ÛĮ
ĠÚĨØ³
uther
ÙĦØ§Ø¦Ùĩ
ifference
ØºØ¯
Ø«Ø±ÛĮ
ĠDun
ĠWhere
Ú©ÙĪÙģ
Ġpasses
Ġinsurance
ĠReal
Ġpatience
ironments
Ġpollution
Ġsubsequently
Ġhospitals
ĠØ§Ø³ØªØŃÚ©Ø§Ùħ
did
eenth
inates
itudes
Ġbay
ĠÙ¾ÙĪØ³
ĠØ¨Ø±Ø§Ø´
ĠIce
ĠØ§ÙĪÚ©Ø±Ø§ÛĮÙĨ
Ú¯ÛĮÙĦ
umbling
ĠDantes
ĠHig
Ø±ÙģÙĩ
Ġjer
Ġ34
Ġentreprene
ĠÙĥÙĨÙħ
Ġpassengers
Ġbelieves
ĠMarx
Ġannounce
Ġmerc
Ġcollar
Ġfunds
Ġsignificance
Ġclimb
Ġcalculated
Ġembarrassed
Ġsyntaxhighlight
ĠÙĦÛĮØ¨Ø±Ø§ÙĦ
Ber
PM
di
rand
µÛ²
Ø³Ø§ÙĦÛĮ
Ø¨ÙĪØ¯ÛĮ
Ġdraft
ÙĪØ±Ø§ÙĨÙĩ
ĠÙĤØ¨Ø§ÙĦ
Ġseldom
ĠØªØ±Ø§ÙĨ
ĠHart
Ġperception
Ġgoodness
Ġlightly
Ġassign
except
ĠÚ¯ÛĮØ±ÛĮØ¯
Ġcharges
ĠØ§ÛĮØ¯Ø²
ĠØªØ®ÙĦÛĮÙĩ
ĠÙĦÙĩØ¬Ùĩ
ĠØ¹ÙħÛĮÙĤØ§
ĠØ¨Ø±Ø¢ÙħØ¯
ĠMedical
ĠØ¨ÙĦÙĪØ·
ĠØ®ÙĦØ¨Ø§ÙĨ
ĠØ±Ø¯ÛĮØ§Ø¨ÛĮ
ĠRosamond
Ġtransformed
Ġfolded
Ġtenderness
ĠØ¨Ø§Ø²ÙĨØ´Ø³ØªÙĩ
ographer
ĠIndonesia
Dervish
ĠØ±ÙĩØ§ÛĮÛĮ
ĠÛĮÙĪØ§Ø´
ĠScient
Ø±ÙĪÙĨØ¯
ags
ĠÚ©Ø§Ø±Ø¨Ø±ÛĮ
ĠÙħØ§Ú©Ø³
ĠÙģØ±Ø§Ø±ÛĮ
ĠHollywood
acking
ĠØ§Ø¨ÙĨ
ĠØ®ÙĪØ¯ÙħÙĪÙĨ
ĠØ®ÙĪØ±Ùĩ
Ġfootst
ĠØªÙĦÙģØ¸
ĠPolice
Ġeyebr
Ġrepresenting
ĠØ¨Ø§ØºÚĨÙĩ
Ġtraveling
Ġtrembled
Ġimprovement
Ġcontempl
ĠÚ©Ø§Ø³Ùĩ
Ġlecture
ĠØ¯Ø³ØªÙħØ²Ø¯
xic
Ø²Ø¨ÛĮ
eras
Ġreverse
Ġweird
ĠCe
ĠÙħØ§Ø´ÛĮÙĨÛĮ
Ġvice
ĠÙħØŃØ§ÙĦ
ĠØ§Ø³ÙĨÛĮÙ¾
Ġtwisted
ĠVenezuel
ĠØ¢Ø±Ùħ
ĠØ¨Ø§Ø²ÛĮØ§Ø¨ÛĮ
ĠØ®Ø·Ø§ÛĮ
Ġ48
ĠØªØ±Ú©ÛĮØ¨Ø§Øª
ĠConvention
Ġsummon
ĠØ§ÛĮØ³ØªØ§Ø¯ÙĨØ¯
Ġwealthy
ĠØ¹Ø¸ÙħØª
Ġblew
Ġsubstance
ĠØ´ÙĩØ±Ø¯Ø§Ø±
ĠÙ¾Ø§ÙĪÙĦÙĪÙĪÛĮÚĨ
bably
Ġciv
ĠØ´ÛĮÙĨ
ĠØ¨Ø§ÙħØ¯Ø§Ø¯
acent
Ġneuro
ĠNa
ĠOS
ĠØ¨Ø§Ø±Ø§ÙĨÛĮ
ĠØ³Ø§Ø®ØªÛĮÙħ
ĠÚ¯Ø±ÛĮØ®Øª
Ġsolved
Ø§ØºÙĦ
ĠÙģÙĦØ§ÙĨ
Ġ1966
2007
Ġsurvival
Ġruined
Ġintegrated
ĠÙĨØ¹Ø±Ùĩ
ĠØ®Ø±Ø§Ø´
Ġswiftly
HA
dimensional
ji
nut
ÙĨÙĪÛĮØ³
ĠÙĩÙĦÛĮ
Ø§Ø±Ø´ÛĮ
ĠØ¢Ø´ØªÛĮ
ÛĮØ±ÙĪ
Ø±ÙĪÚ©
Ġrows
ÙĪØ²ÙĨ
ĠØ¯Ø§ÙĨÚ©ÙĦØ§Ø±
ĠOl
Ġcompare
ÙħÙĪØ§Ø²ÙĦ
ressing
ÙĨØ¬Ø§Ø±
ĠÙħØ§Ø¯Ø±Ø§ÙĨ
Ġcrypt
ĠØ§ÙĨØ¬ÛĮÙĦ
ĠÚĨØ±Ø¨ÛĮ
ÙĤØ¨ÙĦØ§
Ġdemocratic
Ġbeliefs
Ġcriticism
ĠÙĦØ²ÙĪÙħØ§
ĠØ¢Ø±Ú©Ø§Ø¯ÛĮ
pher
sis
wall
Ø§Ú©Ø³
ĠØªÙĦÙĩ
ĠØªØ³Ùĩ
ĠØªÙĪÛĮÛĮ
Ù¾ÛĮÙĨ
ĠÙĤÙĪØ·ÛĮ
ĠAud
ĠTy
ĠØ¯Ø§Ø¯Ø³ØªØ§ÙĨ
ĠÙħØ´Ú©ÙĪÚ©
Ġscen
neath
Ġimpressed
Ġ55
Ø¯Ø³ØªØ´
ĠHeritage
Ġbriefly
Ġobservations
ÙħØ³Ø¦ÙĦÙĩ
Ø¨Ø±Ø®ÙĦØ§Ùģ
ĠFootball
Cam
bet
ÙĦÛĮÙĨÚ¯
Ø§ÙĦØŃ
Ġconvey
ĠLie
ĠÙĩÛĮÚĨÙĪÙĤØª
Ġtrap
Ġdaylight
ĠØ®Ø·ÙĪØ±
Ġwalks
ĠÙ¾ÙĪØ´ÛĮ
Ġdesigner
Ġcorruption
shire
Ġregularly
ĠÚ¯ÙĨØ¯Ùħ
Ġcasual
HT
mi
ÙħØ±Ú¯
ĠÙħØ£
Ġwicked
ĠÙĪÙĦÙĪ
ĠÙ¾Ø§Ø¨
ĠGame
outheast
ĠÙ¾ÛĮØ´Ø±ÙĪÛĮ
ĠØ²ÛĮØ§Ø¯Ùĩ
ĠØ¨Ø§Ø±ÙĪÙĨ
ĠØªØ¹Ø¨ÛĮØ±
ĠÙĨØ³Ø¨
ĠØ®ÛĮØ±ÛĮÙĩ
ĠØ®ÙĪØ§ÙĨÙĨØ¯
ussian
Ġsecondary
aneous
ĠÛ±Û¹Û¸Ûµ
ĠØ¢ÙĩÙĨÚ¯ÛĮ
ĠÙĨÛĮØ±ÙĪÚ¯Ø§Ùĩ
Ġsynthesis
ĠÙģÙĦØ³Ø·ÛĮÙĨÛĮ
Che
mod
rates
ÙĨÙģØ³
Ġawards
Ø§ÛĮÙĪØ§ÙĨ
Ġmasters
ĠÚ©ÙĨÛĮØ§
ÙĪØ§ÙĨØ³ÛĮÙĪÙĨ
ĠÙħÙĨØ¬
Ġnotable
ĠÙĦÙĪØ³
ĠØ¬ÙħØ§ÙĩÛĮØ±
Ġcooking
Ġsculpt
ĠØ§Ø¹ÙĦÛĮ
ĠØ¨Ø§ÙĦÛĮÙĨÛĮ
ĠØ¸ÙĦÙħ
Ġcurrency
ÙħØ±Ø¯Ø§ÙĨ
ĠÚ©Ø§ÙĨØ§Ø¯
Ġseparation
Ġpersuade
ĠØ¨Ø¨Ø®Ø´ÛĮØ¯
Ġgalaxy
Ġabruptly
ĠÙĨÙĩÙħ
Ġles
ĠØ¨Ø±Ú¯Ø±ÙģØªÙĩ
acon
ĠCA
ĠBaker
ĠØ¯ÛĮØ¯ÙĨØ´
Ġflav
ĠAnne
ĠØ¨Ø¯Ø§ÙĨÛĮÙħ
ĠÙģÛĮÙĦÛĮÙ¾ÛĮÙĨ
Ø³ÛĮÙĦÙĪØ§ÙĨ
ĠØ¨Ù¾Ø±Ø³ÛĮØ¯
ĠGreece
phew
ĠØ¨Ø§Ø²Ø§Ø±ÛĮØ§Ø¨ÛĮ
ĠÙħÙĪØ§ÙĨØ¹
Gl
MP
OW
ĠÚ©Ø§Ø¯
Ġwishing
ĠØ²Ø±Ùĩ
ÙĩØ§Ùī
Ġnephew
ĠØ§ÙħØ§Ùħ
ĠÙĲ
Ġgrows
formula
Ġcrimes
ĠÚĨÙĩØ§Ø±Ø¯Ùĩ
ĠØ¢Ø´ÙģØªÚ¯ÛĮ
ĠØ¬Ø§ÙħØ¯
ĠTrade
ĠÙħØ±ÛĮÙħ
ĠØ±ÛĮØ²Ø¯
Ġmagnific
Ġinteractions
Ġresponded
ĠÙħØ¹ÛĮØ§Ø±
ĠØŃÙħØ§ÙĤØª
Ġsaddle
uit
Ø´Ø®Øµ
Ġinward
rior
Ø¹ÛĮØ§ÙĨ
arer
Ġenable
ĠØªØŃØµÛĮÙĦÛĮ
ØºÛĮØ¨
Ġcountess
Ġaccum
Ġvex
Ġobjective
Ġcultiv
ĠPeggotty
ĠNatural
Ġphysician
ĠØ¬Ø§Ø¨Ø¬Ø§
Ġshelter
oir
ĠÙĪÚ¯Ø±
Ù¾Ø±ÛĮ
ĠØŃÙĪÙĦ
ĠSnape
ĠBroad
Ġshops
ĠØªØ±Ø³ÛĮ
ĠØ±Ø³ÙħØ§
berry
ĠOt
Ġdisgr
ĠÚ©ÙĦÙĨØ¯
ĠØ³Ø§Ø®ØªÙħ
Ġflies
Ġbund
ĠØ´Ø§ÙĨÙĪÙĨ
ÙĥØ±
ĠØ¨ÙĢØ±
Ġtempt
Ġtrous
Ġdeny
ĠØªØŃÙĤÙĤ
ĠEngineering
ÛĮÙĪØ±Ú¯ÛĮØ³
lic
Ġtie
ĠØ¯Ø§ÙĦÛĮ
Ġpile
Ø®Ø§Ø¨
ĠØ¬Ø§ÙĨÛĮ
ĠØ¬ÛĮÙĨÛĮ
Ġgam
ĠÙģÙĩÙħÛĮ
ĠØ²ÙĦ
Ø§Ø¨ÙĦØ§
ĠØ¯Ø§Ø±Ø§ÙĨ
ĠØ³Ø±ÙĤØª
ĠÙĨÛĮØ¬Ø±ÛĮÙĩ
rah
ĠØ¨Ø¯Ø´
fere
forth
ØªÙħÙĨØ¯ÛĮ
Ġmathematic
ĠÙĤØ·Ø¨ÛĮ
Ġputs
Ġinspiration
Ġfrust
ĠØ§ÙĨØªØ®Ø§Ø¨Ø§ØªÛĮ
Ø¨Ø±ÛĮØ¬
ĠÙģØ±ÙħØ§ÙĨØ¯Ø§Ø±
ĠÙħØ²Ø§ÛĮØ§ÛĮ
Ġcontrols
Ø¬ÙĪÛĮØ§ÙĨ
Ġtraveled
ĠØ±Ø¤ÛĮØ§
Ø·Ø¨ÛĮØ¹ÛĮ
ĠDenmark
Ġastonishment
ĠÙģØ§Ú©ØªÙĪØ±
Ġignorance
ĠØ¨Ø§ÙĪØ±ÙĨÚ©Ø±Ø¯ÙĨÛĮ
Ġmaps
especially
Ġeh
Ø´ØªÛĮÙĨ
amis
ĠBing
ĠØªÙĪØ³Øª
ĠTs
ĠFle
ĠEqu
ĠKent
iph
Ø³Ø±Ø¨Ø§Ø²
ĠØ²ÙĨÛĮÙħ
Ġtransformation
Ġvisits
ĠØªØµÙħÛĮÙħØ§Øª
ĠØ¬Ø±Ø¦Øª
Ġswept
ĠÛ±Û¹Û·Û³
ĠSteven
ĠCPU
ĠØªØ·Ø¨ÛĮÙĤ
uity
ĠØ§Ø¨ÛĮ
ĠØªØ§Ø±Ø§
ÛĮÙĨÛĮØ§
alis
etary
ĠÙĤÙĪØ§ÛĮ
ĠØ§ÛĮÛĮ
ĠØªÙĪÙħÙĪØ±
Ġprohib
ĠØ¯ÙĦØ§ÛĮÙĦÛĮ
Ġunderground
orship
Ġsubt
ĠÚĨÙĩØ§Ø±ÙħÛĮÙĨ
Ġsket
orthos
aska
ĠÙĨØ®ÙĪØ§ÙĩÛĮØ¯
ĠØ±ÛĮØ§Ø¶
Ġtracks
ĠØ¯Ø§ÙĪØ±ÛĮ
Ġmotionless
ĠÙħØªØ£Ø«Ø±
Ġinfected
Similar
ĠÙħØŃØ±ÙħØ§ÙĨÙĩ
ĠAthos
Ġå
orical
ĠØ²ÙĬ
ĠÙĩØ§ÛĮØªØ§ÙĨ
ayed
ĠÙĦØ§ÙħÙ¾
Ġ""
ĠWikipedia
Ġtheme
ĠYe
Ġinvasion
ĠØ§ÛĮØ±ÙĦÙĨØ¯ÛĮ
Ġblog
ĠÙħØ³Ø§ÙģØ±Ø§ÙĨ
ĠÙħÙĨØŃØ±Ùģ
Ġsurvived
ĠÙ¾ÚĺÙĪÙĩØ´ÛĮ
ĠOnline
ĠÙĨÙĪØ¬ÙĪØ§ÙĨØ§ÙĨ
ĠDivision
Ġdefinitely
Video
race
uum
vid
Î±
ishers
ĠBat
ĠBuck
aba
ĠRNA
ĠLim
ĠØŃØ§ÙĦØ§Øª
ĠØºÙĪØ·Ùĩ
Ġ1900
ÙĪØªÙĪ
ĠÙĥØ±Ø¯ÙĨ
ĠÙħØ§Ø±Ø´
Ġdetailed
Ġtemporary
Ġdreamed
Ġpeaceful
Ø¢ÙħØ±ÛĮÚ©
ĠÙħØŃØ¯ÙĪØ¯ÛĮ
Ġmathbf
Ġeagerly
Ġastonished
ĠØ¯ÙĦØ³ÙĪØ²ÛĮ
Ġdisturbed
Ġinequality
ĠAmazon
aus
aire
rust
ĠØ¨Ú¯ÛĮ
Ġwives
Ġthri
ĠÚĨÛĮØ¯Ùĩ
ĠMade
ĠTuring
ĠØ§ÙĦÙħÙĦÙĦ
ĠØ§Ø·Ø±Ø§ÙģØ´
ĠØ¹Ø¨ÙĪØ³
Ġfrequent
Ġdamn
Marius
ĠAlexandrovna
ussell
PG
could
ĠÙĩÙħÙĪØ§Ø±
ifer
ĠØ¨ÛĮØ§Ø¯
ĠRio
Ú©ÛĮÚ©
ĠØ§ÙħØ¶Ø§ÛĮ
ĠØŃØ§ÙĦÙħ
ĠKoch
Ġpeak
Ġsmiles
Ġfounder
ĠØ§Ø¨Ø±ÛĮØ´
ĠØ´ÛĮÙĪØ¹
ĠØ§ÛĮÙħÙĨ
ĠShow
ĠÙħØªÙĪØ§ÙĦÛĮ
Ġsingular
Ã©s
Ġprotests
ĠÙĨÙħØ§ÛĮØ´ÛĮ
Ġlawn
loyment
ĠÙ¾ÙĦØ§Ø³ØªÛĮÚ©
ĠØ§Ø®ØªØµØ§ØµÛĮ
Ġdocumentary
ĠÚ©Ø§Ø¨ÙĪØ³
Ù¾Ø§ÙĨÚĨÙĩ
ĠSocialist
Ġdescended
ĠSilver
LD
Sil
ĠØ¯Ø§Ø´
ĠØ³Ø²
ĠÚĨØ±Ø¨
ĠST
ÙĨÚ¯ÙĪ
ĠÙĨÛĮÙĪÙħ
ĠÙħØ¹Ø§ÙħÙĦ
Ġtraged
Ġwherever
Ġbehalf
ĠØªÙĪÙĨÙĨ
Ġ95
Ġlanded
Ġdescribing
2002
ØªØŃÙĤÛĮ
Ġpotentially
ĠButler
Ġcategories
Ġowl
ĠTemple
rows
Ġcaut
Ġhired
ĠØ¢Ø¯Ø§Ùħ
aron
alty
Ġheap
ÙĦÛĮØ²
Ġcomprom
Ġcontents
ĠØ¹ÙħÙĪØ¯ÛĮ
ĠØ¢Ø´Ø§Ùħ
ĠØ¢Ø²Ø§Ø¯Ø§ÙĨÙĩ
ĠÙĨÚ¯Ø±ÛĮØ³ØªÙĨØ¯
Ġenvironments
ĠÛ±Û¹Û¸Û¶
ĠØ§ÙģØ²Ø§Ø±ÙĩØ§ÛĮ
ĠÙĪÙĤØ§Ø±
Ġemployment
ĠÙĩÙĪÙĦÙĨØ§Ú©
Ġsubsequent
Ġrhyth
EA
rage
wed
xide
ĠØ§Ø¦Øª
ĠØ´ÙĪÛĮÛĮ
ington
ĠÛĮØ§ØªØ§
ĠØ§ÙĪÚĺÙĨ
Ġstolen
ĠSud
ĠØ®ÙĪØ´Øª
Ø¦ÙĦØ§
ĠØ³Ø±ÙĪØ§ÙĨ
Ġexport
ĠØ³ÛĮØ±ÛĮ
ĠØªØµÙħÛĮÙħÛĮ
ĠÙĨØ²Ø¯Ùĩ
ĠØªÚ©ÙĦÛĮÙģ
uese
ĠChristians
ĠÛ±Û¹Û·Û´
Ġinfluential
ĠÙģÙĤØ¯Ø§ÙĨ
ĠÛ·Ûµ
ĠØ®ÙĨØ«ÛĮ
ĠÙħØ·ÙħØ¦ÙĨØ§
ĠØ®Ø±Ø³ÙĨØ¯
Ġnarrative
Ġvessels
GS
iary
Ġtries
ĠÙħØ±ÙĪ
ÙĦÙĨ
ĠØ±ÛĮØª
aro
Ġpave
ĠØ¨Ø§ØªØ±ÛĮ
Ġwashed
ĠØ§ÙĪØ¨
ĠÙĦØ§ÙĨÚ¯
ouses
Ġrecru
ĠÙħØ®Ø²ÙĨ
century
Ġpopulations
ĠMargaret
Step
Ġpressing
ĠÛ±Û¹Û·Ûµ
ĠEncyclopedia
Ġfetch
Ġcigarette
Med
cond
po
Ù¾Ø§Ø¯
Ġnerves
ÙĪÙĨÛĮØ§
ĠÙĩÙħÚ¯Ø§ÙĨ
ĠSi
usk
ĠBishop
ĠBoston
abs
ĠDro
ĠHop
ĠØ¯ÛĮÚ¯Ø±Ø´
Ġconsisted
Ġslaves
Ġhumor
Ù¾Ø§ÙĪÙĦ
ĠSeries
Ġreveal
ĠØ§ÛĮÙĪØ§ÙĨÙĪÙĨØ§
ĠDenis
Ġassembly
ĠÙħØ´Ø§ÙĪØ±Ùĩ
ĠOlympics
ĠÚ©Ø´ÙħÚ©Ø´
ĠØµÙħÛĮÙħØ§ÙĨÙĩ
DF
hard
Ġtape
Ú¯ÙĪØ§Ø±
Ġboss
ĠÙħÛĮØ§ÙĨÛĮ
Ġgonna
ĠMum
ĠØ±ÙĪØ¨
Ġrape
ĠØ¨Ø§Ø²Ø§Ø±ÙĩØ§ÛĮ
Ġjur
ĠÙħØ¯ÛĮØ±Ùĩ
ĠØ´ÙĨÙĪÙħ
gins
ĠØ¢Ø´Ù¾Ø²ÛĮ
Ġdrum
Ġsolitary
unications
Ġtribes
Ġdrops
Ġcamels
Ġprevented
à¤¾
cadio
ĠÙĤÙĩØ±ÙħØ§ÙĨØ§ÙĨ
ĠÙħÙĨØ§Ø³Ø¨Øª
Ġinterpretation
Bill
gas
mates
ĠØ§ÙħÛĮ
ĠÙħÙĪØ±Øª
Ġdiverse
ÙĪÛĮØ§ÙĨ
ÙĪØ§ÙĨØ§
elia
ĠDad
ĠLine
ĠØ§Ø±Ø¨
ĠÚ©ÙĦØ±
ĠØªÙĦØ§Ø´ÛĮ
Ġquarrel
Ġthreats
ĠVolume
General
Ġbin
ĠØ¨Ø§Ø®Ø¨Ø±
Ġnit
ÙĪØ±Ø³
ĠÙģØ§ÙĨÙĪØ³
Ġstadium
Ġvoy
ĠExt
Hello
ĠØ§ØŃÙħØ¯
ĠÙĩÛĮÚĨÛĮ
ĠÙħØ¬Ø±Ø¯
Ġflut
Ġeyed
ĠÙĨÛĮØ±ÙĪÛĮÛĮ
ĠDead
ĠØºØ°Ø§ÙĩØ§ÛĮ
fortune
ĠØ¨Ø±Ø§Ø¯Ø±Ùħ
ĠØ§ÙĨØ³Ø§ÙĨÛĮØª
Ġmistakes
Ġqualities
Last
ÙĨØ¨Ø§ÛĮØ¯
ØªÙĪØ±ÛĮ
Ġtran
ĠØ¯Úĺ
ĠÙĨÙĪØ¯
ĠÙ¾ØªÙĪ
ete
ĠØ¨Ø§Ø²Ø±Ø³ÛĮ
ĠÚ©ÙĪÙģØª
itionally
Ġindicated
ĠÛĮØ§Ø¯Ø¨ÙĪØ¯
Ġglow
ĠØ´ÛĮØ¡
Ġrivers
ĠÙ¾ÙĨÛĮØ±
ĠÙħØ¨Ø§Ø¯ÙĦÙĩ
ĠÙ¾ÙĨØ§ÙĩÚ¯Ø§Ùĩ
Ġconvict
Ġstirred
ĠØ¨ÙħÛĮØ±Ø¯
Ġdivorce
Ġdates
ĠØ§ÙĨØ´
ĠGill
Ġchannels
Ġintu
ondra
ĠØªÙĨØ§Ø±Ø¯ÛĮÙĩ
hedral
Ø§ÙĨØ¯Ú©ÛĮ
Ġquad
Ġcoff
Ø³Ø§ÙĨÚ©ÙĪ
Ġrecall
Ġapple
Ġgenome
ĠØµØŃØª
ĠÙ¾Ø´ØªØ´
Ġchecked
ÙĥÙĨ
Ġstops
Ġmajesty
Ġselfish
Ġpsychological
Ġabandon
ĠØ³Ø±Ø³Ø±Ø§
Ġdecrease
ĠÙĨØ§ÙĤØµ
ĠÙĨÙĪÙħÛĮØ¯ÛĮ
usalem
ĠÙĪØµÛĮØª
Ġmerchant
Trans
two
ÙģØ§ÛĮ
isons
ĠØ¨Ø§Ú©Ø³
ĠØ¬Ø§ÙĩØ§ÛĮÛĮ
ĠØ²ÙĩØ±
rolled
Ġatom
ranean
Ġnoon
ĠStock
Ġactors
Ġcolonel
ĠØ¨ØŃØ±Ø§ÙĨÛĮ
Ġpublication
Ø´ÙĪÙĩØ±
ĠØ¯Ø³ØªÛĮØ§Ø±
ĠâĢĿ.
Ġepid
ĠNorway
Ġconcealed
ĠÙħØŃØªØ§Ø·
Ġjacket
Ġtournament
Love
Û¶
Ġá
ÙħØ±Ø¨
Ø´ÙħÛĮ
ĠØ§Ø²Ùħ
ÙĦÛĮÙĪÙĨ
ĠSav
ĠØ¯ÙĪÛĮØ¯ÙĨ
ĠØ³Ø±Ù¾Ø±Ø³Øª
Ġorche
ĠØ¯Ø³ØªÚ¯ÛĮØ±ÛĮ
apore
Ġmanuscript
Ġdownstairs
ĠØ´ÙħØ³ÛĮ
ĠØ°ÙĪØ¨
Ġentitled
Ġexpense
lessness
Ġcream
Ġvisiting
ĠÙĦÙĪÚ©
Ġequilibrium
ĠÙĩÙĨØ±Ù¾ÛĮØ´Ùĩ
ĠÙĥÙĨÙĬØ¯
Ġquantity
ĠÙĦØ±Ø²Ø´
Ø¢ÙħÙĪØ²
ĠÛĮÚ©Ø³Ø§ÙĨÛĮ
GB
link
Å«
ĠÙĨÙģØªÛĮ
Ġfury
Ġmales
ĠAmb
ĠMP
Ú¯Ø±Ø§Ùĩ
ĠBangl
ĠÚ¯Ø±Ø§Ùħ
loved
ĠØ¬ÙħÙĦØ§Øª
Ġcharity
ĠÙ¾Ø³Ø±ÙĩØ§
ĠÚ©Ø§ÙĦÛĮÙĨØ²
atson
ĠØ¨Ø¯ÙĨØ¨Ø§ÙĦ
Ġeducational
agnetic
ĠÙĪÙģØ§Ø¯Ø§Ø±ÛĮ
ĠForest
Ġtightly
ĠÙĪØ§Ø´ÙĨÚ¯
Ġroubles
onymous
Remember
ĠÙĨØ§Ø®Ø§ÙĦØµ
ĠÙħØ¬Ø°ÙĪØ¨
Hel
Mary
RNA
uan
Ñı
ĠØ§Ø¨ÙĦ
ĠØ§ÛĮÙĨÙĤØ¯Ø±
Ø±ÛĮØ²ÛĮ
Ø§Ø²ÙĨØ¯Ùĩ
ĠAhab
olia
Ġdeaf
ĠGulf
ĠHor
ĠNotes
ĠÙħØ¹ÛĮÙĨÛĮ
ĠØ±Ø³ÛĮÙħ
2010
Ġdiagram
Ġstrip
Ġdelightful
ĠÙĩØ§Ø±ÙĪÙĦØ¯
Ġuneas
Ġhypothesis
ĠØ®ÛĮØ§Ø¨Ø§ÙĨÛĮ
dam
dri
eke
main
Ø³ØªØ§
Ġfare
ĠÙ¾Ø¯Ø±ÛĮ
ĠØ§Ø³ØªØ§Ø¯ÛĮ
Ø±ÛĮØ§ÛĮÛĮ
ÙĪÛĮØ¶
Ġhaz
ĠÙĦÙĪÛĮ
Ġrats
Ġwheels
ĠNaval
ĠOur
ĠÙħØ³Ø§ÛĮÙĦ
ĠChildren
Ġrecovery
ĠÚ¯Ø°Ø§Ø´ØªÛĮÙħ
Ġbehave
Ġpurple
ĠØ´ÙĨØ§Ø³ÛĮØ¯
ĠÛ±Û¹Û¸Û²
vania
ĠÚ¯Ø´Ø§Ø¯
reshold
Ġinvention
olitan
Ġpoliticians
ĠPhysics
Ø¹Ø²ÛĮØ²Ùħ
Ø®Ø§Ø°
Fran
Mod
Ste
uis
ĠØ³Ø§Ø³
omon
Ġgif
ÛĮÙħØª
ĠØ¹Ø§Ø²Ùħ
ĠÙĤØ²Ø§ÙĤ
ĠÙĩØ§Ú¯ÙĪ
Ġhabits
ĠLas
ĠØ²ÛĮØ§ÙĨ
Ġparted
Ø²ÛĮØ³Øª
Ġrelatives
Ġdisturb
brid
ĠØ¨Ø±Ø¯Ø§Ø´ØªÙħ
Ġmagical
Ġ1963
ĠÙħÙĩÙħØ§ÙĨØ§ÙĨ
ĠMilitary
Ġinvestigation
ĠWalter
cert
fax
sed
ĠÙħØ²ÛĮØª
Ø³ÙĪØ§Ø±
ĠØ¯Ø±Ø¨ÛĮ
Ø¹ÛĮÙĨ
Ġeternal
ĠSnow
ĠMalfoy
ĠØ®ÙĪØ¨Ùĩ
Ġrings
antin
Ġsho
ĠDVD
Ġalph
ĠFund
ĠEinstein
uend
Ġdesires
Ġinsert
pson
Ġexperimental
ĠØ±ÙģØªØ§Ø±Ø´
ĠØ³Ø±Ø¯Ø±Ú¯
ĠÃī
ĠØ±ÛĮØ²Ø´
Ġ1929
Ġoptions
ING
Ġspectrum
ĠØ¨Ø®ÙĪØ±ÙĨØ¯
ĠÙ¾Ø´ÛĮÙħØ§ÙĨ
EP
Great
run
via
ĠÙĪØ§ÛĮØª
ĠÙĩØ´ÛĮ
ĠØ¢Ø«
ĠØ¹Ø§Ø¯ÙĦØ§ÙĨÙĩ
Ø§ØªØ§ÙĨ
ĠAIDS
Ø¯ÙĩÙĨØ¯Ùĩ
ĠDC
ÙĨÛĮÙĩ
ĠØ§Ø³Ú©ÙĨØ¯
ĠÙ¾ÛĮØ´Ø§Ù¾ÛĮØ´
ĠØ¬ÙĪØ¬Ùĩ
Ġembed
ĠØºÛĮØ±ÙĨØ¸Ø§ÙħÛĮ
ĠÙħØ®Ø§Ø±Ø¬
apsed
Ġinfer
Ġbeds
ĠØªÙĪØ±Ùħ
Everybody
ÙħØ§Ø¯Ø±Ùħ
ĠÙ¾Ø±ØªØºØ§ÙĦÛĮ
Ġmolecule
ÙĨØ¸Ø±ÛĮÙĩ
Ġagricultural
Ġcondemned
ĠCarolina
ĠÙĪÚ¯Ø±ÙĨÙĩ
41
OP
your
ÙģØ¯Ø±
Ġfaded
ĠÙ¾Ø§ÙĩØ§
ĠÚ©ÙĨØ§Ø±ÛĮ
ĠØªØ±ØºÛĮØ¨
Ġdisaster
ĠØ³Ø§Ø²Ú¯Ø§Ø±ÛĮ
Ġbuff
Ġreprodu
Ġdrivers
Ġ1936
ĠÛ±ÛµÛ°
ĠÙħÛĮØ¯Ø§ÙĨÛĮ
ĠÙĤØ§Ø¹Ø¯
ĠÙģØ¯Ø±Ø§Ø³ÛĮÙĪÙĨ
Ġfeedback
Ġpregnant
Ġpowder
chers
oa
pre
uish
Ġbri
Ġinject
ĠÚĨÙĪ
ĠCape
ĠPoint
osph
ĠGad
ĠLew
arded
Ú©ÛĮÙĪ
ĠKnow
ĠOk
Ġdisput
ĠØ²ÛĮØ±Ú©
ĠThird
ĠÚ¯Ø±ÛĮØ³Øª
2008
ĠÛ±Û¹Û¶Û¸
ĠØ¯Ø§Ø±ÙĪÙĩØ§
power
ØªØ±Ø§
ĠØ±Ø§ÚĨØ³ØªØ±
Ġnest
ĠCome
Ġvital
Ġchapter
ĠNature
actions
ountered
Ġresidents
aterina
ÙħØªØ§Ø³Ùģ
before
Ġcounting
tenance
ĠØ´Ú©ÙĦØ§Øª
ĠÙģØ±ÛĮØ§Ø¯ÛĮ
chester
ydney
ĠÙĤÙĦØ¨Ùħ
Ġauthent
Ġdemands
Ġconvince
ĠØ¨ÙĨÚ¯ÙĦ
ĠØµØ§ØŃØ¨Ø§ÙĨ
David
FI
lle
Ú©Ø¬Ø§
ĠØ¨Ø®ÙĪØ§ÙĩÛĮ
Ġsway
Ġdil
Ø¬ÙħÛĮ
ĠØ¬ÙĪØ²Ùģ
ĠØ¹ÛĮØ¯
ĠØ¹ÙĪØ§Ø±Ø¶
ĠÚ©Ø§Ø±Ø§Ú©
ĠGDP
ĠLloyd
ĠFried
ĠÙĩÛĮØªÙĦØ±
ĠVar
ĠØ´ÙĨÛĮØ¯ÙĨØ¯
Ġcontest
cliff
ĠØ¹ÙħÙĪÛĮØ´
Ġflame
ĠØ¬ÙĨÚ¯ÙĦÛĮ
Ø§Ø¦ÛĮÙĦ
Ġ99
Ġadmire
ĠÙħØ´ØªÙĤ
University
EEE
Ġelderly
ĠØ¹Ø§Ø·ÙģÛĮ
ĠØ¨ÛĮØ§ÙħÙĪØ²
ĠÙģØ§Ø³Ø¯
ÛĮØ§ÛĮ
ÛĮÚĨ
Ġbot
Ġdense
icism
Ġshield
apor
ÙĤÛĮØ§ÙģÙĩ
Ø§Ø±Ø¯ÙĪ
ĠÙĨØ§ÙħØ·
Ú©Ø§Ø±ÙĩØ§ÛĮ
ĠØ¬ÙĩØ§Øª
ÙħØªØ£
Ø§Ø®ØªÛĮ
Ġindifference
ĠØ³ÙĦØ·Ø§ÙĨ
Ġstartled
ĠØ¨ÙĨØ¯Ùħ
ĠBeck
Ġrepresentative
Thanks
Ġwarned
Ġentertainment
ĠEugene
Ġtunnel
MR
flu
Ġtub
ĠÚĨÙĨ
Ø·Ø§ÙĨÛĮ
ĠMarsh
Ø¨ÙĩØ§ÛĮ
unting
ĠÙĨÙĪØ±Ø¯
Ġcrushed
whose
Ġbush
Ġelectrons
Ġprompt
Ġdeadly
ĠØ§ÙĦØ¹ÙħÙĦ
ĠØ³ÙĪØ§ÙĦØ§Øª
ĠÛ±Û¹Û·Û¶
Ġbelongs
ĠØ¬ÙħØ¹ÛĮØªÛĮ
Ġpresidential
ĠÙħÛĮØªÙĪÙĨÛĮÙħ
ĠLebanon
Mat
mir
page
Ġcant
ĠÚ¯Ø±Ø§ÙģÛĮ
Ø·Ø±Ø§ØŃÛĮ
ĠÙĤØ§ÙħØª
ĠSaf
ĠPope
ĠBil
ĠDown
Ú©ÙĨÙħ
iang
ĠÚ©ÙĪÙĦÛĮ
ĠØ§ØªØ®Ø§Ø°
Ġdeserve
Ġendure
Ġ42
ĠÙħØµØ±ÛĮ
Ġlightning
ĠHeath
ĠCommand
ĠÙħØ§ÛĮÙĦÛĮ
ĠÛ±Û¹Û¸Û³
Ġsensible
ĠAnton
ĠWilliams
ĠPublishing
ĠPhilippines
ĠØºÙĦÛĮØ¸
Wait
ÙħØ±Ø¯Ùĩ
ØªØ§ÛĮÛĮ
Ø³Ø§Ø¨
Ø¨Ø¯ÛĮ
ĠØ±Ø§ÛĮØª
oust
ĠØ§Ø³ØªØ¹Ùħ
agle
Ø¢ÙĪØ±Ø¯
Ġshone
Ú©ÛĮØªÛĮ
Ġloop
Ø§Ø·ÙĦØ§
Ġunderneath
Ġcarp
ĠØªØ¬Ø³Ùħ
ĠÚĨÙĨØ§ÙĨÚĨÙĩ
Ġpublicly
ĠMissouri
ĠØ³Ø§Ø¨ÙĤØ§
Ġvolt
scale
ĠÙ¾ÛĮÙħÙĪØ¯
Ø³Ù¾Ø§Ø³
Ġcollaboration
Ġpurchase
Listen
Rober
may
Ø¯ÙĤÛĮ
Ġfence
ĠØ¨ÙĩØ§ÛĮ
Ġlately
ĠÙĤØ¶Ø§
ĠHarr
ĠØ¹ÙħÙĪÛĮ
ĠÚ¯ÙĪØ§Ùĩ
ĠØªØ£Ø«ÛĮØ±ÛĮ
Ġmarble
Ġrival
ĠØ§ÙĨØªØ¸Ø§Ø±Ø´
ĠØªØ±ØªÛĮØ¨ÛĮ
ĠØ·ÙĦØ¨ÛĮ
ĠSerge
ĠÙ¾ÛĮÙĪØ³ØªÙĨ
plicity
ÙĦØ·ÙģØ§
ĠÙħÛĮØ®ÙĪØ§ÙĩÙħ
ĠÙĨØ§Ø®ÙĪØ´Ø§ÛĮÙĨØ¯
";
Euro
ĠÚ©ÛĮÙĨÚ¯
ĠÙĪØ¨Ø§
Ġmarsh
ĠØ³Ø§ÙĨØ¯
Ø¬Øª
otal
urred
quer
Ġvivid
ĠLive
ĠHans
ĠØ¨Ø§Ø²ÙĪ
ĠÙħØ¹Ø´ÙĪ
Ġplung
Ø§ÙĦÛĮØ³Øª
Ġamused
ĠÙħØ«ÙĦØ«
Ġrecy
Ġemissions
ĠÙħÙĨØ¸ÙĪØ±Øª
Ġparish
Ġdivide
Ġmisfortune
ĠÛ±Û¹Û¸Û¸
Ġtemperatures
Ø®ÙĪØ´Ø¨Ø®ØªØ§ÙĨÙĩ
Ġroutine
ĠControl
ĠÙģÙĦÙĪØ±ÛĮØ¯Ø§
ĠÚ©Ø§ÙĨØ¯ÛĮØ¯
ĠØ§ÙĦØ¬Ø²Ø§ÛĮØ±
Ø³ÛĮÙĦÙĪØ§ÙĨÛĮØ§
None
warts
Ġmand
Ø§Ø²ÛĮØ¯
ĠGab
Ġalien
ĠØºØ´
angel
ĠØ¨ÙĨÙĪØ´
ĠÙħÙĦØ§ÙħØª
ĠØµØ¯Ø§ÙĤØª
ÙĨÙħØ§ÛĮ
Ġquestioned
Ġproposal
ĠForces
Ġfacult
Ġsafely
ĠÚ©Ø§Ø±Ø´ÙĨØ§Ø³ÛĮ
Ġrebell
iasm
Ġaccompany
Ġconservative
Ġlaser
Ù¾Ø§Ø³Ø®
Ġvulnerable
Ġinsects
ĠOttoman
ativity
ĠØªØ«
Ġcens
Ø§Ø¯Ùħ
ĠØ¨Ø§ÙĬØ¯
ÙĪÙĨÛĮÚ©
ĠCrit
Ġ120
agged
ĠTest
ĠWars
ĠWolf
ĠJr
Ġnowhere
Ġtrunk
ĠÙĦÛĮØ±Ùĩ
Ġstrings
Ġextension
Ġcontinent
Ġclassroom
airo
Ġcharacteristic
ĠÙ¾Ø±Ø¯Ø§Ø²ÙĨØ¯
Ġslightest
Ġlogical
Ġdelivery
Ġlicense
ĠNazi
ĠØ²ÙĨØ§Ø´ÙĪÛĮÛĮ
Cal
bat
ÙĪÙģØ±
ĠÙĤØµ
ĠÙĤØ±ÛĮØ¨
Ø§Ø²ÙĪÙĨ
ĠMike
ĠØµØ¹ÙĪØ¯
ĠÙĦØ§ÛĮØ¯Ú¯ÛĮØª
Ġkick
outs
Ġgover
ĠØ¨Ø§Ø±ÛĮØ¯
ĠØªØ£Ø«Ø±
Ġpreserved
ĠAirports
Ø§ÙĨÚ¯Ø´Øª
Ġ600
Ġpatri
Ġcreativity
ĠÛ±Û¹Û¸Û·
Ġpaths
Ġballs
ĠÙħØ®ÙģÛĮØ§ÙĨÙĩ
ĠÙĨÙĪØ§Ø²ÙĨØ¯Ùĩ
Ġjournalists
ĠÙĦÛĮÙĨØªÙĪÙĨ
warf
Ġregistered
ĠÚ©Ø§ÙĨØ§Ø¯Ø§ÛĮÛĮ
hal
yers
ĠØ¯Ø±Ùħ
ĠÙ¾Ø³ØªØ§ÙĨ
ĠÙĤØ¯ÛĮ
ĠMult
illance
ĠDictionary
Ġchances
ĠÙħØ¹Ø§ÙĦ
ĠØ¨Ø¯ÙĨÙħ
ĠØ§ÙĦØŃ
ĠØ§Ø±ÙĦØ§ÙĨØ¯ÙĪ
ĠØ¨Ø²Ø±Ú¯Ø´
ĠØ§ÙĨØªÙĩØ§
Ġunderlying
Ġcounted
ĠØ°Ø§Øª
ĠThor
Ġmodest
Ġlighting
ĠØµØ¯ÙĪØ±
Ú©Ø±Ø¯ÙĨ
Ġsciences
ĠØ¨Ø³ØªØ±ÛĮ
ĠØ¬ÛĮØ¨Ø´
Ġactivists
ÙħØ³ÙĦ
Ġprivacy
ĠÙ¾Ø§ÙĨØµØ¯
ĠÚ©Ø´Ø§ÙĪØ±Ø²Ø§ÙĨ
Ġfatig
forcement
ĠØ¬Ø§Ø³ÙĪØ³ÛĮ
Ġstrategies
ĠÙĩØ¯ÙģÛĮ
ĠØ¢Ú©Ø³ÙģÙĪØ±Ø¯
06
Count
uction
ÙħØ®ØµÙĪØµØ§
Ġtack
ÙĤØ³ÙħØª
ĠÙħÙĨÙĤ
ĠØ¨ÛĮÚ©
ĠØªØ±ÙĤÛĮ
ĠØ¯Ø³ØªÚ©Ø´
ieve
achi
ĠØ¨Ø®ÙĪØ±Ùħ
Ġcommun
Ġinches
ĠØ¨Ø®Ø´ÛĮØ¯Ùĩ
Ġpossibilities
ĠÚ¯ÙĦÙĪÛĮØ´
ugs
ĠØ¹ÙĪØ§Ø·
ĠØ§Ø¨ØªÙĦØ§
Ġsteep
inois
ĠÙ¾Ø±ØªØºØ§ÙĦ
ĠAlexandra
Ġawareness
Ġexhaust
ĠDuke
ĠSupreme
Due
inn
Ġwaved
orable
ĠØ²Ø±ÛĮÙĨ
ÛĮÙħØ§
urable
oln
ĠØ§ÛĮØ³
ĠØ§ÛĮÙĦÛĮ
ĠØ¯Ø§Ø±ØªÛĮÙĨ
ĠHo
ĠFang
ĠØ¯Ø³ØªÙ¾Ø§
ĠØ¯Ø§Ø¯ÛĮØ¯
Ġdidnt
olding
Ġ44
Ø§ÙĨØªØ®Ø§Ø¨
Ġclassified
ĠØ¨Ù¾Ø°ÛĮØ±
ĠÙħØ³Ø§ÙģØª
Ġencountered
ĠÙģØ±Ø³ØªØ§Ø¯ÙĨØ¯
Ġbelonging
Ġflee
ĠBulgar
ĠØµÙĦÛĮØ¨ÛĮ
Ġfanci
Ġparameters
ĠImperial
Cor
Ma
ĠØ¯Ø§ÙĪØ±
ĠÙĪÚ¯ÙĪ
ĠÙĩÙĪÙħ
Ġcough
Ø¹ÙĨ
ĠØ§Ø²Øª
ĠÙ¾ÙĨÛĮ
ĠCur
ĠCost
andy
ĠØ¯ÙĪÛĮØ¯ÙĨØ¯
Ġkings
Ġexagger
ĠÙħØªØ¹ÙĩØ¯
ÙĪØ²ÙĪÙħ
issy
cedes
ucked
Ø®ÙĪØ¯Øª
ĠØ§ÙģØ±Ø§Ø·ÛĮ
ĠSquare
Ġpursuit
Des
Jamie
Tur
Time
Ø³Ø±Ùĩ
Ġhorm
Ġdow
ĠÚĨÛĮÚ©
Ġrevel
ĠSign
ĠNad
ĠÙħØ¹Ø§ÛĮÙĨÙĩ
Ù¾Ø³ÙĨØ¯
Ġscrew
ĠÙħÙĦØ§ÙĦ
ĠÙħØ³ØªØ¹Ùħ
ĠØªÙģØµÛĮÙĦ
ĠWhit
Ã©e
ĠØµØ¯Ø§Ø¦ÛĮ
ĠØ§Ø¨ØªÚ©Ø§Ø±
ienna
Ġinvolving
ĠØ¬ÙĨØ³ÛĮØªÛĮ
ĠØ§Ø¸ÙĩØ§Ø±Ø§Øª
ĠÙħØŃØ¨ÙĪØ³
ĠØ±Ú©Ø§Ø¨
Ġprayers
ĠÙĦØ§ÛĮØŃÙĩ
ĠØ¬ÙĪØ±Ø¬ÛĮØ§
ĠÙĨÙĬØ³Øª
Ġunfortunate
sometimes
ĠÙģØ¯Ø§Ú©Ø§Ø±ÛĮ
cons
fish
mes
Ġgut
ĠRot
Ġchicken
ĠNord
ĠØºØ§Ø±Øª
ĠVern
Ġbackward
ØªÙħØ§ÙħÛĮ
ailing
Ġ39
Ġbelt
Ġfilter
Ø¨ØŃØ«
Ġ1961
Ġfearful
ĠÚ¯ÙĨØ¬Ùĩ
Ġpicking
ĠØ±ÙĪÛĮØ¯Ø§Ø¯ÙĩØ§ÛĮ
ĠØ®Ø´ÙĨÙĪØ¯
writer
igenous
Ġinevitable
ĠØ¹ÙĨÚ©Ø¨ÙĪØª
ĠMonday
!!
Say
uctor
Ġpairs
Ø¹Ø§ÙĤØ¨Øª
Ø§ÙħÚ©Ø§ÙĨ
ethe
Ø§ØªÙĪ
ĠSel
Ġchat
ĠÚ©ÙħÛĮÙĨ
Ġovert
Ġreserve
ĠInst
ĠØ§Ø¹ØªØµØ§Ø¨
ĠØ¢Ø³ÛĮØ§ÛĮÛĮ
Ġbarric
ĠØ¯ÙĪØ³ØªØ§ÙĨÙħ
ĠØ³ÙĪØ²ÙĨ
ĠÙħÙĪØªÙĪØ±ÙĩØ§ÛĮ
ĠRepublican
ĠJerusalem
ĠNikolay
Er
RA
Û´Û
Ġ@
Ú©Ø§Ø³Øª
ĠØ¨ÙĤ
Ġtheatre
Ġsession
Ú¯ÙĪØ±ÙĨ
Ġhier
Ù¾ÙĪÙĦÛĮ
ØŃØ§Ùħ
ĠØ¬Ú©Ø³ÙĪÙĨ
ĠPsych
ĠØ¯ÙĪÚ¯Ø§ÙĨÙĩ
ĠØ³Ø±Ø¨Ø§Ø²ÛĮ
Ġorph
Ġalert
ieu
ĠÙħØ±Ø²ÛĮ
Ø®ÙĪØ§Ø±
ÙħØªÙĪÙĦØ¯
Ø£Ø³
Ø³Ø±Ø§ÛĮ
Ġflights
ĠØ´Ø¨ØŃ
Ġworlds
ĠÙĪÙĤØªØ´
Ġyoungest
ĠWebsite
chell
Ġcircles
ĠÙģØ±ÙĪØ´ÙĨØ¯Ùĩ
Ġ1944
Ġ1959
APTER
Ġpersuaded
Ġslavery
ÙħØªØ£Ø³Ùģ
TH
master
ĠØ¨Ø¬Ø§
ĠØ¨ÙĪÙĦÛĮ
ĠØ§Ù¾ÙĦ
Ú¯Ø²Ø§Ø±Ø´
ÙģÙģ
itory
Ġbind
Ġgoss
Ġitem
ĠØµØ±Ø§ØŃØª
ĠØªØ§Ú©ØªÛĮ
ĠØ´ÙĪÚ©
ĠYah
ĠØ¨ÙĨØ²ÛĮÙĨ
ĠShah
ĠÙ¾Ø±Ø³ÛĮØ¯ÙĨØ¯
Ġdoorway
Ġbarrel
syl
Ġpayment
ĠÚ¯ÙĨØ§ÙĩÛĮ
ĠØ¨Ø®ÙĪØ§Ø¨Ø¯
ĠLuke
Ġsemi
Ġtheoretical
Ġignorant
Ġshrugged
ĠÙĪÛĮØ±Ø¬ÛĮÙĨÛĮØ§
ĠÙĪØ§Ø´ÙĨÚ¯ØªÙĨ
BO
Ä«
Ø¯ÙĨØ§
ĠÙĩÛĮØ±
Ġgross
ØµØ¨Ø±
ĠÚ©ÙĨØ§ÛĮÙĩ
ĠSom
Ġcomedy
ĠRams
ĠÙĨØ§Ø®ÙĪØ§Ø³ØªÙĩ
Ġampl
ĠÚ©Ø±Ø¯ÙĨØ´
ĠØ²ÙĨÛĮØ¯
ĠArcadio
Ø§Ø¶ÙĦ
ĠØ¯Ø®ØªØ±ÙĩØ§ÛĮ
Ġmarched
Ġspeaks
Ġactivist
Ġdestiny
Ġprinting
Ġscreaming
ĠØ§Ø³Ø±Ø§Ø±Ø¢ÙħÛĮØ²
Ø®ÙĪØ±Ø´ÛĮØ¯
ĠVictor
ĠØ¬Ø§Ø¨Ø¬Ø§ÛĮÛĮ
ĠØ®ÙĢÙĪØ¯
Ġrelieved
QL
uate
world
Ø³ÙĢ
Ø§ÙĨØ¬
ĠÙħÛĮØ¯Ø§Ø¯
Ġdirt
ĠÙģÙĦØ§
ĠØ¹ÙĢ
ĠØ¨ÛĮÙĪØªÛĮ
ĠÙ¾ÛĮÚ©Ø§Ø±
ĠDer
Ġchip
ĠNumber
ĠÙħØŃÙħ
Ġplus
ĠOther
Ġgrade
Ø¨ÙĦÙĨØ¯
aware
ĠØ·Ø±ÙģÛĮÙĨ
ĠÚ©Ø³ÙĦ
ĠØ³ÙĦØ·Ùĩ
Ġpreserve
Ġinvitation
ĠØ³Ø·ÙĦ
ĠÙģØ¶Ø§ÙĨÙĪØ±Ø¯
ĠØ¨ÙĢØ±Ø§ÛĮ
ĠÙĪÙĦØªØ§Úĺ
ĠÙĨØ¨Ø§Ø´ÙĨØ¯
Ġmerry
ĠÚ©ÙĪØ¯Ú©Ø§ÙĨÙĩ
ÙĪØ§ÙĤØ¹
Ø±Ø§Ø³ØªÙĪÙģ
Ġtargets
ĠØ¨ØªÙĪÙĨÛĮÙħ
mill
äº
Ø¨ÙĨÛĮ
ĠØ³ÙĪÙĦ
emal
ÚĺÙĪ
ĠÙħØ³Ø±Øª
ensed
ØªÙħÙĦ
ĠØ¢Ø±Ø§ÛĮÙĩ
ĠÛĮØ§Ø¯Ø¢ÙĪØ±
Ġexplaining
ĠØŃØ¯ÙĪØ¯Ø§
ĠØ¹Ø²ÛĮÙħØª
Ġ1947
ĠMyr
ĠØ¬Ø³ÙħØ§ÙĨÛĮ
Ġregardless
Ġrocket
ersonal
Ġplainly
Ġrevolutionary
Ġranks
ĠMexican
ĠConfed
Ġreproach
ĠÙĩÙĨØ¯ÙĪØ³ØªØ§ÙĨ
ĠÙĦØ²ÙĪÙħ
mm
Ġsau
ÙģÙĪÙĤ
ĠØªØ§Ø¨ÙĦ
Ġbark
Ġborr
Ġhunt
ĠAld
rived
ĠØ±ÙĪÙħØ§ÙĨ
keys
ĠPippin
Ø¢ØªØ´
ĠGa
ĠGib
ĠLog
Ø§ÙĪØ¨
ĠNi
inda
ĠØ§Ø³Ø§ÙħÛĮ
ĠÚ¯Ø±ÙģØªØ§Ø±ÛĮ
ĠØ®Ø·Ø±Ø§Øª
oby
Ġintervals
ĠÙĨØ®ÙĪØ§ÙĩÛĮÙħ
Ġclassic
ĠØ³ÙģØ±Ùĩ
Ġmusician
2009
Ġautumn
ĠØ¨Ù¾Ø°ÛĮØ±Ø¯
ĠØ¨Ø¨Ø®Ø´
gressive
ĠÙħÛĮÚ©Ø±Ø¯Ùħ
Ġgraduate
Ġgalaxies
Fort
Jac
Pa
iÄ
Ø¯Ø§ÙħÛĮ
Ġward
ĠSn
ĠÙĦØ¨Ø§Ø³ÛĮ
Ġcooperation
ĠÙħÙĩØªØ§Ø¨
Ġpolar
Ġglimp
ĠØ§ÙĩØ¨
Ġcourts
ÙĦØ³ÙĦ
ĠÙĨØ§Ø±ÙĨØ¬ÛĮ
ĠÙĦÙĪØ¦
Almost
Ġcorp
Ġsteal
ĠÙħÙĢÙĨ
ĠÛ±Û¹Û·Û¹
Ġstrangely
Ġobserving
ĠØ§Ø®ØªÙĦØ§ÙĦØ§Øª
ĠØ¨ØªÙĪÙĨÙħ
Ġexplosion
ĠØ¬ÙĪÙĦÛĮØ§
Ġdiscipline
Ġglimpse
08
Ġtrop
Ġdumb
Ġninet
Ø·ÙĪØ¨Øª
ĠÙħÙĨØ§Ø¸Ø±
illery
orer
ĠØ³Ø±Ú©Ø§Ø±
ĠRussell
Ġabilities
Ġbutt
Ġinstalled
Ġ47
Ġcheese
Ġfinite
central
Ġvector
Ġspreading
Ġtrusted
Ġconsisting
Ġdisappointed
ÙĪÚ¯Ø±Ø§ÙģÛĮ
George
Black
Ġpursued
ÙħØ·ÙħØ¦ÙĨÙħ
ĠBelgium
iology
Ø§ÙĪØ±ÛĮ
ÙĪÙĨØ¯Ùĩ
Ġfist
ĠØ³Ø§ÙĨØ³
ÙĪÙĨÙĪ
Ġreass
ĠSex
ÙĨÚ¯Ø§ÙĩÛĮ
ĠLast
ÙģØ±Ø´
ĠØ§ÙĦØ²
ĠØ¯Ø§ÙĨÙĦ
ĠÙħØ±Ø¯Ú¯Ø§ÙĨ
Ø§ÙĨØ¯Ø§Ø±
ĠØ¬ÙħØ¬ÙħÙĩ
ĠØ¨ÙĨÙģØ´
Ġretrieved
Ġpresents
Ġexamination
ĠÚ¯ÙĦØ®Ø§ÙĨÙĩ
Ø¨ÙĨØ§Ø¨Ø±
ĠØ®Ø¯ÙħÙĩ
ĠØ¢ÙĩÙĨÛĮÙĨ
ĠØ´ÙĨØ§Ø³ÙĨØ¯
ĠÙħØ§ÙĦÙģÙĪÛĮ
Ġspeaker
ĠØ´Ø§ÛĮØ³ØªÚ¯ÛĮ
Ġmutual
ĠØ§ÙĦÚ©ØªØ±ÙĪÙħ
ĠØ¶Ø®ÛĮÙħ
ĠÙĪÛĮØ¯ÛĮÙĪ
ĠHogwarts
Sch
mad
ti
ØªØ¬
ØªÙĨÛĮ
Ġtin
ĠÙħØ³ØªÙħ
atisf
anes
ĠØ®Ùģ
Ġstake
Ġweigh
ĠMost
ĠHoney
ĠED
ĠØ§ÙĦÙĦ
Ġboot
Ġartistic
Ġoppon
Ġlegit
Ġ1949
ĠØªØ±Ø§Ø´Ùĩ
Ù¾Ø¯Ø±Ùħ
ĠØ±Ø³Ø§ÙĨÛĮØ¯
ĠTokyo
ĠYankees
sylvania
law
ĠØ¨ÙĪØ´
ÙĦØ±Ø¯
Ø³ÙĨØª
ĠÚ©Ø±Ø³ÛĮ
erving
ĠÙĨØ®ÙĪØ±Ø¯
ĠØ¯Ø±Ø§ÛĮÙĨ
Ø§ÙĦÛĮÙĨ
roc
ĠSP
ĠØ¯Ø§Ø±ÙĪÛĮÙĨ
ĠPut
ĠØ¯ÙĪØ´ÙĨØ¨Ùĩ
ĠÙ¾ÛĮØ§Ù¾ÛĮ
Ġunre
ĠØ¯ÙĪØ±ÙĪ
ĠØ§Ø¹Ø²Ø§Ùħ
Ġaccent
ĠÙĪØ±Ø´Ú©
ĠÙħØ§ÙĩÙĩ
hips
Ġrested
Ġtechnological
ĠÙħØ±ØªØ¨Ø§
Ġrib
Ġtemple
Ġruled
ĠØ¹Ø±ÙĪØ³Ú©
Ù¾Ø§ÛĮØ§ÙĨ
Ġignored
Ġwandering
ĠØ¯Ú¯Ø±Ú¯ÙĪÙĨÛĮ
Ġcorresponding
Ġbathroom
Ġattributed
quisite
Natasha
Ġenthusiasm
Ġarrangement
Ġmanifest
Little
Ġtang
ĠØ¨Ù¾ÛĮÙĪÙĨØ¯
Ø³Ø§Ø±
ĠØ¯ÛĮÙħ
ĠÙĨØ®ÙĪØ§ÙĩÛĮ
Ġbust
imb
idance
ĠPoly
ĠÚ©Ø§Ø±Ú¯Ø±ÛĮ
ĠGra
ĠÙģØ±Ø¶ÛĮ
ĠØ¢ÙħØ¯ÛĮ
Ġsheets
weight
ĠØ³ÙĪØ¦ÛĮ
oody
ĠÙ¾Ø±ÙĪØ±Ø¯
Ġcarpet
Ġimpulse
Ú¯Ø°Ø±
ĠAlger
ĠProp
Ġtrill
Ġtrials
ĠØ§ÛĮØ¯Ø¦
ĠÙĪÙĦØ§ÛĮØª
2001
ĠØ§ÙĪØ±Ø³ÙĪÙĦØ§
ĠÙħÙģØµÙĦ
Ġ1938
Ġeighteen
ĠÙ¾Ø±Ø³ÛĮØ¯Ùĩ
ĠØ¨Ø®ÙĪØ§ÙĩÙĨØ¯
Ġindustries
ĠMedal
ÃŃa
ĠØ³ÙĨØ¬Ø´
ĠÙ¾ÙĩÙĨØ§ÛĮ
Ġaccomplish
Ġpursue
Ġancestors
ĠIllinois
ĠMajor
ĠQuran
Ġï¼Į
ĠØ¨ÙĪØ¦ÙĨØ¯ÛĮØ§
uin
Ġmourn
ĠÚĨØªØ±
ĠØŃØª
Ġyeah
ÙĪÛĮÙĦÛĮ
ĠÙĦÙģ
ĠØªÙĪÙħ
ĠÚ©Ø´ÙĨØ¯Ùĩ
iza
ĠØ¨Ø®ÙĨØ¯
Ø§ØŃØªÛĮ
Ġflows
endar
Ġexpand
ĠZe
ĠØ¨Ø³ØªÙĨØ¯
ĠÙ¾ÙĨØ³ÛĮÙĦÙĪØ§ÙĨÛĮØ§
ĠØ®Ø§Ú©Ø³ØªØ±
Ġlayers
Ġ1946
ĠØ´ÙĨØ§Ø®ØªÙĨØ¯
ĠÙħØŃØ¨ÙĪØ¨ÛĮØª
Ġhousing
Ġstruggled
ĠÙĪØ²ÛĮØ¯
ĠØ±ÙħØ²ÙĨÚ¯Ø§Ø±ÛĮ
ĠØ±Ø£Ø³
ĠØ§ÙħØ¶Ø§Ø¡
ĠÙ¾Ø§Ø´ÙĨÙĩ
ĠÙĪÙĪØ¯ÙĩØ§Ø³
ĠCollins
Ġcrystal
ĠAffairs
Ġtranqu
Raskolnikov
Ġvel
ÙĨÚ©Ø§
Ø³Ú¯
ĠØ´Ø§ÙĩÛĮ
Ġmig
Ġdried
Ġthreshold
ĠÙ¾Ø®Øª
ĠØ§ÙĨÛĮÙħÛĮ
osity
ĠTai
Ø¯ÛĮÙĪÛĮØ¯
Ġloft
ĠNort
ĠWalk
ÙĨØ§Ù¾
ĠOF
ĠØªÙħØ§ÛĮØ²
onto
Ġbelieving
ĠØŃØ§Ø¶Ø±Ùħ
ĠØ§ÙĤÙĦÛĮØª
apel
Ġremembering
ĠÛ±Û¸Û´Û
ĠAbd
Ġcritics
ĠÙħÙħÙĨÙĪ
ĠØ¯Ø®ØªØ±Ùħ
Ġcontributed
Ġuncertainty
Ġsoup
Ġdioxide
ĠÙħØ²Ø®Ø±Ùģ
Dear
wick
Ø¨ÙĪØ³
ĠÙĨØ±Ø¯
Ġcable
Ġbicy
ĠØ¯Ø±Ú¯Ø§Ùĩ
ĠØ¢Ø³Ø§
ÛĮØ¯Ú¯ÛĮ
Ø¬Ø§Ø¨
Ġbeloved
Ø§ØªÙģØ§ÙĤ
ĠMell
ĠÙģØ±ÙĨÚ¯ÛĮ
ĠÚ¯Ø±Ø§ÛĮØ§ÙĨ
Ø¬Ø§Ø¹
Ġpeoples
ĠØ¨ÛĮÙĨÙĪØ§
Ġspider
ĠÙĨÙĩØ§Ø¯ÙĩØ§ÛĮ
ĠÙħÙĤØ¯
ĠVall
ĠØ³Ø§Ø²ÛĮÙħ
ĠÚĺÙĨÛĮ
Ġflushed
ĠØªØ¨Ø³ÙħÛĮ
Ġintervention
Ġcaps
ĠÙħØ§Ø±Ú¯Ø§Ø±Øª
ĠÙģØ±Ø§Ø®ÙĪØ§ÙĨ
ĠØ·Ø¨ÙĤØ§Øª
Ġoperator
ĠÙħØ±Ø¨ÙĪØ·Ùĩ
Ġlowered
ĠØ´Ø®ØµÛĮØªÛĮ
untary
ĠMcC
Ġdetection
Ġconsistent
Ġcoward
ĠØ¨Ø±Ø§ÙĨÚ¯ÛĮØ®ØªÙĩ
ĠGallery
ĠÙĩØ§Ø¨ÛĮØª
Kate
cut
front
lad
ĠØ¨ÙĨØ¯Ùĩ
ori
Ġtore
ĠØ³ÙĨÛĮÙĨ
Ġrevers
roid
ĠBou
Ġwholly
Ġplates
ĠKnight
ipes
Ġconsol
arson
Ġphones
ĠØ¨Ø´Ú©Ùĩ
Anna
ĠØ´ÙĨØ§Ø³Ùĩ
ĠÙĪÙĨØ²ÙĪ
Ø³ÙĪÙĨÛĮØ§
ĠÙģÛĮØ¨Ø±
ĠØ§ÙģÚ©Ø§Ø±Ø´
Ġpacked
Ġforests
Ġevolutionary
ĠÛĮÙĪØ±ÙĪ
ĠFrancis
ĠØ¯ÛĮÙĪØ§ÙĨÚ¯ÛĮ
ĠMiller
Ġdeliberately
aternal
Ben
human
saw
ui
Ø¯Ø³ØªÙĩ
Ú©Ø´ØªÛĮ
Ø³ÙģØ±
ĠÙĩØ²
Ġcaval
Ø®Ø¯Ø§ÙĪÙĨØ¯
Ġlaz
ĠÙ¾Ø®ØªÙĩ
ĠÙ¾Ø§ÙĦØª
ĠÙĤÙĪØ±
ĠMid
ĠBeth
ĠKansas
Ġarbit
ĠØ¨Ø§Ø²ÛĮÚ¯Ø±ÛĮ
Ġelbow
mee
Ġprocessor
Ġimportantly
2011
Ġ1942
Ġimmigrants
Ġsuspended
ĠÙĩÙĪØ§Ù¾ÛĮÙħØ§ÛĮÛĮ
ĠÙĨØ§Ø²ÙĨÛĮÙĨ
Ġnovels
Ġdetected
Ġparking
Ġheavens
ĠMagazine
Ġcandidates
Ġcertific
Ġfierce
Martin
Ġtrousers
ĠÙħØ¹Ø´ÙĪÙĤÙĩ
Ġfancied
rine
ÑĮ
ĠØ¨Ø§ÛĮØ±
Ġcott
Ġfir
Ġtooth
Ġthirst
ĠÙģÙĪØ§
amation
ĠAL
ĠCab
ĠPap
ĠBuend
Ġaltered
ĠÙģØ±Ø¨Ùĩ
Ġloaded
ÛĮØ§Ú©Ùģ
ĠÚ©ÙĪØ¨Ø§
ĠOp
ĠØ§Ø±Ú¯Ø§ÙĨÛĮ
Ġadap
Ġresolve
Ġcooper
Ġlonged
ĠØ´ÙħØ§Ø±Ø´
ĠÚĨØ´ÙħÙħ
ĠØªØºÛĮÛĮØ±Ø§ØªÛĮ
Ġmarvel
Ø«ÛĮÙĩ
Ġadmired
Ø§ÙģØªØ§Ø¯Ùĩ
ĠCoast
uddy
ĠÙ¾Ø±ÚĨÛĮÙĨ
ĠØ´Ø±ÙħÙĨØ¯Ùĩ
ĠÙħØ¹Ø§Ø¯ÙĦØ§Øª
CHAPTER
Ġgraduated
ĠVictoria
ĠÙħÚ©ØªØ¨
ĠØ¬ÛĮÚ©ÙĪØ¨
ĠÙħØ¹Ø§ÙħÙĦØ§Øª
GC
ÙĮ
ĠØ¯Ú©Ø§ÙĨ
Ø¨Ú¯ÙĪ
ĠØ±Ø¶Ø§
anna
Ø·Ø§Ø±
ØµÙĨØ¯
rypt
ĠÙħÙĤØµØ±
ĠØ§ÙģÚ©ÙĨØ¯Ùĩ
ĠÙħÙĪØ±Ø¯ÛĮ
ĠØ²ÛĮØ±Ø³Ø§Ø®Øª
necess
Ù¾ÛĮØªØ±
Ø§Ø¦ÙĦÛĮ
ĠØ®ÙĪØ§Ø¨Ø´
nected
ĠØ²ÛĮØ¨Ø§Ø¦ÛĮ
ĠØ¨ÙģØ±ÙĪ
ĠValentine
Ġmiracle
Professor
ĠØ´Ø¨ÙĩÙĩ
Ġsymmet
ĠSimon
Ġalphabet
,\
Aud
Comm
Jack
Official
}.
Ġtube
ĠØªØ§ÛĮÛĮ
Ġbanned
ĠÙģÙĦÙĪ
ĠØ¢ÙĨØ²ÛĮÙħ
ĠØŃØ±ÛĮÙħ
Ġwebs
ĠAT
ĠCulture
ĠØ¨ÛĮÚ©Ø§Ø±ÛĮ
Ġrice
Ø¢Ø±Øª
ige
ĠÙģØ±Ø¹ÛĮ
Ġproc
Ø¯ÛĮÚ¯Ùĩ
Ġchocolate
ĠÂ£
ĠJoh
ÙĪØ¨Ú¯Ø§Ùĩ
Ġincon
ĠÙģØ¶Ø§ÙĩØ§ÛĮ
Ġwarmth
ĠMoses
ĠServer
ĠÚ©Ø´ÛĮØ´ÛĮ
fortunately
Ø§ÙĪÙĦÛĮÙĪÛĮÙĩ
ĠCircle
ĠÙħÙĦØ§ÛĮÙħØª
Ú©ÙĨÛĮ
Ġsoph
Ġwre
ĠÙĪØ§ÙħÛĮ
Ù¾ØªÛĮ
ĠØ¨Ø±Ø³Ùħ
ĠØ±ÙĪÙħØ§ÙĨÛĮ
ĠØ¨ÛĮÙģ
ĠØªØ±ÙĪØ±
ĠÙĨÙħÛĮØªÙĪÙĨ
ĠLat
ĠØ¬Ø§ÙĪØ¯
azed
ØµØ¯Ø§ÛĮØ´
ĠØªØ¨Ø±ÛĮÚ©
ĠØ§Ø·ÙĦØ§ÙĤ
upon
ĠØ¨Ø´ÙĪÛĮ
ÙħØ±Ø¯ÛĮØ§Ú©Ùģ
Ù¾Ø§Ø´ÛĮ
ĠAnderson
ĠØ¹Ø¶ÙĪÛĮ
ĠÛ±Û¹Û·Û¸
Ġfacility
ĠIvanovitch
Ġsequences
Ġhalted
ĠØ¯ÙĬÚ¯Ø±
Ġsteadily
Ġsufficiently
cific
sing
xy
erick
Ġdat
ĠØ¨Ø§ØªÙĦØ±
ĠØ§Ø³ØªØ§Ø±
Ġbees
ĠSydney
ĠAy
ĠBird
ĠRoss
iege
ĠÙħØ±Ø¶
ĠØ¨ÛĮÙĨÙĩ
ĠÚ©ÙĦÚ©
ĠÙĪØ¬ÙĪØ¯ÛĮ
Ġresent
Ġhappily
Ġincomp
ĠÙ¾Ø¯Ø±Øª
ÙĪÙĦÙĪÚĺÛĮÚ©
ĠØ§ÙĤÙĦÛĮÙħ
ĠGermans
Ġdisplayed
Ġaccessible
ĠÛ±Û³Û·Û
Ġtitled
ĠØ§ÙģØªØ®Ø§Ø±ÛĮ
ĠÙħØ§Ø³Ùĩ
Ġexchanged
ĠØŃÙĪØ§Ø³Ø´
ĠJulia
ĠÙĨÙĪÙħÛĮØ¯
Ġpreparation
ĠSoftware
ĠÙĩØ§Ú¯ÙĪØ§Ø±ØªØ²
Has
IF
Work
Ġtid
ĠÚ¯Ø¯
ĠÚ¯Ø§Ø±
ĠØµØ¯Ø±
emet
ĠTen
ÙĬÙī
ĠÙħØ¬Ø§Ø±Ø³ØªØ§ÙĨ
ĠØ´Ú©ÙĪ
Ġsubtle
Ġinvite
ĠØ³Ø¨Ø¯
Ġvisitor
ĠBeach
ynch
Ġsatisfy
ÙħØ¬Ø¨ÙĪØ±
ĠØ¨Ø®ÙĪØ§ÙĨÙħ
ĠÙĤØ±Ø§Ø±Ø¯Ø§Ø¯ÛĮ
ĠØ¶Ø±Ø¨Ø§Øª
Ġbags
Ġventure
ĠØ¨Ø§Ø²Ú¯Ø±Ø¯Ø¯
ĠPortuguese
ĠØ²Ø§ÛĮÙħØ§ÙĨ
ĠPennsylvania
Much
rac
ĠØ§Ú¯
arter
ĠØ§Ø²Ø§ÛĮÙĨ
immer
ithm
ĠSky
ĠØ¨ÛĮÙĪÙĦÙĪÚĺÛĮÚ©ÛĮ
ĠÙĦØ§ÙĨ
ĠÙĦÛĮØ¯
Ġexert
ĠØ¨Ø§Ø²Ú¯ÙĪ
oused
ĠØ§Ø³ÙĦÙĪ
acts
rup
ĠØ§Ø±ÙĤØ§Ùħ
ĠØ¹ÙħØ¯Ø§
Whatever
Ġprey
Ø±ÙĪØ²ÙĨØ§ÙħÙĩ
ĠÙħÙĩÙħØªØ±
ĠØªÚ©Ø«ÛĮØ±
Ġfourteen
ĠØ¹Ø²Ùħ
ĠÙħØ´Ø®ØµÙĩ
ĠØ¨Ø±Ú¯Ø´ØªÙĨØ¯
ĠÛ±Û¹Û¶Û¹
Ġtransportation
ĠØ¨Ø±Ø³Ø§ÙĨÙĨØ¯
Ġspatial
ĠÙħÙĨØªÙĤØ¯Ø§ÙĨ
fire
ĠÚ©Ø¨ÛĮØ±
ĠØ¬Ø§Ø±
ĠCode
Ġconvention
ĠØ³Ø±ØŃØ§ÙĦ
ĠØªØ±Ø§Ø²
ĠRub
ĠRuth
Ġvoc
ĠØ³Ø§ÙĦØ®ÙĪØ±Ø¯Ùĩ
ĠØ¯ÙĩÙĤØ§ÙĨ
udder
ĠØ§ØµÙĪÙĦØ§
Ø§Ø¨ÙĦØ§ÙĨØ³Ú©ÛĮ
ĠØ®ÙĪØ§Ø³ØªÛĮ
ĠÙĨØ´Ø§ÙĨÚ¯Ø±
Ġslide
ĠØ¨ÙĨØ§Ø¨Ø±
Ġguilt
ouncing
ĠÚ¯Ø±ÛĮØ³
ĠÚ©ÙĪØªÙĪØ²ÙĪÙģ
Ġsixteen
Ġsecretly
ĠÙĬÚ©
Ġemerging
ĠMichigan
Ġinquiry
Ġdemonstrated
Ġpillow
bourg
Ġprovinces
ĠØªØ¯Ø§Ø±Ú©
Six
wering
Ã«
ĠÙĨØ·
ĠÙħÛĮØ±Ø¯
Ġhind
ĠØ¨Ø±Ø¹ÙĩØ¯Ùĩ
ĠØ²ÙĦØ²
Ġwhales
keley
ĠBack
ĠBang
ĠÙĩØ±Ú©Ø³ÛĮ
ĠWild
Ø³Ø±Ø¹Øª
ĠØ´ÙĩØ§ÙħØª
ĠÙĦÛĮÚ©Ø±
Ø¨Ø±Ø¯Ø§Ø±
ĠØªØµÙĪØ±Ø§Øª
Ġ1943
Ġrespected
ĠÙĨØªÙĪØ§ÙĨØ³ØªÙħ
ĠÙģØ±Ø³ØªØ§Ø¯ÙĨ
Ġcircumstance
ĠØ¯Ø²Ø¯Ø§ÙĨ
enesmee
ĠØ¢ØªØ´ÛĮ
Ġbehaviors
ÙĨÛĮØ±ÙĪÛĮ
Ġcomrades
Ġencounter
ĠØªØ³ÙĩÛĮÙĦ
77
Ser
Ø²ÙħÙĩ
ĠÙĩØ§ÙĨÛĮ
ĠØ¨ÙĩØ§
Ø¹ÙĦØ§
ĠØ¢ÙĨØªÙĪÙĨÛĮ
isting
Ø¢ÙĤØ§
ĠØ´ÙĪØ§ÙĦÛĮÙĩ
ĠØ´Ø±Ú©ØªÛĮ
ÙģÛĮØ³
Ġwrink
Ù¾Ø±Ø³ÛĮ
Ġexposure
ollo
ĠÚĺÙĨØªÛĮÚ©
ĠØªÙĪØ±ÙĨ
Ġparticipation
Ġpositively
Ġsamples
ĠStrick
ĠÙĨØ¹ÙħØª
ĠÙģØ§Ú©Ø³
Ġpistol
ĠØ²ÙĦØ²ÙĦÙĩ
French
Pre
ØªØ§ÙĦ
Ú¯Ø§ÛĮ
ØµØ§Ø±ÛĮ
Ġongoing
ĠMind
ÙĦØ§ÙĤÛĮ
ĠPorthos
ĠBand
quet
ĠÙģØ±ÙĤÙĩ
ĠTalk
ĠØºØ±ÙĪ
ÙĬØ´
lose
ĠOnt
ĠVideo
Ø§ØµØ¯
ĠØ³ÙĪØ§Ø±Ùĩ
Ġbrush
ĠØ³ÙĩÙħÛĮ
Ø§Ø¶Ø¹
ĠØ²Ø¨Ø§ÙĨØ´
iversary
Stud
Ġfigured
ĠÛ±Û¹Û·Û±
Ġthrone
Û±Û¹Û¸Û
ØªØµØ§Ø¯
Ġcopper
ĠÛĮØ®ÚĨØ§ÙĦ
ĠØªØ±ÙĪØ±ÛĮØ³Øª
ĠÙħÙĤØ±Ø±
ĠØ§ÙĨØ¹Ú©Ø§Ø³
Ġdisappointment
ĠMichel
Ġforbidden
Ġathlet
ĠÙħØ¶ØŃÚ©
Ġfossil
Ġrigid
CS
Rep
Ø¬Ø±ÛĮ
ĠÚ¯ÛĮÙħ
ĠØ¬ÙĢ
ĠÙĤØ§ÛĮÙħ
ĠÚ©ÙĨØ´
ĠÚ©ÙĨÙĪØ§ÙĨØ³ÛĮÙĪÙĨ
ĠSondra
ØºØª
ĠBumble
Ġjet
ĠÙĨØ§ÙħÙĨ
asser
ĠKutuzov
ĠÙ¢
ĠØªØŃØ±ÛĮÙħ
ĠØ§ÙĨØªØ¸
ĠYears
Ġpresently
Ġtransmit
Ġanimation
ĠÙ¾ÙĩÙĨØ§
ĠÛ±Û¹Û¶Ûµ
ĠÙħÙĪØ³ÙĪÙħ
Ġhistoric
ĠØ´Ú©Ø§Ø±ÚĨÛĮ
ÙħØ§Ø±ÛĮØ§
ÛĮØ§Ø¯Ùħ
ĠMedicine
ĠÚ©Ø§Ø±ÙĪÙĦÛĮÙĨØ§ÛĮ
Ġfootsteps
Long
ÙĪØ¬ÙĪØ¯
Ġwages
ÙĤÙĦÙĪ
Ġpatch
Ġine
Ø®Ø±Ùħ
Ġrender
urches
ĠØµÙĢ
ĠÙĦÙĪÛĮÛĮ
ĠDirect
iga
Ú©ÙĨÙĨØ¯
Ġoutcomes
actory
assy
anges
ĠStadium
ĠØ§Ø¬Ø²Ø§
ĠØµÙĪØ±ØªÙħ
Ġendless
ĠØ±ÛĮÛĮØ³
Ġmining
ĠÙħØ±Ú¯Ø¨Ø§Ø±
ĠÙĪØ³Ø¹Øª
ĠÚ¯Ø´ØªÙħ
Ġsquad
ĠØ®ÙħÛĮØ¯Ùĩ
Arab
âĢ¬
Ġcooling
incoln
Ġsuspicious
ĠÛĮÙĦØ¯Ø§
ĠØ¨Ø§Ø²ÙĨØ´Ø³ØªÚ¯ÛĮ
Ø®Ø¯Ø§ÛĮØ§
ĠHTML
ĠØ³Ø§ÙĤÙĩ
ĠÙĤÙĪØ§Ø¹Ø¯
BL
away
first
has
Ø¯Ø±Ø¯
ÙĦÙĪØ§ÙĨ
ĠØªØ®ØµØµ
ĠØªØ¯ÙĪÛĮÙĨ
ĠÙĨÙĨÚ¯
Ġbite
icular
llen
Ġrely
ĠÚ©ÙĨÚ¯
ĠCru
olving
ĠÚ©Ø§Ø±Ø¯ÛĮÙĨ
Ġintensity
ĠVel
issa
Ġindirect
ĠØªÙĤÙĦØ§
Ġpassenger
upin
ĠÙĨÚ¯Ø±Ø´
Ġmilit
ĠWeek
ĠØ±ÛĮØ®ØªÙĨØ¯
Ġindependently
Ġpackage
Ġdetermination
ĠSupp
Ġconcentrated
Ġperceive
Ġwitnesses
Ġdiagnosis
ĠStrickland
MT
Paul
Ð¼
ĠÙħØ¨Ø§ÙĦ
ĠØ´ÙĨÛĮ
ĠÙħÛĮØ´Ùħ
Ġharp
Ġfiring
Ġpul
Ġling
Ġlingu
Ġwasted
ĠMR
abe
Ø¨Ø§Ú©
Ġuncon
ĠÚĺÙĨÙĪ
Ġreconst
Ġsubstit
Ġzo
ĠÙĤÙĩÙĤÙĩ
ĠAntar
ĠIntel
ĠØ§ÙħÙ¾Ø±Ø§Ø·ÙĪØ±ÛĮ
ĠÙħØ·Ø¨ÙĪØ¹Ø§Øª
ĠÙ¾Ø´ÛĮÙħØ§ÙĨÛĮ
ĠÙħØ¹Ø§Ø´Ø±Øª
ĠAragorn
Ø§Ú¯
ĠÚ©Ø§Ø´Øª
ĠØªÛĮÙħÛĮ
Ġcake
Ġcents
ĠÙħÛĮØ®ÙĪØ§Ø³Øª
Ġstout
ĠÙħÙĨØµÙģ
ĠSher
rip
ĠCre
ĠÙĦÙĪØ±
ĠLang
ĠFa
Ġleap
ĠÙ¾Ø§ÛĮÛĮØ²
Ø´ÙĨØ§ÙħÙĩ
velength
ĠØ±ÛĮØ³ÙħØ§ÙĨ
Ġstrain
ĠÙ¾Ø±Ø¯Ø§Ø²ÛĮ
Ġfinance
ĠØ¹ÙĪØ§ÙĤØ¨
Ġrisen
ĠÙĤÙĦØ§Ø¨
Ġ1937
Ġbanking
Ġdamaged
Ġamazement
Ġsurviv
Neither
Ġcalmly
ĠBoris
ĠThenardier
ĠMotor
yard
Ã¦
åħ
ĠÙĪÛĮØ²
Ø§ÛĮØ³
Ø§Ø±Ø²Ø´
Ġbid
Ġhut
ĠØ¯Ø±ÙĩØ§
ĠØ³ÙĪØ±ØªÙħÙĩ
rogen
oda
Ġconvert
Ġmankind
ĠÙħØ±ÙħÙĪØ²
Ġdisorders
ĠØ§ÙģÙĤÛĮ
weg
Ġgrant
Ġpoems
ĠÙĨØ²Ø§Ú©Øª
ĠÛĮÙĩÙĪØ¯
ĠÙħØ§ÙĩØ±
ĠØªØ¬Ø§Ø±
ĠØ¨Ú©Ø´ÛĮØ¯
ĠSpir
Ġexplains
ĠØ§Ø¨Ø±ÙĩØ§
Ġ1935
ĠØªÛĮÙ¾
ĠÎ±
Ġboundaries
Ġthreatening
cosystem
Ġcontribute
ĠØªØ±Ø³ÛĮØ¯Ùħ
ĠÙĪØ¬Ø¯
Ġcurtain
ĠØ¹Ø§ÙĤÙĦØ§ÙĨÙĩ
ĠÙħÛĮÚ¯ÙĪÛĮÙħ
Ġavoided
Ġwiped
ĠÙħØ§Ø±Øª
Ø³ÙĨØ¬ÛĮ
ĠÚ©Ø¯ÙĩØ§ÛĮ
ĠâĢĮ!
Ġmate
Ġtomb
ascus
Ġheels
irrel
irteen
ĠMD
Ġcomments
ĠRy
ĠØ¨Ø§Ø´ÛĮÙĨ
ĠØ¨Ø§Ø²Ø¯Ùĩ
ĠØ¹Ø¶ÙĦØ§Øª
Ġillum
ĠØ¹Ø§ÙĦÛĮÙĩ
ĠRussians
ĠÙħÛĮØ¯ÙĩÙĨØ¯
ĠMerry
Ø´Ø§Ø¡
rified
ĠØ¨ÙģØ±Ø³ØªØ¯
ĠSingapore
ĠÙħØ¹Ø·ÙĪÙģ
ĠÙ¡Ù
Ġeyebrows
Ġmagnificent
EF
Fred
eh
ĠÙĩÙĪÛĮ
Ġsty
ĠØ®ÙĪØ¯Ø®ÙĪØ§Ùĩ
ainment
ĠØ§ÙħØ¯
ĠØ§ØŃÛĮØ§
Ø±ÙĩØ§ÛĮÛĮ
ĠÙħØ§ÙĨØ³Øª
Ġgrain
ĠØ¨Ø®Ø±Ø¯
ĠØ¨ÙĦØ§ÛĮÛĮ
ĠÙĨØ´Ø§ÙĨØ¯
Ġrepublic
ĠØ¨Ø§ÙĨÙĪØ§ÙĨ
ĠØªØ±Ø³ÛĮØ¯Ùĩ
Ġposter
Ġrespectable
ĠÛ±Û¹Û´Û¸
Ġcamps
Ġdisposed
ulsion
ÚĨØ´ÙħØ§ÙĨØ´
Ġcurtains
ĠØ¨ÙĨÙĪÛĮØ³Ùħ
Ġgrammar
mont
till
Ãª
ÙĦØ¹
including
Ú¯ÙĪØ±ÛĮ
ĠØ±ÙĦÛĮ
ĠØ¯Ø±Ú¯Ø°Ø´ØªÙĩ
Ġmm
Ø±ÛĮØ¨ÛĮ
Ġreception
ĠSome
ophers
ĠØ³Ø±Ø·Ø§ÙĨÛĮ
Ø§ÙĤØ¹ÛĮ
ĠHas
ciation
acked
ÙĪÙħØª
Ġench
ĠØ§Ø±Ùħ
ĠVienna
Ġperm
Ġpercept
ĠÙ¾Ø§ÛĮÛĮÙĨÛĮ
ĠØ¨Ø§Ø±Ø´
Ġbron
Ġconspir
Ġrelate
pector
ĠØ«ÙħØ±
ĠØŃÛĮÙĦÙĩ
ĠSeg
Ġcommanded
ĠMorrel
Really
ĠØ±ÙħØ²Ú¯Ø°Ø§Ø±ÛĮ
burgh
Ġpolitician
Ġenvelope
ĠÙĦØ§Ø²ÙħÙĩ
Ġtragedy
Japan
Mel
oen
rade
ÛĮÙĪÙĨ
isure
ĠØ®ÙĬÙĦ
Ġthumb
ĠØ§Ø³ØªØ§
ÙģØªØ±
Ġweeping
ĠCook
ĠÙħÙĪÙĩ
ĠØªØ§Ú©Ø³ÛĮ
ĠTam
ĠForm
ĠÚ¯Ø±Ø§ÙĨØ´
Ġroses
ĠØªØŃØ±ÛĮØ±
Ġdesir
neg
ĠØ°Ø±Øª
ĠÙ¾Ø±ÙĪØ³Ùĩ
ÙģØ§Ú©Ø³
ĠØ¬Ø§ÙĨØ³ÙĪÙĨ
Ġrestore
ÙĨÙĪØ´ØªÙĩ
ĠÙĦØ¨Ø§Ø³Ø´
Ġdepressed
Ġtempor
Ø§Ø¯ÙĦÙĨ
Ġempire
ĠÛ±Û¹Û¸Û±
ĠÙħÙĨØ§Ø·ÙĤÛĮ
ĠÙĨØ§Ø®ÙĨ
ĠØ¬Ø³Ø§Ø±Øª
ĠØ³ÛĮÙĨÙħØ§ÛĮÛĮ
Ġmadness
ĠMalays
Ø§ÙĦÙĪÚ¯
ĠObama
Ġshriek
ÙģØ¯Ø±Ø§Ø³ÛĮÙĪÙĨ
jamin
ĠØ§Ùī
ÙģØ±ÙĪ
ĠÙħÛĮØ³Ø±
Ġfake
Ġpadd
Ġpione
Ġnost
ayer
ĠSlo
ĠLook
ĠLiter
ĠEric
ĠÚ©ÙĪØ³Ùĩ
ĠØ´Ø±Ø·ÛĮ
Ġhumble
ginal
ĠDecl
ĠÚ¯Ø±ÛĮÙģÙĨØ¯
Û±Û¹
Ġpercentage
ĠØ¬Ø±ÙĤÙĩ
Ġ1958
Ġtrading
ĠFlorentino
ĠBarb
uclear
ĠØ´Ø§Ú¯Ø±Ø¯Ø§ÙĨ
ĠØ±Ú©ÙĪØ¯
Ġtherm
Ġwandered
Ġfascinating
ĠUrb
Ġbombs
ĠØ§Ø¨ÙĦØ§ÙĨØ³Ú©ÛĮ
ÙħÚ¯Ùĩ
Ġol
ÚĨÙĪ
ĠImp
etics
ĠÙĤØ§ÙĦÛĮ
Ø§ÛĮØ¯Ø§Ø±
ĠÙħØ¹ÙħØ§
ĠØ§ÙĦØ¯ÛĮÙĨ
ĠÙĤØ±Ø§Ø±ÛĮ
ĠÙĨÙĩÙĨÚ¯
Ø´ÙħÙĨÛĮ
Ġresident
ĠØ¢ÙĪØ±Ø¯ÛĮÙħ
ĠÙħÛĮØ²ÙĨØ¯
ĠØªÚ©Ø§ÙħÙĦÛĮ
Ġconfirm
Ġsolving
ĠØ®Ø§ØµÛĮØª
ĠProfile
ĠØªÙĪØ¶ÛĮØŃØ§Øª
Ġautonomous
Ø¨Ø±Ø§ÙĨØ§Ø¨ÙĪØ³
ylum
ĠØ³ÙĪØ²Ø§ÙĨØ¯
Ġporter
Ø§ÙĪÙĦÛĮÙĪØ±
Ġcolonial
ĠPolitical
ØºØ¯ØºÙĩ
ĠØ§ÙĪØ¨Ø§ÙħØ§
emetery
Î»
Ġties
Ø¨ÙĤ
ĠØ±Ø·ÙĪØ¨Øª
Ġpear
Ø¹Ø¸Ùĩ
Ø·ØŃ
ĠØ¹Ø§ÙħÛĮ
Ġstub
ĠMand
those
Ġdefect
ĠBart
ĠØªÙĪØ£Ùħ
unken
Ġneural
ĠØªØ±Ùĩ
ĠÙĤØ±Ø§Ø±Ùĩ
arest
ĠØ§Ø±Øº
Ġemperor
Ġexpectations
Ġmaintenance
Ġdestination
ĠÚ¯Ø°Ø§Ø±ÛĮÙħ
Ġcamel
gheda
Ġphilosophical
ÃŃn
ĠÙħÛĮØªÙĪØ§ÙĨÛĮØ¯
Ġparticipated
inceton
Ġaimed
Ġbillions
Ġrefugee
Ġpuzzled
Ġdiamonds
Ġdramatic
Ġintentions
Ġlinen
Ø³Ø±ÙĩÙĨÚ¯
96
NS
ho
rm
²Û²
Î¿
ÙĪÙĨØ¯ÛĮ
Ø³ÙĨÚ¯
ĠØ¯Ú©ÙĦ
Ø§Ø±Ø¨Ø§Ø¨
ÙĤØ§ÛĮÛĮ
ĠÙĨØ§Ùģ
Ġcats
Ø¹ÙĤ
ĠØ§Ø³ØªÙĪÙĨ
ĠÚĨØ±ÙĪÚ©
ĠØ¢ÙĨÚĨÙĨØ§ÙĨ
ĠØ¯ÙĪÙĤÙĦÙĪ
Ġritual
ĠRain
ĠDur
ĠTara
Ġchains
ĠWatson
aku
ÙĪØ§ÚĺÙĩ
ĠØ¨ÙĦÙĪØ±
ĠØªÙĪÙĦÛĮØ¯ÛĮ
ĠÙ¾ÙĪÙĦØ¯Ø§Ø±
ĠÚ¯ÙĦØ¯
Ġdefence
ĠØ§Ø±ÙĪØ§ØŃ
ĠØ±ÙĪØŃØ´
âĢĵ
Ġsuggestion
ĠØ²ÙħØ³ØªØ§ÙĨÛĮ
Ġpredicted
ĠÙĤÛĮØ§Ø³
Ġassets
ĠModel
Ġseventh
ĠÙħØªØ§Ø³ÙģØ§ÙĨÙĩ
Ġinherit
Certainly
ĠBingley
Est
having
ä¹
ĠØ¨ÚĨØ±Ø®
Ú¯Ø´
ĠØ²Ø´ØªÛĮ
ims
ĠÙĨÛĮÚ©ÛĮ
ĠÙħÙĤØ·
ĠØ§Ø·ÙģØ§ÙĦ
ĠØ´ÙħØ§ÙĩØ§
ĠØªØ´ÙĨØ¬
ĠØ¸Ø±Ø§ÙģØª
Ġmetab
Ġdiscon
Ġexamine
Ġmoist
ĠØ¶Ø±Ø¨Ø§ÙĨ
ĠÙĩÙħÚĨÙĨØ§ÙĨÚ©Ùĩ
ĠÚ©ÙģØ§ÛĮØª
ĠØ¨Ø±Ø®ÛĮØ²
Ġdreaming
Ġ1933
Ġerrors
ĠÙģØ±ÙħÙĪØ¯
Ġpacket
ĠCorps
Ø¨Ø¨ÛĮÙĨÛĮØ¯
Ġepisodes
Ġalleged
Ġsurveillance
rise
ØªØ£
ĠØ¯Ø±Ø¬
ĠØ§ÙĨÙĩØ§
Ġ1000
ĠØªØ§Ú©ÛĮØ¯
izz
ĠUt
Ø¯ÛĮØ¯Ùħ
Ġflames
ĠØ®ÙĪØ§Ø³ØªÚ¯Ø§Ø±ÛĮ
Ø±Ø¨ÚĨÙĩ
ĠØ¬Ø§ÙĨØ´
too
Ġappearing
ĠÙģÙĩÙħØ¯
Ġ800
ĠÙħØ´Ø§ÙĩØ¯Ø§Øª
ĠÙĨØ¨Ø§Ø´ÛĮØ¯
Ġfaithful
Ġharness
ĠØ¯Ø±Ø¨Ø§Ø±Ø©
Ġhurriedly
ĠBangladesh
ĠØ§ÙĦÚ©ØªØ±ÙĪÙħØº
ĠÙĪÙĨØ²ÙĪØ¦ÙĦØ§
ÙĨØ¯Ø±
ĠØªÚ©ÙĦ
oro
Ġthief
Ġgre
Ø§ÙĩØ¯ÛĮ
ĠAfter
Ø¯ÛĮÚ¯Ø±ÛĮ
ĠWW
ĠÙħØ±Ø®ØµÛĮ
ĠØ³ÛĮØµØ¯
ĠØªØµØŃÛĮØŃ
Ġopens
Ġinterval
Ġdefines
Ġdesigners
Arch
ĠÚ©ÙĪÙĩØ³ØªØ§ÙĨÛĮ
ĠEnvironment
Ġfemales
ĠØ¶Ø¹ÛĮÙģÛĮ
Ġcandles
ĠAgain
Ġoptical
profit
ĠØ§Ø³ØªØ¹ÙģØ§
ĠEllen
ĠPortugal
ĠÙħÙĨØ¬ÙħØ¯
ĠØ¹ÙĪØ§Ø·Ùģ
ĠVernon
Û·
ÙħÙĪÙħ
ĠâĶ
ĠØĮ...
Ø¹Ø§ÙĨ
ĠØ¹Ø±Ùģ
ilis
ĠLen
ĠFox
ĠÚ¯Ø±Ø§ÙħÛĮ
ĠØ§Ø±Ú¯
Ġdisk
osexual
ĠÚĺØ±
Ù¾ÛĮÚĨÛĮ
ĠÙĥÙħ
ĠÙĨÙģØ³ÛĮ
Ġhearted
Ġfathers
Ġorgans
Ġclassification
Ġbias
ĠÙģØ±Ø§ÙħÙĪØ´ÛĮ
ĠØ§ÙģØ³ÙĪØ³
ĠÙĩÙĪØ§Ù¾ÛĮÙħØ§ÙĩØ§ÛĮ
ĠØ±ÛĮØ®ØªÙĨ
Ġconflicts
ĠÚĨØ§ÙĤÙĪ
Ø¢Ø±Ø§ÙħÛĮ
Ġsavings
Ġappreciate
ĠØªÙĪÙĤØ¹
ĠØ³ÛĮØ²Ø¯Ùĩ
ĠØ§ÙĨÛĮÙħÛĮØ´ÙĨ
Es
Ġwolves
Ø§ÙħØ´Ø¨
Ø§ÙĩÙĩ
ĠØªØ§Ø¬Ø±
Ġchronic
ciples
ĠÙĨØ§Ø´
Ġacute
ĠÙĥØ±Ø¯Ùĩ
ĠØ´Ø§ÙĨØ³ÛĮ
ĠØ¨Ø³Ø§Ø²Ùħ
Ġcontinuing
Ġtopics
ĠØ¨Ø²Ø±Ú¯Ø±Ø§Ùĩ
ĠØ§Ø´ØªØ¨Ø§ÙĩØ§Øª
Ġ1956
Ġbreaks
ĠÚ¯Ø°Ø±Ú¯Ø§Ùĩ
ĠÙĨØ´Ø¯ÙĨØ¯
Ġvert
ĠÙ¾Ø±Ø³ØªØ´
ĠÙħÛĮØªÙĪÙĨÛĮØ¯
Ġblessed
Ġecst
ĠÙĦØ¨Ø§ÙĨØ´
ĠÚ©ÙĪÚĨÙĪÙĦÙĪÛĮ
Near
viol
ÙħØ§ÙĩÛĮ
onomy
Ġbending
ĠÚĨÙħ
aders
roche
ĠØ¨Ø±Ø§ÛĮÙħØ§ÙĨ
Ø§Ø±ÛĮÙĪ
ÙĪÙĦØ§ÛĮ
abl
Ġleisure
ĠÙħØ±Ø¯Ø¯
ĠØ´Ø±ÙħØ³
Ġpermit
Ġworker
Ġgrid
Ġgrasp
ĠÚĨØ´ÙħÚ¯ÛĮØ±ÛĮ
ĠÙĨÚ©Ø§Øª
ĠÙ¾Ø§Ø¦
Ġanswering
ĠØ´ÙĨØ§Ø³ÛĮÙħ
ĠÙħØ§ÙĦÛĮØ¯
Stop
ĠBeaut
Ġlaying
ĠØ¯Ø¹Ø§ÛĮ
ĠÙħØ®ØµÙĪØµÛĮ
Ġstructural
Ġjudges
ĠCooper
Ġmechanisms
regular
Ġdimin
ĠJersey
ĠHTTP
Ġbattles
ĠÙĩÙĪØ±ÙħÙĪÙĨ
Ø¢ØªÙĪØ²
Jo
Whether
rice
Ð¹
ĠØ¨ÙĬÙĨ
Ø²Ø§Ø¯
Ġwider
ĠÙ¾ÙĪÛĮ
ĠÚ¯ÙĪÙĨÚ¯
ĠÚĨÙħØ¯Ø§ÙĨ
Ø§ÙĩØ§Ùħ
Ġrect
Ø±Ø§ÙĤÛĮ
ĠØ³Ø±Ø®ÛĮ
orts
rouch
Ø§ÙģØ³Ø±
Ġresign
orne
ĠUnix
undo
ĠÛ±Û°Û°Û°
Ġdrives
ĠÙħØ³ÛĮÙĪ
ĠØ¨Ø·ÙĪØ±ÛĮ
ĠØ¨ØªÙĪÙĨÙĩ
ĠØ¨Ø®ÙĪØ±ÛĮÙħ
ĠØ¨ÙĦÛĮØ·
Ġearthquake
ĠÚ©Ø§Ø±Ø§Ú©ØªØ±
ØªÙĦÙģ
Ú©ÛĮÙħ
ĠØ§ÙģØªÙĩ
ĠÙĪØ¯
ĠØ®ÙģØªÙĩ
ĠØ³ÙħØ§
icious
ĠØ§ÛĮÙĨÚĨ
ĠØ¹Ú©Ø³ÛĮ
ĠØ¹Ú©Ø§Ø³
ĠSus
odge
Ġalpha
ĠHard
okhov
Ø¨Ø±Ø¹Ú©Ø³
ĠØ±Ø³ÙĪÙħ
Ġunnecess
Ġclients
Ġreserved
ĠØ³ÙĪØ§Ø±Ø§ÙĨ
Ġpretended
erto
Ġincent
psy
ĠØ´ÛĮÙģØªÙĩ
Ġcertainty
ĠØ¯Ø³ØªÙĪØ±Ø§Øª
Ġattempting
Ġaffects
Ġamazed
ĠØ¢Ú¯Ø§ÙĩØ§ÙĨÙĩ
Prin
Ġpurchased
Ġstretch
ĠScottish
Human
mail
ØªØ¹Ø¯Ø§Ø¯ÛĮ
Ġhalt
Ġdun
Ġecosystem
Ġwashing
Ġstew
ĠØ¨ÛĮÙĨØ¯ÛĮ
ØºØ°
ĠGrey
ounted
Ġhappier
ĠÙħÙĦÚ©ÛĮ
vernment
ĠØ¨Ø³Ú©Øª
ĠAnat
ØªØ³Ø¨ÛĮ
ĠÛ±Û¹Û¶Û·
guard
Others
ĠServices
ĠØ·Ø±Ø§ØŃØ§ÙĨ
Ġtumor
ĠAviation
ĠÚĨØ´ÙħÛĮ
Ġgossip
Early
Larry
Make
Often
bu
nest
Û¸
Ú©ÙĪØ²Øª
otis
Ġwept
ĠMun
ĠPage
ĠRaskolnikov
ĠLam
ources
ĠÙĩÛĮÚĨÚ¯Ø§Ùĩ
ĠØ§Ø¬Ø¯Ø§Ø¯
ĠØ®ÙĪØ¯Ø´ÙĪ
ØµØ¯Ø§ÛĮÛĮ
Ġcourses
ĠØ²ÛĮØ³ØªÚ¯Ø§Ùĩ
Ġcommands
Ġ250
Ġurged
Ġremarks
ĠÙħÛĮÚ©Ø±Ø¯ÙĨØ¯
ĠØ¨Ù¾Ø±Ø¯Ø§Ø²ÙĨØ¯
Ġdesperately
ĠØ·Ø±Ø²ÛĮ
ĠStanford
Ġsupplies
Ġenthusi
Ġrhythm
:"
lif
ĠØ¨Ø¬ÙĨÚ¯
ĠÙħØ³ØªÛĮ
Ġhither
ĠØ®ÙħÛĮ
ĠØ³ÙĬ
Ġpir
ĠÙ¾Ú¯Ø§ØªÛĮ
ĠRail
ĠFinal
Ø§ÙĪØ±Ø¯Ùĩ
Ġunemp
Ġperf
Ġcoinc
ĠChannel
Ġoffensive
ĠØ¬ÙĪÙĩØ±
Ú¯ÙĪÚĺÛĮÙĨ
ĠÚĨØ±Ø§Ú©Ùĩ
ĠØ³ÙģØ§Ø±Øª
Ġresting
ĠØ¨Ø³ÙĬØ§Ø±
Ġapproval
untarily
Ġtraditions
Ä±n
ĠMediter
ØªØµÙĪÛĮØ±
ĠØ¹Ø¨Ø§Ø±Ø§Øª
Ġkilometers
ĠNigeria
ĠUkraine
ÙħÙĨØ·ÙĤÙĩ
Ġtoilet
ĠÙħØ¹Ø§ÙĦØ¬Ùĩ
63
ĠØ¨ÙĪØ³ØªÙĪÙĨ
inals
ĠØ¯Ø§ÛĮÙĨ
ĠÙĩØ°Ø§
ĠØ±Ø§Ø¯
ĠØ¨Ø±Ú¯Ùĩ
sts
ĠØŃÙĢ
ĠÙĩÙħØ¨Ø³ØªÚ¯ÛĮ
ĠSI
ĠAV
agne
Ġshrew
Ġshorter
ĠEarly
ĠÚ©ÙĪÙ¾Ø±
izer
Ġtwe
Ġperfection
Ġflashed
ØºÛĮØ§ÙĨ
Ġpharm
azines
ĠØ®ÙĪØ§ÙĨÙĨØ¯Ú¯Ø§ÙĨ
ĠÙĤØ¯Ø±Ø¯
Ġelectrom
Ġdefault
ĠØªØ®ÛĮÙĦÛĮ
Behind
ĠØ§ØŃØªØ±Ø§ÙħÛĮ
ĠØ¨ÙģÙĩÙħÙĨØ¯
ĠGreater
ĠChristianity
ĠÙĩÙĦÙĨ
Ġadventures
ĠBrook
Ġcorporate
olmes
Ġrevenge
ĠChemical
Ġunfortunately
ĠØªØ´Ø±ÛĮÙģØ§Øª
har
produ
Ġoath
Ġwizard
ĠÙħÛĮÙĩÙĨ
Ġpall
ÚĨÚ¯ÛĮ
ĠÙģÙĥØ±
adays
ĠCart
Ġanch
ĠØ±ÙĪØ§
ushes
Ġraid
ĠØ¢ÙħØ§Ø²ÙĪÙĨ
Ġspons
ĠØ²ÙĨØ¯Ú¯Ø§ÙĨÛĮ
Ú©ÙĦÙĨØ¯
Ġbrick
Ġwrath
ĠÙĨÙģØ±ÛĮÙĨ
ĠØ¢ÙĦØ§Øª
Ġguidance
ĠØ¢Ø´ØºØ§ÙĦ
ĠØ¬ÙĦØ§ÙĦ
Ġ1952
ĠAustrian
Û±Û¹Û·Û
ĠSteve
ĠÙħÛĮØ±ÙĨØ¯
ĠÙĨÙĪØ±ÛĮØ³
ĠØ³Ø§ÙĦÛĮØ§ÙĨÙĩ
Ø³Ø§Ø®ØªÙħØ§ÙĨ
Ø¬ÙĪØ±Ø¬
Ġlungs
ĠPavlovitch
ĠØ¸ÙĦÙħØª
43
93
Ġtune
ÙģØ±ÙĪØ´
Ġbills
Ġfans
Ġlest
Ø¬Ø§Ø±ÛĮ
ĠÚĨÙĪÙ¾
Ø§Ø¯ÙĩØ§ÛĮÛĮ
ĠØµØ±Ø¨
ĠPascal
Ġorb
orting
ĠEU
ĠØ¨Ø§Ø²Ø®ÙĪØ±Ø¯
Ġcannon
Ġpert
ĠÚĨÙĪÙĨÚ©Ùĩ
ĠÚ©ÙĪÚĨÚ©ØªØ±ÛĮÙĨ
Ġincap
grade
Ø¯Ø§ÙħØ¨ÙĦØ¯ÙĪØ±
ĠAlt
ĠØ³Ù¾ÛĮØ¯Ùĩ
ĠØ®ØµÙĪØµØ§
ĠØ¨Ø§Ø²Ú¯Ø´ØªÛĮ
ĠMinnes
ĠÙĩÙħØ³Ø±Ùħ
Ġfailing
ĠÛ±Û¹Û·Û²
ĠÙħØ§Ø¯ÙħÙĪØ§Ø²ÙĦ
ĠØ¨Ø¯ÛĮÙĩÛĮ
ĠØ·ÙĦØ§ÛĮ
Ġaudio
Ġpencil
ĠØ³Ø§ÛĮØ±ÛĮÙĨ
Ġidiot
Ġeldest
ĠØ¨ÙĬØ´ØªØ±
ĠØ®ÙĪØ´Ø¨Ø®ØªØ§ÙĨÙĩ
Ġneutral
ĠÙĩÙħØ³Ø§ÛĮÚ¯Ø§ÙĨ
GA
Min
boy
je
å¤
ĠØ§Ø±Ø¯ÙĨ
Ġpulse
Ġbend
ÙģØªÙĨ
ĠÙĤØ±Ø§Ø¦
Ġ(,
ĠØ®ÙĪØ¯ÙħÙĪ
ĠÙħÙĪØ§ÙĤØ¹ÛĮ
ĠÚ©Ø§Ø±Ø§ÙĨ
Ġexquisite
ĠGolf
ĠNast
Ġagitation
ĠØ§Ø¹ÙĦØ§ÙĨ
Ġcriter
Ġfollowers
Ġopenly
ĠÙģØ±Ø§Ú¯ÛĮØ±
ĠGrant
ĠØ´Ø¹ÙĪØ±
Ġ1953
Ġà¥
Ġsends
Û±Û¹Û¶Û
Ġmeantime
ĠÙĨÙĪÛĮØ³Ø§ÙĨ
ĠØªØ±Ø¯ÛĮØ¯ÛĮ
Ġwarming
ĠPalace
Ġignore
Ġultimate
Ġpriority
Ġexerc
ĠØ¨Ø±Ø§ÙģØ±ÙĪØ®ØªÙĩ
Ġrecollect
ĠFernand
Ġfabric
97
Av
si
ĠØ´Ø±ÛĮ
Ġfu
uster
ĠNP
ĠÙ¾Ø±Ø³ØªÛĮ
ĠÙ¾Ø±ÙĨØ³
ccer
Ġoverhead
Ġresidence
Ġcoin
ĠØ§Ø¹ØªÛĮ
Ġgenus
Ġsignature
ĠØ¢Ø³ÙĪØ¯Ú¯ÛĮ
ĠØ¯Ø±ÙĪÙĨØ´
ĠÚ©Ø±Ø§ÙĨÙĩ
ĠClar
ropolitan
ĠÙĨÙħØ§ÛĮÛĮÙħ
ĠÙħØ³ÛĮØ±ÙĩØ§ÛĮ
ĠAbout
ĠÛ±Û¹Û·Û·
ĠÎ²
ĠMademoiselle
ĠØ¬Ø¹ÙĦÛĮ
Ġmagnitude
Ġarrange
Ġadvantages
ĠØ¢Ø±Ø²ÙĪÙĩØ§ÛĮ
ĠPalestine
Ġcompositions
ĠChemistry
ĠØ³ÛĮØ§Ø³ØªÙħØ¯Ø§Ø±
Ġluxury
Ter
nia
à¯
Ø§ÙĨÙĪÛĮ
ÙģØ§ÙĦØª
encing
ĠÙħÛĮØ¯ÙĨ
Ġfitted
Ġpaces
Ø§ÙĩØ¨
Ġreaches
ĠSN
ĠCEO
ĠØ¨Ø§Ø²ÙĪØ§ÙĨ
Ġjaw
ĠÚ©ÙĪÙĩÙĨ
ĠÙħØ³ÙĦØ³ÙĦ
Ġspy
avan
Ú©Ø§Ø±ÙĦ
Ġbride
ĠØ§ÙģØªÙĨØ¯
Ġtragic
ĠØ³ÙĩÛĮÙħ
Ġappointment
obby
ĠÙĪØ§Ú©ÙĨ
ĠÙĪØ§Ø³ÛĮÙĦÛĮ
Ø¨Ø±ÛĮØª
Ġcomputation
ĠExpl
ĠØªÙĦÙģØ§Øª
ĠØ¨Ø±Ú¯Ø´ØªÙĨ
Ġspecialized
ĠÙģØ¹Ø§ÙĦØ§ÙĨ
ĠØ§ÙĤØªØµØ§Ø¯Ø¯Ø§ÙĨ
ĠBaron
ĠØ´ÙĩØ±ÙĪÙĨØ¯ÛĮ
Ġcatching
ĠKarl
ĠStephen
Ġbitterly
writing
Ġprivilege
ĠDigital
Ġsurrender
Current
GP
Half
Ori
Rel
eous
ĠâĢĭ
ÚĨÙĦ
Ġascend
ĠAuthor
ifier
ĠRaz
Ġdoct
Ġsoot
ĠÙħØŃÚ©ÙĪ
ĠØ§Ø³Ø¨ÛĮ
arya
ĠChild
Ġlongest
Ġblowing
neys
ĠØ¢Ø±Øª
ĠÚ¯ÙĪØ´Ùħ
Ġdevelopers
ĠØ¯Ø§ÙĨØ³ØªÛĮÙħ
Ġwavelength
nothing
Ġ700
Ġmusicians
ĠÙģÛĮØ³Ø¨
Ġposts
loyed
ĠÛ±Û¹Û¶Û´
Unfortunately
Ġfortnight
ĠØ¯ÙģØªØ±ÚĨÙĩ
ĠØ¨ÙĦÙĪØº
Ġdispute
Ġcontributions
Ġtaxes
ĠCongo
Ġindicates
Ġadvertising
Ġelegant
Europe
?...
ĠØ¯Ø´ÙħÙĨÛĮ
Ø§ÙĨÙĨØ¯
ĠÙĪØ±Ùħ
Ġcage
Ġpuff
ĠØ±Ø§Ø¯Ø§Ø±
ĠÚ¯ÚĨ
ĠØ¬Ø§ÙĩØ§
Ø±ÛĮØŃÛĮ
ĠÚ©ÙĨÚ¯ÙĪ
cephal
ĠÙħÙĪØ¹Ø¸Ùĩ
ĠÙĩØ±Ø²
Ø¨Ø§ØºÙĩ
ĠÙ¾ÛĮØ´Ø±ÙĪ
ĠØªÙĨØ§ÙĤØ¶
Ġmayor
Ġswung
annah
ĠØ§ÙĤØ±Ø§Ø±
Ġ85
ĠÎ¼
ĠDonald
ĠÚ¯Ø§Ø²ÙĩØ§ÛĮ
ĠØ¨ÛĮØ§ÙĪØ±ÛĮÙħ
arca
ĠØ¯Ø±ØŃØ§ÙĦÛĮÚ©Ùĩ
ĠÙģÙĨÙĦØ§ÙĨØ¯
Ġmarrying
ĠÙģÛĮØ²ÛĮÚ©Ø¯Ø§ÙĨ
Ø®ØµÛĮØµ
ĠÚ©Ø§Ø±ÙĩÙĨÛĮÙĨ
Ġmanufacturer
ĠLaurie
ĠRamsay
bear
give
Äį
ÙĩØ§Ø±
ÙħØªÛĮ
inny
Ø´Ùģ
ĠÙĪØ¯Ø±
ĠÙĩØ±Ø§
Ġbald
ĠØ´Ø¹Ø§Ø¹
Ġmunicipal
Ġnaval
ÙĪØ±Ùĩ
ĠØ¨Ø±Ø§ØªÙĪÙĨ
otus
imm
rod
roe
Ø³ÛĮØªÙĩ
resist
ĠTol
Ġchuck
ĠØ§ÙĨØ¯Ø±ÙĪ
ĠÙħØŃØµÙĪØ±
ĠÚ©Ø´Ø´
ĠÙ¾ÛĮØ´Ùĩ
ĠÙĨØ´ÙĪÙĨØ¯
ĠÙĨØ²Ø§Ø¹
ĠØ¢Ø±ÙħØ§ÙĨ
Ġfraction
ĠÙĨØ®ÙĦ
ĠÙħØ§ÙĨØ¯Ùħ
ĠÙģØ¶Ø§Ù¾
ĠØ¯ÙħØ´ÙĤ
Chapter
Ġanimated
ĠÙĨÙģØ³Ø´
ĠÛ¶Û°Û°
Ġ1955
ommod
ĠÚ¯ÙĨØ§ÙĩÚ©Ø§Ø±
ĠØ¨Ù¾Ø±Ø³Ø¯
ĠØ§Ø³Ø±Ø§Ø¦ÛĮÙĦÛĮ
Ġaims
ĠØªØ¨ÙĦÛĮØºØ§ØªÛĮ
ÙħÙĨØªØ¸
Ġexhibition
ĠÙĨÙĪØ²Ø§Ø¯Ø§ÙĨ
ĠØ¨Ø¨ÙĨØ¯Ø¯
Ġstrategic
Ġbetrayed
Ġchampion
ĠFIFA
Ġcoffin
ĠMinnesota
Around
Red
burn
dem
might
tail
ÙħØ§Ø¯ÛĮ
Ø³Ø®Øª
Ø´ÙĪÙĤ
ĠÙĨØ¬ÙĪ
itations
ĠØ¨Ø±ÛĮÙĨ
ĠØ¬ÙĦÛĮ
ĠÙģØ§Ø¶ÙĦ
Ġrendered
Ġweeke
ĠSA
andra
ĠPR
ĠBed
romo
Ø¦Ø§ÙĨ
ĠGry
Ġvoted
ĠEnt
ĠØ±ÙĪÛĮÛĮ
ĠÙĨÙĪØ¬ÙĪØ§ÙĨÛĮ
Ġdislike
oving
bek
ĠÙĪØ±ÙĤÙĩ
Ġcourty
ĠÙģØ¹Ø§ÙĦÛĮ
Ġcrept
ĠÙ¾ÙĪÙĦØ´
Ġsolitude
ĠØ¨ÙĢÛĮ
ĠÙħØ§ÙĦØ²ÛĮ
ĠØ¯Ø±ÙĪÛĮØ¯Ø§
ĠBeau
ĠÙ¾ÙĪØ³ØªØ§ÙĨ
ĠØªÙĪØ±ÛĮÙĨÚ¯
ĠPavel
Ġcollecting
Ġconsumed
Ġmeasuring
Ġviruses
Ġclubs
Ġbullet
Ġalarmed
Ġbonds
ĠØ¢ÙģØ±ÛĮÙĨØ´
ĠVenezuela
ĠÙħØ§Ø±Ø´Ø§ÙĦ
ĠSudan
Ġjuris
98
ME
ouver
Ġhay
ĠMeth
ĠCant
ilm
umm
Ġalike
ĠLincoln
cile
ĠÙħØ¹ØªØ±
Ġ1910
Ġenabled
ĠKa
anga
version
ĠØ¯ÙĪØ³ØªØª
ĠØ¹ÙĦÙĦ
ĠØŃÙĤÛĮØ±
ĠÙģÛĮÙĦÙħØ¨Ø±Ø¯Ø§Ø±ÛĮ
ĠÙħÙĨØªÙĤØ¯
ĠÙħÙĪÙģÙĤÛĮ
Ġopera
ĠÚ¯Ø±ÙħØ§ÛĮØ´
Ġbreathed
door
ĠÛ±Û¹Û¶Û³
Short
ĠBiography
ĠÙħØªØ£Ø³ÙģÙħ
Ġtransparent
Ġoffended
ĠBennet
ĠGadfly
ĠØªØ«Ø¨ÛĮØª
Ġtat
ĠØ¯ØºØ¯ØºÙĩ
Ġbosom
ĠØ®ÙģÛĮÙģ
Ġnort
ĠÙĤÙĪ
ĠSor
usively
ÙĨÚ¯Ø±ÛĮ
Ġlighter
Ġsuited
ortion
ĠÙĨÛĮÚ©ÙĪÙĦ
ĠØ§ÙĨØ¯Ø±Ø³ÙĪÙĨ
ĠØ§Ø³Ú©ÛĮ
Ġdisrupt
Ġamp
ffind
Ġcoarse
ĠÙĪØ±Ø§ÛĮ
Ġfarmer
Ø§ÙĨØªØ¸Ø§Ø±
ĠÙħØ²Ø¨ÙĪØ±
Ġreporting
ĠOrlando
ĠØªØ£Ø«ÛĮØ±Ø§Øª
Ġlimbs
Ġversus
Ġresponses
Ġcivilian
Ġcameras
Ġhistorian
ĠØ®ÙĪØ¯Ø±ÙĪÙĩØ§ÛĮ
Ġfeeding
ĠØ®Ø²ÛĮØ¯
glas
Ġterritories
Ġchallenging
ĠCarlisle
Ġdialogue
ĠØ·Ø±ÛĮÙĤÛĮ
Ø§ÙĨØ¬ÙħÙĨ
ĠÙĦÛĮÚ©Ø±Ú¯Ø³
HO
fold
pin
Ø§ÙģØªÙĩ
Ġsab
ĠØ¢Ø±Ø¯
ĠÙ¾Ø§Ùģ
section
Ġstif
ĠMme
ĠØµÙģØª
arte
Ġchampionship
ĠÙħØªÚ©ÛĮ
ĠÙ¾Ø±ÛĮÙĨ
ĠÙħØ¬ÙĦØ§Øª
ĠØªØ´Ø¯ÛĮØ¯
Ġ43
Ġsimplicity
ĠÙħØ®ØªØµØ±ÛĮ
Ġreadily
ĠØªØ§Ø¨ÛĮØ¯
Ġwinds
ĠÙĦÙĪØ¦ÛĮ
Ġoperates
ficial
Ġreasoning
µÛ¶
ĠÙĨÚ©Ø±Ø¯ÙĨ
headed
ÙģÙĦÙĪØ±
ĠØ¯Ø±ÙħÛĮØ§ÙĨ
Ġdistinctly
ĠÙĦØ¹ÙĨØª
ĠKenya
Ġantibiot
ĠØ²ÛĮØ¨Ø§ØªØ±ÛĮÙĨ
ĠØ±ÙĪØ¨Ø±ÙĪÛĮ
ĠDenisov
ÙħØ³ÙĦÙħØ§
BR
HP
HS
Mother
Note
Pat
cat
came
Ġwax
Ù¾Ø§Øª
Ø¹ÙħÙĩ
ĠÛĮØ£Ø³
ĠÚĨØ±Øª
ĠØ²Ø§Ø±ÛĮ
ĠÙĩÙħÙĩÙħÙĩ
odox
Ø°ÙĩÙĨ
estion
Ġcanvas
ĠØ§Ø³Ú©ÙĦØª
Ġdisgu
ÙĪØ³Ùģ
ÙĦÙĪØ³ÛĮ
ĠØ§ØµÛĮÙĦ
Ġbackwards
Ġprejud
ornis
Ġblows
Ġappet
ĠØªØ´ÙĪÛĮØ´
ĠÙħØ®Ø§Ø¨Ø±
ĠØ´ÛĮØ®
Ġrestored
ĠØ§Ø²Ø¯ØŃØ§Ùħ
----
ĠØ¬ÙĪØ±Ø§ÛĮÛĮ
ĠÙħØ¯ÛĮØªØ±Ø§ÙĨÙĩ
Ġ1954
Ġ1957
Ġutility
Ġbottles
ĠØªÙĨØ¯Ø±
ĠØ³ÙĪØ¯ÙħÙĨØ¯
ĠØ¨Ø¨ÙĪØ³
ĠQueens
Ġirritated
ĠØ§Ø±ØªÙĤØ§Ø¡
Ġcontroversial
Ġjewel
ĠTreaty
ĠAlfred
Ġdisgrace
ĠØ§Ø¨Ø±ÛĮØ´ÙħÛĮ
Ø³Ù¾Ø§Ø³Ú¯Ø²Ø§Ø±Ùħ
ĠMediterranean
Ten
hot
zens
ĠÚ©ÙĪØ±Øª
ĠØ±ÙĤÛĮ
owl
Ø§Ø¨ÙĪÙĨ
Ġ(@
ÙħØ§Ø´ÛĮÙĨ
ĠFu
ĠFriend
ĠKy
ĠKir
ĠØ³ÛĮØ§Ø±Ø§Øª
resses
forward
ĠØ³ÙĪØ§Ø¯
Ġneedle
ĠÙĪØ±ÙĨÙĪÙĨ
ĠØªÙĪÙĦÛĮØ¯Ú©ÙĨÙĨØ¯Ùĩ
Ġdrowned
ĠØ³ÙĨÚ¯Ø§Ù¾ÙĪØ±
Ġlawyers
ĠÙħØ´ØªØ±Ú©ÛĮ
ĠÙħÙĩÙĨØ¯Ø³Ø§ÙĨ
Ġconception
Ġbells
ĠÙħÙĤØ¯ÙħØ§ØªÛĮ
Ġseventy
ĠØ¨Ø±Ø³Ø§ÙĨÙħ
ĠØ¬Ø§Ø³ÙĪØ³
ĠØ§ÙģØ±Ø§Ø·
ĠØ¨Ø´ÙħØ§Ø±
Ġpavement
Ġembedded
ĠÙĨØ§ÙħÙĨØ§Ø³Ø¨
Ang
NET
Put
wich
isen
ĠÙħÛĮØ²ÛĮ
alion
omes
ĠSix
ĠØ¨ÛĮØ³
Ġsections
Ġjury
ĠØ§Ø³Ùģ
raf
ĠÙħØ±Ø³ÙĪÙħ
ĠÙħØ³Ø§Ø¦ÙĦÛĮ
ĠÚĺØ§Ú©
ÙĪØ¨ÛĮÙĨ
ĠØªØ¹ØµØ¨
Ġminded
Ġediting
ĠÙĨÚ¯ÙĩØ¨Ø§ÙĨÛĮ
Ġdesigning
Ġspecified
ĠØ§ÙĤØ¯Ø§ÙħÛĮ
Ù¾ÛĮÙħØ§ÛĮÛĮ
Ġtreaty
Ø³Ú©ÙĪØª
worthy
ØŃØ¯Ø§ÙĤÙĦ
Ġimpatient
ĠPetrovitch
ĠBurgos
Ġdiscrimination
ĠØ§ÙĨÚ¯ÛĮØ®Øª
ĠHeathcliff
ĠÙ¾Ø±ÙĪØ±Ø¯Ú¯Ø§Ø±
ĠØ§Ø±ØºÙĪØ§ÙĨÛĮ
rising
Ġze
ÙĪÙĪØ§
ĠÙĩØ±Ø¯
Ġlamb
Ġwhip
ĠAS
oline
Ġseas
Ġseeds
Ø§ÙĪØ§Ø±
iae
Ġspots
ildred
ĠØ³ÙĪÙĦØ§
ĠØ²Ø¯Ø§ÛĮÛĮ
Ø¯ÛĮØ¯ÙĨ
owski
ĠØ®ÙĪØ§Ø¨ÛĮØ¯ÙĨ
ĠÙ¾Ø§Ø±Ø³
ĠAncient
ÛĮÙĨÚ¯ØªÙĪÙĨ
ĠØ¢Ø²ÙħØ§ÛĮØ´Ú¯Ø§ÙĩÛĮ
ĠØ§ØŃØªÛĮØ§Ø¬ÛĮ
Shall
ĠØªØ§ÙĨÚ©
ĠÚĨØ±ÙħÛĮ
Ġvanity
ĠÙħÙĦØªÙģØª
ĠÙħØŃØªÙĪØ§
ĠØ¨Ø§ÙĦØ§ØªØ±ÛĮ
ĠØ³Ø±Ø³Ø®Øª
ĠÙĩÙħØ¯ÙĦÛĮ
Ġrestricted
Ġshifted
ĠØ®Ø¨Ø±ÙĨÚ¯Ø§Ø±
ĠGilbert
pherd
LP
Vol
fix
name
wart
ÙħØ¨
Ġtut
ĠÙħÙĪØ±ÛĮ
ĠÙħÙħÙĦ
ĠØ¯Ø¨
ĠÙĪØ´
ĠÙĨÚ¯ÙģØªÙħ
Ġcul
orms
ĠÛĮØ§Ø³
Ø¨ÛĮØ³Øª
ĠDream
Ġleaped
Ġ1918
onda
pling
ĠÙĨØ¯Ø§Ø´ØªÙĨ
Ġslipp
ĠÙħÙĦÙĪØ§ÙĨ
Ġmemb
ĠØ¢ÙĩØ³ØªÚ¯ÛĮ
pending
Ġcomputational
Ġawoke
ĠBrad
Ġillusion
Ø´Ø¨Ú©Ùĩ
Ġdropping
ĠÚ©Ø§ÙħÙ¾ÛĮÙĪØªØ±ÙĩØ§ÛĮ
ĠÙģÙĩÙħÛĮØ¯ÛĮÙħ
ÙħÙħÚ©ÙĨÙĩ
ĠÚ¯Ø°Ø±Ø§ÙĨØ¯ÙĨ
ĠÙħØªØ®ØµØµØ§ÙĨ
ĠØ´ØªØ±ÙĩØ§
Ġingen
Ġbreeze
Ø¢Ø²ÙħØ§ÛĮØ´
Ġsearched
ĠDrogheda
ÙħØ±Ø¨Ø¹
Ġvoltage
Ø¯Øª
eric
ĠÙ¾ÙĪÛĮØ§
ĠÙĤÙĢ
Ġstole
ceans
ĠMurd
Ġanat
ĠØ³Ø±Ù¾Ø±Ø³ØªÛĮ
emis
ĠGord
ĠRest
Ġvamp
ĠÙĨÙĩØ§ÙĨ
ĠÙħÙĪØ±Ø¯Ø´
Ġbacks
Ġhandful
Ġfounding
Ġ46
ubb
iolet
Someone
ĠØ®ÙĨØ¯Ø¯
Ġfilling
Ġcease
ĠÎĶ
Ġhosts
Ġtitles
Ġdiscussing
Ġfocuses
Ġchemicals
ancouver
ĠÙħØ¤Ø¯Ø¨Ø§ÙĨÙĩ
ĠKennedy
Ra
piece
ÙĪÙĤÙĩ
Ú©Ø§ÙĨÛĮ
Ġsnapped
ĠÙĪØ¯Ø§
ĠÙĨØªÙĪÙĨ
ĠÙĨØ§Ø³ØªØ§Ø²ÛĮ
Ġfog
alo
ĠÚ¯Ø§Ø±Øª
amine
Ú¯Ø±ÙĩØ§
ĠØ¨ÛĮØ§ÛĮÛĮ
agall
ØºØ±ÛĮ
Ġneuros
ĠDid
ĠTaj
Ġchill
ĠÙĨØ§ÙħÛĮÙħ
Ġresigned
Ġprecip
iban
ĠÙĨØ§Ø±Ø§
Ġdevast
ĠØ²ÛĮØ¨Ø§Ø³Øª
Ġpublishing
ĠÙ¾ÙĨØ§ÙĩÙĨØ¯Ùĩ
Ø¬ÙĨØ³ÛĮ
ĠÙħÛĮÚ©Ø±ÙĪØ¨
Ġidle
Ġprocedures
ĠÚ©ÛĮÙĦÙĪÚ¯Ø±Ùħ
Ø¬ÛĮÙħØ²
ĠÙĩÙģØ¯Ùĩ
Actually
CT
ĠØ±Ø¦
Ġdang
ĠØ±Ø§Ø¬Ø±
Ø§ÙħÙĨ
ØŃØ§Ø¶
ÙĪØ±ÙĪ
ĠØ§ÛĮÙĨØ·ÙĪØ±ÛĮ
Ġgreed
Ġgodd
riel
ĠRand
Ġvot
ĠØ¨Ø§Ø´ÙĨ
oker
Ġloan
ichael
Ġ1914
International
ĠØ´ÙĨÙĪÙĨØ¯
ĠÙħØ·Ø§Ø¨
Ġaccommod
ĠÙħØºÙĦÙĪØ¨
ĠØ¯ÙĤÛĮÙĤÛĮ
Ġmedal
Û±Û·Û
bye
ĠØ®Ø·Ø±ÙĨØ§Ú©ÛĮ
ĠØ¢Ø³ÛĮØ§Ø¨
Ġbasin
Ġviolently
ĠFeisal
ĠØ¨Ø±Ø¢ÙħØ¯Ùĩ
Ġimproving
Ġterribly
ÙĦØ²Ùħ
Ġpanel
ĠØ¨Ø±Ø¯Ø§Ø±ÛĮØ¯
Ġnervously
ĠØµÙħÛĮÙħÛĮØª
ĠÙħÛĮØ¨ÛĮÙĨÛĮØ¯
Ġoverwhelming
Ġdiplomatic
Ġdominant
ĠØ¬ÙĨØ¬Ø§ÙĦ
AX
CI
Elect
Ob
uke
ĠÕ
encia
ĠØ¨ÙĩØ¨ÙĪØ¯ÛĮ
Ù¾ÙĦÛĮØ³
Ø§ÙĦÙĦÙĩ
ĠØ§Ø³ØªØ±ÙĪ
oton
ĠØ¢ÙĨØªÙĪØ§ÙĨ
ĠSin
ĠMi
ĠPed
Ġlob
ĠØ¨Ø§Ø²ÙħØ§ÙĨØ¯Ùĩ
Ġ',
Ġcliff
ĠØ³ÙĪÙĤ
ĠØ³ÙĪÙħÛĮ
ĠØ¨Ø±Ø¯ÛĮÙħ
ighters
ĠØ³ÙĨØ§ØªÙĪØ±
ĠÙħØ³ØªÙĤ
ĠRev
Ġhighway
ĠÙĤØ¨Ø§ÛĮÙĦ
ĠColor
ĠÙĪÙĦØ¯
ĠTeam
Ġ1951
ĠÙ¾Ø³ØªØ§ÙĨØ¯Ø§Ø±Ø§ÙĨ
ĠÛ¶Ûµ
Ġlosses
ĠInterview
Ġscholar
ĠBertram
Ġvaccine
Ø¶ÙħÙĨØ§
Surely
Ġvoyage
ĠØ¨Ø³Ú©ØªØ¨Ø§ÙĦ
Mor
gov
ĠIEC
Ġnoticing
agging
ĠBall
ĠÙģØ±ÛĮØ¯
rape
Ġpeer
Ġard
ĠÙĨØ§Ø®ÙĪØ¯
Ø¨Ø§ÙĨÙĪ
Ġscorn
ĠØ¨Ø®Ø´ÛĮØ¯ÙĨ
ieties
brother
attan
idding
ĠÚ©Ø¯ÙĪÙħ
ĠÛ±Û¹Û´Û±
ĠÙħÙĪØ§Ø¬ÙĩÙĩ
Ġdisposition
etermin
Ġsadness
Ġbelly
ĠÙĩØ¬Ø±ÛĮ
ĠHamilton
ypes
Ġrevenue
ĠÙĨØ§ÙħØ²Ø¯ÛĮ
""
Micro
National
gments
ĠØ¯Ø§ÛĮØ±
ĠØ±Ø¨Ùĩ
ĠØ´ÛĮÙĦ
ĠØ³ÙĤØ·
Ø¹Ø§ÙĦ
Ø¬Ø±Ùĩ
Ġgran
ĠIEEE
ĠØ±ÙĪØ§Ø¬
ĠØ¨ÛĮØ§ÛĮ
ĠPass
ĠBra
umih
Ø¢Ø¯
Ø¢Ø®Ùĩ
Ġchurches
ĠNep
ĠÙ¾Ø±ØªØ±Ùĩ
ĠØ§ÙĦØªÙĩ
ĠÙĨØ¯ÛĮØ¯Ùħ
ĠÙħØ±Ø®Øµ
Ġtwins
ĠØ³ÙĪØ§ÙĦÛĮ
ĠØ§ØµØ§Ø¨Øª
ĠÙģØ±ÙĪÙ¾Ø§Ø´ÛĮ
Ġobed
ĠÙĨÚ¯ÙĩØ¯Ø§Ø±
Ø®ÙĪØ±Ø¯Ú¯ÛĮ
ĠØ¢ØªØ´ÛĮÙĨ
Ġmagazines
Ġspacecraft
Ġbarg
ĠÛ±Û¹Û´Û·
Ġchoosing
ØµÙĪØ±ØªØ´
Ġwithdrew
Ġembarrassment
Ġjealousy
ĠHungary
ĠSerbia
Ġplunged
,...
Û¶Û
Ø¹Ø§ØªÛĮ
Ġduck
ĠÙ¾ÙĦÙĪ
ĠØ¨Ø§ÙĤÛĮÙħ
Ø§ÙĦÚ¯
ØŃØ¯Ø³
ĠØ¬Ø§ÙĪØ§
sex
ilian
ĠØ¯ÛĮÚ©Øª
ĠÙ¾ÛĮØª
ĠLike
ĠÙħØªÙĤ
ÙĩÙħØ±Ø§Ùĩ
rug
Ġdisli
Ġarise
ocols
Ġregul
Ġpatent
ÚĨØ§Ø±ÙĦØ²
Ġorient
Ġoriginated
apper
ĠØ®ÙħÛĮØ±
ĠÙª)
Ġjudged
Ġsadly
ĠØ¬Ø§Ø¯ÙĪÛĮ
Ġacknowledge
ĠÙħØªØ§Ø³ÙģÙħ
Ġobscure
Ġexpedition
Sy
trans
Ú¯Ø§ÙĪ
ĠÙĨÛĮÙĨ
ĠÙħÛĮÚ¯ÛĮØ±
ĠÙħÛĮÚ¯ÙĨ
orient
esome
ĠØ®Ø¯Ø§ÛĮÛĮ
Ġdanced
ĠÙ¾Ø§ÛĮÛĮ
ĠPitty
ĠÚ©Ø§Ø±Ø§
ĠÙ¾ÛĮÚ¯ÛĮØ±ÛĮ
ĠTell
ĠHur
ĠFau
Ġcompat
ÙĪØ§Ø¶
Ø´ÙĨØ§Ùħ
Ø§Ú©ÙĪ
ĠØ¶Ø§ÛĮ
ĠØ¨Ø´ÙĪÛĮØ¯
2012
ĠPlace
ynasty
Ġstatements
ĠØ§ÙĨØ¯Ø§Ø²ÙĨØ¯
Ġmadame
ĠMercedes
IPS
Ġtricks
Ġhorizont
Ġarrangements
Ġassembled
Ġchaos
Ġbewildered
Ġmingled
umihin
62
Air
Back
var
Ø±Ú©Ùĩ
Ø³Ø§ÛĮÙĩ
ĠÚ©ØªÛĮ
Ġhi
ĠØ¨Ø±Ø§ÙĨØ¯Ø§Ø²
ĠÚĨÚ¯Ø§ÙĦÛĮ
stood
Ġstability
ĠBush
Ġrude
Ġshudder
ĠNon
ĠØ§Ø³ÙĢØª
ĠÙĨØ¯ÙĪ
Ġdishes
Ø§Ø®ÙĪØ±ÛĮ
ĠÙĨØ¨ÙĪØ¯ÙĨ
Ġnevertheless
ĠÙĨÚ©ÙĨÛĮ
ÙħØ¯ÛĮØ±
akespe
Ġtrend
ĠÙģÙĩÙħÛĮØ¯ÙĨØ¯
Ġtribe
ĠÙĪØ§ÙĦØ§
ĠÙħØ²ÙħÙĨ
uffled
Ġ1934
Being
ĠÙħØªØ±Ø¬Ùħ
Ġmorality
Ġimmort
ĠÛ±Û¹Û´Û²
ĠÙħØ§Ø³Ú©
ĠÙħØ§Ø³Ø§ÚĨ
ĠÚ¯ÙĪØ±Ø³ØªØ§ÙĨ
Ø®ÙĪØ´ØŃØ§ÙĦ
ĠJustine
ĠØ¯Ø²Ø¯ÛĮØ¯Ùĩ
Ġownership
ĠEthiop
Ġsubstantial
ĠØ²ÛĮØ±Ø¯Ø±ÛĮØ§ÛĮÛĮ
Ġsophistic
ĠÙ¾Ø§ÙģØ´Ø§Ø±ÛĮ
ÙĪÙĪÙĨ
ĠÚ©ÙħØ§
Ġsinking
ĠÙħÛĮØ±ÛĮ
ĠÙħÛĮØ±Ø³
ĠØ¨Ø§ÙĦÙĩ
ĠÚ¯Ø§ÙĦÛĮ
Ġbears
ĠBir
ĠØ¯Ø³ØªÚ©Ø§Ø±ÛĮ
Ġlovers
Ø¹ÛĮÙģ
Ġintrig
ĠØ±ÙĪÛĮØ§
Ġagitated
awl
Ġacids
Ġslope
ĠØ¢ÙħÙĪØ²Ú¯Ø§Ø±
cover
ĠØ¨Ø§Ø²Ú¯Ø´ØªÙĨØ¯
Ġsensors
Ġsnake
ylon
ĠÙģØ§Ø±Ø³
ĠBerkeley
1999
yrics
ĠØªÛĮÙĦÙĪØ±
ĠÙĩÙĪØ´ÛĮØ§Ø±ÛĮ
Ġemphasis
Ġcortex
ĠØ§Ø¦ØªÙĦØ§Ùģ
ĠÙģÙĪØ§ØµÙĦ
ĠØ§Ø¹ØªÛĮØ§Ø¯
61
Script
heel
ĠØ¯Ø§ÛĮÛĮ
Ġsi
ĠØªØ®ØµÛĮØµ
ĠÙĨÙ¾Ø°ÛĮØ±
Ġbio
Ġmant
Ø¬Ø³ØªØ§ÙĨ
ĠØ¨Ø§Ø³
Ø·ÙĪÙĦ
Ú¯Ø±Ø§Ø¯
Ú¯Ø±Ø§ÙģÛĮ
ĠGarth
ÙĨÛĮÚ©ÙĦØ§ÛĮ
arting
ĠFall
ĠÙħØ¹Ø´ÙĪÙĤ
ĠØ§Ø±Ø¬Ø§Ø¹
ĠÚ©ÙĦÙĪ
Û°Û±
ĠØªØ¹ÙĪÛĮØ¶
ĠAramis
ĠÙħØ³ØªÙĦØ²Ùħ
Ġdiscont
ollen
uset
........
Ġveil
ĠØ´Ø¹Ø§Ø±
Ø´ÙĪÙĨÙĪ
Ġglobe
ĠÙĨØ¨Ø§Ø´Ùĩ
Ġborne
ĠØ¨Ø§ÛĮØ³ØªØ¯
Ø¬Ø§ÛĮØ²Ùĩ
Ġmanufactured
Ġestimates
ĠØ®ÙĦØ§ÙĤØ§ÙĨÙĩ
ĠArchitecture
ĠLewis
Ġtrillion
ĠÚ¯ÙĪÙĨÚ¯Ø§ÙĦ
wind
whether
ØªÙĦØ§Ø´
ĠÙħØ®ÙĪÙģ
ĠÚ©Ø¨ÙĪØ¯
ĠØ´Ø³ØªÙĩ
ĠØ¢Ø¬Ø±
Ġpic
Ġreferences
ĠDal
ĠÙħØªÙĪÙĨ
ĠÙħØŃÚ©ÙħÛĮ
rys
Ú©Ø±Ø§ÙĨ
ĠÙħØ¹ÙĤÙĪÙĦ
inked
ĠØªØµÙĪØ±ÛĮ
ĠÚ¯Ø±ÙĪÚĨÙĨ
ĠÙĦÛĮØ¨ÛĮ
ĠÙ¾Ø§Ø±ÙĪ
Ø²ÙĦØ²ÙĦ
ĠØ³ÙĨØ¬ÛĮ
ĠÙĩÙĪØ´ÙħÙĨØ¯Ø§ÙĨÙĩ
Ġphrases
ĠÙĨÚ¯Ø°Ø§Ø´ØªÙĩ
occup
ĠØ®ÙĪÙĨØ³Ø±Ø¯
ĠDamascus
ĠLaboratory
Ġamusement
Ġâģ¡
ĠÙħØ·Ø§Ø¨ÙĤØª
LT
tw
Ø´Ø§ÙĨÙĩ
ĠØªØ§Ø²ÛĮ
anim
Ġdual
ĠØ¨Ø±ÙĨÚ¯
ĠÙĤØ§Ø·Ø±
ĠØªÙĪØ´
ĠÙģØ±ÙħØª
Ġprosecut
ĠFut
Ġupright
ĠØªÙĨØ§Ø³Ø¨
Ġindigenous
Ġdepict
Ġtrail
Ġreceiver
ĠØ¨Ø§Ø¯Ø¨Ø§ÙĨ
Ġimaging
ttes
Ġstatistical
Ġrobes
Ġurgent
Ġaddresses
Ġcompete
ĠÙ¾Ø§Ø±Ú©ÛĮÙĨÚ¯
Ġclimbing
ĠØŃØ§Ú©ÙħÛĮØª
ĠØ³ÛĮØ¯ÙĨÛĮ
ĠØ¨ÙĨÚ¯ÙĦØ§Ø¯Ø´
ĠÚ¯Ø±ÛĮÙģÙĨØ¯ÙĪØ±
ĠÙĨØ§Ø±Ø§Ø¶ÛĮ
Ha
Peter
dad
æľ
ĠÚ©Ø§Ø¬
Ø§ÙĨØ§ÙĨ
erated
ĠØªØ·
Ġfount
ÙĪÙĨÛĮÙħ
ĠÙģØŃØ´
utive
eta
ilight
ĠGerald
Ġvocal
ĠHug
ĠHipp
Ġleague
ector
ĠØ§Ø¬Ø¨Ø§Ø±
Ġhumour
ĠÙģØ±Ø§Ø®ÙĪØ§ÙĨÛĮ
Ġpatron
ĠØ±Ø§Ø³ØªØ§ÛĮ
ĠØ¯Ø±ÛĮØ§Ø¨Ø¯
ĠØ³ÙģØ±ÙĩØ§ÛĮ
ĠBeat
µÛµ
Ġveloc
ĠØ¢ÙĩÙĨÚ¯Ø³Ø§Ø²
ĠØªÙĪØ±ÙĪ
Ġdestro
ĠØ¨Ø±Ø¬Ø§ÛĮ
vanced
Ġfacil
ĠØªÙĪÙ¾Ø®Ø§ÙĨÙĩ
Ġhistorians
Ġpunish
Ġlibraries
Ġdeparted
Ġscreamed
ĠÙĨØ§ÙĤÙĪØ³
ĠØ³ÛĮØ§Ø³ØªÙħØ¯Ø§Ø±Ø§ÙĨ
Ġcontradict
Ø§Ø·ÙĦØ§Ø¹Ø§Øª
CN
cz
fig
ÏĤ
ÙħØ§Ø±Ú©
ĠÙĨØ´ÛĮÙĨØ¯
ĠØ¯Ø±Ø¨Ø§ÙĨ
ĠØ³ÙĪÛĮÛĮ
asi
lyn
ĠØŃÙĦÛĮ
ĠÙĩØ§Ùī
ĠMong
Ġdeeds
Ġraces
Ø§Ø³Ø§Ø²ÛĮ
ersion
ĠEye
ĠÙĨÛĮØ§ÛĮØ¯
Ø¨Ø§Ø¹
Ġ1915
ĠÚ©ÙħØ¨Ø±ÛĮØ¬
ÙħÙĪÙģ
achuset
Ġcoverage
ĠØ¢ÙĦØª
ĠØªÙĪØ§ÙĨØ³ØªÛĮØ¯
ĠÙħØ§Ø¯Ø±Øª
ĠÚ©ÛĮÙģÛĮ
Ġ53
ĠØŃÙĦÙĤ
comp
ĠØ§ÙĤØ¨Ø§ÙĦ
Ġadvised
ĠØ¯ÙĪÙĨÛĮÙħ
Ġspeakers
ĠÙĦØ°ØªÛĮ
ĠÛ±Û¸Û³Û
Ġvolumes
Ġcombine
1998
Ġharmony
ĠÚĨØ§ÙĤÛĮ
ĠØ¢Ú©ÙĨØ¯Ùĩ
ĠØ´ÛĮØ·ÙĨØª
ĠØ±ØŃÙħØ§ÙĨÙĩ
ÙĨÙĤØ´Ùĩ
Ġphenomena
ĠØ¬ÙĪØ§ÙĩØ±Ø§Øª
ĠÙĨÛĮÙĪØ²ÛĮÙĦÙĨØ¯
ĠÙĪÛĮÚ©ØªÙĪØ±ÛĮØ§
akespeare
ĠÙħØ§Ø³Ø§ÚĨÙĪØ³Øª
Journal
heres
Ġsque
Ġwagon
erals
itational
llers
star
ĠIng
Ġwelf
ĠCreat
ĠÙĦÚĺ
usha
ĠØªÙĪÙģØ§ÙĨ
antry
ĠLinton
ĠTun
ĠWick
asso
Ø´ÙħØ§Ø±Ùĩ
ĠÙħØ§ÙĨØ¹ÛĮ
Ø§ØµØ·
Ġbacked
Ġglancing
ĠØºØ°Ø§Ø®ÙĪØ±ÛĮ
ĠØ¢Ø³ÙģØ§ÙĦØª
Ã©n
ĠÙ¾ÙĦØª
ĠØªØ±ÛĮÙĦÛĮÙĪÙĨ
ĠTrust
ĠÛĮÙĪÙĨÛĮÚ©Ø³
ĠÛ±Û¹Û¶Û¶
ĠMadrid
ĠØ±ÙĪÙĨÙĤ
Ġpanels
ĠØ¨Ø±Ø§ÙĨØ§Ø¨ÙĪØ³
ĠÙħÙĨØµØ±Ùģ
Ġhideous
ĠFermina
Ġastronom
ĠØ§Ø¨Ø±ÛĮØ´Ùħ
ĠÙĤÙĩÙĤÙĩÙĩ
achusetts
THE
rator
uated
Ġarous
ĠÚ¯Ø§ÙĨ
ĠØ§Ø³ØªÙģ
ĠMovie
ifully
ĠBit
eland
ĠFat
ĠØ¨Ø§Ø²ÙĪÛĮØ´
Ġthereby
ÛĮÙĦØª
ĠØªÙĨØ¨ÙĦ
Ġcompiler
inted
ĠÙĨØ³ÛĮÙħ
ĠØ¢Ø¨Ø±ÙĪ
Ø¨ÛĮÙĨÙĪ
Ġmetres
Ġhighlight
Ã©t
ĠÙħØ·Ø§ÙĦØ¨ÛĮ
Ġcontrolling
Ġlively
Ġsummit
Ġradi
Ġposted
Ġacquainted
ĠØ§Ø¶Ø·Ø±Ø§Ø±ÛĮ
Ġringing
ĠÙĨÚ¯Ø§Ø±Ø´
Ġvulgar
Ġcolumns
ĠÙĦÛĮØ²Ø±
ĠØ§Ø¯ÛĮØ§ÙĨ
ĠSonya
ĠØªØ§ÛĮÙĦÙĨØ¯
ĠØºØ±ÙĪÙĦÙĨØ¯
ĠÚ©Ø§Ø±Ø¯ÛĮÙĨØ§ÙĦ
ĠÙģÛĮØ³Ø¨ÙĪÚ©
LC
sch
Ø±Ø¨ÛĮ
Ġinjust
leine
imony
ÙħÛĮØ³
ĠÙĩØ§Ø´Ø§ÙĨ
Ġhaired
ĠBran
Ø¢Ø±Ø²
ĠÙĨÙħÛĮØ®ÙĪ
ĠHassan
outed
iah
Ġunsu
ĠObs
ĠÙ¾Ø³Ø±Ø¨ÚĨÙĩ
Ġclergy
cled
ĠØ³ÙĨØ³ÙĪØ±
Ġelabor
Ġdrown
anni
ÙħÛĮØ²Ø§ÙĨ
elson
ĠØªÙĩÙĪÛĮÙĩ
Ġwinners
Ġboundary
ĠØ¨ÙĪØ±Ø³
Ġinquir
Ġjournalism
Ġcrops
Ġswallowed
Ġfortunate
ĠStatistics
Ġdoubts
ĠØ§ÙĨÙĤØ±Ø§Ø¶
ĠØ¨ÛĮÙĪØªÛĮÚ©
ĠØ¨Ø§ÙĤÛĮÙħØ§ÙĨØ¯Ùĩ
Ġwelfare
Mill
Sub
new
ÙĨÙģØ±
ÙħØ§ÙĦÛĮ
heard
ĠÙĨØµ
ĠÙĨÚ¯Ø°Ø´ØªÙĩ
Ġfiber
Ġmice
Ġlem
ĠØ¬Ø±Ø§Øª
stru
ĠÙģÙĢ
ĠØ¢ÙĨØ¬Ø§Ø³Øª
idable
ĠØ§ÙĨÙģØ±
opic
ĠBecause
oslav
ĠDom
ĠDaddy
ĠNov
ĠÙĨØ§Ø´Ø±
Ġoverl
Ú©Ø³Ù¾ÛĮØ±
Ġdiffer
Ġ_,
Ġattorney
Ġsurgeon
ĠÙħÙĩÙħÙĩ
Ġairpl
ĠÚ¯ÙĦÙĪÛĮ
Ġreaders
Ġdefic
Ġwarfare
ĠØ³Ø±Ø¯Ø¨ÛĮØ±
Ġpropos
Ġreligions
Ġmembership
ĠØ§ÙĨÚ¯Ø´ØªØ§ÙĨØ´
Ġvertical
ĠDavis
ĠØ³ÛĮÙĨÙħØ§ÛĮ
Ġshopping
ĠØ§ÛĮØ²Ø§Ø¨ÙĦØ§
Ġinfections
Ġvaguely
ĠÙģÛĮØ±ÙģØ§Ú©Ø³
Ġcomprehe
Ġremoval
ÙħØ³ØªÙĤÛĮÙħ
ĠAdministration
ĠUrbino
Hence
ĠØ¨ÙĤØ§
ĠÙĪØ§Ùĩ
oning
oub
Ġmu
ĠØ¢Ø±ÙĪ
Ġdub
Ġgn
Ø´ØªØ§Ø¨
ĠØ®ÙĪØ¯Ø®ÙĪØ§ÙĩÛĮ
ĠPont
Ġmeals
ĠØ§Ø³ÙħØ§
ĠÙħØ´Ø§ØºÙĦ
asses
Ġcompact
ĠØªÙħØ§ÙħØ§
ĠÙĨØ´Ø¯Ùħ
Ġactively
Ġlonging
ĠØµØŃØ±Ø§ÛĮÛĮ
Ġchildish
ventually
ĠRef
ĠØªÙģÚ©ÛĮÚ©
Ġtraff
Ġcellular
Ġexpectation
Ġcompliment
ĠØ³ÛĮÙħØ§ÛĮ
ĠÙħÙĩØ§Ø¬Ùħ
ĠCrus
ĠApollo
ĠØ±Ø¨ÙĪØ¯Ùĩ
ĠToronto
ĠConserv
ĠÙ¾Ø±Ø§Ú©ÙĨØ¯
Ġhedge
ĠÚ¯Ø±Ø§ÙģÛĮÚ©ÛĮ
FS
Lou
brew
liness
Û±Û°
ĠØ¨ØªØ±
Ú¯Ø§ÙĦ
Ø§Ø±Ø¶
ÙĨØ¯Ø§
isse
ĠØªØ´ÛĮ
itative
Ġbol
Ø¸Øª
ĠØ¯ÙĪØ²ÛĮ
Ġconject
ĠGrigory
ĠLt
ĠFare
ÚĺØ§
ĠÙħØªØ§Ø¨
ometer
ĠUniverse
Ø§Ø´Ú©
Ġdistances
grat
Ġfraud
ounia
ĠZh
ĠÚ©Ø§ÙĨØ²Ø§Ø³
ĠÙģØ±Ø³ØªÙĨØ¯Ùĩ
ĠØªÛĮØºÙĩ
ĠØŃÚ©ÙĪÙħØªÛĮ
ĠPeru
ĠAngel
Ġvariations
ĠMoz
ĠMilan
Ġrubber
Ġphysicist
ÙłÙł
ĠÙĨÚ¯Ø°Ø§Ø´Øª
Ġimpatiently
Ġticket
Similarly
Ġcavalry
ĠÙĤÙĪØ±Ø¨Ø§ØºÙĩ
Ġcourtyard
ĠÚ¯Ø±ÙĪÚĨÙĨÚ©Ø§
!.
LE
ĠÙĪÙĤÙģ
Ġnick
owered
ĠÙĤØ§Ø´ÙĤ
ĠMes
ĠØ®ÙĪØ§Ø±ÛĮ
ØºÙħÙĩ
Ġracing
Ġkin
ĠRFC
ÙĪØ±ØªÙĨØ³
Ġdescent
ĠØ¢ÙĨÙĩØ§Ø³Øª
ĠInn
ĠØ¢ÙĦØ¨Ø±
Ú©ÙĪÙĪØ±
ĠThurs
ĠÙħÛĮØ²Ø¨Ø§ÙĨÛĮ
Ġmetals
ĠÙħØ®ÙģÙģ
ĠØªÚ©Ø§ÙĨÛĮ
ĠÙħÛĮÙĦØ§ÙĨ
ĠØ®ÙĪØ¯ÙħØ®Øª
insula
ĠNewton
ĠÙħÚ©ÙħÙĦ
Ġadvances
ĠØ®Ø¯ÙħØªÚ©Ø§Ø±Ø§ÙĨ
Ġpropose
Reg
Ġalbums
ĠÛ±Û¹Û³Û¹
Ġplanted
ĠØ¢ÙģØ±ÛĮØ¯Ùĩ
Ø§ÙĦÙĪØ®ÙĪÙģ
ĠØµØ§Ø¯Ø±Ø§Øª
Ù¾Ø§ÙĨØ²Ùĩ
Ġtorment
BSD
ĠØªÛĮÙĦÙĨÛĮ
ØªÙģØ§ÙĪØª
achelor
Ġadjacent
92
Ev
Pyth
ÅĦ
Ú©Ø§Ø¨
ĠØ§Ù¾Ø±Ø§
ĠÙħØ§Ø¯ÙĦÙĨ
ĠÚ©Ø§Ú©
Ø²Ø±
Ġbarn
Ù¾Ø´
Ġpains
ĠØ¨Ø±Ø§Ùħ
urrection
Ø±Ø§Ø¬Ø¹
Ġathe
ĠØªØ±ÙħÛĮÙħ
Ġsuck
Ġvoting
ĠØ®ÙĪØ§ÙĩØ±Ùħ
ĠJasper
pert
ĠØªÙĨÚ¯ÛĮ
ĠØ²ÛĮØ±ÛĮÙĨ
ailand
Ġregulations
Ġexpon
ØªØ§ÙĨÙĦÛĮ
ieth
Ġdrunken
Ġvariation
bedeff
pring
Ġbaron
Ġarmies
ĠØ¨ÙħØ¨Ø§Ø±Ø§ÙĨ
ÙħØ´Ø®Øµ
Ġutmost
Ġrepeating
ĠØ±Ø³Ø§ÙĨØ¯ÙĨØ¯
Ġderiv
Ù¾ÛĮØ±Ø²ÙĨ
ĠÙħÛĮØªÙĪØ§ÙĨÙĨØ¯
Ġenjoyment
Ġfrost
Ġranked
ĠØ§ÙĨØŃØ±Ø§Ùģ
ĠÙĥØ±Ø¯Ùħ
Ġmythology
ephal
Ġbubble
Ġdismissed
Ġsovereign
ĠÙħÛĮÚ¯ÙĪÛĮÙĨØ¯
gage
giving
viously
ÛĮØ§ÙĨ
Ø§ÙĨØ±ÚĺÛĮ
ĠÙĪØ§ÙĦÛĮ
ĠØ³Ú¯ÛĮ
Ġpix
ĠÙ¾ÙĦØ§Ø³
ĠÛĮØ®ÛĮ
roit
Ġ((
ĠÙĦØ§ÛĮÙĨ
than
estyle
ĠHave
ĠHalf
ĠHoll
ĠÚ¯Ø±Ú©
ĠÙħØ¹Ø¯Ùĩ
ĠÙ¾Ø±Ø®
ĠØ§ÙĦÙħ
ĠØ´ÙĪÙĨØ¯Ùĩ
ĠÙħØ¯ÛĮØ¯ÛĮ
merdy
ovich
bean
Ġimposed
Ġsubmit
ÙĦØ³ÙĪÙĨ
ĠÚ¯Ø±ÛĮØ®ØªÙĩ
ĠØ³ÙĨÚ¯ÙģØ±Ø´
Ġdivisions
ĠAbb
ĠJuan
Shannon
Ġmeasurements
ĠØ§Ø±Ø¨Ø§Ø¨Ø´
Ġrenamed
Ġmortality
ĠRochester
ĠÚ©Ø±ÙĪÙħÙĪØ²ÙĪÙħ
ĠÙħÙĨØ´Ø£
Ġnegotiations
58
Bar
Mac
ĠØ¨ÙħÙĪ
ĠØ§ÙĩØ±
inence
Ø´ÙĦÛĮÙħ
Ġsits
Ġwounds
ĠØ³Ú©ØªÙĩ
ĠÛĮØªÛĮÙħ
ĠØ§Ø³ØªÙĩ
ÛĮÙħØ§ÙĨ
ĠÙħÙĨØ§ÙĤ
ĠMord
ĠMaur
Ø±Ø§Ú©Ùħ
Ø¢ÙĨÛĮ
ĠGav
ĠÙĨØ§ÙħÛĮØ¯ÙĨØ¯
Ġsphere
ĠÙĨØ§Ú¯ÙĪØ§Ø±
ĠÚĺØ§ÙĪØ±
Ġentreat
Ġpassive
Ġexamining
ĠShort
ĠØ®ÙĪÙĨÛĮÙĨ
Ġeconomies
Ġorigins
Ġanguish
ĠEnglishman
ĠÙħØ¯ÛĮÙĪÙĨ
Ġtreatments
Ġmissions
ĠØ§Ø³ØªØ«ÙĨØ§ÛĮÛĮ
ĠÚ¯ÙĪØ±ÛĮÙĪ
ĠRoger
Ġlegislation
ĠÚĨØ§Ø¨Ú©
ĠOntario
wegian
Ġunnecessary
BG
LS
pes
ĠÚ©Ù¾
ĠÙĪØ§Ø±ÛĮ
Ġtoxic
Ġlion
ÙĦØ§ØŃÛĮ
ilan
ĠØ¨ÛĮÚ¯
ĠÙĦÙĪØ¨
ĠBog
oren
ĠØªØ§Ù¾
Ø¨ÙĩØ±
ĠØ³Ø±Ø¨
Ø¢ÙĨÙĩ
Ú©ÙĩØ§Ùħ
ĠTree
ĠEmer
ĠÙĨÛĮØ§ÙĪØ±Ø¯Ùĩ
ĠKaterina
henka
ĠØ´ÙĩÙĪØª
eches
Ø±ÛĮÙĨÚ¯
Ġhelic
ĠÙģØ¹ÙĦ
irling
Ġextinct
Ġsentences
Ġstrongest
µÛ·
Ġrevolt
ÚĨØ±Ø§Øº
ĠØ¨ÛĮØ¯Ø§Ø±ÛĮ
ØµÙģØŃÙĩ
Ġarchitectural
ĠÙ¾Ø±ÛĮØ´Ø§ÙĨÛĮ
books
Ġelementary
Ù¾Ø±ÙĪÚĺÙĩ
ĠJacques
ĠØªÙĪÛĮÛĮØªØ±
ĠÙĪØ§Ú©ÙĨØ´ÛĮ
ĠGryffind
merdyakov
laya
ml
ØªØ¦
Ø³ÙĦÛĮ
Ġsizes
ÙģÙĪØ±Ùħ
ĠØ±ÙĨØ¯
ĠØªÙĢØ§
Ġcunning
Ġft
Ġfame
ĠØ³Ø³
ĠØ³Ú¯ÙĪ
alie
ĠØ¨Ø±Ø§ÙĨØ¯
Ġrecip
ĠÙħÙĨØ§Ø¸
Ø¦ÛĮÚ©
ĠGet
blem
Ġclay
ĠØ¨Ú¯Ø±ÛĮ
Ġworksh
ĠØ³Ø§Ø²Ùħ
ĠÙĩÙħÚĨÛĮÙĨ
ĠØªØ¬ÙĪÛĮØ²
ĠØ³ÙĪÛĮØ´
Ġmeanwhile
ocks
Ġtrigger
ĠÙĪØ§ÙĦØ§ÙĨØªÛĮÙĨ
Ġengaging
ĠØ¨Ø±Ø§Ø¯Ø±Ø²Ø§Ø¯Ùĩ
Ġ1931
Ġjoining
Ġtravels
Ġpenalty
Ġquantities
Ġrepeatedly
ĠBrazilian
Using
Ġcircuits
Ġdialect
ĠÙĨÛĮÙģØªØ§Ø¯Ùĩ
something
ĠØ§ÚĺØ¯ÙĩØ§
Ġhammer
ĠØ§Ø±ÙħØºØ§ÙĨ
tainment
vial
Ø¯Ú¯ÛĮ
ĠØ¨ÙĪÙĤ
ĠÚ©ÙĪØ±ÛĮ
ĠÙĤØŃ
Ø§Ø¨Ø±Ø§
ĠCold
ĠØµÛĮØ¯
ĠGÃ¼
ĠLower
Ġmanaging
ÙĨØ§Ø¦ÛĮ
sole
Ú©ÙĦÙĨ
these
Ġtraces
Ġblown
Ġeyel
awed
odynam
phia
ĠØ¸Ø±ÙĪÙģ
armed
Ø¯Ø§ÙĨØªØ³
Ġcuriously
ĠLeo
ĠØ§ØªÙģØ§ÙĤØ§
Ġcapabilities
Ġunto
ĠØ¨Ø³Ø·
Ġdesignated
ĠØªØµÙĪØ±Ø´
ĠÙħÛĮØ¯Ø§ÙĨÛĮØ¯
Ø²Ø§Ø¹ÛĮ
ĠÙĪØ§Ø±Ø«
ĠØ³Ø§ÙħØ§ÙĨ
[...]
